， 133170
的 132789
、 98500
和 79679
/ 42746
. 32288
； 32287
第 29651
在 28366
年 24143
。 21599
号 20875
》 20428
《 20427
联合国 19699
月 19287
决议 18708
并 18034
日 17845
会议 14650
国际 14330
到 13657
大会 12258
委员会 12031
发展 11516
报告 11430
其 11324
国家 10807
12 10510
A 10501
问题 10225
( 9715
) 9705
是 9591
特别 9524
对 9187
组织 9065
与 9020
包括 8833
秘书长 8704
注意 8690
执行 8644
有关 8507
关于 8436
以及 8192
社会 7902
或 7724
及 7661
通过 7640
其他 7290
所有 7176
以 7102
区域 7071
请 6922
为 6919
&quot; 6511
合作 6339
公约 6330
） 6325
（ 6320
中 6292
人权 6258
提供 6197
1 6117
各国 6092
： 6067
经济 6040
继续 6028
向 5852
促进 5851
建议 5846
方案 5474
方面 5353
2 5349
所 5332
行动 5315
情况 5275
地 5272
回顾 5265
又 5162
工作 5146
根据 5144
各 4992
活动 4989
加强 4986
机构 4921
安全 4890
3 4868
重申 4775
政府 4761
决定 4678
不 4634
附件 4616
4 4566
将 4562
6 4341
和平 4309
确保 4306
提出 4288
段 4244
可 4186
努力 4132
强调 4127
采取 4113
7 4019
9 4015
见 3996
措施 3984
这些 3965
规定 3924
欢迎 3918
进行 3913
而 3899
鼓励 3877
该 3864
会员国 3809
考虑 3678
11 3672
8 3655
系统 3641
上 3624
5 3562
有 3527
持续 3467
世界 3437
10 3435
发展中国家 3382
理事会 3367
了 3362
及其 3355
宣言 3322
缔约国 3309
保护 3292
同 3249
- 3230
必须 3214
援助 3214
需要 3203
55 3181
应 3148
条约 3132
目标 3114
内 3107
领土 3105
审议 3033
儿童 3020
人民 3016
实现 2989
各项 2983
妇女 2959
2002 2941
支持 2941
有效 2924
吁请 2854
下 2850
影响 2840
权利 2825
日至 2823
2000 2797
2001 2778
认识 2745
技术 2739
次 2722
2003 2699
就 2690
充分 2687
相关 2678
管理 2643
57 2602
2005 2579
进一步 2577
建立 2527
行为 2502
由 2496
消除 2492
能力 2443
适当 2441
56 2436
使 2431
协调 2430
举行 2426
本 2408
作出 2397
文化 2391
其中 2382
58 2334
记录 2327
这方面 2327
资源 2325
一切 2310
20 2303
原则 2300
2004 2281
正式 2281
领域 2275
人员 2269
协助 2225
第六 2225
审查 2189
巴勒斯坦 2177
23 2174
草案 2173
敦促 2155
国 2136
非洲 2124
基金 2119
作用 2117
核武器 2112
人道主义 2111
项目 2102
间 2101
还 2082
59 2080
15 2069
必要 2063
作为 2044
协定 2034
60 2033
教育 2033
全体会议 2031
任何 1996
参与 1984
确认 1983
实施 1972
使用 1963
补编 1962
一个 1944
于 1930
22 1928
时 1921
． 1910
政策 1906
裁军 1906
按照 1898
表决 1878
者 1870
提交 1844
之间 1842
法律 1833
, 1825
任务 1821
开展 1820
难民 1812
全球 1811
进程 1809
14 1804
自由 1801
以便 1793
61 1780
题为 1740
宪章 1728
首脑会议 1716
全面 1705
战略 1701
被 1700
承诺 1693
人 1687
关切 1676
议定书 1668
重要 1654
13 1650
16 1647
新 1635
以色列 1632
议程 1632
2006 1629
事务 1629
要求 1615
同时 1592
支助 1564
18 1558
代表 1555
非政府 1547
形式 1542
各种 1541
成果 1522
中心 1518
政治 1516
环境 1507
防止 1506
等 1499
义务 1498
取得 1497
1999 1483
更 1474
非法 1473
尤其 1460
进展 1460
17 1455
国际法 1451
它们 1442
邀请 1438
打击 1436
信息 1434
54 1429
办事处 1426
票 1425
19 1421
基本 1417
21 1409
尊重 1407
S 1405
未经 1403
利用 1396
预算 1396
纲领 1394
提案 1384
表示 1384
条 1372
重要性 1368
方式 1366
可能 1360
赞赏 1360
框架 1358
安排 1351
反对 1345
文件 1342
阿富汗 1342
秘书处 1336
范围 1325
卷 1324
解决 1320
计划 1317
千年 1307
犯罪 1301
62 1295
届 1294
提高 1285
严重 1267
机制 1266
期间 1255
a 1254
b 1254
资料 1252
呼吁 1248
维持 1242
设立 1240
减少 1239
酌情 1236
E 1228
一 1226
高级专员 1225
服务 1214
武器 1213
贫穷 1210
24 1209
参加 1205
最 1205
增加 1203
主要 1198
已 1192
优先 1184
25 1174
下列 1171
获得 1168
恐怖主义 1166
临时 1165
平等 1153
都 1153
意见 1146
这种 1146
出版物 1145
履行 1143
现有 1138
行政 1132
处理 1130
Add.1 1122
科学 1118
文书 1111
他们 1104
在内 1103
这 1088
依照 1083
造成 1083
26 1082
工作人员 1081
事项 1080
受 1080
司法 1074
最后 1072
30 1067
咨询 1067
责任 1064
列入 1061
能够 1061
后 1058
目的 1056
2007 1052
歧视 1052
境内 1048
弃权 1048
冲突 1047
遵守 1044
编号 1036
制度 1035
前 1035
一项 1032
从 1032
非 1028
他 1027
Corr.1 1026
研究 1022
对话 1020
办法 1019
品 1018
出售 1017
制定 1016
协商 1012
移徙 1012
加入 1011
批准 1011
基础 1007
铭记 1005
1998 1004
主席 1001
贸易 1000
B 994
自愿 990
宗教 986
第五 985
程序 982
53 979
结果 965
发达国家 963
适用 962
推动 960
28 952
这一 948
美元 941
本国 939
禁止 935
部分 935
成员 933
扩散 929
贩运 924
两年 920
外 908
建设 903
第一章 903
美利坚合众国 899
汇编 894
伙伴关系 893
关注 893
容忍 892
经 890
民主 888
专门机构 884
占领 884
性别 882
除 881
c 879
国内 877
财政 875
以期 869
南非 868
人权委员会 866
报告员 866
29 865
流离失所 865
27 864
1995 863
保障 863
威胁 858
二 856
尚未 855
发挥 854
行动计划 854
给予 852
期 849
制订 847
做法 841
具有 840
52 839
刑事 836
渔业 833
自治 829
方法 826
倡议 825
纳入 825
多 820
预防 815
地区 812
有助于 812
区 811
后续 811
共同 810
十年 808
各级 806
海洋 805
31 804
多边 804
得到 802
人类 801
为此 799
拟订 797
着重指出 794
关系 791
评估 791
具体 788
特派团 787
可以 786
商定 786
国在 784
51 782
来 782
谈判 782
民间 781
稳定 780
工作组 779
利益 772
南斯拉夫 771
请求 768
发生 767
所载 766
成为 765
经费 765
能 765
法国 762
讨论 760
但 759
应当 759
公平 758
新闻部 753
50 752
贡献 752
确定 749
负责 748
小组 747
标准 747
机会 745
条件 744
款 743
说明 743
捐助 742
新闻 742
种族歧视 740
产生 738
意大利 734
地位 732
签署 726
召开 724
1996 722
均 717
管制 715
联合王国 713
至 713
也 710
北爱尔兰 710
大不列颠 710
再次 709
改善 707
预防犯罪 706
节 705
宗旨 704
德国 704
不同 701
满意 696
1997 692
生效 692
分 691
积极 691
扩大 690
种族主义 690
一些 687
无核武器 682
符合 682
侵犯 680
普遍 680
各自 676
暴力 676
需 675
加拿大 674
希腊 674
十一届 673
西班牙 673
更正 672
葡萄牙 671
论坛 669
挑战 666
奥地利 664
立法 662
1994 651
荷兰 651
手段 650
限制 645
比利时 644
外层空间 643
恢复 642
传播 639
芬兰 639
认为 638
武装冲突 636
爱尔兰 636
部门 636
此种 634
毒品 632
酷刑 631
广泛 629
瑞典 629
丹麦 627
多样性 624
监测 624
48 623
卢森堡 623
挪威 623
人口 621
促请 621
d 620
国际公约 620
性 618
日本 616
深信 614
帮助 613
赞成 613
49 611
所作 610
人道主义法 608
步骤 608
违反 608
十届 607
培训 607
这个 607
独立 606
第五十八 605
紧急 604
全球化 602
接受 602
落实 602
综合 599
用于 596
即 595
增进 594
苏丹 593
受到 591
筹资 591
第五十七届 590
第五十九 589
刚果民主共和国 587
小 585
1993 584
费用 582
就此 580
要 574
波兰 573
生产 573
各方 572
澳大利亚 571
重建 571
了解 570
加勒比 568
自然灾害 568
斯洛文尼亚 567
指标 566
罗马尼亚 566
调查 565
转让 565
心理 563
俄罗斯联邦 562
新西兰 562
日内瓦 562
塞浦路斯 560
增强 560
如下 560
决心 559
克罗地亚 558
II 555
享有 555
所述 555
捷克共和国 555
状况 555
艾滋病毒 554
十二届 553
结论 552
46 551
我们 551
联合 551
并且 549
不断 548
之 548
特设 547
艾滋病 546
马耳他 546
最近 545
私营部门 545
筹备 545
马其顿共和国 545
匈牙利 544
个人 542
目前 539
空间 539
债务 537
裁军谈判 537
埃及 536
应对 534
赞扬 534
声明 533
宣传 533
特殊 532
载 532
高级别 532
仇外 531
而且 531
对于 529
波斯尼亚 528
生活 527
I 525
乌克兰 525
因 525
墨西哥 525
保加利亚 524
斯洛伐克 524
黑塞哥维那 524
自决 518
危险 517
旨在 517
立陶宛 517
编写 517
从而 516
训练 516
古巴 514
灾害 513
语文 513
海洋法 512
约翰内斯堡 511
资金 511
改进 510
许多 509
十六届 508
青年 508
正在 507
评价 506
保证 505
及时 505
财产 505
便利 504
专家 503
残疾人 503
当局 501
47 500
摩纳哥 499
迅速 499
缔约方 498
土著 497
冰岛 495
法院 492
孟加拉国 491
机关 491
核裁军 488
e 487
阿拉伯 486
小岛屿 485
平民 485
宣布 484
开发 483
控制 483
75 479
完成 479
土耳其 478
体制 477
增长 477
33 476
爱沙尼亚 476
给 476
印度尼西亚 475
拉脱维亚 475
无 474
危地马拉 472
联系 472
实体 469
意识 469
选举 469
地方 468
一级 467
军事 465
改革 464
一份 463
阿根廷 463
至关重要 459
切实 458
授权 458
第二章 456
如 455
智利 455
大韩民国 454
同意 453
生物 453
存在 452
马来西亚 451
两性 450
群体 449
77 448
地雷 448
捐款 448
没有 448
采取行动 448
核准 447
摩洛哥 445
申明 445
女孩 444
业务 443
之前 443
双边 443
阿尔及利亚 442
以来 440
它 440
规则 440
社区 439
创造 438
提供援助 438
满足 438
卢旺达 437
实质性 437
开始 437
家庭 436
该国 436
北京 434
待遇 434
仍然 433
列支敦士登 433
观点 433
达成 433
45 432
公民 432
军备 431
运作 431
公正 429
承担 426
相互 425
侵害 424
塞内加尔 423
成员国 423
有权 423
格鲁吉亚 423
重新 422
哥斯达黎加 421
: 420
行使 420
暴力行为 419
中国 418
投资 417
自 417
巴西 415
承认 415
救济 415
养护 414
必要措施 413
金融机构 413
中东 412
尽可能 412
信托 411
捕捞 410
轻武器 410
密克罗尼西亚联邦 409
数据 409
今后 408
1992 407
工程处 407
未 407
欣见 407
指导 406
通信 405
采取措施 404
事件 402
提议 402
监督 402
约旦 402
药物 402
如何 401
实际 400
法治 400
索马里 400
III 399
伊朗伊斯兰共和国 399
伙伴 399
共同体 399
需求 399
厄瓜多尔 398
途径 398
交流 397
把 397
瑞士 397
白俄罗斯 396
突尼斯 396
阿尔巴尼亚 396
1967 395
分析 394
XXI 393
材料 393
鱼类 393
为了 392
条款 392
种群 392
安道尔 391
采用 391
属于 390
维也纳 390
世纪 389
厅 389
后果 388
巴基斯坦 388
受害者 387
因素 387
某些 387
分摊 386
十三届 386
长期 386
做 385
缅甸 385
文明 384
32 383
享受 383
供 383
民众 383
过程 383
集团 382
44 381
不利 381
剥削 381
印度 381
太平洋 380
按 380
补充 380
实行 379
来源 379
发展权 377
哈萨克斯坦 377
泰国 377
运动 377
巩固 376
萨尔瓦多 376
或者 375
类 375
面临 375
风险 374
维护 373
制止 372
第一 372
2008 371
条例 371
联合国粮食及农业组织 370
针对 370
已经 369
涉及 369
秘鲁 369
立即 369
信任 368
处决 368
损害 368
欧洲 368
部长级 368
马绍尔群岛 368
透明度 367
圣马力诺 366
尼日利亚 366
不得 365
哥伦比亚 363
予以 362
健康 362
构成 362
亚美尼亚 361
政府首脑 361
跨国 361
一次 360
谴责 360
东帝汶 358
举办 358
基于 358
纽约 357
经常 354
吉布提 353
摊款 353
2200 352
34 352
指出 352
海地 352
由于 352
设施 352
Part 351
因此 351
研究所 351
黎巴嫩 351
性质 350
殖民地 350
整个 349
专门 348
仍 347
塞拉利昂 347
此 347
独立宣言 347
查明 346
纲要 346
f 345
人居 345
作出努力 345
停止 345
协议 345
摩尔多瓦共和国 345
让 345
重视 345
上述 344
现象 344
内部 343
定期 343
过渡 342
过境 340
马里 340
世界贸易组织 339
多米尼加共和国 339
肯尼亚 339
起诉 338
柬埔寨 336
更加 334
喀麦隆 333
国为 333
持久 333
大规模 332
局势 332
第三次 332
纳米比亚 332
效力 331
民族 331
副 330
托克劳 330
疟疾 330
致力于 330
上文 328
减轻 328
38 327
日益 327
科威特 326
筹措 326
乌拉圭 325
导致 325
35 323
埃塞俄比亚 323
盟约 323
㈠ 322
会 322
此类 322
法庭 322
一般 321
介绍 321
卡塔尔 321
缔结 321
内容 320
重大 320
42 319
㈡ 319
保健 319
C 318
促使 318
安哥拉 318
沙特阿拉伯 318
1991 317
避免 317
那些 317
阿塞拜疆 317
尼加拉瓜 316
带来 315
金融 315
四 314
217 313
36 313
国际原子能机构 313
基础设施 313
科特迪瓦 313
十五届 312
障碍 312
作出贡献 311
非洲联盟 311
东道国 309
塞尔维亚 309
强迫 309
罗马 309
本条 308
结构 308
第二 306
第四次 305
973 304
知识 304
蒙古 304
这样 304
任择 302
几内亚 302
员额 302
直接 302
粮食 302
表 302
规划 301
马达加斯加 300
世界人权宣言 299
应付 299
最佳 299
毛里求斯 299
拘留 298
帕劳 297
黑山 297
不人道 296
处罚 296
保持 295
巴拿马 295
东耶路撒冷 294
国家一级 293
公众 292
决策 292
妨碍 292
权力 292
森林 292
每个 292
菲律宾 292
访问 292
足够 292
剥夺 291
感谢 291
所有人 291
未来 291
核查 291
透明 291
布基纳法索 290
蒙特雷 290
调整 290
贝宁 290
总 289
效率 289
联合国开发计划署 289
人人 288
以往 288
统一 288
人格 287
从事 287
更好 287
国家元首 286
希望 286
德班 286
表现 286
收集 285
斐济 285
腐败 285
达到 285
主管 284
尊严 284
当地 284
融入 284
％ 284
深 283
深切 283
第二次 283
密切合作 282
就业 282
科摩罗 282
讨论会 282
内陆 281
遭受 280
准则 279
2010 278
住 277
因为 277
委内瑞拉 277
第二十三届 277
人力资源 276
制裁 276
文莱达鲁萨兰国 276
有辱 276
每年 276
41 275
女童 275
妇女地位 275
萨摩亚 275
认可 275
成立 274
自然资源 274
这项 273
也门 272
信仰 272
应用 272
78 271
主流 271
利比亚 271
工具 271
洪都拉斯 271
三 270
以前 270
保留 270
审计 270
残忍 270
拟议 269
迫切需要 269
争端 268
如果 268
举措 267
尽早 267
有利于 267
职能 267
37 266
储存 266
协作 266
恤金 266
玻利维亚 266
第三章 266
阿拉伯联合酋长国 266
D 265
加以 265
自己 265
调动 265
巴林 264
40 263
出现 263
观察员 263
高度 263
43 262
赞比亚 262
人数 261
双方 261
地点 260
毁灭性 260
大 258
毛里塔尼亚 258
程度 258
联盟 258
部队 258
国民 257
寻求 257
拥有 257
罪行 257
阿拉伯叙利亚共和国 257
非殖民化 257
土地 256
捐助者 256
经济合作组织 255
网站 255
不可 253
破坏 253
通知 253
防治 253
阿曼 253
世界各地 252
刚果 252
塔吉克斯坦 252
核 252
第一卷 252
网络 252
专业 251
例如 251
组成部分 251
之一 250
危害 250
团 250
规约 250
外国 249
拉丁美洲 249
转移 249
39 248
危机 248
失踪 248
管辖 248
明确 247
叙利亚 246
国际法院 246
族裔 246
1990 245
是否 245
身份 245
1949 244
XV 244
收入 244
Add.2 243
坦桑尼亚联合共和国 243
常设 243
瑙鲁 243
任意 242
伊拉克 242
官方 242
朝鲜民主主义人民共和国 242
流动 241
单方面 240
另 240
国籍 240
巴布亚新几内亚 240
政治权利 240
脆弱 240
运输 240
全世界 239
多哥 239
有利 239
重点 239
销毁 239
两 238
之后 238
任命 238
核可 238
非洲统一组织 238
价值 237
工业 237
法 237
第四 237
一国 236
第十届 236
个 235
协调员 235
经验 235
转型期 235
国际法庭 234
采取有效 234
乌干达 233
发表 233
76 232
各个 232
官员 232
战争 232
遵循 232
最高 231
全国 230
净额 230
加纳 230
外交 230
订正 230
莫桑比克 229
主权 228
则 228
行动者 228
豁免 228
密切 227
媒体 226
尽快 226
核心 226
生态系统 226
越南 226
总部 225
滥用 225
第一次 225
中期 224
主题 224
回返 224
种族 224
组成 224
编制 224
附属 224
两级 223
原因 223
资产 223
68 222
权 222
精神 222
大学 221
开放 221
联合国贸易和发展会议 221
两个 220
复原 220
数额 220
阶段 220
· 219
一种 219
着 219
巴拉圭 218
成功 218
提请 218
新加坡 218
案文见 218
主任 217
尼泊尔 217
联合国环境规划署 217
载有 217
专题 216
登记 216
附录 216
利比里亚 215
协调一致 215
少数 215
气候变化 215
苏里南 215
赞同 215
对付 214
牙买加 214
任职 213
年度 213
每 213
g 212
共识 212
养 212
分配 212
强烈 212
预期 212
CN.4 211
专家组 211
区域合作 211
巴巴多斯 211
新喀里多尼亚 211
Rev.1 210
中部 210
农业 210
吉尔吉斯斯坦 210
商品 210
戈兰 210
防范 210
乌兹别克斯坦 209
加紧努力 209
反映 209
指定 209
津巴布韦 209
部长 209
主动 208
分发 208
彻底 208
最大 208
㈢ 207
中美洲 207
允许 207
布隆迪 207
职责 207
语言 207
以外 206
安理会 206
公共 205
执法 205
结束 204
荒漠化 204
估计数 202
厄立特里亚 202
情报 202
财务 202
三个 201
传统 201
引起 201
1982 200
作 200
斯里兰卡 200
武力 200
缺乏 200
关键 199
意义 199
捐助国 199
钻石 199
81 198
C.03 198
主持 198
司 198
合同 198
探讨 198
跨界 198
创新 197
名额 197
时间 197
不结盟 196
伯利兹 196
佛得角 196
尽管 196
全体 195
完全 195
争取 194
修正案 194
用途 194
电子 194
移民 194
占领国 193
法官 193
终止 193
资助 193
A.1 192
尊重人权 192
数目 192
积极参与 192
麻醉药品 192
一部分 191
圭亚那 191
所涉 191
原子能 190
反 190
有害 190
福祉 190
获取 190
裁减 190
议会 190
71 189
居民 189
一体化 188
世界银行 188
以下 188
多哈 188
愿望 188
探索 188
马拉维 188
修正 187
再 187
常会 187
消灭 187
1514 186
1980 186
差距 186
巴黎 186
规划署 186
选择 186
各项规定 185
守则 185
所罗门群岛 185
严格遵守 184
信息技术 184
南南合作 184
图书馆 184
城市 184
支付 184
改为 184
早日 184
莱索托 184
分享 183
办公室 183
商业 183
沿海 183
第三国 183
紧急情况 183
胁迫 183
规范 183
非正式 183
加速 182
采购 181
雇佣军 181
不论 180
化学武器 180
可能性 180
格林纳达 180
水平 180
79 179
90 179
分别 179
展开 179
相辅相成 179
丧失 178
以此 178
困难 178
地中海 178
解决办法 178
内部监督 177
十分 177
各个方面 177
建设性 177
银行 177
趋势 176
2009 175
国际海事组织 175
安保 175
水 175
第十一届 175
薪金 175
质量 175
领导 175
军备竞赛 174
受害人 174
担任 174
拟定 174
相互依存 174
罪 174
69 173
和平解决 173
国际贸易 173
地域 173
彼此 173
职权范围 173
预测 173
64 172
共和国 172
博茨瓦纳 172
彻底消除 172
毛额 172
亚洲 171
职位 171
饥饿 171
2015 170
确立 170
设法 170
阻碍 170
关岛 169
团体 169
承受 169
收到 169
老挝人民民主共和国 169
负有 169
首长 169
70 168
72 168
74 168
大量 168
她们 168
年度报告 168
越来越 168
200 167
P 167
尼日尔 167
船只 167
农村 166
工作队 166
排雷 166
款项 166
食物 166
代表团 165
小额 165
欧洲委员会 165
海洋环境 165
C.02 164
汤加 164
疾病 164
集体 164
项 164
1981 163
反腐败 163
团结 163
宪法 163
山区 163
辩论 163
部署 163
顾及 163
首要 163
促成 162
充足 162
和解 162
市场 162
改变 162
返回 162
CONF.157 161
和平利用 161
征聘 161
杀伤 161
C.96 160
关联 160
内罗毕 160
出口 160
加蓬 160
老龄 160
融资 160
公务员 159
均衡 159
复兴 159
多边贸易 159
不足 158
反应 158
引渡 158
批款 158
公认 157
特立尼达和多巴哥 157
穷国 157
逐步 157
高级 157
人力 156
斯威士兰 156
若干 156
88 155
主办 155
减免 155
攻击 155
特定 155
种族灭绝 155
署 155
订立 155
高 155
63 154
73 154
83 154
h 154
一致 154
人权法 154
核定 154
瓦努阿图 154
纪念 154
转型 154
二十一 153
处境 153
岛屿 153
污染 153
这是 153
信贷 152
做出 152
常规武器 152
物质 152
真正 152
评论 152
org 151
保存 151
公开 151
年底 151
接触 151
支出 151
进度 151
外地 150
工人 150
方向 150
洗钱 150
理由 150
绩效 150
船舶 150
表达 150
〈 149
〉 149
依据 149
出席 149
当前 149
无法 149
灾难 149
用 149
重债 149
GC 148
宝贵 148
思想 148
技能 148
比额 148
派遣 148
设备 148
负担 148
不丹 147
专门知识 147
秩序 147
附加 147
66 146
F 146
土库曼斯坦 146
基金会 146
指导方针 146
特权 146
统筹 146
赋予 146
L 145
减贫 145
单位 145
多样化 145
治疗 145
磋商 145
色情 145
表明 145
铲除 145
冈比亚 144
占 144
核不扩散 144
生命 144
第三 144
继承 144
且 143
企业 143
全 143
公司 143
关心 143
尽量 143
玻利瓦尔 143
降低 143
182 142
五 142
惯例 142
查阅 142
正义 142
殖民主义 142
洄游 142
限 142
发挥作用 141
圣卢西亚 141
方 141
细则 141
调集 141
过去 141
NPT 140
供资 140
修订 140
可行 140
咨询服务 140
国际金融 140
绳之以法 140
耶路撒冷 140
严格 139
处于 139
战时 139
第三节 139
虐待 139
遣返 139
面对 139
82 138
中非共和国 138
事务部 138
养恤 138
减灾 138
回应 138
圣文森特 138
格林纳丁斯 138
违背 138
阿拉伯国家联盟 138
须 138
一和二 137
东南欧 137
国际劳工组织 137
延长 137
根除 137
附 137
领土完整 137
65 136
ES 136
一般性 136
人们 136
力量 136
原籍 136
安提瓜和巴布达 136
案件 136
证书 136
87 135
㈣ 135
十四届 135
合法 135
庇护 135
惠益 135
感染 135
歧视性 135
现行 135
行径 135
交存 134
动员 134
历史 134
康复 134
赔偿 134
额外 134
七 133
坚决 133
救灾 133
核试验 133
第一届 133
贩卖 133
67 132
平衡 132
志愿 132
联委会 132
产品 131
体育 131
制造 131
慷慨 131
提到 131
放射性 131
海上 131
起 131
较 131
马德里 131
000 130
180 130
医疗 130
图瓦卢 130
最终 130
第六条 130
装置 130
100 129
80 129
专员 129
切尔诺贝利 129
哥本哈根 129
定居点 129
日起 129
柬埔寨政府 129
私人 129
类似 129
诸如 129
谅解 129
242 128
全面禁止 128
外部 128
所定 128
最低 128
缴付 128
账户 128
货物 128
邻国 128
不再 127
业绩 127
中所载 127
普遍性 127
第二十四届 127
自决权 127
贸易法 127
金伯利 127
27531 126
助长 126
变化 126
应急 126
总额 126
所起 126
本身 126
课程 126
不能 125
准备 125
劳动 125
市场准入 125
易 125
组 125
联合国儿童基金会 125
视察 125
鉴于 125
加快 124
因特网 124
女工 124
尽量减少 124
布雷顿 124
愿意 124
替代 124
最新 124
欧洲联盟 124
残疾 124
福利 124
筹备工作 124
1973 123
大力 123
延期 123
意愿 123
更大 123
登记册 123
约束力 123
能源 123
随时 123
G 122
世界卫生组织 122
全部 122
国际货币基金组织 122
持久和平 122
推广 122
现代化 122
第二个 122
问责 122
92 121
分担 121
南斯拉夫联盟共和国 121
取消 121
家属 121
很 121
恐吓 121
成绩 121
摩尔多瓦 121
续会 121
达成协议 121
近东 121
120 120
85 120
充分考虑 120
客观 120
应收款 120
效益 120
有罪 120
研讨会 120
背景 120
航行 120
资格 120
超过 120
这类 120
信仰自由 119
即决 119
宏观经济 119
志愿人员 119
概算 119
法外 119
法语 119
率 119
男女 119
税收 119
红十字国际委员会 119
非常 119
顾问 119
210 118
健全 118
同样 118
应该 118
照顾 118
绑架 118
颁布 118
1960 117
列 117
巨大 117
必不可少 117
捕鱼 117
有效率 117
本着 117
法律文书 117
现况 117
之下 116
债务人 116
卫生 116
友好关系 116
发出 116
只有 116
永久 116
罪犯 116
问责制 116
非暴力 116
CD 115
RES 115
克服 115
兵库 115
名单 115
备选 115
提及 115
申请 115
粮食安全 115
脆弱性 115
视为 115
遵照 115
94 114
协商一致 114
合理 114
所得 114
第二节 114
进步 114
194 113
交易 113
伊斯兰会议组织 113
入 113
出 113
大多数 113
年龄 113
斗争 113
治理 113
管辖权 113
联检 113
虽然 113
议事规则 113
议定 113
逮捕 113
300 112
84 112
复杂 112
已有 112
当事方 112
恶化 112
机能 112
状态 112
领导人 112
C.5 111
不可分割 111
不要 111
与其 111
免受 111
划界 111
响应 111
巴哈马 111
干旱 111
良好 111
范畴 111
1988 110
89 110
两项 110
事态 110
六种 110
其后 110
支援 110
未能 110
重返 110
A.7 109
不罚 109
全人类 109
困境 109
弹药 109
招募 109
没收 109
注重 109
IV.13 108
体现 108
海洋生物 108
自由化 108
被害人 108
设想 108
诉讼 108
1989 107
270 107
X 107
交换 107
住房 107
外债 107
撤销 107
攸关 107
日期 107
有些 107
有限 107
洛尔科 107
特拉特 107
种种 107
通报 107
遗憾 107
除雷 107
除非 107
96 106
依 106
努力实现 106
十周年 106
可靠 106
基本建设 106
容易 106
惩罚 106
汇报 106
特使 106
迄今 106
169 105
235 105
i 105
五年 105
作业 105
悬挂 105
推行 105
来自 105
继续执行 105
职等 105
规模 105
阿拉木图 105
一起 104
书 104
力求 104
印度洋 104
合办 104
合法性 104
学习 104
常规 104
救援 104
案 104
流通 104
签字 104
至少 104
致力 104
该项 104
218 103
农村妇女 103
复员 103
巴勒斯坦解放组织 103
庆祝 103
当事人 103
损失 103
更新 103
领事 103
骚扰 103
128 102
H 102
www 102
主席团 102
几内亚比绍 102
卖淫 102
受让人 102
征求 102
深入 102
男子 102
* 101
1986 101
C.2 101
一名 101
任 101
体系 101
公海 101
合作社 101
国旗 101
总干事 101
惩治 101
捍卫者 101
散发 101
根源 101
潜力 101
第十二届 101
管理局 101
纪录 101
结核病 101
行政当局 101
被占领土 101
162 100
222 100
偷运 100
免遭 100
关键作用 100
加紧 100
即将 100
发言 100
受益 100
各届 100
家园 100
得以 100
文化遗产 100
检查组 100
模式 100
解释 100
遭到 100
人士 99
刑事法庭 99
初步 99
处 99
她 99
干预 99
感兴趣 99
文本 99
潜在 99
第一个 99
置于 99
调解 99
转递 99
以上 98
南 98
多年 98
宪政 98
才能 98
正 98
死亡 98
着手 98
系统地 98
要素 98
议题 98
资本 98
足额 98
重大贡献 98
驻 98
500 97
86 97
出版 97
层面 97
投入 97
级 97
谋求 97
贫困 97
里约热内卢 97
1985 96
买卖 96
各地 96
多种 96
态度 96
振兴 96
期待 96
环发 96
经济委员会 96
讲习班 96
设 96
随后 96
零票 96
马尔代夫 96
Add.3 95
仇恨 95
修改 95
六 95
尽力 95
成本 95
时限 95
曼谷 95
武装 95
科索沃 95
重复 95
116 94
213 94
区域间 94
外空 94
大会决议 94
打算 94
概念 94
犯罪行为 94
看法 94
职业 94
赤贫 94
里 94
鲨鱼 94
111 93
具备 93
剥夺权利 93
危及 93
参照 93
因而 93
在于 93
审查会议 93
案文 93
灵活 93
老年人 93
至迟 93
表示感谢 93
认真 93
122 92
160 92
486 92
C.93 92
乍得 92
会费 92
充分利用 92
公共卫生 92
前提 92
协会 92
地球 92
安置 92
期限 92
进入 92
释放 92
110 91
146 91
I.8 91
之中 91
供应 91
修建 91
凌虐 91
多米尼克 91
布鲁塞尔 91
强化 91
总统 91
正当 91
电信 91
相应 91
而言 91
设计 91
进行谈判 91
道德 91
141 90
151 90
1987 90
243 90
Parts 90
仲裁 90
准确 90
制作 90
加上 90
填补 90
年鉴 90
所列 90
海啸 90
立场 90
章程 90
负面影响 90
驻地 90
107 89
214 89
J 89
万美元 89
互相 89
伤害 89
印发 89
境况 89
感到 89
货币 89
部 89
245 88
CONF.2000 88
中亚 88
候选人 88
具体措施 88
列为 88
包容 88
口译 88
强奸 88
念及 88
期望 88
气候 88
流行病 88
煽动 88
理事 88
第二十届 88
缅甸政府 88
行为人 88
西撒哈拉 88
递送 88
雷 88
106 87
227 87
237 87
600 87
729 87
再生能源 87
前往 87
协同 87
可持续性 87
对策 87
数据库 87
杀害 87
法定 87
级别 87
衡平 87
通讯 87
隔离墙 87
青少年 87
10485 86
226 86
侦查 86
国内法 86
好处 86
定于 86
家庭成员 86
往往 86
暂停 86
核爆炸 86
特性 86
界 86
着重 86
第七十三 86
继续加强 86
缓解 86
船旗国 86
试验 86
适合 86
273 85
V 85
中央 85
为期 85
代表性 85
全球性 85
创造条件 85
序言 85
应为 85
应有 85
当代 85
总体 85
第二届 85
精神药物 85
自然 85
良心 85
阻止 85
109 84
1577 84
220 84
不可或缺 84
个别 84
人选 84
以后 84
同一 84
唯一 84
惩处 84
批准书 84
指控 84
此事 84
物体 84
示范 84
第五次 84
繁荣 84
防备 84
雇用 84
青年人 84
1978 83
233 83
304 83
91 83
970 83
j 83
世界旅游组织 83
制品 83
定义 83
征税 83
机遇 83
第四章 83
美洲 83
-- 82
256 82
26560 82
不受 82
作物 82
加沙 82
地带 82
整体 82
日增 82
比例 82
第五十四届 82
补救 82
遇到 82
金 82
208 81
215 81
CONF 81
丰富 81
免疫 81
反恐 81
大大 81
如此 81
少数民族 81
平等权利 81
渔船 81
编纂 81
详细 81
配合 81
123 80
189 80
263 80
元首 80
共同努力 80
出于 80
加剧 80
善政 80
成效 80
波恩 80
生产性 80
筹备会议 80
签署国 80
美属 80
迎接 80
102 79
105 79
124 79
1977 79
事实 79
估计 79
体育运动 79
化 79
取代 79
国际标准 79
意外 79
更多地 79
港口 79
理解 79
空间科学 79
童工 79
结合 79
规章 79
警察 79
顺利 79
黑海 79
234 78
95 78
CONF.192 78
一年 78
伊斯坦布尔 78
再度 78
加勒比海 78
口头 78
场所 78
当选 78
成就 78
摘要 78
极端 78
气氛 78
生境 78
第一节 78
辰 78
逐渐 78
1125 77
158 77
216 77
依然 77
其他人 77
启动 77
必需 77
指南 77
收益 77
犯罪活动 77
过分 77
退化 77
108 76
127 76
181 76
253 76
不会 76
主义 76
前体 76
发起 76
定为 76
核设施 76
生计 76
相信 76
种植 76
移交 76
答复 76
索引 76
约 76
袭击 76
路线图 76
阿拉伯人 76
预警 76
&#91; 75
&#93; 75
157 75
700 75
优惠 75
公共行政 75
公营 75
合作伙伴 75
塔利班 75
废物 75
拖延 75
排斥 75
既定 75
民主化 75
用来 75
约束 75
职类 75
联合国秘书处 75
计算 75
资源管理 75
赤道几内亚 75
119 74
125 74
173 74
221 74
IV 74
不应 74
之外 74
何种 74
圣多美和普林西比 74
必要性 74
必要条件 74
性暴力 74
特点 74
环境保护 74
病毒 74
第五章 74
第六次 74
第四届 74
联络 74
药品 74
250 73
99 73
一节 73
为止 73
传染病 73
使团 73
先前 73
受援国 73
大西洋 73
履行任务 73
拒绝 73
施行 73
无条件 73
款额 73
涵盖 73
解除武装 73
阐述 73
预防性 73
207 72
232 72
不仅 72
亟需 72
付款 72
以求 72
住区 72
努美阿 72
单独 72
在上文 72
大陆架 72
实质 72
对待 72
数量 72
父母 72
边界 72
违法行为 72
遏制 72
限度 72
麻醉品 72
132 71
98 71
CONF.191 71
五个 71
债权人 71
公布 71
内向 71
包容性 71
受灾国 71
基地 71
局 71
年代 71
废除 71
形成 71
得 71
美洲国家组织 71
董事会 71
164 70
236 70
XXV 70
其它 70
司法制度 70
实地 70
导则 70
拨款 70
排除 70
推进 70
收容 70
相互合作 70
研训 70
第七章 70
联合国国际贸易法委员会 70
营养 70
薪酬 70
融合 70
113 69
1954 69
1970 69
20378 69
400 69
http 69
㈤ 69
前景 69
和谐 69
团聚 69
居住 69
扫盲 69
敏感 69
来源国 69
正常 69
记者 69
起因 69
131 68
152 68
1955 68
251 68
800 68
主管机关 68
依赖 68
区域开发 68
圣 68
强制性 68
掌握 68
提倡 68
施加 68
比率 68
法规 68
独立性 68
监禁 68
第四十七届 68
联合国总部 68
认捐 68
设在 68
辐射 68
预算外 68
C.97 67
CONF.189 67
K 67
习俗 67
减除 67
削减 67
同等 67
帐户 67
应由 67
数字 67
施政 67
显著 67
构成威胁 67
根本 67
民族和解 67
犯 67
穷人 67
第一款 67
第四节 67
统计 67
证据 67
贩毒 67
赫勒拿 67
达喀尔 67
金融体制 67
闭会 67
阐明 67
104 66
150 66
212 66
240 66
97 66
DEC 66
XX 66
一致性 66
不法行为 66
严重威胁 66
人口比例 66
任期 66
伤亡 66
公职人员 66
其管辖 66
四方 66
尽 66
恐怖 66
恐怖分子 66
曾 66
有益 66
渠道 66
竭尽全力 66
英文 66
贫民窟 66
117 65
129 65
185 65
199 65
209 65
219 65
互动 65
人体 65
但是 65
但须 65
占领区 65
卡塔赫纳 65
另见 65
报道 65
提名 65
无论 65
既 65
旱灾 65
极为重要 65
界限 65
第四十九届 65
零 65
211 64
283 64
交付 64
分配原则 64
华盛顿 64
名誉 64
多元性 64
对象 64
扩展 64
政党 64
派驻 64
渔获 64
用以 64
终了 64
近年来 64
震惊 64
预警系统 64
101 63
114 63
121 63
130 63
1948 63
1979 63
206 63
248 63
497 63
AC.109 63
CCW 63
ST 63
之害 63
津贴 63
海牙 63
秘书 63
第四十六届 63
裂变 63
角度 63
解除 63
过度 63
165 62
177 62
179 62
266 62
Corr.2 62
为何 62
兵 62
动机 62
发现 62
只 62
后勤 62
大批 62
子女 62
审判 62
广播 62
搜索 62
斯 62
旅游业 62
旅行 62
明显 62
最好 62
次序 62
深感 62
灾后 62
私营 62
空缺 62
第四十三届 62
第四条 62
简化 62
蓄意 62
1541 61
249 61
261 61
AC.105 61
l 61
一半 61
一套 61
三年 61
免费 61
八 61
大幅 61
学校 61
实践 61
家庭暴力 61
对此 61
将来 61
按时 61
无国籍 61
更为 61
死刑 61
海洋资源 61
滥伤 61
滥杀 61
点 61
现在 61
生殖 61
第三届 61
节省 61
证明 61
财力 61
133 60
134 60
170 60
2106 60
258 60
338 60
900 60
{ 60
} 60
一视同仁 60
伤害力 60
低 60
切实有效 60
备灾 60
安圭拉 60
情形 60
敌对行动 60
方针 60
毁坏 60
民主政体 60
物资 60
特征 60
第一百 60
缴纳 60
网 60
行事 60
言论自由 60
该司 60
115 59
118 59
142 59
161 59
262 59
M 59
PRST 59
k 59
严峻 59
出生 59
受灾 59
各项措施 59
德 59
技术转让 59
护理 59
撤回 59
无线电 59
正规 59
生产总值 59
系指 59
营养不良 59
衡量 59
126 58
137 58
149 58
171 58
17512 58
93 58
一届 58
一直 58
亿美元 58
六个月 58
后代 58
吸引 58
善 58
地向 58
女性 58
强有力 58
生态 58
第四十八届 58
等级 58
负担得起 58
身心健康 58
转运 58
这次 58
迫切 58
退休 58
适应 58
造福 58
逾期 58
道路 58
144 57
154 57
155 57
175 57
UNEP 57
不是 57
任何人 57
会上 57
减损 57
培养 57
大型 57
太阳能 57
学生 57
学院 57
平台 57
找出 57
拨 57
揭示 57
时候 57
显示 57
消极影响 57
界定 57
监管 57
相互了解 57
翻译 57
自然人 57
贩卖人口 57
147 56
167 56
183 56
205 56
225 56
231 56
255 56
265 56
wto 56
事务处 56
佩林 56
判决 56
加入书 56
哪些 56
奥林匹克 56
权限 56
查莫罗 56
此一 56
残疾儿童 56
渔业资源 56
目的地 56
知识产权 56
紧张局势 56
达巴 56
140 55
1984 55
201 55
241 55
2625 55
529 55
634 55
AC.198 55
中非国家 55
书面 55
价值观 55
偿还 55
共同利益 55
兼顾 55
单一 55
各次 55
基准 55
多个 55
完整性 55
庄严 55
弹道导弹 55
执行局 55
承付 55
接纳 55
时间表 55
有所 55
有效性 55
民选 55
环境卫生 55
监狱 55
第七 55
股 55
财务报表 55
返还 55
阿布贾 55
鸿沟 55
153 54
156 54
187 54
203 54
; 54
IV.8 54
WT 54
一方面 54
事先 54
侵略 54
全权代表 54
区别 54
后天免疫 54
增多 54
大力支持 54
妥善 54
家人 54
导弹 54
工作文件 54
检查 54
比 54
民营 54
法人 54
生命权 54
综合症 54
缩小 54
财政状况 54
起草 54
进一步提高 54
进出 54
非正规 54
1249 53
166 53
174 53
186 53
197 53
244 53
286 53
COP 53
REMOVED 53
SGB 53
TABLE 53
一条 53
以供 53
信 53
分阶段 53
加 53
协力 53
协商会议 53
取决于 53
圆桌会议 53
增订 53
属 53
开办 53
开支 53
性虐待 53
援引 53
旅游 53
无效 53
有力 53
毒素 53
法律事务 53
独特 53
珊瑚礁 53
痛惜 53
相对 53
细菌 53
经济援助 53
经验教训 53
苏丹政府 53
药物滥用 53
身心 53
选出 53
集中 53
135 52
295 52
九 52
京都 52
信息安全 52
全力支持 52
共享 52
具体情况 52
切实可行 52
受伤害 52
受害 52
备忘录 52
巴拉 52
常驻 52
应分 52
归还 52
放在 52
此项 52
淡水 52
深表 52
爆炸物 52
物 52
第十三次 52
经济社会 52
舆论 52
西岸 52
调查结果 52
起来 52
轨道 52
载列 52
138 51
172 51
1974 51
202 51
318 51
O 51
与会者 51
之日起 51
制约 51
劳工 51
协助执行 51
完整 51
届会 51
岁 51
抢劫 51
持续增长 51
援助团 51
政体 51
斡旋 51
有用 51
流行 51
现金 51
痛苦 51
类型 51
自身 51
送交 51
选民 51
金斯克 51
&amp; 50
103 50
145 50
178 50
188 50
1951 50
269 50
C.94 50
争议 50
加倍努力 50
各阶层 50
地理 50
境外 50
增编 50
声援 50
天体 50
孤儿 50
就业机会 50
就是 50
干事 50
开会 50
所在 50
拟 50
数 50
旅费 50
易受 50
本人 50
毫不 50
活力 50
突出 50
第二十六届 50
维和 50
街头 50
通行 50
1373 49
195 49
1972 49
267 49
CONF.1995 49
Q 49
XXVI 49
㈥ 49
不容许 49
众多 49
何处 49
使该 49
做到 49
哈 49
国与 49
多边合作 49
干涉 49
故意 49
格式 49
灭绝种族 49
生存 49
用品 49
由此 49
第七条 49
补偿 49
补助金 49
视 49
训研 49
证人 49
260 48
CBD 48
一方 48
主导 48
事故 48
会期 48
保密 48
助理 48
周期 48
当事 48
支配 48
新能源 48
机会均等 48
极其重要 48
概述 48
渔具 48
纠正 48
维尔京群岛 48
苦难 48
被迫 48
裁决 48
路线 48
追究 48
道 48
难民营 48
高效率 48
112 47
163 47
176 47
224 47
9068 47
CONF.206 47
N 47
东部 47
交流信息 47
人身安全 47
军队 47
分列 47
分段 47
划定 47
南极 47
变动 47
各部 47
固有 47
坚信 47
所在国 47
所在地 47
据 47
携带 47
时应 47
暂时 47
武装部队 47
犯罪集团 47
男孩 47
监视 47
第二十七届 47
筹集 47
营业 47
谋生 47
贷款 47
过剩 47
配偶 47
集会 47
飓风 47
马舍尔 47
高效 47
136 46
148 46
168 46
190 46
223 46
254 46
312 46
Add.5 46
一章 46
业已 46
之际 46
人命 46
今世 46
他人 46
优越 46
传播媒介 46
保安 46
删除 46
动用 46
及早 46
合理化 46
圣基茨 46
大众 46
尼维斯 46
指示 46
撤出 46
政和 46
教学 46
方便 46
日历 46
月球 46
有所增加 46
有章可循 46
核武库 46
民用 46
犯下 46
生产力 46
第一条 46
第十四次 46
简要 46
羁押 46
职务 46
表示满意 46
该部 46
转 46
遗产 46
页 46
预计 46
首先 46
／ 46
139 45
191 45
192 45
193 45
196 45
228 45
247 45
303 45
XXIX 45
docsonline 45
一道 45
冲击 45
半数 45
厄尔尼诺 45
国家计划 45
实效 45
应予 45
废料 45
弱势群体 45
律师 45
或非 45
所指 45
所用 45
披露 45
来说 45
残块 45
汇款 45
科学研究 45
竞争力 45
第十四届 45
营造 45
蒙特塞 45
财务状况 45
贯彻 45
退回 45
重 45
首次 45
% 44
1963 44
288 44
290 44
292 44
FCCC 44
专题讨论 44
互补性 44
先决条件 44
全民投票 44
公私 44
共 44
十 44
单兵 44
南半球 44
取得成功 44
四个 44
复苏 44
大小 44
大幅度 44
学科 44
安哥拉政府 44
并于 44
广泛传播 44
应是 44
废弃物 44
开曼群岛 44
投票 44
指明 44
无障碍 44
极为 44
理论 44
用作 44
百慕大 44
相当 44
破坏性 44
第十一部分 44
职权 44
能否 44
表示决心 44
进攻性 44
选择性 44
防空 44
预算内 44
143 43
159 43
184 43
偏见 43
充作 43
八国集团 43
公正性 43
合并 43
哈瓦那 43
外联 43
实物 43
很大 43
战略武器 43
截至 43
拉特 43
改造 43
日后 43
未缴 43
检察官 43
每日 43
永久性 43
海洋学 43
特区 43
独立国家 43
现代 43
相同 43
相当于 43
编 43
肤色 43
英属维尔京群岛 43
西非国家 43
言论 43
许可 43
迈向 43
雅温得 43
239 42
583 42
CP 42
令人 42
份额 42
免于 42
关闭 42
凯恩 42
出缺 42
十一 42
十二 42
合格 42
同上 42
后来 42
坚定 42
多元 42
多项 42
奖学金 42
妇女组织 42
定居 42
寻找 42
履行职责 42
工作量 42
差异 42
抗灾 42
有意 42
次级 42
比较 42
派 42
海 42
电离辐射 42
皮特 42
直至 42
禁毒 42
空 42
第二十五届 42
第二条 42
第八章 42
管理系统 42
结社 42
绝对 42
自行 42
观念 42
赠款 42
运用 42
这两项 42
进口 42
金融服务 42
陆地 42
面向 42
领袖 42
17513 41
198 41
285 41
APLC 41
下落 41
依法 41
倡导 41
全境 41
公共信息 41
内外 41
原始 41
周围 41
喜见 41
塞米 41
契约 41
完善 41
审慎 41
少年 41
工业化 41
废止 41
忆及 41
惠及 41
意图 41
扣除 41
拉罗 41
接收 41
放射源 41
日为 41
时期 41
毫不迟延 41
火山爆发 41
申诉 41
男女平等 41
第十二次 41
管理人员 41
经济体 41
莫斯科 41
获益 41
设置 41
识别 41
转让技术 41
过渡时期 41
运送 41
通加 41
重大进展 41
镇压 41
高等教育 41
204 40
443 40
667 40
V.10 40
一系列 40
下向 40
中为 40
以使 40
何人 40
依靠 40
劫持人质 40
卫星 40
压力 40
参与者 40
双重 40
回合 40
多元化 40
广为 40
开采 40
战斗 40
战祸 40
执法人员 40
族群 40
无人 40
星期 40
普通 40
某 40
核心作用 40
次数 40
第六章 40
缴款 40
联合国人口基金 40
财产权 40
遵行 40
邻近地区 40
除了 40
面积 40
1971 39
229 39
230 39
275 39
426 39
I.18 39
TD 39
三年期 39
不限 39
为限 39
住所 39
作出反应 39
例外 39
停火 39
兼 39
准许 39
列出 39
各类 39
四年 39
塞舌尔 39
学术 39
强加于 39
强调指出 39
才 39
提高认识 39
效果 39
来文 39
源 39
用户 39
笔译 39
第三项 39
签发 39
管理处 39
纪律 39
群岛 39
联合会 39
联邦 39
蚊帐 39
观察 39
计量 39
资金来源 39
辅助 39
边缘化 39
连同 39
迫害 39
重叠 39
间接 39
防灾 39
附带 39
1771 38
1961 38
252 38
30822 38
33480 38
不当 38
令 38
体 38
体面 38
公共部门 38
公报 38
出身 38
初次 38
初级 38
化学品 38
南部非洲 38
卷入 38
告知 38
奠定 38
客观性 38
恶劣 38
改组 38
效应 38
无害 38
核战争 38
演变 38
特派 38
甄选 38
称为 38
第十九条 38
编列 38
肯定 38
要点 38
贸发 38
达格 38
速度 38
遗传 38
采取任何 38
陆 38
238 37
276 37
296 37
305 37
503 37
E.98 37
IX.4 37
REP 37
V.11 37
一再 37
亲属 37
人民解放军 37
以色列国 37
以色列政府 37
价格 37
优先权 37
全力 37
兴奋剂 37
切割 37
划拨 37
区内 37
原则上 37
原子 37
友好 37
发动 37
受难者 37
只要 37
召开大会 37
基本权利 37
奴役 37
奴隶 37
对本 37
巴厘 37
巴马科 37
年届会 37
延迟 37
建造 37
拆除 37
插入 37
摆脱 37
普及教育 37
有损 37
核动力 37
核实 37
根本原因 37
档案 37
概览 37
毛坯 37
水下 37
海事 37
激励 37
理想 37
相互作用 37
第七届 37
第四十二届 37
职司 37
节录 37
表示遗憾 37
诉诸 37
调解人 37
跟踪 37
转交 37
迁移 37
还应 37
追求 37
非洲大陆 37
257 36
394 36
606 36
871 36
Add.4 36
I.5 36
XXII 36
XXX 36
三分之二 36
不论是 36
中应 36
五十周年 36
企图 36
休战 36
保全 36
信心 36
偿债 36
全面实施 36
共计 36
其余 36
内为 36
军事装备 36
出入 36
剩余 36
加德满都 36
南方 36
参考 36
司法机关 36
各个领域 36
处置 36
多边条约 36
实况 36
密切相关 36
开罗 36
彼此之间 36
总督 36
拖欠 36
指 36
推迟 36
每一 36
水资源 36
活跃 36
爆炸 36
牵头 36
电视 36
相互尊重 36
相称 36
碎片 36
第四十届 36
签订 36
统计数据 36
虽 36
见解 36
贪污 36
足以 36
送回 36
遗留 36
领取 36
－ 36
2545 35
30619 35
509 35
556 35
602 35
AHG 35
VII 35
m 35
下降 35
中所作 35
为本 35
会谈 35
先进 35
全权 35
内载 35
凯科 35
别的 35
削弱 35
压制 35
周转基金 35
国对 35
国应 35
圣保罗 35
域外 35
多方 35
夺取 35
工作者 35
忽视 35
感到遗憾 35
所提 35
扣押 35
挑重担 35
撤离 35
文字 35
无阻 35
早期 35
条所 35
条所列 35
段落 35
民主联盟 35
特克斯 35
环境退化 35
现存 35
科学技术 35
移送 35
维护者 35
自主权 35
若 35
获 35
蔓延 35
证件 35
这笔 35
配额 35
高技术 35
1983 34
246 34
268 34
463 34
510 34
● 34
不可逆转 34
业 34
举目无亲 34
信息中心 34
其能 34
冻结 34
分子 34
功效 34
可用 34
命令 34
和平谈判 34
基石 34
奴隶制 34
字 34
宗教自由 34
已获 34
影响力 34
悲惨 34
所有权 34
所订 34
扭转 34
拨出 34
授予 34
排放 34
放弃 34
时向 34
权威 34
汇辑 34
海牙公约 34
清单 34
照料 34
现实意义 34
相 34
省 34
短缺 34
确信 34
税 34
经营 34
罂粟 34
联合声明 34
费 34
达 34
连贯性 34
适足 34
长老 34
阿 34
非法行为 34
1071 33
1760 33
1975 33
274 33
281 33
357 33
402 33
478 33
559 33
C.6 33
不@@ 33
东南亚国家联盟 33
中东地区 33
互利 33
亟须 33
作战 33
信息系统 33
其所 33
刑法 33
创建 33
加大 33
卢萨卡 33
发给 33
变革 33
因果 33
对应 33
封锁 33
小学 33
工程 33
应以 33
征得 33
快速 33
性健康 33
提高效率 33
日前 33
普及 33
未成年 33
海岸 33
消费 33
第十七条 33
第十三届 33
精简 33
紧迫 33
节目 33
补助 33
认知 33
还是 33
通常 33
重新召集 33
革命 33
额 33
0.7 32
1969 32
264 32
412 32
一@@ 32
东 32
东南亚 32
严重性 32
交换意见 32
优质 32
余额 32
停火协定 32
全面解决 32
公民投票 32
公然 32
刑事诉讼 32
利用率 32
动荡 32
北部 32
南亚 32
各非 32
吉隆坡 32
囚犯 32
回归 32
圆满 32
圣城 32
埃塞俄比亚政府 32
外交部长 32
多数 32
多方面 32
年初 32
年长 32
承担责任 32
持械 32
擅自 32
教育工作者 32
教训 32
极端主义 32
查访 32
概不 32
毕业 32
流亡 32
海图 32
海底 32
燃料 32
物色 32
病 32
真诚地 32
稳固 32
第一阶段 32
第二十二届 32
第二期 32
第二款 32
第二阶段 32
第五十 32
管理工作 32
粮农组织 32
职员 32
责任人 32
贯彻执行 32
过 32
过渡政府 32
退出 32
金融危机 32
销售 32
首席 32
驱逐 32
高质量 32
&apos; 31
302 31
391 31
462 31
8791 31
不良影响 31
不足以 31
互助 31
份 31
位于 31
低收入 31
供应商 31
信守 31
倾弃 31
偏低 31
克减 31
功能 31
受到限制 31
国际贸易中心 31
外来 31
奖励 31
宣告 31
小型 31
平均 31
强大 31
当 31
战略性 31
担保 31
掠夺 31
核能 31
汇率 31
汲取 31
法制 31
流网 31
海洋污染 31
疫苗 31
瘘管 31
白盔 31
研制 31
积压 31
穆斯林 31
立宪 31
符合国际 31
第一期 31
第三个 31
第五节 31
红十字会 31
综合性 31
缓和 31
载于 31
辩护 31
运载工具 31
1907 30
279 30
282 30
508 30
Sub.2 30
n 30
一点 30
三角 30
下述 30
不致 30
东京 30
两用 30
五年期 30
产出 30
产科 30
人道 30
任用 30
低于 30
俱乐部 30
全盘 30
公 30
关税 30
具体步骤 30
势头 30
包含 30
南太平洋 30
南部 30
双边合作 30
名 30
国际电信联盟 30
实际上 30
对受 30
手册 30
扶养 30
拘禁 30
指派 30
文件系统 30
核军备 30
法律义务 30
法律效力 30
澄清 30
特别强调 30
生殖器官 30
相符 30
类别 30
精算 30
结社自由 30
致使 30
行 30
该段 30
诱杀 30
诽谤 30
负有责任 30
边缘 30
这场 30
针对性 30
陆上 30
非国家 30
额外负担 30
马 30
马普托 30
1968 29
259 29
272 29
277 29
459 29
472 29
C.81 29
XXVIII 29
中@@ 29
中上层 29
人身 29
代价 29
供其 29
关键因素 29
军事行动 29
取缔 29
召集 29
可否 29
可行性 29
地为 29
地震 29
多地 29
失去 29
将会 29
已于 29
应于 29
总数 29
惯常 29
教徒 29
暴行 29
有人 29
权益 29
极其 29
每月 29
涉嫌 29
现状 29
甚至 29
生长 29
着眼于 29
章 29
第六届 29
第十五届 29
自主 29
节约 29
订于 29
认定 29
责成 29
贯穿 29
贿赂 29
赞助 29
跨 29
转变 29
载入 29
适宜 29
阻挠 29
阿尔及尔 29
预防措施 29
0@@ 28
1325 28
278 28
289 28
311 28
330 28
387 28
439 28
573 28
8@@ 28
BWC 28
IV.6 28
R 28
T 28
XVIII 28
三级 28
下令 28
不适 28
两次 28
两种 28
交流经验 28
人均 28
伊朗 28
做好 28
入伍 28
其为 28
化学 28
南极洲 28
占领军 28
危急 28
反对派 28
发言人 28
国情 28
国有 28
基层 28
大程度 28
大纲 28
失踪者 28
始终 28
实习 28
审判程序 28
布林迪西 28
布里奇敦 28
开列 28
当事国 28
找到 28
担负 28
挨饿 28
提醒 28
杀人 28
某一 28
欠款 28
此外 28
海龟 28
混合 28
清理 28
灾难性 28
特别法庭 28
犯罪者 28
生产国 28
知情 28
离开 28
竞争性 28
第一项 28
第九 28
精确 28
紧急状态 28
老年 28
耽搁 28
表决权 28
议员 28
该届 28
负面 28
起源 28
起着 28
边境 28
通力合作 28
部长会议 28
配置 28
金融部门 28
长期存在 28
1874 27
7A 27
一定 27
中向 27
中立 27
主管机构 27
事实上 27
人为 27
从速 27
使得 27
保护区 27
信通 27
借用 27
兴趣 27
冷战 27
减半 27
几个 27
努力提高 27
勾销 27
原 27
参加者 27
友谊 27
受害国 27
另外 27
可信 27
合适 27
周年 27
国际事务 27
国际奥林匹克委员会 27
奥林匹克运动会 27
定罪 27
实务 27
审理 27
局面 27
居所 27
屠杀 27
年轻 27
很多 27
战胜 27
所示 27
扶持 27
报酬 27
抵消 27
撒哈拉 27
斯德哥尔摩 27
日趋 27
时@@ 27
暴力事件 27
来看 27
核废料 27
每届 27
永远 27
求偿 27
测量 27
海里 27
深化 27
添加 27
种类 27
竞赛 27
章节 27
第三十四届 27
管理制度 27
红新月会 27
纽约联合国总部 27
组织法 27
经常性 27
缓慢 27
网络安全 27
网页 27
试点 27
贸易谈判 27
车辆 27
进出口 27
追加 27
追回 27
阿富汗人 27
非法活动 27
预算编制 27
鱼 27
鼓舞 27
1244 26
1947 26
2173 26
316 26
317 26
332 26
361 26
540 26
579 26
580 26
上升 26
世界卫生 26
丧生 26
亚太 26
产权 26
从中 26
以利 26
优势 26
储蓄 26
六个 26
出来 26
制 26
加工 26
南美洲 26
即使 26
参与性 26
发展前景 26
发送 26
后世 26
和睦 26
图 26
坦佩雷 26
大部分 26
安全措施 26
安第斯 26
完全符合 26
山年 26
干扰 26
幸存者 26
弱势 26
强行 26
情事 26
意味着 26
成年人 26
报 26
效能 26
时机 26
最初 26
深为 26
物种 26
益处 26
睦邻关系 26
科学界 26
第七十六条 26
第三十五届 26
第八届 26
经过 26
缩短 26
考试 26
至今 26
西非 26
议会选举 26
该次 26
财富 26
超出 26
身体 26
辅导 26
连贯 26
采纳 26
重组 26
阶层 26
静止 26
马拉喀什 26
2171 25
2222 25
293 25
298 25
308 25
383 25
536 25
7@@ 25
SPLOS 25
o 25
两国 25
主权国家 25
仇视 25
依存 25
便于 25
信念 25
借助 25
值得 25
净 25
办理 25
劫持 25
十三 25
十天 25
印度尼西亚政府 25
去年 25
发放 25
各款 25
和平区 25
地理位置 25
基薪 25
多重 25
密切协作 25
岛 25
并非 25
恢复正常 25
情势 25
意志 25
持有 25
捐赠 25
提供方便 25
日益严重 25
易于 25
更具 25
曾经 25
未决 25
极大 25
果断 25
横滨 25
法律援助 25
法案 25
监督制度 25
知名人士 25
竞争 25
第七次 25
第三十七届 25
第八节 25
精算师 25
结成 25
统计数字 25
维持费 25
缺陷 25
联合体 25
荒漠 25
药用 25
表现形式 25
购买 25
赋权 25
转用 25
还有 25
追查 25
追踪 25
那样 25
部厅 25
量 25
陈述 25
限于 25
雇员 25
0.15 24
1299 24
1478 24
294 24
337 24
356 24
360 24
422 24
425 24
465 24
5778 24
759 24
763 24
C.86 24
C.95 24
CONF.202 24
IX.7 24
XIII.18 24
一百零五 24
下届 24
不带 24
中等 24
事业 24
仅 24
以免 24
全额 24
决策机构 24
凡 24
列明 24
力度 24
区域性 24
南北 24
参与方 24
发射 24
受限制 24
可@@ 24
否则 24
周 24
国别 24
型 24
培训班 24
士兵 24
多层面 24
女婴 24
定向 24
定居者 24
宣扬 24
巴勒斯坦人 24
常任理事 24
广大 24
应得 24
建筑 24
微额 24
技术咨询 24
换 24
接待 24
摊派 24
操作 24
斟酌 24
普选 24
有序 24
未受 24
杜绝 24
民事 24
气体 24
用尽 24
短期 24
破产 24
第三十九届 24
第三十八届 24
第八条 24
第十一条 24
第十八条 24
管理机构 24
累积 24
网址 24
而是 24
联合国大会 24
脱离 24
薪资 24
运载 24
适用范围 24
选定 24
1966 23
2011 23
271 23
3101 23
483 23
499 23
889 23
Add.7 23
INF 23
七个 23
下次 23
不容 23
不断扩大 23
世贸组织 23
两名 23
两者 23
严重后果 23
中有 23
丰富多彩 23
会议议程 23
保护主义 23
保护环境 23
保持一致 23
信息网 23
克 23
刑事犯罪 23
动态 23
区分 23
千百万 23
即审 23
却 23
各项政策 23
地国 23
基础教育 23
妨害 23
委托 23
市 23
得不到 23
所欠 23
扩充 23
据此 23
效用 23
时代 23
明确规定 23
最终目标 23
有益于 23
未满 23
条文 23
栏下 23
核威胁 23
母亲 23
沟通 23
派出 23
流落 23
海关 23
海鸟 23
物品 23
疗法 23
直到 23
相互间 23
真相 23
科技 23
积极支持 23
第二十九届 23
第八 23
第六节 23
纪念活动 23
组建 23
统筹兼顾 23
统计资料 23
缺少 23
聘用 23
自由行动 23
补救措施 23
补贴 23
裁武 23
视听 23
计划署 23
试爆 23
负责人 23
财务报告 23
跨部门 23
逍遥法外 23
通告 23
遭 23
防止出现 23
阿拉伯文 23
陷入 23
1.@@ 22
1674 22
287 22
307 22
520 22
578 22
CL 22
I.3 22
一句 22
一样 22
上诉 22
下均 22
不为过 22
为准 22
主张 22
书面形式 22
交给 22
价值观念 22
伴随 22
依循 22
保险 22
充分发挥 22
充当 22
共有 22
军火 22
决策者 22
几乎 22
分配资源 22
分项 22
创伤 22
刺激 22
劳动力 22
十四 22
原主 22
另有 22
各项任务 22
同该 22
咨商 22
器官 22
国家主权 22
坚持 22
增拨 22
大麻 22
宜 22
对非 22
尚 22
年会 22
应计 22
开设 22
强制 22
当家作主 22
感染者 22
所@@ 22
提起 22
支柱 22
教材 22
新型 22
最多 22
有效途径 22
未经许可 22
本地 22
构想 22
枪支 22
架构 22
死伤 22
比什凯克 22
深感不安 22
爆发 22
现任 22
珊瑚 22
着重于 22
确实 22
第三十六届 22
第三十届 22
第九届 22
第二十八届 22
第五十五 22
第十九届 22
紧密 22
紧急措施 22
维护和平 22
而作 22
行之有效 22
解决问题 22
评析 22
试图 22
该分 22
该区 22
迄今为止 22
通盘 22
防雷 22
零部件 22
非洲之角 22
驻留 22
1154 21
1515 21
284 21
381 21
390 21
424 21
428 21
492 21
537 21
CM 21
CONF.183 21
ICCD 21
MIN 21
㈦ 21
一切权利 21
一贯 21
三方 21
不具 21
不符 21
中止 21
事 21
亚的斯亚贝巴 21
伊 21
伊斯兰 21
伊斯兰教 21
优化 21
先生 21
内在 21
准确性 21
减缓 21
分散 21
刑罚 21
判处 21
到达 21
前使 21
副本 21
力 21
十二个 21
发达 21
各大 21
名称 21
命运 21
喀布尔 21
国@@ 21
土著人 21
外展 21
媒介 21
宽容 21
幅度 21
年轻人 21
应@@ 21
度 21
待命 21
成长 21
战斗人员 21
所致 21
所获 21
所谓 21
打击犯罪 21
投诉 21
摧毁 21
救助 21
文盲 21
新增 21
昂山 21
有利条件 21
未获 21
本法 21
条所载 21
某项 21
正如 21
武力威胁 21
法令 21
流入 21
物力 21
物理 21
用语 21
电子商务 21
百条 21
监督机构 21
相一致 21
研拟 21
神户 21
祸害 21
租金 21
第三方 21
第十一章 21
第十三条 21
第十二条 21
第十四条 21
紧张 21
紧急行动 21
联网 21
自然遗产 21
表示同意 21
论 21
识字 21
走私 21
跨学科 21
边际 21
迈出 21
这份 21
逐个 21
道路交通 21
那 21
邮政 21
雅加达 21
集结 21
预缴 21
01 20
10@@ 20
1465 20
1502 20
1946 20
2020 20
24841 20
417 20
450 20
488 20
591 20
660 20
Add.6 20
C.05 20
HRC 20
IV.4 20
U 20
VI 20
XXVII 20
不懈努力 20
中小型 20
书记官 20
亦 20
人@@ 20
什么 20
介入 20
他国 20
优惠条件 20
传染 20
传统习俗 20
伦敦 20
保护措施 20
全面性 20
内所 20
准入 20
出发 20
出口国 20
切合实际 20
前南 20
十三个 20
占有 20
受益者 20
合成 20
同@@ 20
同行 20
增加额 20
大@@ 20
存续 20
定 20
对抗 20
展览 20
工会 20
差别待遇 20
巴哈 20
席位 20
待定 20
循序渐进 20
微型 20
意识形态 20
成 20
战略目标 20
抬头 20
指导组 20
捕获 20
排 20
推翻 20
收费 20
改革方案 20
政治犯 20
敦请 20
无@@ 20
日于 20
早婚 20
有@@ 20
未成年人 20
未爆 20
本章 20
极 20
某人 20
案例 20
正当理由 20
殖民 20
殖民统治 20
民兵 20
海盗行为 20
深海 20
清洗 20
生而自由 20
目 20
睦邻 20
祝贺 20
立法机关 20
立法机构 20
第二项 20
第五届 20
第八次 20
系统对 20
红十字 20
细节 20
职业培训 20
联合国日内瓦办事处 20
自由权 20
萨赫勒 20
葡萄牙语 20
论处 20
负 20
负债 20
转化 20
通货膨胀率 20
除外 20
革新 20
风险管理 20
饮用水 20
高度重视 20
12A 19
1976 19
1@@ 19
323 19
375 19
574 19
A.4 19
AU 19
CP.3 19
一至 19
一词 19
三卷 19
三项 19
上次 19
中所 19
举办活动 19
之日 19
九个 19
二十周年 19
人身自由 19
以利于 19
会计 19
会议记录 19
体面地 19
供水 19
公共服务 19
兹 19
农产品 19
出版社 19
力所能及 19
加@@ 19
务必 19
动力 19
包 19
十五 19
危地马拉政府 19
历史性 19
发言权 19
口头报告 19
合作项目 19
名义 19
国外 19
国民经济 19
国际性 19
图里 19
增至 19
增设 19
如同 19
审讯 19
客户 19
尤为 19
开展业务 19
强烈呼吁 19
征募 19
循环基金 19
德黑兰 19
总结 19
恰当 19
指数 19
文物 19
无须 19
标准化 19
格 19
梅拉 19
每种 19
水灾 19
汉密尔顿 19
沉重 19
沙姆沙伊赫 19
海外 19
滞留 19
特有 19
电文 19
百分比 19
监察员 19
看到 19
真诚 19
积累 19
空中 19
第九章 19
第五条 19
第十条 19
管理部 19
红新月 19
红色高棉 19
纳粹主义 19
结构性 19
统一性 19
编辑 19
署长 19
美国 19
美好 19
老人 19
著重 19
观测 19
订约 19
许可证 19
设有 19
该处 19
该条 19
调拨 19
调研 19
谢利 19
路易港 19
辛格 19
近期 19
进口国 19
退约 19
预先 19
驱虫 19
13@@ 18
15@@ 18
16@@ 18
2187 18
334 18
38544 18
423 18
480 18
521 18
530 18
532 18
561 18
593 18
904 18
9464 18
C.00 18
WFS 18
一大 18
一天 18
一律平等 18
一段 18
三名 18
不到 18
两周 18
两届 18
严重破坏 18
主导作用 18
之内 18
交送 18
以人为本 18
伯利恒 18
侧重 18
倾倒 18
先例 18
全体成员 18
公开性 18
内所载 18
再接再厉 18
军事力量 18
农地 18
分类 18
判例 18
印制 18
即时 18
及第 18
双边协定 18
反贪污 18
受理 18
可靠性 18
合法权利 18
后裔 18
听取 18
和善 18
商品价格 18
四周 18
团伙 18
国向 18
国际争端 18
外交使团 18
失业率 18
委员 18
学术界 18
宇宙 18
宗教团体 18
对外 18
导航 18
小组会议 18
尔 18
尤应 18
并未 18
广泛支持 18
底薪 18
延绳钓 18
建筑物 18
当中 18
当今世界 18
忠实 18
性别歧视 18
手续 18
执行公务 18
抗 18
拨给 18
挂钩 18
收养 18
政 18
政治纲领 18
数以千计 18
无可 18
普遍存在 18
最迟在 18
服务业 18
服务质量 18
朝向 18
本源 18
村庄 18
某种 18
核弹头 18
欧亚 18
法律顾问 18
波动 18
深入研究 18
清雷 18
灵活性 18
牛津大学 18
生产能力 18
男女比例 18
目录 18
相等 18
第三十三届 18
第三条 18
素质 18
结盟 18
统治 18
美国联邦 18
耶路撒冷城 18
自力更生 18
自动 18
解放 18
责任制 18
贷项 18
贸易条件 18
走向 18
越境 18
近来 18
进而 18
逐出 18
重新占领 18
量度 18
随着 18
青蒿素 18
面向市场 18
高级官员 18
鸦片 18
1197 17
1958 17
291 17
3511 17
395 17
481 17
534 17
566 17
9@@ 17
GATT 17
INFCIRC 17
un 17
一事 17
一支 17
一步 17
万 17
三届 17
不必要 17
不懈 17
个人身份 17
个体 17
中低收入 17
中载列 17
人员伤亡 17
们 17
保持平衡 17
修复 17
入境 17
公共安全 17
六十周年 17
六周 17
冷水 17
分庭 17
列举 17
制宪 17
加深 17
医疗卫生 17
十六 17
南非洲 17
卡内基 17
历次 17
参数 17
反馈 17
发 17
取用 17
受惠 17
另行 17
可预测性 17
司法部门 17
吸取 17
喀土穆 17
城市论坛 17
处在 17
外勤 17
多样 17
天基 17
女 17
好 17
家 17
容许 17
密切联系 17
对@@ 17
尚余非 17
工商业 17
差值 17
布宜诺斯艾利斯 17
平民百姓 17
废 17
建成 17
形势 17
战略规划 17
房地 17
扫除 17
拉 17
指称 17
捍卫 17
损坏 17
撒 17
放射性物质 17
文第 17
新药 17
日常 17
最为 17
最受 17
有增无减 17
朝 17
朝着 17
朝鲜民主主义人民共和国政府 17
机场 17
权威性 17
核证 17
概要 17
此前 17
此后 17
步伐 17
死亡率 17
民警 17
民间组织 17
水产 17
海域 17
温室 17
灾区 17
物和弃 17
狭小 17
电子邮件 17
相关性 17
知名 17
知道 17
研发 17
破产法 17
科 17
移动 17
经由 17
结构调整 17
绝不 17
维修 17
联合行动 17
艰难 17
裁判 17
西亚 17
观察团 17
言 17
该所 17
详细资料 17
财政管理 17
转入 17
迄今已 17
连续 17
连续性 17
遥感 17
金融中心 17
长 17
降 17
面前 17
顺应 17
预见 17
驱回 17
0.20 16
1540 16
1612 16
17@@ 16
1833 16
1899 16
2131 16
2826 16
31363 16
386 16
389 16
489 16
494 16
550 16
650 16
C.87 16
CLCS 16
L.12 16
p 16
一切办法 16
一组 16
下文 16
不利于 16
不动产 16
不遗余力 16
与此同时 16
中将 16
中文 16
中等教育 16
中请 16
之@@ 16
习惯 16
交往 16
产 16
产前 16
亵渎 16
令人满意 16
以内 16
位置 16
借以 16
借此 16
债务国 16
债权国 16
全文 16
八个 16
公共事务 16
公共政策 16
其@@ 16
内@@ 16
内陆国 16
减疟 16
减让 16
几年 16
切尔诺贝利核电站 16
刑 16
刑事责任 16
利害关系 16
制药 16
动植物 16
十个 16
印刷 16
即应 16
受益人 16
可供 16
员 16
哥伦比亚特区 16
商业性 16
四条 16
围绕 16
国家机关 16
土著居民 16
基本概念 16
基本法 16
墨西哥城 16
多种不同 16
大有 16
失效 16
孕妇 16
孤身 16
安全部队 16
密切注意 16
富有 16
展望 16
履行义务 16
应从 16
应立即 16
延续 16
建立健全 16
建立联系 16
弃鱼 16
得益 16
忧虑 16
恐惧 16
悲剧 16
所受 16
所属 16
所设 16
抵触 16
招聘 16
挑衅 16
损耗 16
接受国 16
接近 16
措辞 16
操守 16
新闻媒介 16
新闻自由 16
无证 16
日渐 16
时效 16
更改 16
期刊 16
柏林 16
此项工作 16
残酷 16
毗邻 16
治外 16
流向 16
清偿 16
清楚 16
湖区 16
特殊作用 16
生成 16
知悉 16
种 16
税率 16
第七节 16
等等 16
篇幅 16
索取 16
经社理事会 16
而定 16
联络处 16
联络组 16
能为 16
自愿性 16
自由选择 16
艰苦 16
范本 16
薄弱 16
行业 16
行进 16
西欧 16
警察部队 16
诱拐 16
贯彻落实 16
身份证 16
转达 16
远离 16
远距离 16
遭遇 16
重大成就 16
错误 16
附有 16
非洲人 16
食品 16
1019 15
14956 15
14@@ 15
17.@@ 15
1915 15
2012 15
314 15
331 15
351 15
385 15
392 15
446 15
474 15
484 15
5.6 15
518 15
519 15
547 15
558 15
560 15
625 15
658 15
823 15
850 15
917 15
999 15
CONF.164 15
Dec.@@ 15
EX 15
PC 15
RC 15
REPHRASED 15
一亿 15
一位 15
一体 15
一周 15
一旦 15
七@@ 15
上@@ 15
上游 15
专 15
专用 15
丢失 15
主体 15
乡村 15
事由 15
产量 15
人事 15
仔细 15
以@@ 15
仲裁员 15
侵蚀 15
便 15
共同点 15
关押 15
兼容 15
决意 15
几项 15
函件 15
刚果人 15
创收 15
初期 15
删去 15
判断 15
前途 15
务实 15
务须 15
勘探 15
医疗保健 15
升级 15
及美属 15
变得 15
可取 15
司法独立 15
合法政府 15
同非 15
名册 15
后面 15
否定 15
和平共处 15
和睦相处 15
商事 15
团长 15
国际形势 15
圆满完成 15
圆满结束 15
圣地 15
地质 15
坚实 15
基伍 15
境地 15
增值 15
多种形式 15
大楼 15
头 15
奉行 15
如@@ 15
子 15
宗教信仰 15
审定 15
宿主 15
射入 15
小农 15
小国 15
少女 15
尚待 15
展现 15
展示 15
工作日 15
布加勒斯特 15
带有 15
幼鱼 15
广播员 15
底鱼 15
役 15
待 15
循环 15
恪守 15
捕捞业 15
据报 15
推定 15
携手 15
撤消 15
整理 15
文职人员 15
断肢 15
新兴 15
方可 15
施工 15
无视 15
时以 15
最低标准 15
有待 15
期@@ 15
期内 15
本次 15
杀虫剂 15
查禁 15
查询 15
核扩散 15
检测 15
欧元 15
正是 15
死灰复燃 15
比勒陀利亚 15
民生 15
法@@ 15
法文 15
现实 15
现已 15
生命线 15
生物武器 15
癖 15
社会制度 15
福利制度 15
科托努 15
秘密 15
称 15
第三十一条 15
第九次 15
第十六届 15
筹划 15
约定 15
经济秩序 15
缩减 15
自我 15
获悉 15
行为准则 15
被告人 15
西 15
覆盖 15
解散 15
计算机 15
证实 15
诚信 15
该城 15
详尽 15
调解员 15
财产损失 15
身份证件 15
这@@ 15
迟延 15
送达 15
适用法律 15
适龄 15
那种 15
鉴定 15
雷区 15
饱经 15
1925 14
2205 14
2819 14
3.@@ 14
310 14
321 14
326 14
341 14
347 14
355 14
358 14
401 14
415 14
419 14
421 14
432 14
453 14
506 14
515 14
605 14
687 14
790 14
848 14
Assembly 14
CN.17 14
ExCOP 14
IX 14
IX.8 14
LEG 14
SS 14
XXXV 14
law 14
㈧ 14
一个月 14
一人 14
一百七十 14
三分之一 14
三十周年 14
三次 14
不堪 14
世界气象组织 14
世界粮食计划署 14
两份 14
严厉 14
严格执行 14
个案 14
中介 14
二十五 14
互联网 14
亚非 14
交 14
交互 14
人民代表 14
伊拉克政府 14
使用暴力 14
借调 14
全民教育 14
全面落实 14
八七 14
关贸总协定 14
内政 14
准予 14
分@@ 14
刚 14
判处死刑 14
剂 14
前所未有 14
医学 14
十@@ 14
十七 14
卡纳克 14
即可 14
双向 14
反对党 14
另一方面 14
司在 14
吸收 14
商业活动 14
商务 14
四十四个 14
回收 14
团结一致 14
固定 14
国内外 14
国所作 14
城乡 14
城市化 14
基 14
复方 14
多次 14
失业 14
失望 14
始发 14
姓名 14
婚姻 14
安全部门 14
宜于 14
容留 14
小规模 14
山脉 14
已@@ 14
布@@ 14
并经 14
广为人知 14
广播电台 14
库 14
应自 14
应适当 14
廉正 14
延误 14
怀孕 14
怂恿 14
性侵犯 14
患者 14
愈来愈多 14
或分 14
或次 14
所载列 14
技术性 14
抗药性 14
抚养 14
报复 14
拉丁 14
持续性 14
持证 14
指挥 14
据称 14
提尼翁 14
摒弃 14
政策措施 14
日益增长 14
明 14
是因为 14
晋升 14
更@@ 14
最具 14
最高级别 14
有形 14
末尾 14
本款 14
权力下放 14
标志 14
检查站 14
欠缴 14
死 14
每次 14
水道 14
海峡 14
渴望 14
源于 14
火器 14
然后 14
版本 14
理应 14
申报 14
电子媒体 14
疆界 14
白皮书 14
监护 14
相威胁 14
相比 14
研所 14
碰撞 14
积极开展 14
称赞 14
移入 14
空白 14
竭力 14
第二卷 14
第十三 14
第十节 14
策划 14
筹办 14
系 14
素季 14
终生 14
经济合作与发展组织 14
结婚年龄 14
结算 14
绝不能 14
而应 14
覆盖范围 14
规程 14
调停 14
费率 14
起到 14
还要 14
远程 14
选择权 14
邻近 14
重大意义 14
金属 14
金融市场 14
隐私 14
难以 14
集会自由 14
非核心 14
项下 14
顺差 14
预备 14
预定 14
马那瓜 14
驱动 14
1397 13
1520 13
2051 13
26363 13
280 13
2997 13
340 13
346 13
350 13
35457 13
370 13
380 13
456 13
490 13
511 13
565 13
581 13
596 13
750 13
950 13
C.3 13
C.4 13
En 13
W 13
XXIV 13
_ 13
htm 13
㈨ 13
一百四十 13
不久 13
不予 13
不合理 13
不向 13
不起 13
专业化 13
专项 13
中所列 13
书面声明 13
书面通知 13
予以考虑 13
事务司 13
二名 13
二所载 13
互信 13
互相合作 13
五十多年 13
五项 13
交通 13
产后 13
人员编制 13
人格尊严 13
人种 13
令人发指 13
以下内容 13
任何一方 13
任地 13
企业界 13
伊比利亚 13
作准 13
作贡献 13
供应品 13
促进作用 13
俄文 13
信奉 13
健康状况 13
充分行使 13
入境签证 13
入学 13
全国性 13
全球战略 13
公共财政 13
公务 13
公务人员 13
养殖 13
农业部门 13
减 13
凡是 13
出@@ 13
分歧 13
分离 13
刚刚 13
创业 13
判刑 13
办公 13
加以解决 13
动乱 13
努力争取 13
劳工法 13
化为 13
千差万别 13
协约 13
及时性 13
受伤 13
可比 13
各政党 13
同亚非 13
后者 13
含 13
喷剂 13
团在 13
国与国 13
国际舞台 13
圣地亚哥 13
地@@ 13
地理信息系统 13
场址 13
基里巴斯 13
外国人 13
多语种 13
大选 13
大陆 13
天气 13
学者 13
审案 13
室内 13
对养 13
将要 13
就职 13
层次 13
山岳 13
巴尔干 13
常 13
年@@ 13
年薪 13
康复中心 13
开头 13
引发 13
引导 13
弘扬 13
弱点 13
强 13
很难 13
急需 13
恐怖活动 13
意向 13
成人 13
战俘 13
扫雷 13
技术支持 13
抑制 13
抗辩 13
抛弃 13
挑选 13
损毁 13
探视 13
提升 13
搜寻 13
搬迁 13
收缴 13
改动 13
改良 13
整套 13
新闻记者 13
无辜 13
时地 13
时所 13
旷日持久 13
明示 13
暂行 13
有秩序地 13
未交 13
枯竭 13
查找 13
格局 13
检索 13
植物 13
欧洲理事会 13
正确 13
武器化 13
民族主义 13
沿岸 13
法系 13
洛美 13
海平面 13
深表遗憾 13
游客 13
源泉 13
满 13
牢固 13
特 13
犹太主义 13
甚 13
申请书 13
相结合 13
石油 13
科学家 13
积极合作 13
积极响应 13
第一句 13
第一步 13
第九条 13
第二十二条 13
筹供 13
筹款 13
管理层 13
管理费用 13
紧迫性 13
纳粹 13
组办 13
组在 13
经验交流 13
续 13
美利坚合众国政府 13
能以 13
自从 13
航海 13
航运 13
节所载 13
苯丙胺 13
获准 13
营利 13
蒙特利尔 13
血统 13
行政权 13
裁定 13
许诺 13
证券 13
诊断 13
询问 13
贝尔格莱德 13
贝鲁特 13
贸易协定 13
辨认 13
达尔富尔 13
这为 13
进修 13
进行性 13
退休金 13
那里 13
里程碑 13
重@@ 13
重计 13
鉴定人 13
长老会 13
陈 13
限额 13
隐瞒 13
非农业 13
频繁 13
飞行员 13
饮水 13
马@@ 13
马格里布 13
高层 13
...... 12
.3 12
1950 12
26705 12
299 12
2@@ 12
313 12
319 12
33757 12
33873 12
365 12
374 12
39574 12
435 12
436 12
457 12
467 12
469 12
476 12
477 12
479 12
485 12
501 12
563 12
571 12
572 12
582 12
690 12
6@@ 12
780 12
815 12
A.3 12
A@@ 12
Add.8 12
CONF.172 12
CONF.187 12
PC.2 12
XII 12
XIV 12
XXXVI 12
三十@@ 12
上将 12
不复存在 12
不够 12
不良后果 12
业主 12
东欧国家 12
两天 12
中东国家 12
中以 12
为重 12
为首 12
主持人 12
举报 12
义务教育 12
乌克兰政府 12
事宜 12
亿 12
以图 12
仪式 12
任满 12
会员 12
会议室 12
传递 12
作证 12
使人 12
保管 12
信天翁 12
信用证 12
借口 12
借鉴 12
儿童教育 12
免除 12
公共财产 12
公告 12
公职 12
共同商定 12
共同声明 12
关键时期 12
其下 12
兼并 12
内涵 12
冬季 12
准 12
准备金 12
减去 12
凭借 12
创业精神 12
判决书 12
利马 12
加大力度 12
加重 12
努力完成 12
单边 12
原定 12
原有 12
发布 12
发生地 12
发表意见 12
受到破坏 12
变更 12
司法官员 12
司法程序 12
各@@ 12
各份 12
向@@ 12
含有 12
听证会 12
周转 12
地图 12
地址 12
场地 12
垫款 12
基本要素 12
基督教徒 12
基线 12
增列 12
增加收入 12
复杂性 12
外流 12
多@@ 12
多国 12
大家 12
天文 12
失业问题 12
如能 12
委任 12
学 12
安非他明 12
密不可分 12
寡妇 12
导 12
居住地 12
居住者 12
岌岌可危 12
差别 12
差旅费 12
已满 12
已登记 12
巴勒莫 12
布拉柴维尔 12
带头 12
平稳过渡 12
平行 12
年养 12
开幕 12
开普敦 12
当时 12
往来 12
得出 12
性保健 12
想 12
成@@ 12
成熟 12
成瘾 12
房屋 12
所为 12
托管 12
拉法 12
推回 12
推展 12
揭露 12
收回 12
收藏 12
放置 12
整合 12
文 12
文献 12
断定 12
新西兰政府 12
新闻媒体 12
日以 12
明知 12
易名 12
是从 12
更佳 12
最易 12
有害物质 12
条约法 12
杰出 12
桌面 12
正当程序 12
残留物 12
民政 12
民族团结 12
沉重负担 12
沿岸国 12
泊车 12
法国政府 12
派往 12
测绘 12
海道 12
涌入 12
深重 12
清除 12
特@@ 12
犯有 12
犹太人 12
现场 12
留住 12
的话 12
相互影响 12
相互理解 12
确切 12
社会活动 12
禁绝 12
私 12
私人资本 12
立刻 12
竞合 12
章中 12
笞 12
第三十二条 12
第二十一条 12
第二十四条 12
第十一次 12
第十五 12
第十章 12
第四个 12
纵容 12
组合 12
组成员 12
经历 12
经济基础 12
网上 12
职 12
自其 12
英国 12
获得成功 12
表@@ 12
被判 12
西帝 12
警报 12
评级 12
该@@ 12
诸边 12
调查团 12
转@@ 12
转换 12
轮值 12
过渡期 12
运输系统 12
选项 12
逐一 12
遇到困难 12
遏止 12
里斯本 12
链接 12
门 12
难民潮 12
非歧视 12
颁发 12
额为 12
饮食 12
香港 12
马尼拉 12
 12
.2 11
.7 11
.8 11
1001 11
1194 11
1377 11
14152 11
14691 11
1957 11
2056 11
21.@@ 11
2167 11
29@@ 11
301 11
309 11
3327 11
344 11
349 11
35597 11
364 11
373 11
377 11
388 11
403 11
405 11
420 11
429 11
448 11
449 11
468 11
473 11
487 11
539 11
546 11
549 11
589 11
597 11
626 11
633 11
648 11
653 11
976 11
Add 11
CONF.15 11
L.11 11
OC 11
PV.@@ 11
REC 11
XVI 11
online 11
一并 11
一所 11
一第 11
一读 11
三@@ 11
上面 11
下放 11
下称 11
不偏不倚 11
不必 11
不让 11
与日俱增 11
世界性 11
中东问题 11
中核 11
主席职位 11
乌兰巴托 11
乱伦 11
事务部长 11
事情 11
二读 11
互惠 11
互补 11
五@@ 11
五种 11
亚太地区 11
交由 11
人员培训 11
人均收入 11
人性 11
仍应 11
付诸实行 11
伊斯兰堡 11
传授 11
伤 11
伦理 11
估值 11
低成本 11
余下 11
作好 11
倍增 11
借款 11
债 11
偏离 11
偏高 11
停战线 11
充分反映 11
充实 11
先后 11
免税 11
兑现 11
公共秩序 11
关连 11
兵库县 11
其向 11
具 11
养育 11
冒 11
军人 11
减至 11
出口品 11
出庭 11
分工 11
分开 11
初等教育 11
利息 11
制度化 11
前瞻性 11
前面 11
助学金 11
单个 11
历年 11
原先 11
反而 11
发交 11
发表声明 11
受@@ 11
受地 11
受难 11
各个部门 11
听询 11
和平部队 11
品格高尚 11
喷口 11
四项 11
因@@ 11
因应 11
团是 11
圆满成功 11
在场 11
在此之前 11
在线 11
地理坐标 11
地面 11
均等 11
基多 11
基督教 11
塞 11
增效 11
增补 11
外界 11
大大减少 11
大幅度降低 11
太阳 11
实施方案 11
实用 11
导言 11
小组讨论 11
居高不下 11
布设 11
常常 11
常见 11
引用 11
弥补 11
强制执行 11
强制措施 11
当作 11
总则 11
恋童 11
恢复原状 11
恤 11
悼念 11
房 11
房舍 11
所以 11
所负 11
打破 11
折扣 11
抵制 11
拓展 11
拥有者 11
按规定 11
挑起 11
挫折 11
捕 11
排挤 11
提 11
支 11
改名 11
教育领域 11
新政府 11
无法控制 11
无论怎样 11
无酬 11
春季 11
普通照会 11
更高 11
有所改善 11
有效期 11
有机 11
朝鲜半岛 11
条向 11
林区 11
染上 11
核可本 11
概况 11
比值 11
民主选举 11
注册 11
派系 11
流量 11
海员 11
深远 11
激发 11
激增 11
热液 11
牢记 11
生态平衡 11
生活水准 11
病例 11
登记处 11
皆 11
相互信任 11
示威 11
社会群体 11
社团 11
票数 11
离职 11
科学知识 11
立即行动 11
第一号 11
第三轮 11
第二十条 11
第二次世界大战 11
第十一 11
第十二 11
策略 11
系统性 11
经@@ 11
经管 11
缉毒 11
美 11
美洲开发银行 11
考古 11
肺结核 11
自@@ 11
行政部门 11
表示感激 11
西班牙政府 11
规范性 11
警惕 11
订明 11
认证 11
设定 11
译成 11
负责管理 11
购置 11
贯彻实施 11
辩护律师 11
过份 11
运输工具 11
这组 11
迟交 11
迹象 11
送 11
透明化 11
逐字 11
递给 11
配备 11
重新安排 11
金钱 11
非@@ 11
顺利完成 11
题目 11
颠覆 11
鼓吹 11
齐心协力 11
.5 10
07 10
11@@ 10
1342 10
1359 10
1456 10
21360 10
22464 10
22495 10
306 10
320 10
327 10
329 10
37924 10
384 10
396 10
434 10
454 10
464 10
470 10
471 10
475 10
496 10
502 10
507 10
512 10
522 10
526 10
528 10
531 10
535 10
548 10
603 10
608 10
637 10
809 10
9.@@ 10
AP 10
Add.11 10
Add.12 10
C@@ 10
CN.15 10
CN.7 10
ISBA 10
MSP 10
Y 10
一俟 10
一律 10
一栏 10
一次性 10
一百@@ 10
七项 10
万人 10
三天 10
下落不明 10
不断加强 10
不法 10
不相容 10
不迟于 10
专长 10
专题组 10
两者之间 10
中所起 10
中欧 10
为性 10
为数 10
举债 10
交叉 10
人口老龄化 10
亿人 10
仅靠 10
今年 10
代@@ 10
代际 10
以本 10
任一 10
企业家 10
企盼 10
伸张正义 10
位 10
作法 10
使用者 10
例外情况 10
侮辱 10
俄罗斯联邦政府 10
保卫 10
信徒 10
偏远 10
党卫军 10
全@@ 10
六名 10
六星期 10
其他费用 10
内政部 10
减低 10
几种 10
利 10
利益冲突 10
到经 10
前@@ 10
办公厅 10
动物 10
勇敢 10
勇气 10
医院 10
十八 10
十条 10
单@@ 10
占多数 10
原应 10
原称 10
参加国 10
参差不齐 10
反洗钱 10
发病率 10
发行 10
受过 10
另一方 10
只能 10
各种因素 10
吞并 10
吸毒 10
咨询机构 10
善意 10
善政对 10
四十@@ 10
四管 10
回 10
国国民 10
国民议会 10
城镇 10
基@@ 10
基本上 10
增建 10
声音 10
复边 10
大屠杀 10
天 10
失常 10
妇幼 10
孕产妇 10
它同 10
安全事件 10
审核 10
审计报告 10
宵禁 10
富 10
对外部 10
封闭 10
尚无 10
居民点 10
履约 10
工作进度 10
差价 10
平均数 10
并@@ 10
库存 10
库尔德人 10
开 10
开拓 10
形态 10
形象 10
征询 10
性骚扰 10
总务 10
情报所 10
情节 10
惨痛 10
感激 10
成见 10
或性 10
所犯 10
所附 10
执行机构 10
批 10
技巧 10
投票权 10
抵销 10
拉@@ 10
拉维亚 10
持 10
指引 10
探测 10
探矿 10
接获 10
掸邦 10
提款权 10
收取 10
敌视 10
数个 10
数以百计 10
文化背景 10
新任 10
新纳粹 10
无数 10
日@@ 10
日程表 10
普埃布拉 10
更换 10
更易 10
替代性 10
月底 10
有毒 10
未遂 10
极力 10
构架 10
查验 10
梅里达 10
欲免 10
款下 10
此基础 10
残留 10
每隔 10
毫无 10
水文 10
求 10
汶 10
法中 10
注入 10
注意力 10
洪水 10
活动中心 10
流出 10
流域 10
海上运输 10
深刻 10
温尼伯 10
潜能 10
灾情 10
热烈欢迎 10
爆 10
独有 10
环境影响 10
环境法 10
环境署 10
生命周期 10
申请人 10
留在 10
百分之百 10
盆地 10
瞄准 10
砸死 10
礼拜 10
社会保障 10
社会工作者 10
离散 10
禽流感 10
科纳克里 10
积极行动 10
称职 10
稳定性 10
空间通信 10
竞选 10
第三十三条 10
第三十二届 10
第三款 10
第二十三条 10
第二句 10
第十四 10
第四十九条 10
简报 10
系统安全 10
纯属 10
结余 10
给付 10
继任 10
综合征 10
缔造 10
翻修 10
而设 10
职@@ 10
肆虐 10
肇事者 10
腐败现象 10
自立 10
航天 10
获释 10
营运 10
萨拉热窝 10
蒙受 10
被@@ 10
西班牙文 10
角落 10
解放运动 10
计及 10
讯息 10
请拨 10
贫富悬殊 10
资讯 10
赫尔辛基 10
跨国公司 10
跨越 10
过@@ 10
运动员 10
远程教育 10
连接 10
迫使 10
追究责任 10
选举法 10
逊尼派 10
逐案 10
通过审查 10
逼婚 10
遵从 10
避难 10
金额 10
长效 10
长期以来 10
队 10
防卫 10
阿拉木图宣言 10
附上 10
雇主 10
雷克雅未克 10
非传统 10
非洲开发银行 10
顾问团 10
领养 10
饥荒 10
齐下 10
２ 10
0.001 9
0.5 9
1.5 9
1026 9
1064 9
11.2 9
1196 9
1267 9
1368 9
14458 9
1495 9
2341 9
24111 9
2777 9
28.@@ 9
297 9
3235 9
325 9
3281 9
333 9
335 9
398 9
431 9
437 9
444 9
447 9
455 9
460 9
491 9
498 9
517 9
523 9
525 9
567 9
570 9
575 9
576 9
584 9
586 9
598 9
616 9
640 9
641 9
702 9
736 9
860 9
913 9
932 9
989 9
AC.154 9
Add.10 9
BMS 9
C.92 9
CRC 9
CTBT 9
Decl.1 9
IX.1 9
L.10 9
OO 9
Sect.13 9
XXIII 9
XXXVII 9
afg 9
ch 9
docs 9
html 9
unama 9
一倍 9
一笔 9
一群 9
一览表 9
七年 9
三国 9
下午 9
下去 9
不变 9
不已 9
不良 9
专注 9
业经 9
东南 9
两@@ 9
中立性 9
中长期 9
之二 9
乘以 9
书记 9
乱石 9
二百 9
五十年 9
亚斯 9
亚洲开发银行 9
享用 9
人体器官 9
人群 9
仅以 9
从未 9
付诸 9
付诸实施 9
代理人 9
以昭 9
会籍 9
传媒 9
估价 9
保险费 9
信奉宗教 9
信息管理系统 9
假日 9
光头 9
党组织 9
全心全意 9
公@@ 9
公海自由 9
共创 9
共同语言 9
共存 9
共用 9
兼容并蓄 9
内多 9
军@@ 9
军事基地 9
几@@ 9
凶杀 9
出借 9
出席会议 9
创意 9
创造性 9
初始 9
初稿 9
制图 9
前述 9
努力创造 9
勒 9
化@@ 9
匮乏 9
医药 9
卡@@ 9
卡努安 9
危急情况 9
原居地 9
原本 9
发@@ 9
受其 9
古奈姆山 9
句 9
句首 9
只应 9
可予 9
可疑 9
各位 9
各段 9
合法利益 9
后@@ 9
听众 9
善后 9
四五条 9
四分之三 9
国同 9
国民大会 9
地球科学 9
坎帕拉 9
基数 9
塔什干 9
处分 9
夏季 9
外@@ 9
外国投资 9
多万 9
多名 9
多种多样 9
奥运会 9
如本 9
婴儿 9
学会 9
学说 9
审前 9
对方 9
导游 9
尔@@ 9
尽责 9
屈从 9
工作效率 9
工作进展 9
已达成 9
布里奇顿 9
常规裁军 9
平等待遇 9
并入 9
并视 9
幸福 9
广阔 9
庇护所 9
应予以 9
应用程序 9
庞大 9
座谈会 9
延至 9
开创 9
开放市场 9
式 9
引文 9
张贴 9
强加 9
往返 9
得来 9
得益于 9
怀疑 9
性行为 9
恫吓 9
截止 9
所核 9
托付 9
扣减 9
扭曲 9
扰乱 9
抗疟 9
报表 9
担忧 9
担责任 9
拒 9
挪用 9
损及 9
掌管 9
接到 9
接替 9
推出 9
提出申请 9
收件人 9
故 9
教廷 9
数千 9
斯@@ 9
新@@ 9
新德里 9
新机制 9
旋风 9
日趋严重 9
时为 9
时至 9
明智 9
是非 9
显然 9
普查 9
最少 9
最广 9
有条不紊 9
有条理 9
有步骤 9
有着 9
有赖于 9
期除 9
未有 9
条@@ 9
欧洲共同体 9
武装集团 9
毁林 9
每@@ 9
毒性 9
求助 9
汇集 9
泰国政府 9
活跃分子 9
流感 9
浮油 9
海@@ 9
海盗 9
消费者 9
清晰 9
清洁 9
渊源 9
滥用权力 9
热心 9
牟利 9
特殊性 9
献身精神 9
现 9
珍惜 9
生@@ 9
生产率 9
生产者 9
生物资源 9
百万美元 9
盈余 9
相互依赖 9
省级 9
硫化物 9
确保安全 9
社会主义 9
社会关系 9
私下 9
私人生活 9
种族隔离 9
科技知识 9
租赁 9
稳健 9
稳步 9
稻米 9
空气污染 9
第三阶段 9
第二十二次 9
第十五条 9
第十六次 9
第十次 9
筹集资金 9
简单 9
算 9
米德 9
索偿 9
紧密联系 9
纪事 9
纳迪 9
终身 9
经济繁荣 9
结壳 9
结婚 9
绝大多数 9
缓减 9
缴 9
罗 9
罗@@ 9
群组 9
联机 9
联邦政府 9
胜任 9
能源供应 9
自卫 9
苏维埃 9
英才 9
英联邦 9
草稿 9
获取信息 9
行@@ 9
表彰 9
表达意见 9
见本 9
规章制度 9
角色 9
说 9
谋杀 9
豁免权 9
象 9
财政危机 9
财政困难 9
贸易壁垒 9
赫 9
轻重缓急 9
迁往 9
近 9
这使 9
连任 9
适时 9
通@@ 9
通货膨胀 9
通过培训 9
遗弃 9
重振 9
重新部署 9
野生 9
鉴别 9
钴 9
阿布 9
需@@ 9
非关税壁垒 9
音像 9
页数 9
领土问题 9
高@@ 9
.1 8
0.2 8
050 8
1304 8
1503 8
1653 8
1930 8
2114 8
2220 8
2252 8
343 8
359 8
368 8
39481 8
397 8
399 8
4.25 8
410 8
430 8
466 8
5.2 8
5.@@ 8
5158 8
538 8
554 8
557 8
562 8
5700 8
610 8
681 8
682 8
7515 8
8.@@ 8
845 8
8638 8
874 8
890 8
984 8
A.@@ 8
C.75 8
CERD 8
CN.10 8
CONF.203 8
COP.7 8
D@@ 8
DP 8
Dec.531 8
E.04 8
FIPL 8
HRI 8
L.22 8
L.23 8
L.24 8
L.34 8
L.36 8
L.39 8
L.4 8
L.9 8
LXXII 8
MSP.1 8
P@@ 8
SP 8
SR.30 8
Sects.1 8
XIV.1 8
XXXIV 8
aut 8
cep 8
int 8
unep 8
一百三十 8
一百八十 8
万国宫 8
上海 8
上调 8
下才 8
不分 8
不加 8
不均 8
不顾 8
世界市场 8
东欧 8
严惩 8
个人资料 8
中亚国家 8
中列明 8
中央政府 8
中学 8
之水 8
之用 8
也许 8
习惯法 8
书籍 8
予 8
二级 8
互动式 8
交战 8
交还 8
人权宣言 8
人犯 8
令人鼓舞 8
以致 8
以该 8
以防 8
优惠待遇 8
会同 8
会商 8
会晤 8
传送 8
伪造 8
伯顿法 8
似乎 8
体能 8
使本 8
保卫和平 8
信息管理 8
借贷 8
倡导者 8
债券 8
停止使用 8
停车场 8
偿付 8
偿还债务 8
先 8
全套 8
公正无私 8
六@@ 8
共同市场 8
共生 8
兼容并包 8
内所作 8
军事法庭 8
农务 8
分布 8
刑期 8
列报 8
创办 8
创设 8
剂量 8
前任 8
劫持者 8
十年间 8
卓有成效 8
单 8
占据 8
卫士 8
卫生系统 8
去 8
及@@ 8
双亲 8
发出通知 8
发生冲突 8
受阻 8
叛乱 8
口供 8
口岸 8
可不 8
可供使用 8
可向 8
可观 8
可言 8
各分 8
各层次 8
各种各样 8
各节 8
合伙 8
合资 8
同工同酬 8
同情 8
吸入 8
吸烟 8
呼声 8
哈拉雷 8
四@@ 8
四名 8
四次 8
围墙 8
国都 8
国际联盟 8
在@@ 8
在国 8
埃维昂 8
埋布 8
城内 8
基建 8
增大 8
声称 8
处@@ 8
处以 8
处所 8
备用 8
复核 8
外包 8
多达 8
大国 8
大大增加 8
大气层 8
失@@ 8
失弃 8
失散 8
好地解决 8
孤立 8
完 8
官僚 8
官长 8
定出 8
宪法法院 8
居留权 8
屏障 8
岛上 8
已告 8
巴格达 8
布琼布拉 8
希布伦 8
年前 8
年度预算 8
广 8
应用科学 8
弥合 8
征兵 8
待发 8
快 8
急务 8
急诊 8
总收入 8
悬而未决 8
惩戒 8
意见分歧 8
戒备 8
户 8
手 8
手中 8
执行程序 8
扶贫 8
投票决定 8
抵押 8
拟于 8
捐献 8
换算 8
探访 8
控制协议 8
提前 8
撰写 8
收容所 8
改叙 8
故障 8
效率高 8
教师 8
教科文组织 8
散播 8
数以百万计 8
数码 8
文职 8
新一轮 8
新闻稿 8
方@@ 8
无法解释 8
无记名 8
无需 8
既然 8
日子 8
日见 8
早 8
时有 8
明斯克 8
服务提供者 8
朝此 8
期限内 8
未亡 8
未偿 8
本届 8
术语 8
权而 8
权能 8
杜尚别 8
条至 8
标题 8
核可该 8
核技术 8
桥梁 8
模范 8
欠 8
正直 8
此举 8
此案 8
殿堂 8
毁 8
每一项 8
每星期 8
毫无例外 8
民族自决 8
水文学 8
污水 8
沙市 8
沦为 8
河 8
沿途 8
法律咨询 8
法律承认 8
波及 8
流@@ 8
流动性 8
海滩 8
海燕 8
消失 8
清查 8
激光 8
火山 8
灾民 8
照应 8
熟练 8
燃烧武器 8
牲畜 8
狂轰滥炸 8
猖獗 8
瓜亚基尔 8
用水 8
由@@ 8
由经 8
电视广播 8
男童 8
留下 8
疏散 8
痛心 8
监督机制 8
相互之间 8
相互协作 8
看待 8
睦邻友好 8
票据 8
离 8
科@@ 8
科研 8
第一季度 8
第九节 8
第十五次 8
筑起 8
签名 8
米@@ 8
类药物 8
粗暴 8
糖尿病 8
系统活动 8
紧张状况 8
纳@@ 8
组织协调 8
绊脚石 8
经济@@ 8
经纪 8
统称 8
继承权 8
继续下去 8
编集 8
罗安达 8
罪责 8
自审 8
自然环境 8
自译 8
致盲 8
船旗 8
艺术 8
节余 8
英语 8
菌株 8
营救 8
表中 8
表扬 8
被控 8
西南亚 8
解体 8
解决方案 8
触犯 8
计算机化 8
记 8
记名投票 8
论为 8
访查 8
诚意 8
该厅 8
调@@ 8
调剂 8
调阅 8
谨慎 8
账目 8
货币基金 8
贫困者 8
赫尔姆斯 8
走廊 8
起@@ 8
起源于 8
超级大国 8
践踏 8
身 8
身为 8
车队 8
轰炸 8
输入 8
辩解 8
迁徙 8
迄今已有 8
过渡阶段 8
近@@ 8
近期内 8
远景 8
违规行为 8
逃避 8
递交 8
递延 8
通用 8
遥感技术 8
遭惨 8
郎德 8
都灵 8
采访团 8
重返家园 8
金融资产 8
银行业务 8
阿尔卑斯山脉 8
阿布哈兹 8
附文 8
集体行动 8
非法交易 8
非法占有 8
顺利进行 8
顺序 8
领导权 8
风俗 8
风气 8
飞机 8
首要任务 8
鱼种 8
默许 8
03 7
05 7
1.2 7
1061 7
1272 7
1296 7
13446 7
1371 7
1539 7
1582 7
1929 7
2.@@ 7
2138 7
2237 7
2345 7
2443 7
2621 7
27627 7
3.1 7
322 7
324 7
328 7
336 7
3369 7
3499 7
352 7
353 7
362 7
366 7
367 7
376 7
393 7
404 7
407 7
408 7
438 7
440 7
442 7
451 7
4739 7
504 7
513 7
543 7
545 7
553 7
569 7
577 7
587 7
595 7
601 7
620 7
621 7
630 7
636 7
642 7
649 7
651 7
657 7
661 7
665 7
688 7
695 7
710 7
724 7
737 7
742 7
830 7
868 7
875 7
879 7
909 7
914 7
928 7
944 7
986 7
AC.51 7
Art 7
Corr.3 7
E.01 7
GC.23 7
L.16 7
L.17 7
L.31 7
L.33 7
L.37 7
L.38 7
L.40 7
L.42 7
L.43 7
L.45 7
L.@@ 7
M@@ 7
MSP.2 7
MSP.3 7
VIII 7
XI.5 7
a@@ 7
en 7
n@@ 7
q 7
r 7
unhcr 7
unodc 7
一揽子 7
一概 7
一百六十 7
一百零三 7
一触即发 7
七届 7
三十三个 7
下@@ 7
下任 7
不分性别 7
不分青红皂白 7
不少 7
不得不 7
不负责任 7
不过 7
与会 7
专职 7
东京国际 7
东北 7
东正教 7
两位 7
中小企业 7
中起 7
中转 7
中除 7
中非 7
主 7
主管部门 7
之时 7
之类 7
乌 7
争议性 7
二十 7
二十@@ 7
互@@ 7
五十@@ 7
亚 7
亚@@ 7
交互式 7
产妇 7
人流 7
人间 7
仅限于 7
从根本上 7
付出 7
代理 7
令人遗憾 7
以南 7
以善 7
以色列空军 7
休养 7
休闲 7
传统媒体 7
伤亡人数 7
伴生 7
低@@ 7
体@@ 7
体罚 7
例证 7
依上 7
侦察 7
便利化 7
俄罗斯 7
保持联系 7
保育 7
值 7
充任 7
先进武器 7
全会 7
公债 7
公共资源 7
公开处理 7
公开市场 7
公理 7
六年 7
共犯 7
关爱 7
其惠益 7
具体做法 7
养活 7
内政部长 7
内有 7
冒险 7
军 7
农产 7
决策层 7
决算 7
减均 7
出其不意 7
分界线 7
切断 7
划一 7
创新性 7
利@@ 7
利用生物 7
别 7
到位 7
前向 7
力行 7
加倍 7
动@@ 7
助益 7
势力 7
北 7
十四卷 7
卡 7
卡塔 7
卫生设施 7
卫生部门 7
即@@ 7
厄瓜多尔政府 7
历来 7
压载 7
压迫 7
参政 7
反倾销 7
反应堆 7
发件人 7
受本 7
受款 7
变成 7
变本加厉 7
变通 7
另@@ 7
可为 7
可循 7
同侪 7
否认 7
含义 7
吸食 7
周全 7
呼吸系统 7
和@@ 7
哈@@ 7
哈博罗内 7
商业界 7
善治 7
四十一个 7
因其 7
国会 7
国受 7
国际私法 7
国际货物 7
圆桌 7
土壤 7
土库曼 7
圣@@ 7
在经济上 7
在职 7
地中海地区 7
地以 7
场 7
坚定不移 7
坚实基础 7
垃圾 7
培训中心 7
基斯 7
堵塞 7
备 7
备战状态 7
多人 7
多面性 7
大使 7
大增 7
大约 7
天@@ 7
天文学 7
天灾人祸 7
夫 7
奥地利政府 7
如有 7
娱乐性 7
学员 7
安全意识 7
安全网 7
安居 7
完备 7
实@@ 7
实施者 7
实现目标 7
审判机关 7
审计员 7
家乡 7
密切关系 7
富有成效 7
对塞米 7
尚有 7
尤@@ 7
尽其所能 7
局@@ 7
居留 7
届时 7
届满 7
属@@ 7
山地 7
崇高目标 7
工 7
工业界 7
工业部门 7
工资制度 7
巴塔 7
布雷 7
席 7
常@@ 7
平日 7
广播公司 7
广泛开展 7
庄严宣告 7
应享 7
应尽 7
应缴 7
应负 7
开@@ 7
开发计划署 7
开斋节 7
引进 7
录像 7
征收 7
德国政府 7
德里 7
忠诚 7
快速反应 7
急剧 7
急性 7
总监 7
总预算 7
惧怕 7
想法 7
意大利政府 7
感 7
感情 7
慈善 7
或@@ 7
或是 7
战备 7
战略伙伴 7
所处 7
所应 7
所有者 7
手语 7
托存 7
技术人员 7
投标 7
投资者 7
报导 7
拉尼西亚 7
拮据 7
按部就班 7
捕获量 7
探雷 7
摩洛哥王国 7
收@@ 7
放 7
政治局势 7
政的 7
教@@ 7
数@@ 7
数百万 7
文@@ 7
断 7
新进展 7
新闻网 7
新闻资料 7
方在 7
无形 7
无意 7
无理 7
日向 7
日本政府 7
时刻 7
明@@ 7
明文规定 7
智力 7
智能 7
暗中 7
曾于 7
最小 7
最早 7
最迟 7
有所不同 7
有所提高 7
有损于 7
有无 7
有规 7
有鉴于此 7
本@@ 7
本位 7
杀戮 7
杂项收入 7
村级 7
极@@ 7
极端重要 7
林 7
枚 7
果园 7
枢密院 7
标示 7
校长 7
核化 7
检验 7
欧安组织 7
款@@ 7
款所列 7
此人 7
此次 7
武装力量 7
残害 7
民事或 7
水文气象 7
沿线 7
法律依据 7
法院院长 7
注射 7
注销 7
浓度 7
消极 7
涉案 7
渔获量 7
源源不绝 7
演进 7
炸毁 7
爱滋病 7
物理性质 7
独自 7
瓦利 7
生态旅游 7
生活费 7
申请者 7
电@@ 7
登记手续 7
监察 7
盗窃 7
目前为止 7
相互支持 7
相容 7
研究成果 7
离婚 7
秘鲁政府 7
租赁费 7
积极主动 7
稳妥 7
窒息 7
童兵 7
第三十八条 7
第三十条 7
第九十七条 7
第二十八 7
第二轮 7
第五十一条 7
第六项 7
第十六条 7
第四十六 7
第四款 7
第四轮 7
简短 7
管理机制 7
粗 7
粮食供应 7
系列 7
紧急状况 7
繁多 7
纪念日 7
纪念物 7
纪念碑 7
组织者 7
经委会 7
经济体制 7
结核 7
统一标准 7
编入 7
缺口 7
而来 7
耐性 7
耻辱 7
腾出 7
自由贸易 7
自第 7
自营 7
自闭症 7
舆论界 7
航运业 7
草拟 7
获救 7
营 7
虚拟 7
行使主权 7
行政助理 7
表格 7
表述 7
装备 7
西@@ 7
西北 7
计划生育 7
计薪 7
议长 7
讲 7
证 7
该地 7
该股 7
详见 7
详述 7
误捕 7
说服 7
财物 7
贫民 7
资源分配 7
趋于 7
转向 7
转送 7
轮流 7
较强 7
边界争端 7
边远地区 7
过早 7
运营 7
运行 7
迟于 7
述 7
退还 7
逆转录 7
选 7
选用 7
速效 7
造林 7
道义 7
邻之道 7
郑重 7
部@@ 7
酌处 7
酗酒 7
采行 7
释出 7
释放出来 7
重担 7
重新分配 7
金刚石 7
金沙萨 7
金泽 7
铁 7
问卷 7
间隔 7
间隔期 7
队伍 7
防御能力 7
防护 7
附带条件 7
陆源 7
隔绝 7
难民所 7
难民收容 7
雅典 7
集 7
需其 7
非商业性 7
非常感谢 7
韩 7
项目管理 7
顾客 7
预报 7
预知 7
领退 7
首@@ 7
首都 7
马拉博 7
马朱罗 7
验证 7
高峰 7
高昂 7
鳍 7
麻管局 7
.14 6
.4 6
02 6
025 6
1011 6
1037 6
11806 6
12.@@ 6
1265 6
1416 6
1429 6
1547 6
15511 6
1556 6
1624 6
1965 6
2058 6
20@@ 6
2153 6
2296 6
23@@ 6
24@@ 6
27@@ 6
28@@ 6
3.2 6
3236 6
3375 6
3376 6
345 6
37605 6
4.4 6
409 6
40906 6
414 6
418 6
441 6
452 6
458 6
461 6
462.88 6
482 6
495 6
505 6
514 6
533 6
551 6
552 6
555 6
564 6
568 6
590 6
592 6
599 6
5E 6
612 6
615 6
652 6
707 6
712 6
733 6
765 6
785 6
826 6
840 6
846 6
853 6
956 6
AA 6
AC.@@ 6
AI 6
CONF.5 6
COP.1 6
Circ.380 6
Dec.155 6
Decl.4 6
Decl.6 6
E.81 6
FIEL 6
GEN 6
GOV 6
IMO 6
L.19 6
L.21 6
L.28 6
L.32 6
L.49 6
L.50 6
L.7 6
LC.2 6
MSP.4 6
R702 6
R830 6
R@@ 6
V.2 6
art 6
i@@ 6
is@@ 6
m@@ 6
o@@ 6
ppaa 6
r@@ 6
reliefweb 6
s 6
t 6
t@@ 6
unhchr 6
unidroit 6
○ 6
一件 6
一千年 6
一度 6
一款 6
一股 6
一致意见 6
七千五百 6
三十日 6
上午 6
上半年 6
上载 6
下于 6
下以 6
下半年 6
不力 6
不妨 6
不安 6
不成比例 6
不断改进 6
不能容忍 6
不驱 6
与此有关 6
与非 6
丑 6
专题会议 6
世界知识产权组织 6
业@@ 6
业界 6
东北亚 6
东道 6
中受 6
中心站 6
中点 6
为@@ 6
为数不多 6
为生 6
主@@ 6
之所以 6
二@@ 6
于@@ 6
互动关系 6
互惠互利 6
五年计划 6
亚裔 6
交易所 6
亲善大使 6
亲自 6
人口普查 6
仅凭 6
代替 6
代表大会 6
以非 6
件 6
休会期间 6
优良 6
伤残 6
低廉 6
佐证 6
体验 6
作@@ 6
作主 6
例子 6
保护者 6
信函 6
信息网络 6
信托法 6
倒退 6
候任 6
借助于 6
债权 6
假 6
假象 6
停顿 6
催化 6
催化作用 6
僵局 6
儿童活动 6
先@@ 6
克@@ 6
免 6
党 6
入手 6
全民 6
全面实现 6
公共事业 6
公共开支 6
公司法 6
公益 6
六十 6
共助 6
其养 6
其原 6
内乱 6
内及 6
内同 6
内战 6
再次出现 6
冲突地区 6
决 6
几千人 6
几次 6
函 6
分拨 6
分支机构 6
分组 6
分裂 6
判定 6
利率 6
到来 6
割裂 6
动摇 6
化是 6
北@@ 6
医疗队 6
十九 6
十六个 6
协调局 6
卓越贡献 6
南南 6
南非政府 6
卡尔 6
卫生条件 6
印刷版 6
即到 6
即时新闻 6
历时 6
原件 6
原材料 6
参观 6
及同 6
及本 6
及次 6
双方同意 6
双轨 6
反之亦然 6
反叛 6
发电厂 6
发育 6
取证 6
受众 6
受性 6
变为 6
变造 6
可信赖 6
可得 6
可逆 6
司@@ 6
司同 6
司法人员 6
各不相同 6
各年 6
各方对 6
各点 6
各职 6
合法化 6
同其 6
后经 6
后继 6
启用 6
呈 6
和平相处 6
唯有 6
喀尔巴阡山脉 6
四内 6
回复 6
回报 6
国境 6
国家标准 6
国民军 6
国际足球 6
图书 6
圣何塞 6
在此期间 6
地区性 6
地貌 6
场合 6
均匀 6
坚持不懈 6
埃 6
基督徒 6
增派 6
声誉 6
处处 6
处长 6
复文 6
复杂程度 6
外交代表 6
外展司 6
外应 6
外来干涉 6
多于 6
多少 6
多数票 6
多瑙河 6
大大提高 6
大气 6
大致 6
天赋 6
失 6
失调 6
奥德奥 6
奥斯陆 6
女囚 6
好@@ 6
嫁妆 6
嫌疑人 6
存储 6
存放 6
安集延 6
官 6
定位 6
定性 6
定性分析 6
定稿 6
实效性 6
实验室 6
审 6
审批 6
宣判 6
宪政改革 6
容恕 6
密切配合 6
密集型 6
对美属 6
对训 6
导向 6
将近 6
小企业 6
尔格 6
尚存 6
尚需 6
尤以 6
就业网 6
尼@@ 6
居间 6
展览会 6
岁者 6
峰会 6
巨额 6
已予 6
巴 6
巴@@ 6
巴勒斯坦国 6
巴西政府 6
市场需求 6
布下 6
常用 6
年时 6
广岛 6
库@@ 6
应列 6
应同 6
应居 6
应急行动 6
应邀参加 6
庭长 6
建 6
开发署 6
开工 6
开曼 6
强劲 6
强弱 6
当今 6
往 6
律师协会 6
得失 6
急迫 6
性@@ 6
性传播 6
总@@ 6
总书记 6
总会 6
总体目标 6
恢复性 6
患 6
悬殊 6
情况严重 6
戈@@ 6
成千上万 6
或准 6
或前 6
或应 6
或视 6
战斗员 6
所授 6
所长 6
打捞 6
承 6
承办 6
承包 6
报告书 6
报销 6
抱 6
抽签 6
指挥官 6
换取 6
掌控 6
排期 6
接收国 6
推销 6
提@@ 6
提供数据 6
提具 6
改称 6
政权 6
敏感性 6
救援队 6
散页 6
文件汇编 6
文官 6
斯科普里 6
新闻处 6
方方面面 6
族 6
无可否认 6
无罪 6
无论是 6
早育 6
时常 6
普遍化 6
暴力行动 6
暴徒 6
更长 6
最穷 6
最长 6
有何 6
有别于 6
朝鲜 6
期盼 6
末 6
本质 6
杀死 6
杂项 6
材料库 6
条所起 6
杰宁 6
极度 6
林业 6
某个 6
查@@ 6
查寻 6
标的 6
标识 6
栏 6
核@@ 6
格外 6
框框 6
案@@ 6
检控 6
检查和 6
正@@ 6
正面 6
死刑犯 6
每项 6
民主改革 6
民房 6
民航 6
水域 6
法西斯主义 6
注视 6
流 6
浇 6
深深 6
渔民 6
渗透 6
源自 6
滴滴涕 6
激情犯罪 6
特许权 6
特遣队 6
特长 6
环保 6
环节 6
现@@ 6
现共达 6
理念 6
瑞士政府 6
瓦加杜古 6
生殖器 6
生活状况 6
生育 6
用具 6
由该 6
申诉人 6
男女老少 6
畅通无阻 6
病媒 6
监护人 6
目标群体 6
相@@ 6
相互配合 6
相关者 6
知@@ 6
社会福利 6
社会阶层 6
禁@@ 6
离@@ 6
离境 6
私有化 6
私法 6
科研活动 6
移徒 6
税款 6
稿 6
穆德 6
空前 6
童年 6
符合国家 6
第一二 6
第三@@ 6
第三任 6
第三十四条 6
第三卷 6
第三句 6
第二十 6
第五十六条 6
第五轮 6
第六十六 6
第六款 6
第十七届 6
第十七次 6
第十五章 6
第四十五 6
等待 6
简洁 6
管治 6
管理@@ 6
米切 6
素姬 6
索赔 6
纯粹 6
线 6
组应 6
细目 6
经其 6
经济制裁 6
经济损失 6
经理 6
经费有限 6
结束语 6
网关 6
网播 6
罪之害 6
署名 6
群众 6
老龄化 6
考绩 6
而@@ 6
联合宣言 6
股@@ 6
股东 6
能@@ 6
腹泻 6
自力 6
自杀 6
至多 6
船队 6
艺术品 6
节及 6
节请 6
苦境 6
范例 6
获得最佳 6
萨基亚 6
葡萄牙文 6
蒙特 6
藏身 6
行动队 6
表已 6
见诸 6
视其为 6
视角 6
角 6
解放阵线 6
解救 6
警务 6
警觉 6
订 6
订有 6
议@@ 6
记忆 6
讲话 6
评注 6
识字率 6
诚实 6
请@@ 6
请求书 6
调到 6
调控 6
调用 6
贝@@ 6
财产权利 6
财政年度 6
责任者 6
质量标准 6
赶出 6
跟进 6
跨境 6
路 6
身份证明 6
转卖 6
较长 6
辞职 6
边境地区 6
迈进 6
近地 6
远 6
远洋 6
违约 6
连根拔起 6
迫切性 6
逆转 6
通讯社 6
遇 6
遣散 6
邦 6
酸液 6
重印 6
金斯敦 6
铁路 6
银行贷款 6
防御 6
阿姆拉 6
阿尔塔 6
附近 6
限定 6
院 6
除贫 6
陷于 6
随附 6
隔离 6
集中营 6
需为 6
青年一代 6
非军事化 6
非正常 6
非法所得 6
非裔 6
面 6
项中 6
项所 6
须视 6
频率 6
风 6
首相 6
首脑 6
驱逐出境 6
高度集中 6
鸦片剂 6
麦德林 6
麻黄碱 6
.6 5
.@@ 5
0.@@ 5
031 5
1015 5
1024 5
105.6 5
1145 5
1257 5
12@@ 5
1329 5
1341 5
1345 5
1378 5
1441 5
1460 5
1490 5
1493 5
1506 5
1651 5
1836 5
19.@@ 5
2.22 5
2.33 5
2.43 5
2241 5
2286 5
2349 5
25036 5
25573 5
25974 5
25@@ 5
2602 5
27C.@@ 5
28D 5
31364 5
3201 5
339 5
3452 5
363 5
369 5
372 5
4.2 5
411 5
413 5
416 5
42146 5
5.1 5
5.5 5
524 5
544 5
588 5
6.5 5
619 5
656 5
659 5
666 5
685 5
717 5
735 5
761 5
769 5
866 5
882 5
8843 5
955 5
979 5
ABUJA 5
Add.32 5
Add.9 5
C.1 5
D.@@ 5
Dec.138 5
E.97 5
E@@ 5
I@@ 5
IOC 5
Income 5
L.1 5
L.13 5
L.14 5
L.15 5
L.2 5
L.20 5
L.25 5
L.29 5
L.3 5
L.30 5
L.35 5
L.41 5
L.46 5
L.47 5
L.48 5
L.51 5
L.54 5
L.55 5
L.6 5
LDC 5
MSC 5
MSP.5 5
OAU 5
Resumption 5
Rev.2 5
SPS 5
WHA58 5
bertini 5
c@@ 5
domino 5
imf 5
rpt 5
viii 5
㈩ 5
一个多 5
一分 5
一大步 5
一批 5
一日 5
一生 5
一百七十三 5
一百五十 5
一百多个 5
一类 5
一经 5
三十个 5
三十二个 5
三十四个 5
上学 5
上涨 5
上限 5
下及 5
下调 5
不但 5
不便 5
不可抗力 5
不定 5
不宜 5
不实 5
不容置疑 5
不满 5
专业知识 5
专为 5
专才 5
专题性 5
世界杯 5
东非 5
丝毫 5
严重危害 5
个别情况 5
个性 5
个案研究 5
中型企业 5
中所提 5
中断 5
中曾 5
中间人 5
中间商 5
主席国 5
久 5
之上 5
乘数 5
九@@ 5
九年 5
九条 5
买 5
事关 5
事实根据 5
二个 5
二十七个 5
二十三 5
二十四 5
互为补充 5
互联 5
互通 5
五名 5
五岁 5
亚穆苏克罗 5
交@@ 5
交付给 5
交通事故 5
交错 5
人人平等 5
人应 5
人民意志 5
介绍所 5
仍@@ 5
从前 5
他用 5
代表权 5
代顿 5
以换 5
休渔 5
优先发展 5
会@@ 5
会见 5
传染性 5
传遍 5
伤@@ 5
体制改革 5
体育界 5
余留 5
佩雷斯 5
使@@ 5
供@@ 5
供参考 5
供应方 5
依@@ 5
侦破 5
侵入 5
侵权行为 5
保持警惕 5
保留区 5
信件 5
信号 5
修订本 5
俾克 5
俾路支 5
倡仪 5
债役 5
债换 5
偏袒 5
储油罐 5
僵硬 5
充满活力 5
充裕 5
充资 5
克伦邦 5
克隆 5
党派 5
入口 5
全球定位系统 5
八年 5
公吨 5
六条 5
关键性 5
关键问题 5
其经 5
其载 5
内应 5
再@@ 5
再次发生 5
军民关系 5
军转民 5
农作物 5
农民 5
农田 5
况 5
净增 5
减债 5
减收 5
几十年 5
出任 5
出资 5
分割 5
分居 5
分销 5
切入点 5
刑事诉讼法 5
创立 5
别无选择 5
制造业 5
前后一致 5
力@@ 5
力图 5
动 5
动产 5
劳役 5
势必 5
勒索 5
化解 5
北南 5
医护人员 5
医生 5
十一个 5
十七届 5
十八岁 5
十分重视 5
十名 5
千千万万 5
协作关系 5
协理 5
协调性 5
协调系统 5
卡拉巴赫 5
卡纳纳斯 5
危难 5
原@@ 5
参议院 5
参谋 5
及仇外 5
反@@ 5
反思 5
取得成效 5
受托人 5
受损害 5
受苦 5
叙述 5
叛乱分子 5
口 5
古@@ 5
古尔邦节 5
只是 5
可操作性 5
可比性 5
司长 5
各派 5
各组 5
合 5
合同条款 5
吉耶 5
同值 5
名人 5
名符其实 5
后期 5
含水层 5
吸引力 5
周@@ 5
商品生产者 5
器具 5
四十五 5
因性 5
因该 5
团于 5
困苦 5
困难重重 5
国及 5
国家广播 5
国时 5
国际@@ 5
图象 5
土 5
土地改革 5
在政治上 5
在生活中 5
地使 5
坎昆 5
型号 5
基桑加尼 5
堡 5
堵截 5
塔@@ 5
塞族 5
填补空缺 5
增 5
增加一倍 5
备注 5
复 5
复@@ 5
复犯 5
外交人员 5
外交关系 5
外勤人员 5
多加 5
多变 5
多管齐下 5
大事 5
大多 5
天内 5
奖 5
奥@@ 5
如可 5
如实 5
如经 5
妥 5
妥当 5
姆 5
委派 5
娜 5
娱乐 5
子孙后代 5
字@@ 5
存有 5
安@@ 5
安全法 5
安装 5
定型 5
定见 5
实质问题 5
实际行动 5
宣称 5
宪制 5
害 5
家务 5
对人 5
寿命 5
小@@ 5
尔多 5
尤甚 5
尺寸 5
尼 5
尼亚 5
尼亚美 5
尽全力 5
尽速 5
工商 5
工资 5
巨大贡献 5
已知 5
巴基斯坦政府 5
巴塞罗那 5
巴西利亚 5
市政 5
希@@ 5
常务委员会 5
干 5
平权 5
年龄组 5
并行 5
并载 5
广@@ 5
应不分 5
应作 5
应使 5
应否 5
应用领域 5
应能 5
底 5
延绳 5
开立 5
开罗宣言 5
弗 5
强征 5
当@@ 5
彼此间 5
待@@ 5
得出结论 5
微生物 5
德@@ 5
德印 5
德国科隆 5
心灵 5
必然 5
忍受 5
忠于 5
怎样 5
总协定 5
恐怖袭击 5
恩贾梅纳 5
息息相关 5
情报机构 5
意@@ 5
感染率 5
愿景 5
戈兰内 5
成因 5
或经 5
或许 5
户主 5
所称 5
所能 5
所载经 5
手无寸铁 5
手法 5
扎伊 5
打 5
执政 5
扩@@ 5
承担义务 5
技术培训 5
技术论坛 5
折算 5
报@@ 5
抵偿 5
担允 5
担心 5
拆毁 5
拉尼 5
拒斥 5
持久性 5
挖掘 5
排定 5
探@@ 5
接种 5
控制区 5
控制权 5
推@@ 5
推选 5
掩饰 5
提早 5
携弹 5
操作方法 5
支@@ 5
支持者 5
改叙为 5
改建 5
放宽 5
政@@ 5
政界 5
敌对 5
敌对状态 5
教授 5
教育@@ 5
教育界 5
数据@@ 5
新加坡海峡 5
新设 5
新闻@@ 5
新闻来源 5
新闻界 5
方案设计 5
施用 5
无从 5
无关 5
无异议 5
旧 5
时供 5
时同 5
时才 5
明显改善 5
易@@ 5
星期六 5
普@@ 5
普斯卡 5
普特 5
智利政府 5
更能 5
曼 5
最@@ 5
最深 5
最终用户 5
有所区别 5
有酬 5
服刑 5
服务中心 5
服务处 5
望 5
期所 5
期终 5
未曾 5
本协定 5
本来 5
本节 5
机密 5
杀 5
杀人案件 5
杀伤力 5
条中 5
来@@ 5
查封 5
栏内 5
核可@@ 5
核科学 5
核算 5
核试验场 5
根@@ 5
根据上述 5
根本变化 5
格雷罗 5
案情 5
案文@@ 5
梅耶 5
棱晶 5
款次 5
歉收 5
正常化 5
此@@ 5
武器弹药 5
殖地 5
毒 5
比较发达 5
民法 5
氛围 5
水@@ 5
水上 5
水力 5
汇总表 5
污染物 5
沿 5
法定人数 5
法律委员会 5
法律案 5
泛非 5
波罗的海 5
流刺网 5
海湾 5
清算 5
渔业局 5
渔产品 5
渥太华 5
温哥华 5
港务 5
游牧 5
滥捕 5
潜艇 5
潮汐 5
炮击 5
炸弹 5
热 5
热情 5
热浪 5
熟悉 5
燃油 5
物价指数 5
物质利益 5
物质条件 5
特别节目 5
犹太教徒 5
率为 5
率先 5
现实情况 5
理 5
生产商 5
用@@ 5
电台 5
留用 5
疟疾疫苗 5
病@@ 5
病人 5
登船 5
百 5
监测中心 5
监测员 5
盲文 5
相互促进 5
省份 5
真实 5
眼光 5
知 5
矿物 5
砍伐森林 5
研订 5
硬件 5
确保全 5
确有 5
示威游行 5
礼品 5
社会秩序 5
社区活动 5
禁渔区 5
种子 5
科学认识 5
称之为 5
窝藏 5
立@@ 5
站 5
第一份 5
第三十 5
第三十七条 5
第三十九条 5
第二副 5
第二十@@ 5
第二十五条 5
第六十三条 5
第十 5
第四十 5
第四十七条 5
第四十四 5
第四十四条 5
签证 5
简@@ 5
管辖区 5
米 5
精@@ 5
精心 5
系统化 5
索要 5
紫色 5
纳 5
纳戈尔 5
纽约市 5
组@@ 5
经济复原 5
经济波动 5
经济犯罪 5
结为 5
绝望 5
绝育 5
统@@ 5
续设 5
缉获 5
缔约 5
编外人员 5
缺 5
网目 5
罗姆人 5
美洲国家 5
考察 5
职业道德 5
联@@ 5
联络小组 5
联运 5
聘任 5
聘请 5
聚集 5
背井离乡 5
能效 5
脚注 5
自助 5
自由贸易区 5
致命 5
航空器 5
船 5
节能 5
莫 5
落入 5
落后 5
蓬勃发展 5
蕴含着 5
藏匿 5
虫灾 5
血@@ 5
行凶 5
行动指南 5
表示同情 5
被盗 5
裁断 5
覆盖面 5
见@@ 5
视@@ 5
视作 5
警务人员 5
警报系统 5
计入 5
计算机犯罪 5
认 5
让出 5
议 5
讯问 5
讲@@ 5
讲求 5
证言 5
试行 5
详细情况 5
诱因 5
诺贝尔 5
读者 5
象征 5
贝 5
财务监督 5
账下 5
贪污腐败 5
贾亚 5
赦免 5
起始 5
超支 5
越@@ 5
足球赛 5
转作 5
转发 5
软禁 5
较易 5
辅之以 5
输送 5
边 5
边远 5
达@@ 5
达累斯萨拉姆 5
迁 5
还@@ 5
进@@ 5
远远 5
违禁 5
连选 5
退@@ 5
送还 5
适@@ 5
适用性 5
透过 5
逐@@ 5
通行无阻 5
通讯设备 5
通道 5
遇险 5
道德风险 5
遗体 5
遗迹 5
避税 5
那@@ 5
部件 5
配剂 5
重要文件 5
量化 5
金枪鱼 5
银河 5
铺平 5
铺平道路 5
链 5
锰 5
长久 5
长期性 5
长期有效 5
闭幕 5
防范措施 5
阿@@ 5
阿克拉 5
阿根廷政府 5
降至 5
限制性 5
难 5
集中力量 5
非常容易 5
须予 5
预先判断 5
预断 5
预设 5
领海 5
额@@ 5
额度 5
马六甲海峡 5
马铃薯 5
高危 5
高效益 5
高效能 5
鱼体 5
鲜明 5
鲜有 5
齐头并进 5
３ 5
.10 4
.12 4
0.36 4
0.75 4
04 4
066 4
089 4
092 4
1.0 4
1052 4
1133 4
1203 4
1217 4
1258 4
12E 4
1319 4
1333 4
1366 4
1379 4
1383 4
1489 4
1544 4
1609 4
1643 4
18A.@@ 4
19.7 4
1959 4
2.17 4
2.19 4
2.24 4
2.35 4
2.41 4
2013 4
2017 4
22.@@ 4
2225 4
2312 4
23177 4
2373 4
24.@@ 4
25567 4
27688 4
2832 4
28C 4
28E 4
28G 4
29B@@ 4
315 4
3357 4
342 4
348 4
371 4
378 4
379 4
382 4
3@@ 4
406 4
427 4
433 4
4@@ 4
5.3 4
516 4
541 4
542 4
585 4
5K 4
604 4
611 4
624 4
632 4
635 4
643 4
645 4
664 4
678 4
699 4
705 4
708 4
713 4
714 4
718 4
722 4
748 4
786 4
787 4
810 4
817 4
821 4
844 4
867 4
883 4
888 4
891 4
9.1 4
933 4
936 4
957 4
962 4
980 4
983 4
985 4
996 4
A.11 4
A.949 4
AC.1 4
AC.268 4
Add.15 4
Add.16 4
Add.29 4
Add.@@ 4
B@@ 4
C.04 4
C.78 4
C.85 4
CL128 4
CN.9 4
CODEOC 4
CONF.1 4
CONF.@@ 4
COP.5 4
CP.6 4
Corr.4 4
Decl.12 4
E.05 4
E.06 4
E.8 4
FIRM 4
G@@ 4
HCR 4
IAEA 4
IV.10 4
Introduction 4
L.18 4
L.26 4
L.27 4
L.5 4
L.53 4
L.56 4
L.57 4
L.8 4
L@@ 4
LIV 4
MC 4
MMSP 4
O@@ 4
PC.1 4
PV.4589 4
R765 4
RESOLUTIONS 4
Res.1153 4
Res.1225 4
Res.1356 4
Rev.6 4
SOLAS 4
SR.@@ 4
Sect.14 4
Sect.4 4
T@@ 4
V.4 4
WCMRY 4
XIII 4
XLVIII 4
d@@ 4
dedere 4
iadb 4
ilc 4
index 4
judicare 4
millenniumassessment 4
ns 4
ocha 4
s@@ 4
― 4
一些则 4
一向 4
一封信 4
一整套 4
一百一十 4
一百一十二 4
一百八十九 4
一职 4
一部 4
丁 4
万@@ 4
万亿美元 4
三十八个 4
三十六年 4
三大 4
三所载 4
三条 4
三组 4
三者 4
三边 4
上应 4
上用 4
上网 4
下同 4
下定决心 4
下属 4
不准 4
不大可能 4
不如 4
不时 4
不易 4
不管 4
不结盟运动 4
不足之处 4
不间断 4
专@@ 4
专业性 4
专任 4
专案 4
专题报告 4
东盟 4
两国政府 4
两年制 4
两条 4
两点 4
中人 4
中均 4
中间 4
丰盛 4
临@@ 4
为名 4
为少 4
主管人员 4
乃至 4
之列 4
之初 4
之多 4
之理 4
乌卢 4
乏力 4
九十天 4
书中 4
书写 4
书应 4
书面报告 4
争取和平 4
事例 4
事务局 4
事务股 4
二人 4
二十二 4
二十年 4
二是 4
互相联系 4
五周年 4
五天 4
亚松森 4
交流会 4
交通管理 4
产@@ 4
亲@@ 4
人口众多 4
人员配备 4
人物 4
人经 4
人能 4
仍受 4
仍能 4
从@@ 4
从加 4
他论 4
付清 4
令@@ 4
令为 4
令人不安 4
令人震惊 4
以人道 4
以向 4
以在国 4
以应 4
以新 4
以礼 4
以订 4
以较 4
任务说明 4
份子 4
仿冒 4
伊@@ 4
伊始 4
伏 4
优@@ 4
优点 4
优越性 4
会议主题 4
传 4
传唤 4
传承 4
伪假 4
但应 4
但遇 4
住宅 4
体内 4
体格 4
何地 4
何方 4
何时何地 4
余@@ 4
作案 4
使受 4
使用率 4
使非 4
依法惩治 4
侧重于 4
保@@ 4
保护@@ 4
保障制度 4
信@@ 4
倾向 4
假@@ 4
假结婚 4
假设 4
偏@@ 4
偏远地区 4
做礼拜 4
停@@ 4
兄弟 4
充分就业 4
充分认识 4
充分调动 4
先遣 4
光@@ 4
克什 4
克制 4
克林顿 4
免职 4
入@@ 4
入应 4
八@@ 4
八届 4
公信力 4
公平性 4
公民权利 4
公用 4
公用事业 4
六份 4
六次 4
兰@@ 4
共处 4
关怀 4
关系密切 4
关联性 4
其前 4
其国 4
其外 4
其多 4
其请 4
其间 4
具体@@ 4
具体任务 4
养殖业 4
兼容性 4
兼收并蓄 4
内以 4
内受 4
内所列 4
内阁 4
再婚 4
再生资源 4
军事援助 4
农用 4
冲@@ 4
减@@ 4
减员 4
减小 4
减该 4
凝聚力 4
凡@@ 4
凸显 4
出产 4
出口商 4
出国 4
出海 4
分包商 4
分组讨论 4
分配制度 4
切实落实 4
切身利益 4
刑事警察 4
列车 4
刚果河 4
利害攸关 4
利弊 4
别国 4
到加 4
前去 4
剧增 4
割取 4
力争 4
力促 4
劝阻 4
办 4
办@@ 4
办事机构 4
办公费 4
加利 4
加宽 4
加拿大政府 4
动因 4
助 4
助产 4
助行 4
努沙登加拉 4
勇于 4
勘查 4
募集 4
区域化 4
区域环境 4
区有 4
医@@ 4
十五个 4
十四个 4
华沙 4
单元 4
卢@@ 4
卢旺达共和国 4
卫生标准 4
卫生领域 4
印 4
印地 4
即告 4
厅应 4
历届 4
原子弹 4
原来 4
去向 4
参@@ 4
及时处理 4
双向交流 4
反补贴 4
发照 4
发生率 4
发证 4
发起者 4
取@@ 4
受制于 4
受命 4
受苦受难 4
口译员 4
古希腊 4
另一人 4
可信性 4
可及 4
可执行性 4
可据 4
可见 4
可起 4
可预见性 4
司所 4
各有 4
合@@ 4
合乎 4
合法权益 4
合用 4
合计 4
合资企业 4
吉@@ 4
吉布提共和国 4
同反 4
同属 4
同新 4
同日 4
听讯 4
吴 4
吸剂 4
吸毒者 4
和平友好 4
和视 4
咨询组 4
哪个 4
商 4
商会 4
商界 4
商谈 4
商量 4
善政是 4
噪音 4
四种 4
四重奏 4
回旋 4
因上 4
因而是 4
囤积 4
国家赔偿 4
国防 4
国际劳工局 4
国际金融组织 4
图@@ 4
图像 4
土地利用 4
圣乔治 4
圣弗朗西斯 4
在发言中 4
在押 4
地方化 4
地方病 4
地热 4
地热能 4
坚固 4
垄断 4
垫付 4
垫充 4
垮台 4
埋设 4
基加利 4
基期 4
塔 4
塔吉克 4
塞萨洛尼基 4
增@@ 4
增益 4
增长率 4
墨西哥政府 4
声望 4
处理@@ 4
处遇 4
备@@ 4
备有 4
复健 4
复制件 4
外交官 4
外交政策 4
外援 4
外汇收入 4
外逃 4
多余 4
多功能厅 4
多发性 4
多重国籍 4
大力协助 4
大受 4
大大小小 4
大灾难 4
大自然 4
大致相同 4
太 4
太@@ 4
太空 4
太重 4
失控 4
奖金 4
套 4
如其 4
如期 4
如法外 4
如要 4
威廉 4
字样 4
存 4
存入 4
孤儿院 4
孤女 4
学年 4
学徒 4
学术研究 4
安全可靠 4
安全性 4
安南 4
安插 4
安纳波利斯 4
完全同意 4
完整无缺 4
定论 4
定量 4
实例 4
审官 4
宣@@ 4
宣传教育 4
室 4
家@@ 4
家庭幸福 4
宽@@ 4
将予 4
少 4
就绪 4
尽@@ 4
层 4
居 4
居@@ 4
屆 4
屈服 4
展开讨论 4
山崩 4
工作@@ 4
工作岗位 4
工艺 4
已为 4
已久 4
巴库 4
市@@ 4
布尔 4
带 4
带@@ 4
干@@ 4
平@@ 4
平面媒体 4
年份 4
并供 4
并同 4
幼童 4
广播节目 4
广泛应用 4
库里蒂巴 4
应受 4
应永予 4
应贷 4
应邀 4
延续性 4
建@@ 4
建筑业 4
开发新 4
开幕式 4
开庭 4
开辟 4
异议 4
弄清 4
弹头 4
弹性 4
强硬 4
归@@ 4
归于 4
归入 4
当兵 4
彻底改变 4
彻底清除 4
征@@ 4
待命状态 4
待审 4
很少 4
徒刑 4
德巴 4
德涅斯 4
德罗 4
心 4
心@@ 4
心理治疗 4
急需解决 4
总共 4
总理 4
恢复能力 4
恩@@ 4
恶性 4
恶毒 4
患有 4
情 4
想方设法 4
愈来愈 4
愈演愈烈 4
愈益 4
感受 4
愿 4
成败 4
战略重点 4
所遇 4
手@@ 4
手头 4
手术 4
打@@ 4
打乱 4
托尔托 4
扣留 4
批评 4
承受能力 4
承运人 4
技术开发 4
抓紧 4
抗@@ 4
抗命 4
抢掠 4
报刊 4
抵御 4
抵抗 4
抽烟 4
拉丁字母 4
拒绝执行 4
拒绝接受 4
招@@ 4
拥护 4
持之以恒 4
指在 4
损害赔偿 4
排@@ 4
接受者 4
接管 4
控制措施 4
控制系统 4
推动力 4
推崇 4
推波助澜 4
掩蔽 4
描绘 4
提供者 4
提出异议 4
提款 4
提问 4
握手言和 4
揭 4
搜查 4
摈弃 4
摊算 4
收受 4
收支 4
收款 4
收足 4
改@@ 4
改划 4
改善生活 4
放@@ 4
放入 4
放射 4
政制 4
政治性 4
政治界 4
效 4
敌 4
敌意 4
救济品 4
教 4
教派 4
教育权 4
数万 4
数年 4
整@@ 4
斟情 4
斯特拉斯堡 4
新举措 4
新娘 4
新途径 4
施以 4
无家可归 4
无权 4
无虞 4
无论如何 4
无限期 4
既有 4
日及 4
日核 4
日益加剧 4
日益频繁 4
日程 4
时即 4
时要 4
明文禁止 4
明白 4
明细表 4
星期一 4
星期二 4
暂缓 4
暗杀 4
暴乱 4
更快 4
最新进展 4
有史以来 4
有恋童 4
有时 4
有鳍 4
服务设施 4
服装 4
朝@@ 4
期批款 4
期新 4
期该 4
未@@ 4
未作 4
未受教育 4
未指定 4
未登记 4
本可 4
本项 4
札幌 4
机 4
机@@ 4
权@@ 4
权利能力 4
条同 4
条有 4
来访 4
杰作 4
杰斐逊 4
极具 4
构成犯罪 4
果树 4
某@@ 4
查看 4
树立 4
样品 4
核拨 4
核能力 4
核试爆 4
格伦 4
案而 4
档案资料 4
检察机关 4
森林资源 4
横贯 4
橥 4
欠缺 4
欣慰 4
欺诈 4
款所作 4
正以 4
正同 4
正规化 4
武库 4
歪曲 4
残破 4
段幅 4
段应 4
母乳 4
母婴 4
每天 4
每期 4
毗连 4
民主运动 4
民族平等 4
民用航空 4
民防 4
气 4
气候系统 4
气象 4
水生动物 4
水管 4
求@@ 4
求助于 4
求学 4
污辱 4
沉积物 4
沉船 4
沙漠 4
没人 4
河道 4
油轮 4
治@@ 4
沿海地区 4
法医 4
波@@ 4
注明 4
注资 4
活 4
测试 4
济州岛 4
浓缩铀 4
海军 4
海区 4
消@@ 4
消息 4
消耗 4
深@@ 4
深受 4
深远影响 4
淹没 4
港 4
源头 4
漏报 4
漫长 4
激@@ 4
激情 4
灌输 4
热带 4
热线 4
焦点 4
然而 4
照护 4
照样 4
版 4
牢不可破 4
物权 4
犯罪人 4
独特性 4
狭窄 4
环境危害 4
环境因素 4
环境治理 4
现款 4
班@@ 4
瓦@@ 4
瓦砾 4
甚众 4
生 4
生产方式 4
生态环境 4
生气 4
由下而上 4
电子服务 4
电视会议 4
男性 4
界间 4
留@@ 4
留居 4
疟原虫 4
疫情 4
痛 4
直接费用 4
相连 4
看作 4
真伪 4
着眼 4
矢志 4
知识分子 4
确@@ 4
确定性 4
确已 4
确认书 4
碰到 4
示威者 4
社@@ 4
神圣 4
私人机构 4
私有 4
科威特人 4
科德 4
科技领域 4
科菲 4
秒钟 4
称作 4
移@@ 4
移栖 4
移民法 4
稍后 4
税项 4
穆拉 4
穆罕默德 4
立足于 4
竞标 4
端正 4
第一@@ 4
第七项 4
第三十五条 4
第三号 4
第二十九条 4
第二十二 4
第二十六 4
第二十六条 4
第二年 4
第五十七条 4
第五卷 4
第六十@@ 4
第十三章 4
第十八届 4
第四十一条 4
第四十三条 4
第四十条 4
等同 4
等同于 4
等国 4
等性 4
签字国 4
管理信息系统 4
管理工具 4
系@@ 4
索 4
紧靠 4
繁忙 4
约@@ 4
纷争 4
纺织品 4
纽带 4
组都 4
终结 4
经济周期 4
结 4
结构化 4
绝@@ 4
缅怀 4
缔定 4
编@@ 4
编排 4
编订 4
缺@@ 4
缺席判决 4
缺点 4
置@@ 4
署为 4
美化 4
群 4
考@@ 4
耗用 4
联合公报 4
联合国人权委员会 4
联营 4
聚焦 4
肯尼亚政府 4
育儿 4
育婴 4
背离 4
能不受 4
自主性 4
自律 4
至关紧要 4
致@@ 4
致函 4
致敬 4
舍不得 4
舒适 4
航天员 4
航道 4
船员 4
艘 4
花园 4
苏非派 4
苛刻 4
若干个 4
药 4
荷兰政府 4
莫@@ 4
获胜 4
获量 4
萨 4
萨格勒布 4
落实工作 4
蒂@@ 4
蒙古政府 4
蒙特苏 4
蔑视 4
薪级表 4
虚假 4
虽有 4
血源性 4
行使权力 4
行列 4
行政@@ 4
行政长官 4
衍生 4
衔接 4
补@@ 4
表以 4
表示祝贺 4
表见 4
裁撤 4
装运 4
襄 4
要@@ 4
要务 4
要旨 4
要约 4
警 4
警方 4
订定 4
认@@ 4
认清 4
让步 4
训练有素 4
训练班 4
议事 4
记入 4
记录下来 4
论及 4
论述 4
诀窍 4
评@@ 4
诉@@ 4
词 4
译 4
试验性 4
该会 4
该局 4
该案 4
该法 4
该笔 4
详情 4
语种 4
语音 4
误@@ 4
误报 4
诸 4
诸多方面 4
诺贝尔和平奖 4
读 4
课征 4
课题 4
调查员 4
调查报告 4
调查过程 4
调配 4
谋福利 4
貌相 4
负荷 4
财务管理 4
账内 4
货 4
质疑 4
贪污贿赂 4
贫铀 4
购@@ 4
贷方 4
贸易组织 4
贾 4
资 4
资源转移 4
赚取 4
赫@@ 4
起步 4
起码 4
超越 4
趋同 4
足迹 4
跨国性 4
身上 4
身受 4
转为 4
转载 4
软件 4
载运 4
较@@ 4
较为 4
较大 4
输@@ 4
迅捷 4
过多 4
过渡性 4
过高 4
运转 4
这一有 4
进 4
远@@ 4
违规 4
迫在眉睫 4
述及 4
追@@ 4
适切 4
适度 4
适量 4
透彻 4
逐步提高 4
通报情况 4
通行权 4
通行证 4
造@@ 4
遗址 4
遗属 4
遗留下来 4
遥远 4
遵重 4
避难所 4
那天 4
邮件 4
部在 4
部落 4
酌情处理 4
酒精 4
酸化 4
采 4
采购网 4
里耶尔 4
重大成果 4
重演 4
重订 4
重设 4
野生动物 4
金融体系 4
链中 4
长期债务 4
长远 4
间歇性 4
防污 4
阿以 4
阿泽里 4
阿皮亚 4
附加条件 4
除本 4
除此之外 4
随@@ 4
随之 4
隐藏 4
难以获得 4
零@@ 4
雷特 4
需在 4
非关税 4
非贸易 4
面@@ 4
面向用户 4
顺从 4
须加 4
顽固 4
顿 4
颁布法律 4
领 4
领@@ 4
领受 4
领头 4
风暴 4
馆藏 4
首要条件 4
马拉 4
骇人听闻 4
高于 4
高出 4
高居 4
高水平 4
高职 4
高风险 4
鲨 4
鲨业 4
黑人 4
黑体字 4
＝ 4
---- 3
... 3
.18 3
007 3
012 3
045 3
046 3
06 3
061 3
1.3 3
10.3 3
1002 3
1023 3
1053 3
11.@@ 3
1111 3
1143 3
1210 3
1242 3
1270 3
1279 3
1302 3
1312 3
1390 3
1392 3
14.18 3
14.19 3
1401 3
1410 3
1431 3
1440 3
1459 3
14860 3
15020 3
1521 3
1528 3
1535 3
1542 3
1566 3
1570 3
1591 3
1598 3
1678 3
1701 3
1754 3
18.767 3
18@@ 3
19.9 3
1904 3
2.15 3
2.26 3
2.92 3
2163 3
217A 3
2221 3
2263 3
22@@ 3
24631 3
25.@@ 3
2656 3
2657 3
2728 3
2791 3
28F 3
2911 3
29F.@@ 3
29G@@ 3
3.8 3
3.9 3
30@@ 3
3331 3
354 3
37789 3
39@@ 3
4.10 3
4.3 3
4.@@ 3
40214 3
493 3
5.8 3
527 3
5L 3
613 3
614 3
629 3
638 3
644 3
646 3
655 3
669 3
672 3
676 3
679 3
684 3
689 3
692 3
694 3
697 3
716 3
725 3
726 3
727 3
734 3
738 3
739 3
743 3
747 3
758 3
770 3
773 3
775 3
777 3
783 3
8.18 3
804 3
807 3
819 3
827 3
834 3
835 3
836 3
841 3
842 3
851 3
863 3
869 3
870 3
892 3
899 3
903 3
912 3
916 3
922 3
925 3
961 3
969 3
987 3
991 3
993 3
A.9@@ 3
AFS 3
ART 3
Add.13 3
Add.17 3
Add.24 3
B.4 3
BWM 3
C.@@ 3
CEDAW 3
CN.5 3
CN.6 3
CONF.210 3
COP.4 3
COP.6 3
CP.8 3
CRP@@ 3
D.27 3
Dec.165 3
Dec.33 3
Dec@@ 3
F@@ 3
FishCode 3
I.@@ 3
IV.7 3
JIU 3
L.262 3
L.44 3
L.52 3
L.58 3
L.59 3
L.60 3
L.63 3
L.64 3
L.65 3
L.66 3
L.67 3
LC 3
LX 3
MEPC 3
MISSING 3
MSC.153 3
MSC.155 3
MSC.167 3
N@@ 3
PCNICC 3
RPM.1 3
RPM.2 3
RPM.3 3
RPM.4 3
Rev.4 3
SER 3
SN 3
SPCONF 3
SR.2 3
SR.34 3
SR.35 3
Sect 3
TF 3
UNCTAD 3
W@@ 3
WG.18 3
WHA56 3
WP.2 3
XIX 3
bsec 3
e@@ 3
ekecheiria 3
gefweb 3
gov 3
iaea 3
imfservey 3
in@@ 3
iyv2001 3
p@@ 3
tr 3
un@@ 3
unicef 3
w 3
w@@ 3
worldvolunteerweb 3
Ⅱ 3
Ⅲ 3
一两年 3
一代 3
一大部分 3
一如既往 3
一整天 3
一时间 3
一是 3
一有 3
一本 3
一段时间 3
一百九十 3
一百二十 3
一百二十二个 3
一百五十五 3
一百六十六 3
一百零七 3
一秉 3
一笔勾销 3
一般来说 3
一艘 3
七人 3
七十七 3
七名 3
万维网 3
三世 3
三周 3
三至 3
上下 3
上以 3
上受 3
上岸 3
上报 3
上核 3
上级 3
下一代 3
下为 3
下所作 3
下跌 3
不公 3
不公平地 3
不和睦 3
不善 3
不因 3
不愿 3
不成 3
不振 3
不敢 3
不确定性 3
不通 3
与会代表 3
与否 3
丑化 3
专有 3
业务范围 3
东北部 3
两倍 3
两国@@ 3
两场 3
两字 3
两方 3
两段 3
个人@@ 3
个人卫生 3
中使 3
中列 3
中则 3
中同 3
中国政府 3
中央银行 3
中小学 3
中应分 3
中所定 3
中拟 3
丰博尼 3
临战状态 3
为南 3
举 3
举报人 3
乃是 3
久@@ 3
久拖 3
久经考验 3
之久 3
之分 3
之友 3
之声 3
之日算 3
乌@@ 3
乌塔 3
乐于 3
乐意 3
九十日 3
书店 3
书状 3
争@@ 3
事务管理 3
事实陈述 3
二十个 3
二十九个 3
二十五年 3
二十八 3
二十四名 3
二年 3
二所列 3
二线 3
二者 3
于本 3
互利互惠 3
互相@@ 3
互相交换 3
互相承认 3
五人 3
五位 3
五十 3
五十五个 3
五十八 3
五国 3
五届 3
亚努亚岛 3
亚得里亚海 3
亚述人 3
交易@@ 3
交流@@ 3
交通工具 3
产卵 3
产品销售 3
享养 3
亲人 3
亲自参加 3
人口稠密 3
人口迁移 3
人因 3
人工流产 3
人才 3
人有 3
人生观 3
人质 3
什 3
什叶派 3
仁爱 3
仅@@ 3
仅仅 3
今年夏天 3
仍会 3
仍须 3
从全 3
从此 3
他@@ 3
他物 3
付@@ 3
付诸实践 3
代 3
代理商 3
以收 3
以至 3
仲裁庭 3
价值体系 3
任务区 3
伊斯兰共和国 3
伊格尔 3
休@@ 3
优异 3
会后 3
会计准则 3
传@@ 3
传单 3
传票 3
传达 3
传递信息 3
伤人 3
伦 3
伦理学 3
伪@@ 3
伯@@ 3
但@@ 3
住处 3
住房问题 3
余 3
作坊式 3
作成 3
使训 3
供应船 3
供应链 3
供求 3
依本 3
依第 3
侵@@ 3
侵权者 3
便捷 3
保卫国家 3
保密性 3
保留地 3
保险期 3
保障人权 3
信使 3
信息@@ 3
修缮 3
修订稿 3
倒@@ 3
候补 3
值得注意 3
偏重 3
做时 3
停战 3
停火协议 3
停职 3
健@@ 3
儿@@ 3
充分@@ 3
充分体现 3
充分说明 3
光学 3
光生 3
克罗地亚共和国 3
免@@ 3
入侵 3
全职 3
公允 3
公共@@ 3
公共利益 3
公园 3
公平合理 3
公营企业 3
公路 3
六方会谈 3
关 3
关照 3
兴@@ 3
兴办 3
其以 3
其依 3
其同 3
其害 3
其应 3
其新 3
其案 3
其次 3
其自 3
具体实施 3
具体意见 3
具体表现 3
典范 3
兼@@ 3
内含 3
内尽 3
内称 3
内部结构 3
内除 3
册 3
再三 3
再生 3
再行 3
冗余 3
写 3
写入 3
军事@@ 3
军舰 3
冰@@ 3
冲积 3
决不 3
决定性 3
冷藏 3
净@@ 3
准@@ 3
准军事 3
减弱 3
几百名 3
几组 3
凡有 3
出席率 3
出版界 3
分包 3
分布式系统 3
分支 3
分期 3
分级 3
分配情况 3
切@@ 3
切勿 3
切望 3
划 3
划进 3
列@@ 3
列名 3
列载 3
创始 3
创造性地 3
利伯维尔 3
利润 3
到@@ 3
到场 3
制定方案 3
制宪会议 3
制药业 3
刻不容缓 3
前塞米 3
前应 3
剧烈 3
割切 3
劝告 3
加勒比地区 3
加害 3
动作 3
动议 3
努埃尔 3
劫@@ 3
劳改营 3
势 3
募捐 3
匀支 3
包庇 3
包机 3
化石 3
北大西洋公约组织 3
北方 3
区@@ 3
十二分 3
十二名 3
十八名 3
十分@@ 3
十分必要 3
十大 3
千@@ 3
半球 3
华盛顿市 3
协商会 3
协调会议 3
卓绝 3
南@@ 3
南京市 3
博@@ 3
博爱 3
卡塔尔国 3
卫星平台 3
卫生保健 3
卫生组织 3
印@@ 3
印刷品 3
印本 3
危地马拉城 3
危险性 3
即仇外 3
即同 3
即水 3
即能 3
即该 3
原地 3
原已 3
原文 3
原样 3
原物 3
参战 3
参阅 3
及于 3
及分 3
双边关系 3
双边条约 3
反击 3
反腐 3
反诉 3
发展局 3
发展趋势 3
发扬 3
取出 3
取向 3
取得联系 3
受到重视 3
受托 3
受损 3
受援 3
受灾地区 3
受训 3
变相 3
口述 3
古巴政府 3
古柯 3
古达 3
古迹 3
可大 3
可怕 3
可经 3
可行性研究 3
可选 3
台 3
号召 3
司为 3
司向 3
司有 3
司法@@ 3
司法部长 3
各省 3
各行各业 3
各设 3
合作者 3
合理要求 3
合算 3
吉尔吉斯 3
同一个 3
同业 3
同小 3
同步 3
同类 3
名@@ 3
名为 3
名副其实 3
后该 3
向易 3
吞 3
否决 3
听 3
听@@ 3
听到 3
吸取经验 3
吸收能力 3
告@@ 3
周岁 3
周年纪念 3
周期性 3
周边 3
周边地区 3
命名 3
哀悼 3
品德 3
品种 3
响 3
哪些方面 3
哺乳动物 3
商@@ 3
商业@@ 3
商业化 3
商品交易 3
商品生产 3
商用 3
商讨 3
商议 3
喉舌 3
喜爱 3
嗣后 3
四十九 3
四十周年 3
四国 3
回@@ 3
回到 3
回报率 3
回购 3
因地制宜 3
因对 3
团@@ 3
围困 3
国债 3
国家@@ 3
国家级 3
国将 3
国已 3
国某 3
国防@@ 3
国际刑警组织 3
国际航空 3
圣多美 3
圣托马斯 3
圣物 3
圣约翰 3
在世界上 3
在校 3
地下水 3
地共挑 3
地同 3
地处 3
地球物理 3
均@@ 3
均列 3
坏 3
坤 3
坦 3
坦@@ 3
埃@@ 3
城 3
域@@ 3
培@@ 3
培训教材 3
基因组 3
基本@@ 3
基础科学 3
塑造 3
塞@@ 3
境遇 3
增减 3
增加数 3
士 3
处应 3
复制 3
复员军人 3
复课 3
外交@@ 3
外交部 3
外对 3
多国部队 3
多媒体 3
多族 3
大中小学生 3
大众传播 3
大学校长 3
大家庭 3
大都 3
大额 3
失密 3
失检 3
失衡 3
失败 3
夺走 3
奇@@ 3
奉召 3
奉献 3
奥运 3
奴隶制度 3
妇女儿童 3
妇孺 3
妨阻 3
始 3
威@@ 3
子@@ 3
存@@ 3
存款 3
存活率 3
宁愿 3
安 3
安全区 3
安全带 3
安卡拉 3
安圭拉岛 3
安宁 3
安家 3
完全一致 3
完整权 3
完毕 3
官邸 3
定@@ 3
定下 3
定额 3
实 3
实时 3
实际意义 3
实验 3
审即 3
审校 3
审计工作 3
客@@ 3
宣传材料 3
宣示 3
害怕 3
家具 3
宾夕法尼亚州 3
寄@@ 3
富裕 3
察 3
察@@ 3
对雷场 3
将@@ 3
将表 3
少于 3
少有 3
尤须 3
就要 3
就近 3
尸体 3
尼日利亚政府 3
尼罗 3
尽义务 3
尽可能减少 3
尽职 3
局限于 3
届满时 3
屏蔽 3
属实 3
山@@ 3
山日 3
崇高 3
工@@ 3
工业品 3
工农业 3
工厂 3
工商界 3
工程@@ 3
工艺品 3
工龄 3
左右 3
差@@ 3
已以 3
已往 3
已故 3
已领 3
巴拉迪 3
市政府 3
市民 3
市镇 3
布 3
师资 3
希尔 3
帐目 3
帕@@ 3
帮派 3
平原 3
平稳 3
年内 3
年届 3
年春 3
年费 3
并发症 3
并须 3
幼儿 3
庇护权 3
床 3
应交 3
应列明 3
应受谴责 3
应变 3
应向 3
应圣 3
应由@@ 3
应视 3
应请 3
庭 3
廉@@ 3
廉洁 3
延@@ 3
建国 3
建筑群 3
建设项目 3
开发局 3
开发技术 3
开拓市场 3
开放式 3
开明 3
异 3
异@@ 3
异见 3
式样 3
引擎 3
弱小 3
强烈建议 3
归 3
当值 3
当前@@ 3
当年 3
形形色色 3
征求意见 3
很快 3
得@@ 3
得力 3
微 3
微观经济 3
心声 3
心态 3
心理@@ 3
必不可缺 3
快@@ 3
忽略 3
怎么 3
性取向 3
性所 3
性生活 3
总结报告 3
总表 3
总裁 3
恶 3
恶果 3
患上 3
患病 3
情况严峻 3
情绪 3
惊@@ 3
惊悉 3
惋惜 3
惠@@ 3
惨@@ 3
惨重 3
意 3
感@@ 3
感到痛心 3
愤慨 3
慢 3
慷慨解囊 3
成熟度 3
或人道 3
或本 3
战争罪犯 3
战事 3
战术 3
战略@@ 3
所在区域 3
所生 3
所知 3
托@@ 3
执 3
执业 3
执法机关 3
扩大出口 3
扶助 3
找 3
承包者 3
技术@@ 3
技术设备 3
技术革新 3
投@@ 3
抗御 3
折磨 3
护 3
报社 3
报称 3
报纸 3
抵@@ 3
担@@ 3
拉丁文 3
拉加 3
拉姆 3
拉巴特 3
拒@@ 3
拖欠款项 3
招标 3
拟@@ 3
拦截 3
拨@@ 3
择 3
括@@ 3
持有人 3
持续时间 3
指@@ 3
指一国 3
指令 3
按本 3
按该 3
捐给 3
捐赠者 3
捕@@ 3
授 3
授@@ 3
授标 3
排外 3
排放量 3
接 3
接@@ 3
推及 3
推荐 3
掺拌 3
提示 3
提纲 3
搬走 3
搭配 3
摄影 3
摆在 3
摊 3
摒绝 3
摩加迪沙 3
撞击 3
撤除 3
收录 3
收缩 3
收获 3
收集整理 3
改 3
改成 3
改用 3
放松 3
政务 3
政敌 3
政治体制 3
政治危机 3
政策方针 3
政纲 3
敌对行为 3
敏锐 3
教堂 3
教学方法 3
教改 3
敬@@ 3
数份 3
数十万 3
数项 3
敲诈性 3
整修 3
整年 3
文件翻译 3
文化@@ 3
文学遗产 3
斯塔尔 3
斯特@@ 3
新聘 3
新近 3
施@@ 3
旅游区 3
旗 3
无偿 3
无受 3
无损 3
无法挽回 3
无疑 3
无线电台 3
无误 3
无资格 3
无辜者 3
既定目标 3
日刊 3
日卡纳 3
日多 3
日大 3
日落 3
日该 3
早@@ 3
早孕 3
时尚 3
时尽 3
时所作 3
时需 3
明智地 3
明确提出 3
易懂 3
易遭 3
星期三 3
显@@ 3
晚 3
景观 3
智囊团 3
智者 3
暂 3
暴力犯罪 3
更名 3
更多 3
月初 3
月间 3
有价证券 3
有利可图 3
有薪 3
服务提供商 3
服满 3
期为 3
期应 3
期时 3
期由该 3
期起 3
木材 3
未予 3
未婚 3
未计 3
本应 3
本段 3
机票 3
权所含 3
权有 3
村 3
条使 3
条见 3
条除 3
来文后 3
杰里科 3
极少 3
极易 3
林@@ 3
果敢 3
枢纽 3
查 3
查出 3
标@@ 3
标明 3
树 3
树木 3
核发 3
根本性 3
格朗德 3
档案管理 3
检察长 3
检查报告 3
检查程序 3
棉花 3
棱柱 3
植树造林 3
概 3
横向 3
欢庆 3
欧佩克 3
欧洲航天局 3
欺凌 3
欺诈性 3
款内 3
款待 3
正当权益 3
正本 3
正由 3
此款 3
此类情况 3
步 3
步@@ 3
武装侵略 3
残@@ 3
残障 3
殴打 3
每五 3
每况愈下 3
毒害 3
比@@ 3
比利时政府 3
比照 3
毫无保留 3
民主自由 3
民俗 3
民间团体 3
气旋 3
气象卫星 3
水准 3
水雷 3
沉没 3
油污 3
油田 3
治疗法 3
沿@@ 3
法人资格 3
法典 3
法则 3
法办 3
法医学 3
法在 3
法学会 3
法律@@ 3
法律法规 3
法理 3
泛滥 3
波兰政府 3
波哥大 3
洁净 3
洋 3
洲 3
活动分子 3
活动家 3
流徙 3
海岸线 3
海洛因 3
海运业 3
消息灵通 3
淘汰 3
深刻影响 3
深度 3
深知 3
深表同情 3
混乱 3
清 3
清@@ 3
渔@@ 3
渔场 3
渔捞 3
温和 3
游牧民 3
溯 3
溯河 3
滞@@ 3
满@@ 3
滥@@ 3
漏@@ 3
演习 3
激进 3
火箭 3
灭贫 3
点@@ 3
热带海洋 3
热带病 3
焚@@ 3
照@@ 3
爆炸事件 3
特工 3
特拉 3
特许 3
牺牲 3
狱政 3
率@@ 3
玉色 3
王国 3
环境@@ 3
环球 3
现代文明 3
现占 3
现称 3
班吉 3
班珠尔 3
理@@ 3
理性 3
瑞士联邦 3
甚微 3
生命危险 3
生气勃勃 3
生活@@ 3
用地 3
由受 3
由性 3
申请加入 3
电信业 3
电子政务 3
电报 3
电脑@@ 3
电讯 3
男士 3
男女之间 3
男女老幼 3
界@@ 3
界线 3
界面 3
畜牧 3
病入膏肓 3
病原 3
病原体 3
病患 3
病毒传播 3
登 3
登记员 3
登载 3
百@@ 3
百分点 3
百四十六 3
监测数据 3
监视系统 3
盛@@ 3
目@@ 3
目击者 3
直播 3
相互竞争 3
相得益彰 3
省@@ 3
省议会 3
短 3
短语 3
石@@ 3
石油换 3
砂矿 3
研究@@ 3
破例 3
确属 3
确须 3
碍 3
礼仪 3
礼宾 3
社会@@ 3
社会规范 3
神 3
神@@ 3
禁产 3
福址 3
离国 3
私@@ 3
私下地 3
私营企业 3
科学@@ 3
科学管理 3
租@@ 3
积 3
积@@ 3
积极关注 3
积欠 3
移居 3
程序性 3
税后 3
稳定局势 3
空气 3
空袭 3
空运 3
突@@ 3
窗口 3
竟然 3
端 3
第一副 3
第一年 3
第一种 3
第三十@@ 3
第三十八 3
第三十六条 3
第二份 3
第二十七条 3
第二十七次 3
第二十三 3
第二十六次 3
第二十次 3
第六@@ 3
第六十 3
第六十二 3
第十七 3
第十二章 3
第四十二条 3
等额 3
筹得 3
签 3
简明 3
简编 3
简述 3
管@@ 3
管理效率 3
管理法 3
籍 3
米奇 3
精神压力 3
糟蹋 3
系以 3
累累 3
纠纷 3
纤维 3
纪念奖 3
纸张 3
纽伦堡 3
纽约州 3
纾解 3
组别 3
组织名义 3
组织性 3
组织系统 3
细分 3
经审查 3
经济负担 3
经营方式 3
经营者 3
结@@ 3
绝版 3
统一规划 3
继续前进 3
绳 3
维@@ 3
维修费 3
维尔纽斯 3
绿化 3
缅甸联邦 3
编写程序 3
编撰 3
缘由 3
缩@@ 3
缴获 3
缺席 3
网@@ 3
网在 3
网等 3
网络@@ 3
网络空间 3
罚@@ 3
置 3
羁留 3
耗竭 3
耶和华 3
聋 3
职业@@ 3
联 3
联合国安全理事会 3
联合阵线 3
联席 3
联接 3
股及 3
股在 3
肥沃 3
肯 3
能源技术 3
自下而上 3
自发 3
自尊 3
自幼 3
自本 3
自由往来 3
自该 3
致死 3
舒缓 3
船主 3
船骸 3
良 3
良政 3
艺术界 3
节@@ 3
花 3
苏木 3
苏瓦 3
若@@ 3
苦 3
英@@ 3
英文字母 3
草签 3
莱@@ 3
获@@ 3
获得性免疫 3
获该 3
获邀 3
菲济 3
落@@ 3
著作 3
蒙克 3
蒙古国 3
蓝图 3
蔑 3
薪@@ 3
藉 3
虑 3
虫害 3
虽非 3
融@@ 3
补偿性 3
表一 3
表二所列 3
表前 3
衷心感谢 3
被劫走 3
被告 3
被告方 3
被捕 3
裁 3
装修 3
裔 3
见效 3
见证人 3
观 3
观察站 3
规划系统 3
规格 3
觉 3
解 3
解雇 3
触及 3
言行 3
詹姆斯 3
誓言 3
警@@ 3
警戒 3
警示 3
计算机系统 3
计算机辅助 3
计酬 3
订@@ 3
认真对待 3
讨 3
议事日程 3
讯 3
记住 3
许@@ 3
论文 3
访 3
证据规则 3
评估所 3
识别系统 3
诉讼法 3
译员 3
话 3
该网 3
该署 3
详细审查 3
语 3
误 3
请愿 3
课 3
谁 3
调 3
调和 3
谋 3
谋@@ 3
谋利益 3
谬误 3
贝克 3
财产法 3
财团 3
财政@@ 3
责 3
责任@@ 3
账簿 3
质 3
贫@@ 3
贫富 3
贷记 3
资历 3
资本外逃 3
赞助者 3
赞许 3
赠与 3
赤字 3
走 3
走上 3
走访 3
越拉越 3
足球 3
跨@@ 3
路@@ 3
路易斯 3
身@@ 3
车@@ 3
转划 3
轻 3
轻易 3
载录 3
载明 3
辟 3
边防 3
迅速开展 3
过后 3
过长 3
运 3
运@@ 3
运输船 3
近几个月 3
返乡 3
还须 3
这会 3
这套 3
进来 3
违规者 3
连接起来 3
迟缴 3
迪拜 3
退 3
退还给 3
逃 3
逃@@ 3
选@@ 3
选任 3
选派 3
逐届 3
途 3
通俗易懂 3
通信卫星 3
逢 3
逾 3
逾越 3
遇@@ 3
遥@@ 3
遵守规则 3
遵纪守法 3
避 3
避@@ 3
那么 3
那时 3
邮寄 3
部为 3
都市 3
配以 3
酬金 3
醒目 3
采信 3
里@@ 3
重下 3
重享 3
重大@@ 3
重大损失 3
重新@@ 3
重算 3
重要@@ 3
量力而行 3
金@@ 3
金刚砂 3
金杜 3
金融@@ 3
金融业务 3
金融管理 3
金融风险 3
釜山 3
钚 3
银行行长 3
错@@ 3
长崎 3
长期投资 3
长者 3
问 3
问责@@ 3
间接税 3
阔 3
防 3
防@@ 3
阻截 3
阿塞拜疆共和国 3
阿摩 3
阿森松岛 3
阿韦纳 3
阿鲁巴 3
阿鲁沙 3
附@@ 3
附于 3
陆战 3
陈旧 3
降到 3
除以 3
陪同 3
隆@@ 3
随时随地 3
难@@ 3
难以解决 3
难民署 3
难题 3
雅 3
集@@ 3
集中@@ 3
集束 3
集装箱 3
零敲碎打 3
雷场 3
非人 3
非分 3
非商业 3
非洲地区 3
面貌 3
项@@ 3
须经 3
顾@@ 3
颂扬 3
预付 3
预付款 3
预发 3
领土毗连 3
领地 3
领导者 3
领空 3
颇感兴趣 3
饥馑 3
首 3
马扎里沙里夫 3
马斯特里赫特 3
驱@@ 3
驳回 3
驳斥 3
高地 3
高层次 3
高得 3
高标准 3
魁北克 3
鱼@@ 3
鱼饵 3
鲁 3
黄 3
黑海地区 3
鼻 3
齐@@ 3
Ｌ 3
.... 2
................@@ 2
.9 2
0 2
0.01 2
00 2
001 2
004 2
005 2
006 2
010 2
027 2
032 2
051 2
053 2
062 2
064 2
069 2
08 2
081 2
09 2
091 2
097 2
098 2
1.1 2
1.14 2
1.274 2
1.458 2
1.7 2
10.2 2
10.4 2
10.49 2
10.5 2
1003 2
1004 2
10062 2
1028 2
104.7 2
1046 2
1073 2
1077 2
1100 2
1153 2
1173 2
11A.@@ 2
12.1 2
12.10 2
12.3 2
12.7 2
1266 2
1281 2
1284 2
1291 2
1301 2
1309 2
1322 2
1338 2
1340 2
1343 2
1376 2
1386 2
1419 2
1461 2
1480 2
1483 2
15.10 2
1509 2
1512 2
1529 2
1534 2
1543 2
1545 2
1565 2
15749 2
1593 2
1596 2
1625 2
1634 2
1659 2
1675 2
17.13 2
1715 2
1721 2
1746 2
1772 2
1798 2
1869 2
19.1 2
19.10 2
19.11 2
19.12 2
19.13 2
19.15 2
19.16 2
19.17 2
19.18 2
19.3 2
19.4 2
19.5 2
19.8 2
1911 2
1917 2
1926 2
1952 2
1962 2
19@@ 2
2.31 2
2.39 2
2.442 2
2.46 2
2.82 2
200@@ 2
2014 2
2016 2
2089 2
21.32 2
21.60 2
2158 2
2170 2
22.1 2
22.3 2
2226 2
22484 2
22514 2
2256 2
22609 2
23.@@ 2
2326 2
2329 2
24.15 2
24.3 2
24.8 2
24370 2
25.4 2
25.5 2
25.6 2
2502 2
2529 2
2542 2
27.2 2
27.5 2
2749 2
27A 2
27C.5 2
28.22 2
2861 2
29004 2
29A@@ 2
29C.@@ 2
29E.@@ 2
3.3 2
3.44 2
3.5 2
3.7 2
30865 2
31.@@ 2
3166 2
31874 2
32.5 2
3208 2
3237 2
32724 2
37733 2
37@@ 2
3822 2
39486 2
4.0 2
4.1 2
4.5 2
4.8 2
4.9 2
445 2
48.13 2
48@@ 2
5.29 2
5.39 2
5.4 2
5.9 2
54.14 2
56.1 2
56.28 2
56.29 2
58.2 2
58.3 2
594 2
5@@ 2
6.6 2
60@@ 2
61.6 2
6193 2
639 2
647 2
654 2
663 2
668 2
674 2
675 2
683 2
693 2
6A 2
706 2
715 2
721 2
728 2
730 2
741 2
744 2
757 2
767 2
772 2
774 2
778 2
781 2
789 2
791 2
792 2
793 2
798 2
8.12 2
8.14 2
8.39 2
8.4 2
80.4 2
801 2
812 2
816 2
822 2
825 2
828 2
833 2
839 2
849 2
854 2
855 2
857 2
858 2
861 2
873 2
878 2
880 2
885 2
887 2
896 2
9.3 2
901 2
920 2
930 2
940 2
942 2
943 2
947 2
949 2
958 2
960 2
975 2
977 2
988 2
990 2
995 2
997 2
998 2
= 2
A.2 2
A.963 2
A.973 2
A.974 2
AC.172 2
AC.254 2
AC.259 2
AG 2
AHSG 2
AS@@ 2
ASSEMBLY 2
Add.18 2
Add.23 2
Add.25 2
Add.35 2
B.18 2
C.77 2
C.82 2
C.98 2
CG 2
CMP 2
CO@@ 2
CONF.2 2
CONF.26 2
CONF.3 2
CONF.4 2
CONF.48 2
COP.8 2
CP.4 2
CRP.1 2
CU@@ 2
Corr.5 2
Corrected 2
Cyber@@ 2
D.13 2
DD@@ 2
DEC.@@ 2
DHA 2
Day 2
Dec.127 2
Dec.132 2
Dec.170 2
Dec.192 2
Disa@@ 2
E.00 2
E.02 2
E.03 2
E.07 2
EB 2
EC@@ 2
EM 2
EXT 2
F8@@ 2
GC.@@ 2
GEF 2
GGE 2
GP 2
GRAME 2
HNS 2
I.16 2
ICC 2
ICCM.1 2
IDB.@@ 2
INSTRAW 2
IS3.5 2
ISDR 2
IV.2 2
IX.2 2
IX.3 2
International 2
J@@ 2
KP 2
L.61 2
L.62 2
L.68 2
L.69 2
L.70 2
L.71 2
LEG.3 2
LVI 2
MEPC.@@ 2
MSC.202 2
MSP.6 2
NI 2
OPRC 2
PRK 2
PV.39 2
PV.40 2
PV.4635 2
PV.4852 2
PV.4@@ 2
PV.5066 2
PV.72 2
Persons 2
Pubs 2
Q.1 2
Q.3 2
R780 2
RES.@@ 2
Re@@ 2
Res.457 2
S@@ 2
SAICM 2
SC@@ 2
SR.10 2
SR.12 2
SR.13 2
SR.14 2
SR.1486 2
SR.15 2
SR.4 2
SR@@ 2
SchoolBus 2
Sect.27 2
Sect.29 2
Sub@@ 2
UN@@ 2
UNITAID 2
V.6 2
V.7 2
V.9 2
V.@@ 2
V@@ 2
Vol.1 2
WG@@ 2
WHA55.@@ 2
WHA60 2
WHA@@ 2
X@@ 2
XI.1 2
XIV.4 2
XVII 2
XX.1 2
acpsec 2
add@@ 2
af@@ 2
aw 2
carpathianconvention 2
cr 2
doc@@ 2
dr 2
ea@@ 2
ee@@ 2
eng 2
es 2
external 2
f@@ 2
g@@ 2
h@@ 2
humanrights 2
il@@ 2
l@@ 2
mae 2
ne@@ 2
np 2
o1 2
of 2
onf@@ 2
opanal 2
or@@ 2
os@@ 2
pdebt 2
pdf 2
programs 2
ra@@ 2
re@@ 2
register 2
response 2
rev 2
rica 2
sub 2
summaries 2
text 2
ti@@ 2
unog 2
v 2
v@@ 2
vii 2
voy 2
women@@ 2
x 2
y 2
• 2
一个@@ 2
一任 2
一切都是 2
一同 2
一场 2
一大批 2
一如 2
一家 2
一座 2
一期 2
一百一@@ 2
一百二十@@ 2
一百二十五 2
一百二十六 2
一百六十个 2
一百六十多 2
一百四十一个 2
一百零@@ 2
一致同意 2
一间 2
一非 2
一齐 2
丁@@ 2
七位 2
七十个 2
七十二个 2
七十四 2
七国集团 2
七天 2
七条 2
七百@@ 2
万一 2
万象 2
三份 2
三十一个 2
三十六个 2
三十卷 2
三星期 2
三月 2
三种 2
上任 2
上台 2
上岗 2
下应 2
下经 2
下设 2
下达 2
下过 2
下面 2
不为 2
不以订 2
不佳 2
不加区分 2
不可@@ 2
不合标准 2
不在此@@ 2
不太 2
不好 2
不妥 2
不幸 2
不损 2
不断更新 2
不明 2
不景气 2
不止 2
不稳 2
不缴 2
不许 2
不高 2
与众不同 2
与此相关 2
专业技能 2
专利 2
专家团 2
专属 2
专设 2
且系 2
世 2
世@@ 2
世界@@ 2
业务@@ 2
东南部 2
东方省 2
丢弃 2
两地 2
两组 2
严@@ 2
严加 2
严正 2
严重困难 2
个股 2
中不以 2
中介机构 2
中其 2
中养 2
中华人民共和国政府 2
中原 2
中国香港 2
中拨出 2
中排 2
中是 2
中未 2
中来 2
中枢 2
中误 2
中过 2
临床 2
临时性 2
为一体 2
为人所知 2
为养 2
为度 2
为数不少 2
为易 2
为重要 2
主人翁 2
主机 2
主食 2
举@@ 2
举例 2
举止 2
举足轻重 2
乃 2
乃系 2
久拖不决 2
义不容辞 2
之于法 2
之八 2
之功 2
之受 2
之处 2
之大 2
之患 2
之订 2
乌兹别克 2
乌干达共和国 2
乌戈 2
乐@@ 2
乘客 2
乙 2
九分 2
九十@@ 2
九十七 2
九名 2
习 2
乡 2
书后 2
买得起 2
买断 2
了结 2
事@@ 2
事务所 2
事发 2
二十七 2
二十七分 2
二十三个 2
二十九 2
二十二个 2
二十五个 2
二十六个 2
于众 2
互为 2
互敬 2
互调 2
互连 2
五十七 2
五十七年 2
五十九 2
五十二年 2
五十六年 2
五十四年 2
五席 2
五次 2
交互性 2
交叠 2
亦可 2
产业 2
产假 2
产品@@ 2
亲 2
人事@@ 2
人仅 2
人养 2
人力资本 2
人口@@ 2
人员@@ 2
人大 2
人心 2
人文大学 2
人时 2
人生 2
人系 2
人身保护 2
人身攻击 2
人身自由权 2
人须 2
仅为 2
今 2
今天 2
今日 2
介绍性 2
仍为 2
仍待 2
仍感 2
仍旧 2
从业人员 2
从今 2
从今以后 2
从小 2
从重 2
他性 2
付 2
代之以 2
代号 2
代表@@ 2
代表制 2
代议 2
令人@@ 2
令时 2
以为 2
以其 2
以同 2
以备 2
以待 2
以有 2
以水 2
价 2
价廉 2
价格低廉 2
价格调整 2
价调 2
价钱 2
任@@ 2
任何理由 2
任凭 2
任捕 2
任由 2
伊朗人 2
伐 2
优 2
会受 2
会因 2
会外 2
会聚 2
传真 2
传给 2
传输 2
伤亡惨重 2
伦@@ 2
估 2
估量 2
伸张 2
似以 2
似未 2
似的 2
但据报 2
但本 2
低下 2
住家 2
住房贷款 2
住满 2
体力 2
体育竞赛 2
何@@ 2
何时 2
作出评价 2
作品 2
作此 2
佣金 2
佩 2
佩@@ 2
使之@@ 2
使之能 2
使命 2
使因 2
使派 2
例@@ 2
供此 2
供电 2
供给 2
供美属 2
供资@@ 2
供销 2
供餐 2
依存@@ 2
依赖@@ 2
侦@@ 2
侮@@ 2
侵吞 2
侵袭 2
便@@ 2
促进法 2
俄@@ 2
俄语 2
保 2
保护性 2
保持@@ 2
保有 2
保理 2
保留条款 2
保证金 2
保险单 2
信息内容 2
信息量 2
信所作 2
信条 2
信用卡 2
信誉 2
修 2
修@@ 2
修毕 2
修补 2
修订版 2
候选国 2
借 2
借重 2
债@@ 2
债务额 2
债权者 2
倾@@ 2
倾斜 2
假定 2
假释 2
偏 2
偏少 2
停车 2
偷@@ 2
偷盗 2
偿金 2
储备基金 2
储备金 2
像 2
元@@ 2
充 2
先租后 2
先遣队 2
先驱 2
光盘 2
克尔 2
克尽 2
克斯 2
克族 2
克罗@@ 2
免租 2
兑 2
全寿期 2
全年 2
全时 2
全过程 2
全面完成 2
八天 2
八所 2
八百年 2
公众形象 2
公共场所 2
公共建筑 2
公关活动 2
公民道德 2
六位 2
六十一 2
六十三个 2
六十个 2
六十五 2
六十六 2
六十四 2
六十年 2
六国加 2
六大 2
六届 2
六栋 2
共@@ 2
共同@@ 2
共同之处 2
共同行动 2
共担 2
关@@ 2
关税及贸易总协定 2
关税同盟 2
关键在于 2
关键所在 2
兴 2
兵力 2
其于 2
其人道 2
其仅 2
其内 2
其准 2
其因 2
其所负 2
其本 2
其核 2
其欲免 2
其续 2
典@@ 2
典礼 2
兹@@ 2
养@@ 2
兽医 2
内于 2
内使 2
内新 2
内未 2
再续 2
再起 2
写@@ 2
写信给 2
军民 2
军用 2
农@@ 2
农业投入 2
农基 2
农工 2
农耕 2
决窍 2
决策人员 2
决策权 2
决策程序 2
准证 2
几代人 2
几份 2
几千 2
几款 2
几类 2
凭 2
凯@@ 2
凶犯 2
出其 2
出具 2
出该 2
函中 2
分册 2
分区 2
分卷 2
分析方法 2
分离主义 2
分立 2
分送 2
分部 2
分钟 2
切实做好 2
切实加强 2
切尔 2
刊@@ 2
刊登 2
刊载 2
刑事管辖 2
刑求 2
刑法典 2
刑讯逼供 2
划为 2
划分 2
列于 2
列席 2
列有 2
列本 2
创 2
创@@ 2
创伤性 2
创建人 2
创造力 2
初步阶段 2
删减 2
判 2
利亚 2
利用@@ 2
利益集团 2
别人 2
别处 2
到任 2
到养 2
到托存 2
到期 2
到访 2
制@@ 2
制下 2
制剂 2
前加 2
前后 2
前夕 2
前者 2
前项 2
剑@@ 2
剥削者 2
剩余时间 2
副庭长 2
割礼 2
加以克服 2
加以分析 2
加工点 2
加拉加斯 2
加权 2
加班费 2
加通巴 2
务@@ 2
务使 2
务虚会 2
务请 2
劣势 2
动荡不安 2
助@@ 2
努巴 2
劫难 2
励@@ 2
劳@@ 2
劳动者 2
劳工市场 2
勃@@ 2
勾勒 2
勾画 2
勿 2
包@@ 2
化学@@ 2
化学物质 2
北海 2
北美洲 2
区别对待 2
区及 2
区域保护 2
医务 2
医卫 2
医师 2
医护 2
医治 2
医疗@@ 2
匿名 2
十七个 2
十三名 2
十九个 2
十二块 2
十二项 2
十五天 2
十五日 2
十五条 2
十亿 2
十亿美元 2
十六条 2
十周 2
十四名 2
十四条 2
千丝万缕 2
千年虫 2
升高 2
半 2
半@@ 2
半干旱 2
半数票 2
华@@ 2
协@@ 2
协作性 2
协同工作 2
协同效应 2
协调@@ 2
卓识 2
卓越 2
单壳 2
单据 2
南丹 2
南奥塞莎 2
南斯拉夫政府 2
南方共同市场 2
博 2
博客 2
博物馆 2
博览会 2
占用 2
卡努 2
卡比拉 2
卡米 2
卢 2
卫星@@ 2
卫生工作者 2
卫生部 2
印度政府 2
危@@ 2
危险废物 2
即前 2
即将来临 2
即行 2
即除 2
厅@@ 2
历任 2
历史@@ 2
历日 2
历经 2
历项 2
原产地 2
原住 2
原封不动 2
原意 2
原订 2
去@@ 2
参考@@ 2
参选 2
及人道 2
及受 2
及此 2
及法外 2
及视 2
双 2
双轨制 2
双重@@ 2
反复 2
反复无常 2
反抗 2
发回 2
发完 2
发射器 2
发展潜力 2
发明 2
发生变化 2
发端 2
发起国 2
发送信息 2
取 2
取阅 2
受到@@ 2
受到谴责 2
变 2
变卖 2
变性 2
叙级 2
叛国 2
口@@ 2
口号 2
口味 2
口服 2
句@@ 2
句号 2
句子 2
另一名 2
只@@ 2
召集人 2
可兑换性 2
可卡因 2
可喜 2
可属 2
可见度 2
可视 2
可辩 2
史 2
史@@ 2
号@@ 2
司及 2
司是 2
吃@@ 2
各代人 2
各处 2
各托存 2
各种类型 2
各章 2
各该 2
各邦 2
合作@@ 2
合约 2
合营企业 2
合议庭 2
吉尔吉斯共和国 2
同一天 2
同享 2
同其前 2
同化 2
同受 2
同心协力 2
同未 2
同等@@ 2
同级 2
同训 2
同谋 2
同酬 2
同龄 2
同龄人 2
名药 2
名词 2
后加 2
后及 2
后同 2
后尚 2
向于 2
含量 2
听力 2
启@@ 2
吸@@ 2
呈@@ 2
呈上升 2
员工 2
周所作 2
呼@@ 2
和免 2
和平统一 2
和族社 2
和经 2
咨询@@ 2
咨询团 2
品@@ 2
品德高尚 2
哈特 2
哈马 2
哥伦比亚政府 2
哪 2
哪类 2
唆使 2
唯独 2
商业银行 2
商人 2
商务@@ 2
商品@@ 2
喀尔巴阡山 2
善@@ 2
善后工作 2
器 2
囚禁 2
四三 2
四中 2
四位 2
四十 2
四十七 2
四十五年 2
四十八个 2
四十八条 2
四十六 2
四十六年 2
四十四 2
四十多年 2
四十年 2
四所 2
四海 2
回升 2
回去 2
回家 2
回忆 2
因于 2
因受 2
因能 2
团体之间 2
团员 2
团结合作 2
团要 2
困扰 2
国不应 2
国之 2
国以 2
国可 2
国家统计局 2
国徽 2
国未于 2
国民@@ 2
国语文 2
国际交往 2
国际协会 2
国际航运 2
图案 2
图片 2
图谋 2
土地法 2
圣彼得堡 2
在下文 2
在实践中 2
在野 2
地不损 2
地受 2
地方性 2
地有 2
地用 2
地被 2
地请 2
址 2
坎 2
块 2
坚@@ 2
埃维安 2
城市贫民 2
基层组织 2
基思 2
基础架构 2
基辅 2
基金组织 2
堂 2
塔洛坎 2
塔瓦 2
增加值 2
增添 2
增选 2
声@@ 2
处方 2
处死刑 2
备受 2
复发 2
复查 2
夏洛特阿马利亚 2
外为 2
外交特权 2
外交界 2
外向 2
外是 2
外汇 2
外汇交易 2
外生 2
外请 2
外贸 2
外资 2
外面 2
多及 2
多变性 2
多异 2
多式 2
多种@@ 2
夜勤 2
大不相同 2
大力开展 2
大同 2
大大降低 2
大宗 2
大幅提高 2
大方向 2
大洋洲 2
大湖地区 2
大片 2
大赦 2
大量@@ 2
大阪 2
大面积 2
天灾 2
天然 2
夫@@ 2
头盔 2
夺 2
奇科区 2
奇金 2
奉@@ 2
契约型 2
奖@@ 2
奥 2
奥林匹克运动 2
女士 2
好几千 2
好转 2
如以 2
如前所述 2
如该 2
妥善处置 2
姆@@ 2
始可 2
始终保持 2
始终如一 2
威吓 2
婚内 2
孕@@ 2
孕产 2
孟邦 2
季 2
季度 2
季节性 2
学士 2
学术论文 2
学龄前 2
守 2
守法 2
安全@@ 2
安全设备 2
安危 2
安岛 2
完全@@ 2
完全相同 2
完成学业 2
宏@@ 2
宏大 2
官@@ 2
官式 2
定价 2
定位系统 2
定本 2
定界 2
实为 2
实习生 2
实事求是 2
实力 2
实用@@ 2
实际操作 2
实际效果 2
审@@ 2
审结 2
客运 2
宣传者 2
宫 2
宰牲节 2
害@@ 2
家居 2
家庭@@ 2
家户 2
家长 2
容@@ 2
容纳 2
宽恕 2
密 2
密@@ 2
密集 2
对性 2
对手 2
对易 2
对照 2
对称 2
寻@@ 2
寻得 2
寻本 2
将作 2
将视 2
小于 2
小口径 2
小时 2
小生产者 2
小组活动 2
小鲸目 2
少@@ 2
少人 2
少年期 2
少年犯 2
尖端科学 2
尚@@ 2
尝试 2
尤然 2
就@@ 2
就学 2
尸骨 2
尼克 2
尽快恢复 2
尽职守 2
局为 2
局限 2
居住权 2
展品 2
展期 2
履历 2
山 2
山林 2
州 2
工作日程 2
工商企业 2
工商会 2
工序 2
工程队 2
差额 2
已作 2
已到 2
已批 2
已达 2
巴伦西亚 2
巴利亚 2
巴塞尔 2
巴德 2
巴拿马城 2
巴里 2
币 2
市值 2
市内 2
市场@@ 2
市场经济 2
市场运作 2
市长 2
布干维尔 2
布莱尔 2
布里斯班 2
帐 2
帐@@ 2
帐下 2
帐内 2
帝@@ 2
帝汶@@ 2
带见 2
帮办 2
常务 2
幅 2
干净 2
干地 2
平 2
平均水平 2
平壤 2
平等互利 2
年东 2
年长者 2
年间 2
并准 2
并忆 2
并称 2
并纳 2
幼@@ 2
广义 2
广度 2
广播@@ 2
庄稼 2
床@@ 2
序@@ 2
库斯科 2
库萨 2
应不受 2
应不迟 2
应可 2
应多加 2
应循 2
应收 2
应比 2
应经 2
应载列 2
应除 2
庭@@ 2
延 2
廷布 2
开业 2
开会时间 2
开会讨论 2
开发利用 2
开发资源 2
开国元勋 2
开工日期 2
开庭审理 2
开诚布公 2
开通 2
异地 2
异族 2
弃 2
弃@@ 2
式@@ 2
引人注目 2
引入 2
引致 2
弗莱明 2
张@@ 2
弱 2
弱@@ 2
弹 2
强@@ 2
归化 2
归属 2
归档 2
当众 2
当前工作 2
当期 2
当权 2
录音 2
录音@@ 2
彩@@ 2
影@@ 2
彼得 2
往届 2
往访 2
征召 2
征服 2
征用 2
很感兴趣 2
得于 2
得票 2
循证 2
循迹 2
微不足道 2
德尔博 2
心目 2
必@@ 2
必定 2
必需品 2
忆 2
志@@ 2
忠@@ 2
快乐 2
思想体系 2
思想家 2
思考 2
急@@ 2
性价比 2
性关系 2
性别差异 2
性能 2
总产值 2
总体经济 2
总的来说 2
总趋势 2
总量 2
恐怖行动 2
恩德培 2
息 2
恶@@ 2
恶意 2
恶癖 2
患病率 2
情@@ 2
情理 2
情节恶劣 2
惊 2
惊恐 2
惟有 2
惠 2
惠泽 2
惠灵顿 2
惩 2
惩@@ 2
愈加 2
愈合 2
意味 2
意在 2
意见@@ 2
慈悲 2
慎重 2
成功经验 2
成本@@ 2
戒@@ 2
或人盾 2
或仅 2
或同 2
或排 2
战@@ 2
战前 2
战后 2
战士 2
战略方针 2
房产 2
房间 2
所付 2
所余 2
所列述 2
所剩 2
所在位置 2
所选之列 2
才华 2
扎 2
扎实 2
打造 2
托 2
托付给 2
托尼 2
执法不公 2
执照 2
执行@@ 2
扩增 2
扩张 2
扬@@ 2
找@@ 2
承保 2
承包商 2
承印 2
承担费用 2
承负 2
技术改造 2
技术标准 2
把@@ 2
抓 2
抓住 2
投 2
投掷 2
投票@@ 2
投票者 2
投票选举 2
抗击 2
抗逆 2
折@@ 2
折合 2
折扣率 2
抚育 2
抢@@ 2
抢救 2
护士 2
报告期 2
报送 2
抵挡 2
抵达 2
抽查 2
担子 2
拉斯 2
拉诺 2
拐骗 2
拒于 2
拒绝给予 2
拒缴 2
拖拉 2
拖网 2
拖长 2
拘捕 2
拘束 2
招 2
拜@@ 2
拥@@ 2
拯救 2
拿出 2
拿骚 2
持@@ 2
持有者 2
指数化 2
指认 2
按此 2
按职 2
按计划 2
按较 2
挽救 2
捐出 2
损 2
损伤 2
换成 2
换文 2
捷 2
掀开 2
授权代表 2
掌 2
排水@@ 2
掠 2
接任 2
接待国 2
接济 2
接轨 2
控制目标 2
控告 2
控告人 2
掩盖 2
措词 2
掳 2
掳走 2
提供商 2
提供支援 2
提取 2
提示性 2
提翁 2
提要 2
提送 2
揭幕 2
援 2
援救 2
搜集 2
搬家 2
摘录 2
摧残 2
撒马尔罕 2
撤@@ 2
播出 2
播送 2
播音员 2
操@@ 2
操作程序 2
支持性 2
支撑 2
收入水平 2
收押 2
收据 2
收放 2
改写 2
改期 2
改由 2
改革派 2
攻 2
攻势 2
放慢 2
放逐 2
政为 2
政府部门 2
政是 2
政治@@ 2
政治形势 2
政治指导 2
政界人士 2
效@@ 2
敏感度 2
救@@ 2
教会 2
教员 2
教唆 2
教士 2
教学@@ 2
教科书 2
教育部门 2
散 2
散会 2
散布 2
数中 2
数以万计 2
数十年 2
数千@@ 2
数千枚 2
数据资料 2
数百名 2
敲@@ 2
整 2
整体性 2
整笔 2
文中 2
文为 2
文化场所 2
文化界 2
文学 2
文本处理 2
文献资料 2
文理 2
文盲率 2
文种 2
文载 2
斑珠尔 2
料 2
断@@ 2
断然 2
斯坦 2
新世纪 2
新兴国家 2
新意 2
新机遇 2
新段 2
新疗法 2
新闻宣传 2
新颖 2
方和有 2
方对 2
施加压力 2
旁人 2
旅客 2
族人 2
旗帜 2
无不 2
无偏 2
无力 2
无差别 2
无形资产 2
无损于 2
无核 2
无毒品 2
无节制 2
无间 2
既广且 2
既应 2
日值 2
日分 2
日四 2
日常生活 2
日新月异 2
日时 2
日派 2
日程安排 2
日趋完善 2
旧居 2
早释 2
旱@@ 2
旱情 2
时使 2
时其 2
时有所闻 2
时段 2
时该 2
时须 2
昂贵 2
易发 2
易用 2
星 2
星期日 2
是非曲直 2
显 2
晋@@ 2
晓 2
晚于 2
晚些时候 2
普 2
普世 2
普罗 2
普通教育 2
普遍@@ 2
智慧 2
暂@@ 2
暂定 2
暂居 2
暂时性 2
暂缓执行 2
暴@@ 2
暴力手段 2
暴露 2
更强 2
更替 2
更有意义 2
更深 2
更趋 2
替换 2
最下 2
最低@@ 2
最多为 2
最强 2
最短 2
最高法院 2
最高级 2
月份 2
月数 2
月经 2
有受 2
有名无实 2
有形资产 2
有所改进 2
有的放矢 2
有碍 2
有负众望 2
有鉴于 2
服 2
服从 2
服兵役 2
服务@@ 2
服务供应商 2
服务局 2
服务水平 2
服务行业 2
服务项目 2
朗 2
朗读 2
期前 2
期在 2
期已 2
期所提 2
期满 2
未作此 2
未向 2
未确定 2
未见 2
未遂政变 2
末期 2
本地人 2
本是 2
本表 2
本部 2
本金 2
杀虫 2
杂志 2
权衡得失 2
杜@@ 2
杜阿@@ 2
杠杆作用 2
条为 2
条及 2
条对 2
条时 2
来文@@ 2
极地 2
极有 2
构建 2
构思 2
架 2
某国 2
某类 2
查实 2
查清 2
查考 2
查至 2
柬埔寨王国 2
标准@@ 2
标签 2
校内 2
校区 2
校车 2
样 2
样@@ 2
核事故 2
核对 2
核对表 2
核电站 2
核装置 2
根 2
根深蒂固 2
格@@ 2
格乌乌 2
案向 2
案文为 2
桑@@ 2
档案@@ 2
桥@@ 2
桥本 2
梅 2
梅@@ 2
检察人员 2
检查员 2
检疫 2
检索系统 2
棘手 2
植@@ 2
楠迪 2
楼@@ 2
概为 2
概数 2
榜样 2
模@@ 2
横扫 2
橄榄树 2
欠@@ 2
欠发达 2
欣悉 2
欺@@ 2
欺负 2
欺骗性 2
款中 2
款为 2
款均 2
歌颂 2
正当性 2
正当防卫 2
正时 2
正确理解 2
此病 2
步调一致 2
武@@ 2
武器库 2
死于 2
死亡@@ 2
死囚 2
死因 2
死难者 2
殊@@ 2
残骸 2
殴击 2
段@@ 2
段尾 2
段载列 2
毁@@ 2
每一国 2
每人 2
每份 2
每十年 2
比克 2
毕 2
毫不动摇 2
毫不含糊 2
毫无区别 2
民 2
民@@ 2
民夫 2
民意 2
民族自决权 2
民间文学 2
气@@ 2
气象预报 2
水中 2
水事 2
水合物 2
水文局 2
水日 2
水污染 2
水生 2
水生物 2
水运 2
永@@ 2
汇 2
汇@@ 2
汇回 2
汇总 2
汇聚 2
汉@@ 2
汉城 2
汞 2
污@@ 2
污染源 2
污染者 2
汶东 2
沉@@ 2
沙 2
沙@@ 2
沙伊赫 2
沙姆 2
河@@ 2
油 2
油类 2
治所 2
沼泽 2
沾染 2
法兰克福 2
法学家 2
法朗 2
泛 2
泛神 2
泛美 2
波尔图 2
波尔多 2
注以 2
注意安全 2
注目 2
洛@@ 2
洪 2
洪涝 2
洪灾 2
洲际 2
活@@ 2
活体 2
活动区 2
流入量 2
流失 2
流行性 2
测@@ 2
济 2
济及 2
浑然 2
浓 2
浪@@ 2
浮动 2
海山 2
海岛 2
海港 2
海草 2
海路 2
海运 2
消化 2
涉@@ 2
涉毒 2
涛动 2
淀川 2
淫业 2
深受其害 2
深层 2
深造 2
混为一谈 2
混入 2
清洁卫生 2
渔 2
渔区 2
渔户 2
渔网 2
渗入 2
游戏 2
游行 2
湿地 2
溯源 2
滑向 2
滑坡 2
满怀 2
滥 2
滥用职权 2
漂@@ 2
漂白 2
演@@ 2
潘@@ 2
濒危 2
灌溉 2
火@@ 2
火灾 2
灭绝 2
灵感 2
灵活处理 2
灾祸 2
炸药 2
点击 2
烟@@ 2
烟草 2
烦琐 2
热@@ 2
然 2
然@@ 2
照 2
熟@@ 2
爱@@ 2
牧区 2
牧民 2
物@@ 2
物证 2
特写 2
特定条件 2
特此 2
特殊教育 2
特等 2
犯罪@@ 2
犯罪学 2
犯罪构成 2
独联体 2
猛烈 2
猛然 2
献@@ 2
率会 2
率应 2
率时 2
玛@@ 2
玛雅 2
环@@ 2
环卫 2
环境效益 2
现成 2
现政府 2
现时 2
现行@@ 2
珀西 2
珍稀 2
珍藏 2
班 2
理赔 2
琵琶湖 2
瓜 2
瓦 2
瓦里 2
甚@@ 2
甚少 2
甚或 2
生命@@ 2
生命力 2
生命安全 2
生存能力 2
生态@@ 2
生死 2
生灵涂炭 2
生物性 2
生物质 2
生素 2
用处 2
田 2
甲基 2
申@@ 2
电信技术 2
电子信息 2
电子数据交换 2
电子版 2
电离 2
电视新闻 2
电视节目 2
男 2
男@@ 2
男女双方 2
留驻 2
略有 2
疏忽 2
疑问 2
疗@@ 2
疾@@ 2
病史 2
病防治 2
症 2
症状 2
痕 2
痛@@ 2
瘘 2
登临 2
登录 2
登记号 2
登陆 2
白俄罗斯共和国 2
百万计 2
百年 2
的确 2
皆准 2
皇家 2
益@@ 2
监押 2
监控 2
盖 2
盛 2
盛行 2
盟@@ 2
目睹 2
盲 2
盲目 2
直接@@ 2
直接参与 2
相似 2
相关联 2
相吻合 2
相宜 2
相待 2
相继 2
相适应 2
相邻 2
省长 2
看 2
看来 2
真@@ 2
着力 2
着重强调 2
督 2
知识@@ 2
知识库 2
矫治 2
短@@ 2
短时间 2
矿@@ 2
矿业 2
研@@ 2
研究员 2
研究组 2
破坏@@ 2
硕士 2
硬拷贝 2
确保重点 2
示 2
礼@@ 2
礼品店 2
社 2
社交能力 2
社会变革 2
社会各界 2
社区@@ 2
祸@@ 2
禁奴 2
禁运 2
禽 2
私有财产 2
秉公 2
秋季 2
种@@ 2
科学基金 2
科学论坛 2
科斯 2
科研人员 2
科罗尔 2
租约 2
称@@ 2
称道 2
移 2
移徒者 2
移管 2
移走 2
移风易俗 2
稀少 2
程 2
程序执行 2
程序法 2
稍 2
稍@@ 2
税@@ 2
税务 2
税费 2
稳 2
穷困 2
穷尽 2
空地 2
空基 2
空间信息 2
空间数据 2
空间规划 2
穿越 2
突出重点 2
突发 2
窃 2
立 2
站不住脚 2
竞争能力 2
竞选活动 2
竭@@ 2
竭尽所能 2
第一周 2
第一天 2
第一批 2
第一百@@ 2
第一百六十四 2
第七@@ 2
第七十 2
第七句 2
第七轮 2
第三件 2
第三十三 2
第九款 2
第二@@ 2
第二任 2
第二十一 2
第二十九 2
第二十五次 2
第二十八条 2
第二十四 2
第二号 2
第二段 2
第五个 2
第五十四条 2
第五号 2
第五款 2
第八十八 2
第六十九 2
第六十条 2
第六年 2
第六轮 2
第十九次 2
第十八次 2
第十六 2
第四@@ 2
第四句 2
第四季度 2
等@@ 2
等易 2
筑 2
答@@ 2
筛选 2
筹 2
筹募 2
筹足 2
签@@ 2
签约国 2
算出 2
算起 2
管 2
管教 2
管理制 2
管理所 2
米兰 2
米歇尔 2
类@@ 2
类人 2
粮农 2
精心设计 2
精神@@ 2
精神病 2
系争 2
系统分析 2
系统管理 2
索@@ 2
索非亚 2
紧@@ 2
紧张症 2
紧缩 2
累@@ 2
繁重 2
红树林 2
纪 2
纪律处分 2
纪念堂 2
纯@@ 2
纵@@ 2
纵使 2
纷 2
线路 2
组与 2
组为 2
组和 2
组所 2
组织部长 2
织 2
终@@ 2
终局 2
经常出现 2
经本 2
经社 2
经验@@ 2
绑架人质 2
结尾处 2
结果显示 2
绘制 2
给@@ 2
绝 2
绝大部分 2
统一@@ 2
统计分析 2
继 2
继承者 2
继而 2
绩@@ 2
维 2
维系 2
综合@@ 2
综合信息 2
绿皮书 2
缓 2
编制工作 2
编报 2
编目 2
缘 2
缘起 2
缺乏症 2
缺额 2
网络版 2
罪@@ 2
罪名 2
罪恶 2
罪轻 2
署于 2
美国@@ 2
美国国会 2
羞辱 2
群策群力 2
翌日 2
翻新 2
翻译成 2
老 2
老@@ 2
而于 2
而后 2
而已 2
而异 2
而成 2
而无须 2
耐用 2
耕@@ 2
耕地 2
耗@@ 2
耶稣 2
聋盲 2
职人员 2
联合政府 2
联大 2
联席会议 2
联系点 2
联络员 2
联络点 2
联络网 2
联邦制 2
联阿 2
聘 2
聚 2
聚会 2
聚合物 2
肆无忌惮 2
股内 2
股票 2
肢体 2
肥@@ 2
肩负 2
肯普敦 2
育 2
背负 2
背道而驰 2
胜利 2
能修 2
能应 2
能源@@ 2
能源需求 2
能见度 2
能过 2
脱贫 2
腐化 2
腐蚀 2
腐败问题 2
腾出来 2
膀胱 2
臆断 2
臣 2
自二 2
自始至终 2
自愿地 2
自我@@ 2
自杀式 2
自满情绪 2
自由@@ 2
自由人 2
自称 2
自给自足 2
自行决定 2
自重 2
自首 2
至@@ 2
至今已有 2
舍 2
航班 2
航空公司 2
航空安全 2
舰@@ 2
舱位 2
船@@ 2
船上 2
船东 2
船籍 2
船长 2
良@@ 2
良政对 2
良机 2
艰巨 2
色 2
色彩 2
艺术@@ 2
艾 2
节中 2
节点 2
苏@@ 2
苏尔特 2
苏斯 2
若干组 2
若泽 2
若纳斯 2
若能 2
苦@@ 2
范@@ 2
茨 2
茨@@ 2
荒谬 2
荣誉 2
药@@ 2
药包 2
莱 2
获取数据 2
营@@ 2
营业@@ 2
营养素 2
萨@@ 2
萨尔 2
萨德 2
萨文比 2
萨特 2
落 2
著 2
著名人士 2
蒙@@ 2
蒙得维的亚 2
蒙罗维亚 2
蔓延@@ 2
薪 2
薪额 2
藏书 2
虚@@ 2
虚报 2
虫 2
虽经 2
蚊@@ 2
行中 2
行为不检 2
行为能力 2
行之害 2
行政命令 2
行政法 2
行政责任 2
行踪 2
衡算 2
衡量标准 2
衣@@ 2
衣着 2
补齐 2
表上 2
表与 2
表为 2
表时 2
表演艺术 2
表示慰问 2
衰退 2
被弃 2
被打乱 2
被诉 2
袭击者 2
裁量权 2
西欧国家 2
西部 2
要么 2
要件 2
要挟 2
覆盖率 2
见到 2
规 2
规律 2
规范化 2
视之为 2
视觉 2
觉察 2
触@@ 2
触发 2
言语 2
计 2
计@@ 2
计划编制 2
计票 2
计算方法 2
计算机@@ 2
计算机相关 2
订单 2
订合同 2
认同 2
训 2
训所 2
议案 2
讲习会 2
讲演 2
许 2
设于 2
设计图 2
访客 2
访问期间 2
证据确凿 2
评 2
诉 2
诉讼时效 2
诉讼请求 2
诊@@ 2
词@@ 2
译本 2
试 2
试@@ 2
诚心诚意 2
诞生 2
诞生地 2
该书 2
该人时 2
该墙 2
该岛 2
该类 2
详@@ 2
详尽资料 2
说明会 2
说明性 2
请养 2
请批 2
请求事项 2
诸@@ 2
诸多 2
诺@@ 2
读@@ 2
课程内容 2
调取 2
调查@@ 2
调派 2
调解@@ 2
谈到 2
谘 2
谢@@ 2
谢意 2
谷 2
贝尔 2
负@@ 2
负债累累 2
财务@@ 2
财务数据 2
财务结构 2
财税 2
责@@ 2
账务 2
账外 2
账款 2
货@@ 2
货交易 2
货品 2
货运 2
质量上乘 2
质量保证 2
贵@@ 2
贵重物品 2
贸易@@ 2
费@@ 2
资@@ 2
资料库 2
资料汇编 2
资深 2
资金不足 2
资金分配 2
资金投入 2
赛 2
赛@@ 2
赢@@ 2
赢利性 2
赫拉特 2
赫里 2
赫马族 2
赴 2
赶 2
起义 2
起用 2
超@@ 2
超速 2
越 2
越发 2
趋向 2
趋向于 2
足@@ 2
距离 2
跟 2
路上 2
路标 2
踊跃 2
身体@@ 2
躬行 2
车 2
车库 2
车速 2
转业 2
转口 2
转给 2
轮换 2
软件@@ 2
轻@@ 2
轻微 2
载@@ 2
较常 2
辐射量 2
辞@@ 2
辨识 2
辩 2
辩护人 2
辱 2
迁离 2
迁至 2
过于 2
过半数 2
过境费 2
过时 2
过该 2
过重 2
运入 2
运出 2
运动会 2
运动场 2
运离 2
返 2
返@@ 2
还债 2
这三名 2
这大 2
进取精神 2
远处 2
违@@ 2
连 2
连选连任 2
连通 2
连通性 2
迟 2
迟@@ 2
迟交对 2
迟迟 2
迪@@ 2
迫不得已 2
迭 2
迹 2
追究其 2
追索 2
追诉 2
追踪调查 2
退休年龄 2
退休者 2
退学 2
退步 2
退让 2
送@@ 2
送到 2
适应能力 2
选举权 2
透露 2
逐例 2
递增 2
逗@@ 2
通盘考虑 2
通讯联系 2
速@@ 2
速率 2
造成@@ 2
逻辑 2
逼供 2
遇害 2
遍布 2
道德观 2
道歉 2
遗@@ 2
遗传学 2
遗传工程 2
遗失 2
遗孀 2
遗漏 2
遗物 2
遗骨 2
遣返回国 2
遴选 2
遵@@ 2
避开 2
邀 2
邀@@ 2
那不勒斯 2
邦巴 2
邮@@ 2
邻 2
部内 2
都@@ 2
酋长 2
配@@ 2
采@@ 2
里斯 2
重复性 2
重开 2
重整 2
重新启动 2
重新得到 2
重新考虑 2
重用 2
重男轻女 2
重罪 2
重要环节 2
重轰炸机 2
重重 2
重重@@ 2
重重困难 2
金使 2
金融工具 2
金融界 2
鉴定结论 2
铁路干线 2
银行界 2
销 2
错综复杂 2
锡拉 2
锥体 2
长@@ 2
长年 2
长度 2
长时间 2
长短 2
长足 2
长足进展 2
间或 2
防务 2
防控 2
防火 2
阳@@ 2
阴道 2
阶梯 2
阿坦布 2
阿族 2
阿雷格里港 2
附则 2
附载 2
附随 2
际 2
陆海空 2
降@@ 2
限@@ 2
限期 2
除@@ 2
除上 2
除名 2
除须 2
陪 2
陷 2
陷入困境 2
随意 2
隐性 2
隐私权 2
隔 2
隶属 2
难以@@ 2
难者 2
雅尔塔 2
集中精力 2
雷@@ 2
雷险 2
需以 2
需对 2
需将 2
需求量 2
震慑 2
震荡 2
非供 2
非凡 2
非常感激 2
非常重视 2
非法手段 2
非经济 2
非统组织 2
非营利 2
非银行 2
靠近 2
面纱 2
项目区 2
项目经理 2
顺 2
顺利开展 2
须@@ 2
顾 2
颁@@ 2
预@@ 2
预估 2
预作 2
预先规定 2
预决 2
预备@@ 2
预审 2
预购 2
预选 2
领事馆 2
领水 2
频@@ 2
频仍 2
频道 2
频遭 2
风能 2
飞@@ 2
食@@ 2
饥民 2
馆 2
首任 2
首尔 2
首选 2
首领 2
马上 2
马塞卢 2
马尔默 2
马查 2
驱散 2
驱赶 2
驻@@ 2
驾@@ 2
骄傲 2
骚乱 2
骤然 2
高加索地区 2
高官 2
高峰期 2
高技能 2
高档 2
高达 2
高速公路 2
鱼苗 2
鲁@@ 2
麦@@ 2
麻醉 2
麻醉药 2
黄玉 2
黑@@ 2
默@@ 2
黯淡 2
鼓动 2
齐 2
齐心合力 2
龟类 2
５ 2
８ 2
Ａ 2
Ｄ 2
Ｎ 2
＿ 2
....@@ 1
.13 1
020 1
039 1
047 1
071 1
085 1
096 1
10.@@ 1
1009 1
1113 1
1115 1
1160 1
1175 1
1179 1
1199 1
11A 1
12.29 1
1239 1
1300 1
1308 1
1330 1
1349 1
1352 1
1360 1
14.47 1
14.@@ 1
1409 1
18.@@ 1
19.6 1
19085 1
2.2 1
2.3 1
2.5 1
2.75 1
2028 1
2149 1
2178 1
217@@ 1
24.39 1
2464 1
2550 1
2838 1
3026 1
3106 1
3148 1
3187 1
3391 1
33@@ 1
3502 1
37517 1
38349 1
4.14 1
4.7 1
40@@ 1
42.@@ 1
46@@ 1
4903 1
50@@ 1
56.@@ 1
58@@ 1
607 1
609 1
631 1
691 1
7.@@ 1
709 1
731 1
764 1
771 1
8.54 1
8.7 1
820 1
865 1
924 1
992 1
A.23 1
AM@@ 1
Add.19 1
Add@@ 1
BD 1
C.91 1
CE@@ 1
CONF.19@@ 1
CS 1
Circ.@@ 1
Cor@@ 1
Corr@@ 1
DE@@ 1
DH@@ 1
Dec.137 1
E.@@ 1
F.@@ 1
Fish@@ 1
GO@@ 1
H@@ 1
HR@@ 1
IC@@ 1
ID@@ 1
IV.@@ 1
JA 1
LD@@ 1
M.1 1
MI@@ 1
MS 1
MSP@@ 1
PV.46@@ 1
Par@@ 1
Prog.1 1
Q@@ 1
RE@@ 1
REM@@ 1
RES.27 1
Rev@@ 1
SR.18 1
SR.27 1
Sect.19 1
Sect.3 1
Sect.31 1
Sect.8 1
Sect@@ 1
U@@ 1
V.1 1
WH@@ 1
WP@@ 1
XX@@ 1
Z 1
al 1
am@@ 1
ar@@ 1
b@@ 1
ber@@ 1
bl@@ 1
c.@@ 1
ce@@ 1
ch@@ 1
com@@ 1
ction 1
der@@ 1
do@@ 1
du@@ 1
ect@@ 1
ed 1
enn@@ 1
ent 1
er@@ 1
eu 1
europa 1
gh@@ 1
ia@@ 1
im@@ 1
iy@@ 1
ju@@ 1
k@@ 1
kecheiria 1
min@@ 1
nc@@ 1
on@@ 1
one 1
ons 1
ot@@ 1
program@@ 1
s.1 1
se@@ 1
sonline 1
sp@@ 1
ss@@ 1
tin@@ 1
ts 1
u 1
ub@@ 1
vi@@ 1
vo@@ 1
world@@ 1
⑴ 1
⑼ 1
〕 1
一百七@@ 1
一百八@@ 1
一百六@@ 1
一百零八个 1
一轮 1
七千@@ 1
万国@@ 1
三十 1
下决心 1
不为人知 1
不以 1
不合@@ 1
不合规定 1
不得已 1
不能@@ 1
与@@ 1
丑@@ 1
专业@@ 1
专门@@ 1
丘@@ 1
业精神 1
东@@ 1
丝@@ 1
严肃 1
严酷 1
严重@@ 1
中亚@@ 1
中介@@ 1
中华人民@@ 1
中心@@ 1
丰@@ 1
丰富@@ 1
丰富多@@ 1
临 1
丹@@ 1
为数@@ 1
主义@@ 1
丽@@ 1
么 1
义 1
义@@ 1
乌乌 1
乔@@ 1
九十 1
九届 1
九次 1
乞@@ 1
也@@ 1
乡@@ 1
书@@ 1
书面@@ 1
书面发言 1
乳@@ 1
予@@ 1
事件报告 1
事务@@ 1
二次 1
亏 1
亏@@ 1
互为@@ 1
五十五 1
五十五年 1
五条 1
井 1
亚太@@ 1
亚欧会议 1
亚洲@@ 1
亚美@@ 1
些@@ 1
些时候 1
亡 1
亡@@ 1
交织 1
交通@@ 1
享 1
京 1
京@@ 1
人力@@ 1
人向 1
人文@@ 1
人权@@ 1
人道@@ 1
什@@ 1
仁@@ 1
介 1
仓@@ 1
仔@@ 1
付给 1
付诸@@ 1
件@@ 1
价格@@ 1
份@@ 1
仿@@ 1
企业@@ 1
伍@@ 1
休会 1
伟 1
传播@@ 1
伤亡@@ 1
伤害@@ 1
伪 1
估@@ 1
伴@@ 1
伸 1
似 1
伽 1
体育@@ 1
何 1
佛 1
你 1
佳 1
使用@@ 1
使用指南 1
例 1
供养 1
供应@@ 1
供电系统 1
依法@@ 1
侨@@ 1
侮 1
促 1
促@@ 1
促进@@ 1
俘 1
俘@@ 1
保罗 1
保险套 1
信奉@@ 1
修订案 1
倍 1
候@@ 1
倚 1
借款国 1
倡@@ 1
倡导@@ 1
值@@ 1
停车@@ 1
偿 1
偿@@ 1
储@@ 1
催化@@ 1
僚 1
僻 1
儿 1
元 1
充@@ 1
充公 1
光 1
克共和国 1
克里@@ 1
全体@@ 1
全球@@ 1
公平@@ 1
公民@@ 1
六千@@ 1
兰卡 1
共拨出 1
共谋 1
关系@@ 1
关键@@ 1
兴建 1
兴起 1
其不@@ 1
典 1
内部@@ 1
冒@@ 1
写明 1
军方 1
农村@@ 1
冠 1
冤@@ 1
冬 1
冰 1
决@@ 1
决策@@ 1
凄@@ 1
凝@@ 1
几千@@ 1
凯 1
出口@@ 1
出境 1
击@@ 1
函@@ 1
凿@@ 1
刀@@ 1
分娩 1
分布@@ 1
分配@@ 1
切 1
切实@@ 1
切身@@ 1
刊 1
刑@@ 1
列述 1
刚果@@ 1
初@@ 1
利于 1
利害@@ 1
利斯 1
利益@@ 1
别无@@ 1
到处 1
制定@@ 1
制性 1
券@@ 1
刺@@ 1
刻 1
前几次 1
前进 1
剧 1
剧@@ 1
剩@@ 1
剩余@@ 1
副@@ 1
力支持 1
加以@@ 1
加工@@ 1
加强@@ 1
加强监督 1
加拉@@ 1
务 1
务人员 1
动性 1
动荡@@ 1
助其 1
助者 1
努 1
努@@ 1
劫 1
劲 1
劳动@@ 1
劳资关系 1
勃 1
勃勃 1
勇 1
勋@@ 1
勒斯 1
募@@ 1
勤 1
勾@@ 1
区域气候 1
匿@@ 1
十二@@ 1
千 1
升 1
升@@ 1
半天 1
半年 1
卓@@ 1
单点 1
博茨瓦@@ 1
卜@@ 1
占@@ 1
占受 1
卡拉 1
卢森@@ 1
卫 1
印成 1
却@@ 1
厂@@ 1
厄@@ 1
历@@ 1
压@@ 1
厌@@ 1
厚 1
厚@@ 1
厢 1
县@@ 1
参与@@ 1
又@@ 1
叉@@ 1
友 1
友@@ 1
友好@@ 1
双@@ 1
反倾@@ 1
发出@@ 1
发展@@ 1
变@@ 1
叙@@ 1
召 1
召@@ 1
可信@@ 1
可偿还 1
可兑@@ 1
可靠@@ 1
台@@ 1
叶@@ 1
司将 1
吁 1
吁@@ 1
各总部 1
各样 1
各界 1
各种@@ 1
各项@@ 1
合作开发 1
合力 1
合同@@ 1
合法@@ 1
吉 1
吊销其 1
同于 1
向本 1
向经 1
向训 1
吞@@ 1
听闻 1
吸取@@ 1
吸引@@ 1
吹@@ 1
吻合 1
告 1
员@@ 1
周期@@ 1
周末 1
命 1
咎@@ 1
咨@@ 1
哀@@ 1
哈拉 1
哥 1
哥哥 1
哪@@ 1
哪位 1
哲学 1
唆@@ 1
唐 1
唤@@ 1
唾@@ 1
喂养 1
善政@@ 1
喜@@ 1
嘉@@ 1
嘱 1
器@@ 1
噬 1
四十七个 1
四卷 1
四届 1
园@@ 1
困 1
围@@ 1
固 1
国依 1
国年 1
国际货币@@ 1
国际金融@@ 1
圈 1
土@@ 1
土地@@ 1
土耳@@ 1
圣马@@ 1
地区@@ 1
场@@ 1
坎@@ 1
城@@ 1
城市@@ 1
域 1
基层@@ 1
基金@@ 1
堪@@ 1
塌 1
塑 1
塔吉@@ 1
塞拉@@ 1
填@@ 1
境 1
境@@ 1
境签证 1
墙 1
增加@@ 1
壁垒 1
壤 1
士@@ 1
壮@@ 1
声 1
壳 1
处有 1
复性 1
夕 1
多面@@ 1
夜间 1
够 1
大众@@ 1
大力@@ 1
大学@@ 1
大战 1
太阳@@ 1
头@@ 1
奇 1
奉 1
奋@@ 1
女@@ 1
奴 1
妊@@ 1
妥善处理 1
始@@ 1
始终@@ 1
姑@@ 1
委 1
委会 1
姿@@ 1
娃 1
娠 1
娱@@ 1
娱乐@@ 1
婚@@ 1
婴@@ 1
嫌犯 1
嫌疑犯 1
嫩 1
孔@@ 1
孕 1
字母 1
孙 1
孙@@ 1
孟加拉 1
季@@ 1
孤儿@@ 1
学@@ 1
学术@@ 1
宁@@ 1
它@@ 1
安提@@ 1
安曼 1
安的列@@ 1
宏 1
宕 1
宗 1
宗@@ 1
宜@@ 1
宝@@ 1
实用性 1
宣 1
室@@ 1
宫@@ 1
容 1
宾@@ 1
密克罗尼@@ 1
密性 1
富@@ 1
察员 1
寡 1
寻 1
寿@@ 1
少数@@ 1
尔多@@ 1
尔巴@@ 1
尔特 1
尖@@ 1
就任 1
尺@@ 1
尼亚@@ 1
尼拉 1
尼泊@@ 1
尾 1
展@@ 1
履行@@ 1
屯@@ 1
岁@@ 1
岛@@ 1
崎 1
崩@@ 1
崩溃 1
川@@ 1
工业@@ 1
工程项目 1
巧@@ 1
巨大@@ 1
差 1
差不@@ 1
己 1
巴尼亚 1
巴斯 1
币@@ 1
布干@@ 1
布雷@@ 1
师 1
帕尔马 1
帘 1
帝 1
帮@@ 1
常务@@ 1
幕 1
干线 1
平等@@ 1
年期 1
年来 1
年轻@@ 1
并强 1
并用 1
并联 1
庄@@ 1
庆 1
庆@@ 1
庆祝大会 1
序 1
库克群岛 1
应邀@@ 1
度@@ 1
座 1
康@@ 1
廉 1
延绳@@ 1
建筑@@ 1
开发@@ 1
开拓@@ 1
开放@@ 1
弊 1
弊@@ 1
弗@@ 1
弗朗@@ 1
弗朗西@@ 1
张 1
弧 1
强烈@@ 1
录@@ 1
形 1
形@@ 1
彩 1
彰@@ 1
影 1
彻底@@ 1
往@@ 1
往日 1
径 1
径@@ 1
循环@@ 1
微@@ 1
德马@@ 1
必 1
必能 1
志愿@@ 1
忘 1
忠 1
怀@@ 1
态 1
态@@ 1
怕 1
怜 1
思 1
急 1
急需@@ 1
性地 1
总值 1
总的@@ 1
恒 1
恨 1
恩 1
恪@@ 1
悟 1
悠@@ 1
悬 1
悬@@ 1
悲 1
悲@@ 1
情况@@ 1
情报@@ 1
惧 1
惨 1
惭 1
愈 1
愕 1
感染@@ 1
慈 1
慑 1
慕 1
慢@@ 1
憎@@ 1
憾 1
懂 1
懂@@ 1
戈 1
戏@@ 1
战争@@ 1
战斗@@ 1
戚 1
戚@@ 1
戴 1
户@@ 1
才@@ 1
扎@@ 1
扎勒 1
托马@@ 1
托马斯 1
扣@@ 1
执法@@ 1
扩大@@ 1
扬 1
扭@@ 1
扮@@ 1
扰 1
批@@ 1
扼@@ 1
扼要 1
承@@ 1
承受@@ 1
技 1
抉@@ 1
抓住机遇 1
投资@@ 1
抗反 1
折抵 1
抚@@ 1
护@@ 1
报告@@ 1
押 1
拉巴@@ 1
拖 1
拖@@ 1
拘@@ 1
拜 1
括 1
拷@@ 1
拿@@ 1
指导@@ 1
按@@ 1
挣@@ 1
挫 1
挫败 1
挽回 1
捐@@ 1
捣@@ 1
排放@@ 1
掘 1
探 1
接受@@ 1
控@@ 1
控制@@ 1
掩@@ 1
措 1
措@@ 1
描@@ 1
提供@@ 1
提高@@ 1
插 1
握 1
揭@@ 1
援@@ 1
援助者 1
搅@@ 1
搏@@ 1
搔@@ 1
携@@ 1
撒@@ 1
播 1
播@@ 1
撰@@ 1
擅@@ 1
操作性 1
攀@@ 1
改善@@ 1
攻@@ 1
政策@@ 1
政见 1
效性 1
敏哥奈 1
敏感@@ 1
救 1
散@@ 1
数为 1
数国 1
数据交换 1
文化产业 1
文献@@ 1
斐@@ 1
斗@@ 1
斥 1
斥@@ 1
斩@@ 1
斯坦@@ 1
斯威@@ 1
斯特 1
斯科 1
新加坡@@ 1
新生 1
方便使用 1
施 1
旁@@ 1
旅 1
旅@@ 1
族@@ 1
旗@@ 1
无可@@ 1
无核区 1
无法@@ 1
既@@ 1
既往 1
日益@@ 1
旦@@ 1
旨 1
时政府 1
旺@@ 1
昂 1
明确@@ 1
星@@ 1
星期@@ 1
是@@ 1
景 1
智@@ 1
暇 1
曝@@ 1
更为严重 1
更进一步 1
曼@@ 1
曾@@ 1
替 1
替@@ 1
最多@@ 1
月@@ 1
有利@@ 1
有所@@ 1
服@@ 1
朗@@ 1
望@@ 1
本诉 1
杀@@ 1
杆 1
材 1
杜 1
束 1
束@@ 1
条未 1
来同 1
来源@@ 1
杰 1
杰@@ 1
板 1
极端@@ 1
构@@ 1
析 1
果 1
枪@@ 1
查勘 1
柬埔寨@@ 1
柱@@ 1
标 1
栋 1
树@@ 1
栖@@ 1
校 1
校@@ 1
核反应堆 1
核心@@ 1
根本@@ 1
格尔 1
桥 1
梅纳 1
梦@@ 1
械 1
检@@ 1
森@@ 1
森林@@ 1
棺 1
植 1
楷模 1
概@@ 1
模 1
横@@ 1
横行 1
次@@ 1
欣 1
欣@@ 1
欧@@ 1
欧洲@@ 1
欲 1
歇 1
止 1
止@@ 1
正当@@ 1
歧@@ 1
死@@ 1
殃@@ 1
殆 1
殊 1
残 1
殖 1
段载述 1
母@@ 1
毒@@ 1
比利亚 1
比拉 1
毫无@@ 1
民主@@ 1
民事@@ 1
民事责任 1
民族@@ 1
氧@@ 1
永久@@ 1
汗 1
污 1
汤@@ 1
沃 1
沙伊@@ 1
沟 1
没@@ 1
沦@@ 1
油@@ 1
治 1
沿岸@@ 1
法人@@ 1
法属波利尼西亚 1
法索 1
波 1
波利斯 1
波多黎各 1
泥@@ 1
注 1
泰@@ 1
洁 1
洁@@ 1
洗@@ 1
洞 1
洪@@ 1
洽 1
洽@@ 1
派@@ 1
派团 1
流程 1
流程图 1
浅@@ 1
浇@@ 1
测 1
浦@@ 1
浩@@ 1
浮 1
海洋@@ 1
浸@@ 1
涅 1
消 1
消极@@ 1
涌@@ 1
润 1
液 1
液@@ 1
深入@@ 1
深刻@@ 1
渎@@ 1
渐 1
渐@@ 1
渐进 1
渔业@@ 1
渝 1
温得 1
温得和克 1
港@@ 1
游@@ 1
湄@@ 1
湖 1
湖@@ 1
湾@@ 1
湿@@ 1
溃@@ 1
滋@@ 1
滔@@ 1
滞 1
漏 1
演 1
潜逃 1
潮@@ 1
澄@@ 1
濒@@ 1
灭 1
灭@@ 1
灵活@@ 1
炮 1
炸 1
烃 1
烈 1
烧 1
烧@@ 1
热带@@ 1
燃@@ 1
爱 1
爵@@ 1
父 1
父@@ 1
片 1
版@@ 1
牙买@@ 1
牛 1
物理@@ 1
物质@@ 1
牵连 1
特别@@ 1
犯@@ 1
犹@@ 1
狂@@ 1
狗 1
独@@ 1
独立@@ 1
狱@@ 1
猎 1
率高 1
王 1
环 1
现代@@ 1
现实@@ 1
玷@@ 1
珍@@ 1
球 1
理会 1
瑞@@ 1
瑟 1
瑟@@ 1
瓦解 1
瓶@@ 1
甄@@ 1
甘 1
生态学 1
生态灾难 1
生物@@ 1
田@@ 1
电 1
电子@@ 1
电站 1
电视@@ 1
男女@@ 1
甸 1
畅 1
畅@@ 1
界人士 1
畏@@ 1
留 1
留出 1
略 1
略@@ 1
番 1
疏@@ 1
疑@@ 1
疤@@ 1
疫@@ 1
疲@@ 1
痊@@ 1
痪 1
痹 1
瘠 1
瘫@@ 1
瘾@@ 1
登@@ 1
登记@@ 1
白 1
白@@ 1
百万 1
百分@@ 1
百分之@@ 1
百姓 1
皆@@ 1
皇 1
皮书 1
盈@@ 1
益 1
盐@@ 1
监 1
监@@ 1
监督@@ 1
盖@@ 1
盗@@ 1
盘@@ 1
盟 1
目的@@ 1
直@@ 1
相互交织 1
相当@@ 1
盾 1
看@@ 1
真 1
着@@ 1
着重@@ 1
督@@ 1
瞒@@ 1
矛@@ 1
矢@@ 1
矩@@ 1
矫@@ 1
石 1
石油@@ 1
矿 1
码 1
砍@@ 1
研 1
破 1
破@@ 1
破产@@ 1
硕@@ 1
硬@@ 1
确 1
确性 1
碍@@ 1
碎 1
碑 1
碘 1
碳 1
碳@@ 1
磁 1
磨@@ 1
礁 1
示范性 1
礼 1
社交@@ 1
祠 1
福@@ 1
离乡 1
秀 1
私人@@ 1
私权 1
秉@@ 1
秋@@ 1
种族@@ 1
科技@@ 1
科研工作 1
移作 1
稀@@ 1
程序@@ 1
稣@@ 1
稽@@ 1
究 1
究@@ 1
穷 1
穷@@ 1
空间@@ 1
突尼@@ 1
窗@@ 1
窜@@ 1
窝@@ 1
立法@@ 1
竞@@ 1
竞争@@ 1
竣@@ 1
童 1
童@@ 1
笃@@ 1
笔 1
符 1
符合@@ 1
第@@ 1
第九@@ 1
第二天 1
第五@@ 1
第五十@@ 1
第五十三条 1
第八@@ 1
第六十八条 1
第十@@ 1
第四十@@ 1
笼@@ 1
策@@ 1
筹@@ 1
签字@@ 1
算@@ 1
管理程序 1
箱@@ 1
籍@@ 1
粮 1
精 1
糟 1
素@@ 1
紧张@@ 1
紧急@@ 1
紧急警报 1
约翰 1
约翰@@ 1
纪@@ 1
纪念@@ 1
纳斯 1
纳格 1
纵 1
纷@@ 1
纽@@ 1
纽埃 1
练@@ 1
细@@ 1
绍@@ 1
经查明 1
经济区 1
经费@@ 1
绑架@@ 1
结构@@ 1
结果@@ 1
绕 1
统 1
绥靖 1
继@@ 1
继承@@ 1
绪方 1
续@@ 1
续任 1
维尔 1
维尔@@ 1
维护@@ 1
绸@@ 1
绿带 1
绿色@@ 1
缉 1
缓急 1
缔@@ 1
编汇 1
缤@@ 1
缩 1
缺乏@@ 1
罔@@ 1
罗尔 1
罗毕 1
罢@@ 1
罩@@ 1
罪案 1
置疑 1
署@@ 1
罹@@ 1
美@@ 1
羞@@ 1
群@@ 1
翁 1
翔@@ 1
翰 1
翻@@ 1
耀 1
考验 1
者@@ 1
耘 1
耶@@ 1
耻 1
耿 1
耿@@ 1
聋@@ 1
职守 1
联合@@ 1
联合国@@ 1
联邦@@ 1
聘@@ 1
聚@@ 1
肆意 1
肉 1
肉@@ 1
肢@@ 1
肥 1
肮@@ 1
肯@@ 1
育@@ 1
胁@@ 1
胆 1
背@@ 1
胖@@ 1
胞 1
胡@@ 1
脉 1
脉@@ 1
脏 1
脑 1
脱 1
脱节 1
腊@@ 1
腐 1
腐@@ 1
腓 1
臣@@ 1
自然光 1
自给@@ 1
致 1
舍@@ 1
舒@@ 1
舞@@ 1
航@@ 1
航空 1
艇 1
色@@ 1
艳 1
艾滋 1
苏姬 1
若干@@ 1
英文@@ 1
草 1
草@@ 1
荣@@ 1
药业 1
荷@@ 1
荷属 1
莎 1
莎@@ 1
莫桑@@ 1
获得@@ 1
菌@@ 1
菲@@ 1
萨尔@@ 1
著@@ 1
葬 1
蒂 1
蓝 1
蓝@@ 1
蓬@@ 1
薄@@ 1
藉@@ 1
藏 1
藏@@ 1
藐@@ 1
虏 1
虚伪 1
虞 1
虫剂 1
虽@@ 1
蛮@@ 1
行为@@ 1
行为不@@ 1
行政主管 1
衔 1
衡 1
衡@@ 1
补 1
补偿@@ 1
衰 1
衰@@ 1
衷 1
衷@@ 1
袋 1
裁@@ 1
裕 1
襄@@ 1
西太平洋 1
见同 1
规@@ 1
规划@@ 1
觉@@ 1
角@@ 1
解决@@ 1
言@@ 1
誓 1
计数 1
计算中心 1
认真@@ 1
讨@@ 1
讫 1
训练@@ 1
记@@ 1
记录@@ 1
讲师 1
讷@@ 1
论@@ 1
设@@ 1
设计@@ 1
访@@ 1
访问@@ 1
诀 1
识 1
识@@ 1
诈 1
诗 1
诚@@ 1
话@@ 1
诞@@ 1
询@@ 1
该款 1
诬@@ 1
诱@@ 1
诱使 1
说@@ 1
诺 1
课@@ 1
调查表 1
谅@@ 1
谈 1
谈@@ 1
谈会 1
谎@@ 1
谐@@ 1
谨@@ 1
谬@@ 1
谱 1
象@@ 1
贞子 1
负担@@ 1
负责制 1
贡@@ 1
财@@ 1
败@@ 1
账 1
贩@@ 1
贩卖@@ 1
贪污@@ 1
贫富@@ 1
购买力 1
贮@@ 1
贯性 1
贴@@ 1
贵 1
贷 1
贾@@ 1
贿@@ 1
赃 1
资料@@ 1
资源@@ 1
资金短缺 1
赋 1
赏@@ 1
赔@@ 1
赠 1
赠@@ 1
赠予 1
赢 1
赤@@ 1
走@@ 1
趋@@ 1
足 1
距 1
躲@@ 1
轨 1
转录 1
转让@@ 1
轮 1
轮@@ 1
软 1
轰@@ 1
轻重@@ 1
载述 1
辈 1
辛 1
辛@@ 1
辞 1
辨@@ 1
辩@@ 1
辱@@ 1
边@@ 1
边界@@ 1
辽@@ 1
达成@@ 1
迈@@ 1
迎@@ 1
运输@@ 1
违 1
违犯 1
连@@ 1
迫 1
迫@@ 1
述@@ 1
追 1
逆@@ 1
选择@@ 1
逊 1
通 1
通信@@ 1
通性 1
通报@@ 1
逝 1
速 1
逮@@ 1
逼@@ 1
遂 1
遍@@ 1
道德@@ 1
遗留@@ 1
遣@@ 1
遥 1
遭@@ 1
遮@@ 1
遽 1
邓@@ 1
邦@@ 1
部级 1
酌@@ 1
酒 1
酒@@ 1
采取@@ 1
采访@@ 1
采购@@ 1
里亚@@ 1
里斯@@ 1
里昂 1
重于 1
野@@ 1
鉴@@ 1
针@@ 1
钟 1
钱@@ 1
铁路@@ 1
铝@@ 1
银@@ 1
银行@@ 1
销@@ 1
锐 1
错 1
锡@@ 1
门@@ 1
门户网站 1
闭 1
闲@@ 1
间@@ 1
间接@@ 1
间断 1
闻 1
阀 1
阅@@ 1
队@@ 1
阵 1
阵@@ 1
阶@@ 1
阿尔@@ 1
阿拉伯@@ 1
阿斯塔纳 1
附加值 1
险@@ 1
隅 1
隆 1
随 1
隐@@ 1
隔@@ 1
隱@@ 1
雄@@ 1
雅@@ 1
集体@@ 1
雇 1
雨 1
雨@@ 1
震 1
震@@ 1
霍 1
霍@@ 1
静@@ 1
非常@@ 1
非洲@@ 1
靠@@ 1
韦@@ 1
页@@ 1
顷 1
项目@@ 1
顾问@@ 1
预 1
预警@@ 1
领导@@ 1
颈 1
颗 1
题 1
题@@ 1
额外@@ 1
风@@ 1
风险@@ 1
食 1
饱@@ 1
饿死 1
馆@@ 1
馈@@ 1
首当其冲 1
马尔@@ 1
马拉@@ 1
驭 1
验 1
验@@ 1
骗 1
骨 1
骸 1
骸@@ 1
高加@@ 1
高原地区 1
高级@@ 1
鲜@@ 1
鲸目 1
鸦片@@ 1
麐 1
麻@@ 1
黑体 1
鼓 1
鼓@@ 1
鼻@@ 1
龄@@ 1
龙 1
龙@@ 1
１ 1
４ 1
６ 1
madeupword0000 0
madeupword0001 0
