the 265458
, 241524
of 174235
and 137649
to 94933
in 66214
. 54678
/ 42970
on 35170
; 31710
for 31194
that 23016
United 22742
a 20793
Nations 20695
its 20026
with 19427
as 18969
by 18418
( 17501
) 17501
States 15495
at 13121
resolution 12820
all 12390
international 11716
their 10623
General 9460
Assembly 9448
A 9198
or 8710
including 8696
report 8458
development 8394
Secretary-General 8337
December 8254
Committee 7918
other 6619
&quot; 6616
countries 6522
rights 6487
also 6419
implementation 6157
human 6124
session 6120
be 6089
organizations 5885
from 5849
which 5755
International 5715
requests 5612
Convention 5611
1 5479
: 5277
an 5204
relevant 5163
efforts 5147
cooperation 5104
this 5022
recalling 4772
particular 4678
Republic 4584
2 4501
Conference 4478
are 4411
continue 4343
is 4307
measures 4306
regional 4251
national 4202
well 4046
adopted 4004
support 3943
those 3943
3 3919
upon 3917
assistance 3894
further 3855
activities 3832
Development 3807
system 3746
against 3725
resolutions 3719
Council 3675
Commission 3667
such 3625
calls 3595
information 3592
Organization 3552
Declaration 3535
have 3513
work 3452
need 3435
developing 3419
under 3389
ensure 3354
Member 3350
through 3341
4 3329
into 3297
importance 3273
economic 3267
Rights 3246
law 3231
appropriate 3212
55 3186
No. 3177
See 3152
World 3144
note 3136
it 3017
encourages 3016
meeting 3010
accordance 3005
The 2987
Human 2961
resources 2876
effective 2846
6 2788
welcomes 2777
regard 2771
5 2770
taking 2762
Programme 2758
8 2713
between 2679
security 2676
2000 2650
2002 2637
programmes 2593
women 2585
not 2576
urges 2571
annex 2570
within 2560
57 2554
7 2552
peace 2547
State 2541
2001 2523
humanitarian 2468
I 2462
2003 2453
9 2440
financial 2440
56 2415
take 2415
noting 2410
shall 2400
parties 2394
Special 2349
promote 2339
58 2320
should 2317
full 2302
respect 2291
10 2286
social 2279
Africa 2257
special 2247
nuclear 2227
provide 2227
notes 2210
without 2209
decides 2206
2005 2179
Economic 2177
role 2158
use 2158
draft 2157
Governments 2154
20 2145
order 2141
para 2121
among 2118
necessary 2117
12 2113
made 2105
Action 2104
any 2088
paragraph 2076
Treaty 2071
protection 2070
59 2068
Government 2058
article 2040
invites 2038
persons 2021
23 2002
60 1994
recognizing 1992
plenary 1981
Supplement 1975
2004 1974
held 1964
Social 1940
was 1940
B 1938
vote 1932
community 1929
disarmament 1913
right 1912
15 1910
New 1909
present 1901
entitled 1877
November 1864
Office 1859
&apos;s 1844
reaffirms 1831
children 1812
takes 1802
annex. 1785
22 1774
Security 1774
11 1762
To 1762
programme 1760
progress 1753
reaffirming 1752
so 1748
chap 1747
recommendations 1740
strengthen 1727
Records 1725
account 1719
Charter 1717
action 1717
people 1716
process 1716
bodies 1703
agencies 1695
recommendation 1692
institutions 1690
consider 1687
Session 1676
61 1675
provisions 1668
weapons 1666
alia 1665
inter 1665
concerned 1659
sustainable 1659
14 1654
basis 1626
related 1626
Official 1625
African 1608
promotion 1608
16 1604
has 1602
levels 1595
recommended 1591
concern 1587
management 1585
vol 1585
13 1574
appreciation 1559
stresses 1555
non-governmental 1520
Fund 1501
principles 1499
contained 1498
political 1491
September 1488
will 1486
review 1465
1999 1449
18 1444
out 1441
possible 1437
context 1430
Palestinian 1421
them 1419
implement 1416
II 1414
54 1410
E 1407
participation 1395
poverty 1392
19 1391
welcoming 1390
world 1387
make 1386
17 1373
public 1373
include 1372
Parties 1363
2006 1362
his 1355
June 1353
view 1349
Summit 1345
global 1344
strengthening 1337
Ireland 1335
July 1335
may 1335
21 1326
field 1322
Territories 1300
High 1298
policies 1297
education 1293
reports 1282
towards 1278
decision 1270
region 1256
mind 1252
Millennium 1249
services 1246
sponsored 1244
where 1244
contributions 1242
submit 1236
issues 1235
62 1233
technical 1233
needs 1229
relating 1229
promoting 1219
Commissioner 1215
fully 1215
members 1214
Territory 1208
coordination 1193
access 1190
America 1183
Israel 1180
areas 1179
fundamental 1173
consideration 1168
recognizes 1166
bearing 1163
taken 1161
peoples 1159
situation 1152
violence 1152
important 1148
item 1143
Arab 1142
24 1134
society 1134
Resolution 1133
means 1132
new 1128
25 1124
contribute 1117
agenda 1116
establishment 1113
Countries 1102
publication 1098
they 1098
Law 1096
comprehensive 1092
Implementation 1091
mandate 1078
part 1077
level 1072
dollars 1062
No 1059
Information 1058
enhance 1056
legal 1045
established 1040
set 1040
C 1039
Democratic 1038
South 1036
existing 1035
gender 1034
30 1032
Group 1028
expresses 1028
Sales 1027
obligations 1026
Department 1025
emphasizes 1022
arms 1016
trade 1013
Ibid 1011
country 1005
III 1001
personnel 1000
forms 997
provided 991
d 990
more 990
one 986
discrimination 985
Afghanistan 983
Agency 981
Protocol 981
address 981
capacity 981
1998 978
Secretariat 978
civil 976
having 973
prevention 969
26 968
training 968
conflict 965
53 964
arrangements 959
Agreement 958
East 958
Disarmament 957
specialized 957
Sustainable 952
request 951
natural 946
Cooperation 943
Weapons 936
purposes 935
continuing 932
refugees 931
framework 927
initiatives 926
intergovernmental 926
agreed 925
commitment 924
Corr.1 921
been 920
developed 918
goals 917
Trade 916
especially 913
increase 909
Add.1 908
cultural 907
conditions 903
staff 901
budget 900
continued 897
instruments 896
Plan 894
freedoms 891
question 883
28 882
outcome 882
agreements 881
force 881
Crime 877
during 876
health 874
impact 871
considered 870
meetings 867
multilateral 867
29 858
control 855
April 853
facilitate 850
submitted 850
each 846
concerning 845
Islands 843
about 840
develop 839
terrorism 839
mechanisms 838
private 838
reiterates 838
available 837
period 837
voluntary 837
Series 835
can 835
prevent 835
contribution 834
affected 833
Women 831
adequate 831
2007 829
funds 826
Report 823
sect 817
number 816
27 814
Congo 814
October 813
aimed 812
while 811
52 809
status 807
1995 805
practices 805
50 804
space 804
achieve 801
assist 801
follow-up 801
priority 796
subregional 793
child 792
future 792
trafficking 791
dialogue 789
justice 788
cooperate 786
objectives 784
environment 783
these 782
strategies 781
ensuring 780
both 779
31 778
51 775
acts 774
Cultural 770
Advisory 767
Rapporteur 767
end 766
provisional 764
technology 764
Centre 760
March 756
adoption 754
France 752
Central 750
particularly 750
armed 745
groups 744
biennium 743
problems 742
Italy 738
satisfaction 737
Scientific 734
May 732
establish 729
Great 728
small 728
Party 725
Kingdom 724
systems 724
Britain 721
illicit 720
responsibility 720
Palestine 718
Germany 715
undertaken 713
who 712
Northern 711
providing 710
commitments 708
expressing 708
Korea 707
based 707
administering 704
emphasizing 704
steps 704
improve 701
actions 700
sector 698
would 698
major 696
some 695
two 695
attention 694
manner 693
eradication 691
implementing 691
Board 690
August 689
Peace 688
reduction 688
Decade 684
fisheries 682
section 682
stressing 682
former 681
Spain 678
additional 678
Canada 676
Greece 674
Public 673
achievement 672
time 672
Austria 670
1996 669
Portugal 668
respective 666
safety 666
effectively 661
Netherlands 656
being 656
Nuclear 655
victims 654
first 652
achieving 651
Criminal 650
People 650
done 649
universal 649
self-determination 648
Belgium 647
Power 644
Review 643
mandates 643
essential 642
provision 642
Finland 639
financing 638
Mission 636
official 635
negotiations 634
assessment 633
common 633
Sudan 631
displaced 631
various 630
Caribbean 629
equal 629
1997 626
working 626
Denmark 625
Sweden 625
Luxembourg 623
least 623
Norway 621
Japan 620
Guinea 617
Non-Self-Governing 616
local 615
Prevention 614
specific 613
48 612
49 612
marine 612
elimination 611
yet 609
regarding 608
operations 607
1994 606
peaceful 605
Environment 603
internationally 603
procedures 602
conferences 599
enable 599
decisions 598
All 596
Russian 595
no 593
crime 591
subject 591
military 590
2. 587
proposals 587
Sea 586
understanding 586
criminal 585
protect 585
since 585
convinced 584
debt 583
Federation 582
enhancing 582
freedom 582
girls 578
standards 578
Poland 576
Geneva 575
Zealand 574
Tribunal 572
combat 572
Australia 571
consistent 571
Court 570
peacekeeping 570
transition 570
Europe 569
increased 568
ongoing 567
corrigendum 566
Slovenia 565
plan 565
Romania 563
violations 563
Croatia 561
Cyprus 560
policy 560
purpose 560
Agenda 556
disasters 556
economies 556
issue 556
Czech 555
aspects 553
Discrimination 552
domestic 552
Final 549
application 549
Regional 548
Yugoslav 548
rehabilitation 548
HIV 547
disaster 547
Malta 546
if 546
Macedonia 545
Working 545
sessions 545
Hungary 544
most 544
46 543
Mexico 543
Justice 542
equality 542
representatives 542
give 540
views 540
drug 538
Egypt 537
following 537
early 536
abstentions 535
approach 535
recent 535
rule 535
serious 535
follows 534
required 533
Global 532
transfer 531
above 530
Islamic 528
response 528
threat 528
1993 527
missions 526
increasing 525
Bosnia 524
Bulgaria 524
Herzegovina 524
Slovakia 524
interest 524
Ukraine 523
Union 523
realization 522
recorded 522
urgent 522
Part 520
destruction 520
must 520
Food 519
Lithuania 517
amount 516
AIDS 515
years 515
technologies 514
general 513
integration 512
challenges 510
growth 509
when 508
Johannesburg 507
matter 507
Institute 506
January 506
racial 506
Protection 505
paragraphs 505
II. 504
Cuba 503
Syrian 503
requested 501
Indonesia 498
Monaco 498
treatment 496
Iceland 495
facilities 495
Persons 494
person 494
47 491
Bangladesh 491
many 491
pursuant 491
property 490
stability 486
plans 485
Elimination 484
33 481
Guatemala 481
globalization 481
Abstaining 480
participate 480
annual 479
do 479
objective 479
Questions 478
awareness 478
Turkey 477
thereon 476
Estonia 475
Latvia 475
Occupied 472
Administrative 471
free 471
ways 471
effectiveness 470
population 470
Argentina 468
agreement 467
bilateral 467
see 467
Moldova 466
Year 466
area 466
fifty-ninth 464
racism 464
throughout 464
Space 463
matters 462
territorial 462
Chile 460
authorities 460
rules 460
intolerance 459
final 458
sixtieth 458
Myanmar 457
substantive 457
Other 454
encourage 454
torture 454
Morocco 453
consequences 453
place 452
Malaysia 451
fact 451
proposed 451
risk 451
territory 451
F 450
capacity-building 450
Jerusalem 449
relief 448
Middle 447
centres 447
religion 447
Israeli 446
addressing 446
previous 445
compliance 442
consultation 442
opportunities 442
fishing 441
meet 440
subsequent 440
we 440
Algeria 439
Educational 439
food 439
regular 438
environmental 437
combating 435
her 434
organization 434
principle 434
reconstruction 434
Liechtenstein 433
due 433
equitable 433
problem 433
current 432
timely 432
45 431
Beijing 431
there 431
entry 430
recalls 430
referred 430
conformity 429
over 429
Meeting 428
data 428
Non-Proliferation 427
fifty-seventh 427
refugee 427
disabilities 426
China 425
enjoyment 425
sixty-first 424
Senegal 423
Representative 422
high 422
Affairs 421
Cambodia 421
Costa 421
Forum 421
Rica 421
fifty-eighth 421
Brazil 420
Refugees 420
communication 420
life 420
treaty 420
Small 419
El 418
Georgia 418
after 418
diversity 418
Ad 417
I. 417
administrative 417
origin 417
conference 416
effects 416
Hoc 415
exchange 415
approved 414
considering 414
democracy 414
outer 414
eliminate 413
situations 413
thereto 413
Document 411
Micronesia 410
could 410
exercise 410
Federated 409
improving 409
transparency 409
indigenous 408
integrated 407
Partnership 406
consultations 406
associated 405
committed 405
Ecuador 404
priorities 404
host 403
languages 403
Jordan 402
non-proliferation 402
processes 402
than 402
performance 401
San 400
XXI 400
culture 400
settlement 400
significant 399
Budgetary 398
Framework 398
dissemination 398
Financing 397
legislation 397
living 397
occupied 397
play 397
Switzerland 396
group 396
Albania 395
production 395
applicable 394
commends 394
good 394
monitoring 394
Article 393
Iran 393
preparation 393
Pacific 392
aware 392
entities 392
1967 391
Agriculture 391
Andorra 391
Belarus 391
Vienna 391
achieved 391
York 390
conclusions 390
developments 390
organs 390
parts 390
Political 389
results 389
Covenant 388
crimes 388
fulfil 388
Pakistan 387
used 387
Thailand 386
deep 386
regions 386
Yugoslavia 385
greater 385
exploitation 384
religious 384
1992 383
75 383
Community 383
India 383
expressed 383
relations 383
32 382
Developing 382
mutual 382
operational 382
IV 381
emergency 381
collaboration 380
migrants 380
Rwanda 379
concrete 379
44 378
Peoples 377
result 377
sexual 377
sources 377
Joint 376
Peru 376
Saint 375
primary 375
Kazakhstan 374
light 374
Salvador 373
conflicts 373
year 373
Children 372
Use 372
benefits 372
better 372
administration 371
capacities 371
research 371
projects 370
xenophobia 369
Marshall 368
conduct 368
obligation 368
text 368
Nigeria 367
fields 367
Drugs 366
Marino 366
appeals 366
internally 366
Colombia 365
close 365
documents 365
funding 365
third 365
undertake 365
President 363
Armenia 362
study 362
vulnerable 362
nature 361
partners 361
abuse 360
scientific 360
return 359
treaties 359
2200 358
Angola 358
practical 358
Forms 357
complete 357
Independence 356
Tunisia 356
preventing 356
Djibouti 355
media 355
Ethiopia 354
Granting 354
active 352
effect 352
knowledge 352
making 352
Colonial 351
experts 351
organized 351
per 351
high-level 350
Sierra 349
democratic 349
maintenance 349
Members 348
goal 348
perspective 348
before 347
instrument 347
reduce 347
second 347
34 346
Principles 346
adopt 345
governance 345
nuclear-weapon-free 345
reporting 345
sixty-second 345
total 345
given 344
illegal 344
requirements 344
strategy 344
Coordination 343
Kenya 343
Leone 343
Assistance 342
Fourth 341
Platform 341
Somalia 341
donor 341
Mali 340
mass 340
sixty-third 340
Dominican 339
Ministerial 339
Protocols 339
strongly 339
up 338
date 337
employment 337
endorses 336
enhanced 336
three 336
already 335
best 335
responsibilities 335
Haiti 334
responsible 333
Cameroon 332
Namibia 332
economy 332
enforcement 332
fifty-sixth 332
underlines 331
deeply 330
38 329
77 329
February 329
become 329
terms 329
laws 328
G 327
Lebanon 327
Universal 327
legislative 327
Atomic 326
bring 325
every 325
maintain 325
Energy 324
Qatar 324
cent 324
independent 324
42 323
Tokelau 323
advisory 323
jurisdiction 323
observance 323
zone 323
Kuwait 322
guidelines 322
Azerbaijan 320
Racial 318
Serbia 318
sustained 318
Arabia 317
Saudi 317
mindful 317
reform 317
217 316
negative 316
Nicaragua 315
Uruguay 315
actors 315
36 314
S 314
island 314
respond 314
different 313
intensify 313
material 313
overall 313
Management 312
physical 312
recovery 312
therein 312
Afghan 311
Bank 311
Côte 311
V 311
acknowledging 311
behalf 311
document 311
soon 311
coordinated 310
fish 310
income 310
outcomes 310
belief 308
efficiency 308
extent 308
grave 308
help 308
independence 308
joint 308
positive 308
same 308
way 308
&apos;Ivoire 307
Civil 307
Division 307
Second 307
communications 307
nuclear-weapon 307
competent 306
35 305
involved 305
opinion 305
care 304
individuals 304
keep 304
Executive 303
form 303
only 303
1991 302
improvement 302
stakeholders 302
supporting 302
Mongolia 301
safe 301
Madagascar 300
American 299
Mauritius 298
Montenegro 298
basic 298
confidence-building 298
evaluation 298
Palau 297
actively 296
carry 296
causes 296
circumstances 296
investment 296
convening 295
Rome 294
planning 294
pursue 294
benefit 293
conservation 293
interests 293
partnerships 293
Panama 292
VI 292
Benin 291
Burkina 291
Faso 291
Philippines 291
building 291
carried 291
preparatory 291
involvement 290
sectors 290
Asia 289
assessments 289
Fiji 288
corruption 288
once 288
stocks 288
integrity 286
service 286
communities 285
recognized 285
Unit 284
but 284
critical 284
A. 283
Chairman 283
Monterrey 283
Subcommittee 283
cases 283
conventions 283
establishing 283
ratification 283
youth 283
Powers 282
Prohibition 282
efficient 282
gross 282
identify 282
member 282
race 282
themselves 282
Comoros 281
assisting 281
dignity 281
encouraging 281
functions 281
authority 279
targets 279
VII 278
strategic 278
Durban 277
Process 277
civilian 277
create 277
declaration 277
functioning 277
open 277
potential 277
Brunei 276
Darussalam 276
mission 276
operation 276
secretariat 276
workers 276
XV 275
Strategy 274
Venezuela 274
initiative 274
young 274
infrastructure 273
tolerance 273
41 272
act 272
call 272
effort 272
foreign 272
Humanitarian 271
Jamahiriya 271
Libyan 271
migrant 271
twenty-third 271
Optional 270
mutually 270
populations 270
recommends 270
societies 270
summits 270
individual 269
own 269
underlining 269
Honduras 268
Samoa 268
creation 268
socio-economic 268
Goals 267
fight 267
long-term 267
Bolivia 266
Emirates 266
Trust 266
Yemen 266
reiterating 266
together 266
Arms 265
rural 265
materials 264
Bahrain 263
Illicit 263
Outer 263
migration 263
European 262
Service 262
conclusion 262
ethnic 262
methods 262
seek 262
fair 261
territories 261
approaches 260
remains 260
resulting 260
sanctions 260
37 258
Mauritania 258
leading 258
officials 258
transit 258
Force 257
introduced 257
again 256
commissions 256
examine 256
forth 256
pay 256
practice 256
40 255
43 255
Latin 255
costs 255
nations 255
successful 255
were 255
another 254
threats 254
Habitat 253
Oman 253
constitute 253
reintegration 253
Heads 252
aim 252
convention 252
enabling 252
needed 252
questions 252
regulations 252
character 251
2008 250
apply 250
chapter 250
families 250
institutional 250
mechanism 250
arising 249
family 249
manifestations 249
Child 248
Tajikistan 248
external 248
partnership 248
prepare 248
Legal 247
Unity 247
delay 247
called 246
comply 246
judicial 246
net 246
sub-item 246
decolonization 245
share 245
Timor-Leste 244
sea 244
central 243
distribution 243
H 242
articles 242
b 242
drugs 242
Add.2 241
Nauru 241
land 241
signing 241
well-being 241
Papua 240
Tanzania 240
loss 240
offices 240
scale 240
science 240
war 240
climate 239
concerns 239
delivery 239
geographical 239
Education 238
affairs 238
duty 238
solution 238
transparent 238
Togo 237
acknowledges 237
holding 237
Iraq 236
Reduction 236
System 236
energy 236
Settlements 235
accountability 235
civilizations 235
obstacles 235
recruitment 235
scope 235
violation 235
Uganda 234
affirms 234
capital 234
connection 234
fulfilment 234
men 234
reached 234
elections 233
growing 233
movement 233
39 232
heads 232
lack 232
six 232
trading 232
containing 231
Ghana 230
Their 230
Third 230
affect 230
occupying 230
possibility 230
statement 230
Authority 229
Disaster 229
continues 229
him 229
unilateral 229
Mozambique 228
Staff 228
elements 228
interested 228
quality 228
Biological 227
devoted 227
others 227
Viet 226
Zambia 226
statements 226
strong 226
Island 225
Situation 225
National 224
Singapore 224
focus 224
key 224
party 224
Services 223
change 223
Technical 222
procedure 222
body 221
build 221
certain 221
highest 221
internal 221
remain 221
educational 220
hold 220
language 220
signed 220
decision-making 219
facilitating 219
Nepal 218
Paraguay 218
Safety 218
necessity 218
options 218
guided 217
post-conflict 217
regime 217
summary 217
decided 216
governmental 216
mine 216
punishment 216
tenth 216
vulnerability 216
Golan 215
Jamaica 215
Nam 215
Suriname 215
contributing 215
relation 215
thus 215
CN.4 214
Red 214
balance 214
discussions 214
freely 214
labour 214
therefore 214
five 213
otherwise 213
fund 212
Liberia 211
enhancement 211
posts 211
revised 211
&apos; 210
Kyrgyzstan 210
University 210
analysis 210
determination 210
implications 210
permanent 210
case 209
detention 209
determined 209
market 209
Cape 208
Maritime 208
large 208
position 208
extend 207
reducing 207
resolve 207
1982 206
2004-2005 206
73 206
empowerment 206
relationship 206
vessels 206
condemns 205
inhuman 205
proposal 205
anniversary 204
crisis 204
preparations 204
subsidiary 204
Burundi 203
Fisheries 203
Resolutions 203
annexes 203
ratifying 203
representation 203
risks 203
Aspects 202
Drug 202
Rev.1 202
closely 202
events 202
mobilize 202
safeguards 202
1949 201
Uzbekistan 201
assets 201
representative 201
whose 201
Lanka 200
Non-Aligned 200
Sri 200
cultures 200
electronic 200
malaria 200
none 200
table 200
Caledonia 199
Eritrea 199
Responsible 199
arbitrary 199
solutions 199
Movement 198
South-South 198
integrate 198
Barbados 197
Transnational 197
attacks 197
carrying 197
participating 197
Belize 196
Verde 196
forced 196
maintaining 196
applications 195
offences 195
Internal 194
Status 194
Statute 194
avoid 194
expert 194
proliferation 194
transport 194
Labour 193
Operation 193
Organized 193
assessed 193
conscious 193
core 193
donors 193
million 193
nationality 193
sound 193
water 193
Diversity 192
caused 192
identified 192
thereby 192
2002-2003 191
Guyana 191
League 191
Promotion 191
de 191
durable 191
prejudice 191
resource 191
seas 191
technological 191
thereof 191
August-4 190
until 190
worldwide 190
capabilities 189
improved 189
landlocked 189
Research 188
degrading 188
oceans 188
2006-2007 187
E.03.II.A.1 187
Malawi 187
comments 187
cruel 187
value 187
1514 186
Control 186
Light 186
Sixth 186
allow 186
beyond 186
competence 186
far 186
L 185
Paris 185
Relief 185
Solomon 185
diseases 185
disputes 185
government 185
Lesotho 184
immediate 184
coastal 183
equipment 183
Congress 182
coordinate 182
emphasis 182
informal 182
inter-agency 182
minorities 182
sustainability 182
Eradication 181
Governing 181
changes 181
civilians 181
governing 181
prepared 181
refrain 181
Grenada 180
X 180
experience 180
forces 180
mines 180
perpetrators 180
strengthened 180
Doha 179
Health 179
Standing 179
approval 179
completion 179
innovative 179
modalities 179
occupation 179
1980 178
1990 178
Serious 178
business 178
offence 178
sovereignty 178
76 177
D 177
Fifty-eighth 177
ad 177
membership 177
Headquarters 176
addressed 176
appendix 176
continuation 176
convene 176
settlements 176
signature 176
Consultative 175
agrees 175
Dialogue 174
Initiative 174
affirming 174
alternative 174
damage 174
designed 174
focal 174
measure 174
preventive 174
trust 174
Botswana 173
Developed 173
Least 173
Preparatory 173
Transitional 173
War 173
constitutional 173
forward 173
implemented 173
impunity 173
paras 173
Day 172
acceptance 172
accession 172
enshrined 172
integral 172
substantial 172
web 172
age 171
foster 171
inform 171
non-discriminatory 171
Ocean 170
Related 170
approves 170
constructive 170
utilization 170
Lao 169
add 169
constitutes 169
directly 169
humanity 169
informed 169
mobilization 169
Cross 168
Guam 168
secure 168
Niger 167
RightsResolution 167
becoming 167
diplomatic 167
displacement 167
does 167
explore 167
solidarity 167
stated 167
70 166
Fifty-sixth 166
Regulations 166
discharge 166
elected 166
flag 166
hunger 166
submission 166
Fifty-fifth 165
Tonga 165
interim 165
mandated 165
Mediterranean 164
Violations 164
conducive 164
creating 164
expenses 164
expression 164
inclusive 164
lasting 164
lead 164
main 164
recognize 164
requires 164
transnational 164
1981 163
Covenants 163
Pension 163
conventional 163
executions 163
expand 163
past 163
received 163
remaining 163
vital 163
CONF.157 162
Oversight 162
advance 162
Add.1. 161
Combat 161
Comprehensive 161
Director 161
Fifty-seventh 161
S-23 161
had 161
inclusion 161
next 161
pending 161
protocols 161
serve 161
Administration 160
Facility 160
Gabon 160
adherence 160
departments 160
hoc 160
Conventions 159
norms 159
systematic 159
Committed 158
III. 158
Vice-Chairman 158
direct 158
event 158
office 158
project 158
provides 158
put 158
ratified 158
tasks 158
J 157
Tobago 157
Trinidad 157
adverse 157
consolidation 157
legitimate 157
predictable 157
Swaziland 156
guarantee 156
invitation 156
limited 156
proceedings 156
protecting 156
require 156
respectively 156
Corr.1. 155
Torture 155
contributes 155
expertise 155
poor 155
spirit 155
Nairobi 154
Prevent 154
e 154
estimates 154
exist 154
identification 154
limitation 154
seminars 154
terrorist 154
Former 153
auspices 153
involving 153
non-nuclear-weapon 153
observations 153
recognition 153
whether 153
Vanuatu 152
authorized 152
consensus 152
corrigenda 152
elaboration 152
eradicate 152
participants 152
reconciliation 152
visit 152
whole 152
Auditors 151
acceding 151
advancement 151
commercial 151
contrary 151
mainstreaming 151
opportunity 151
payment 151
rate 151
sex 151
undertaking 151
Consensus 150
adopting 150
amendment 150
c 150
extended 150
flows 150
girl 150
goods 150
played 150
difficulties 149
hundred 149
reinforcing 149
relative 149
using 149
Racism 148
later 148
strict 148
Bhutan 147
Desertification 147
High-level 147
emerging 147
products 147
Civilian 146
Treatment 146
demand 146
extreme 146
four 146
how 146
identifying 146
reflected 146
values 146
90 145
Financial 145
Intolerance 145
Its 145
Zimbabwe 145
eliminating 145
invite 145
organizational 145
Association 144
DeclarationSee 144
Gambia 144
Intergovernmental 144
able 144
accede 144
counter 144
deal 144
heritage 144
rates 144
target 144
Bolivarian 143
Corruption 143
Liberation 143
appointment 143
discussion 143
examined 143
factors 143
our 143
63 142
Narcotic 142
aid 142
collective 142
continuous 142
coordinating 142
favour 142
nationals 142
sharing 142
traditional 142
GC 141
Lucia 141
NPT 141
Turkmenistan 141
coherence 141
defenders 141
disseminate 141
findings 141
just 141
line 141
ratify 141
task 141
Code 140
UN-Habitat 140
coercive 140
determine 140
endorsed 140
forums 140
he 140
point 140
procurement 140
progressive 140
repatriation 140
sufficient 140
Sixty-first 139
Sixty-second 139
Time 139
Training 139
immediately 139
1. 138
Grenadines 138
Vincent 138
highly 138
money-laundering 138
posed 138
receive 138
site 138
transmit 138
urgently 138
Antigua 137
For 137
Rules 137
Tenth 137
belonging 137
despite 137
formulation 137
imposed 137
interpretation 137
items 137
still 137
twenty-first 137
Barbuda 136
Interim 136
Outcome 136
budgetary 136
considers 136
defined 136
electoral 136
medical 136
minimize 136
observer 136
outstanding 136
productive 136
replace 136
requesting 136
shared 136
Culture 135
Inter-Agency 135
Rio 135
West 135
according 135
consolidate 135
cost 135
dealing 135
expected 135
ministerial 135
presented 135
Conferences 134
Production 134
Secretary-GeneralA 134
expansion 134
mainstream 134
monitor 134
range 134
Federal 133
Western 133
directed 133
function 133
liberty 133
preparedness 133
religions 133
travel 133
valuable 133
78th 132
973. 132
Chernobyl 132
Internet 132
Support 132
declarations 132
documentation 132
genuine 132
headquarters 132
leadership 132
raise 132
structure 132
Madrid 131
Right 131
base 131
collection 131
engaged 131
existence 131
facing 131
investigate 131
places 131
traffic 131
182 130
Decisions 130
Monetary 130
Tuvalu 130
activity 130
aspirations 130
broad 130
everyone 130
observers 130
records 130
resumed 130
road 130
search 130
significantly 130
wishes 130
2001-2010 129
78 129
Copenhagen 129
ES-10 129
covered 129
medium-term 129
reference 129
restrictions 129
similar 129
180 128
68 128
Stockpiling 128
Transit 128
VIII 128
century 128
design 128
estimated 128
expenditures 128
finance 128
guidance 128
Chief 127
Hyogo 127
allocation 127
availability 127
balanced 127
intimidation 127
pollution 127
professional 127
respecting 127
skills 127
2010 126
Nos. 126
around 126
candidates 126
diamonds 126
fourth 126
great 126
namely 126
periodic 126
seminar 126
step 126
wider 126
K 125
Strengthening 125
Xenophobia 125
construction 125
enforced 125
enter 125
forum 125
issued 125
242 124
Bretton 124
Nuclear-Test-Ban 124
Woods 124
debate 124
proportion 124
reservations 124
supports 124
tools 124
1973 123
2015 123
affecting 123
brought 123
leaders 123
led 123
organize 123
outlined 123
warning 123
Activities 122
addition 122
conducted 122
examination 122
indicator 122
network 122
registration 122
supply 122
18-22 121
Fifty-ninth 121
Kimberley 121
Near 121
South-Eastern 121
Trafficking 121
binding 121
committee 121
included 121
lives 121
release 121
several 121
trends 121
types 121
zones 121
Sixtieth 120
acquisition 120
agriculture 120
cease 120
mankind 120
mobilizing 120
older 120
ownership 120
prior 120
supported 120
tool 120
unreported 120
verification 120
Population 119
contract 119
ecosystems 119
either 119
emergencies 119
formulate 119
giving 119
mitigate 119
months 119
reaffirmed 119
secretariats 119
severe 119
visits 119
3-14 118
appraisal 118
crucial 118
element 118
encouraged 118
extrajudicial 118
outside 118
paid 118
stations 118
wherever 118
100 117
1960 117
71 117
Coordinator 117
Register 117
Relations 117
cooperative 117
course 117
equity 117
investigation 117
twentieth 117
Be 116
Conservation 116
Terrorism 116
Works 116
extradition 116
flow 116
invited 116
stable 116
standard 116
twenty-fourth 116
wide 116
Climate 115
Further 115
Genocide 115
countering 115
follow 115
grounds 115
immunodeficiency 115
includes 115
phase 115
unregulated 115
Experts 114
RES 114
Task 114
accelerate 114
agree 114
assignment 114
centre 114
commending 114
criteria 114
observe 114
prohibition 114
segment 114
81 113
Destruction 113
Parts 113
Prosecution 113
industrial 113
initial 113
migratory 113
principal 113
reach 113
statute 113
strictly 113
thematic 113
visiting 113
C.5 112
XI 112
ability 112
debris 112
faced 112
interrelated 112
links 112
mentioned 112
positions 112
urgency 112
Almaty 111
Bahamas 111
appeal 111
harassment 111
i 111
identity 111
master 111
power 111
proper 111
seriously 111
194 110
Ministers 110
beings 110
challenge 110
dimensions 110
dispute 110
explosive 110
lessons 110
maximum 110
offer 110
• 110
210 109
80 109
94 109
Chemical 109
E.02.II.A.7 109
anti-personnel 109
assure 109
entered 109
formal 109
ocean 109
proclaimed 109
reviews 109
widely 109
4-15 108
72 108
E.96.IV.13 108
aims 108
coherent 108
impacts 108
increasingly 108
inhabitants 108
interdependent 108
maritime 108
offers 108
reaffirm 108
regulation 108
suffering 108
useful 108
64 107
Fish 107
Immunities 107
Tlatelolco 107
achievements 107
association 107
commit 107
day 107
degradation 107
proceeds 107
sides 107
supportive 107
theme 107
unless 107
77th 106
96 106
Arrangements 106
Peaceful 106
accessible 106
agricultural 106
closer 106
entire 106
now 106
sovereign 106
topics 106
updated 106
101 105
120 105
Act 105
Advancement 105
Conventional 105
Fifth 105
Indigenous 105
higher 105
markets 105
pension 105
presence 105
sale 105
1989 104
Account 104
Extension 104
Indian 104
advice 104
arrangement 104
bear 104
biological 104
bringing 104
burden 104
complex 104
defence 104
favourable 104
inalienable 104
interaction 104
mercenaries 104
relevance 104
success 104
Society 103
Stocks 103
assess 103
contributed 103
convened 103
deliberations 103
harmonization 103
1988 102
82 102
Property 102
Uses 102
campaigns 102
debtor 102
envisaged 102
gap 102
harmful 102
indicators 102
itself 102
kind 102
mountain 102
off 102
pursuit 102
realizing 102
reflect 102
system-wide 102
twelfth 102
widest 102
* 101
128 101
1986 101
Ageing 101
Guinea-Bissau 101
Landlocked 101
Olympic 101
Permanent 101
accepted 101
accountable 101
calling 101
constraints 101
consult 101
eleventh 101
eradicating 101
gravely 101
latest 101
preservation 101
render 101
state 101
structures 101
2008-2009 100
S-10 100
death 100
la 100
learned 100
peacebuilding 100
prostitution 100
publications 100
reductions 100
regularly 100
revitalization 100
sport 100
105 99
235 99
270 99
Asian 99
Chapter 99
Commissioner-General 99
Inspection 99
Operations 99
complement 99
forest 99
integrating 99
liberalization 99
majority 99
mine-action 99
minimum 99
preserve 99
prosecution 99
resolved 99
urban 99
66 98
acceptable 98
assignee 98
banks 98
fullest 98
harm 98
industry 98
interdependence 98
owing 98
permit 98
police 98
reviewing 98
setting 98
tourism 98
C.2 97
Constitution 97
Janeiro 97
Poverty 97
Threat 97
Tourism 97
biodiversity 97
components 97
concerted 97
courses 97
described 97
experiences 97
foundations 97
impartial 97
judiciary 97
list 97
macroeconomic 97
navigation 97
post 97
radioactive 97
substances 97
summit 97
widespread 97
79th 96
B. 96
Institutions 96
Maldives 96
adversely 96
commodity 96
compensation 96
danger 96
demands 96
deployment 96
heavily 96
letter 96
live 96
open-ended 96
sites 96
1985 95
69 95
Change 95
Equalization 95
Guidelines 95
composition 95
declared 95
disseminating 95
distinction 95
engage 95
engagement 95
legally 95
object 95
plight 95
psychological 95
regulatory 95
218 94
222 94
74 94
Additional 94
Marine 94
Network 94
Panel 94
apportionment 94
chemical 94
clear 94
commission 94
covering 94
ibid 94
impartiality 94
map 94
might 94
mitigation 94
name 94
promptly 94
raising 94
reaching 94
Add.3 93
First 93
Hague 93
M 93
acquired 93
conclude 93
deprived 93
detailed 93
factor 93
generations 93
incidents 93
networks 93
senior 93
soldiers 93
subregion 93
transmitted 93
169 92
Commitment 92
Conflict 92
Democracy 92
Francophonie 92
Personnel 92
boys 92
categories 92
extensive 92
intention 92
launched 92
outreach 92
protected 92
returnees 92
universality 92
111 91
Brussels 91
Chad 91
Dominica 91
Privileges 91
acting 91
cause 91
demobilization 91
ecosystem 91
ii 91
looks 91
often 91
reforms 91
sanitation 91
speedy 91
term 91
website 91
116 90
1987 90
243 90
65 90
973 90
Associated 90
CONF.2000 90
Yearbook 90
acceded 90
flying 90
hatred 90
personal 90
straddling 90
151 89
162 89
75th 89
88 89
CD 89
Peacekeeping 89
Punishment 89
contemporary 89
executive 89
export 89
oversight 89
resident 89
responding 89
141 88
213 88
729 88
Kosovo 88
Legality 88
Measures 88
annexed 88
conducting 88
confidence 88
consolidated 88
dimension 88
equally 88
indispensable 88
known 88
manufacture 88
pose 88
rapid 88
source 88
temporary 88
107 87
214 87
E.93.I.8 87
Establishment 87
Malaria 87
arrest 87
cannot 87
concluded 87
currently 87
duties 87
indivisible 87
non-discrimination 87
points 87
reinforce 87
supplementing 87
122 86
85 86
Envoy 86
Gaza 86
IX 86
alleviate 86
consent 86
conviction 86
difficult 86
duly 86
financed 86
friendly 86
genocide 86
intended 86
operating 86
resulted 86
specifically 86
translation 86
106 85
110 85
146 85
1577 85
Eleventh 85
Industrial 85
Restrictions 85
Virgin 85
adequately 85
conscience 85
consular 85
delegations 85
deposit 85
diversification 85
judges 85
negotiation 85
peace-building 85
rendered 85
thought 85
237 84
61st 84
83 84
Civilizations 84
Contracting 84
Cruel 84
Degrading 84
Family 84
Inhuman 84
Prohibitions 84
Tax 84
Voluntary 84
applied 84
assignor 84
devices 84
doing 84
execution 84
indebted 84
overcome 84
phenomenon 84
placed 84
pornography 84
prompt 84
single 84
studies 84
109 83
Executives 83
Guiding 83
In 83
S-20 83
Sahara 83
Strategic 83
Timor 83
absence 83
amended 83
appropriation 83
beginning 83
concluding 83
duplication 83
frameworks 83
link 83
rape 83
seeking 83
- 82
160 82
233 82
26560 82
486-S 82
68th 82
87 82
91 82
Black 82
Personal 82
Secretary 82
consultative 82
drought 82
failure 82
journalists 82
transfers 82
tuberculosis 82
1978 81
27531. 81
92 81
Palestine. 81
UNISPACE 81
annually 81
biennial 81
eighth 81
greatest 81
hope 81
hosting 81
investigations 81
pertaining 81
separate 81
significance 81
subjected 81
submissions 81
220 80
67 80
CONF.192 80
Library 80
Open-ended 80
Twelfth 80
above-mentioned 80
accomplishment 80
attainment 80
election 80
expeditious 80
expeditiously 80
inadequate 80
individually 80
likely 80
maximize 80
recipient 80
root 80
self-government 80
102 79
256 79
89 79
Exploration 79
Istanbul 79
Subcommission 79
Such 79
Technology 79
Transport 79
accomplishments 79
advantage 79
air 79
appointed 79
asylum 79
commence 79
consolidating 79
disability 79
embodied 79
hazards 79
mental 79
multi-year 79
original 79
prospects 79
regardless 79
strive 79
189 78
208 78
Emergency 78
O 78
Sao 78
affordable 78
armaments 78
court 78
dangers 78
derived 78
face 78
imperative 78
less 78
limits 78
radiation 78
regret 78
renewable 78
respected 78
specified 78
states 78
terrorists 78
1977 77
200 77
215 77
227 77
273 77
304 77
Effects 77
Index 77
Model 77
N 77
Professional 77
Tome 77
appropriations 77
borders 77
committees 77
declare 77
exclusion 77
faith 77
microfinance 77
motivated 77
uses 77
79 76
81st 76
Self-Government 76
considerable 76
cultivation 76
days 76
entrusted 76
exploration 76
fifth 76
incompatible 76
interregional 76
issuance 76
microcredit 76
remove 76
responses 76
sixth 76
underlying 76
158 75
226 75
City 75
Equatorial 75
Mines 75
Poor 75
affects 75
assembly 75
assigned 75
collect 75
commensurate 75
deplores 75
disappearance 75
immigration 75
incorporate 75
involve 75
last 75
operate 75
ordinary 75
proceeding 75
programming 75
reasonable 75
selection 75
southern 75
supplies 75
surveillance 75
workshops 75
Bonn 74
Principe 74
Strip 74
administered 74
believing 74
democratization 74
in-depth 74
narcotic 74
possibilities 74
renewed 74
sentence 74
sixty-fourth 74
size 74
smuggling 74
verifiable 74
welfare 74
181 73
86 73
Armed 73
Bangkok 73
DevelopmentReport 73
abide 73
acquire 73
applying 73
corporate 73
desirability 73
diversion 73
exert 73
focused 73
foundation 73
hostilities 73
negotiating 73
racist 73
receiving 73
reliable 73
reported 73
structural 73
utilize 73
157 72
216 72
263 72
7A 72
Articles 72
Colonialism 72
Instruments 72
Nouméa 72
Taliban 72
applicability 72
case-by-case 72
condition 72
content 72
created 72
depositary 72
enforce 72
exceptional 72
expanding 72
extraterritorial 72
facilitation 72
formulating 72
fostering 72
honour 72
ideas 72
infrastructures 72
notification 72
requirement 72
resolves 72
sign 72
unable 72
utmost 72
withdraw 72
108 71
234 71
253 71
69th 71
CONF.191 71
Cartagena 71
Committees 71
Indebted 71
Israeli-Palestinian 71
Mechanism 71
P 71
Scheme 71
XX 71
accurate 71
adjustment 71
amendments 71
commencement 71
confiscation 71
endeavour 71
female 71
firm 71
ground 71
penalty 71
spheres 71
standardized 71
viable 71
whenever 71
withdrawal 71
173 70
236 70
74th 70
95 70
Fishing 70
Quartet 70
Transfer 70
XXV 70
alarmed 70
apportion 70
audit 70
deaths 70
desertification 70
destination 70
ending 70
evidence 70
humankind 70
location 70
multilateralism 70
noted 70
plays 70
receivable 70
round 70
sections 70
statistics 70
unique 70
123 69
127 69
1970 69
6. 69
An 69
Arabs 69
CONF.189 69
Counter-Terrorism 69
Diplomatic 69
Resources 69
assessing 69
circulation 69
conjunction 69
generous 69
historical 69
http 69
investments 69
linguistic 69
removal 69
resolving 69
signatories 69
unhindered 69
104 68
125 68
132 68
251 68
Especially 68
Fifty-fourth 68
Heavily 68
Practices 68
Relationship 68
Role 68
Washington 68
ageing 68
colonialism 68
concept 68
cooperatives 68
endeavours 68
enterprises 68
even 68
keeping 68
seventh 68
targeted 68
transitional 68
update 68
validity 68
very 68
1125 67
131 67
164 67
1955 67
71st 67
99 67
Corr.2 67
D.C. 67
Dakar 67
RightsSee 67
across 67
analytical 67
collaborative 67
component 67
contacts 67
designated 67
exists 67
immunities 67
injury 67
non-violence 67
occasion 67
occur 67
productivity 67
succession 67
treat 67
violent 67
virus 67
124 66
1954 66
221 66
83rd 66
Conciliation 66
Drought 66
Eliminate 66
Eradicate 66
Migration 66
Stability 66
complementarity 66
considerations 66
disparities 66
earliest 66
excessive 66
feasible 66
gender-based 66
generously 66
kidnapping 66
located 66
met 66
preliminary 66
primarily 66
produce 66
radio 66
restoration 66
victim 66
84 65
97 65
970-973. 65
Accord 65
DEC 65
Have 65
Issues 65
Practice 65
authorizes 65
because 65
collaborate 65
extrabudgetary 65
half 65
harmony 65
homes 65
initiate 65
mobility 65
neighbouring 65
policy-making 65
remedies 65
representing 65
resumption 65
serving 65
she 65
spread 65
subparagraph 65
texts 65
transmitting 65
virtue 65
10485. 64
199 64
207 64
76th 64
Experiencing 64
Inter-Parliamentary 64
Zimbabwe. 64
commodities 64
community-based 64
cost-effective 64
dated 64
detrimental 64
enact 64
format 64
hazardous 64
improvements 64
introduction 64
methodology 64
parents 64
perform 64
product 64
reading 64
roles 64
safeguard 64
statistical 64
surplus 64
written 64
wrongful 64
152 63
1979 63
212 63
232 63
240 63
245 63
AC.109 63
Certification 63
Cities 63
Exercise 63
Plenary 63
Punish 63
Suppress 63
Victims 63
breach 63
complementary 63
express 63
fissile 63
forty-third 63
grant 63
housing 63
long 63
longer 63
notably 63
poses 63
preparing 63
residence 63
stockpiling 63
transboundary 63
129 62
1948 62
206 62
3. 62
497 62
Adviser 62
Earth 62
Legislative 62
allocate 62
corrupt 62
credit 62
crises 62
discriminatory 62
injuries 62
inputs 62
papers 62
parliamentary 62
port 62
previously 62
profound 62
reasons 62
recommend 62
substantially 62
suffer 62
suitable 62
syndrome 62
thousands 62
units 62
wall 62
117 61
119 61
1541 61
185 61
2106 61
211 61
219 61
248 61
AC.105 61
Bureau 61
Certain 61
Director-General 61
Pact 61
Which 61
accept 61
beneficial 61
creditors 61
desire 61
deterioration 61
expedite 61
fifty-fifth 61
libraries 61
misuse 61
modernization 61
organizing 61
persistent 61
precursors 61
prisoners 61
prosperity 61
regimes 61
shelter 61
staffing 61
systematically 61
ten 61
waste 61
113 60
165 60
283 60
5. 60
64th 60
Anguilla 60
Compliance 60
Deemed 60
Excessively 60
Governmental 60
Indiscriminate 60
Injurious 60
Suppression 60
UNEP 60
changing 60
evolving 60
exports 60
greatly 60
indicated 60
infectious 60
missing 60
overdue 60
phases 60
pledged 60
presentation 60
pursued 60
remuneration 60
reproductive 60
ships 60
stage 60
114 59
130 59
134 59
142 59
145 59
249 59
62nd 59
Consider 59
Contributions 59
Helena 59
PRST 59
accelerated 59
arrears 59
associations 59
border 59
broaden 59
circulate 59
collecting 59
consistency 59
contains 59
continental 59
detained 59
digital 59
elaborate 59
entity 59
forty-sixth 59
guide 59
impose 59
readiness 59
securing 59
teams 59
unauthorized 59
urging 59
vast 59
volunteering 59
vulnerabilities 59
150 58
266 58
Independent 58
Seminar 58
abduction 58
advancing 58
drawing 58
evaluate 58
flexible 58
fulfilling 58
gender-sensitive 58
gratitude 58
guiding 58
impede 58
killings 58
multiple 58
negotiated 58
objectivity 58
objects 58
obtain 58
occurred 58
opposition 58
paying 58
permitted 58
platforms 58
read 58
real 58
recently 58
submitting 58
118 57
144 57
177 57
261 57
98 57
Alliance 57
Conduct 57
French 57
Inalienable 57
Matters 57
Particularly 57
Q 57
Steering 57
borne 57
cessation 57
clearly 57
controls 57
deposited 57
efficiently 57
forty-fourth 57
hinder 57
incitement 57
inherent 57
landmines 57
limit 57
movements 57
officers 57
proclamation 57
re@@ 57
regards 57
transaction 57
133 56
155 56
170 56
179 56
338 56
Affecting 56
Atlantic 56
CCW 56
Eastern 56
Investigate 56
Migratory 56
Zone 56
adhere 56
adjustments 56
alleged 56
analyse 56
arsenals 56
broad-based 56
denial 56
disposal 56
dual-use 56
forty-fifth 56
juvenile 56
limitations 56
livelihoods 56
meaningful 56
numbers 56
opening 56
pursuance 56
rapidly 56
regrets 56
resettlement 56
reunification 56
ultimate 56
115 55
250 55
2625 55
634 55
AC.198 55
Abuja 55
Back 55
Effective 55
Main 55
Migrant 55
Monitoring 55
Nuclear-Weapon-Free 55
Provisions 55
Somali 55
Volunteers 55
action-oriented 55
appreciates 55
bound 55
calendar 55
citizens 55
communicate 55
devote 55
dire 55
disappearances 55
eligible 55
finalize 55
generate 55
intersessional 55
learning 55
occurrence 55
offenders 55
orally 55
realize 55
referendum 55
represent 55
smooth 55
thirtieth 55
twenty-sixth 55
unsustainable 55
urged 55
121 54
126 54
147 54
161 54
20378. 54
209 54
529 54
Mine 54
Multilateral 54
Neighbouring 54
Promote 54
Regular 54
SGB 54
WT 54
XII 54
Youth 54
approve 54
asset 54
broader 54
by-catch 54
contain 54
determining 54
discuss 54
disease 54
doctrines 54
duration 54
experienced 54
explosions 54
find 54
inviting 54
lies 54
missiles 54
participatory 54
pluralism 54
prosecute 54
salary 54
updating 54
1249 53
167 53
183 53
197 53
1990s 53
2000-2001 53
205 53
225 53
244 53
88th 53
Available 53
COP 53
Commonwealth 53
Highly 53
REMOVED 53
Roll 53
Rwandan 53
Solidarity 53
Workers 53
abuses 53
along 53
arbitration 53
attend 53
coordinator 53
decade 53
definition 53
fourteenth 53
insecurity 53
linkages 53
manage 53
managing 53
perspectives 53
promoted 53
rule-based 53
students 53
topic 53
unified 53
wishing 53
186 52
1974 52
255 52
262 52
6-12 52
72nd 52
93 52
E.96.IV.8 52
Offenders 52
S-26 52
ST 52
Solar 52
South-East 52
Vice-Chairperson 52
advances 52
aggression 52
barriers 52
characteristics 52
collectively 52
extending 52
forthcoming 52
intellectual 52
maintained 52
non-strategic 52
renews 52
returning 52
seized 52
shown 52
suggestions 52
ten-year 52
-@@ 51
103 51
156 51
175 51
201 51
231 51
286 51
Land 51
academic 51
accorded 51
associate 51
cash 51
conciliation 51
contingency 51
dangerous 51
emergence 51
fiftieth 51
forests 51
found 51
guarantees 51
jointly 51
machinery 51
moral 51
moratorium 51
nets 51
non-use 51
orderly 51
outline 51
paper 51
persistence 51
protocol 51
ratifications 51
responsive 51
restructuring 51
sectoral 51
seven 51
successor 51
vacancy 51
xenophobic 51
135 50
140 50
171 50
1951 50
2009 50
203 50
241 50
66th 50
6@@ 50
Anti-personnel 50
Asia-Pacific 50
CONF.1995 50
DeclarationA 50
Donor 50
Foreign 50
Organs 50
Semipalatinsk 50
XXIX 50
XXVI 50
adolescents 50
birth 50
burdens 50
comparable 50
custody 50
decide 50
furthering 50
holistic 50
impeding 50
intervention 50
large-scale 50
linked 50
malnutrition 50
marginalization 50
move 50
panel 50
psychotropic 50
requiring 50
savings 50
segments 50
unaccompanied 50
undermine 50
112 49
1373 49
154 49
188 49
265 49
295 49
Chamorro 49
Country 49
Eight 49
Kyoto 49
Migrants 49
Trustees 49
ceasefire 49
claim 49
companies 49
condemnation 49
corresponding 49
diamond 49
direction 49
disciplines 49
endorsement 49
environmentally 49
exceeding 49
except 49
inadmissibility 49
interactive 49
irrespective 49
obstacle 49
phased 49
processing 49
s 49
shelf 49
species 49
took 49
traditions 49
twenty-seventh 49
unequivocal 49
unit 49
unity 49
universally 49
vocational 49
weeks 49
welcomed 49
137 48
138 48
166 48
174 48
195 48
202 48
258 48
7. 48
CBD 48
Citizens 48
Disabilities 48
Project 48
advanced 48
appropriated 48
assurances 48
attached 48
attainable 48
background 48
consisting 48
differences 48
dynamic 48
encountered 48
endanger 48
engaging 48
expanded 48
extraordinary 48
granted 48
initiated 48
instances 48
larger 48
lend 48
marriage 48
modern 48
multilaterally 48
news 48
p 48
prison 48
rapporteurs 48
redress 48
remnants 48
reorientation 48
rise 48
stress 48
superiority 48
tension 48
trial 48
undue 48
valid 48
writing 48
187 47
269 47
300 47
57th 47
9-20 47
Antarctic 47
CONF.206 47
Narcotics 47
Non-Violence 47
Promoting 47
attitudes 47
cognizant 47
drafting 47
emphasize 47
enjoy 47
exercised 47
fragile 47
iii 47
launching 47
makes 47
millennium 47
monetary 47
nothing 47
numerous 47
option 47
paramount 47
payments 47
positively 47
prohibit 47
qualified 47
reconvene 47
resume 47
solving 47
tragic 47
underscores 47
178 46
2005-2015 46
27531 46
67th 46
Applications 46
Chair 46
Common 46
Crescent 46
Families 46
Heritage 46
Kitts 46
Moon 46
Nevis 46
Plenipotentiaries 46
Straddling 46
Telecommunication 46
agency 46
budgets 46
camps 46
concepts 46
curbing 46
cycle 46
database 46
dealt 46
declares 46
designation 46
divide 46
formally 46
gear 46
granting 46
inequality 46
liaison 46
millions 46
non-@@ 46
offered 46
proceed 46
promotes 46
punish 46
sets 46
slavery 46
techniques 46
thirteenth 46
twenty-fifth 46
unlawful 46
uphold 46
136 45
143 45
149 45
153 45
168 45
1996-2005 45
247 45
7@@ 45
Adopted 45
Dag 45
Foundation 45
Friendly 45
Hammarskjöld 45
Inter-American 45
Reports 45
White 45
addendum 45
allowing 45
beliefs 45
capable 45
civilization 45
coercion 45
cope 45
eastern 45
equivalent 45
fighting 45
five-year 45
focusing 45
forty-seventh 45
functional 45
inconsistent 45
initiation 45
minority 45
periodically 45
pilot 45
privileges 45
schedule 45
sphere 45
stages 45
successive 45
suppression 45
telecommunications 45
two-State 45
week 45
2002-2005 44
223 44
84th 44
Air 44
Army 44
Base 44
British 44
Cayman 44
Illegal 44
Meetings 44
Niño 44
Radioactive 44
although 44
asylum-seekers 44
below 44
cancellation 44
clearance 44
colour 44
contributors 44
customary 44
designate 44
ended 44
exposed 44
followed 44
gaps 44
globally 44
grants 44
groupings 44
helping 44
infection 44
insert 44
know-how 44
man-portable 44
nautical 44
planned 44
premises 44
propose 44
receives 44
recruited 44
represented 44
represents 44
retirement 44
side 44
suppress 44
test 44
transferred 44
twenty-second 44
unemployment 44
139 43
172 43
192 43
1984 43
9@@ 43
English 43
Gender 43
Havana 43
I-III 43
Level 43
Opinion 43
Planning 43
Round 43
Smuggling 43
Those 43
Yaoundé 43
acquiring 43
ammunition 43
architecture 43
campaign 43
casualties 43
continent 43
counselling 43
counter-terrorism 43
cover 43
credible 43
discards 43
extension 43
footing 43
globalizing 43
hemisphere 43
increases 43
ionizing 43
launch 43
magnitude 43
managers 43
marginalized 43
mercenary 43
non-selectivity 43
placement 43
reduced 43
reparation 43
restore 43
scheme 43
survival 43
terror 43
thereafter 43
times 43
tsunami 43
148 42
163 42
176 42
1963 42
224 42
260 42
87th 42
CP 42
Disasters 42
Peacebuilding 42
Science 42
arise 42
borrowing 42
charge 42
coordinators 42
delete 42
devastating 42
dumping 42
ecological 42
elaborating 42
examining 42
generation 42
hand 42
home 42
however 42
middle-income 42
midterm 42
oral 42
organ 42
pandemic 42
performing 42
publish 42
resilience 42
reviewed 42
rich 42
scourge 42
solemn 42
sports 42
stop 42
subprogramme 42
suffered 42
television 42
volcanic 42
wastes 42
159 41
15@@ 41
17512 41
191 41
196 41
1972 41
1997-2006 41
239 41
254 41
267 41
APLC 41
Bacteriological 41
Cairo 41
Chairperson 41
Communities 41
Compact 41
Demand 41
Electoral 41
Methods 41
Montserrat 41
Moscow 41
Policy 41
Rarotonga 41
Traffic 41
accordingly 41
adjacent 41
alleviating 41
apportioned 41
attempt 41
broadcasting 41
burden-sharing 41
codification 41
commodity-dependent 41
contracts 41
courts 41
decrease 41
deprivation 41
elderly 41
f 41
imposition 41
intensified 41
locally 41
never 41
ninth 41
opened 41
openness 41
opium 41
restitution 41
rough 41
shark 41
vessel 41
198 40
228 40
292 40
303 40
4. 40
Acts 40
Basic 40
Capital 40
Liaison 40
Mountain 40
Pitcairn 40
S-24 40
Texts 40
Thirteenth 40
Tunis 40
accelerating 40
actual 40
admission 40
ascertaining 40
atmosphere 40
backgrounds 40
banning 40
chemicals 40
closure 40
code 40
commencing 40
competitiveness 40
coral 40
crop 40
cross-cutting 40
depends 40
desirous 40
developmental 40
diverse 40
elaborated 40
exchanges 40
immunity 40
incorporation 40
liability 40
livelihood 40
newly 40
practicable 40
presidential 40
robbery 40
scheduled 40
schools 40
solid 40
sought 40
stipulated 40
sustain 40
talks 40
vols 40
voluntarily 40
184 39
190 39
1995-2004 39
290 39
426 39
Bermuda 39
Construction 39
E.97.V.10 39
Excerpts 39
Integrated 39
Logistics 39
Natural 39
Oceanographic 39
Seychelles 39
Twenty-first 39
Unregulated 39
Unreported 39
XIV 39
accounts 39
adjusted 39
allocations 39
applies 39
attaining 39
avoiding 39
born 39
competitive 39
completed 39
confirmed 39
debates 39
enacting 39
ever 39
interference 39
literacy 39
massive 39
model 39
mortality 39
null 39
producing 39
reaffirmation 39
regionally 39
secondary 39
signatory 39
stimulate 39
supplement 39
teaching 39
testing 39
transactions 39
usefulness 39
utilizing 39
violate 39
vision 39
void 39
voters 39
13@@ 38
1771 38
1@@ 38
204 38
8. 38
Celestial 38
Fourteenth 38
I.C.J. 38
Officer 38
REP 38
S-27 38
Substances 38
accidental 38
accomplish 38
afford 38
appoint 38
attaches 38
becomes 38
behaviour 38
channels 38
city 38
colonial 38
comprehensively 38
country-level 38
deploring 38
detriment 38
draw 38
enrichment 38
exercising 38
expenditure 38
fill 38
fortieth 38
forty-ninth 38
harmonize 38
hosted 38
incorporating 38
institutes 38
intensive 38
interventions 38
message 38
minors 38
mutilation 38
nationalities 38
notify 38
nutrition 38
preambular 38
print 38
recruit 38
removing 38
revert 38
scholarships 38
229 37
252 37
296 37
8@@ 37
April-6 37
Bali 37
Bamako 37
Bodies 37
Bridgetown 37
ChildUnited 37
E.02.I.5 37
E.94.I.18 37
E.98.V.11 37
Follow-up 37
June-17 37
Objects 37
Tokyo 37
XIII 37
XXX 37
accessibility 37
affiliated 37
allegations 37
allocated 37
begin 37
causing 37
condemning 37
deployed 37
diversifying 37
emphasized 37
epidemic 37
es 37
eventual 37
feasibility 37
finding 37
formulated 37
friendship 37
historic 37
indicate 37
multilingualism 37
non-State 37
perpetrated 37
preferably 37
preserving 37
properly 37
publicity 37
qualitative 37
receipt 37
reflecting 37
registered 37
revenues 37
selected 37
series 37
sexually 37
thorough 37
urge 37
volunteer 37
16@@ 36
238 36
285 36
583 36
65th 36
92nd 36
Add.5 36
Americas 36
Area 36
ChildResolution 36
Constitutional 36
Enforced 36
Games 36
Indicators 36
Intellectual 36
Kathmandu 36
Psychotropic 36
Reconstruction 36
Rescue 36
Towards 36
Under 36
Under-Secretary-General 36
XXII 36
Zambia. 36
attracting 36
banking 36
broadening 36
charged 36
congresses 36
discriminate 36
example 36
forty-second 36
health-care 36
heavy 36
incentives 36
infected 36
input 36
join 36
land-based 36
legitimacy 36
library 36
linkage 36
negotiate 36
overcoming 36
passage 36
patterns 36
persecution 36
prohibited 36
prohibiting 36
receivables 36
remote 36
rescue 36
settle 36
triennial 36
ultimately 36
underrepresented 36
unification 36
violating 36
visible 36
welcome 36
widening 36
withdrawing 36
witnesses 36
10@@ 35
193 35
275 35
394 35
503 35
5@@ 35
606 35
AHG 35
Amended 35
Annual 35
Caicos 35
Consequences 35
E.81.IX.4 35
Field 35
Freedom 35
Governor 35
P-4 35
Pelindaba 35
R 35
Registration 35
Response 35
São 35
Turks 35
Wider 35
alleviation 35
authorize 35
avail 35
bridging 35
continuity 35
cornerstone 35
coverage 35
curb 35
decent 35
dependent 35
disappeared 35
docsonline.wto.org. 35
educators 35
estimate 35
fairness 35
favourably 35
federal 35
guaranteed 35
halve 35
information-sharing 35
interreligious 35
lands 35
multi-stakeholder 35
neighbours 35
non-compliance 35
non-intervention 35
notwithstanding 35
participated 35
possession 35
properties 35
pursuing 35
relatives 35
routes 35
served 35
shipping 35
tables 35
tackle 35
threatening 35
upgrading 35
utilized 35
1983 34
2545. 34
276 34
287 34
443 34
463 34
4@@ 34
871-S 34
ActionReport 34
Campaign 34
Credentials 34
E. 34
Evaluation 34
Expected 34
GATT 34
Land-based 34
Mitigation 34
Repertory 34
Sport 34
Toxin 34
Violence 34
absolute 34
actuarial 34
aforementioned 34
choose 34
codes 34
come 34
commemoration 34
concurrence 34
constitution 34
consumption 34
discussed 34
everywhere 34
exchanging 34
flexibility 34
formation 34
frame 34
funded 34
genital 34
imposing 34
indiscriminate 34
institution 34
intercultural 34
multidimensional 34
normal 34
offering 34
overview 34
pertinent 34
policymaking 34
popular 34
radiological 34
reiterated 34
schemes 34
severely 34
successfully 34
tackling 34
volunteerism 34
weather 34
1071 33
14@@ 33
1760 33
230 33
556 33
667-S 33
90th 33
Biosafety 33
Budget 33
Challenges 33
Environmental 33
Mountains 33
Paulo 33
Repertoire 33
Sources 33
Southern 33
St. 33
WomenResolution 33
XVIII 33
XXVIII 33
abstention 33
advocacy 33
announced 33
appendix. 33
ascertained 33
attained 33
broadcasters 33
clarify 33
complementarities 33
contact 33
deter 33
ensures 33
environments 33
erosion 33
exceed 33
fishery 33
good-neighbourliness 33
hostage-taking 33
killing 33
low 33
margin 33
momentum 33
obstetric 33
partner 33
placing 33
pledges 33
predecessor 33
prices 33
produced 33
remittances 33
renew 33
requisite 33
retention 33
returns 33
safeguarding 33
sharks 33
spouses 33
struggle 33
translate 33
trend 33
unexploded 33
users 33
voice 33
workload 33
0.7 32
12A 32
17@@ 32
1961 32
1975 32
312 32
318 32
510 32
602 32
Abuse 32
Building 32
C.6 32
Century 32
Communications 32
DeclarationReport 32
Ensuring 32
Fifty-second 32
Host 32
Offensive 32
Preventing 32
Procurement 32
Responsibility 32
Restored 32
Southeast 32
Water 32
WeaponsUnited 32
accord 32
affirmed 32
alike 32
authorization 32
catch 32
conference-servicing 32
crops 32
customs 32
denunciation 32
deploying 32
dispatch 32
ed 32
encouragement 32
facts 32
fate 32
fiscal 32
flagrant 32
frames 32
heart 32
history 32
imprisonment 32
ing 32
insufficient 32
late 32
neglect 32
northern 32
orphans 32
realized 32
redouble 32
resort 32
signatures 32
stock 32
synergies 32
ties 32
time-bound 32
transformation 32
transmission 32
triangular 32
un@@ 32
what 32
wish 32
1949United 31
1971 31
268 31
30619. 31
402 31
478 31
C. 31
College 31
Democracies 31
Exploitation 31
Fellowship 31
Fono 31
Helmets 31
Kuala 31
Lumpur 31
Minorities 31
News 31
Peoples. 31
Region 31
Search 31
Stabilization 31
Study 31
Sub.2 31
Tuberculosis 31
Wall 31
accepting 31
advantages 31
assurance 31
attack 31
attain 31
backlog 31
benchmarks 31
calculated 31
catalytic 31
claims 31
consequent 31
dates 31
demonstrated 31
desirable 31
distributed 31
economically 31
emanating 31
enactment 31
extremist 31
facilitated 31
floods 31
halt 31
incurred 31
influence 31
judge 31
justified 31
justify 31
lawyers 31
lowest 31
mediation 31
medicines 31
methodologies 31
monthly 31
multilingual 31
offshore 31
orbit 31
ourselves 31
participant 31
powers 31
provincial 31
raised 31
reflects 31
registry 31
released 31
repression 31
reservation 31
revision 31
school 31
sole 31
solve 31
start 31
stockpiles 31
troop 31
whom 31
whomsoever 31
1907 30
246 30
257 30
26-28 30
282 30
462 30
559 30
9. 30
Chambers 30
Commercial 30
Debt 30
Maputo 30
Minister 30
Port 30
T 30
Truce 30
VII. 30
Whole 30
appreciating 30
attending 30
attract 30
audiences 30
breaches 30
broadly 30
budgeting 30
celebration 30
contractual 30
databases 30
decline 30
dedicated 30
detainees 30
did 30
ethical 30
exploit 30
fit 30
frequently 30
grass-roots 30
instability 30
intensification 30
invoked 30
latter 30
multi-ethnic 30
nationally 30
nor 30
oil 30
ones 30
owners 30
parity 30
penal 30
pharmaceutical 30
prevail 30
prevailing 30
providers 30
relates 30
rests 30
scene 30
standing 30
starting 30
supervision 30
supplementary 30
tax 30
tensions 30
therefrom 30
thirty-fifth 30
1325 29
1968 29
281 29
302 29
30822. 29
391 29
412 29
508 29
509 29
73rd 29
Algiers 29
Coordinating 29
Displacement 29
High-Level 29
Increased 29
Individuals 29
Lusaka 29
Oceans 29
Physical 29
Pollution 29
Resilience 29
Subregional 29
TD 29
Taking 29
Urban 29
accreditation 29
archives 29
charts 29
cluster 29
conciliator 29
consulting 29
currency 29
debt-servicing 29
debtors 29
delimitation 29
demonstrate 29
details 29
devise 29
dismantlement 29
enforcing 29
era 29
evolution 29
fistula 29
forty-eighth 29
full-scope 29
generally 29
hardship 29
inequalities 29
innovations 29
juridical 29
malaria-endemic 29
mid-term 29
mitigating 29
offender 29
operationalization 29
pandemics 29
pelagic 29
poppy 29
predictability 29
pregnant 29
pressing 29
relate 29
schooling 29
stateless 29
substance 29
themes 29
undermining 29
unrepresented 29
unsafeguarded 29
1993A 28
264 28
2@@ 28
82nd 28
8791. 28
9068 28
Agencies 28
Antarctica 28
Assistant 28
Brindisi 28
E.97.IV.6 28
Forty-eighth 28
Holy 28
If 28
Investment 28
S-22 28
Sexual 28
Systems 28
Trade-related 28
accredited 28
arbitrarily 28
assumed 28
audited 28
bureaux 28
combination 28
compilation 28
concurs 28
confidential 28
constituted 28
consultants 28
deem 28
descent 28
desist 28
diffusion 28
distinct 28
dollar 28
draws 28
drift-net 28
ease 28
effected 28
fulfilled 28
insolvency 28
investigative 28
limiting 28
lost 28
mean 28
memorandum 28
mine-affected 28
neutrality 28
ordnance 28
overemphasized 28
particularities 28
periods 28
preamble 28
precautionary 28
prenatal 28
prescribed 28
press 28
promotional 28
public-private 28
rationalization 28
record 28
referring 28
reimbursements 28
revolution 28
subsequently 28
subsidies 28
survivors 28
telecommunication 28
things 28
underlined 28
undertakings 28
uniform 28
workplan 28
1874 27
2000See 27
21Report 27
23@@ 27
274 27
33480. 27
357 27
459 27
52nd 27
85th 27
Andean 27
Any 27
Endowment 27
Extraordinary 27
Forty-ninth 27
Fundamental 27
Groups 27
Marrakesh 27
Progress 27
Return 27
S-IV 27
Ships 27
Standard 27
Stockholm 27
That 27
UNCTAD 27
We 27
accomplished 27
accounting 27
adapt 27
aggravated 27
aiming 27
alien 27
alone 27
anticipated 27
arrived 27
assign 27
assignments 27
ating 27
burden- 27
comparative 27
concessional 27
credits 27
daily 27
diligence 27
disclosure 27
employing 27
enlargement 27
enters 27
fifteenth 27
fifty-second 27
fuelling 27
generated 27
halving 27
in@@ 27
incite 27
indirectly 27
injured 27
institution-building 27
investigated 27
issuing 27
laid 27
managed 27
medium-sized 27
miles 27
mine-clearance 27
mountains 27
optimum 27
owned 27
percentage 27
pluralistic 27
punished 27
rather 27
recurrent 27
regulate 27
reminds 27
rescind 27
responsibility-sharing 27
revitalize 27
satellite 27
scrupulously 27
sending 27
skilled 27
speedily 27
sporting 27
storage 27
stronger 27
subjects 27
sums 27
survey 27
sustaining 27
threaten 27
today 27
tribunal 27
twelve 27
underwater 27
undiminished 27
unevenly 27
whereby 27
workshop 27
1244 26
1947 26
2173 26
272 26
279 26
27@@ 26
288 26
Add.4 26
Asian-African 26
Displaced 26
Facilitating 26
Fiftieth 26
Fight 26
Forces 26
Immediate 26
Involuntary 26
Limitation 26
Police 26
Presidents 26
Provision 26
Respect 26
Tampere 26
Thirty-first 26
Tsunami 26
accessions 26
acknowledge 26
allowance 26
art 26
benefiting 26
cooperating 26
copies 26
defining 26
deliver 26
democracies 26
destroy 26
determines 26
disaggregated 26
discharging 26
drinking 26
eminent 26
ends 26
essentially 26
exporting 26
expressions 26
falling 26
freshwater 26
geographic 26
geostationary 26
governed 26
ill-treatment 26
infanticide 26
innovation 26
intentionally 26
interlinked 26
investigating 26
inviolability 26
iv 26
lists 26
minimizing 26
multifaceted 26
non-formal 26
observation 26
pace 26
post-disaster 26
proclaiming 26
proclaims 26
punishable 26
rebuilding 26
redeployment 26
repeal 26
revise 26
small-scale 26
subsistence 26
sufficiently 26
targeting 26
termination 26
track 26
trained 26
transferring 26
treated 26
type 26
unjustifiable 26
viability 26
volunteers 26
voting 26
,700 25
13. 25
15. 25
2171 25
2222 25
278 25
332 25
387 25
3@@ 25
5778. 25
579 25
Access 25
BWC 25
Ceasefire 25
Comment 25
Corr.1-3 25
DevelopmentA 25
E.86.IX.7 25
Electronic 25
Encouraging 25
Forty-seventh 25
Negotiations 25
P-3 25
P-5 25
Radiation 25
Technologies 25
Waste 25
Yokohama 25
accumulation 25
accuracy 25
adult 25
agendas 25
atomic 25
certificate 25
certification 25
chosen 25
citizenship 25
cold 25
communiqué 25
compatible 25
compile 25
condemn 25
confronted 25
constituting 25
defamation 25
delivering 25
diplomacy 25
disadvantaged 25
diversify 25
earlier 25
entrepreneurship 25
evaluations 25
facto 25
fellowship 25
financially 25
firmly 25
foreseen 25
guaranteeing 25
harmonious 25
high-quality 25
highlighting 25
hurricanes 25
illiteracy 25
impedes 25
inflation 25
installations 25
instruction 25
interdisciplinary 25
judgement 25
low- 25
lower 25
managerial 25
marked 25
multidisciplinary 25
networking 25
non-interference 25
pages 25
parliament 25
payable 25
penalize 25
piracy 25
potentially 25
presenting 25
professionals 25
promulgated 25
prosecuted 25
protracted 25
reason 25
rebuild 25
remained 25
reverse 25
rising 25
sentences 25
simultaneously 25
sixty 25
spite 25
stabilization 25
stressed 25
trade-related 25
trafficked 25
undermines 25
upcoming 25
vacancies 25
verify 25
volatility 25
wealth 25
0.15 24
1966 24
1969 24
24. 24
29@@ 24
465 24
5-13 24
540 24
Branch 24
CONF.202 24
Combating 24
ConventionUnited 24
E.95.XIII.18 24
Employment 24
Enforcement 24
Freedoms 24
Globalization 24
Guide 24
Improving 24
Life 24
North 24
Sect 24
Timorese 24
Warning 24
advise 24
age-appropriate 24
agents 24
amounts 24
clarifying 24
complemented 24
completing 24
condemned 24
conversion 24
cybersecurity 24
deepening 24
disabled 24
disparity 24
disturbed 24
down 24
elect 24
embargo 24
er 24
excess 24
exoduses 24
exploring 24
fear 24
formula 24
furtherance 24
genetic 24
habitual 24
importing 24
incorporated 24
indicating 24
inquiry 24
insecticide-treated 24
irreversibility 24
jurisdictional 24
length 24
loans 24
maximizing 24
method 24
near 24
nuclear-weapon-free-zone 24
opinions 24
people-centred 24
pillars 24
plant 24
poorest 24
pressure 24
producers 24
prosecuting 24
publicize 24
reciprocal 24
reinforcement 24
relocation 24
rest 24
risk-reduction 24
six-week 24
slave 24
slow 24
sub-Saharan 24
substitute 24
thanks 24
tracing 24
10485 23
11. 23
259 23
28@@ 23
3101 23
311 23
422 23
439 23
56th 23
ActionIbid 23
Administrator 23
Annexes 23
Arabic 23
At 23
Baha 23
Continental 23
D-2 23
Deter 23
FAO 23
Fifty-third 23
Hunger 23
Identify 23
Income 23
Macroeconomic 23
Memorial 23
Postal 23
Prosecutor 23
Protect 23
Question 23
Recovery 23
Religion 23
Timely 23
Verification 23
XVI 23
adopts 23
analyses 23
analysing 23
appointments 23
appropriately 23
attach 23
autonomy 23
beneficiaries 23
bilaterally 23
capability 23
category 23
cities 23
compared 23
confiscated 23
connected 23
counsel 23
counter-narcotics 23
creative 23
criminalize 23
deepen 23
degree 23
differential 23
differentiated 23
documented 23
domination 23
enabled 23
entrust 23
eruption 23
exception 23
far-reaching 23
forty-first 23
globalized 23
harmonizing 23
hearing 23
industrialization 23
introduce 23
irreversible 23
losses 23
low-income 23
mainly 23
modified 23
nominated 23
non-agricultural 23
norm-setting 23
observed 23
officially 23
orientation 23
pensions 23
prerequisite 23
progressively 23
promulgation 23
putting 23
recourse 23
references 23
relationships 23
remedy 23
repeated 23
s@@ 23
seriousness 23
ship 23
slum 23
socially 23
spiritual 23
subvention 23
thirty-eighth 23
thirty-seventh 23
tracks 23
train 23
underdevelopment 23
understand 23
variety 23
villages 23
whatsoever 23
,600 22
.@@ 22
1465 22
245. 22
305 22
425 22
499 22
520 22
759-S 22
89th 22
America. 22
Ammunition 22
Bishkek 22
CONF.II 22
Club 22
Communication 22
D@@ 22
Expert 22
Horn 22
House 22
I-IV 22
ICT 22
Informal 22
Instrument 22
Provisional 22
Rapporteurs 22
Recognized 22
Relevant 22
Results 22
S-19 22
S-25 22
Sharks 22
Specialized 22
U 22
Universally 22
actually 22
annexation 22
announcement 22
avert 22
began 22
books 22
bribery 22
businesses 22
career 22
carefully 22
catastrophe 22
coalition 22
complaints 22
complexity 22
comprising 22
compulsory 22
constructively 22
contents 22
continuously 22
creditor 22
deemed 22
deems 22
defending 22
delays 22
demographic 22
desiring 22
devising 22
dialogues 22
discretion 22
disposition 22
drawn 22
earthquakes 22
enhances 22
entails 22
evaluating 22
extradite 22
fosters 22
furnish 22
highlights 22
ideal 22
illegality 22
imminent 22
incidence 22
insurance 22
jure 22
laundering 22
liable 22
listed 22
longer-term 22
manufacturing 22
market-oriented 22
month 22
mostly 22
nominate 22
offset 22
overarching 22
parallel 22
parliaments 22
peer 22
pensionable 22
plurilateral 22
re-emphasizes 22
reefs 22
reliability 22
removed 22
replenishment 22
settlers 22
streamlining 22
surveys 22
suspected 22
thirteen 22
thirty-ninth 22
timing 22
unencumbered 22
universalization 22
vacant 22
vaccines 22
vehicle 22
widen 22
,@@ 21
1515 21
17513. 21
19-30 21
2000. 21
24@@ 21
293 21
330 21
424 21
483 21
536 21
60-S 21
Ababa 21
Academy 21
Addis 21
Agreements 21
Aung 21
Belief 21
CM 21
CONF.183 21
Codification 21
DiscriminationResolution 21
E.00.I.3 21
Early 21
Ethics 21
Event 21
Governors 21
HRC 21
Holding 21
ICCD 21
Jakarta 21
Kabul 21
Kobe 21
Kyi 21
Launched 21
Literacy 21
Louis 21
MIN 21
October-3 21
PelindabaA 21
PlanResolution 21
Reform 21
START 21
Sharm 21
Shelf 21
Suu 21
Ways 21
Worst 21
XXVII 21
abolish 21
amend 21
apprised 21
arrested 21
ascertain 21
average 21
back 21
bank 21
billion 21
cannabis 21
channel 21
composed 21
consequence 21
corporations 21
decades 21
defences 21
delegation 21
deliberate 21
depletion 21
detect 21
detection 21
development-oriented 21
dis@@ 21
employed 21
empower 21
enlist 21
enterprise 21
expiration 21
extremely 21
facility 21
fact-finding 21
generating 21
high-technology 21
humane 21
hydrographic 21
industries 21
interfere 21
invoke 21
leave 21
medium- 21
ministers 21
modes 21
orders 21
parliamentarians 21
permitting 21
proclaim 21
prone 21
refer 21
results-based 21
revisions 21
safeguarded 21
simplification 21
space-based 21
systemic 21
ting 21
tolerate 21
uneven 21
visitors 21
willingness 21
worst 21
,200 20
,8@@ 20
13-17 20
1502 20
17513 20
1946 20
2020 20
271 20
317 20
356 20
492 20
9068. 20
Annex 20
Anniversary 20
Appeals 20
Disappearances 20
Finance 20
Forests 20
INF 20
Implementing 20
Integration 20
North-South 20
One 20
P@@ 20
Partners 20
Pending 20
Preamble 20
Press 20
Re-establishment 20
Road 20
Seas 20
Survival 20
TerritoriesSee 20
Transparency 20
WFS 20
WTO 20
WomenUnited 20
Work 20
accepts 20
accident 20
adaptation 20
added 20
advocates 20
al 20
allows 20
ar@@ 20
arises 20
army 20
assume 20
attitude 20
audio-visual 20
award 20
b@@ 20
bottom 20
brokering 20
ceased 20
charges 20
combatants 20
commemorate 20
competition 20
confidentiality 20
countermeasures 20
country-specific 20
decisive 20
declining 20
description 20
docsonline.wto.org 20
droughts 20
empowering 20
excluded 20
failed 20
faithful 20
fall 20
fifty-first 20
finalization 20
firearms 20
forthwith 20
frequency 20
gained 20
healthy 20
households 20
import 20
inside 20
intensifying 20
involuntary 20
involves 20
jeopardize 20
left 20
lending 20
messages 20
minds 20
modification 20
multicultural 20
negatively 20
neither 20
obtaining 20
occurring 20
opponents 20
proposing 20
published 20
qualifications 20
regretting 20
repercussions 20
restored 20
said 20
satisfactory 20
scaling 20
secret 20
send 20
servants 20
short 20
sixty-fifth 20
stands 20
synthetic 20
third-country 20
timeliness 20
unilaterally 20
unimpeded 20
unintended 20
up-to-date 20
upholding 20
vehicles 20
volume 20
witness 20
y@@ 20
&#91; 19
&#93; 19
,000 19
10-14 19
1154 19
1299. 19
18@@ 19
1976 19
19@@ 19
20@@ 19
289 19
308 19
361 19
383 19
488 19
580 19
889-S 19
AU 19
Accords 19
Afghans 19
Amerasinghe 19
Appreciation 19
B@@ 19
Body 19
CONF.I 19
Congolese 19
CrimeResolution 19
Customs 19
Disabled 19
Dissemination 19
E.05.II.A.4 19
Enable 19
Enduring 19
Firearms 19
Hamilton 19
Ituri 19
Khmer 19
London 19
Microcredit 19
Missile 19
Opportunities 19
Populations 19
Portuguese-speaking 19
Proliferation 19
R@@ 19
Reductions 19
Reliable 19
Replace 19
Rouge 19
Shirley 19
Teaching 19
Treaties 19
TreatyUnited 19
Week 19
_ 19
accompanied 19
al@@ 19
arrange 19
awareness-raising 19
board 19
came 19
celebrate 19
comparator 19
conserve 19
constituent 19
cost-sharing 19
criminality 19
deciding 19
departure 19
discussing 19
eight 19
ethnicity 19
floor 19
holders 19
ill 19
industrialized 19
ineffective 19
innocent 19
institute 19
interdepartmental 19
justification 19
leads 19
liabilities 19
lines 19
looking 19
maternal 19
monitored 19
multisectoral 19
non-derogable 19
non-post 19
o 19
optional 19
orphaned 19
pattern 19
post-cold-war 19
precarious 19
preferential 19
programmatic 19
projected 19
propaganda 19
prospective 19
re-establishment 19
refusal 19
rejection 19
retain 19
self-reliance 19
sensitive 19
serves 19
settings 19
shelters 19
shocks 19
team 19
thirds 19
uniformity 19
unprecedented 19
warheads 19
whatever 19
y 19
,100 18
,3@@ 18
10. 18
12. 18
1478. 18
1674. 18
2187 18
23. 18
316 18
417 18
591 18
660 18
8-12 18
A@@ 18
About 18
ActionA 18
Assessment 18
Bethlehem 18
Cambodian 18
Coral 18
D. 18
Dec.@@ 18
Dignity 18
E.02.IV.4 18
Embodying 18
En 18
Enhancing 18
Head 18
Integral 18
Interior 18
Jurisdictional 18
K@@ 18
Lebanese 18
Liability 18
Maintenance 18
Manner 18
Mr. 18
Ombudsman 18
Oxford 18
P-2 18
Paper 18
Reef 18
SPLOS 18
Sahelo-Saharan 18
Senior 18
Survey 18
Tehran 18
Trace 18
accused 18
acknowledged 18
advisers 18
ation 18
ations 18
ban 18
caregivers 18
catastrophic 18
ceases 18
complies 18
complying 18
conciliators 18
congress 18
contexts 18
contracting 18
curricula 18
d@@ 18
deeper 18
define 18
delivered 18
destructive 18
detecting 18
diminish 18
emerged 18
employ 18
enrich 18
eruptions 18
examinations 18
exhibit 18
facilitates 18
false 18
fellowships 18
finalizing 18
fuel 18
furthermore 18
h@@ 18
hearings 18
hereinafter 18
highlighted 18
holds 18
idea 18
ideologies 18
impair 18
inception 18
incidental 18
indicates 18
infections 18
lodge 18
long-standing 18
manifest 18
medium 18
much 18
non-refoulement 18
normalcy 18
obtained 18
online 18
parameters 18
phenomena 18
platform 18
pointed 18
precedent 18
preclude 18
privacy 18
prosecutions 18
publicly 18
purchase 18
quarter 18
recosting 18
rehabilitate 18
reimbursement 18
reliance 18
renewal 18
reoccupation 18
reply 18
resolutely 18
respects 18
responded 18
restoring 18
restrict 18
sent 18
separated 18
sixteenth 18
solely 18
solemnly 18
spare 18
spouse 18
stationing 18
streamline 18
street 18
structured 18
succeeding 18
symposium 18
t 18
threatened 18
totalling 18
tracking 18
transportation 18
twenty-eighth 18
unconditionally 18
underrepresentation 18
unforeseen 18
unions 18
verifying 18
violates 18
warfare 18
websites 18
whereabouts 18
,300 17
,800 17
1197 17
17512. 17
1958 17
1994-7 17
2-E 17
2002. 17
2826 17
337 17
390 17
472 17
481 17
532 17
561 17
574 17
9464. 17
Add.1-3 17
Aires 17
Al-Qaida 17
Alternative 17
Arab-Israeli 17
Based 17
Beyond 17
Buenos 17
CP.3 17
Carnegie 17
Commodities 17
Consular 17
Crops 17
DeclarationResolution 17
Expresses 17
FCCC 17
Fuel 17
INFCIRC 17
Khartoum 17
Lakes 17
Military 17
Observer 17
Occasion 17
OrganizationA 17
Parliament 17
S@@ 17
Settlement 17
Spent 17
Unlawful 17
V. 17
Where 17
a@@ 17
acceleration 17
accommodate 17
accumulated 17
acute 17
adoptions 17
aftermath 17
ages 17
alteration 17
amounting 17
aquaculture 17
assured 17
ate 17
ated 17
attendance 17
auditing 17
buildings 17
chaired 17
choice 17
collate 17
communicable 17
confronting 17
congratulates 17
consistently 17
constrained 17
correct 17
creates 17
delegates 17
deny 17
departmental 17
deriving 17
diminishing 17
disciplinary 17
dispose 17
disregard 17
disruption 17
disseminated 17
dramatically 17
earnings 17
enormous 17
entering 17
execute 17
f@@ 17
fifteen 17
flags 17
freeing 17
fund-raising 17
general-purpose 17
grade 17
greenhouse 17
hamper 17
highlight 17
hundreds 17
imbalance 17
impairs 17
impediment 17
inspection 17
instead 17
intersectoral 17
k 17
longline 17
modifications 17
mothers 17
narrowly 17
neo-Nazism 17
nine 17
outputs 17
outsourcing 17
overcapacity 17
performed 17
persist 17
ports 17
powerful 17
precisely 17
price 17
prioritize 17
procedural 17
province 17
provisionally 17
reception 17
rejects 17
reopening 17
restricts 17
results-oriented 17
round-table 17
safer 17
separately 17
servicing 17
settled 17
standby 17
suffrage 17
suspension 17
synergy 17
thirty-sixth 17
three-year 17
twenty-ninth 17
two-thirds 17
unanimous 17
vendors 17
vigilance 17
vigorously 17
votes 17
workplace 17
worth 17
&apos;is 16
,400 16
,6@@ 16
,7@@ 16
,900 16
,9@@ 16
0.20 16
01 16
1540 16
1612 16
1833 16
1899 16
200,000 16
2131 16
25. 16
25@@ 16
318. 16
38@@ 16
4,@@ 16
423 16
537 16
578 16
904 16
970-973 16
Actuaries 16
Astronauts 16
Berlin 16
Booby 16
ChangeFCCC 16
Coastal 16
Declarations 16
Deputy 16
Deserts 16
Devices 16
Directorate 16
Disappearance 16
Dispute 16
Eurasian 16
Forced 16
Freshwater 16
Future 16
Governance 16
H@@ 16
Inquiry 16
Limits 16
Manufacturing 16
Materials 16
Matignon 16
Meteorological 16
Modern 16
Needs 16
Organisation 16
REPHRASED 16
Recognizing 16
S-12 16
Scope 16
Seabed 16
Single 16
Standards 16
Studies 16
Traps 16
abolition 16
accommodation 16
acknowledgement 16
activists 16
adults 16
advising 16
aggravating 16
allowances 16
amending 16
assumption 16
attempts 16
autonomous 16
became 16
beneficiary 16
capita 16
cards 16
chairing 16
civic 16
clearer 16
closed 16
clusters 16
comes 16
company 16
computer 16
confirming 16
confirms 16
convicted 16
cost-effectiveness 16
damaged 16
deadline 16
dedication 16
defer 16
demining 16
deploy 16
derogation 16
designing 16
destabilizing 16
disproportionate 16
disproportionately 16
distribute 16
drafts 16
educate 16
eligibility 16
embark 16
emerge 16
emissions 16
employees 16
equalization 16
ers 16
experiment 16
expressly 16
family-related 16
farmers 16
fifty 16
file 16
focuses 16
forty-four 16
gains 16
gender-specific 16
good-neighbourly 16
hazard 16
head 16
holdings 16
illicitly 16
imbalances 16
incident 16
irregular 16
kinds 16
looting 16
marks 16
measurement 16
minefields 16
modernize 16
nevertheless 16
nineteenth 16
occurs 16
package 16
peacefully 16
peacemaking 16
pledge 16
prisons 16
profit 16
prosecutors 16
protectionism 16
provider 16
provocation 16
racially 16
recurrence 16
reject 16
relatively 16
residual 16
resolute 16
revitalizing 16
save 16
sessionOfficial 16
slum-dwellers 16
step-by-step 16
suited 16
ted 16
thirty-fourth 16
timetable 16
tireless 16
toxin 16
tremendous 16
troop-contributing 16
true 16
ts 16
underscoring 16
understandings 16
unintentional 16
uprooted 16
user-friendly 16
via 16
violated 16
visibility 16
weak 16
withdrawn 16
,0@@ 15
... 15
1019 15
17-21 15
1915 15
1st 15
2012 15
20378 15
226. 15
24841. 15
277 15
284 15
288. 15
291 15
3511. 15
360 15
395 15
48@@ 15
5.6 15
521 15
55. 15
7A. 15
ActionResolution 15
Aid 15
AssemblyResolution 15
Bucharest 15
C@@ 15
CONF.164 15
CONF.III 15
CommitteeA 15
Consolidation 15
Cotonou 15
Delhi 15
Disputes 15
Each 15
Good 15
II.B 15
IV. 15
Import 15
Investigation 15
L.12 15
L@@ 15
Means 15
Memorandum 15
Muslims 15
Navigation 15
Organizations 15
PV.@@ 15
Palestinians 15
Partnerships 15
Pledging 15
Providing 15
Re@@ 15
Returnees 15
Revolving 15
Statement 15
Strengthen 15
Transboundary 15
W 15
align 15
almost 15
alter 15
amphetamine-type 15
appointing 15
arbitral 15
authentic 15
awarded 15
away 15
ballistic 15
benefited 15
biotechnology 15
boards 15
bridge 15
broadest 15
camp 15
childhood 15
choices 15
commemorative 15
comment 15
commerce 15
compatibility 15
consciousness 15
contentious 15
coping 15
corrigendum. 15
cross-sectoral 15
cycles 15
debts 15
demonstrations 15
denied 15
disarmament-related 15
e@@ 15
el-Sheikh 15
ethics 15
exclude 15
exclusiveness 15
expulsion 15
features 15
fifty-fourth 15
foremost 15
freezing 15
grades 15
hopes 15
house 15
indivisibility 15
inheritance 15
interdiction 15
intermediaries 15
invaluable 15
invoking 15
isolation 15
lacking 15
letters 15
lifelong 15
litem 15
long-lasting 15
m@@ 15
makers 15
marriages 15
meantime 15
memory 15
merits 15
missile 15
morals 15
murder 15
non-threat 15
normally 15
normative 15
nullifies 15
on@@ 15
paedophilia 15
politically 15
pragmatic 15
preconditions 15
prerogative 15
prevalence 15
profile 15
psychosocial 15
quota-free 15
realistic 15
realities 15
refuge 15
replies 15
resistance 15
respectful 15
ri@@ 15
salaries 15
saving 15
sciences 15
separation 15
short-term 15
shrines 15
so-called 15
spokespersons 15
spring 15
stemming 15
stimulants 15
stimulating 15
supervisory 15
sustainably 15
thoroughly 15
threatens 15
ti@@ 15
timetables 15
traffickers 15
trauma 15
trials 15
tribunals 15
tribute 15
truly 15
universities 15
unmet 15
unnecessary 15
venues 15
village 15
visas 15
war-affected 15
war-stricken 15
wars 15
willing 15
words 15
,4@@ 14
.2 14
.8 14
0@@ 14
1,@@ 14
17. 14
1925 14
2001-31 14
2011 14
2205 14
26@@ 14
2819 14
307 14
428 14
474 14
558 14
600 14
658 14
70@@ 14
78@@ 14
848 14
917-S 14
Add.6 14
Add.7 14
Arbitration 14
BangkokTreaty 14
CLCS 14
CN.17 14
Capacity 14
Consolidated 14
Continuing 14
Contracts 14
CourtOfficial 14
Cuban 14
E.87.IX.8 14
Eminent 14
Equality 14
ExCOP 14
G@@ 14
Hong 14
Hydrographic 14
I.B 14
II.A 14
Impact 14
Interregional 14
Kong 14
Korean 14
LEG 14
Leaders 14
M@@ 14
Managua 14
Manufacture 14
Modernization 14
Muslim 14
Negotiation 14
Officials 14
PC 14
Parliamentary 14
Pretoria 14
Prosperity 14
Provide 14
Purpose 14
Race 14
Radio 14
Recognition 14
Reducing 14
Registrar 14
Satellite 14
Slavery 14
Take 14
They 14
Transition 14
Ukraine. 14
XVII 14
XXIV 14
XXXV 14
Zone. 14
abilities 14
acceptances 14
accomplishing 14
adolescent 14
agreeing 14
alert 14
altered 14
alternatives 14
approving 14
arrests 14
author 14
briefing 14
catches 14
chapters 14
checkpoints 14
coexistence 14
communicated 14
complementing 14
completely 14
compromised 14
concentrated 14
conditional 14
consequently 14
consist 14
cooperatively 14
corals 14
corporation 14
cross-border 14
data-collection 14
deforestation 14
deliberately 14
demanded 14
deserve 14
dignified 14
distinctive 14
endemic 14
engine 14
ensured 14
epidemics 14
establishes 14
exacerbated 14
extends 14
feedback 14
fees 14
figures 14
frequent 14
g@@ 14
govern 14
gradual 14
graduating 14
harsh 14
heinous 14
helpful 14
hurricane 14
il@@ 14
illegally 14
image 14
impartially 14
imply 14
indebtedness 14
independently 14
indoor 14
instance 14
instituted 14
intending 14
interact 14
interrelationship 14
l@@ 14
learn 14
linking 14
logistical 14
massacres 14
meanwhile 14
measurable 14
non-core 14
notified 14
offensive 14
optimize 14
owed 14
p@@ 14
penalties 14
persists 14
possess 14
precise 14
predict 14
punishing 14
ranges 14
re-establish 14
readily 14
referendums 14
regulated 14
reinforced 14
rely 14
remainder 14
reportA 14
returned 14
revising 14
scientists 14
seamounts 14
sects 14
sensitizing 14
sentencing 14
seventeenth 14
simplify 14
statelessness 14
subordination 14
subparagraphs 14
suitably 14
surrender 14
tariff 14
temporarily 14
tenure 14
terminology 14
tests 14
theretoIbid 14
translating 14
traps 14
twenty 14
twice 14
unconditional 14
undertook 14
,500 13
,5@@ 13
.1 13
.3 13
.7 13
1,0@@ 13
12@@ 13
1397 13
1520 13
17.@@ 13
1992. 13
2003See 13
2051 13
21. 13
294 13
2997 13
3.@@ 13
30@@ 13
323 13
341 13
37@@ 13
389 13
39. 13
419 13
484 13
518 13
534 13
560 13
565 13
582 13
60@@ 13
68@@ 13
Add.2. 13
Agreed 13
Assisting 13
BarbadosReport 13
Beirut 13
Belgrade 13
Bill 13
Business 13
C.3 13
CL 13
Chinese 13
Christians 13
Components 13
Counter-Narcotics 13
Darfur 13
DevelopmentSee 13
Developments 13
E@@ 13
EX.CL 13
Enhanced 13
Entry 13
Equitable 13
Euro-Mediterranean 13
Genetic 13
Ibero-American 13
Judges 13
Kanak 13
Kiribati 13
Lomé 13
Maghreb 13
Mandate 13
Material 13
Montreal 13
NationsResolution 13
Nazi 13
Non-Governmental 13
Order 13
Overseas 13
Preparedness 13
ReductionResolution 13
Religious 13
Santiago 13
Societies 13
Spanish 13
T@@ 13
TreatySee 13
Vulnerability 13
a. 13
abiding 13
abroad 13
accessing 13
addresses 13
adjust 13
admitted 13
aegis 13
aligning 13
always 13
anti-Semitism 13
aspect 13
assault 13
assuming 13
atrocities 13
begun 13
believe 13
booby 13
c@@ 13
calculation 13
carries 13
chain 13
charters 13
clauses 13
coerce 13
combine 13
competing 13
complements 13
concentrate 13
concentration 13
condoned 13
conferred 13
confidence- 13
consecutive 13
contagion 13
copy 13
courage 13
criminalization 13
deals 13
depleted 13
detentions 13
development-related 13
devolution 13
directions 13
disaster-stricken 13
displacements 13
domestically 13
duty-free 13
el@@ 13
encompassing 13
endangered 13
entail 13
entirely 13
escalation 13
evidenced 13
exacerbate 13
exclusive 13
exemption 13
exerted 13
feature 13
feminization 13
filling 13
forcible 13
forge 13
formats 13
fraudulent 13
freed 13
graduation 13
gravity 13
guilty 13
habitats 13
hard 13
identities 13
impediments 13
inauguration 13
influences 13
influenza 13
informing 13
insofar 13
instrumentalities 13
inter-sessional 13
interpreted 13
invitations 13
judgements 13
landmine 13
mandatory 13
marketing 13
maturity 13
miscellaneous 13
models 13
moratoriums 13
motivation 13
munitions 13
narrow 13
non-tariff 13
notions 13
observing 13
obstruct 13
officer 13
operated 13
overlapping 13
personality 13
possessing 13
posting 13
preceding 13
predicate 13
private-sector 13
pro-poor 13
profoundly 13
prolonged 13
prosperous 13
quantities 13
quotas 13
register 13
replacement 13
reserve 13
reserved 13
reside 13
route 13
seabirds 13
seamless 13
security-building 13
seen 13
seizure 13
sessionIbid 13
sex-disaggregated 13
societal 13
spraying 13
stereotypes 13
symposia 13
testimony 13
then 13
thirty 13
topical 13
transatlantic 13
u@@ 13
unaccounted 13
unverified 13
updates 13
v 13
vigorous 13
weaponization 13
weight 13
1.@@ 12
10-13 12
1194 12
1950 12
1984. 12
1991A 12
1993See 12
2002See 12
22@@ 12
32. 12
351 12
381 12
38544. 12
39@@ 12
453 12
457 12
480 12
490 12
494 12
49@@ 12
506 12
515 12
519 12
547 12
566 12
573 12
573-S 12
593 12
59@@ 12
5E 12
605 12
690 12
763-S 12
790-S 12
815 12
Abduction 12
Anti-Ballistic 12
Brazzaville 12
C.4 12
CONF 12
CONF.172 12
Capacity-building 12
Cessation 12
Commerce 12
Constitutive 12
Consultation 12
CoordinatorCD 12
Creating 12
D-1 12
Damage 12
Decolonization 12
Designing 12
Effectiveness 12
Establish 12
Establishing 12
Explosive 12
F@@ 12
Fact-Finding 12
Fair 12
Growth 12
H. 12
Haitian 12
ImplementationReport 12
Iraqi 12
Islam 12
Kampuchea 12
L. 12
Lifeline 12
Lima 12
Lisbon 12
Manila 12
Minimum 12
Ministry 12
NationsSee 12
Objective 12
Observation 12
OutcomeSee 12
PC.2 12
Palermo 12
Position 12
Private 12
Problems 12
Programmes 12
Rafah 12
Reconciliation 12
Renewable 12
Risk 12
Synergies 12
There 12
Town 12
Vessels 12
Wastes 12
When 12
Without 12
XXXVI 12
Y 12
accompanying 12
alcohol 12
anticipates 12
applicant 12
arbitrators 12
as@@ 12
assisted 12
bacteriological 12
belong 12
bidirectional 12
brings 12
built 12
cancel 12
certainty 12
certifies 12
characterized 12
charter 12
chronic 12
circles 12
claimant 12
coming 12
commendable 12
complaint 12
concludes 12
confirmation 12
conform 12
conserving 12
constraint 12
constructed 12
consultancy 12
contravention 12
controlled 12
convergence 12
credited 12
custom 12
damaging 12
deadlines 12
declaring 12
decreased 12
definitions 12
delineation 12
deployments 12
derogating 12
derogations 12
desecration 12
discount 12
disengagement 12
dismantle 12
division 12
employer 12
en@@ 12
endorse 12
enough 12
ever-increasing 12
exportation 12
fashion 12
fifty-third 12
filled 12
flight 12
flogging 12
four-year 12
freeze 12
fuller 12
gain 12
gender- 12
gender-related 12
harmonized 12
heard 12
herein 12
impetus 12
importation 12
inadmissible 12
index 12
indication 12
indirect 12
inhibits 12
injustices 12
inseparable 12
instructions 12
intensity 12
inter-Korean 12
interlinkages 12
interrelatedness 12
invest 12
investors 12
job 12
joining 12
k@@ 12
kept 12
lawful 12
liberation 12
licensing 12
likewise 12
liquidity 12
loan 12
maltreatment 12
man-made 12
maps 12
mercenary-related 12
microenterprises 12
militias 12
multiplier 12
ninety 12
non-Latin 12
non-international 12
notice 12
optimal 12
originating 12
outbreak 12
overlap 12
periodicity 12
pivotal 12
plus 12
polymetallic 12
preference 12
prescribe 12
preventable 12
purport 12
quota 12
rationalize 12
re-@@ 12
re-elected 12
reconvened 12
recreational 12
redesignated 12
reef 12
refine 12
refoulement 12
refraining 12
regarded 12
reintegrate 12
remedial 12
renounce 12
renovation 12
rent 12
rental 12
residing 12
reversing 12
run 12
runs 12
satisfy 12
scripts 12
sessionSee 12
specificity 12
spectrum 12
straits 12
suggested 12
supply-side 12
surrounding 12
tailored 12
tariffs 12
taupulega 12
thirty-first 12
thirty-third 12
trace 12
undernourished 12
underpinning 12
undesirable 12
unpaid 12
upbringing 12
user 12
version 12
versions 12
victimization 12
video 12
waters 12
widows 12
works 12
worship 12
07 11
1001 11
1377 11
1957 11
1994A 11
2004Ibid 11
2056 11
21.@@ 11
2167 11
280 11
310 11
319 11
3327 11
33480 11
33@@ 11
401 11
40@@ 11
415 11
432 11
464 11
476 11
477 11
5-16 11
50@@ 11
511 11
530 11
53rd 11
550 11
571 11
572 11
57@@ 11
581 11
596 11
625 11
780 11
823 11
86th 11
9,@@ 11
976 11
Abolition 11
Add.4. 11
Adequate 11
AgendaReport 11
Al-Quds 11
Arbitral 11
Armistice 11
Audit 11
Awards 11
Awareness 11
Balkans 11
CONF.15 11
Canouan 11
Capture 11
Chairman-in-Office 11
Clarification 11
Concluding 11
Corrected 11
Crisis 11
Decl 11
Donors 11
Elaboration 11
Examination 11
Export 11
Historical 11
Increase 11
Infrastructure 11
Ireland. 11
Islamabad 11
Islamophobia 11
Line 11
Nadi 11
Nam. 11
NationsA 11
Ownership 11
Parking 11
Plus 11
Prohibiting 11
ProtocolIbid 11
Quito 11
REC 11
Remnants 11
Resolutions. 11
SS 11
Safer 11
Should 11
Statistics 11
Subject 11
Team 11
Turtles 11
UN-Oceans 11
Ulaanbaatar 11
WeaponsSee 11
Welcomes 11
WomenReport 11
Workshop 11
abandoned 11
abolished 11
adapted 11
adequacy 11
affording 11
aggregate 11
anti-trafficking 11
archaeological 11
arisen 11
artisanal 11
ates 11
augment 11
behind 11
bienniums 11
block 11
bombings 11
branch 11
brief 11
bulk 11
chairmanship 11
chairpersons 11
co-sponsors 11
committing 11
communal 11
compensate 11
contemplated 11
content-providing 11
contractors 11
contravene 11
coordinates 11
counterparts 11
de@@ 11
defeat 11
deferred 11
denounce 11
dependants 11
dependency 11
deprive 11
depth 11
derelict 11
destabilize 11
detail 11
develops 11
disappointment 11
easily 11
ecologically 11
editorial 11
el 11
emergency-related 11
empowered 11
en 11
encompass 11
encompasses 11
entrepreneurial 11
enunciated 11
es@@ 11
evidentiary 11
examples 11
excellence 11
exhausted 11
expense 11
explicit 11
exploiting 11
explored 11
extremism 11
factual 11
few 11
forest-related 11
formed 11
forty-one 11
g 11
gas 11
gathered 11
geological 11
go 11
gradually 11
h 11
huge 11
hydrothermal 11
i@@ 11
immunization 11
incest 11
inextricably 11
infrastructural 11
instrumental 11
intends 11
interactions 11
introducing 11
killed 11
liberating 11
listing 11
malaria-related 11
mark 11
merely 11
monuments 11
moving 11
n@@ 11
names 11
navigational 11
nuclear-arms 11
nuclear-weapon-test 11
nutritious 11
obstructing 11
obstructs 11
operationalize 11
opportune 11
overfishing 11
overthrowing 11
page 11
passed 11
performance-based 11
personalities 11
pointing 11
post-natal 11
pre-eminent 11
pre@@ 11
presentations 11
prevents 11
principally 11
profiling 11
pursuits 11
quickly 11
recommending 11
recruiting 11
reforming 11
refuse 11
regulating 11
reletter 11
remote-sensing 11
renamed 11
rendering 11
repair 11
repressive 11
resuming 11
retaining 11
satisfying 11
sector-wide 11
sense 11
settling 11
shortfalls 11
si@@ 11
similarly 11
sport-related 11
standard-setting 11
statutes 11
streets 11
studied 11
suspend 11
swing 11
sympathy 11
tangible 11
telemedicine 11
tions 11
title 11
translated 11
troops 11
try 11
twenty-five 11
university 11
vents 11
verbatim 11
.4 10
.5 10
.9 10
10-17 10
104. 10
1125. 10
119. 10
1342 10
1359 10
1456 10
18. 10
21360 10
22464 10
22495. 10
24-28 10
299 10
31363 10
321 10
33873. 10
34@@ 10
35597. 10
365 10
385 10
39574. 10
421 10
446 10
448 10
454 10
470 10
47@@ 10
4Rs 10
501 10
502 10
531 10
563 10
626 10
63rd 10
763 10
80th 10
Actions 10
Add.5. 10
Addressing 10
AfricaA 10
Agricultural 10
All-Inclusive 10
Application 10
AssemblySee 10
Belonging 10
CN.15 10
CN.7 10
Caused 10
Chamber 10
Circulation 10
Conakry 10
Concerning 10
Defence 10
Descent 10
DestructionSee 10
Dimension 10
DiversitySee 10
Documentation 10
E.00.IV.8 10
Enhancement 10
Ensure 10
Ethnic 10
Evian 10
Forty-fifth 10
Girls 10
Good-neighbourly 10
Helsinki 10
I.@@ 10
II.C 10
ISBA 10
Improved 10
In@@ 10
Iranian 10
Jews 10
Kivu 10
Kurds 10
Linguistic 10
MSP 10
Market 10
Mesoamerican 10
Number 10
O@@ 10
Participants 10
Performance 10
Projects 10
RC-1 10
Recommendations 10
Rehabilitation 10
Reinventing 10
Requests 10
Rev.1. 10
Reykjavik 10
Sarajevo 10
Sector 10
Shan 10
Slums 10
Summits 10
Supplementary 10
Surveillance 10
Temporary 10
Thirty-fourth 10
Tolerance 10
Trade-Related 10
Trends 10
Tripartite 10
Turkmen 10
Understanding 10
Uruguay. 10
Vice-Chair 10
War-Affected 10
Winnipeg 10
Winter 10
With 10
XXIII 10
abrogate 10
abusive 10
academia 10
actor 10
advocate 10
affirmative 10
affront 10
alternate 10
announcements 10
antiretroviral 10
ap@@ 10
artefacts 10
artemisinin-based 10
assigning 10
assists 10
athletes 10
attachment 10
bases 10
benefit-sharing 10
breaking 10
candidate 10
cargo 10
certified 10
charting 10
circulated 10
closing 10
closures 10
collected 10
commemorated 10
compiling 10
complied 10
comprise 10
conceal 10
concise 10
controlling 10
correspond 10
coupled 10
curfews 10
decreasing 10
deliberative 10
demobilize 10
depository 10
descendants 10
desktop 10
deteriorating 10
deterring 10
disaster-prone 10
discourage 10
discrete 10
dispatched 10
diversities 10
dual 10
eliminated 10
elsewhere 10
enables 10
enjoying 10
exercises 10
exit 10
explain 10
exposure 10
extraditable 10
factions 10
fairly 10
fauna 10
finalized 10
finances 10
flora 10
fly 10
forty-five 10
gaining 10
garage 10
gases 10
going 10
grow 10
guideline 10
he@@ 10
hence 10
high-priority 10
hostility 10
household 10
hubs 10
ic 10
ideological 10
imports 10
imprisoned 10
inaccurate 10
incumbent 10
inequitable 10
infringe 10
inhalants 10
initially 10
insecticides 10
installation 10
intentions 10
interconnected 10
interfaith 10
intergenerational 10
investing 10
juveniles 10
largely 10
laying 10
legitimately 10
licit 10
lift 10
lifting 10
liquidation 10
m 10
manager 10
manual 10
manuals 10
matrix 10
meant 10
medicine 10
menace 10
mis@@ 10
money 10
multinational 10
narcotics 10
nationalist 10
necessarily 10
neutral 10
nil 10
nomination 10
non-commercial 10
non-traditional 10
nutritional 10
objection 10
objections 10
omissions 10
onset 10
oriented 10
ous 10
outlining 10
output 10
particulars 10
passion 10
peninsula 10
permanently 10
permits 10
perpetration 10
perpetuation 10
phrase 10
post-@@ 10
posted 10
practise 10
preferred 10
prejudge 10
presences 10
printed 10
prioritized 10
r@@ 10
ra@@ 10
reality 10
reasonably 10
reconfirmed 10
red 10
refused 10
region-specific 10
releases 10
relieve 10
renewing 10
resorting 10
responsibly 10
responsiveness 10
restriction 10
restructure 10
revenue 10
revitalized 10
richness 10
scientifically 10
sea-level 10
securities 10
selective 10
sensitivity 10
servitude 10
sessionResolution 10
set-off 10
setback 10
simple 10
simultaneous 10
situated 10
sixteen 10
slums 10
space-related 10
speed 10
sponsors 10
stabilize 10
status-of-forces 10
status-of-mission 10
stigma 10
strongest 10
subcommissions 10
suggests 10
t@@ 10
tends 10
tens 10
three-tiered 10
toll 10
twenty-fourthResolution 10
unlikely 10
usually 10
verbale 10
versa 10
vice 10
virtually 10
weakening 10
word 10
wrongfulness 10
younger 10
youth-led 10
-S 9
-based 9
-related 9
.Resolution 9
.See 9
0.5 9
1,9@@ 9
1026-S 9
1064. 9
1196 9
11@@ 9
124. 9
1267 9
1368 9
14. 9
14152. 9
14458. 9
1495 9
14956. 9
16. 9
2,@@ 9
20. 9
2000A 9
2001-2003 9
209. 9
24111. 9
26363 9
27. 9
277-S 9
2777 9
289. 9
298 9
3.1 9
30822 9
30th 9
312. 9
3235 9
3281 9
33757. 9
350 9
355 9
358 9
373 9
386 9
388 9
392 9
405 9
40th 9
420 9
429 9
43@@ 9
469 9
46@@ 9
472-S 9
473 9
479 9
485 9
496 9
50,000 9
507 9
512 9
522 9
535 9
549 9
570 9
589 9
648 9
736 9
9.@@ 9
90@@ 9
932 9
97@@ 9
989 9
AC.154 9
Abu-Ghneim 9
ActionSee 9
Add.7. 9
Add.@@ 9
Address 9
Admission 9
Age 9
Appeal 9
Arbitrary 9
Areas 9
BMS 9
Biodiversity 9
CONF.203 9
Call 9
Capacities 9
Case 9
Causes 9
ChildIbid 9
Christianophobia 9
Chronicle 9
Compilation 9
Compulsory 9
Concrete 9
Concurring 9
Consideration 9
Context 9
CouncilA 9
Detention 9
DevelopmentResolution 9
Diamond 9
Diseases 9
Duties 9
E.75.II.A.3 9
EffectsSee 9
Fifteenth 9
Fifty-first 9
Fishery 9
Follow 9
Forty-fourth 9
FundA 9
Funds 9
Holocaust 9
I.A 9
III.D 9
Identifying 9
Indias 9
Insolvency 9
Internally 9
Jabal 9
José 9
Kampala 9
Knowledge 9
L.10 9
L.@@ 9
Membership 9
Mitch 9
Nationals 9
Nuclear-weapon-free 9
Older 9
Organizational 9
Peer 9
Policies 9
Portuguese 9
Real 9
Reconfirming 9
Refugee 9
RefugeesUnited 9
Regions 9
Registry 9
Representatives 9
Responses 9
Restitution 9
Revitalization 9
S-15 9
SP 9
SS.VII 9
Sanitation 9
Secretary-GeneralE 9
Section 9
Shared 9
Slave 9
Socialist 9
Soviet 9
Summary 9
Symposia 9
Territorial 9
Traditional 9
Tribunals 9
Twenty-seventh 9
V@@ 9
Valley 9
Vision 9
Volunteer 9
XXXVII 9
ab@@ 9
accompany 9
accrue 9
ad@@ 9
adhering 9
adviser 9
affirm 9
afforded 9
ag@@ 9
agro-industry 9
ahead 9
aids 9
airport 9
alignment 9
alizing 9
allowed 9
am@@ 9
an@@ 9
animal 9
anti-corruption 9
ants 9
appear 9
appreciative 9
apprise 9
ar 9
ati@@ 9
attempting 9
attribution 9
authorizing 9
avoided 9
balancing 9
ballot 9
baseline 9
benchmark 9
boundaries 9
brutal 9
caught 9
clean 9
cobalt-rich 9
codified 9
cohesion 9
commenced 9
comprised 9
concealment 9
concession 9
condemnable 9
condolences 9
consensual 9
consumers 9
contingent 9
corners 9
cost-saving 9
councils 9
counteract 9
crusts 9
curative 9
decentralization 9
declarationResolution 9
decree 9
default 9
deficiencies 9
demonstration 9
deportation 9
depriving 9
des 9
destiny 9
detainee 9
detaining 9
differently 9
directing 9
disbursement 9
discharged 9
disclose 9
distress 9
duplicate 9
e-@@ 9
early-warning 9
earmarked 9
eleven 9
endorsing 9
enjoyed 9
er@@ 9
ex@@ 9
executed 9
exemplary 9
exempt 9
expectation 9
experiencing 9
explanation 9
extra 9
faith-based 9
famine 9
feed 9
forcibly 9
foreseeable 9
forestall 9
forty 9
framed 9
gathering 9
governs 9
guides 9
handling 9
haven 9
helps 9
herself 9
himself 9
hiring 9
hoping 9
hospitals 9
implementation-related 9
in-country 9
incoming 9
incremental 9
indicative 9
influencing 9
inquiries 9
intelligence 9
intent 9
inter-governmental 9
interrogation 9
intraregional 9
it@@ 9
j 9
leaving 9
legacy 9
life-cycle 9
lifestyles 9
livestock 9
locate 9
locations 9
ly 9
manifestation 9
match 9
meaning 9
meets 9
mine-awareness 9
modify 9
morally 9
municipal 9
narrowing 9
nation 9
nearly 9
non-food 9
non-political 9
north-east 9
o@@ 9
omission 9
operates 9
operator 9
opportunistic 9
p.m. 9
participates 9
pays 9
perception 9
peremptory 9
periodicals 9
perpetrate 9
persisting 9
physically 9
plenipotentiaries 9
policymakers 9
positioning 9
possibly 9
practised 9
precious 9
precursor 9
presumed 9
prioritization 9
promise 9
prompted 9
proved 9
purely 9
quantitative 9
quarters 9
quoted 9
re-establishing 9
reaches 9
reciprocity 9
reconcile 9
rectify 9
registering 9
relying 9
rent-free 9
renumber 9
reorganization 9
resistant 9
restraint 9
resurgent 9
retiring 9
room 9
seafarers 9
seeks 9
select 9
self-defence 9
seventy-five 9
seventy-second 9
skinhead 9
slick 9
smaller 9
solicit 9
specificities 9
specify 9
st 9
stabilizing 9
start-up 9
statehood 9
stay 9
steady 9
stereotyping 9
stipulating 9
stockpile 9
stoning 9
strains 9
strengthens 9
subjection 9
subregions 9
suspended 9
swaps 9
symbols 9
symposiums 9
theft 9
therapy 9
theretoResolution 9
tolerated 9
totally 9
towns 9
trade-off 9
trans-shipment 9
treatments 9
trees 9
truce 9
trustee 9
tsunamis 9
turbulence 9
turning 9
unacceptable 9
unacceptably 9
undersigned 9
understood 9
unfolding 9
unjust 9
unpunished 9
unrestricted 9
value-added 9
variability 9
varying 9
venture 9
venue 9
waiver 9
whomever 9
worsening 9
ying 9
{ 9
} 9
0.001 8
0.2 8
1304 8
13A 8
14691. 8
149-162. 8
1503 8
1653 8
19. 8
1930 8
1949Ibid 8
1971Ibid 8
1980s 8
1998See 8
2,8@@ 8
2.5 8
2005See 8
2114 8
2220 8
2252 8
2341 8
28.@@ 8
30. 8
309 8
331 8
334 8
346 8
35457. 8
35@@ 8
364 8
377 8
398 8
4.25 8
435. 8
44@@ 8
455 8
456 8
486 8
489 8
489. 8
5.2 8
5.@@ 8
5158. 8
562 8
5700. 8
58@@ 8
59th 8
603 8
687. 8
702 8
74@@ 8
7515. 8
845 8
874 8
88@@ 8
89-E 8
9-13 8
913 8
984 8
999 8
AP.II 8
Accident 8
Activity 8
Add.8 8
Alliances 8
Ambassador 8
Analysis 8
Anti-Discrimination 8
Approach 8
Appropriation 8
Assignment 8
Assist 8
Assure 8
Baghdad 8
BangkokUnited 8
Blinding 8
Bujumbura 8
By 8
CERD 8
CN.10 8
Caledonian 8
Catch 8
Chairman-designate 8
Chernobyl-related 8
Co@@ 8
Confidence-building 8
Considering 8
Consultations 8
Corr.2. 8
CrimeFormerly 8
Crossing 8
DP 8
Daw 8
Delete 8
Demining 8
DestructionUnited 8
DevelopmentIbid 8
Disability 8
DisarmamentThe 8
DisastersIbid 8
Durable 8
Dushanbe 8
E-VII 8
E.92.IX.1 8
ES-V 8
Eid 8
Enhance 8
Envoys 8
Exportation 8
External 8
FIPL 8
Financed 8
FishCode 8
Forty-sixth 8
Fragments 8
Friday 8
Guaranteeing 8
Guarantees 8
Guardian 8
Guayaquil 8
HRI 8
Harare 8
Hazardous 8
Hebron 8
Helms-Burton 8
Hybrid 8
II.A. 8
III.A 8
III.F 8
Importation 8
Improvement 8
Incendiary 8
Increasing 8
Institution 8
Integrating 8
Inter-Congolese 8
Introduction 8
Investigations 8
Is 8
IslandsA 8
J@@ 8
Jewish 8
L.22 8
L.23 8
L.24 8
L.34 8
L.36 8
L.39 8
L.4 8
LXXII 8
Laser 8
MSP.1 8
Major 8
Mercenaries 8
Merida 8
Midrand 8
Mobilization 8
Moratorium 8
Nations-sponsored 8
Necessity 8
Nineteenth 8
Non-Detectable 8
Non-Nuclear-Weapon 8
Observance 8
OfficeOfficial 8
OperationsSee 8
Orders 8
Origin 8
Outreach 8
PacificA 8
Palais 8
Participating 8
Participation 8
PeoplesResolution 8
Practical 8
Presence 8
Prevention. 8
Prime 8
Prism 8
Privately 8
PunishmentResolution 8
Purchase 8
Recruitment 8
Rector 8
Reiterates 8
Representation 8
Routes 8
Rural 8
S-21 8
SR.30 8
Safeguards 8
School 8
Shanghai 8
Signatories 8
Signing 8
Sixteenth 8
South-West 8
Specific 8
Stateless 8
Statutes 8
Supporting 8
Supreme 8
Swiss 8
Symposium 8
TRIPS 8
Tashkent 8
Terrorist 8
Turin 8
U@@ 8
UN 8
Undertaking 8
Underwater 8
Union-United 8
V.B 8
W@@ 8
WITNESS 8
Warmly 8
Web 8
XXXIV 8
Zones 8
abductee 8
abducting 8
accidents 8
addressee 8
adhered 8
administer 8
advocating 8
aerial 8
albatrosses 8
ality 8
allay 8
allocating 8
anomaly 8
anti-dumping 8
appendices 8
applauding 8
appraise 8
aquatic 8
arms-limitation 8
array 8
artemisinin 8
assistive 8
assuring 8
attributes 8
audits 8
aut 8
avian 8
avoidance 8
backstopping 8
basin 8
beach 8
belts 8
bias 8
biodiversity-related 8
bombardment 8
builds 8
bulletin 8
bureaucratic 8
catastrophes 8
catering 8
celestial 8
cherishing 8
childcare 8
collisions 8
comparison 8
complexities 8
con@@ 8
contiguity 8
convoys 8
corollary 8
council 8
courageous 8
crossings 8
customers 8
cuts 8
cyclones 8
de-alert 8
deactivate 8
defenceless 8
demobilized 8
demonstrable 8
destroyed 8
diagnostic 8
digest 8
disavowal 8
disbandment 8
disturbance 8
doctrine 8
doses 8
dwellers 8
e-mail 8
easy 8
educated 8
educating 8
efficiencies 8
eighteen 8
electronically 8
emplacement 8
enacted 8
encounters 8
end@@ 8
endangerment 8
endowment 8
engendered 8
enjoys 8
enlarging 8
enriches 8
envoys 8
ep@@ 8
equipped 8
ering 8
error 8
euro 8
evacuation 8
evictions 8
ex-combatants 8
exclusively 8
exemplifies 8
expended 8
failures 8
fashioning 8
fearing 8
fewer 8
fishers 8
fixed 8
fluctuations 8
forensic 8
forming 8
gateway 8
geothermal 8
graduated 8
ground-based 8
gulf 8
halting 8
harness 8
health-related 8
hear 8
holy 8
identifiable 8
inadequacy 8
incomes 8
inflicted 8
informational 8
inhabited 8
inhibit 8
inhumane 8
institutionalize 8
intangible 8
integrates 8
inter@@ 8
intervals 8
invalidate 8
inventories 8
ism 8
kill 8
know 8
knowledge-sharing 8
landowners 8
lease 8
machineries 8
maim 8
maintains 8
malfunctions 8
medication 8
ments 8
midpoint 8
mine-detection 8
mine-related 8
ministerial-level 8
misconduct 8
mix 8
mixed 8
modernizing 8
narratives 8
nexus 8
non- 8
non-legally 8
non-trade 8
norm 8
notifications 8
obeying 8
ol@@ 8
one-time 8
or@@ 8
organizers 8
orientations 8
originally 8
originator 8
out@@ 8
outbreaks 8
outsourced 8
overthrow 8
p. 8
penalized 8
permeate 8
philosophical 8
playing 8
pool 8
portion 8
portions 8
possessor 8
possessors 8
practitioners 8
preceded 8
preferences 8
prerogatives 8
prevented 8
prominence 8
prominently 8
prospecting 8
protection-oriented 8
protectionist 8
protective 8
proven 8
provinces 8
provoke 8
proximity 8
purported 8
quinquennial 8
rapporteur 8
rating 8
rational 8
rationale 8
re-examination 8
rebel 8
recalled 8
recording 8
rectifying 8
reflagging 8
reflection 8
region-wide 8
remembrance 8
remoteness 8
reportedly 8
repressing 8
responds 8
restraints 8
restricted 8
resurgence 8
reveal 8
revived 8
riparian 8
robust 8
roster 8
scheduling 8
scrutiny 8
secured 8
seemingly 8
sees 8
self-employment 8
self-revision 8
sentenced 8
severity 8
sewage 8
sexuality 8
ship-generated 8
shores 8
shortages 8
slower 8
spaceTreaty 8
spending 8
stalling 8
stories 8
strenuously 8
structuring 8
student 8
stumbling 8
sub@@ 8
successes 8
suicide 8
sulphides 8
summer 8
supplemented 8
surviving 8
suspicious 8
teachers 8
tele-education 8
tend 8
tendencies 8
thSee 8
thanking 8
therapies 8
therefor 8
thirty-three 8
tive 8
tobacco 8
trade-distorting 8
tradition 8
training-related 8
transform 8
turn 8
turtles 8
twenty-thirdResolution 8
twenty-two 8
two-track 8
two-year 8
umbrella 8
undocumented 8
unduly 8
unexplained 8
unfavourable 8
unjustified 8
urbanizing 8
v@@ 8
valuation 8
viewpoints 8
visibly 8
w@@ 8
wages 8
want 8
war@@ 8
water-related 8
well-coordinated 8
well-targeted 8
wind 8
woman 8
www.un.org 8
&apos;i 7
.14 7
.org 7
0. 7
1,4@@ 7
1,8@@ 7
1-@@ 7
1.2 7
1272 7
1296 7
1371 7
153. 7
1539 7
1582 7
16-20 7
1929 7
1969United 7
1972Resolution 7
1992CD 7
1994. 7
1997A 7
1998-1999 7
1999. 7
2,7@@ 7
2001-2010A 7
2001S 7
2001See 7
2005-2009 7
21-28. 7
2138. 7
21@@ 7
22. 7
2237 7
232. 7
2345 7
2443 7
258-S 7
26. 7
2621 7
26705 7
28. 7
29. 7
298. 7
305-S 7
306 7
313 7
314 7
325 7
327 7
3369 7
347. 7
349. 7
3499 7
360. 7
36@@ 7
37924 7
380 7
381. 7
400 7
408 7
449 7
450 7
460 7
46th 7
471 7
475 7
487 7
498 7
5,@@ 7
5-9 7
500 7
517 7
528 7
538 7
53@@ 7
554 7
576 7
586 7
597 7
598 7
61. 7
610 7
620 7
651 7
653 7
67@@ 7
681 7
682 7
69@@ 7
724 7
76@@ 7
809. 7
8638. 7
868-S 7
928 7
93. 7
944 7
950 7
986 7
AC.51 7
Abkhazia 7
Achieving 7
Add 7
Add.11 7
Adoption 7
Agrarian 7
Arising 7
As 7
Asphyxiating 7
Authorities 7
Bata 7
Belarusian 7
BoardA 7
CONF.V 7
COP.7 7
CRC 7
Chamorros 7
Co-Chairmen 7
Coalition 7
Comments 7
Communiqué 7
Conclusion 7
Contributing 7
CorruptionResolution 7
Crimes 7
Criteria 7
Debris 7
Designates 7
DiscriminationUnited 7
DisplacementE 7
DiversityUnited 7
Due 7
Dumping 7
Ecosystem 7
EcosystemE 7
En@@ 7
Equipment 7
Ex@@ 7
F. 7
Fisheries-Related 7
Friendship 7
GC.23 7
Gases 7
Goal 7
Goods 7
Heliophysical 7
Hundred 7
I@@ 7
II.E 7
III.4 7
III.F. 7
Incidental 7
Industry 7
Infectious 7
Inter@@ 7
Interested 7
Interests 7
Islands-United 7
It 7
Kanazawa 7
Kinshasa 7
L.16 7
L.17 7
L.31 7
L.33 7
L.37 7
L.38 7
L.40 7
L.42 7
L.43 7
L.45 7
L.7 7
L.9 7
Lasting 7
Laundering 7
Leadership 7
Learning 7
Local 7
Longline 7
Luanda 7
MSP.2 7
MSP.3 7
Majuro 7
Making 7
Malabo 7
Manifesto 7
Matter 7
Melanesian 7
Minsk 7
Mobile 7
N@@ 7
Negotiate 7
Not 7
OC-16 7
Olympiad 7
Oo 7
Orthodox 7
P-1 7
PersonsIbid 7
Poisonous 7
Preferences 7
Recalls 7
Receivables 7
Republics 7
Sale 7
Seabirds 7
Sharing 7
Sixty-third 7
Statelessness 7
Stolen 7
Sudanese 7
Television 7
Thematic 7
Thirty-third 7
TribunalSPLOS 7
Twenty-eighth 7
Utilization 7
Uzbekistan. 7
VIII.A. 7
Warfare 7
WomenIbid 7
X. 7
XCIV 7
Zonéco 7
abducted 7
abhorrent 7
abridgement 7
accurately 7
adapting 7
addiction 7
administrator 7
affirmation 7
al-Adha 7
al-Fitr 7
alerts 7
ameliorating 7
amputation 7
ans 7
ant 7
anthropogenic 7
apparent 7
archival 7
ari@@ 7
articulate 7
assignees 7
assumptions 7
at@@ 7
attractive 7
attribute 7
automated 7
barrier 7
be@@ 7
biennially 7
bis 7
bo@@ 7
bond 7
bordering 7
bottom-up 7
build-up 7
bureau 7
catalyst 7
celebrated 7
ceremonies 7
certificates 7
ces 7
changed 7
child-@@ 7
choosing 7
citizen 7
clarity 7
classified 7
cleansing 7
co-@@ 7
commissioned 7
communicating 7
compounded 7
compromising 7
computer-related 7
consensus-building 7
constant 7
construed 7
convey 7
convince 7
corporal 7
correcting 7
cost-of-living 7
covert 7
credibility 7
critically 7
cross 7
currencies 7
decrees 7
definitive 7
deliberation 7
demand-driven 7
dependence 7
derives 7
destabilization 7
died 7
dies 7
ding 7
discipline 7
discontinue 7
disharmony 7
distance 7
donation 7
doping 7
drift 7
driven 7
drug-related 7
earth 7
easing 7
economics 7
ed@@ 7
emancipation 7
embodying 7
encounter 7
endangers 7
endogenous 7
enduring 7
enriched 7
entrepreneurs 7
ever-widening 7
exceptions 7
excluding 7
exemptions 7
exhibitions 7
expedited 7
explicitly 7
exploitative 7
facilitator 7
fifty-five 7
figure 7
fin-fish 7
flagship 7
fleet 7
forty-nine 7
forward-looking 7
furnished 7
gender-equality 7
geographically 7
hair-trigger 7
hall 7
handle 7
hands 7
heightening 7
helped 7
henceforth 7
hereby 7
high-risk 7
holidays 7
homeland 7
hydrometeorological 7
illustrated 7
im@@ 7
images 7
immense 7
implicated 7
impossible 7
inaugural 7
indices 7
indicted 7
indivisibly 7
inflict 7
influenced 7
inter-committee 7
interrupted 7
intervening 7
invasive 7
inventory 7
irresponsible 7
ix 7
journals 7
jurisdictions 7
la@@ 7
legislature 7
mail-based 7
man 7
manifested 7
mapping 7
measuring 7
militarily 7
minimal 7
mistreatment 7
misused 7
modality 7
mode 7
monitors 7
multi-hazard 7
nationwide 7
ne@@ 7
no@@ 7
noble 7
nominating 7
nuclear-related 7
nuclear-weapons 7
occasioned 7
om@@ 7
oppression 7
optimizing 7
orchards 7
ordered 7
outrage 7
oversee 7
owner 7
parental 7
pass 7
path 7
pay-for-performance 7
peacekeepers 7
persistently 7
pests 7
phasing 7
planSee 7
planet 7
plants 7
plebiscite 7
plundering 7
preserved 7
prime 7
professionalism 7
professions 7
profitability 7
publishing 7
questionnaire 7
rationalizing 7
readers 7
reassurance 7
reclassification 7
recover 7
recurring 7
redressing 7
refers 7
reforestation 7
regrettably 7
rejecting 7
remarks 7
reminding 7
renunciation 7
res 7
researchers 7
respiratory 7
resultant 7
retirees 7
revoking 7
rooms 7
rosters 7
sA 7
sake 7
satisfied 7
scarcity 7
scholars 7
scourges 7
seats 7
self-@@ 7
self-governing 7
self-reliant 7
seventy-six 7
sh@@ 7
sharpen 7
shelling 7
shortage 7
shortcomings 7
show 7
showing 7
shows 7
social-humanitarian 7
soil 7
solar 7
specialists 7
speech 7
spent 7
sponsoring 7
stand 7
standardization 7
stating 7
station 7
stockpiled 7
striving 7
sts 7
subprogrammes 7
substantively 7
substitution 7
succeed 7
sum 7
summaries 7
super-Powers 7
suppressed 7
suppressing 7
surge 7
surprise 7
symbiotic 7
ta@@ 7
te@@ 7
termed 7
terminated 7
th 7
th@@ 7
theories 7
thirty-four 7
though 7
tion 7
tolerant 7
top 7
tours 7
trans@@ 7
transforming 7
transit-related 7
tripartite 7
truth 7
um@@ 7
uncertainties 7
unwavering 7
upward 7
uranium 7
urbanization 7
us 7
usher 7
utility 7
vary 7
verbal 7
verified 7
vi 7
vis-à-vis 7
visited 7
vitiate 7
waive 7
warrant 7
watershed 7
well-informed 7
work@@ 7
www.unhcr.org. 7
www.unodc.org 7
z@@ 7
,00@@ 6
.6 6
1,000 6
1.5 6
1011. 6
1037 6
120. 6
1265 6
1416 6
1429 6
1478 6
14956 6
1506 6
1624 6
175. 6
190. 6
1965 6
1990A 6
1990sResolution 6
1995CD 6
1999S 6
2,0@@ 6
2,3@@ 6
20-24 6
2001-2005 6
2004World 6
2006-2010 6
2058 6
2153 6
22-27 6
2296 6
263. 6
274. 6
27627 6
27C.@@ 6
28A 6
294. 6
297 6
3-10 6
3-21 6
3.2 6
301 6
303. 6
31,000 6
311. 6
31363. 6
320 6
3236 6
326 6
335 6
3375 6
3376 6
339 6
34. 6
347 6
35. 6
367. 6
375 6
37605. 6
38544 6
39th 6
4.@@ 6
40,000 6
407 6
40906. 6
436 6
436. 6
437 6
440 6
467 6
468 6
491 6
495 6
504 6
50th 6
513 6
526 6
546. 6
548 6
553 6
557 6
567 6
578. 6
592 6
5K 6
5L 6
601 6
608 6
60th 6
61-E 6
616 6
630 6
687 6
710 6
733 6
742 6
77@@ 6
80@@ 6
830 6
846 6
86-E 6
86@@ 6
87-E 6
90-E 6
91st 6
98@@ 6
999. 6
= 6
AA 6
AC.@@ 6
AI 6
AIDSResolution 6
ActivitiesA 6
Actuary 6
Add.1-7. 6
Add.1-E 6
Add.12 6
Add.6. 6
Advanced 6
AgenciesResolution 6
Al-Amud 6
Alps 6
Amphetamine-type 6
Andijan 6
Anti-Personnel 6
Arrangement 6
Arta 6
Assistants 6
Associations 6
Asylum 6
Athens 6
Audiovisual 6
Ballistic 6
Ban 6
Banjul 6
Basin 6
Biennial 6
Bilateral 6
BoardOfficial 6
CONF.5 6
CONF.IV 6
COP.1 6
Caymanian 6
ChangeUnited 6
Collaborative 6
Collective 6
Commissions 6
CommitteeOfficial 6
CommunicationSee 6
ConferenceBWC 6
Consulting 6
Convening 6
Corr 6
Corr.3 6
DDT 6
Danube 6
Dec.155 6
Dec.531 6
Decl.6 6
Definition 6
Directory 6
Dis@@ 6
Draft 6
E-V 6
E.03.V.2 6
E.94.XI.5 6
El-Sheikh 6
Enabling 6
Exported 6
FIEL 6
Fiscal 6
Fixed 6
Fortieth 6
Free 6
Frente 6
Fédération 6
GEN 6
Grants 6
Gulf 6
Helenians 6
Hiroshima 6
Housing 6
II.@@ 6
II.D 6
III.C. 6
IIbid 6
IMO 6
Id 6
Illegally 6
Inter-Virgin 6
Interpretation 6
Intranet 6
Jenin 6
Juridical 6
JusticeSee 6
Kananaskis 6
Karen 6
Kingston 6
L.1 6
L.11 6
L.19 6
L.21 6
L.28 6
L.32 6
L.49 6
L.50 6
LC.2 6
La 6
Laws 6
Live 6
Located 6
MSP.4 6
Madang 6
Mar@@ 6
Measurements 6
Medellin 6
Missiles 6
Missing 6
Mobility 6
Money 6
Mongolian 6
Mortality 6
Mutual 6
NationsST 6
Notes 6
November-20 6
October-17 6
Oro 6
Oslo 6
Ouagadougou 6
Peace-building 6
Phenomenon 6
Platforms 6
Popular 6
Precursors 6
Proceeds 6
Progressive 6
Protected 6
Protecting 6
R702 6
R830 6
RC 6
Ras 6
Rate 6
Realization 6
Reception 6
Reduce 6
Remembrance 6
Renewing 6
Reviewing 6
Revision 6
SR.@@ 6
SUA 6
Safeguarding 6
Saguia 6
Sanctions 6
SecretariatA 6
SecurityFood 6
Seven 6
Signatures 6
Skopje 6
Space-system-based 6
Spin-off 6
StatesIbid 6
StatesSee 6
Stimulants 6
SummitFood 6
SummitSee 6
TRAIN-SEA-COAST 6
Technological 6
Thirtieth 6
Three 6
Together 6
Transactions 6
Tropical 6
Trusteeship 6
Turtle 6
UNCITRAL 6
UNITAID 6
Understandings 6
Unification 6
WHEREOF 6
Waffen 6
WeaponsA 6
Who 6
XIX 6
Yemen. 6
abusers 6
ac@@ 6
academics 6
accomplice 6
accords 6
accusations 6
acid 6
acquires 6
addictions 6
adjudicating 6
adjusting 6
admit 6
adolescence 6
advocated 6
agreementsS 6
aircraft 6
allegedly 6
alliances 6
ameliorate 6
anti-ballistic 6
anti-money-laundering 6
anti-poverty 6
anticipate 6
apartheid 6
appears 6
appropriateness 6
artillery 6
ary 6
asks 6
aspiration 6
assaults 6
assemble 6
astronomical 6
ational 6
atory 6
atrocious 6
attended 6
attracted 6
awards 6
ay 6
biennialization 6
birthright 6
bold 6
bombing 6
bondage 6
bonds 6
boundary 6
breached 6
break 6
capitalize 6
capture 6
carriage 6
ceiling 6
census 6
centrality 6
ch@@ 6
chief 6
childbearing 6
circular 6
claiming 6
client 6
co-chairpersons 6
coerced 6
collapse 6
column 6
command 6
community-level 6
compact 6
competencies 6
complainants 6
compromise 6
computerizing 6
concentrating 6
conciliate 6
conflictResolution 6
congruent 6
connecting 6
considerably 6
converted 6
cooperated 6
counted 6
countless 6
country-led 6
covers 6
dawn 6
deadly 6
deficient 6
defraying 6
deleterious 6
demilitarization 6
demonstrating 6
depend 6
depending 6
deplorable 6
derive 6
describing 6
destroying 6
detract 6
devastation 6
developmentA 6
di@@ 6
diamond-producing 6
diarrhoeal 6
die 6
differential-treatment 6
diplomats 6
directives 6
directs 6
discord 6
disintegration 6
dismember 6
distant-water 6
distributes 6
diversified 6
dollarization 6
dowry-related 6
drawdown 6
dysfunctional 6
ec@@ 6
eighteenth 6
el-Hamra 6
em@@ 6
embody 6
employee 6
ence 6
energies 6
entitlements 6
enumerated 6
environment-related 6
escalated 6
est 6
et 6
euros 6
eventually 6
evident 6
exchanged 6
exemplified 6
expiry 6
exported 6
exporters 6
extortion 6
faces 6
family-centred 6
fellows 6
firms 6
follow-on 6
football 6
forestry 6
forty-eight 6
forty-six 6
forwarded 6
fostered 6
fourteen 6
fraud 6
fronts 6
fruitful 6
fuelled 6
full-time 6
fundamentally 6
ge 6
geared 6
geography 6
glorification 6
harnessing 6
havens 6
headed 6
histories 6
hostages 6
ideals 6
identifies 6
ies 6
impacted 6
impeded 6
imperatives 6
in-@@ 6
inappropriate 6
incentive 6
inclusiveness 6
infringed 6
ing@@ 6
ings 6
injecting 6
inspectors 6
instant 6
inter-State 6
intermingled 6
interpretation-related 6
intolerable 6
introduces 6
invocation 6
ir@@ 6
irreparable 6
isolated 6
jeopardized 6
jeopardizing 6
knowledge-based 6
l 6
laboratories 6
largest 6
lay 6
leaflet 6
lie 6
literary 6
low-cost 6
mail 6
male 6
manifestly 6
marking 6
massacre 6
me@@ 6
mercenarism 6
meteorological 6
milestone 6
milestones 6
min@@ 6
mob 6
monoculture 6
monotherapies 6
mortgages 6
mosquito 6
motivations 6
mounting 6
multi-@@ 6
neo-Nazis 6
news-breaking 6
newspapers 6
non-public 6
non-renewable 6
non-repetition 6
nurturing 6
ob@@ 6
old 6
operative 6
opiate 6
originate 6
over@@ 6
overfished 6
palliative 6
panels 6
parking 6
partially 6
passengers 6
peaks 6
performs 6
pernicious 6
petroleum 6
pharmaceuticals 6
pl@@ 6
pledging 6
politicians 6
politics 6
post-Bonn 6
post-Doha 6
post-harvest 6
postponement 6
poverty-related 6
pre-conflict 6
pre-construction 6
pre-empt 6
pre-sessional 6
pre-trial 6
precluded 6
precluding 6
pregnancy 6
pricing 6
privatization 6
pro@@ 6
professing 6
promotions 6
promulgating 6
publication-related 6
publicizing 6
punishments 6
punitive 6
purchases 6
purview 6
qu@@ 6
quick-impact 6
races 6
rail 6
raises 6
raw 6
re-election 6
reacting 6
realm 6
reappointed 6
receipts 6
recipients 6
recovering 6
reformed 6
refusing 6
registries 6
rehabilitative 6
reiterate 6
rejected 6
releasing 6
relics 6
renders 6
repatriated 6
replaced 6
replied 6
reprint 6
rescinded 6
rescued 6
restructured 6
reuniting 6
rid 6
river 6
ro@@ 6
roads 6
sSee 6
salvage 6
sanction 6
scales 6
scholarship 6
seize 6
seizures 6
self-regulation 6
self-sustainable 6
semblance 6
sensing 6
sensitized 6
sentiments 6
setbacks 6
seventy 6
seventy-seven 6
shareholders 6
shortfall 6
shouldered 6
sixty-six 6
smoothly 6
south 6
sparsely 6
spurring 6
st@@ 6
staffed 6
steadily 6
steering 6
strategically 6
streamlined 6
strength 6
strengths 6
strife 6
studying 6
su@@ 6
substantiated 6
supervising 6
suppliers 6
suspect 6
suspending 6
t-@@ 6
talents 6
taxes 6
tes 6
thirty-nine 6
thousand 6
thrust 6
treating 6
treaty-monitoring 6
tune 6
twenty-four 6
two-hundredth 6
u 6
unanimously 6
unbiased 6
undeniably 6
under-represented 6
underage 6
underline 6
unequal 6
unfair 6
union 6
unremunerated 6
upheld 6
uprooting 6
urban-rural 6
us@@ 6
usage 6
vaccine 6
valued 6
vicinity 6
vigour 6
viii 6
voter 6
w 6
warring 6
weapon 6
well-functioning 6
well-regulated 6
wherein 6
wide-ranging 6
workloads 6
www.@@ 6
&apos;Djamena 5
,2@@ 5
,750 5
-specific 5
1,100 5
1,300 5
1,500 5
1,6@@ 5
1,7@@ 5
1-3 5
100@@ 5
1015 5
1024 5
105.6 5
1061. 5
1145 5
11806. 5
11See 5
12.@@ 5
121. 5
122. 5
123. 5
1299 5
13,@@ 5
1329 5
1341 5
13446. 5
1345 5
1378 5
1460 5
1490 5
1493 5
1547 5
1556. 5
16-25 5
160. 5
1651 5
169. 5
182. 5
1836 5
19.7 5
19.@@ 5
197@@ 5
1997See 5
199@@ 5
2,100 5
2,200 5
2-13 5
2.22 5
2.33 5
2.43 5
2.@@ 5
2002S 5
2003@@ 5
2004-2005A 5
2004-2006 5
2004-2007 5
2005-2006 5
2005A 5
2006-2007A 5
2006-2009 5
2007-2009 5
2007-@@ 5
2008-2009A 5
2008-2011 5
21,@@ 5
21Resolution 5
221. 5
2241 5
228. 5
2286 5
2349 5
24841 5
25036 5
258. 5
25974. 5
26-30 5
2602 5
26705. 5
285. 5
28B 5
28D 5
2nd 5
3,@@ 5
3.9 5
300-series 5
31364 5
31st 5
3201 5
328 5
333 5
343 5
344 5
345 5
3452 5
346. 5
34th 5
35,500 5
353 5
35457 5
357. 5
358. 5
362 5
37. 5
374 5
37th 5
384 5
393 5
39481. 5
396 5
396. 5
399 5
4.2 5
403. 5
404 5
411 5
430 5
431 5
434 5
43rd 5
444 5
447 5
44th 5
461 5
467-S 5
47. 5
482 5
5.1 5
5.5 5
50. 5
500,000 5
51,@@ 5
523 5
524 5
539 5
54. 5
551 5
552 5
555 5
568 5
56@@ 5
577 5
580-S 5
584 5
6,@@ 5
6-@@ 5
612 5
615 5
62@@ 5
633 5
636 5
63@@ 5
640 5
641 5
64@@ 5
652 5
65@@ 5
661 5
665 5
66@@ 5
688 5
6A 5
6B 5
7,8@@ 5
7,@@ 5
7-11. 5
71. 5
761 5
765 5
78. 5
79@@ 5
8,@@ 5
817 5
826 5
840 5
87@@ 5
882-S 5
8843 5
89@@ 5
914 5
956 5
95@@ 5
97. 5
A.@@ 5
ABUJA 5
Accountability 5
Accra 5
ActionFood 5
ActionProgramme 5
Add.1-4. 5
Add.1-5. 5
Add.10. 5
Add.3. 5
AfricaIbid 5
Aggression 5
Al@@ 5
Amendment 5
Are 5
ArmsSee 5
AspectsSee 5
AssemblyOfficial 5
Astronautical 5
Baluchis 5
Barcelona 5
Being 5
BiosafetySee 5
Boards 5
Border 5
Both 5
Braille 5
Brasilia 5
Bribery 5
C.1 5
CRP@@ 5
Calls 5
Caribbean-focused 5
Carpathians 5
Chairpersons 5
China-Africa 5
Christian 5
Cologne 5
Com@@ 5
CommissionOfficial 5
CommitteeIbid 5
Compensation 5
Con@@ 5
Consortium 5
ConventionSee 5
ConventionsIbid 5
ConventionsUnited 5
Cooperative 5
Cooperatives 5
CouncilS 5
Counsel 5
CourtUnited 5
Crises 5
Cup 5
Cyberseek 5
Dar 5
Dayton 5
Diabetes 5
Direct 5
DisabilitiesResolution 5
District 5
E-1 5
E.94.IX.1 5
E.97.XIV.1 5
Ecotourism 5
Encourage 5
Federation. 5
Fighting 5
Five 5
Formerly 5
ForumSee 5
Francisco 5
Fulfilment 5
Functioning 5
GNSS 5
Gaborone 5
Galaxy 5
Geographic 5
Goodwill 5
Habitats 5
Harmony 5
I.C 5
IV.A 5
Ibid. 5
Including 5
Inter-@@ 5
Inter-agency 5
Interfaith 5
Jirga 5
Journal 5
Judicial 5
Justice@@ 5
Karzai 5
Kyrgyz 5
L.11. 5
L.13 5
L.14 5
L.15 5
L.20 5
L.25 5
L.29 5
L.3 5
L.30 5
L.35 5
L.41 5
L.46 5
L.47 5
L.48 5
L.51 5
L.54 5
L.55 5
L.6 5
LDC 5
Landmines 5
Le@@ 5
Legislature 5
Less 5
Liberación 5
Libraries 5
MDGs 5
MSC 5
MSP.5 5
Made 5
Magistracy 5
Malacca 5
MalnutritionReport 5
Manual 5
Medicines 5
Mobilizing 5
Monterey 5
More 5
Nagorny-Karabakh 5
Near-Earth 5
Niamey 5
Niña 5
Noblemaire 5
Non-discrimination 5
Notwithstanding 5
Nusa 5
OAU 5
Object-ID 5
Officers 5
On 5
Online 5
Organic 5
OrganizationSee 5
Ottawa 5
Overall 5
Pan-African 5
Pe@@ 5
Period 5
Planet 5
Plant 5
Possible 5
Preparing 5
Pro 5
Procedures 5
Proposed 5
Publications 5
Puebla 5
Puebla-Panama 5
Purple 5
Putrajaya 5
Rally 5
Recognizes 5
Registries 5
Remarks 5
Reporting 5
Republika 5
Resident 5
Resumption 5
Rev.2 5
Revised 5
RightsA 5
RightsE 5
River 5
S-VI 5
SPS 5
Salaam 5
Saturday 5
SchemeSee 5
Sciences 5
Secretaries-General 5
Set 5
Shelter 5
Ship 5
Slum 5
Species 5
Srpska 5
Statistical 5
Steps 5
Straits 5
Strategies 5
Strengthened 5
Subcommittees 5
Subjected 5
Sunni 5
Sunnis 5
Table 5
Tempore 5
Ten 5
Terms 5
Thirty-second 5
This 5
Thomas 5
Topaz 5
Transdniestrian 5
Truth 5
Tsunami-Affected 5
Twenty-fifth 5
Upgrading 5
Utilizing 5
Vancouver 5
Venture 5
Vol 5
WHA58 5
Welfare 5
Wild 5
Will 5
X@@ 5
Yamoussoukro 5
YugoslaviaA 5
a.m. 5
aSee 5
absorptive 5
accruing 5
acti@@ 5
adding 5
adherents 5
admissibility 5
admissible 5
advancements 5
advantageous 5
advisability 5
affiliation 5
afflict 5
afflicting 5
age-sensitive 5
aggravate 5
ago 5
alarming 5
aligned 5
alization 5
alized 5
alluvial 5
ally 5
als 5
ammunitions 5
amnesties 5
amputations 5
an-@@ 5
anc@@ 5
ance 5
anchored 5
ancient 5
animals 5
anniversaries 5
anti-narcotic 5
antimalarial 5
appealing 5
appearance 5
applicants 5
ars 5
arts 5
assaulting 5
asylum-seeking 5
ators 5
auditors 5
austerity 5
aviation 5
awaiting 5
back@@ 5
banding 5
bar@@ 5
bertini 5
besides 5
bi@@ 5
biased 5
biomass 5
biosafety 5
bl@@ 5
ble 5
blood-borne 5
boarding 5
bona 5
boost 5
breastfeeding 5
bridges 5
briefings 5
brunt 5
cast 5
catalysing 5
censuses 5
chance 5
channelling 5
child-centred 5
ci@@ 5
circumstance 5
civil-military 5
clashes 5
cleaner 5
clients 5
cloning 5
closest 5
clothing 5
coast 5
cognizance 5
commercialized 5
commonly 5
compete 5
completeness 5
concert 5
concurrently 5
confluence 5
connections 5
conscription 5
consignments 5
consumer 5
containment 5
continuance 5
contributory 5
convenience 5
convictions 5
corps 5
countervailing 5
crackdowns 5
cultivate 5
customer 5
cyclical 5
damages 5
de-targeting 5
debt-relief 5
decentralized 5
declines 5
deepest 5
defend 5
dem@@ 5
denuclearized 5
department 5
deplete 5
deposits 5
designating 5
desired 5
desires 5
detargeting 5
difference 5
directive 5
directors 5
directory 5
disclosed 5
disclosing 5
dismay 5
dispersion 5
disruptive 5
divided 5
doctors 5
documentResolution 5
documentSee 5
domino.un.org 5
double 5
drafted 5
drive 5
drug-free 5
east 5
ecosystem-based 5
editions 5
electorate 5
electric 5
elucidation 5
embarked 5
embezzlement 5
emphatically 5
end-users 5
engineering 5
enquiry 5
ensuing 5
ent 5
entitlement 5
entrusts 5
environment-friendly 5
equilibrium 5
equitably 5
equivalency 5
esSee 5
even-handed 5
exacerbating 5
exceeded 5
exclusivity 5
expediting 5
expel 5
experimental 5
family-friendly 5
ferromanganese 5
fide 5
fifty-eight 5
fifty-four 5
fifty-seven 5
flagged 5
flights 5
for@@ 5
forecasting 5
forging 5
formalized 5
forty-three 5
fossil 5
fulfils 5
fy 5
gainful 5
gather 5
gender-balanced 5
gender-responsive 5
genuinely 5
gifts 5
gives 5
globe 5
guarding 5
hardware 5
harvesting 5
healing 5
heat 5
heightened 5
holder 5
honouring 5
humanely 5
i.e. 5
ian 5
if@@ 5
impairing 5
in-kind 5
inadequacies 5
incidentally 5
incursions 5
indications 5
indissoluble 5
infant 5
influx 5
initiating 5
injurious 5
injustice 5
inmates 5
instilling 5
institutionalized 5
intend 5
inter-@@ 5
interchange 5
interdict 5
interface 5
intermediary 5
intermediate 5
intermittent 5
intolerant 5
is@@ 5
islands 5
ity 5
ize 5
judgment 5
knowing 5
lag 5
landslides 5
lanes 5
le 5
le@@ 5
leisure 5
levying 5
litigation 5
lived 5
look 5
lose 5
lot 5
low@@ 5
majeure 5
man@@ 5
market-based 5
measured 5
memorial 5
ment 5
ment@@ 5
mesh 5
metric 5
militia 5
minutes 5
misappropriation 5
mismanagement 5
misreported 5
mitigated 5
moment 5
movable 5
multitude 5
mutandis 5
mutatis 5
nation-building 5
negation 5
negotiable 5
netting 5
ni@@ 5
no-objection 5
nomadic 5
non-directed 5
non-documented 5
non-earmarked 5
non-family 5
non-member 5
non-target 5
normalization 5
noxious 5
og@@ 5
op@@ 5
opens 5
ors 5
ou@@ 5
outlets 5
outward 5
overexploited 5
overseeing 5
panellists 5
para@@ 5
pensioners 5
photographic 5
poll 5
polluted 5
portfolio 5
praises 5
pre-@@ 5
precautions 5
precludes 5
precondition 5
prejudging 5
premature 5
premised 5
prerequisites 5
pressures 5
printing 5
prioritizing 5
privately 5
pro 5
probability 5
programme@@ 5
programmed 5
prohibitions 5
prohibitive 5
prohibits 5
prominent 5
promises 5
promising 5
pronounced 5
proof 5
proportional 5
prove 5
puts 5
quantifiable 5
quantification 5
quantity 5
questionnaires 5
quorum 5
random 5
rapprochement 5
ratings 5
re-emerging 5
reappraisal 5
reassess 5
rebels 5
rec@@ 5
reconvening 5
recreation 5
recycling 5
redeploy 5
reduces 5
referral 5
refouler 5
reimbursing 5
relied 5
relocated 5
remittance 5
remotely 5
repetition 5
representations 5
reprisal 5
reprisals 5
reproduced 5
resided 5
resides 5
resilient 5
restorative 5
retire 5
retired 5
revolving 5
rigorous 5
rpt.htm 5
satisfies 5
script 5
searching 5
seasons 5
seat 5
secrecy 5
segregation 5
self-help 5
selling 5
senior-level 5
sensed 5
seventy-three 5
sharpening 5
short- 5
shorter 5
simplified 5
simplifying 5
sit 5
sive 5
sixty-@@ 5
sixty-sixth 5
slowed 5
smoking 5
smuggled 5
software 5
solicitation 5
speak 5
specially 5
specification 5
staff-intensive 5
statuteResolution 5
sterilization 5
stricken 5
subscribed 5
summ@@ 5
surrendered 5
suspects 5
swift 5
synthesis 5
systemSee 5
systemically 5
tanks 5
te 5
teacher 5
ter@@ 5
terminate 5
ters 5
thIbid 5
theory 5
thereonSee 5
thereupon 5
third-party 5
thirty-@@ 5
thirty-eight 5
thirty-second 5
thirty-two 5
three-day 5
tidal 5
time-@@ 5
tons 5
tor@@ 5
toxic 5
traditionally 5
trainees 5
transformed 5
traumatic 5
tropical 5
tu@@ 5
turtle 5
twenty-seven 5
twenty-three 5
two-way 5
two-week 5
unbalanced 5
uncontrolled 5
under@@ 5
underpin 5
underscore 5
underserved 5
underutilize 5
uni@@ 5
united 5
unreasonable 5
unresolved 5
unsatisfactory 5
upholds 5
uploading 5
user-oriented 5
vector 5
ventures 5
vi@@ 5
vigilant 5
virtual 5
visitation 5
visual 5
waived 5
waves 5
weakness 5
weather-related 5
web-based 5
well-qualified 5
western 5
women@@ 5
www.cep.unep.org 5
www.imf.org 5
www.reliefweb.int 5
www.unama-afg.org 5
y-@@ 5
yield 5
youth-related 5
youth-specific 5
é@@ 5
$ 4
&amp; 4
&apos;@@ 4
&apos;IvoireA 4
,650 4
-E 4
-level 4
-to-@@ 4
-up 4
.12 4
.93.I.8 4
.A 4
0 4
0.36 4
0.75 4
03 4
05 4
1,5@@ 4
1,700 4
1,800 4
1.0 4
1.7 4
10,000 4
1052 4
11-TD 4
113-S 4
1133 4
11B 4
1217 4
123-E 4
125,000 4
1257 4
1258 4
1319 4
1333 4
1366 4
137. 4
1379 4
1383 4
146. 4
1489 4
15-19 4
15-26 4
1544 4
1609 4
1643 4
1674 4
169,431,700 4
16A.@@ 4
171. 4
182,600 4
18A.@@ 4
19.9 4
1959 4
1988See 4
1993-1994 4
1993-2002 4
1995,1995 4
1996. 4
1999A 4
2,4@@ 4
2,500 4
2,5@@ 4
2,600 4
2.15 4
2.17 4
2.19 4
2.24 4
2.35 4
2.41 4
2000-2003 4
2000E 4
2000S 4
2001-2004 4
2002-2004 4
2002Ibid 4
2004See 4
2005-2007 4
2005. 4
2005Ibid 4
2008-2017 4
207. 4
210Official 4
213@@ 4
215. 4
22.@@ 4
2225 4
2312 4
2373 4
241. 4
25,000 4
253. 4
25567. 4
259. 4
26,500 4
260. 4
26363. 4
264. 4
266. 4
267. 4
273-S 4
27688. 4
281. 4
2832 4
28C 4
28E 4
28G 4
290. 4
293. 4
29B@@ 4
3,500 4
3,5@@ 4
3,6@@ 4
3-@@ 4
3-S 4
3.8 4
305. 4
306. 4
30619 4
316. 4
317. 4
319. 4
320. 4
323. 4
329 4
3357 4
336 4
33757 4
340. 4
349 4
352 4
355@@ 4
359 4
363 4
366 4
368 4
370 4
372 4
374. 4
380. 4
38th 4
397. 4
4,7@@ 4
4-9. 4
4-S 4
4.4 4
40. 4
403 4
409 4
410,000 4
416 4
418 4
41st 4
433 4
442. 4
446. 4
449. 4
45. 4
451 4
452 4
46. 4
462.88.12E. 4
4739. 4
48. 4
48th 4
49. 4
4th 4
5-@@ 4
5.3 4
500. 4
514 4
516 4
525 4
530-S 4
533 4
534. 4
537. 4
545 4
54@@ 4
55@@ 4
564 4
569 4
575. 4
58. 4
587 4
588 4
58th 4
593. 4
595 4
599 4
5J 4
6,0@@ 4
6.5 4
604 4
608-S 4
62. 4
645 4
649 4
650 4
657 4
666 4
67. 4
68. 4
69. 4
6See 4
7,800 4
712 4
713 4
72-77 4
73-E 4
735 4
73@@ 4
787 4
8.@@ 4
82-E 4
821-GC 4
85. 4
875 4
88-98 4
890 4
9,0@@ 4
9,200 4
9-@@ 4
957 4
A.1 4
A.949 4
AC.1 4
AC.268 4
ASEAN 4
Achievements 4
Acquisitions 4
Acting 4
Add.1-3. 4
Add.1-6. 4
Add.10 4
Add.12. 4
Add.29. 4
Add.32 4
Add.8. 4
Advice 4
Afghan-led 4
AfricaUnited 4
African-led 4
After 4
Agreement. 4
AirIbid 4
Albanian 4
Albatrosses 4
Alignment 4
Alleviation 4
Also 4
Ambassadors 4
Amendments 4
Animals 4
Annan 4
Annapolis 4
Apia 4
Applied 4
Appraisal 4
Appraise 4
ArrangementsA 4
AssemblyA 4
Assets 4
Asunción 4
August-12 4
Azeris 4
Baku 4
Ballast 4
Baltic 4
Bank-International 4
Benefit-sharing 4
Best 4
Better 4
BombingsResolution 4
Bosnian 4
CN.9 4
CO@@ 4
CODEOC 4
CONF.187 4
CONF.@@ 4
COP.5 4
CP.6. 4
Caledonians 4
Cancún 4
Cash 4
Ch@@ 4
Chairmen 4
Circ.380. 4
Civilization 4
CivilizationsSee 4
Claims 4
Clinton 4
Closer 4
Collaboration 4
Commemoration 4
Committee-related 4
Complaints 4
Complex 4
Conditions 4
ConferencesOfficial 4
Contact 4
Contemporary 4
Contractual 4
Contribute 4
ConventionIbid 4
Cooperating 4
CoordinationOfficial 4
CouncilE 4
Countering 4
CountriesReport 4
CrimeIbid 4
Curitiba 4
Cyclone 4
De@@ 4
Dec 4
Dec. 4
Dec.138 4
Decl.12 4
Declaration. 4
Decree 4
Deep 4
Delimitation 4
Den@@ 4
Depayin 4
Develop 4
Di@@ 4
Diamonds 4
Digital 4
DisarmamentSee 4
Donorship 4
Doping 4
E.0@@ 4
E.78.II.A.11 4
E.8 4
E.85.IV.10 4
ECA 4
Efforts 4
Eldoret 4
Eliminating 4
Emerging 4
Encourages 4
Enjoy 4
Equal 4
Expulsion 4
FIRM 4
FamiliesResolution 4
FederationSee 4
FisheriesFood 4
Fistula 4
Forward-looking 4
Fostering 4
French-speaking 4
Full 4
GOV 4
Geneva-based 4
GenocideResolution 4
George 4
GoodsUnited 4
Greater 4
Greek 4
Gross 4
Guarantee 4
Guatemalan 4
HIPC 4
HIV-infected 4
Hazard 4
Higher 4
Hinterland 4
I-III. 4
I.D 4
IAEA 4
II-IV 4
II@@ 4
IICCW 4
IV.@@ 4
Identification 4
Immunization 4
Indicative 4
Injury 4
Insert 4
Interaction 4
Iran. 4
J. 4
Jefferson 4
Jeju 4
John 4
Judgement 4
Judgment 4
JusticeA 4
Keith 4
Kigali 4
Kofi 4
Kuwaiti 4
Kuwaitis 4
L.18 4
L.2 4
L.26 4
L.27 4
L.5 4
L.53 4
L.56 4
L.57 4
L.8 4
LIV 4
LeoneA 4
Liberty 4
Littoral 4
Living 4
LusakaS 4
Make 4
Malnutrition 4
Marketplace 4
Media 4
Modalities 4
Monday 4
Montsoufriere 4
Moreover 4
Movements 4
Multinational 4
N. 4
Nairobi-based 4
Nationality 4
Nations-@@ 4
Nations-related 4
Need 4
Networking 4
No.15. 4
No.7 4
Nobel 4
Northwest 4
November-2 4
Nuba 4
OC-18 4
October-14 4
Offices 4
Op@@ 4
OperationsFood 4
Outlook 4
PC.1 4
PV.4589 4
Paralympic 4
Particular 4
Peacekeepers 4
Persistent 4
Petrels 4
Places 4
Porto 4
Presentation 4
Presidency 4
Priorities 4
Prize 4
Pro@@ 4
Prostitution 4
Pursuing 4
Pérez-Guerrero 4
Quality 4
Quinquennium 4
R765 4
RESOLUTIONS 4
Re-emphasizing 4
Rec@@ 4
Recent 4
Recognize 4
Recommendation 4
Reflection 4
Refuge 4
Remedy 4
Remote 4
Reparation 4
Requ@@ 4
Res.1153 4
Res.1225 4
Res.1356 4
Reserve 4
Rev.6 4
Rice 4
Rights@@ 4
RightsUnited 4
Roma 4
Rule 4
S-5 4
SOLAS 4
SaharaS 4
Sal@@ 4
Samoan 4
Sapporo 4
Se@@ 4
Secretariats 4
Secretary-GeneralSee 4
Securing 4
Sediments 4
Seeking 4
Senate 4
Seoul 4
September-17 4
Shall 4
Signatory 4
SituationA 4
Size 4
Solemn 4
Space-based 4
Speakers 4
Spokesperson 4
St@@ 4
StatesA 4
StatesReport 4
Strasbourg 4
Subparagraph 4
Subsidiary 4
Sufis 4
Summer 4
Sustainability 4
Suva 4
Telecommunications 4
Tenggara 4
TerrorismResolution 4
Than 4
Thessaloniki 4
Tin 4
Tortola 4
Tuesday 4
Twenty-ninth 4
Undocumented 4
Unilateral 4
VI.B 4
Vehicles 4
Vi@@ 4
Vice-Presidents 4
WCMRY 4
Warsaw 4
Whether 4
William 4
Witnesses 4
XIV.A 4
XLVIII 4
XX@@ 4
Y@@ 4
Zagreb 4
a-@@ 4
abductions 4
abolishing 4
abused 4
acidification 4
acquiescence 4
addenda 4
admitting 4
advertising 4
advised 4
affordability 4
afterwards 4
aged 4
aggressive 4
aiding 4
airports 4
ak@@ 4
akin 4
alarm 4
alarmingly 4
aliens 4
alities 4
all-embracing 4
allegation 4
alongside 4
amb@@ 4
ambitious 4
amendmentsA 4
ancillary 4
ang@@ 4
answer 4
anti-malarial 4
anywhere 4
apart 4
appalling 4
apprenticeship 4
arose 4
articulated 4
aside 4
assessors 4
astronomy 4
ationsA 4
attacking 4
attempted 4
attenuate 4
attesting 4
attributable 4
audiovisual 4
augmentative 4
autism 4
backtracking 4
balances 4
belongs 4
bestowing 4
bid 4
bidding 4
biggest 4
bleaching 4
bonus 4
borderline 4
bounds 4
brides 4
brotherhood 4
bullying 4
ca@@ 4
careful 4
carriers 4
chairman 4
chamber 4
characterization 4
characterize 4
chargeable 4
charging 4
child-protection 4
children-to-children 4
chronically 4
civilizational 4
cl@@ 4
clandestine 4
clarification 4
classifications 4
clause 4
clean-up 4
clearing 4
clerics 4
client-oriented 4
co-location 4
coastline 4
cohesive 4
coincide 4
collation 4
collections 4
combined 4
comm@@ 4
commentaries 4
commentary 4
commercialization 4
commission@@ 4
commits 4
commonalities 4
compar@@ 4
compelling 4
compensatory 4
compulsion 4
computation 4
computational 4
computerized 4
computers 4
concentrations 4
conception 4
conditioned 4
confinement 4
confirm 4
connectivity 4
consented 4
constitutive 4
constraining 4
construct 4
contagious 4
contingents 4
contracted 4
contraction 4
contradictory 4
conversions 4
convert 4
convertibility 4
correctional 4
corrective 4
correspondents 4
corridors 4
cost-benefit 4
cost-effectively 4
counterpart 4
country-driven 4
counts 4
craft 4
criminals 4
crossing 4
curriculum 4
curtail 4
cybercrime 4
de-alerting 4
debt-service 4
dec@@ 4
declined 4
dedere 4
deduc@@ 4
defendant 4
defendersE 4
delegate 4
demolition 4
demonstrates 4
denounced 4
deserves 4
destroys 4
detectability 4
detrimentally 4
developing-country 4
developmentSee 4
devoting 4
diagnosis 4
difficulty 4
diminution 4
disability-related 4
disability-sensitive 4
disadvantages 4
disarmament-development 4
discarded 4
discerning 4
discourages 4
discriminates 4
disrespect 4
dissenters 4
dissolution 4
dissuade 4
distortions 4
diverts 4
divorced 4
documentation-processing 4
documentation-related 4
dollar-track 4
domain 4
domains 4
dramatic 4
driving 4
drought-prone 4
drylands 4
e.g. 4
earthquake 4
editing 4
eg@@ 4
eighty-nine 4
ekecheiria 4
elders 4
em 4
empowers 4
enclosure. 4
encompassed 4
enforcers 4
enrolment 4
entailed 4
envisages 4
envisioned 4
erga 4
es. 4
ethnically 4
ev@@ 4
evaluated 4
everything 4
evidence-based 4
evolved 4
exacerbates 4
exact 4
exclusions 4
exculpatory 4
excuse 4
executing 4
exhaustive 4
existed 4
exodus 4
exogenous 4
expect 4
expectations 4
expire 4
expired 4
explanations 4
explosives 4
fac@@ 4
failing 4
falciparum 4
falls 4
falsification 4
familial 4
faster 4
fault 4
fee 4
field-test 4
fifty-@@ 4
fifty-six 4
fifty-two 4
filed 4
fins 4
fire 4
fisheries-related 4
five-day 4
flat 4
flexibilities 4
flooding 4
footnote 4
footprints 4
foreigners 4
forged 4
forty-seven 4
founded 4
fruit-bearing 4
fying 4
galvanize 4
generalized 4
generic 4
ging 4
goodwill 4
green 4
gu@@ 4
guardians 4
habilitation 4
har@@ 4
harbouring 4
headquarter 4
heighten 4
helplines 4
high-cost 4
higher-profile 4
hindered 4
hindrances 4
homelands 4
homogenization 4
honoured 4
horizontal 4
hospitality 4
hosts 4
hours 4
hub 4
hunger-related 4
hygiene 4
ial 4
ic@@ 4
ical 4
ically 4
illiterates 4
illustrate 4
impasse 4
impending 4
impinge 4
implies 4
inapplicable 4
incarcerated 4
incessantly 4
inciting 4
income-generation 4
incommunicado 4
inculcate 4
index@@ 4
indictees 4
induce 4
ines 4
inferred 4
inflationA 4
inflow 4
informally 4
inspired 4
instigate 4
instituting 4
intellectuals 4
inter-American 4
inter-Congolese 4
intercivilizational 4
interlocking 4
interpreters 4
interview 4
intimidate 4
ir 4
ise 4
ish 4
issuesSee 4
itemized 4
ization 4
ized 4
j@@ 4
jobs 4
judicare 4
ka 4
l988 4
laissez-passer 4
lawfulness 4
lays 4
lead-up 4
legalize 4
liberalize 4
licence 4
listeners 4
little 4
lodging 4
logistic 4
magistrates 4
maimed 4
mainstreamed 4
mapS 4
market-related 4
masterpieces 4
mediate 4
memorandums 4
mer@@ 4
micro 4
microenterprise 4
mid-@@ 4
migrantsE 4
millenniumassessment.org 4
mining 4
ministries 4
mod@@ 4
monopoly 4
mother-to-child 4
multi-function 4
multiculturalism 4
n 4
needs-specific 4
ness 4
nineteen 4
ninetieth 4
noise 4
nominations 4
non-United 4
non-conditional 4
non-legislative 4
non-members 4
non-observance 4
non-resident 4
non-return 4
non-staff 4
obsolete 4
obstruction 4
occupations 4
occupies 4
off-farm 4
omnes 4
on-farm 4
one-day 4
one-week 4
ons@@ 4
ood 4
openly 4
operandi 4
oppose 4
opposing 4
optical 4
organisms 4
originated 4
orphan 4
orphanages 4
ought 4
overhead 4
overseas 4
overstretched 4
overutilization 4
par 4
pave 4
paved 4
penitentiary 4
persevere 4
persisted 4
pervasive 4
petrels 4
ph@@ 4
phase-out 4
philanthropic 4
photovoltaic 4
pipelines 4
planA 4
pleadings 4
plurality 4
po@@ 4
polydrug 4
poorer 4
portal 4
post-emergency 4
postpone 4
ppaa.html 4
pre-1967 4
pre-assessment 4
prescribing 4
presents 4
presumption 4
prevails 4
prevalent 4
price-adjusted 4
primacy 4
priori 4
profess 4
proportionate 4
public-sector 4
rationalizations 4
re 4
re-evaluate 4
react 4
reaction 4
reactor 4
ready 4
reallocate 4
reap 4
reappoint 4
reassigned 4
recruits 4
redoubled 4
reformists 4
regionalization 4
regularize 4
reimbursed 4
reiteration 4
relapsing 4
relocations 4
remunerated 4
rename 4
rent-subsidized 4
repaid 4
repayment 4
reportIbid 4
reportOfficial 4
reportSee 4
repositioning 4
repository 4
representational 4
reputations 4
res@@ 4
rescheduled 4
reserves 4
residents 4
resignation 4
resourced 4
respectfully 4
resubmit 4
retrieved 4
reunite 4
revocation 4
rice 4
rightful 4
rights-based 4
rigidity 4
risk-rating 4
routine 4
routinely 4
rubble 4
ruling 4
samples 4
sanctioned 4
satellites 4
scholarly 4
screening 4
se@@ 4
seabed 4
sec@@ 4
seconds 4
seeds 4
self-liquidating 4
self-regulatory 4
sensitize 4
serviced 4
ses 4
sessionA 4
sessionsOfficial 4
seventy-four 4
sham 4
shaping 4
shel@@ 4
shipment 4
shortening 4
shortest 4
sion 4
sixty-eight 4
sixty-nine 4
small- 4
smallest 4
smallness 4
socio-economics 4
sol@@ 4
solitary 4
span 4
spatial 4
specialist 4
sponsorship 4
st-@@ 4
staging 4
started 4
stereotypical 4
stewardship 4
stimulated 4
structurally 4
sub-@@ 4
sub-agencies 4
sub-standard 4
subcommission 4
subcontractors 4
subject-matter 4
subjugation 4
submerged 4
substandard 4
succeeded 4
suit 4
superior 4
swap 4
swiftly 4
system@@ 4
technologically 4
technology-related 4
ten@@ 4
tendency 4
tering 4
terms-of-trade 4
theirs 4
thereunder 4
therewith 4
think 4
thirty-six 4
thirty-six-year 4
threshold 4
tics 4
timeline 4
timelines 4
tin@@ 4
tion@@ 4
tl@@ 4
to@@ 4
totality 4
tourists 4
tr@@ 4
trainers 4
transformations 4
transporting 4
tribal 4
trying 4
tsunami-affected 4
ture 4
twenty-nine 4
twenty-six 4
twin 4
ul@@ 4
unabated 4
unallocated 4
und@@ 4
undergone 4
undivided 4
uneducated 4
unfairly 4
unlawfully 4
unleash 4
unreliable 4
unrest 4
unsafe 4
untied 4
untying 4
upgrade 4
upsurge 4
usable 4
usual 4
validation 4
valuations 4
vandalism 4
verdicts 4
vested 4
viewed 4
vii 4
visa 4
volcano 4
wage 4
wake 4
weapons-related 4
webcast 4
well-established 4
wholly 4
wilfully 4
workable 4
wounding 4
www.iadb.org. 4
www.unama-afg.org. 4
www.unhchr.ch. 4
yearly 4
,050 3
,06@@ 3
,23@@ 3
,29@@ 3
,450 3
-wide 3
.10 3
.18 3
.2. 3
.3. 3
.X@@ 3
.org. 3
0,000 3
0,@@ 3
0.@@ 3
00 3
1,025,092 3
1,14@@ 3
1,1@@ 3
1,400 3
1,600 3
1,737@@ 3
1,876.7 3
1,900 3
1-35 3
1-S 3
10,100 3
10.3 3
1023 3
104@@ 3
105. 3
1053 3
10th 3
11.2.4 3
11.2.5 3
11.2.6 3
11.@@ 3
1111 3
1143 3
114@@ 3
116. 3
1210 3
1242 3
1270 3
1279 3
129. 3
12See 3
1302 3
1312 3
138. 3
1390 3
14-@@ 3
14.18 3
14.19 3
1401 3
1410 3
1431 3
1440 3
1441 3
1459 3
14691 3
14860. 3
152. 3
1521 3
1528 3
1535 3
154. 3
1542 3
15511 3
15511. 3
156. 3
1566 3
157. 3
1570 3
1598 3
16,@@ 3
161. 3
163. 3
166. 3
1678 3
1701 3
172. 3
1754 3
179. 3
18-25 3
187. 3
19,200 3
19-28 3
1904 3
1954United 3
1961United 3
196@@ 3
1993United 3
1995@@ 3
1996CCW 3
1996Official 3
1997-1999 3
1998-2002 3
1998Official 3
1999-2000 3
1Ibid 3
1Official 3
2,17@@ 3
2,400 3
2,9@@ 3
2-@@ 3
2-S 3
2.26 3
2.92 3
20,0@@ 3
2000-2001A 3
2001-2002 3
2001-2010See 3
2001. 3
2002-2003A 3
2002-2006 3
2002-31 3
2002@@ 3
2002A 3
2003-2004 3
2003-2007 3
2003Ibid 3
2004-31 3
2004@@ 3
2006See 3
2007-2008 3
2007@@ 3
2007A 3
2010-2011 3
2013 3
203. 3
208-S 3
2163 3
218@@ 3
21Ibid 3
22,@@ 3
222. 3
2221 3
224,300 3
2263 3
227@@ 3
230@@ 3
234. 3
24.@@ 3
24631. 3
246@@ 3
24A. 3
24th 3
25.5 3
25573. 3
257@@ 3
26,7@@ 3
2656 3
2657 3
270. 3
272. 3
2728 3
276@@ 3
284. 3
28F 3
2911 3
294-298 3
297@@ 3
29D 3
29F@@ 3
29G@@ 3
3,000 3
3,00@@ 3
3,3@@ 3
3,700 3
3,7@@ 3
3,800 3
3,8@@ 3
3.5 3
304. 3
307. 3
308. 3
309. 3
31,523,100 3
31. 3
314-318 3
31@@ 3
32,836,900 3
321. 3
322 3
324 3
324. 3
326. 3
33-54 3
33. 3
330-334 3
330. 3
334. 3
336. 3
33rd 3
340 3
344. 3
348 3
356. 3
35th 3
36,100 3
368. 3
369 3
36th 3
370. 3
371 3
375. 3
376 3
378 3
379 3
37924. 3
382 3
385. 3
386. 3
389. 3
390. 3
39481 3
397 3
4,100 3
4,200 3
4,6@@ 3
4,8@@ 3
4,900 3
4-@@ 3
4-E 3
4.10 3
400. 3
401. 3
402-E 3
406 3
413 3
42,200 3
421. 3
42146 3
428-S 3
435 3
438 3
441 3
442 3
443. 3
447. 3
450. 3
45@@ 3
466 3
466. 3
468. 3
471. 3
4739 3
47th 3
487. 3
491. 3
493 3
5,000 3
5,28@@ 3
5,400 3
5,4@@ 3
5,800 3
5.8 3
505 3
509. 3
519. 3
51st 3
52. 3
525. 3
526. 3
527 3
539. 3
541 3
542 3
543 3
543. 3
544 3
545. 3
546-S 3
54th 3
55,600 3
56,7@@ 3
56-S 3
57. 3
575 3
590 3
597. 3
5Ibid 3
5th 3
6,392,600 3
60. 3
61-76 3
614 3
619 3
63. 3
637 3
637. 3
64. 3
643. 3
65-E 3
65. 3
655 3
659 3
669 3
68-E 3
685 3
692 3
697 3
7,000 3
7,3@@ 3
7-11 3
707. 3
717 3
734 3
738 3
74. 3
75,000 3
75@@ 3
769. 3
77-E 3
77. 3
785 3
79. 3
8-@@ 3
800,000 3
804 3
83-E 3
85-E 3
869 3
8791 3
9,7@@ 3
9-S 3
9.9 3
922 3
96-E 3
98-E 3
983 3
985-S 3
987 3
99. 3
996 3
99@@ 3
A.3 3
AFS 3
AIDS-related 3
Ac@@ 3
AccountA 3
Accounting 3
ActivitiesAvailable 3
Ad@@ 3
Add.1-5 3
Add.11. 3
Add.15. 3
Add.16. 3
Add.17. 3
Add.24. 3
Add.9 3
Adriatic 3
Advance 3
Advancing 3
Africa@@ 3
African-owned 3
Africans 3
Aftermath 3
AgendaE 3
AgreementInternational 3
Al-Khalil 3
Alert 3
All-pervasive 3
Alluvial 3
Angolan 3
Ankara 3
Anti-Corruption 3
Anti-Doping 3
Anti-Terrorism 3
Ar@@ 3
ArmsA 3
Artisanal 3
Aruba 3
Arusha 3
Ascension 3
Asia. 3
AsiaA 3
Asset 3
Assyrians 3
Astronomy 3
Author@@ 3
Autism 3
Availability 3
Avena 3
Average 3
Aviation 3
BWM 3
Baker 3
Ban@@ 3
Bar 3
Be@@ 3
Benefit 3
Bi@@ 3
Biotechnology 3
BoardIbid 3
Bogotá 3
Bombings 3
Bordering 3
Bougainville 3
Brcko 3
Busan 3
CA@@ 3
CEDAW 3
CN.5 3
CN.6 3
CONF.210 3
CONF.VI 3
COP.4 3
COP.6 3
Cabinet 3
Car@@ 3
Caribbean. 3
Census 3
Cetaceans 3
Challenge 3
Chemicals 3
ChildrenA 3
Clothing 3
Clubs 3
Cohesion 3
Collection 3
Comm@@ 3
Command 3
Commander 3
Commemorate 3
Commission@@ 3
Commissionwww.un.org 3
CommitteeSee 3
Commodity 3
Completed 3
Condition 3
Confederation 3
CongoA 3
CongoSee 3
ConsensusReport 3
Constraints 3
Convene 3
Convention@@ 3
ConventionResolution 3
Conversion 3
Coordinated 3
CoordinationIbid 3
Correspondents 3
Corruption@@ 3
Courts 3
Credits 3
Cultures 3
CyberSchoolBus 3
DNA 3
Data 3
Dealers 3
Dec.165 3
Dec@@ 3
Decision 3
Decl.1 3
DeclarationWorld 3
Departments 3
Digest 3
Directors 3
Disciplinary 3
Discipline 3
Disposition 3
Disseminate 3
Documentation- 3
Does 3
Dubai 3
E.03.II. 3
E.04.III.B.4 3
E.04.X@@ 3
E.05.IV.7 3
ECLAC 3
Earthquake 3
EastA 3
Economies 3
Efficiency 3
Eighth 3
ElBaradei 3
Election 3
Em@@ 3
Enactment 3
End 3
Energies 3
Entebbe 3
Entrepreneurship 3
Equity 3
EritreaA 3
Euro-Atlantic 3
Except 3
Exchange 3
Executions 3
Expansion 3
Explosives 3
Facilitate 3
Facilitation 3
Failed 3
Fif@@ 3
Fifth-fifth 3
Five-Year 3
Folklore 3
Fomboni 3
Form 3
Fragmentation 3
Friends 3
Front 3
GEF 3
GUUAM 3
Gleneagles 3
Green 3
Gu@@ 3
Gudauta 3
HCR 3
Harmful 3
Harmonization 3
Hear 3
HeritageUnited 3
High@@ 3
Highway 3
Htun 3
I-@@ 3
I.B. 3
I.H 3
II.E. 3
II.F 3
III.B 3
IMF 3
IOC 3
IV.2 3
IV.E 3
Ideal 3
Im@@ 3
Imprisonment 3
Industrialization 3
Info 3
Initial 3
Initiating 3
Initiatives 3
Insists 3
Institutes 3
Integrity 3
InterNetwork 3
Intercultural 3
Interest 3
Interlaken 3
Internet-accessible 3
Interpol 3
Interreligious 3
Investing 3
Investments 3
IraqSee 3
Italian-Latin 3
JIU 3
Jabaliya 3
James 3
Jehovah 3
Jericho 3
Jiyeh 3
Jurisprudence 3
Juvenile 3
Kat@@ 3
Khun 3
Ki@@ 3
Kisangani-Kindu 3
Ko 3
Kosov@@ 3
L.44 3
L.52 3
L.58 3
L.59 3
L.60 3
L.63 3
L.64 3
L.65 3
L.66 3
L.67 3
LX 3
Lake 3
LawA 3
Liber@@ 3
Libreville 3
Lieutenant 3
List 3
Loya 3
Lu@@ 3
MDRI 3
MEPC 3
MMSP 3
MSC.153 3
MSC.155 3
MSC.167 3
Ma@@ 3
Maastricht 3
Machinery 3
Maj@@ 3
Man@@ 3
ManagementUnited 3
Managing 3
Marrakech 3
Material. 3
Mazar-e 3
Mechanisms 3
Mediation 3
Messengers 3
Mexican 3
MillenniumResolution 3
MissionA 3
Mogadishu 3
Mohamed 3
Moncton 3
Mostar 3
Multi-Donor 3
Multidisciplinary 3
Multilaterally 3
Murahaleen 3
Nagasaki 3
Nanjing 3
Nassau 3
Nationalities 3
Nations-Civil 3
NavigationAdopted 3
Navy 3
Nile 3
Nippon 3
Nor@@ 3
North-West 3
Nuer 3
Nuremberg 3
Ny@@ 3
OPEC 3
Objectives 3
Obligations 3
Occupation 3
October-16 3
Olympics 3
Ongoing 3
Opportunity 3
Organ 3
Organizing 3
Others 3
Outbreak 3
PCNICC 3
Pa@@ 3
Palestinian-controlled 3
Pan@@ 3
Papers 3
Paragraph 3
Peace@@ 3
Pennsylvania 3
Personalities 3
Personnel@@ 3
Phase 3
Piracy 3
Plains 3
Plutonium 3
Potato 3
Pre@@ 3
President-elect 3
Presidential 3
Preventable 3
Preventive 3
Principal 3
Prison 3
Procedure 3
Productive 3
Prog 3
Prosecutors 3
Protocol@@ 3
ProtocolInternational 3
ProtocolResolution 3
ProtocolS 3
Province 3
Public-Private 3
Purposes 3
Pursuant 3
Qana 3
Quebec 3
Quest 3
Quick 3
RPM.1 3
RPM.2 3
RPM.3 3
RPM.4 3
Rabat 3
Railway 3
Reaffirmation 3
Recommends 3
Reconfirms 3
Regulation 3
Reinforcement 3
Rel@@ 3
RelationsS 3
Religions 3
RescueInternational 3
Rescued 3
Reservations 3
Resettlement 3
Resolving 3
Resource 3
Respecting 3
Responding 3
Restrictive 3
Rev@@ 3
Robbery 3
Room 3
Rough 3
Round-Table 3
Route 3
S-17 3
S-18 3
S-8 3
SER.B 3
SN 3
SPCONF 3
SR.2 3
SR.34 3
SR.35 3
SS.VI 3
Sa@@ 3
Scholarship 3
SeaIbid 3
Seas@@ 3
Secretary- 3
Sectoral 3
Sects 3
Self-Determination 3
Sensing 3
September-28 3
Ser@@ 3
Serb 3
ServicesSee 3
Seventh 3
Sh@@ 3
Sharif 3
Shi 3
Significant 3
SocietySee 3
Specially 3
Spirit 3
Spokesman 3
Start 3
Statements 3
Stop 3
Stories 3
Struggle 3
Sub-committee 3
Submit 3
Substantial 3
Succession 3
Sup@@ 3
Sustained 3
Sweden. 3
System@@ 3
SystemEconomic 3
SystemsUnited 3
TF 3
Tajik 3
Tajiks 3
Taloqan 3
Tanzania. 3
Targeting 3
Ter@@ 3
Textiles 3
Tokelauan 3
Total 3
Trans-Asian 3
Trans@@ 3
Transatlantic 3
Translation- 3
Travel 3
Trilateral 3
Two 3
UN-SPIDER 3
UNAIDS 3
UNDP 3
UNHCR 3
UNICEF 3
Ulu-o-Tokelau 3
Undertake 3
Uni@@ 3
University-@@ 3
Unleashing 3
Upon 3
Ur@@ 3
V.@@ 3
VI.@@ 3
VIII.@@ 3
Venezuela. 3
Vilnius 3
WG.18 3
WHA56 3
WP.2. 3
WeaponsIbid 3
Wednesday 3
Wide 3
Widespread 3
Wise 3
XXXVIII 3
Yanuca 3
Years 3
Z@@ 3
aIbid 3
abortions 3
absorption 3
accomplices 3
acquiesce 3
acted 3
actuary 3
acy 3
adjudicate 3
adjudication 3
adjustable 3
aff@@ 3
affluent 3
afforestation 3
age- 3
age-disaggregated 3
ageing-related 3
ah@@ 3
air@@ 3
airline 3
ala 3
all-@@ 3
all-inclusive 3
all-pervasive 3
all@@ 3
alleging 3
allies 3
alphabetical 3
altering 3
am 3
anadromous 3
analytically 3
and@@ 3
anti-@@ 3
appended 3
applauds 3
apportionments 3
appraisals 3
aquifers 3
arbitrator 3
ard 3
ard@@ 3
aries 3
aring 3
arity 3
arm@@ 3
arranging 3
arriving 3
arti@@ 3
articulation 3
ases 3
aspiring 3
assassinations 3
assembled 3
assert 3
asserting 3
assimilation 3
ast 3
asylum-seeker 3
asymmetries 3
ate@@ 3
atically 3
ative 3
ator 3
attentive 3
attitudinal 3
attorneys 3
attrition 3
au 3
au@@ 3
audience 3
augmenting 3
authentication 3
authenticity 3
avenues 3
awarding 3
awareness@@ 3
bait 3
bal@@ 3
ballast 3
bears 3
bedrock 3
bioethics 3
blocking 3
breakdown 3
broad@@ 3
budge@@ 3
budgeted 3
burning 3
bush 3
calculations 3
campaigning 3
cancellations 3
cap@@ 3
capitals 3
car@@ 3
cared 3
casualty 3
ced 3
challenged 3
channelled 3
charitable 3
cherished 3
child- 3
child-focused 3
child-headed 3
childrenResolution 3
church 3
cing 3
claimed 3
classification 3
cle@@ 3
climatic 3
clinical 3
co-publishing 3
co-sponsoring 3
co@@ 3
coca 3
collateral 3
combines 3
commend 3
commodity-@@ 3
community-related 3
compendium 3
compiled 3
complications 3
comprehensiveness 3
computer-assisted 3
concealed 3
concealing 3
concessionary 3
conferencesA 3
confidentially 3
confined 3
conflict-resolution 3
conflict@@ 3
conflicting 3
confront 3
connect 3
conscripting 3
consents 3
constitu@@ 3
constitutionally 3
consultant 3
container 3
contamination 3
contempt 3
continuum 3
contributor 3
cor@@ 3
corpus 3
correspondent 3
corresponds 3
cost-neutral 3
costing 3
cotton 3
counterfeit 3
credentials 3
cri@@ 3
crisis-prone 3
cross-@@ 3
cross-regional 3
cut-off 3
dead 3
deaf 3
deb@@ 3
debt-@@ 3
debt-management 3
deceased 3
dedicate 3
deep-sea 3
def@@ 3
deficit 3
defines 3
defray 3
delegated 3
delivers 3
democratically 3
demonstrators 3
den@@ 3
densely 3
dependant 3
depressed 3
deprivations 3
deputy 3
deserts 3
deserving 3
destinations 3
destined 3
diabetes 3
dietary 3
diff@@ 3
differentiation 3
diffuse 3
digests 3
direc@@ 3
disadvantage 3
disarm 3
disastrous 3
disbursed 3
discharges 3
discourse 3
discover 3
discovery 3
disguise 3
disguised 3
dismantling 3
dispatching 3
dispossession 3
disqualification 3
disrupt 3
dissuasive 3
distant 3
divides 3
divisions 3
domin@@ 3
donorship 3
down-blended 3
dra@@ 3
drivers 3
drop 3
drug-@@ 3
duplicative 3
e-Government 3
e-commerce 3
e. 3
eA 3
eSee 3
earmark 3
edition 3
effecting 3
efficacy 3
eighty-@@ 3
eighty-eight 3
elder-care 3
elective 3
elects 3
embarking 3
embedded 3
embracing 3
emigrated 3
emoluments 3
emotional 3
ency 3
energy-based 3
enforceability 3
enforceable 3
eng@@ 3
enlisting 3
enterprise@@ 3
ential 3
ents 3
ephedrine 3
equating 3
equipping 3
equivalents 3
eration 3
erecting 3
ered 3
ers@@ 3
esA 3
esIbid 3
ess@@ 3
et@@ 3
ets 3
euro-zone 3
everyday 3
evidencing 3
excellent 3
exhum@@ 3
expands 3
expectancy 3
expects 3
exploited 3
exploratory 3
extortive 3
extra@@ 3
faithfully 3
farming 3
fascism 3
favouring 3
favours 3
federations 3
fell 3
fertilization 3
fic@@ 3
fifthA 3
fifty-eigh@@ 3
fifty-nin@@ 3
fifty-nine 3
fifty-one 3
fin@@ 3
fired 3
firing 3
fishery-related 3
fix 3
flash 3
flawed 3
fled 3
foregoing 3
forgoing 3
formalize 3
forty-@@ 3
forty-two 3
founding 3
fra@@ 3
fragmented 3
francophone 3
fresh 3
full-scale 3
full-system 3
gang-related 3
gen@@ 3
gender-awareness 3
gender-sensitivity 3
get 3
getting 3
gift 3
goes 3
governors 3
grabbing 3
grandchildren 3
grant-based 3
gratis 3
groundwork 3
habitat 3
halted 3
hampered 3
hampers 3
handbooks 3
handled 3
hard@@ 3
hate 3
hidden 3
hierarchies 3
high-end 3
high-value 3
highland 3
hinders 3
hindrance 3
hired 3
honesty 3
honourable 3
hopelessness 3
hostage 3
houses 3
housing-finance 3
human-made 3
humans 3
hundredth 3
hydro 3
ice 3
ici@@ 3
identical 3
ids 3
ilc. 3
ile 3
ili@@ 3
iling 3
ill@@ 3
illiterate 3
imfsurvey. 3
immigrant 3
immovable 3
impacting 3
impairments 3
impart 3
inability 3
inadequately 3
inates 3
incarceration 3
incompatibility 3
incorporates 3
incur 3
inequity 3
iness 3
infiltration 3
infrastructure-development 3
infringement 3
ing-@@ 3
ingly 3
initialled 3
injuring 3
ins 3
inscription 3
insecticide 3
insidious 3
inspiration 3
installed 3
instil 3
insufficiently 3
insure 3
insurrectional 3
inter-bank 3
inter-institutional 3
inter-religious 3
interconnection 3
intergovernmentally 3
internationale 3
internment 3
internship 3
interoperability 3
interrelationships 3
intervene 3
interviews 3
intrareligious 3
intrinsic 3
isolating 3
iti@@ 3
ium 3
iz@@ 3
joined 3
judicious 3
ke 3
ked 3
king 3
l961United 3
l993 3
land@@ 3
landings 3
landmine-free 3
landscape 3
lapsing 3
launches 3
law. 3
lawfully 3
leasing 3
leg@@ 3
legal-aid 3
liaise 3
life-@@ 3
lifesaving 3
listened 3
literate 3
localization 3
lodged 3
lowland 3
loya 3
loyally 3
ls 3
mal@@ 3
malaria- 3
mammals 3
mar@@ 3
margin@@ 3
market-driven 3
marshal 3
massacred 3
mat@@ 3
me 3
mediated 3
mediators 3
memorials 3
men@@ 3
mi@@ 3
micro-organisms 3
microbicides 3
microeconomic 3
mid-point 3
minerals 3
minimizes 3
missed 3
mobilized 3
modus 3
morbidities 3
morbidity 3
motion 3
mount 3
mountain-related 3
ms 3
multimedia 3
multimodal 3
multiplication 3
named 3
nationalism 3
nearest 3
needs-assessment 3
negligible 3
neo-Fascism 3
neo-Nazi 3
ner 3
ninety-@@ 3
nodes 3
nodules 3
nomads 3
non-HIPC 3
non-criminal 3
non-duplication 3
non-judicial 3
non-nuclear 3
non-participation 3
non-parties 3
non-physical 3
non-racism 3
nonetheless 3
normalizing 3
north-eastern 3
noteworthy 3
notion 3
notional 3
nuclear-weapons-related 3
obliged 3
observatories 3
oc@@ 3
occup@@ 3
occupants 3
occupy 3
oceanographic 3
od@@ 3
off-budget 3
off@@ 3
oilfields 3
ologically 3
on-call 3
on-site 3
ong@@ 3
ons 3
operationally 3
operatives 3
operators 3
ordering 3
ordre 3
organizes 3
originals 3
origins 3
our@@ 3
outflow 3
outflows 3
outlines 3
over-training 3
overexploitation 3
overruns 3
overwhelming 3
ow@@ 3
pa@@ 3
packages 3
paper-based 3
par@@ 3
paramilitary 3
parent 3
partial 3
partly 3
partnership-building 3
passing 3
passive 3
pathogenic 3
pathogens 3
pe@@ 3
peace-related 3
peace-support 3
peer-reviewed 3
people-to-people 3
performances 3
permission 3
perpetrator 3
pertain 3
pervasiveness 3
piecemeal 3
pillage 3
ple@@ 3
ply 3
poison 3
pol@@ 3
polic@@ 3
populated 3
posing 3
post-judgment 3
post-release 3
postponed 3
postponing 3
potentials 3
pre-existing 3
pre-session 3
prediction 3
pregnancies 3
prejudicial 3
premise 3
premiums 3
pretrial 3
priority-setting 3
proactive 3
probable 3
proc@@ 3
processed 3
producer 3
produces 3
prof@@ 3
profession@@ 3
programme-based 3
projection 3
projections 3
promulgate 3
proportions 3
prorated 3
prosecutor 3
protects 3
protest 3
prudence 3
pseudoephedrine 3
purchased 3
quad@@ 3
quest 3
quick 3
quo 3
ran@@ 3
ratios 3
re-enter 3
re-justify 3
reactors 3
real-time 3
realigning 3
realistically 3
reclassifications 3
reclassified 3
recommit 3
recommits 3
recommitted 3
reconsider 3
reconstitute 3
reconstruct 3
record-keeping 3
redeployments 3
redundant 3
refresher 3
refrigerated 3
regionKazakhstan 3
registrar 3
rehabilitating 3
reinforces 3
reinstate 3
reinstatement 3
reintegrating 3
reinvigorate 3
relies 3
relieving 3
religion-based 3
relinquish 3
remarkably 3
remedying 3
rements 3
ren@@ 3
rently 3
repairing 3
repe@@ 3
replacing 3
repositories 3
repugnant 3
repurchase 3
reputation 3
rescheduling 3
resettled 3
resigns 3
resourcing 3
respondents 3
restart 3
restricting 3
restrictive 3
results-focused 3
retained 3
retaliation 3
retrieval 3
reuse 3
revenue-producing 3
ric@@ 3
rights- 3
risky 3
rockets 3
rolling 3
ron@@ 3
rose 3
rules-based 3
run@@ 3
running 3
ry 3
sIbid 3
sUnited 3
sa@@ 3
sacred 3
sanitary 3
satellite-based 3
schedules 3
seabird 3
searches 3
seasonal 3
second-highest 3
second-line 3
security-strengthening 3
sed 3
self-assessment 3
self-evaluation 3
self-sufficiency 3
seniority 3
ser@@ 3
settler 3
seven@@ 3
seventy-@@ 3
seventy-sixth 3
seventy-two 3
severance 3
sex- 3
shape 3
shares 3
sharp 3
shifts 3
shipwrecks 3
shops 3
sieges 3
signs 3
sincere 3
single-@@ 3
single-hull 3
sion@@ 3
sitting 3
sively 3
sixtieth@@ 3
sixty-eighth 3
sixty-five 3
sixty-four 3
sixty-one 3
sixty-seven 3
skill 3
soccer 3
somewhere 3
son 3
sor@@ 3
sorted 3
south-@@ 3
spacing 3
speakers 3
specialization 3
specifications 3
specifying 3
spoken 3
spokesman 3
spontaneous 3
sportsmen 3
sportswomen 3
statusA 3
statusSee 3
stem 3
sti@@ 3
stigmatization 3
store 3
storms 3
strategizing 3
stri@@ 3
strides 3
styled 3
sub-munitions 3
sub-plans 3
sub-themes 3
submarines 3
subnational 3
subregionally 3
subsidy 3
subsystem 3
succeeds 3
suggesting 3
suggestion 3
sunset 3
supervised 3
supplements 3
supplied 3
supplying 3
sure 3
surpluses 3
surrendering 3
sustenance 3
sym@@ 3
ta 3
tability 3
tank 3
tankers 3
technique 3
ter 3
tered 3
tested 3
thOfficial 3
theoretical 3
thereinA 3
thereonA 3
theretoA 3
thirty-one 3
thoughts 3
ths 3
tickets 3
tied 3
tighten 3
timber 3
tion-related 3
titling 3
too 3
top-heavy 3
tors 3
town 3
toxins 3
tra@@ 3
traced 3
tran@@ 3
tranquillity 3
transferable 3
travelling 3
tri@@ 3
tried 3
triennialization 3
twelve-month 3
ty@@ 3
ub@@ 3
unacceptability 3
under-representation 3
undercover 3
undergoing 3
undermined 3
undertakes 3
unfounded 3
unite 3
unused 3
unutilized 3
up@@ 3
ur@@ 3
ut@@ 3
utilizes 3
vaccinations 3
variation 3
varied 3
ved 3
ven@@ 3
vendor 3
verge 3
verifiability 3
ves 3
viii. 3
ving 3
vol@@ 3
volcanoes 3
warUnited 3
watercrafts 3
we@@ 3
weaknesses 3
well-@@ 3
well-defined 3
well-designed 3
went 3
whichever 3
wildlife 3
withheld 3
wor@@ 3
workplans 3
worlds 3
worse 3
worshippers 3
wrecks 3
www.bsec.gov.tr. 3
www.cep.unep.org. 3
www.gefweb.org. 3
www.unidroit.org 3
www.unidroit.org. 3
x@@ 3
youth-friendly 3
z 3
zation 3
zero-tolerance 3
é 3
&apos;a 2
,000,128 2
,14@@ 2
,220@@ 2
,30@@ 2
,33@@ 2
,340@@ 2
,456 2
,505 2
,50@@ 2
,667 2
,850 2
,958@@ 2
,96@@ 2
-L@@ 2
-by 2
.35 2
.4. 2
.II 2
.II.@@ 2
.II.D.@@ 2
.Ibid. 2
.Under 2
.United 2
0,200 2
0,4@@ 2
0,800 2
0-@@ 2
0.01 2
0.0@@ 2
001 2
01-@@ 2
07@@ 2
08 2
09 2
1,049 2
1,114,100 2
1,15@@ 2
1,26@@ 2
1,275,653,700 2
1,284,633 2
1,312,589,350 2
1,3@@ 2
1,458 2
1,575,700 2
1,580,430,150 2
1,88@@ 2
1,899,456,250 2
1-25 2
1-33 2
1-B 2
1.14 2
1.26 2
1.3 2
1.4 2
1.54 2
1.B 2
10,292,650 2
10,5@@ 2
10,6@@ 2
10,718,300 2
10.2 2
10.4 2
10.5 2
100,000 2
100.3 2
1002-S 2
1003 2
1004. 2
103-113 2
103. 2
104.7 2
1046 2
106,334,600 2
1061 2
1073 2
1077 2
11,8@@ 2
11,@@ 2
11-@@ 2
110. 2
1100 2
113. 2
115,500 2
1153 2
1154. 2
117. 2
1173 2
11A 2
11A.@@ 2
11th 2
12,400 2
12,641 2
12,700 2
12,785,200 2
12,810,200 2
12,8@@ 2
12,@@ 2
12-@@ 2
12.1 2
12.10 2
12.3 2
12.54 2
12.7 2
120@@ 2
121-E 2
124@@ 2
125. 2
126. 2
1266 2
127,300 2
127,900 2
128,536,700 2
1281 2
1284 2
1291 2
13,383,200 2
13,400 2
13,727,500 2
130-E 2
130. 2
1301 2
1309 2
130@@ 2
1322 2
1338 2
1340 2
1343 2
13446 2
135. 2
137,@@ 2
137-E 2
1376 2
1386 2
1392 2
13th 2
14,100 2
14,400,050 2
14,583,900 2
14,7@@ 2
14,@@ 2
14-23 2
14.@@ 2
140. 2
14152 2
1419 2
1441. 2
1461. 2
1480 2
1483 2
14Ibid 2
14th 2
15,637,800 2
15,638,200 2
15,6@@ 2
15.10 2
150,000 2
15020 2
1509 2
1512 2
1529 2
1534 2
1543 2
1545 2
1565 2
15749. 2
158. 2
1591. 2
1593 2
1596 2
15th 2
16,5@@ 2
16-@@ 2
16.7 2
162. 2
1625 2
1634 2
164. 2
1659 2
1675 2
17,00@@ 2
17,0@@ 2
17,6@@ 2
17,700 2
17,@@ 2
17- 2
17-26 2
17-@@ 2
17.1 2
17.13 2
1715 2
172,480,500 2
1721 2
173,6@@ 2
173. 2
174-S 2
1746 2
176,268,900 2
1772 2
178. 2
1798 2
18,80@@ 2
181. 2
182,444,000 2
183. 2
184. 2
185. 2
1869 2
189. 2
19-26 2
19.1 2
19.10 2
19.11 2
19.12 2
19.13 2
19.15 2
19.16 2
19.17 2
19.18 2
19.3 2
19.4 2
19.5 2
19.8 2
191,550,900 2
1911 2
1917 2
1926 2
193,245,850 2
193,337,100 2
193,819,705 2
194,823,300 2
1952 2
196,593,590 2
1962 2
1963United 2
1977@@ 2
1989. 2
1989Resolution 2
198@@ 2
1991-2000 2
1992-1993 2
1992See 2
1994@@ 2
1996-2005Ibid 2
1997International 2
1998-@@ 2
1999-2003 2
1999See 2
2,160,000 2
2,30@@ 2
2,384,700 2
2,442 2
2,60@@ 2
2,625,178,700 2
2,667,000 2
2,6@@ 2
2,77@@ 2
2-4 2
2-9 2
2.31 2
2.39 2
2.46 2
20,000 2
200,646,600 2
200,867,400 2
200,@@ 2
2000-2001Official 2
2000-2005 2
2000-@@ 2
2000@@ 2
2000Ibid 2
2001Agreement 2
2001Official 2
2002-2005Official 2
2002-2007 2
2002-@@ 2
2003-31 2
2003A 2
2003CTBT-Art.XIV 2
2004. 2
2004A 2
2005-2009@@ 2
2005-20@@ 2
2005-31 2
2006-@@ 2
2006Official 2
2008-20@@ 2
2008Official 2
2010-@@ 2
2016 2
202,500 2
205-S 2
207,246,100 2
2089 2
21,012,700 2
21,962,900 2
21-@@ 2
21.1 2
21.6 2
21.60 2
210,000 2
210. 2
211. 2
213. 2
214-219 2
2158 2
216. 2
2170 2
219-S 2
22.1 2
22.3 2
220. 2
222,031,700 2
2226 2
224-S 2
22484. 2
22514. 2
2256 2
22609. 2
227,600 2
227. 2
23,800 2
23,827,500 2
23,@@ 2
230,584 2
231,506,500 2
231. 2
23177 2
23177. 2
2326 2
2329 2
235,955,000 2
24,3@@ 2
24,8@@ 2
24-26 2
24.15 2
24.3 2
24.8 2
240@@ 2
24370 2
245-283. 2
248@@ 2
25,668,500 2
25,878,800 2
25,@@ 2
25.4 2
25.6 2
25.@@ 2
2502 2
2529 2
254,757,400 2
2542 2
255,909,500 2
25573 2
257,340,400 2
26,200 2
26,800 2
26,@@ 2
26-76 2
261-265 2
261. 2
262,653,700 2
262,900 2
262. 2
265,300 2
265. 2
27,7@@ 2
27.2 2
27.5 2
271. 2
273,025,800 2
2749 2
277,127,700 2
277. 2
2791 2
27A 2
27D 2
28,452,600 2
28,5@@ 2
28.22 2
282. 2
2861 2
29,0@@ 2
29,9@@ 2
29-GC 2
29004. 2
295. 2
296. 2
296th 2
298,437,000 2
299. 2
29A@@ 2
29C.@@ 2
29D.@@ 2
29E.@@ 2
3,098@@ 2
3,0@@ 2
3,160,860,300 2
3,18@@ 2
3,1@@ 2
3,307,300 2
3,4@@ 2
3,672,200 2
3,684,650 2
3,798,912,500 2
3,851,900 2
3,875,900 2
3,933,700 2
3.3 2
3.44 2
3.7 2
30,485,600 2
300. 2
301-303 2
304-333. 2
30865. 2
31,900 2
31,@@ 2
31.@@ 2
313. 2
314. 2
315,997,200 2
3166 2
316@@ 2
31874. 2
32,000 2
32.5 2
3208 2
322. 2
3237 2
326@@ 2
327-331 2
32724. 2
328. 2
329,317,900 2
329. 2
331. 2
3331 2
335. 2
337-361. 2
33873 2
342. 2
343,979,700 2
35,@@ 2
3511 2
354 2
359. 2
361-S 2
361. 2
364. 2
365. 2
369. 2
37,000 2
373. 2
376,400 2
377. 2
37789 2
379@@ 2
383. 2
384. 2
386,587,300 2
386,892,500 2
387. 2
388. 2
39,458,000 2
391. 2
392. 2
39486. 2
39574 2
4,0@@ 2
4,171,359,700 2
4,237,100 2
4,300 2
4,370,800 2
4,39@@ 2
4,49@@ 2
4,517,100 2
4,595,100 2
4,5@@ 2
4,600 2
4,9@@ 2
4-FCCC 2
4.1 2
4.3 2
4.5 2
4.9 2
400,000 2
40214. 2
409. 2
41,0@@ 2
410 2
410. 2
414 2
415@@ 2
42,695,300 2
42. 2
42146. 2
425. 2
427 2
428,977,800 2
42nd 2
43,066,850 2
43,237,650 2
43,900 2
43. 2
438,366,800 2
44,9@@ 2
44. 2
441. 2
451. 2
453. 2
458 2
462.88.12.E. 2
47,844,850 2
478. 2
479. 2
48,312,450 2
48.13 2
480. 2
483. 2
484. 2
49,300 2
494,887,000 2
5,0@@ 2
5,100 2
5,200 2
5,3@@ 2
5,8@@ 2
5-7 2
5.29 2
5.39 2
5.4 2
5.9 2
50-@@ 2
503. 2
52@@ 2
53,518,525 2
539@@ 2
54,800 2
54-@@ 2
54.14 2
544. 2
547. 2
548-S 2
549. 2
557. 2
55th 2
56-@@ 2
56. 2
56.1 2
56.28 2
56.29 2
569. 2
57,469,600 2
573. 2
576. 2
58,066,375 2
58,400 2
58.2 2
581-S 2
583. 2
584. 2
585 2
585. 2
586. 2
59,200 2
59,@@ 2
599. 2
6,500 2
6,5@@ 2
6,7@@ 2
6,863,750 2
6,8@@ 2
6,900 2
6.6 2
60,187,150 2
60,400 2
60,500 2
602. 2
61,089,600 2
61,600 2
61,722,500 2
61,@@ 2
61.6 2
611 2
613 2
616. 2
619. 2
6193 2
62,434,375 2
621 2
624 2
63,045,250 2
632 2
632. 2
633-S 2
635 2
639 2
64,275,950 2
641. 2
642. 2
644 2
647 2
649. 2
64Ibid 2
65,656,200 2
654 2
656 2
66,900 2
66-@@ 2
66. 2
663 2
664 2
666. 2
667 2
67,439,600 2
676. 2
678 2
68,031,400 2
689 2
69,123,700 2
69,577,475 2
694 2
695 2
7,300 2
7,400 2
7,4@@ 2
7,500 2
7,700 2
7-19 2
7-@@ 2
7.5 2
70-E 2
70. 2
707 2
70th 2
71,124,250 2
714 2
716 2
717. 2
718 2
72,200 2
72-75. 2
725 2
730 2
737 2
739 2
747 2
748 2
75-E 2
750 2
76,221,950 2
76,@@ 2
76-95 2
76-E 2
76. 2
78,995,675 2
781,300 2
783 2
786 2
786. 2
79,200 2
8,081,900 2
8,100 2
8,26@@ 2
8,2@@ 2
8,3@@ 2
8,400 2
8,4@@ 2
8,500 2
8,950 2
8.12 2
8.14 2
8.18 2
8.31 2
8.39 2
80-E 2
80.4 2
800 2
809 2
81,300,850 2
81,600 2
81,@@ 2
81-E 2
812 2
82. 2
834 2
835 2
84-E 2
841 2
849 2
85,6@@ 2
85,@@ 2
850-S 2
850. 2
853 2
853-E 2
853. 2
85@@ 2
86,940,250 2
860 2
860. 2
861 2
866 2
87,344,825 2
87. 2
88,605,150 2
88,933,450 2
88-E 2
88. 2
883 2
888,800 2
891. 2
8Ibid 2
8th 2
9,115,500 2
9,150 2
9,308 2
9,418,200 2
9,4@@ 2
9,500 2
9,800 2
9.3 2
9.4 2
9.7 2
90,000 2
90,148,375 2
90-111. 2
901 2
903 2
904. 2
909. 2
910 2
92. 2
925. 2
92@@ 2
93-E 2
93.7 2
936 2
94,621,400 2
94. 2
942 2
95,883,600 2
95-E 2
95. 2
96,500 2
97-E 2
98,050,450 2
98-S 2
980 2
99-E 2
A-@@ 2
A-C. 2
A-E. 2
A.963 2
A.973 2
A.974 2
A.97@@ 2
AC.172 2
AC.254 2
AC.259 2
AG 2
AHSG 2
AIDS- 2
AIDS-infected 2
ASSEMBLY 2
Absolute 2
Accessibility 2
Accidents 2
Accounts 2
Acknowledges 2
Action@@ 2
Actively 2
Adap@@ 2
Add.1-27 2
Add.1-4 2
Add.1-@@ 2
Add.18. 2
Add.2-6. 2
Add.23. 2
Add.25. 2
Add.35. 2
Add.9. 2
Adelboden 2
Adherence 2
AdministrationA 2
Adopting 2
Advise 2
Affected 2
Affirms 2
Afghanistan@@ 2
AfghanistanSee 2
AfricaOfficial 2
Against 2
Agents 2
AgreementAgreement 2
AgreementS 2
AgreementsFCCC 2
Alegre 2
Algeria. 2
Allocation 2
Amalie 2
An@@ 2
AnguillaA 2
AntarcticaA 2
Anti-doping 2
Anti-fouling 2
Ap@@ 2
Apparatuses 2
Appropriate 2
Arch@@ 2
Arctic 2
Armaments 2
Asia-Africa 2
Assembly@@ 2
Assessments 2
Assignments 2
Atambua 2
Au@@ 2
Auth@@ 2
Automatic 2
Avian 2
AwardsUnited 2
Awareness-raising 2
Baie 2
Balkan 2
Bang@@ 2
Basel 2
Bearing 2
BeliefSee 2
Benefits 2
BermudaA 2
Bermudian 2
Bern@@ 2
Biketawa 2
Biwa 2
Blair 2
Blue 2
Bo@@ 2
BodiesUnited 2
Bon@@ 2
Bordeaux 2
Br@@ 2
Brisbane 2
Build 2
Bure@@ 2
BurundiA 2
Bus@@ 2
C.@@ 2
CA 2
CG 2
CMP 2
CONF.2 2
CONF.26 2
CONF.3 2
CONF.4 2
CONF.48 2
COP.8 2
CP.3. 2
CP.4. 2
CP.8. 2
CTBT-ART.XIV 2
CTBT-Art 2
CTBT-Art.XIV 2
Cambodi@@ 2
Cambridge 2
Can@@ 2
Caracas 2
Care 2
Cartographic 2
Cas@@ 2
Cataloguing 2
Catastrophes 2
Caucasus 2
Centres 2
CenturyResolution 2
Chairmanship 2
Chairperson-@@ 2
Chairperson-designate 2
Chairs 2
ChangeIbid 2
Channel 2
Chapters 2
Charlotte 2
Chechen 2
Child@@ 2
ChildA 2
ChildCRC 2
ChildOfficial 2
Children@@ 2
Chri@@ 2
Churches 2
Circ.380 2
Clandestine 2
Cleaner 2
Clearing 2
Cler@@ 2
Co-sponsors 2
CodeInternational 2
Coherence 2
ColonialismSee 2
Commemorating 2
CommissionResolution 2
Commissioners 2
Committee. 2
CommunityTD 2
Compacts 2
Comply 2
Conc@@ 2
Concerned 2
Conclusions 2
Concord 2
Conference-European 2
Conference. 2
ConferenceSee 2
ConflictIbid 2
ConflictUnited 2
Conflicts 2
Congratulating 2
Cons@@ 2
ConsensusMonterrey 2
ConsensusTD 2
Considers 2
Constituent 2
Consumption 2
Continued 2
Continuous 2
Contract 2
Controlled 2
Conveys 2
Convinced 2
Coordination@@ 2
CoordinationFormerly 2
Corpor@@ 2
Corporate 2
Corridor 2
Coun@@ 2
CouncilOfficial 2
Councillors 2
Councils 2
CounselA 2
CourtIbid 2
Create 2
Cri@@ 2
Crime@@ 2
CrimeAdopted 2
Cro@@ 2
Croats 2
Cross-@@ 2
Cross-Border 2
Current 2
Cusco 2
Customary 2
Cyber@@ 2
Cycle 2
D.@@ 2
DHA 2
DS 2
Danish 2
Database 2
Dec.127 2
Dec.132 2
Dec.192-235 2
DecadeSee 2
Decades 2
Decl.4 2
Declaration@@ 2
DeclarationIbid 2
Declaring 2
Def@@ 2
Defin@@ 2
Delivering 2
Demobilization 2
Democracies@@ 2
Democracy-Goma 2
Demonstration 2
Dependency 2
Desktop 2
DiscriminationIbid 2
Disease 2
DiseasesA 2
Disengagement 2
Dismayed 2
DiversityIbid 2
Docu@@ 2
Drodro 2
E.00.IX.3 2
E.00.IX@@ 2
E.01.IX@@ 2
E.01.V.4. 2
E.02.II.D.13 2
E.02@@ 2
E.04.II.D.27 2
E.04.IV.4. 2
E.04.V.7. 2
E.06.III.Q@@ 2
E.06@@ 2
E.07.@@ 2
E.77.V.6. 2
E.82.I.16 2
E.87.I.18 2
E.94.XIV.1 2
E.98.III.B.18 2
EB 2
EC@@ 2
EM-I 2
EX 2
EXT 2
Economy 2
Effecting 2
Effects. 2
EffectsUnited 2
El-Jiyeh 2
Elements 2
Emergencies 2
Emphasize 2
Emphasizes 2
Emphasizing 2
Empowering 2
Engineering 2
Enterprise 2
Estimates 2
Europe@@ 2
European-Asian 2
EvaluationST 2
Evolution 2
Examine 2
Examining 2
Executing 2
Execution 2
Expanding 2
Exploring 2
Expressions 2
Extra-legal 2
Extrajudicial 2
F8@@ 2
FIRMS 2
Fa@@ 2
Facilitators 2
Facility-UNITAID 2
Fact-finding 2
Faipule 2
FamiliesIbid 2
FamiliesUnited 2
Fav@@ 2
Feedback 2
Female 2
Fibres 2
Fifth-@@ 2
FishCODE 2
Fisheries@@ 2
FishingFood 2
Fl@@ 2
Flag 2
Flemming 2
Focus 2
FolkloreUnited 2
Food-importing 2
For@@ 2
ForceA 2
Forecasts 2
Formulating 2
ForumThe 2
Founder 2
Four 2
France-Oceania 2
Frankfurt 2
Freezing 2
Ful@@ 2
Fuller 2
Furthering 2
G. 2
GC.@@ 2
GGE 2
GP 2
GRAME 2
GRID 2
Gabarone 2
Gatumba 2
Gazette 2
General-Secretary 2
Generation 2
Genital 2
Genome 2
Geological 2
Geophysical 2
GeorgiaSee 2
Geoscience 2
German 2
Give 2
Good-Neighbourly 2
Govern@@ 2
GovernmentsA 2
Grade 2
Grand 2
GuamA 2
HA 2
HIPC-to-HIPC 2
HIV-positive 2
HLevel 2
HNS-OPRC 2
HagueA 2
HaitiA 2
Hal@@ 2
Ham@@ 2
Hamid 2
Han@@ 2
Hashimoto 2
He@@ 2
Health@@ 2
HelenaA 2
Hema 2
Herat 2
His 2
Hol@@ 2
Honduras. 2
Hostages 2
Hostilities 2
Humanities 2
I.E 2
IC@@ 2
ICC@@ 2
ICCM.1 2
ICT-based 2
IDB.@@ 2
II.C. 2
II.C.1 2
IIA 2
III.@@ 2
III.B. 2
III.G. 2
III.Q.1 2
IIISee 2
IM@@ 2
INF-1203. 2
INSTRAW 2
IOC-XXII 2
IS3.5-13 2
ISDR 2
IUnited 2
IV.28 2
IV.29 2
IV.4 2
IV.C. 2
IV.C.2 2
IV.C.2. 2
IV.G 2
IX. 2
Identity 2
Immunisation 2
Immunity 2
Implementation.Plan 2
ImplementationIbid 2
Improvements 2
Incidents 2
Include 2
Inclusive 2
Incorporating 2
Indices 2
Indonesian 2
Influenza 2
Inform@@ 2
InformationA 2
Innovation 2
InstituteA 2
Intangible 2
Intensifying 2
Intentional 2
Intera@@ 2
Internationally 2
Invi@@ 2
Involving 2
Iranians 2
Iris 2
Irregular 2
Islam-Christianity 2
Issu@@ 2
Isthmus 2
JA 2
Japan. 2
Jesus 2
Jonas 2
Judge 2
July-6 2
Junior 2
Jurisdiction 2
KP 2
Kabila 2
Kal@@ 2
Kempton 2
Khatami 2
Kib@@ 2
Kil@@ 2
Kimia 2
Kisangani 2
Kisumu 2
Knowledge-Sharing 2
Koror 2
Kosovar 2
L.262. 2
L.61 2
L.62 2
L.68 2
L.69 2
L.70 2
L.71 2
LC 2
LEG.3 2
LVI 2
Later 2
Lawyer 2
Lawyers 2
Lendu 2
Lin@@ 2
Links 2
Long-term 2
LuandaIbid 2
Lur@@ 2
MC 2
MC.II 2
MEPC.@@ 2
MERCOSUR 2
MI@@ 2
MSC.202 2
MSP.6 2
Mac@@ 2
Machakos 2
Main@@ 2
Maintaining 2
Malmö 2
ManagementIbid 2
ManagementInternational 2
ManagementSee 2
Martin 2
Maseru 2
Mass 2
Master 2
Mayak 2
Mayor 2
Medical 2
Medium-Range 2
Merano 2
Merge 2
Meso-American 2
Message 2
Mic@@ 2
Milan 2
Min 2
Minutes 2
Missions 2
Mitchell 2
Mitigating 2
Mon 2
Monrovia 2
Montevideo 2
MontserratA 2
Montserratians 2
Mor@@ 2
Ms. 2
Multi-Country 2
Mutilation 2
Myanmar-International 2
Mérida 2
NEPAD 2
NI 2
Nandan 2
Naples 2
Nation 2
Nations-United 2
Nations-mandated 2
Nations@@ 2
NationsFood 2
Nazism 2
Necessary 2
Negative 2
Negrophobia 2
Net 2
Net@@ 2
Nets 2
No.3 2
No.7A 2
No@@ 2
Nodules 2
Non-@@ 2
Non-Discrimination 2
Notification 2
Noxious 2
Nuclear-Weapon 2
OHCHR 2
ObjectsResolution 2
Observ@@ 2
Observers 2
Observing 2
Oc@@ 2
October-12 2
October-2 2
Off@@ 2
Ohrid 2
Oil 2
Ombuds@@ 2
Operational 2
OperationsA 2
Opposes 2
Options 2
Organization-wide 2
Organization. 2
Organization@@ 2
OrganizationUnited 2
OrganizationWorld 2
Organize 2
Original 2
Osaka 2
Oscillation 2
Ossetia 2
Oub@@ 2
Outline 2
Owed 2
PRK 2
PV.39 2
PV.40 2
PV.4635 2
PV.4852 2
PV.5066 2
PV.72 2
Pacification 2
Pak@@ 2
Palace 2
Par@@ 2
Park 2
Parliaments 2
Particip@@ 2
Partnership@@ 2
Pat@@ 2
PauloTD 2
Peace-Building 2
Pen@@ 2
PeoplesA 2
Per@@ 2
Percy 2
Persons@@ 2
PersonsA 2
Peter 2
Petersburg 2
PitcairnA 2
Pl@@ 2
Po@@ 2
Pol@@ 2
PollutantsUnited 2
Polymetallic 2
Potential 2
Predicate 2
Prediction 2
Premier 2
Preparation 2
Prepare 2
President-designate 2
Pri@@ 2
Principle 2
Prison@@ 2
Proc@@ 2
Processes 2
Produc@@ 2
Producers 2
Professor 2
Prog.1 2
Programme@@ 2
Progs.2 2
Prohibit 2
Proposals 2
Propose 2
Prospecting 2
Protection@@ 2
ProtocolSee 2
ProtocolUnited 2
Published 2
Publishing 2
Pubs 2
PunishmentUnited 2
Putting 2
Pyongyang 2
QuestionsA 2
Quotas 2
R780 2
RES.@@ 2
Raising 2
Reas@@ 2
Rede@@ 2
Reference 2
Refuge@@ 2
RegionUnited 2
Reintegration 2
Relation 2
RelationsSee 2
Reletter 2
ReliefWeb 2
Rem@@ 2
Removal 2
Removing 2
Reorganization 2
Reparations 2
Representing 2
Republic@@ 2
Res.457 2
ResearchA 2
Retreat 2
Rev.4 2
Revisers 2
Revolution 2
Rivers 2
Rom@@ 2
Romanian 2
Royal 2
Rwand@@ 2
Rwandans 2
S-@@ 2
S.@@ 2
SAICM 2
SPIDER 2
SR.10 2
SR.13 2
SR.14 2
SR.1486 2
SR.15 2
SR.4 2
SR@@ 2
SS.VIII 2
START-accountable 2
Saharo-Sahelian 2
Saluting 2
Salvage 2
Samarkand 2
SamoaA 2
San@@ 2
Sangkat 2
Satya 2
Savimbi 2
Scale 2
Schem@@ 2
Seafarers 2
Sec@@ 2
Secretary-General.A 2
Secretary-General@@ 2
Sectors 2
Secure 2
Serbs 2
ServiceA 2
Services@@ 2
ServicesA 2
Seventy-seven 2
Sha@@ 2
Shaping 2
Shar@@ 2
Shomali 2
Signals 2
Signs 2
Similar 2
Simplifying 2
Siracusa 2
Sirte 2
Situations 2
Six-Party 2
Slovenian 2
Sofia 2
Sol@@ 2
SourcesGOV 2
SourcesInternational 2
South-east 2
Spain. 2
Sponsorship 2
Staff-Management 2
Stand@@ 2
Standpoint 2
State-@@ 2
State-appointed 2
StrategyResolution 2
StrategyS 2
Struc@@ 2
Structures 2
Sub@@ 2
Sudan@@ 2
Summaries 2
SummitA 2
Sunday 2
Supervision 2
Supports 2
Survivors 2
Syn@@ 2
System-wide 2
SystemUnited 2
THEREOF 2
Taliban-held 2
Talks 2
Ten-year 2
Tenure 2
Terrorism@@ 2
TerrorismSee 2
These 2
Thimpu 2
Thirteen 2
Thirty-@@ 2
Thre@@ 2
Threats 2
Timeliness 2
Timor-Les@@ 2
Tobacco 2
Togo. 2
Tony 2
Top 2
Traffic@@ 2
Transfers 2
Transformation 2
Translation 2
Tre@@ 2
TreatyInternational 2
Trinational 2
Trondheim 2
Tshkhinvali 2
Tuna 2
Tuni@@ 2
Turk@@ 2
Tw@@ 2
Twenty-First 2
Twenty-fourth 2
Twenty-sixth 2
Two-hundredth 2
UN-Biotech 2
UN-I-QUE 2
UN@@ 2
UNDCP 2
Ugandan 2
UnitSee 2
UnityOn 2
Unlearning 2
Unresolved 2
Unrestricted 2
Untied 2
Up@@ 2
Upper 2
Uzbek 2
V.D. 2
VI-Regulations 2
VI. 2
Valencia 2
Values 2
Vanuatu. 2
VehiclesA 2
Vice-Chairpersons 2
Vientiane 2
Villages 2
Virtual 2
Voices 2
WG@@ 2
WH@@ 2
WHA55.@@ 2
WHA60 2
WHA@@ 2
Wa@@ 2
WarUnited 2
Weapons2000 2
Weapons@@ 2
Weather 2
Webwww.worldvolunteerweb.org. 2
Wellington 2
What 2
Widow 2
WildlifeAvailable 2
Windhoek 2
Within 2
Women@@ 2
Workshops 2
XI. 2
XII. 2
XIII.@@ 2
XX.1. 2
XXX@@ 2
Yalta 2
Yodo 2
Yugoslavi@@ 2
aA 2
abad 2
abandonment 2
abelling 2
abetting 2
ably 2
abor@@ 2
abrupt 2
absolutely 2
absorb 2
absorbed 2
abundance 2
abuseST 2
acc@@ 2
accedes 2
accentuation 2
accep@@ 2
accessibly 2
accommod@@ 2
account-@@ 2
accountabilityA 2
accumulating 2
ace 2
aches 2
achievable 2
actionAs 2
acuteness 2
adap@@ 2
addic@@ 2
ads 2
adul@@ 2
advertised 2
advis@@ 2
advises 2
advisories 2
afric@@ 2
ageing-@@ 2
agent 2
agreement@@ 2
agro-based 2
agu@@ 2
ah 2
ain@@ 2
aires 2
airlines 2
airspace 2
aker 2
al-@@ 2
al-level 2
ales 2
ali 2
alive 2
alleviated 2
allied 2
altern@@ 2
ami@@ 2
amnesty 2
amphetamine 2
ample 2
ang 2
anga 2
angu@@ 2
animosity 2
ann@@ 2
annexes. 2
annotated 2
announce 2
annu@@ 2
annul 2
anonymous 2
antagonistic 2
anti-bullying 2
anti-doping 2
anti-racist 2
anti-terrorism 2
antly 2
any@@ 2
anything 2
ape 2
apology 2
app@@ 2
appearing 2
appellate 2
appraising 2
appreh@@ 2
appro@@ 2
approached 2
approximately 2
aquifer 2
ar-@@ 2
arable 2
aran@@ 2
arduous 2
area-based 2
arid 2
arize 2
arm 2
armament 2
arrivals 2
arrive 2
artifacts 2
artistic 2
as-available 2
ask 2
ass 2
assassination 2
assemblies 2
asser@@ 2
assessable 2
assessmenta 2
assistant 2
assistants 2
associ@@ 2
assu@@ 2
at-large 2
at-risk 2
at-sea 2
atch 2
athletic 2
ations@@ 2
atively 2
atization 2
atorial 2
attachment. 2
attendant 2
attests 2
attributed 2
audio 2
auditor 2
augmentation 2
augmented 2
aul 2
authoritative 2
automatic 2
autumn 2
aux 2
auxili@@ 2
avi@@ 2
awa@@ 2
az@@ 2
b. 2
backed 2
ban@@ 2
bar 2
barrier-free 2
baselines 2
battle 2
bearer 2
beating 2
bed 2
bednets 2
beds 2
beforehand 2
begins 2
believes 2
berg 2
bers 2
beset 2
best-practice 2
better-performing 2
bibliographic 2
biennialized 2
bigotry 2
bills 2
bio@@ 2
biogeographic 2
biotechnologies 2
blacks 2
bleak 2
blind 2
blocks 2
blueprint 2
bly 2
bom@@ 2
bombardments 2
bombers 2
bond@@ 2
bookstores 2
borrow 2
borrowings 2
bour 2
bre@@ 2
bribes 2
broadcast 2
bu@@ 2
bug 2
bur@@ 2
bureaucracy 2
burg 2
businessmen 2
buyout 2
by-@@ 2
by@@ 2
ca 2
cadre 2
cal 2
calibre 2
cally 2
campuses 2
cancelled 2
candidature 2
cant@@ 2
cantonal 2
capacity-development 2
card 2
care@@ 2
caring 2
cas@@ 2
catalogue 2
cataloguing 2
caution 2
celebrities 2
cen@@ 2
centr@@ 2
centrally 2
centres@@ 2
centu@@ 2
ceremonial 2
ceremony 2
chairperson 2
chambers 2
chap@@ 2
characteri@@ 2
charterers 2
checklist 2
checks 2
chiefs 2
child-oriented 2
cht 2
churches 2
citations 2
clarified 2
classroom 2
clean-out 2
climate-study 2
clin@@ 2
clubs 2
clustering 2
co-financing 2
co-hosted 2
cocaine 2
coer@@ 2
cognitive 2
collabor@@ 2
collaborating 2
collaborators 2
collegial 2
colony 2
com@@ 2
combated 2
combining 2
commander 2
commemorating 2
commercialThe 2
commissionsA 2
commodity-processing 2
commune 2
communications-based 2
communiqués 2
commutation 2
commuted 2
comp@@ 2
compacts 2
companion 2
comparability 2
compensated 2
competency 2
competitions 2
complacency 2
complainant 2
completes 2
compound 2
comprises 2
conceived 2
concessions 2
concordance 2
concurrent 2
condone 2
conducts 2
conf@@ 2
confers 2
confident 2
configurations 2
confirmations 2
conflict-free 2
confront@@ 2
confrontation 2
congratulations 2
conscientious 2
consequential 2
considerationA 2
consignment 2
consortium 2
constitution-drafting 2
constra@@ 2
constructing 2
contested 2
continually 2
contro@@ 2
convenes 2
conventionsThese 2
conver@@ 2
cooper@@ 2
cooperation. 2
corporeal 2
correspondence 2
corridor 2
corruption-related 2
counter@@ 2
counterclaim 2
countersigned 2
countries.Official 2
country-owned 2
coup 2
courseCLCS 2
cover-up 2
cr 2
creativity 2
cred@@ 2
crew 2
criminalizing 2
criminally 2
criterion 2
critic@@ 2
cross-fertilization 2
cross-section 2
cru@@ 2
cs 2
culminated 2
culminating 2
cum@@ 2
curriculums 2
custodial 2
cutting 2
cyberspace 2
da@@ 2
data-@@ 2
databank 2
day-to-day 2
dealings 2
debt-burden 2
debt-for-sustainable-development 2
debt-sustainability 2
debt-tracking 2
debt-work-out 2
deci@@ 2
decision-makers 2
definitively 2
degraded 2
degrees 2
delegating 2
deleted 2
delinquency 2
deliveries 2
demobilizing 2
democracySee 2
denuclearization 2
deprives 2
derogate 2
ders 2
describe 2
descriptions 2
designee 2
designs 2
desks 2
desperation 2
destitution 2
detailing 2
detain 2
detectable 2
deteriorate 2
determin@@ 2
devastated 2
developmentE 2
dicta@@ 2
differentials 2
dilatory 2
dimin@@ 2
diminished 2
disaggreg@@ 2
disallow 2
disarming 2
disaster-@@ 2
disaster-preparedness 2
disaster-related 2
disasters. 2
disbanding 2
disburse 2
disbursements 2
disbursing 2
disconnect 2
discontinuation 2
discretionary 2
discriminating 2
dismantled 2
disorder 2
disorders 2
disparate 2
dispersal 2
disperse 2
display 2
displayed 2
displays 2
dispos@@ 2
disposed 2
disregarded 2
distinguished 2
distor@@ 2
distressed 2
distributing 2
distric@@ 2
distur@@ 2
diversions 2
divert 2
diverting 2
divor@@ 2
domestication 2
don@@ 2
donations 2
doubling 2
doubts 2
downsizing 2
downward 2
dre@@ 2
drifting 2
drinkable 2
dro@@ 2
drop-out 2
drug-trafficking 2
drug-using 2
du@@ 2
duce 2
duplications 2
duress 2
duty- 2
duty-bound 2
dying 2
dynamics 2
e-of-@@ 2
ean@@ 2
earned 2
easy-to-use 2
ecology 2
economical 2
ecotourism 2
educative 2
ef 2
efs 2
eigh@@ 2
eighty 2
eighty-eighth 2
eighty-five 2
eighty-one 2
eighty-two 2
eing 2
el-@@ 2
electing 2
electricity 2
eleventhA 2
eleventhFCCC 2
eli@@ 2
ell@@ 2
els 2
elucidate 2
elusive 2
emanated 2
emanates 2
emancipate 2
emancipated 2
emb@@ 2
embarkation 2
embrace 2
enc@@ 2
enclosure 2
endangering 2
endings 2
endure 2
ened 2
eng 2
engagements 2
engages 2
enge 2
engine@@ 2
enlarged 2
enlightened 2
enn@@ 2
ent-@@ 2
entieth 2
entirety 2
entitle 2
entitles 2
entrench 2
entrenched 2
environs 2
envisaging 2
envoy 2
eous 2
epidemiology 2
eption 2
equ@@ 2
equalize 2
equities 2
equivalencies 2
er-@@ 2
eradic@@ 2
eroded 2
err@@ 2
escal@@ 2
ese 2
essence 2
ession 2
essness 2
essor 2
est@@ 2
este@@ 2
esti@@ 2
estimatesA 2
ethic 2
evaded 2
evaluation-oriented 2
eve 2
eventuality 2
evicting 2
evidence- 2
evil 2
evolves 2
ex 2
ex-@@ 2
exacerbation 2
exam@@ 2
exc@@ 2
execu@@ 2
exer@@ 2
exha@@ 2
exhaustion 2
exp@@ 2
expecting 2
expelled 2
expensive 2
explained 2
explosion 2
export-earnings 2
exposing 2
exten@@ 2
extinction 2
extremes 2
eyewitnesses 2
fa@@ 2
facilitators 2
faction 2
factional 2
factoring 2
fail 2
fairer 2
faiths 2
fallen 2
falsified 2
fam@@ 2
family- 2
family-@@ 2
farm 2
farmers. 2
fascicles 2
fast-track 2
fatalities 2
fe@@ 2
felt 2
female-headed 2
feminized 2
fi@@ 2
fied 2
field. 2
fies 2
fif@@ 2
fifty-fif@@ 2
fifty-ninthOfficial 2
fifty-three 2
files 2
finds 2
fir@@ 2
fires 2
first-@@ 2
first@@ 2
firstFCCC 2
fitting 2
fl@@ 2
flee 2
fleets 2
flo@@ 2
followers 2
foods 2
footprint 2
forest-@@ 2
forest-dependent 2
forever 2
forgiveness 2
formalizing 2
formatting 2
fouling 2
four@@ 2
fourthA 2
fragmentation 2
francs 2
free-association 2
freelance 2
freezes 2
fron@@ 2
frontier 2
fruits 2
ful 2
full-fledged 2
functionally 2
fur@@ 2
furnishing 2
furniture 2
ga@@ 2
gathers 2
ge@@ 2
ged 2
gement 2
gend@@ 2
gender-appropriate 2
gender-disaggregated 2
gender-segregated 2
gender-sensitization 2
gender-sensitized 2
gener@@ 2
generational 2
geosciences 2
geospatial 2
geotechnical 2
ges 2
gh@@ 2
gi@@ 2
girl-child 2
gl@@ 2
good-quality 2
governments 2
graphy 2
gri@@ 2
grievances 2
groundwaters 2
group@@ 2
grown 2
guard 2
guardian 2
h-@@ 2
ha@@ 2
habitually 2
hal@@ 2
hampering 2
handbook 2
happiness 2
harvested 2
head@@ 2
headings 2
helmets 2
hemispheric 2
here@@ 2
hereto 2
heretofore 2
heritages 2
heroin 2
hierarchy 2
high-@@ 2
high-profile 2
high-ranking 2
historically 2
hit 2
hits 2
ho@@ 2
hom@@ 2
home-grown 2
homeless 2
honor@@ 2
housing-related 2
htm. 2
humanrights. 2
humiliate 2
humiliating 2
hurts 2
hy@@ 2
hydrates 2
hydro-meteorological 2
hydrography 2
hydrologic 2
ia 2
ials 2
ic-@@ 2
icable 2
id 2
ide 2
ient 2
igh 2
igh@@ 2
ignorance 2
ilit@@ 2
ille 2
illustrative 2
ily 2
immigrants 2
impact-assessment 2
impaired 2
impairment 2
imparting 2
impl@@ 2
implantation 2
implements 2
improves 2
ina 2
inaccessible 2
inate 2
incapacity 2
income-generating 2
incorporeal 2
indefinite 2
indemnity 2
index.htm. 2
industr@@ 2
ine 2
inexpensive 2
infested 2
inflexibility 2
inflows 2
influ@@ 2
informative 2
infringements 2
infringing 2
inhalant 2
inherit 2
inherited 2
ining 2
initiativeSee 2
inland 2
inos 2
inserted 2
insi@@ 2
inspections 2
inspire 2
instigator 2
institution@@ 2
institutionalization 2
instruc@@ 2
instrument@@ 2
instrumentsThe 2
insufficiency 2
insurgent 2
int. 2
intact 2
integrally 2
intently 2
inter-ethnic 2
inter-organizational 2
intercepting 2
interconnectivity 2
intercontinental 2
interdependencies 2
interferes 2
interi@@ 2
interlinkage 2
intermediation 2
intermodal 2
interns 2
interpreter 2
interpreting 2
intersection 2
intervened 2
interwoven 2
intifada 2
intimidatory 2
intrinsically 2
introductory 2
investigators 2
investigatory 2
invigorating 2
invoices 2
involuntarily 2
ip@@ 2
ired 2
iron 2
irrelevant 2
irrevocable 2
irrigation 2
irs 2
ished 2
ishment 2
issu@@ 2
issuances 2
ist 2
ite 2
iters 2
itu@@ 2
ity-related 2
ity@@ 2
izers 2
izing 2
jails 2
ject 2
jir@@ 2
journalist 2
judgemental 2
jurists 2
justi@@ 2
justiciability 2
justifiable 2
ke@@ 2
keeps 2
ker 2
kers 2
kes 2
kilometres 2
kits 2
knowledgeable 2
knows 2
ks 2
l-@@ 2
l994 2
lSee 2
lacunae 2
lags 2
landfall 2
landmark 2
language-specific 2
lasts 2
late@@ 2
launchers 2
law-abiding 2
lawsuits 2
leader 2
leagues 2
leaves 2
lecturers 2
legalization 2
legislations 2
len@@ 2
lends 2
lengthening 2
les 2
less-than-full 2
levied 2
liberties 2
lieu 2
lif@@ 2
like 2
liquidated 2
lis@@ 2
list@@ 2
literatures 2
littoral 2
loc@@ 2
locating 2
logical 2
long-range 2
lots 2
love 2
low-@@ 2
lump 2
lump-sum 2
lying 2
ma@@ 2
mae 2
mag@@ 2
malicious 2
mand@@ 2
mandate-holders 2
mangroves 2
manifests 2
manifold 2
manpower 2
marital 2
markedly 2
markings 2
masters 2
materi@@ 2
materially 2
mation 2
measu@@ 2
medications 2
medium-size 2
meeting@@ 2
ment-@@ 2
mentSee 2
mentally 2
menting 2
mercury 2
mes 2
methamphetamine 2
meticulous 2
microinsurance 2
micronutrient 2
middle 2
migrate 2
migrating 2
mine-risk 2
mined 2
ming 2
mini-hydro 2
minimis 2
minimization 2
minimized 2
minor 2
minus 2
misrepresented 2
miss 2
mistakes 2
mit 2
mo@@ 2
mobile 2
moder@@ 2
moderation 2
modernized 2
modest 2
money-launderingResolution 2
monumental 2
morality 2
moratoria 2
mortgage 2
mother 2
motions 2
movement. 2
moves 2
multi-creditor 2
multi-donor 2
multihazard 2
multipliers 2
multiply 2
museums 2
mutually-agreed 2
na@@ 2
nam@@ 2
narrative 2
nation@@ 2
nationally-owned 2
naturalization 2
naval 2
necessitate 2
necessitating 2
negligent 2
ner@@ 2
new@@ 2
next-generation 2
night 2
nik 2
ninety-second 2
ninety-seven 2
ning 2
ninths 2
nominates 2
non-Muslim 2
non-bank 2
non-contributing 2
non-disclosure 2
non-economic 2
non-existent 2
non-fuel 2
non-implementation 2
non-local 2
non-payment 2
non-recurrent 2
non-stereotypic 2
non-violent 2
non-voting 2
non-warring 2
normalize 2
not-for-profit 2
notable 2
note@@ 2
noti@@ 2
notices 2
np 2
ns 2
nuclear-@@ 2
nuclearweapon 2
nullify 2
num@@ 2
nur@@ 2
nurses 2
o-@@ 2
obligatory 2
oblige 2
obstructionists 2
occasions 2
ocean-related 2
ocha 2
ocha.unog.ch 2
of@@ 2
off-the-books 2
oil-for-food 2
oing 2
ol 2
olive 2
ombuds@@ 2
ome 2
omin@@ 2
on-@@ 2
onA 2
one-@@ 2
one-hundred-and-thirty-third 2
ong 2
oni 2
oni@@ 2
onto 2
operation@@ 2
operationsSee 2
opinionSee 2
opt 2
optimally 2
orated 2
orbital 2
ord 2
ord@@ 2
ords 2
organ@@ 2
organi-zations 2
oring 2
os 2
ost 2
ot@@ 2
oun@@ 2
our-@@ 2
ously 2
out-of-@@ 2
outcome-oriented 2
outra@@ 2
over-exploitation 2
overing 2
overlaps 2
overriding 2
oversupply 2
overtime 2
ow 2
parentheses 2
parole 2
part-volume 2
passenger 2
pastoral 2
pastoralist 2
pastoralists 2
pat@@ 2
paternity 2
paths 2
paves 2
pdebt 2
pdf 2
peak 2
pen@@ 2
pension-related 2
peoplesA 2
per@@ 2
perceived 2
perceptions 2
perfectly 2
peril 2
perpe@@ 2
pers@@ 2
person@@ 2
personally 2
persuade 2
pertinence 2
petition 2
philosophies 2
phytosanitary 2
picture 2
piercing 2
pioneer 2
pite 2
pla@@ 2
place@@ 2
plan@@ 2
ple 2
polar 2
policing 2
policy-oriented 2
polling 2
polluter 2
pollutes 2
polymer 2
por@@ 2
pornography@@ 2
pornographyResolution 2
portability 2
ported 2
pos@@ 2
possessions 2
post-Phase 2
post-election 2
post-natural 2
post-partum 2
post-service 2
postgraduate 2
potato 2
poverty-reduction 2
povertyE 2
ppaa.html. 2
pped 2
pping 2
practising 2
pre-Congress 2
pre-congress 2
pre-export 2
pre-feasibility 2
pre-identified 2
pre-judgment 2
pre-school-aged 2
pre-screened 2
pre-war 2
preced@@ 2
precipitate 2
precision 2
predecessors 2
predicament 2
predomin@@ 2
prejudic@@ 2
prejudiced 2
pres@@ 2
prescription 2
presently 2
preserves 2
president 2
pression 2
pretext 2
pretexts 2
preventative 2
pri@@ 2
price-formation 2
pride 2
priv@@ 2
pro-democracy 2
procurement-related 2
procuring 2
profit-making 2
profits 2
programmesA 2
programs 2
pronoun@@ 2
proportionality 2
proposes 2
proprietary 2
prosecutorial 2
prospect 2
prosper 2
prote@@ 2
proviso 2
prud@@ 2
public-@@ 2
public-service 2
publishes 2
pursues 2
qualif@@ 2
qualification 2
quar@@ 2
quarterly 2
questionA 2
r 2
rage 2
raids 2
rain 2
ranked 2
rap@@ 2
rapporteursE 2
rare 2
rata 2
rati@@ 2
ratifies 2
re-emphasized 2
re-engineering 2
re-established 2
reacted 2
reactions 2
read@@ 2
reallocation 2
reaping 2
rearrangement 2
rebounded 2
reckoned 2
reclassify 2
reclassifying 2
recommend@@ 2
recommendations@@ 2
recommitment 2
reconstituted 2
recordings 2
recosted 2
recovered 2
rection 2
rededicate 2
rededicates 2
redeploying 2
redirected 2
reditary 2
redoubling 2
redundancy 2
refinement 2
refinements 2
reformulation 2
refugee-hosting 2
refunds 2
refuses 2
regionalism 2
register.html 2
registers 2
regul@@ 2
regulators 2
reimbursable 2
reimburse 2
reinvigorating 2
rejuvenation 2
relaxation 2
relieves 2
relocate 2
relocating 2
remanded 2
remarriage 2
remarried 2
remediation 2
remedied 2
reminders 2
remunerative 2
renegoti@@ 2
renounced 2
renovations 2
renumbered 2
reparations 2
repatriate 2
replen@@ 2
replicated 2
report@@ 2
reportsA 2
repres@@ 2
reprioritization 2
reprogramming 2
requesters 2
requi@@ 2
reschedule 2
rescinding 2
rescuers 2
resolutionsResolutions 2
rest@@ 2
restrain 2
results-based-budgeting 2
resum@@ 2
resup@@ 2
retiree 2
retraining 2
reuni@@ 2
reunifying 2
rev 2
revealed 2
reversal 2
reversed 2
revictimization 2
revisit 2
revive 2
revoke 2
reword 2
rich@@ 2
rightsA 2
ringes 2
ris@@ 2
risk-taking 2
risk@@ 2
road. 2
roll 2
rooted 2
roots 2
rotation 2
round@@ 2
rov@@ 2
rw@@ 2
rying 2
s-@@ 2
sE 2
sInternational 2
saf@@ 2
safety-related 2
satisfactorily 2
sc@@ 2
scal@@ 2
scale-up 2
scarce 2
scattering 2
schematic 2
school@@ 2
sd@@ 2
se 2
sea-based 2
sea@@ 2
seagrass 2
seaport 2
secondFCCC 2
seconded 2
secondments 2
secrets 2
sector@@ 2
secu@@ 2
secur@@ 2
segmentation 2
seizedA 2
seizing 2
selecting 2
selectivity 2
self-governance 2
self-respect 2
semi-arid 2
sensitization 2
sentiment 2
separ@@ 2
ses@@ 2
session. 2
session@@ 2
sessional 2
seventeen 2
seventhIbid 2
seventy-nine 2
shields 2
shif@@ 2
shipowners 2
shipsInternational 2
signals 2
sim@@ 2
simplicity 2
sing 2
single-member 2
singular 2
site@@ 2
sitewww.iyv2001.org. 2
sitewww.unhchr.ch. 2
situation-specific 2
six-month 2
six@@ 2
sixthSee 2
sixty-firstSee 2
sixty-seventh 2
sixty-three 2
sixty-two 2
sized 2
sk@@ 2
skills-based 2
slavery-like 2
sli@@ 2
slogan 2
slowdown 2
slowing 2
slum-upgrading 2
small-@@ 2
smallholder 2
solar-thermal 2
solidify 2
sophisticated 2
sory 2
sour@@ 2
source-country 2
space-derived 2
spaces 2
speaking 2
spec@@ 2
speci@@ 2
specializations 2
specifies 2
speeding 2
spelled 2
spill 2
spl@@ 2
sponsor 2
spot 2
square 2
staffs 2
stagnation 2
standardize 2
standstill 2
staple 2
starts 2
state-of-the-art 2
state@@ 2
static 2
statutory 2
stereotypic 2
stigmatize 2
stored 2
story 2
strenuous 2
strictest 2
struck 2
stud@@ 2
sub 2
subcommittees 2
subcontracting 2
subdivision 2
submarine-launched 2
subord@@ 2
subscription 2
subsidized 2
successors 2
sudden 2
suffers 2
sunken 2
supplemental 2
supplier 2
supportiveness 2
supposed 2
surmounting 2
surrenders 2
surveying 2
susceptible 2
swe@@ 2
syll@@ 2
symptoms 2
syndicates 2
systemA 2
tably 2
tack@@ 2
tailor 2
tain 2
takeover 2
tan@@ 2
tarily 2
tation 2
teach 2
techni@@ 2
technology-@@ 2
teen 2
tele-communication 2
telecopy 2
telegram 2
telex 2
tely 2
temporal 2
tempore 2
ten-week 2
tender 2
tenders 2
tentative 2
tenthA 2
teri@@ 2
termin@@ 2
tern 2
terrestrial 2
terrorismSee 2
testi@@ 2
tex@@ 2
text.htm. 2
text@@ 2
th-@@ 2
thE 2
the@@ 2
theat@@ 2
thematically 2
ther 2
ther@@ 2
thermal 2
thing 2
thinkers 2
thinking 2
third@@ 2
thirty-ninthIbid 2
thirty-six@@ 2
thirty-third@@ 2
thwarting 2
tic 2
tical 2
tically 2
tighter 2
time-consuming 2
time-use 2
timeless 2
tioning 2
tiously 2
tist 2
titles 2
tively 2
tives 2
tly 2
to-@@ 2
tol@@ 2
tor 2
tour 2
tournament 2
traceability 2
tracted 2
tragedy 2
trans-shipments 2
translations 2
translator 2
transmits 2
transshipments 2
traum@@ 2
trawling 2
tre@@ 2
treason 2
treaty-based 2
tribu@@ 2
trilateral 2
trusted 2
trustworthy 2
ts@@ 2
tuberculosis-free 2
tuna 2
tured 2
turing 2
turnover 2
twenty-@@ 2
twenty-eight 2
twenty-fifthResolution 2
twenty-sevenths 2
ty-@@ 2
uci@@ 2
ug@@ 2
ulative 2
umba 2
ump@@ 2
unassessed 2
uncertainty 2
uncover 2
uncovered 2
und 2
undecided 2
under-@@ 2
underemployment 2
underfunded 2
underlie 2
undisciplined 2
une 2
unearmarked 2
unedited 2
unfold 2
unfunded 2
ung@@ 2
unifying 2
uninterrupted 2
unites 2
unjustly 2
unlimited 2
unmanaged 2
unobstructed 2
unplanned 2
unreasonably 2
unregistered 2
unrelated 2
unreserved 2
unti@@ 2
unveiling 2
uprising 2
ur 2
ures 2
user-friendliness 2
vaccination 2
val@@ 2
validly 2
vals 2
variance 2
varieties 2
veil 2
vers@@ 2
veterinary 2
veto 2
vice-chairmen 2
victim@@ 2
victimizing 2
victory 2
vid 2
videoconferencing 2
vilification 2
vis@@ 2
visitor 2
vit@@ 2
vitae 2
vitality 2
vivo 2
vo@@ 2
voiced 2
voked 2
volatile 2
volu@@ 2
volunteer-based 2
volunteer-involving 2
volunteer-related 2
vote-buying 2
voted 2
voy. 2
waivers 2
wants 2
war-making 2
warAs 2
ware@@ 2
warm 2
warranted 2
warships 2
water@@ 2
weaken 2
weakened 2
weapons-@@ 2
webloggers 2
well-founded 2
well-sequenced 2
wh@@ 2
where@@ 2
whol@@ 2
wide-scale 2
wild 2
wilful 2
window 2
winter 2
wisdom 2
wit@@ 2
withdrawals 2
withholding 2
witnessed 2
womenSee 2
workforce 2
worsened 2
worst-hit 2
wre@@ 2
writ 2
write 2
write-@@ 2
wrong@@ 2
ws 2
www-ns.iaea.org. 2
www.acpsec.org. 2
www.carpathianconvention.org 2
www.opanal.org 2
www.unicef.org 2
x 2
y-based 2
y. 2
yE 2
yground 2
zes 2
á@@ 2
% 1
+ 1
,092 1
,375 1
,37@@ 1
,439@@ 1
,456@@ 1
,458,000 1
,88@@ 1
-26 1
-30 1
-American 1
-B@@ 1
-General 1
-Latin 1
-building 1
-contributing 1
-development 1
-friendly 1
-h@@ 1
-of-@@ 1
-oriented 1
-year 1
.. 1
.1. 1
.11 1
.I.@@ 1
.I@@ 1
.II.A@@ 1
.IV.@@ 1
.Official 1
.Report 1
.V.@@ 1
.ht@@ 1
.htm@@ 1
.un.org 1
0,128 1
0,8@@ 1
0-series 1
04. 1
1,28@@ 1
1,57@@ 1
1,722@@ 1
1,87@@ 1
1,899@@ 1
1-E 1
10,200 1
10-@@ 1
106@@ 1
10B 1
113@@ 1
1160 1
1175 1
1179 1
1180@@ 1
1199 1
12,6@@ 1
12.29 1
1203 1
1239 1
127@@ 1
129@@ 1
12F 1
13-@@ 1
1300. 1
1308 1
1330 1
1349 1
1352 1
1360 1
139. 1
1392. 1
14.47 1
1409 1
144@@ 1
146@@ 1
15-@@ 1
150@@ 1
16,6@@ 1
166-210. 1
176. 1
177. 1
178@@ 1
18,8@@ 1
180@@ 1
187,@@ 1
18th 1
19,7@@ 1
19.6 1
19085 1
190@@ 1
196,@@ 1
1972@@ 1
1990@@ 1
1991@@ 1
1993@@ 1
1994Ibid 1
1995-@@ 1
1996@@ 1
1997-@@ 1
1997@@ 1
1998@@ 1
1998A 1
2,19@@ 1
2,38@@ 1
2,563,800 1
2,650 1
2,900 1
2.6 1
2.8 1
20,@@ 1
2001-2010@@ 1
2001@@ 1
2003. 1
2003Official 1
2004Available 1
2004Official 1
2005@@ 1
2005Official 1
2006@@ 1
2006A 1
2009@@ 1
200@@ 1
201. 1
2010@@ 1
2028 1
203@@ 1
207,407,400 1
207,@@ 1
20th 1
21,9@@ 1
2149 1
214@@ 1
2178 1
229. 1
23-@@ 1
230,@@ 1
230. 1
24.39 1
2464 1
25,8@@ 1
25-@@ 1
254. 1
2550 1
258@@ 1
2597@@ 1
26-@@ 1
26-S 1
273,375,000 1
27th 1
283. 1
2838 1
28th 1
29,8@@ 1
290@@ 1
294-@@ 1
297,@@ 1
3,16@@ 1
3,200 1
3,400 1
3,600 1
3,68@@ 1
3,900 1
3-E 1
30-@@ 1
300@@ 1
301. 1
3026 1
308@@ 1
31,5@@ 1
3106 1
3148 1
3187 1
326,573,900 1
326,@@ 1
329@@ 1
32@@ 1
330,000 1
333. 1
337. 1
338@@ 1
3391 1
3502 1
352. 1
36,700 1
37517. 1
38349. 1
3l 1
3rd 1
4,500 1
4,521,450 1
4,800 1
4-7 1
40,250 1
400@@ 1
404. 1
41. 1
412. 1
42.@@ 1
420. 1
428. 1
438@@ 1
44,8@@ 1
445 1
45,504,300 1
45th 1
46,916,6@@ 1
47,759,100 1
47,8@@ 1
48.@@ 1
480@@ 1
485@@ 1
4903 1
5,202,750 1
5,300 1
5,419,300 1
5,700 1
5,850 1
5,9@@ 1
5-E 1
5-S 1
521-S 1
53,047,600 1
540. 1
556. 1
56,200 1
56.@@ 1
567. 1
58.3 1
588. 1
59,100 1
59-S 1
594 1
595. 1
5A 1
5G 1
5I 1
6,4@@ 1
6,6@@ 1
6,89@@ 1
6-S 1
603. 1
605. 1
609 1
64,500 1
64,6@@ 1
688. 1
69,600 1
69,@@ 1
6th 1
7,191,775 1
7,229,867 1
7,2@@ 1
7,5@@ 1
7,600 1
7,7@@ 1
7-E 1
7-S 1
7.@@ 1
70,800 1
715 1
721 1
721. 1
73. 1
744-S 1
76-@@ 1
767 1
78,9@@ 1
789 1
79,000 1
7th 1
8,741,600 1
8,800 1
8,900 1
8-S 1
8.7 1
801 1
827 1
854 1
8638@@ 1
88-@@ 1
8See 1
9,190,200 1
9,3@@ 1
9-E 1
91. 1
97,558,500 1
97,5@@ 1
979@@ 1
99,548,960 1
9th 1
A.23. 1
A.9@@ 1
AC@@ 1
AD 1
AID@@ 1
AP@@ 1
AS 1
Abkhaz@@ 1
Abu@@ 1
Acc@@ 1
Acces@@ 1
Acknowled@@ 1
Activiti@@ 1
Add.1-7 1
Add.19. 1
Add.2-@@ 1
Add@@ 1
Advis@@ 1
Af@@ 1
Aff@@ 1
Affec@@ 1
Afghan-@@ 1
Ag@@ 1
Agenda@@ 1
Agre@@ 1
Ah@@ 1
Air@@ 1
Almat@@ 1
Amman 1
Analy@@ 1
Anguill@@ 1
Ani@@ 1
Anti-@@ 1
Anti-Fouling 1
Antilles 1
Appro@@ 1
Apri@@ 1
Are@@ 1
As@@ 1
Asia-Europe 1
Aspec@@ 1
Assembl@@ 1
Assembly. 1
Asses@@ 1
Assi@@ 1
Astana 1
Astronomical 1
At@@ 1
Auditor@@ 1
August-7 1
Austri@@ 1
Authoritative 1
Autom@@ 1
Ba@@ 1
Bagh@@ 1
Bah@@ 1
Bahr-el-Ghazal 1
Ball@@ 1
Beings 1
Bel@@ 1
Binding 1
Biosafe@@ 1
Bl@@ 1
Bol@@ 1
Braz@@ 1
Brid@@ 1
Buil@@ 1
Bul@@ 1
Burundi@@ 1
C-@@ 1
CE@@ 1
CONF.19@@ 1
CONF@@ 1
COP.7. 1
CP@@ 1
CS 1
Ca@@ 1
Cam@@ 1
Cameroon-Nigeria 1
Canc@@ 1
Capac@@ 1
Caribbe@@ 1
Carto@@ 1
Cat@@ 1
Caucasu@@ 1
Cel@@ 1
Cent@@ 1
Cer@@ 1
Cha@@ 1
Char@@ 1
Chernoby@@ 1
Chi@@ 1
China-@@ 1
Cir@@ 1
Circ.@@ 1
Citi@@ 1
Civiliz@@ 1
Cl@@ 1
Cla@@ 1
ClarificationA 1
Cle@@ 1
Clin@@ 1
Co-@@ 1
Commemor@@ 1
Commun@@ 1
Community@@ 1
Comor@@ 1
Compl@@ 1
Complain@@ 1
Computing 1
Concern@@ 1
Conf@@ 1
Conference@@ 1
Confis@@ 1
Confiscation 1
Conflict@@ 1
Congo@@ 1
Constitu@@ 1
Consu@@ 1
Consult@@ 1
Continue 1
Contrac@@ 1
Cook 1
Coordin@@ 1
Cop@@ 1
Corr.1-3. 1
Corrid@@ 1
Council@@ 1
Counter-@@ 1
Countries@@ 1
Court@@ 1
Cre@@ 1
Crimin@@ 1
Cru@@ 1
Cul@@ 1
CyberSchool@@ 1
DA@@ 1
DE@@ 1
Day@@ 1
Deb@@ 1
Dec.137 1
Decl@@ 1
Del@@ 1
Demobil@@ 1
Democracy-@@ 1
Dep@@ 1
Des@@ 1
Design@@ 1
Destruc@@ 1
Dete@@ 1
Dimen@@ 1
Director@@ 1
Dj@@ 1
Du@@ 1
E-@@ 1
E-l 1
E.00@@ 1
E.01.V.@@ 1
E.01@@ 1
E.03.II.A@@ 1
E.03.V.@@ 1
E.03@@ 1
E.04.II.D.@@ 1
E.05.IV.@@ 1
E.7@@ 1
E.8@@ 1
E.91.IV.2 1
E.92@@ 1
E.93.V.9 1
E.@@ 1
ERE@@ 1
Ec@@ 1
Ecos@@ 1
El@@ 1
Elec@@ 1
Elections 1
Est@@ 1
Establ@@ 1
Eura@@ 1
Evidence 1
Exp@@ 1
Experi@@ 1
Extra@@ 1
FI@@ 1
Fac@@ 1
Facilit@@ 1
Fam@@ 1
Febru@@ 1
Fish@@ 1
Fo@@ 1
Foc@@ 1
Forest 1
Forty-@@ 1
Forty-second 1
Found@@ 1
Fra@@ 1
Frameworks 1
Franc@@ 1
Fund@@ 1
Fur@@ 1
GO@@ 1
Gal@@ 1
Ge@@ 1
Gener@@ 1
GeneralGC 1
Genev@@ 1
Geno@@ 1
Georgi@@ 1
Ger@@ 1
Good-Neighbour@@ 1
Gra@@ 1
Grand-Baie 1
Gro@@ 1
Guatemal@@ 1
Guid@@ 1
Guine@@ 1
Gyi 1
Hab@@ 1
Haiti@@ 1
Hammar@@ 1
Harm 1
Has@@ 1
Heal@@ 1
Hel@@ 1
Her@@ 1
Herit@@ 1
Hi@@ 1
Hydro@@ 1
III.B@@ 1
III.Q@@ 1
III@@ 1
IN@@ 1
INF-1@@ 1
IP@@ 1
IT@@ 1
IV.1 1
Imm@@ 1
Immuni@@ 1
Implementation@@ 1
Inclu@@ 1
Includ@@ 1
Indic@@ 1
Individu@@ 1
Initi@@ 1
Institu@@ 1
Inte@@ 1
Intro@@ 1
Investig@@ 1
Ir@@ 1
Is@@ 1
Islands. 1
Israel@@ 1
Jo@@ 1
Jord@@ 1
Jos@@ 1
Judg@@ 1
Kab@@ 1
Kam@@ 1
Kan@@ 1
Kh@@ 1
Ko@@ 1
Kore@@ 1
Ky@@ 1
L.12. 1
LD@@ 1
La@@ 1
Laun@@ 1
Law@@ 1
Leban@@ 1
Leon@@ 1
Lia@@ 1
Lib@@ 1
Lim@@ 1
Lis@@ 1
Long@@ 1
Lus@@ 1
M.1 1
MS 1
MSP@@ 1
Mallorca 1
Management@@ 1
Mand@@ 1
Mariana 1
MaterialUnited 1
May@@ 1
Me@@ 1
Med@@ 1
Medi@@ 1
Mee@@ 1
Mel@@ 1
Mercen@@ 1
Mi@@ 1
Mig@@ 1
Mil@@ 1
Min@@ 1
MinoritiesSubsequently 1
Mixed 1
Mod@@ 1
Moham@@ 1
Mone@@ 1
Mos@@ 1
Most 1
Mov@@ 1
Mozambi@@ 1
Mul@@ 1
Multi@@ 1
Myanmar@@ 1
MyanmarE 1
Mé@@ 1
Na@@ 1
Naing 1
Nairobi@@ 1
Naur@@ 1
Ne@@ 1
Neg@@ 1
Nether@@ 1
Nicar@@ 1
Ninth 1
Niue 1
No.@@ 1
Non-Al@@ 1
Non-legally 1
November-@@ 1
Ob@@ 1
Oblig@@ 1
Oce@@ 1
October-@@ 1
Offic@@ 1
Ogata 1
Olympi@@ 1
On@@ 1
Open@@ 1
Oper@@ 1
Operations@@ 1
Or@@ 1
Origin@@ 1
Out@@ 1
Ox@@ 1
P-@@ 1
PV.46@@ 1
Pacific@@ 1
Palma 1
Pan 1
Panjshir 1
Parlia@@ 1
Part@@ 1
Parti@@ 1
Perform@@ 1
Pers@@ 1
Ph@@ 1
Philipp@@ 1
Plan@@ 1
Pled@@ 1
Pollut@@ 1
Polynesia 1
Portuguese-@@ 1
Pot@@ 1
Pow@@ 1
Prepar@@ 1
Preservation 1
Pretor@@ 1
Principl@@ 1
PrisonersSee 1
Probl@@ 1
Profession@@ 1
Professionalism 1
Programm@@ 1
ProliferationA 1
Prospec@@ 1
Puerto 1
QuestionsOfficial 1
REM@@ 1
RES.27 1
RP@@ 1
Ra@@ 1
Rad@@ 1
Rapporteur@@ 1
Reactors 1
Recalling 1
Reconfir@@ 1
Ref@@ 1
Regis@@ 1
Regul@@ 1
Relations@@ 1
Rene@@ 1
Renew@@ 1
Rep@@ 1
Res@@ 1
ResettlementAvailable 1
Resi@@ 1
Rest@@ 1
Restruc@@ 1
Restructured 1
Ri@@ 1
Rico 1
Ro@@ 1
Rob@@ 1
Rol@@ 1
SO@@ 1
SR.18 1
SR.27 1
Sadako 1
Safegu@@ 1
Sam@@ 1
Sanaag 1
Schol@@ 1
Secretar@@ 1
Secretariat@@ 1
See@@ 1
Self-Governing 1
Sem@@ 1
Servic@@ 1
Settl@@ 1
Sev@@ 1
Sig@@ 1
Simpl@@ 1
Six@@ 1
Sixty-@@ 1
Slaver@@ 1
Sm@@ 1
Sool 1
South-@@ 1
Sp@@ 1
Space@@ 1
Spe@@ 1
Spec@@ 1
Sta@@ 1
Standby 1
State@@ 1
Statehood 1
Stock@@ 1
Str@@ 1
Su@@ 1
Sub-@@ 1
Subsequent 1
Succ@@ 1
Super@@ 1
Sw@@ 1
Swed@@ 1
Sweden@@ 1
Switzer@@ 1
Ta@@ 1
Taji@@ 1
Tar@@ 1
Tashk@@ 1
Teh@@ 1
Ten@@ 1
TerritoriesA 1
Th@@ 1
Tha@@ 1
Timor@@ 1
TimorA 1
Tog@@ 1
Tokelau@@ 1
Tor@@ 1
Tra@@ 1
Transpa@@ 1
Treaty1995 1
Tri@@ 1
Tribunal@@ 1
Tro@@ 1
Tru@@ 1
Tu@@ 1
Tur@@ 1
Twenty-@@ 1
Types 1
UNE@@ 1
Ukra@@ 1
Under-@@ 1
Under@@ 1
Union-@@ 1
Unit@@ 1
Univers@@ 1
Util@@ 1
VI.B. 1
Vice-@@ 1
Victi@@ 1
Vill@@ 1
Vo@@ 1
Volunte@@ 1
Vulner@@ 1
WP@@ 1
WT@@ 1
War@@ 1
We@@ 1
Web@@ 1
Wel@@ 1
Wildlife@@ 1
With@@ 1
Ya@@ 1
Z 1
a-B@@ 1
aband@@ 1
abat 1
abducte@@ 1
abinet 1
able-@@ 1
abling 1
above-@@ 1
absorp@@ 1
abstract 1
accen@@ 1
accounted 1
accredi@@ 1
accru@@ 1
accumul@@ 1
acem@@ 1
aching 1
aci@@ 1
ack@@ 1
acks 1
acqu@@ 1
acquies@@ 1
action@@ 1
activ@@ 1
activiti@@ 1
activitiesA 1
acu@@ 1
aded 1
adjust@@ 1
admin@@ 1
ador 1
adors 1
advers@@ 1
ae 1
af@@ 1
afflic@@ 1
afternoon 1
age-specific 1
agement@@ 1
agg@@ 1
agh@@ 1
agreed-upon 1
agues 1
ail 1
ailed 1
aire 1
airs 1
aith 1
akes 1
aki 1
aking 1
aks 1
ale 1
ali@@ 1
alism 1
alize 1
alleg@@ 1
alling 1
alloc@@ 1
allow@@ 1
alls 1
alog@@ 1
ama 1
ambi@@ 1
ame@@ 1
amen@@ 1
amend@@ 1
ames 1
amid 1
an. 1
analysed 1
ances 1
ancy 1
and-@@ 1
andment 1
ands 1
ane@@ 1
ania. 1
announ@@ 1
anony@@ 1
answ@@ 1
antagonism 1
anti@@ 1
antimal@@ 1
anz@@ 1
apolis 1
appeal@@ 1
apping 1
applaud@@ 1
appor@@ 1
appreci@@ 1
appropri@@ 1
approxim@@ 1
apse 1
ara 1
archae@@ 1
archipelagic 1
ards 1
are@@ 1
ared 1
arian 1
arily 1
arious 1
arization 1
arized 1
arms-@@ 1
arresting 1
arri@@ 1
asc@@ 1
ascer@@ 1
ase-@@ 1
ased 1
asing 1
aspectsA 1
assass@@ 1
assembl@@ 1
assi@@ 1
assification 1
assign@@ 1
assimil@@ 1
ast@@ 1
asts 1
ata 1
ata@@ 1
atal 1
ate-@@ 1
ately 1
aten 1
ation-related 1
ation-specific 1
ation. 1
ation@@ 1
ationA 1
ationST 1
ationally 1
ationsSee 1
ationships 1
atis@@ 1
ative@@ 1
ator@@ 1
attain@@ 1
attend@@ 1
attering 1
attle 1
attribu@@ 1
ature 1
autom@@ 1
av@@ 1
aval 1
aver@@ 1
aw@@ 1
awa 1
aya 1
azak@@ 1
bas@@ 1
bass@@ 1
beatings 1
behavi@@ 1
behaviours 1
belong@@ 1
best-@@ 1
bi 1
bienni@@ 1
bill@@ 1
bing 1
biodi@@ 1
biotic 1
bir@@ 1
birth@@ 1
birthday 1
bled 1
blood 1
bomb@@ 1
bon 1
book 1
book@@ 1
borrow@@ 1
bot@@ 1
br@@ 1
break@@ 1
brid 1
brief@@ 1
broken 1
[...]
