的 134371
， 97159
。 84492
在 25968
和 25693
是 20177
了 19161
&quot; 13507
但 10873
、 10741
也 10081
对 9047
将 8662
而 8652
美国 8534
国家 7531
这 7285
经济 6790
我们 6312
中 6277
不 6275
一个 6271
有 6093
都 5996
年 5743
并 5633
会 5618
他们 5509
中国 5369
可能 5284
就 5213
与 5139
问题 4858
更 4793
可以 4762
为 4645
其 4558
政府 4512
人 4502
上 4475
这些 4437
他 4409
到 4295
所 4273
被 4123
欧洲 4045
没有 4040
已经 3791
需要 3747
让 3697
政治 3628
如果 3355
它 3332
全球 3328
地 3322
： 3300
政策 3243
增长 3195
必须 3138
从 3127
其他 3022
% 2994
因为 2965
世界 2962
来 2959
这一 2923
新 2876
以 2863
以及 2735
还 2716
欧盟 2650
应该 2643
要 2622
但是 2578
因此 2444
能 2425
； 2413
不是 2402
多 2390
它们 2374
社会 2359
市场 2351
或 2342
这样 2296
？ 2283
通过 2184
最 2146
认为 2137
· 2133
下 2118
支持 2115
后 2108
投资 2083
发展 2081
我 2039
时 2021
于 1986
影响 1968
实现 1967
成为 1926
许多 1918
能够 1901
重要 1901
提供 1895
这个 1892
无法 1871
地区 1868
国际 1865
尽管 1863
自己 1853
导致 1849
这种 1827
总统 1823
着 1818
却 1771
现在 1765
进行 1759
人们 1737
情况 1727
所有 1710
目标 1705
开始 1691
比 1683
正在 1682
增加 1675
俄罗斯 1649
很 1640
带来 1631
改革 1617
特朗普 1590
计划 1590
英国 1584
危机 1580
事实上 1562
月 1545
一些 1531
未来 1530
就是 1523
该 1518
银行 1479
大 1447
民主 1433
方面 1420
向 1416
给 1412
那么 1411
结果 1408
说 1403
主要 1396
领导人 1394
把 1389
获得 1383
日本 1378
那些 1378
债务 1373
要求 1371
更加 1368
企业 1367
发生 1366
同时 1355
风险 1353
则 1350
德国 1340
技术 1340
一 1338
之间 1334
安全 1326
任何 1316
存在 1316
包括 1315
等 1310
不会 1301
前 1298
解决 1298
印度 1295
公司 1294
造成 1283
作为 1273
由 1253
一直 1250
伊朗 1248
机构 1235
贸易 1228
一种 1216
持续 1209
工作 1196
过去 1188
长期 1187
挑战 1180
又 1175
可 1171
如此 1170
建立 1170
使 1169
对于 1166
目前 1163
面临 1163
而且 1151
们 1147
此外 1140
成功 1139
做 1135
同样 1133
产生 1132
甚至 1130
国内 1117
当 1116
出现 1114
金融 1109
货币 1108
继续 1102
稳定 1095
以色列 1092
采取 1092
意味着 1085
如何 1083
20 1079
决定 1077
收入 1073
得到 1071
只有 1068
威胁 1068
像 1066
高 1064
能力 1062
最终 1059
组织 1043
如今 1038
仍 1033
选择 1030
合作 1029
来说 1028
最近 1026
拥有 1022
教育 1022
不能 1021
希望 1014
世纪 1009
仍然 1008
表明 1007
行动 1002
西方 997
不同 996
关系 993
巨大 993
似乎 986
法国 982
实施 980
措施 978
提高 977
研究 977
什么 976
协议 973
原因 970
下降 965
生活 964
利益 962
是否 960
特别 960
机会 955
用 955
战争 954
并且 950
改变 948
严重 940
以来 927
承诺 927
环境 927
行为 924
作用 922
方式 916
为了 908
资本 907
选举 906
自由 905
使用 904
受到 902
保护 896
当然 896
欧元区 892
个 890
其中 886
战略 886
随着 885
成本 884
一样 877
即使 871
者 871
历史 865
确保 862
接受 861
减少 859
制度 859
GDP 856
还是 856
时间 846
非洲 846
美元 844
亚洲 843
财政 843
由于 841
已 839
你 836
去 836
有效 835
各国 833
移民 833
真正 831
需求 827
完全 821
之 819
虽然 818
变化 817
几乎 815
从而 814
价格 813
自身 812
项目 806
那样 805
经济体 804
得 802
来自 802
降低 801
出 797
帮助 793
能源 789
利率 786
考虑 786
时候 782
水平 781
- 780
变得 780
奥巴马 780
权力 780
人口 779
观点 778
一点 777
再 776
资金 775
今天 774
资产 772
也许 766
谈判 766
控制 763
基础 760
伊拉克 756
因素 755
和平 754
体系 749
比如 749
保持 747
非常 747
领域 741
越来越 740
才 738
或者 736
类似 736
进一步 736
她 735
冲突 732
年代 732
民众 731
相反 726
某些 725
系统 725
低 722
及 722
叙利亚 722
不断 720
土耳其 718
反对 717
大部分 717
提出 715
在于 713
内 710
最大 710
还有 710
服务 708
只是 707
限制 707
做出 704
管理 704
创造 703
最后 698
改善 696
过 694
利用 691
国 686
成员国 686
重新 686
好 685
希腊 684
另 683
方法 683
程度 682
推动 677
领导 676
模式 675
一次 673
表现 671
地方 669
力量 666
大量 666
破坏 663
共同 662
过程 661
就业 660
具有 659
首先 658
里 657
刺激 656
1 655
方案 655
关注 647
很多 644
显然 644
法律 643
公共 640
努力 640
当前 640
联合国 640
不仅 638
出口 637
只 637
超过 637
地位 636
应对 636
知道 636
监管 635
占 634
欧元 630
资源 628
投资者 627
上述 626
达到 624
》 622
不再 622
传统 621
《 620
制定 615
想 615
援助 614
数据 614
危险 612
结束 612
支出 611
这是 611
公民 610
规则 609
人民 606
家庭 604
自 603
而是 602
取得 601
部门 601
压力 600
普京 599
朝鲜 599
伊斯兰 596
相对 596
关于 595
联盟 594
参与 591
全世界 590
关键 589
维持 588
将会 585
避免 585
那 585
选民 584
发现 577
公众 575
人类 573
活动 573
城市 572
的话 570
才能 569
劳动力 568
整个 568
状况 568
非 568
价值 567
正 565
之后 563
亿美元 561
与此同时 559
基础设施 558
试图 558
事实 556
及其 555
平衡 555
形成 555
新兴 555
, 554
创新 552
石油 552
至少 552
现实 550
相信 550
事件 544
军事 543
基本 543
美联储 542
两个 541
私人 540
令人 539
报告 539
平等 537
乌克兰 535
通胀 535
责任 534
一场 533
相关 533
信息 532
直接 532
一项 529
应当 528
陷入 528
后果 527
认识 526
之前 524
错误 524
唯一 523
或许 522
气候变化 522
理由 521
进步 520
文化 519
扩大 518
贫困 518
上升 517
个人 517
健康 515
失败 514
时代 513
繁荣 513
机制 512
运动 512
10 511
竞争 511
大规模 510
消费 510
担心 509
发展中国家 508
政权 507
央行 506
规模 506
证明 506
官员 505
明确 504
理解 503
进入 503
生产 497
阿拉伯 497
全球化 495
更好 495
尤其 494
依然 492
达成 492
视为 490
难民 489
日益 487
而言 487
中东 486
实际 486
意大利 486
解释 486
独立 485
面对 485
只能 483
根据 483
愿意 482
缺乏 481
准备 480
媒体 480
重大 478
内部 477
指出 477
数字 477
容易 476
部分 476
爆发 475
预测 475
承认 474
强大 472
暴力 472
引发 469
穆斯林 468
过度 465
代表 464
用于 463
之一 462
并非 462
十分 461
今年 460
足够 460
阻止 460
领袖 459
贷款 458
经历 457
金融危机 457
产品 456
巴基斯坦 455
针对 455
税收 454
预算 454
医疗 453
数量 452
条件 452
埃及 451
儿童 449
干预 449
然而 449
吗 447
委员会 447
往往 447
核心 445
融资 445
趋势 445
根本 444
革命 444
原则 442
性 441
更为 441
看到 441
2 440
欧洲央行 440
起来 440
2008 439
十年 439
讨论 439
受 438
一切 435
允许 435
结构 434
促进 433
积极 433
加入 432
损失 432
债券 430
目的 429
有助于 428
韩国 427
必要 426
正如 424
正确 424
每年 424
外国 423
女性 423
广泛 423
起 423
货币政策 422
手段 421
拒绝 421
实力 420
感到 420
较 419
宣布 418
％ 418
反映 417
经济学家 417
进程 417
很大 416
迅速 416
预期 416
去年 415
权利 414
一位 413
依赖 413
反 413
治理 413
决策 412
会议 411
实际上 411
曾 411
标准 411
复苏 410
代价 409
财富 409
相当 408
削减 407
开放 407
决策者 406
范围 406
5 404
000 403
基于 403
意义 403
3 402
30 402
主权 402
反应 402
完成 402
任务 401
毕竟 401
工人 400
更大 400
调整 400
仅仅 398
这场 398
肯定 397
巴勒斯坦 396
短期 396
行业 396
外交 395
好处 395
效果 395
日 395
态度 394
经常 394
且 393
主义 393
呢 393
时期 393
阿富汗 393
鼓励 393
加强 392
保证 391
大多数 391
基金 390
潜在 390
联系 390
赤字 390
找到 389
大幅 387
所谓 387
确定 386
成员 385
确实 385
网络 383
正是 382
赢得 382
该国 380
失去 379
当时 379
优势 378
科学 378
期间 377
复杂 376
多数 376
宗教 376
总理 376
崩溃 375
民粹主义 375
有关 374
框架 374
通常 374
形式 373
妇女 372
消费者 371
角色 371
承担 370
处于 369
极端 369
本身 368
评估 368
即便 367
一部分 366
为什么 365
疾病 365
腐败 365
其实 364
发达国家 364
商品 364
有所 364
排放 363
立场 363
气候 362
是因为 361
储蓄 360
商业 360
明显 360
显示 360
建议 359
建设 359
影响力 358
简单 358
转移 358
寻求 357
转变 357
工具 354
曾经 354
条约 354
遭到 354
军队 352
防止 352
一定 351
衰退 350
一致 349
如 349
近 349
巴西 347
生产率 346
经验 346
不可 345
不管 345
共和党 345
削弱 345
证据 344
想要 343
令 342
只要 342
间 342
汇率 341
再次 340
强化 340
强调 340
有些 340
逐渐 340
公平 339
即 339
办法 337
支付 337
政党 336
事情 335
紧缩 335
表示 335
之外 334
使得 334
苏联 333
50 332
追求 332
交易 331
可能性 331
执行 331
制造 330
宪法 330
工资 330
除了 330
难以 330
几个 329
布什 329
当局 329
策略 329
9 328
墨西哥 328
收益 328
金融市场 328
有人 327
坚持 326
恢复 326
恶化 326
专家 325
开发 325
看 324
遏制 324
不过 323
东西 323
核武器 323
死亡 323
负责 323
困难 322
引起 322
道德 322
公开 321
处理 321
投票 321
例子 320
放弃 320
俄国 318
做法 318
农业 318
因 318
每 318
分配 317
崛起 317
快速 317
4 316
北约 316
取决于 316
/ 315
合理 315
加剧 314
统治 313
群体 313
扩张 311
治疗 310
满足 310
袭击 310
谁 310
调查 310
一起 309
几年 309
所有人 309
12 308
动荡 308
转型 308
分裂 307
外部 307
糟糕 307
解决方案 307
不幸 306
补贴 306
大学 305
效率 305
永远 305
理论 305
购买 305
11 304
全面 304
几十年 304
比例 304
现有 304
进展 304
信心 303
协定 303
技能 303
精英 303
充分 302
制裁 301
钱 301
政客 300
人权 299
迫使 299
前景 298
同意 298
执政 298
小 297
IMF 296
举行 296
打击 296
既 296
约 295
至关重要 295
常常 294
情绪 294
成立 293
了解 292
信任 292
批评 292
现代 292
退出 292
大约 291
对此 291
道路 291
集中 291
化 290
局面 289
方针 289
有着 289
统一 288
障碍 288
6 287
各 287
失业 287
并未 286
清楚 286
2015 285
主席 285
应 285
思想 285
这方面 285
提升 284
此 284
现象 284
秩序 284
吸引 283
灾难 283
以上 282
利润 282
竞争力 282
不但 280
每个 280
民族主义 280
设计 279
总是 278
担忧 278
90 277
一@@ 277
即将 277
多年 277
最新 277
议会 277
人民币 276
峰会 276
年轻人 276
意识 276
盟友 276
燃料 275
国会 273
速度 273
不仅仅 272
各种 272
本国 272
例如 271
至 271
身份 271
采用 271
外交政策 270
符合 270
流动性 269
社区 269
80 268
不到 268
发达 268
激励 268
空间 268
怀疑 267
支持者 267
方向 267
负担 267
势力 266
天然气 266
平均 266
摆脱 265
知识 265
福利 265
多少 264
西班牙 264
冲击 263
一系列 261
成 261
核 261
贬值 261
停止 260
出来 260
区域 260
未能 260
否则 259
需 259
分析 258
真的 258
中心 257
学生 257
欧洲人 257
孩子 256
为何 255
值得 255
具体 255
生命 255
胜利 255
依靠 254
相比 254
失业率 253
预计 253
7 252
转向 252
这项 252
一年 251
亿 251
双方 251
呼吁 251
式 251
民族 251
候选人 250
取代 250
最高 250
波兰 250
状态 250
差异 249
所以 249
经济学 249
分歧 248
很快 248
武器 248
发挥 247
太 247
投入 247
2010 246
8 246
之中 246
指责 246
结构性 246
远远 246
万 245
有限 245
没 245
进口 245
习近平 244
总 244
贡献 244
一份 243
不足 243
变成 243
一体化 241
从未 241
有利于 241
消除 240
类 240
70 239
效应 239
规定 239
一旦 238
不@@ 238
随后 238
人员 237
15 236
变革 235
大@@ 235
显著 235
土地 234
下跌 233
取消 233
宽松 233
恐怖主义 233
无论 233
本 233
痛苦 233
阻碍 233
伤害 232
增长率 232
潜力 232
答案 232
致力于 232
质疑 232
邻国 232
体制 231
左右 231
强烈 231
推进 231
某种 231
直到 231
起到 231
40 230
团结 230
外 230
当选 230
联合 230
斗争 229
竞选 229
争论 228
多边 228
两国 227
共识 227
回报 227
地缘 227
精神 227
自然 227
三个 226
仅 226
可靠 226
后者 226
彻底 225
极大 225
要么 225
这次 225
哈马斯 224
大选 224
最佳 224
正式 224
停滞 223
地球 223
想象 223
教训 223
普遍 223
泡沫 223
派 223
辩论 223
阶段 223
不得不 222
人士 222
层面 222
学习 221
最好 221
流动 221
良好 221
大国 220
重要性 220
阿根廷 220
除非 220
冷战 219
当今 219
政治家 219
走 219
2009 218
2014 218
不确定性 218
实行 218
无 218
警告 218
信用 217
发表 217
名 217
国际货币基金组织 217
储备 216
学校 216
最为 216
萧条 216
还要 216
集团 216
价值观 215
寻找 215
禁止 215
互联网 214
产业 214
体现 214
关税 214
埃 214
官方 214
很少 214
放缓 214
看来 214
黎巴嫩 214
2012 213
2013 213
得以 213
批准 213
碳 213
假设 212
盈余 212
倾向 211
单一 211
差距 210
持有 210
遭受 210
万亿美元 209
伙伴 209
制造业 209
协调 209
攻击 209
自我 209
60 208
明白 208
沙特 208
混乱 208
破产 207
联邦 207
严格 206
新闻 206
构建 206
的确 206
角度 206
那里 206
岁 205
真实 205
脆弱 205
被迫 205
说法 205
路 205
这里 205
加速 204
对抗 204
忽视 204
显而易见 204
毫无疑问 204
民主党 204
供给 203
告诉 203
对话 203
很难 203
比较 203
缓慢 203
能否 203
付出 202
怎样 202
接近 202
概念 202
作出 201
工业 201
当地 201
提振 201
边境 201
旨在 200
未 200
重点 200
世界银行 199
富裕 199
指标 199
程序 199
领土 199
具备 198
意愿 198
构成 198
事务 197
其它 197
反对派 197
另外 197
妥协 197
少数 197
总体 197
然后 197
说明 197
重建 197
其次 196
在内 196
增强 196
尊重 196
尽管如此 196
约束 196
缺陷 196
这么 196
远 196
中@@ 195
讲 195
100 194
中产阶级 194
宣称 194
深刻 194
立法 194
背景 194
充满 193
巴黎 193
损害 193
替代 193
缺少 193
适应 193
众多 192
升值 192
局势 192
给予 192
资本主义 192
连 192
采取行动 192
快 191
一半 190
一条 190
水 190
生存 190
岗位 189
年前 189
波动 189
种族 189
账户 189
重组 189
默克尔 189
传播 188
安排 188
早期 188
贫穷 188
食品 188
事 187
分子 187
合法性 187
内容 186
利比亚 186
变暖 186
究竟 186
签署 186
2011 185
不要 185
恐惧 185
扮演 185
上涨 184
主导 184
二战 184
思考 184
由此 184
25 183
年轻 183
报道 183
抵制 183
不可避免 182
以前 182
展开 182
穷人 182
走向 182
乐观 181
保护主义 181
克服 181
房地产 181
担任 181
汽车 181
目前为止 181
记者 181
鉴于 181
伊斯兰教 180
信贷 180
困境 180
捍卫 180
不愿 179
两 179
出于 179
右翼 179
委内瑞拉 179
定义 179
成就 179
管制 179
举措 178
团体 178
家 178
巩固 178
二氧化碳 177
低于 177
公投 177
基因 177
思维 177
特征 177
药物 177
言论 177
质量 177
2016 176
中央银行 176
却是 176
按照 176
看法 176
组成 176
越 176
金融机构 176
不平等性 175
国外 175
工程 175
幸运 175
普通 175
科技 175
产出 174
信号 174
到来 174
左翼 174
患者 174
达 174
声称 173
她们 173
相当于 173
遭遇 173
2007 172
保险 172
喜欢 172
回应 172
形势 172
时刻 172
法 172
疫苗 172
看起来 172
背后 172
全部 171
占据 171
吸引力 171
属于 171
州 171
矛盾 171
2000 170
入侵 170
其他人 170
回到 170
开支 170
日程 170
过于 170
不满 169
债权人 169
据 169
正常 169
涉及 169
激进 169
奇怪 168
安 168
感觉 168
方 168
衡量 168
一名 167
之上 167
卫生 167
只会 167
国民 167
对手 167
成果 167
手中 167
整体 167
花 167
表达 167
两年 166
农村 166
少 166
引入 166
特殊 166
研发 166
足以 166
之所以 165
争议 165
任期 165
加沙 165
支撑 165
无疑 165
条款 165
维护 165
阿萨德 165
主义者 164
克林顿 164
党派 164
共产主义 164
内战 164
尚未 164
供应 163
培训 163
宏观经济 163
五年 162
什叶派 162
便 162
想法 162
操纵 162
身上 162
人数 161
促使 161
可行 161
大型 161
大大 161
尔多 161
有时 161
沙特阿拉伯 161
理念 161
逊尼派 161
驱动 161
发动 160
巴勒斯坦人 160
平台 160
犹太人 160
现状 160
脱欧 160
2005 159
估计 159
南非 159
受益 159
实体 159
尝试 159
应用 159
强劲 159
意识形态 159
模型 159
此前 159
流入 159
理想 159
缅甸 159
监督 158
站 158
农民 157
化石 157
启动 157
大陆 157
拯救 157
生物 157
称为 157
结论 157
绝不 157
议程 157
伦敦 156
动力 156
拉丁美洲 156
推行 156
有利 156
法案 156
渴望 156
科学家 156
量化 156
长 156
一步 155
中国政府 155
主张 155
于是 155
以后 155
命运 155
回归 155
推翻 155
武装 155
紧张 155
财政政策 155
与其 154
升级 154
员工 154
抑制 154
相互 154
第一次 154
艾滋病 154
负债表 154
借贷 153
减税 153
性别 153
惩罚 153
抗议 153
欧盟委员会 153
点 153
理性 153
访问 153
中期 152
保障 152
合法 152
税 152
第一个 152
适用 152
通货膨胀 152
2001 151
两大 151
以往 151
前所未有 151
掌握 151
第三 151
500 150
孤立 150
毫无 150
粮食 150
集体 150
高度 150
高达 150
21 149
公正 149
发行 149
巨额 149
愤怒 149
打破 149
用来 149
透明 149
镇压 149
龙 149
故事 148
温和 147
突然 147
说服 147
数百万 146
来看 146
运作 146
加拿大 145
庞大 145
早已 145
期 145
激烈 145
资格 145
违约 145
马克 145
伴随 144
恐怖分子 144
灾难性 144
率 144
一家 143
下去 143
不足以 143
产量 143
刚刚 143
承受 143
描述 143
最初 143
杠杆 143
死 143
活力 143
消灭 143
第二个 143
纳入 143
释放 143
主流 142
之下 142
发布 142
明智 142
记录 142
谴责 142
迹象 142
2006 141
一般 141
党 141
型 141
对待 141
无@@ 141
注意力 141
测试 141
自由贸易 141
逻辑 141
金融体系 141
非法 141
一下 140
不够 140
为此 140
受害者 140
另一方面 140
油价 140
消失 140
计算 140
诸多 140
多@@ 139
爱尔兰 139
绝大多数 139
股市 139
荷兰 139
超越 139
两种 138
之@@ 138
判断 138
协助 138
参与者 138
同 138
当中 138
拉 138
持 138
摧毁 138
权 138
税率 138
紧密 138
观察 138
诚然 138
违反 138
一套 137
失衡 137
现代化 137
艰难 137
退休 137
通缩 137
预防 137
全球性 136
基地 136
独裁 136
第二 136
美国政府 136
自由化 136
还会 136
人物 135
性质 135
更具 135
期望 135
来源 135
离开 135
组合 135
绿色 135
获益 135
难 135
义务 134
做好 134
包含 134
大西洋 134
必然 134
恐慌 134
情形 134
森林 134
认定 134
跟 134
高于 134
高效 134
以此 133
伟大 133
全国 133
声明 133
强 133
放在 133
整合 133
极为 133
气体 133
流 133
牺牲 133
短缺 133
经济危机 133
位于 132
决心 132
名义 132
官僚 132
帝国 132
男性 132
软 132
部队 132
重塑 132
人群 131
净 131
加以 131
动机 131
宣传 131
换句话说 131
疲软 131
紧迫 131
负债 131
边界 131
面前 131
任命 130
动物 130
安倍 130
拿出 130
指导 130
指控 130
指数 130
相似 130
相同 130
运用 130
遵守 130
人@@ 129
人道主义 129
意见 129
根源 129
渠道 129
2004 128
下滑 128
双边 128
哪些 128
导弹 128
廉价 128
瑞典 128
各自 127
欢迎 127
绝对 127
信誉 126
全新 126
减轻 126
占领 126
工业化 126
本人 126
法治 126
规划 126
赋予 126
道 126
一国 125
享受 125
保留 125
区 125
参加 125
反而 125
周期 125
德 125
有@@ 125
比率 125
第一 125
观念 125
跨 125
任 124
加上 124
医生 124
均 124
打 124
文明 124
无力 124
温室 124
疟疾 124
股票 124
额外 124
2003 123
个体 123
二十世纪 123
失望 123
扭曲 123
特定 123
经过 123
结合 123
美 123
谨慎 123
贸易协定 123
近期 123
逐步 123
首次 123
出售 122
原本 122
此次 122
法庭 122
缓解 122
这位 122
专注 121
世界各地 121
以便 121
倍 121
做到 121
公约 121
分享 121
制约 121
升高 121
华盛顿 121
昂贵 121
清洁 121
澳大利亚 121
现金 121
称 121
脱离 121
获取 121
顾问 121
低估 120
加大 120
包容 120
合作伙伴 120
实验 120
富人 120
授权 120
某种程度 120
简言之 120
股东 120
边缘 120
阵营 120
零 120
人才 119
以下 119
优先 119
反过来 119
多么 119
度 119
新加坡 119
旧 119
月份 119
朋友 119
运行 119
2017 118
再生能源 118
可怕 118
好消息 118
常规 118
放松 118
有力 118
某个 118
要素 118
设备 118
费用 118
越南 118
. 117
... 117
上@@ 117
不太可能 117
克里姆林宫 117
心理 117
排除 117
机器 117
条 117
法院 117
灵活 117
论坛 117
选票 117
严峻 116
中东地区 116
制定者 116
忽略 116
敌人 116
显得 116
暂时 116
梅 116
海外 116
深度 116
留在 116
语言 116
那种 116
19 115
业务 115
事业 115
份额 115
决议 115
坚定 115
小@@ 115
日渐 115
标志 115
格鲁吉亚 115
货币联盟 115
麻烦 115
1990 114
也门 114
争取 114
住房 114
司法 114
否认 114
巴沙尔 114
市场经济 114
年间 114
所在 114
改进 114
监管者 114
致命 114
香港 114
两者 113
力 113
区别 113
立刻 113
等待 113
莫迪 113
著名 113
他人 112
各方 112
塔利班 112
处 112
居民 112
恰当 112
拉美 112
此后 112
污染 112
积累 112
靠 112
位 111
准确 111
契约 111
开展 111
怎么 111
恰恰 111
施加 111
无论如何 111
更是 111
极 111
领导层 111
18 110
一天 110
万人 110
人均 110
像是 110
发起 110
困扰 110
客户 110
干涉 110
愿景 110
抵消 110
电力 110
终结 110
获胜 110
转化 110
部署 110
一段时间 109
东盟 109
两@@ 109
前进 109
助长 109
可持续性 109
强硬 109
斯 109
群众 109
肯尼亚 109
规范 109
资助 109
途径 109
部长 109
阶层 109
不少 108
兑现 108
动员 108
台湾 108
平民 108
引导 108
形象 108
恐怖 108
接触 108
海洋 108
生产力 108
融入 108
中有 107
互相 107
内塔尼亚胡 107
发出 107
团队 107
抓住 107
抛弃 107
武力 107
觉得 107
除 107
不必 106
修改 106
动作 106
劳动 106
多样性 106
带 106
忧虑 106
悲剧 106
战后 106
流向 106
纽约 106
经营 106
衰落 106
认真 106
逆转 106
量 106
饱受 106
首相 106
200 105
专业 105
东欧 105
丧失 105
人工智能 105
例外 105
兴趣 105
前提 105
受欢迎 105
回答 105
成熟 105
本质 105
种 105
纳税人 105
终于 105
职业 105
至今 105
~ 104
不利 104
其@@ 104
包容性 104
对外 104
急需 104
早 104
明年 104
犯罪 104
看似 104
破坏性 104
社交 104
突破 104
系统性 104
纠正 104
结核病 104
自由主义 104
融合 104
行长 104
距离 104
金正恩 104
长期以来 104
一方面 103
召开 103
接着 103
期待 103
案例 103
演讲 103
漫长 103
留下 103
病毒 103
落后 103
补偿 103
退欧 103
不久前 102
住 102
共享 102
减速 102
合适 102
四个 102
完美 102
害怕 102
富有 102
尼日利亚 102
感染 102
或是 102
根本性 102
比方说 102
毫不 102
犹太 102
覆盖 102
过渡 102
选项 102
低收入 101
前任 101
印象 101
合同 101
定价 101
审查 101
已有 101
情景 101
示威 101
诊断 101
运转 101
介入 100
以至于 100
依赖于 100
初 100
匈牙利 100
南部 100
可@@ 100
吸收 100
哪里 100
多个 100
弱点 100
每天 100
浪费 100
立即 100
解体 100
三分之一 99
保守派 99
信仰 99
劳动者 99
国债 99
尔 99
本地 99
注意 99
泰国 99
用户 99
相应 99
真相 99
绝非 99
让步 99
负 99
中间 98
丰富 98
从事 98
伙伴关系 98
何种 98
偿还 98
出台 98
地@@ 98
持久 98
操作 98
机器人 98
机遇 98
白宫 98
统计 98
跨国 98
领导者 98
1@@ 97
从来 97
充足 97
功能 97
哪个 97
最低 97
权威 97
注入 97
注定 97
流行 97
科索沃 97
而已 97
认可 97
议员 97
予以 96
催生 96
在线 96
声音 96
对象 96
得不到 96
提议 96
法官 96
第 96
紧急 96
考验 96
花费 96
讽刺 96
评级 96
走上 96
中央 95
克 95
反弹 95
对@@ 95
征收 95
感 95
拉@@ 95
极端主义 95
残酷 95
清晰 95
热情 95
看上去 95
落实 95
设施 95
限度 95
三年 94
专制 94
分别 94
各个 94
推迟 94
普及 94
服务业 94
歧视 94
消息 94
物种 94
自从 94
讲话 94
设立 94
评论 94
防务 94
三@@ 93
世贸组织 93
两次 93
亲 93
企业家 93
位置 93
军事行动 93
哥伦比亚 93
提到 93
沦为 93
深入 93
深远 93
确认 93
经济衰退 93
雇主 93
不用说 92
凯恩斯 92
可信 92
垄断 92
复兴 92
废除 92
强势 92
忘记 92
总需求 92
战斗 92
推广 92
欧洲议会 92
煤炭 92
独裁者 92
类型 92
约旦 92
纷纷 92
药品 92
解决问题 92
训练 92
财务 92
那时 92
高昂 92
2020 91
G20 91
出@@ 91
响应 91
国有企业 91
外汇储备 91
小时 91
工会 91
平心而论 91
延长 91
恐怖袭击 91
扩散 91
扭转 91
数十年 91
果断 91
美国国会 91
薪酬 91
适当 91
透明度 91
陷阱 91
黄金 91
2030 90
严肃 90
利 90
处在 90
外围 90
好像 90
年来 90
循环 90
批评者 90
找 90
报纸 90
监控 90
知识产权 90
职位 90
自动 90
菲律宾 90
警察 90
这笔 90
那个 90
为例 89
仇恨 89
低利率 89
侵犯 89
倒 89
借口 89
加快 89
印尼 89
听 89
圣战 89
女孩 89
席位 89
石油价格 89
苏格兰 89
跨境 89
万@@ 88
下来 88
二十年 88
使命 88
关闭 88
古巴 88
士兵 88
多样化 88
大多 88
审判 88
愿望 88
抵抗 88
智利 88
正义 88
煽动 88
百分点 88
盟国 88
试验 88
过剩 88
野心 88
阻挠 88
预算赤字 88
领导力 88
－ 88
不久 87
东亚 87
丹麦 87
保守 87
公共部门 87
填补 87
大众 87
大胆 87
太阳能 87
开启 87
律师 87
感受 87
提醒 87
教授 87
沮丧 87
自然资源 87
销售 87
长时间 87
17 86
世俗 86
共产党 86
养老金 86
剥夺 86
四年 86
国@@ 86
大屠杀 86
家族 86
庇护 86
总量 86
掌权 86
新@@ 86
极其 86
某 86
核计划 86
游说 86
真主党 86
适合 86
问 86
霸权 86
饥饿 86
马 86
一再 85
举动 85
交流 85
今后 85
全 85
分散 85
北京 85
和解 85
坚决 85
妨碍 85
当年 85
彼此 85
抗生素 85
披露 85
担保 85
暴露 85
步骤 85
狂热 85
狭隘 85
瑞士 85
给出 85
青年 85
严厉 84
乃至 84
以@@ 84
僵局 84
冒险 84
军方 84
反对者 84
只不过 84
外国人 84
所说 84
排放量 84
掩盖 84
提案 84
来讲 84
正常化 84
焦点 84
物质 84
第三个 84
罪行 84
迄今为止 84
里根 84
难题 84
争端 83
以南 83
信念 83
公布 83
头 83
奥 83
子 83
尽可能 83
流离失所 83
滥用 83
看作 83
纠纷 83
至于 83
艰巨 83
主宰 82
二十一 82
倒闭 82
取得成功 82
否决 82
天 82
弥补 82
截然不同 82
此类 82
沉重 82
病人 82
遇到 82
道理 82
首要 82
中等 81
以外 81
依旧 81
俄 81
偏好 81
区分 81
受过 81
商品价格 81
在政治上 81
学者 81
宏观 81
审慎 81
容忍 81
展示 81
强制 81
急剧 81
意外 81
抵押 81
换取 81
掉 81
梦想 81
穆巴拉克 81
统治者 81
苏丹 81
若 81
英国人 81
超出 81
进 81
2018 80
2@@ 80
临时 80
企图 80
借助 80
偏见 80
先例 80
加 80
动用 80
压制 80
发电 80
后来 80
国际法 80
塞尔维亚 80
外界 80
导向 80
建设性 80
收缩 80
榜样 80
相比之下 80
绝望 80
缩小 80
自动化 80
自愿 80
自由民主 80
言论自由 80
认同 80
证实 80
诱惑 80
鲁 80
一边 79
业 79
人为 79
便是 79
关心 79
办公室 79
医院 79
单方面 79
外@@ 79
如@@ 79
就业机会 79
工厂 79
年底 79
年度 79
快速增长 79
拜 79
敦促 79
有用 79
母亲 79
比@@ 79
活跃 79
独立性 79
现任 79
电视 79
私营部门 79
膨胀 79
表面 79
首席 79
• 78
产能 78
先进 78
克里米亚 78
写 78
决定性 78
利息 78
反@@ 78
发明 78
国防 78
基本上 78
太平洋 78
存款 78
建筑 78
无论是 78
更高 78
最大化 78
核能 78
特 78
生态系统 78
癌症 78
相 78
置于 78
街头 78
补充 78
课程 78
财政赤字 78
起诉 78
高级 78
16 77
G 77
共和党人 77
反恐 77
发放 77
唐纳德 77
四分之一 77
大宗 77
对付 77
小组 77
履行 77
幅度 77
延续 77
归咎于 77
得出 77
战胜 77
投机 77
探讨 77
敏感 77
文章 77
新政府 77
早就 77
时@@ 77
智慧 77
暗示 77
更多地 77
树立 77
检查 77
突尼斯 77
缺口 77
莫斯科 77
董事会 77
蔓延 77
行事 77
论 77
随之 77
飙升 77
马上 77
！ 77
13 76
一件 76
下@@ 76
亿人 76
任何人 76
低迷 76
作物 76
可谓 76
工党 76
年龄 76
必要性 76
总额 76
所赐 76
无数 76
深化 76
生 76
申请 76
监狱 76
硬 76
称之为 76
稳定性 76
突出 76
经合组织 76
联合国安理会 76
营养 76
行政 76
西欧 76
解决办法 76
重视 76
银行家 76
食物 76
1989 75
2050 75
一大 75
三十年 75
不应 75
不想 75
从中 75
估算 75
典型 75
口号 75
哈尼 75
回 75
始于 75
孟加拉国 75
完善 75
布鲁塞尔 75
当@@ 75
按 75
撒哈拉 75
新兴国家 75
次 75
死刑 75
比重 75
涌入 75
独特 75
看待 75
细节 75
轻易 75
近年来 75
这类 75
防御 75
频繁 75
一代 74
为@@ 74
修正 74
先 74
发射 74
对立 74
将来 74
推出 74
救助 74
时机 74
朝 74
深层次 74
游戏 74
物价 74
电影 74
签订 74
股权 74
议题 74
贸易赤字 74
这份 74
驱逐 74
中共 73
之际 73
减排 73
动摇 73
北部 73
均衡 73
塞浦路斯 73
多元化 73
布莱尔 73
库尔德人 73
强有力 73
所有权 73
排斥 73
生产总值 73
竭尽全力 73
约翰 73
缓和 73
裁决 73
贸易战 73
走出 73
通胀率 73
预见 73
1980 72
不利于 72
丑闻 72
伦理 72
体 72
促成 72
全民 72
内贾德 72
分离 72
制药 72
副 72
卡 72
卡塔尔 72
因而 72
固定 72
姿态 72
密切 72
强国 72
德国人 72
惊人 72
掌控 72
未必 72
毒品 72
沟通 72
激发 72
盈利 72
线 72
组成部分 72
老 72
自由派 72
这会 72
退休金 72
鼓吹 72
S@@ 71
作 71
修订 71
内@@ 71
内阁 71
南 71
坏 71
培养 71
尊严 71
库尔德 71
引擎 71
弱势 71
当务之急 71
恰恰相反 71
成长 71
挪威 71
挽救 71
撤军 71
教师 71
斯大林 71
特点 71
理应 71
而@@ 71
葡萄牙 71
记忆 71
身体 71
近几年来 71
进而 71
连接 71
金融部门 71
页岩 71
1999 70
35 70
交通 70
享有 70
分@@ 70
到底 70
务实 70
动态 70
地中海 70
工作岗位 70
意图 70
瘫痪 70
眼下 70
祖国 70
第一步 70
罗马 70
萨达姆 70
负面 70
迈出 70
迈向 70
遗产 70
配置 70
非常规 70
一代人 69
上个月 69
不了 69
两倍 69
五个 69
交换 69
传染病 69
制 69
医学 69
国王 69
国际贸易 69
强迫 69
心@@ 69
情报 69
慷慨 69
抱 69
抱怨 69
指望 69
有望 69
水资源 69
源自 69
漏洞 69
移动 69
穷国 69
美军 69
设定 69
贷款人 69
超级 69
难度 69
难道 69
300 68
M@@ 68
一路 68
一道 68
万美元 68
不如 68
专利 68
事故 68
互动 68
人会 68
会谈 68
你们 68
保守党 68
兴起 68
剩下 68
参议院 68
商界 68
国务卿 68
堪称 68
境内 68
婴儿 68
将军 68
尚 68
巨头 68
建造 68
态势 68
排名 68
支持率 68
收益率 68
收集 68
材料 68
毁灭 68
永久 68
法塔赫 68
演变 68
秘密 68
纯粹 68
谷歌 68
身为 68
金 68
问责 68
非政府 68
颠覆 68
什么样 67
剧烈 67
加深 67
单位 67
卡@@ 67
危害 67
哪 67
基督教 67
壁垒 67
完整 67
居住 67
巴 67
巴@@ 67
授予 67
更新 67
最有 67
种植 67
绝大部分 67
综合 67
角度看 67
迎来 67
采购 67
错 67
高质量 67
14 66
400 66
主题 66
仔细 66
低下 66
便利 66
修复 66
兄弟 66
凯恩斯主义 66
出生 66
后@@ 66
哪怕 66
地理 66
大家 66
拖累 66
拿 66
无视 66
法国人 66
法规 66
电脑 66
看看 66
第四 66
软件 66
连任 66
金砖 66
项 66
75 65
上台 65
不论 65
乔治 65
会@@ 65
充斥 65
分 65
力度 65
博拉 65
友好 65
哈梅内伊 65
四@@ 65
埃塞俄比亚 65
安理会 65
开 65
开@@ 65
扩展 65
扼杀 65
报复 65
新一轮 65
更强 65
根本无法 65
海啸 65
理事会 65
福祉 65
索马里 65
西 65
观察家 65
识别 65
进化 65
阿巴斯 65
1979 64
27 64
; 64
不仅如此 64
争夺 64
充当 64
共和国 64
减弱 64
出色 64
切实 64
加@@ 64
劳工 64
反抗 64
吃 64
同事 64
安@@ 64
实践 64
就要 64
年初 64
征税 64
待遇 64
总统大选 64
悲观 64
惊讶 64
打@@ 64
打造 64
抨击 64
抵御 64
改造 64
财政部长 64
逃离 64
通往 64
邪恶 64
2002 63
3@@ 63
三分之二 63
停滞不前 63
写道 63
军事力量 63
创建 63
前往 63
十@@ 63
反思 63
同@@ 63
地带 63
如同 63
学术 63
德@@ 63
控制权 63
提名 63
有权 63
来到 63
模糊 63
民调 63
消耗 63
源 63
灵活性 63
特权 63
眼中 63
穆尔西 63
计价 63
证券 63
话 63
谈论 63
路径 63
遥远 63
非正式 63
风暴 63
1.5 62
不可或缺 62
两党 62
事态 62
供应链 62
依据 62
制衡 62
勇气 62
南海 62
卡梅伦 62
大会 62
左派 62
巴拉克 62
心 62
所作所为 62
手 62
揭示 62
收到 62
暴跌 62
有点 62
本月 62
气 62
注重 62
焦虑 62
父母 62
物 62
病 62
秘书长 62
级 62
继任者 62
缩减 62
能量 62
自@@ 62
解放 62
论点 62
遵循 62
采取措施 62
高企 62
22 61
28 61
书 61
但@@ 61
兄弟会 61
出资 61
前@@ 61
北方 61
华尔街 61
卡扎菲 61
号 61
哥本哈根 61
学 61
学会 61
对策 61
尼 61
干扰 61
待 61
持续增长 61
攀升 61
支柱 61
末 61
本土 61
查韦斯 61
案件 61
海军 61
父亲 61
缺失 61
聪明 61
虐待 61
触发 61
认知 61
象征 61
赢家 61
随时 61
风格 61
TPP 60
一片 60
上限 60
两位 60
之春 60
伊 60
信 60
免受 60
全体 60
冒 60
几@@ 60
势头 60
卷入 60
厌恶 60
否定 60
含义 60
基本面 60
多种 60
大概 60
大脑 60
宣言 60
寿命 60
小国 60
投资银行 60
敌意 60
早些时候 60
机 60
消极 60
私有化 60
纳粹 60
细胞 60
跨国公司 60
运营 60
雇员 60
领先 60
马@@ 60
高速 60
24 59
东南亚 59
从前 59
件 59
公@@ 59
决不能 59
压迫 59
参议员 59
吧 59
基金会 59
多大 59
市 59
年增长率 59
总体而言 59
接下来 59
提前 59
收紧 59
政变 59
效仿 59
族裔 59
日@@ 59
是从 59
有害 59
本来 59
极有 59
死亡率 59
流失 59
浪潮 59
激增 59
社会保障 59
联邦政府 59
股价 59
话题 59
诞生 59
辞职 59
迫切需要 59
间接 59
额 59
1997 58
一支 58
三大 58
中央政府 58
习惯 58
事实证明 58
体面 58
作者 58
侵蚀 58
几周 58
前者 58
叛乱 58
周期性 58
场 58
天@@ 58
幻想 58
广告 58
当今世界 58
愚蠢 58
房屋 58
所得税 58
探索 58
棘手 58
民间 58
研究所 58
社会主义 58
税收收入 58
空气 58
竞争对手 58
组建 58
网站 58
设置 58
超级大国 58
足球 58
转而 58
边缘化 58
过分 58
运输 58
采纳 58
金钱 58
震惊 58
预言 58
飓风 58
马来西亚 58
一方 57
专门 57
些 57
俱乐部 57
充分就业 57
公共卫生 57
南欧 57
卢旺达 57
反复 57
和@@ 57
增长速度 57
多元 57
大力 57
大幅度 57
如果说 57
定居点 57
建国 57
摩洛哥 57
撤出 57
无能 57
有益 57
杀害 57
爆炸 57
疯狂 57
社会福利 57
穆沙拉夫 57
累积 57
罗斯福 57
自信 57
萨尔 57
过时 57
部 57
限于 57
随之而来 57
高科技 57
&apos; 56
借款 56
储量 56
入 56
到达 56
医疗保健 56
各地 56
女 56
子女 56
平均水平 56
幸福 56
强力 56
德国总理 56
成@@ 56
拖延 56
推高 56
政坛 56
新增 56
日子 56
权衡 56
根深蒂固 56
潮 56
犯下 56
短短 56
第二次 56
肯尼迪 56
自由市场 56
英镑 56
赞成 56
邀请 56
随 56
首都 56
高出 56
2.5 55
T@@ 55
e@@ 55
不止 55
主导地位 55
亦然 55
令人担忧 55
传递 55
便宜 55
偿付 55
免费 55
再度 55
减免 55
判决 55
历史性 55
发@@ 55
听到 55
周围 55
外交官 55
定期 55
富国 55
就算 55
局限于 55
差别 55
布什总统 55
希特勒 55
成绩 55
所@@ 55
打开 55
新型 55
最高法院 55
流程 55
生涯 55
症状 55
美国公司 55
苦难 55
诸如 55
起义 55
达成协议 55
过多 55
选战 55
逮捕 55
铁路 55
阶级 55
预示 55
高@@ 55
魅力 55
23 54
65 54
L@@ 54
一座 54
不负责任 54
中国人民银行 54
人均收入 54
从根本上 54
令人信服 54
会晤 54
低成本 54
凭借 54
制止 54
化学武器 54
北朝鲜 54
印度人 54
原教旨主义 54
叙事 54
围绕 54
奥运会 54
宏大 54
实质 54
常态 54
意味 54
执法 54
招募 54
斯@@ 54
无效 54
既然 54
日元 54
是不是 54
有趣 54
极端分子 54
架构 54
核不扩散 54
正@@ 54
比如说 54
激起 54
猜测 54
研究者 54
纳 54
耶路撒冷 54
莫过于 54
解读 54
议定书 54
词 54
邓小平 54
附近 54
雇用 54
颇为 54
高管 54
a 53
一小部分 53
下台 53
不错 53
今日 53
份子 53
众议院 53
免疫 53
凝聚力 53
击败 53
古老 53
史 53
周边 53
地说 53
奖励 53
始终 53
对方 53
尼克松 53
当代 53
很长 53
成千上万 53
指引 53
斯里兰卡 53
更糟 53
极度 53
比赛 53
沙龙 53
甚 53
示威者 53
简而言之 53
紧张局势 53
萎缩 53
萎靡 53
计算机 53
评价 53
路线 53
车 53
轻松 53
重复 53
银行业 53
阿尔及利亚 53
颇 53
首脑 53
） 53
150 52
18@@ 52
1991 52
N@@ 52
一面 52
世行 52
久 52
之内 52
优惠 52
公共政策 52
关键问题 52
再也 52
及时 52
名字 52
后续 52
国有 52
失灵 52
学院 52
对比 52
工作人员 52
性@@ 52
成百上千 52
战 52
挑衅 52
挣扎 52
据说 52
收购 52
数 52
来@@ 52
欺骗 52
民主化 52
生产商 52
白人 52
相结合 52
破裂 52
约束力 52
结盟 52
罪 52
老龄化 52
行列 52
解除 52
财产 52
远离 52
除此之外 52
面 52
飞机 52
驻 52
F@@ 51
Facebook 51
从@@ 51
令人震惊 51
伊@@ 51
何时 51
修建 51
倒退 51
借款人 51
储存 51
免于 51
出口国 51
分担 51
半@@ 51
受@@ 51
在此期间 51
地震 51
太过 51
奠定 51
奥地利 51
好事 51
威慑 51
小心 51
崩盘 51
希拉里 51
应有 51
很小 51
想起 51
房价 51
旅行 51
炸弹 51
生产者 51
真 51
离 51
等国 51
职责 51
范畴 51
见 51
连续 51
追随者 51
选出 51
重振 51
隐私 51
雄心勃勃 51
600 50
不太 50
临近 50
买 50
买入 50
亚 50
传染 50
倒台 50
博弈 50
受益者 50
同情 50
哈@@ 50
地下 50
城市化 50
实质性 50
实验室 50
宣扬 50
宪章 50
屠杀 50
工程师 50
归根结底 50
当作 50
必需 50
手@@ 50
打算 50
托 50
拒绝接受 50
按揭 50
接收 50
接种 50
推移 50
提交 50
提及 50
放大 50
无辜 50
更@@ 50
有史以来 50
朗德 50
毛泽东 50
水@@ 50
永久性 50
烟草 50
熟悉 50
省 50
继承 50
舆论 50
艾滋病毒 50
芬兰 50
英国政府 50
营养不良 50
行 50
诚实 50
较为 50
迫切 50
金融业 50
阿拉伯人 50
隐藏 50
一群 49
三倍 49
不顾 49
东 49
两人 49
共同利益 49
切断 49
加纳 49
千年 49
即便如此 49
吞并 49
商业银行 49
固然 49
在@@ 49
在短期内 49
在经济上 49
失误 49
奇迹 49
家人 49
小布什 49
常见 49
年@@ 49
并不一定 49
救援 49
数学 49
施压 49
无人机 49
时任 49
智能 49
更为重要 49
最坏 49
朝着 49
本@@ 49
民族主义者 49
测量 49
涵盖 49
物理 49
电视台 49
界 49
稳步 49
竞赛 49
罕见 49
罗姆尼 49
荒谬 49
西藏 49
诉讼 49
长远 49
颇具 49
高涨 49
1970 48
1998 48
一带 48
一段 48
丘吉尔 48
东部 48
中断 48
产物 48
京都 48
侧 48
信奉 48
关联 48
创业 48
双边关系 48
名单 48
增进 48
失控 48
安倍晋三 48
安抚 48
宝贵 48
小型 48
差 48
干旱 48
引用 48
捕捞 48
效益 48
文 48
文件 48
最低工资 48
步伐 48
没能 48
溢价 48
电子 48
短 48
罗 48
美好 48
胜出 48
脆弱性 48
自杀 48
药 48
财政部 48
近乎 48
迫害 48
黑暗 48
160 47
1992 47
5@@ 47
A@@ 47
C@@ 47
R@@ 47
一轮 47
中小企业 47
之势 47
事关 47
优秀 47
体验 47
供 47
儿子 47
关键性 47
军 47
别无选择 47
北美 47
匹配 47
反对党 47
发 47
发挥作用 47
叛军 47
各@@ 47
各州 47
国大党 47
塑造 47
声誉 47
夏天 47
多久 47
夫 47
子孙后代 47
学@@ 47
实在 47
尼@@ 47
工业革命 47
广大 47
强制性 47
当下 47
形容 47
必不可少 47
忠诚 47
拓展 47
撤离 47
教皇 47
显现 47
有序 47
民意调查 47
满意 47
演化 47
环保 47
界限 47
短视 47
罗马尼亚 47
致使 47
虚假 47
西@@ 47
西部 47
通信 47
重申 47
野蛮 47
零售 47
高层 47
1995 46
26 46
s 46
一贯 46
不必要 46
代替 46
估值 46
债券市场 46
储蓄率 46
克@@ 46
内在 46
军力 46
几天 46
利@@ 46
别人 46
制造商 46
前沿 46
半个世纪 46
半数 46
回合 46
境地 46
大于 46
大使 46
大程度 46
大肆 46
宽容 46
引人注目 46
引出 46
必将 46
推向 46
收回 46
故意 46
无关 46
有意 46
概率 46
欧 46
欧洲各国 46
电话 46
留给 46
监禁 46
着眼于 46
稳健 46
端 46
精力 46
经受 46
职务 46
自豪 46
著作 46
言 46
议会选举 46
说服力 46
负面影响 46
贫困人口 46
贸易谈判 46
边际 46
适得其反 46
遗传 46
部落 46
链 46
队 46
非@@ 46
鲜有 46
1945 45
t@@ 45
一批 45
一篇 45
万亿 45
主动 45
九十年代 45
也就是说 45
事先 45
侵略 45
借 45
公私 45
农场 45
冻结 45
分布 45
劣势 45
协作 45
双重 45
反驳 45
回报率 45
土壤 45
坚挺 45
夸大 45
密集 45
尽 45
开采 45
微不足道 45
指定 45
搜集 45
无关紧要 45
朝鲜半岛 45
机场 45
极权 45
正好 45
正面 45
此举 45
死@@ 45
清算 45
清除 45
源于 45
现行 45
疫情 45
竭力 45
简直 45
缓冲 45
背叛 45
舞台 45
节约 45
英格兰银行 45
设想 45
请 45
豁免 45
货币贬值 45
轨道 45
辩护 45
远远不够 45
重启 45
阿@@ 45
隔离 45
顽固 45
高风险 45
1000 44
一张 44
不好 44
二@@ 44
产权 44
人力资本 44
众所周知 44
入盟 44
全民公决 44
冲动 44
凸显 44
初期 44
前途 44
动 44
医疗保险 44
千@@ 44
卷土重来 44
变为 44
境况 44
奏效 44
它会 44
宗派 44
应付 44
恐怕 44
恢复力 44
折磨 44
指向 44
无知 44
更长 44
最快 44
有所不同 44
杀死 44
汲取 44
法@@ 44
温和派 44
潮流 44
犯 44
生态 44
用途 44
疗法 44
真空 44
精确 44
考察 44
耐药性 44
自主 44
英国首相 44
警方 44
谋杀 44
费 44
配额 44
重 44
门 44
非洲大陆 44
面向 44
顶层 44
高等教育 44
A 43
DNA 43
SDR 43
​ 43
不用 43
专业人士 43
为首 43
举 43
低效 43
全@@ 43
出人意料 43
出版 43
剩余 43
半岛 43
单独 43
南方 43
变@@ 43
古@@ 43
同性恋 43
商人 43
增税 43
复杂性 43
多次 43
对冲 43
小学 43
尤为 43
就此 43
展现 43
工作者 43
异常 43
弹性 43
总部 43
恶劣 43
成分 43
成年人 43
扩张性 43
技术创新 43
挂钩 43
掀起 43
接管 43
提 43
撰写 43
收入水平 43
放@@ 43
普@@ 43
更能 43
期限 43
民选 43
没什么 43
治下 43
海上 43
海平面 43
深陷 43
游行 43
源泉 43
独一无二 43
目睹 43
着手 43
知识分子 43
科维奇 43
等于 43
经济繁荣 43
耐心 43
聚集 43
英雄 43
观察者 43
详细 43
贝卢斯科尼 43
远比 43
陷于 43
高估 43
H@@ 42
一词 42
不当 42
世界杯 42
交给 42
代理 42
价格上涨 42
体育 42
借此 42
债务国 42
光 42
公共服务 42
农产品 42
减小 42
创新性 42
创造性 42
协会 42
单纯 42
变 42
可不是 42
各大 42
同等 42
名@@ 42
堕胎 42
增速 42
外国投资 42
多哈 42
头@@ 42
夺走 42
寡头 42
尽快 42
希腊政府 42
平息 42
引领 42
影子 42
悬崖 42
教派 42
数十亿美元 42
既得利益 42
春天 42
暂停 42
更快 42
最多 42
束缚 42
来源于 42
杰夫 42
案 42
森 42
波斯尼亚 42
海湾 42
清醒 42
生计 42
真理 42
神经 42
秘鲁 42
经 42
联合国大会 42
言辞 42
记住 42
说到底 42
谎言 42
这部分 42
选区 42
重@@ 42
阻力 42
E@@ 41
SDG 41
r@@ 41
一部 41
不变 41
主意 41
人选 41
以致 41
伊拉克人 41
作战 41
保守主义 41
信息技术 41
入@@ 41
动乱 41
十九世纪 41
升息 41
反腐 41
可是 41
哲学 41
囚犯 41
声 41
天气 41
定 41
宝座 41
尖锐 41
币 41
座 41
延伸 41
建制 41
微小 41
德拉吉 41
急切 41
意在 41
战士 41
手机 41
拨款 41
推 41
撒切尔 41
放任 41
敌对 41
无需 41
日常 41
明@@ 41
未@@ 41
格局 41
模仿 41
正因如此 41
毁灭性 41
每@@ 41
毕业生 41
治国 41
派系 41
混合 41
照顾 41
生效 41
目光 41
破灭 41
禁令 41
种族主义 41
稀缺 41
空气污染 41
管理者 41
米 41
老年人 41
耗费 41
自治 41
落入 41
薄弱 41
行使 41
视而不见 41
论调 41
语 41
起草 41
趋同 41
跨越 41
转换 41
轰炸 41
较大 41
输家 41
迎接 41
里斯本 41
重重 41
金融监管 41
长达 41
阵线 41
降到 41
雷曼 41
顶峰 41
45 40
700 40
G@@ 40
上海 40
不乏 40
不公 40
不力 40
不得 40
东@@ 40
之道 40
亚@@ 40
交@@ 40
令人不安 40
体@@ 40
作家 40
债务人 40
债权 40
做@@ 40
先@@ 40
关注点 40
出手 40
列为 40
勇敢 40
历史学家 40
压倒性 40
发生变化 40
受损 40
叶利钦 40
员 40
品 40
天然 40
奉行 40
局 40
局限 40
弥合 40
弱 40
必要条件 40
总结 40
抗 40
支配 40
效力 40
明天 40
最@@ 40
有效性 40
杂志 40
村庄 40
果真如此 40
柏林 40
核电站 40
根除 40
氛围 40
法则 40
海地 40
港 40
溢出 40
生物学 40
短暂 40
票 40
私有 40
种子 40
简化 40
纪念 40
联合政府 40
艺术 40
草案 40
血腥 40
补助 40
讨价还价 40
起点 40
路上 40
近来 40
这座 40
追踪 40
逃避 40
通讯 40
金本位 40
面积 40
800 39
B@@ 39
一句 39
上演 39
不大可能 39
不断扩大 39
世界卫生组织 39
世界秩序 39
东京 39
主持 39
二 39
人力 39
价 39
传染性 39
倡议 39
充分利用 39
公然 39
内需 39
创造力 39
原来 39
合法化 39
同盟 39
名声 39
商 39
国际化 39
复制 39
大门 39
好@@ 39
季度 39
学科 39
家长 39
封闭 39
布@@ 39
并非如此 39
开端 39
强@@ 39
得@@ 39
心态 39
恶性循环 39
找出 39
技巧 39
捐赠 39
捷克 39
接 39
提@@ 39
撤销 39
旅游 39
旅游业 39
更少 39
最具 39
有待 39
本应 39
比利时 39
毫无意义 39
气温 39
泛 39
注册 39
派遣 39
玻利维亚 39
电网 39
皮 39
真是 39
立法者 39
竞争性 39
绝不会 39
缴纳 39
股票市场 39
能为 39
能源价格 39
苹果 39
视角 39
解雇 39
该党 39
误导 39
贪婪 39
越发 39
达沃斯 39
进攻 39
阴谋 39
雇佣 39
1993 38
1996 38
4@@ 38
K@@ 38
h@@ 38
一块 38
不敢 38
中学 38
中欧 38
事@@ 38
五@@ 38
亚努 38
住宅 38
借钱 38
值 38
六@@ 38
共同体 38
加州 38
动@@ 38
化@@ 38
化学 38
卖 38
卫星 38
原油 38
国民收入 38
基督徒 38
多地 38
大军 38
大致 38
天主教 38
安全网 38
定向 38
审视 38
少数派 38
尼泊尔 38
岛 38
广义 38
开来 38
恐怖组织 38
想想 38
意 38
意志 38
我@@ 38
战术 38
战略性 38
所有者 38
政治化 38
教科书 38
明证 38
更深 38
本次 38
杀戮 38
核武 38
格@@ 38
梦 38
欧洲理事会 38
每次 38
满 38
火 38
王国 38
研究成果 38
私营 38
种种 38
科奇 38
算不上 38
股本 38
色彩 38
范式 38
营造 38
葛兰 38
蓬勃发展 38
赞同 38
超 38
路线图 38
邦 38
钢铁 38
阿拉法特 38
高额 38
1994 37
2025 37
34 37
W 37
er@@ 37
i@@ 37
一小撮 37
一揽子 37
上帝 37
不像 37
不让 37
不难理解 37
丝毫 37
中亚 37
乌干达 37
事物 37
会面 37
传达 37
低碳 37
债权国 37
假定 37
偏离 37
僵化 37
元素 37
克制 37
公债 37
六年 37
关押 37
关键因素 37
准则 37
凸显出 37
分化 37
加密 37
包围 37
十分困难 37
半 37
南@@ 37
危及 37
命令 37
回避 37
地图 37
坏消息 37
姆 37
婚姻 37
存量 37
尔@@ 37
帝国主义 37
平价 37
平稳 37
广 37
弱势群体 37
强硬派 37
往 37
惠及 37
战场 37
房子 37
报 37
抵达 37
挑起 37
数字化 37
族 37
日本政府 37
更进一步 37
最小化 37
有没有 37
本币 37
极限 37
格林斯潘 37
梅德韦 37
殖民 37
清洗 37
温度 37
港口 37
班 37
确立 37
种族灭绝 37
等到 37
等等 37
筹集 37
红利 37
绑架 37
老@@ 37
职能 37
蔓延到 37
被忽视 37
西方人 37
设法 37
诉求 37
误解 37
赞扬 37
身处 37
转折点 37
轮 37
过@@ 37
迈进 37
运动员 37
近几年 37
金融服务 37
金额 37
非洲人 37
颁布 37
1930 36
1960 36
I@@ 36
一倍 36
一周 36
不亚于 36
不复存在 36
不安 36
不足为奇 36
中美 36
令人瞩目 36
伙伴国 36
停留 36
储户 36
八@@ 36
公路 36
兼 36
利益集团 36
副作用 36
包装 36
北非 36
南亚 36
南斯拉夫 36
可用 36
同一 36
呼声 36
器 36
地点 36
基@@ 36
外债 36
外汇 36
大得多 36
大批 36
大气 36
太@@ 36
太多 36
奥@@ 36
娱乐 36
家园 36
容克 36
尴尬 36
布雷顿 36
带有 36
干 36
年内 36
归因于 36
德国政府 36
护理 36
据估计 36
据此 36
描绘 36
数@@ 36
数年 36
方便 36
未知 36
本周 36
桥梁 36
次级 36
沉默 36
洪水 36
流出 36
燃烧 36
盖茨 36
直面 36
看不到 36
看成 36
确信 36
竞选活动 36
管道 36
终止 36
绝非易事 36
耗尽 36
肉 36
脱 36
英语 36
衍生品 36
裁定 36
观 36
许可 36
论文 36
诺贝尔奖 36
购买力 36
贸易壁垒 36
赌注 36
追溯到 36
通货膨胀率 36
采访 36
队伍 36
雄心 36
高得 36
高级官员 36
+ 35
85 35
a@@ 35
e 35
l@@ 35
p@@ 35
℃ 35
一任 35
一新 35
三种 35
两极分化 35
中间派 35
之争 35
于@@ 35
产 35
亲密 35
以巴 35
伊朗核 35
作品 35
修正案 35
健康状况 35
先决条件 35
其所 35
军事实力 35
减缓 35
分析家 35
分析师 35
创伤 35
医保 35
原@@ 35
原材料 35
参与率 35
反击 35
发展趋势 35
口 35
呈 35
商业模式 35
国家主权 35
坚信 35
埃@@ 35
多项 35
大大增加 35
妻子 35
家@@ 35
就业率 35
屈服 35
布朗 35
平静 35
庆祝 35
应@@ 35
总数 35
恐吓 35
情感 35
意思 35
报酬 35
抬头 35
指 35
指挥 35
据称 35
数十万 35
无动于衷 35
无意 35
暴行 35
曝光 35
曼 35
有时候 35
本世纪 35
标签 35
此@@ 35
段 35
比尔 35
比特 35
深受 35
病例 35
症 35
科 35
稳固 35
穆罕默德 35
等同于 35
策划 35
算法 35
经典 35
经济制裁 35
而后 35
背道而驰 35
般 35
蔑视 35
裔 35
西非 35
警惕 35
评论家 35
这套 35
送 35
造就 35
邻居 35
防卫 35
驱使 35
QE 34
m@@ 34
u@@ 34
一幕 34
七年 34
上面 34
下一代 34
不已 34
专@@ 34
世界贸易组织 34
中低收入 34
中止 34
主权国家 34
九@@ 34
以为 34
价值链 34
传@@ 34
伯南克 34
供应商 34
保@@ 34
倡导 34
偏向 34
充满活力 34
光明 34
再@@ 34
军@@ 34
决裂 34
出席 34
初级 34
初衷 34
别的 34
制作 34
动议 34
化解 34
区域性 34
医疗卫生 34
单@@ 34
印度洋 34
变迁 34
名为 34
吸取 34
告终 34
和谐 34
回忆 34
地面 34
多重 34
大幅提高 34
安全性 34
安置 34
宣告 34
已@@ 34
巴尔干 34
建筑业 34
弹道导弹 34
强加 34
忙于 34
总@@ 34
打交道 34
投 34
报导 34
推特 34
搁置 34
文@@ 34
方济各 34
普通人 34
替代品 34
服从 34
机关 34
机械 34
极右翼 34
极少 34
柬埔寨 34
核弹 34
活 34
活动家 34
渐进 34
王朝 34
甘地 34
生育率 34
直觉 34
相提并论 34
眼前 34
神话 34
种类 34
站不住脚 34
签证 34
纪律 34
经理 34
继续下去 34
缩短 34
网 34
罗姆人 34
自民党 34
艰苦 34
花钱 34
落 34
设在 34
诊所 34
财政状况 34
贸易顺差 34
赚 34
赚取 34
轨迹 34
转 34
进来 34
退休年龄 34
那@@ 34
金@@ 34
阅读 34
阴影 34
降 34
顶尖 34
饥荒 34
骚乱 34
黑人 34
# 33
29 33
不良贷款 33
不该 33
举例 33
举办 33
么 33
事项 33
互换 33
任由 33
会令 33
低@@ 33
保住 33
光@@ 33
光是 33
党内 33
关键作用 33
其余 33
军官 33
几次 33
制度性 33
力@@ 33
压低 33
反应堆 33
可信度 33
各类 33
合约 33
向前 33
呈现 33
告知 33
周年 33
咨询 33
团 33
国防部长 33
圣@@ 33
在外 33
基石 33
大城市 33
大笔 33
头上 33
女@@ 33
宇宙 33
富 33
对峙 33
小规模 33
已然 33
得益于 33
忍受 33
慈善 33
战@@ 33
房产 33
所处 33
指令 33
提款权 33
既有 33
极化 33
极权主义 33
极高 33
林 33
查@@ 33
植物 33
殖民地 33
油 33
法德 33
海@@ 33
深深 33
热 33
照片 33
爱 33
特@@ 33
生产性 33
疑问 33
科尔 33
竞争者 33
第二种 33
糖尿病 33
脊髓灰质炎 33
船 33
英里 33
规避 33
赶超 33
软弱 33
边 33
迁徙 33
近几个月 33
这@@ 33
选 33
遗憾 33
金融中心 33
长久 33
隐含 33
靠拢 33
顾虑 33
风@@ 33
马里 33
高技能 33
1.@@ 32
1914 32
250 32
i 32
一届 32
一致性 32
上周 32
不可逆转 32
不知 32
世人 32
主体 32
亚美尼亚 32
亦 32
人人 32
付出代价 32
倾斜 32
傲慢 32
兑 32
公共品 32
刑事 32
划定 32
协商 32
原有 32
可见 32
可观 32
合成 32
同行 32
土@@ 32
场合 32
垮台 32
培育 32
塔@@ 32
增大 32
复@@ 32
多于 32
大相径庭 32
大面积 32
失@@ 32
女童 32
安南 32
定位 32
实实在在 32
对称 32
尊敬 32
少数民族 32
岛屿 32
年份 32
年里 32
底层 32
开创 32
微妙 32
总和 32
扮演着 32
抗@@ 32
拿到 32
持有人 32
改革方案 32
施@@ 32
明 32
普遍认为 32
最强 32
本能 32
杀 32
杀伤性 32
核试验 32
格 32
比喻 32
波多黎各 32
津巴布韦 32
测算 32
清单 32
物理学 32
特色 32
现实主义 32
瓦解 32
略微 32
益处 32
第二轮 32
终极 32
绕过 32
编辑 32
羞辱 32
翻番 32
肆虐 32
臭名昭著 32
被捕 32
记得 32
身边 32
过高 32
违背 32
遭 32
重演 32
音乐 32
骄傲 32
鲁莽 32
齐 32
1981 31
37 31
6@@ 31
C 31
D@@ 31
P@@ 31
一个月 31
一战 31
世 31
中国共产党 31
代理人 31
会计 31
做些 31
八年 31
公共财政 31
共有 31
出去 31
出发 31
到@@ 31
加息 31
劳动密集型 31
匮乏 31
印度尼西亚 31
印度政府 31
各种各样 31
品牌 31
国内外 31
城 31
塔 31
增值税 31
多边贸易 31
大小 31
子@@ 31
定居 31
实@@ 31
将近 31
小儿麻痹症 31
居高不下 31
巴勒斯坦国 31
布 31
平@@ 31
广场 31
归功于 31
德里 31
心目 31
恩 31
戈尔巴乔夫 31
托@@ 31
执行官 31
拙劣 31
挤兑 31
挤出 31
摩尔多瓦 31
摩擦 31
收@@ 31
政体 31
政治体制 31
救 31
数额 31
新一代 31
新任 31
方@@ 31
无从 31
无比 31
有利可图 31
有毒 31
权@@ 31
核@@ 31
核电 31
根基 31
检验 31
欧亚 31
欺诈 31
款 31
步 31
民兵 31
法定 31
浓缩 31
浮现 31
淘汰 31
清理 31
激怒 31
激情 31
瓦@@ 31
疑虑 31
相符 31
眼光 31
硅谷 31
粮食安全 31
纳@@ 31
结局 31
美@@ 31
股 31
脚 31
致死 31
良机 31
节奏 31
若干 31
解散 31
读者 31
辛格 31
这条 31
迫在眉睫 31
退 31
重创 31
金氏 31
针对性 31
销毁 31
长@@ 31
长期存在 31
非理性 31
革命性 31
风能 31
高水平 31
0.5 30
1967 30
42 30
B 30
CEO 30
D 30
IT 30
n@@ 30
o 30
s@@ 30
一如 30
一是 30
一百万 30
一笔 30
上来 30
不受 30
世界观 30
东道国 30
为期 30
今年夏天 30
他@@ 30
低水平 30
修@@ 30
先前 30
克里 30
其后 30
兼并 30
准 30
出路 30
创立 30
别国 30
加泰罗尼亚 30
北欧 30
升温 30
原始 30
反常 30
反馈 30
受伤 30
可疑 30
可行性 30
可言 30
台 30
后代 30
吞噬 30
外交关系 30
局限性 30
届 30
市长 30
幕后 30
年均 30
库存 30
微弱 30
情 30
惊奇 30
意大利人 30
戏剧性 30
成效 30
挑选 30
挫败 30
换 30
接纳 30
推动力 30
搜索 30
搞 30
收获 30
放眼 30
救济 30
教会 30
数十亿 30
整@@ 30
日本银行 30
日益增长 30
昔日 30
星期 30
林@@ 30
样子 30
核武库 30
检察官 30
次要 30
毁掉 30
民主党人 30
民用 30
治愈 30
灾害 30
照 30
燃煤 30
版本 30
牛 30
生@@ 30
由@@ 30
男孩 30
硬着陆 30
离岸 30
篮子 30
结婚 30
绝 30
联网 30
聚焦 30
肺结核 30
胜任 30
能源安全 30
般的 30
营商 30
萨科齐 30
行径 30
谋求 30
货物 30
贸易逆差 30
身 30
转基因 30
迁移 30
这部 30
金融资产 30
门槛 30
阿 30
阿里 30
靠近 30
预防性 30
2019 29
31 29
O@@ 29
W@@ 29
amp 29
y@@ 29
上任 29
下行 29
不去 29
不合理 29
不堪 29
东方 29
两岸 29
主席国 29
之处 29
之路 29
书籍 29
五分之一 29
代@@ 29
伊朗人 29
会为 29
何处 29
侮辱 29
俄国人 29
保险公司 29
假@@ 29
减@@ 29
几百年 29
分崩离析 29
刚 29
刚刚开始 29
剂 29
北美自由贸易协定 29
厂 29
双@@ 29
召集 29
号召 29
合@@ 29
听取 29
四十年 29
回来 29
团结起来 29
国有化 29
国际@@ 29
在历史上 29
坏事 29
基点 29
堕落 29
外来 29
外流 29
大体上 29
夸张 29
奥斯陆 29
女儿 29
安全部队 29
宪法法院 29
山@@ 29
巧妙 29
巴格达 29
市场准入 29
带给 29
幻觉 29
开战 29
异@@ 29
引@@ 29
急于 29
想到 29
愉快 29
感兴趣 29
手里 29
投票权 29
持续性 29
掠夺 29
携手 29
收取 29
时所 29
智力 29
枯竭 29
核国家 29
核子 29
检测 29
欧美 29
正当 29
武装冲突 29
残忍 29
比起 29
河 29
沿着 29
流@@ 29
潜能 29
灭绝 29
现成 29
登上 29
白俄罗斯 29
相@@ 29
穿越 29
糖 29
纲领 29
细菌 29
网上 29
罗伯特 29
老板 29
考量 29
耻辱 29
自然灾害 29
表态 29
见证 29
解决之道 29
触及 29
认真对待 29
讲述 29
财阀 29
贫困线 29
贿赂 29
连@@ 29
通用 29
避难 29
配合 29
阻挡 29
高兴 29
高峰 29
120 28
38 28
63 28
h 28
y 28
七@@ 28
不及 28
不善 28
不如说是 28
两者之间 28
九个 28
买卖 28
亚马逊 28
人性 28
人能 28
以色列政府 28
侵害 28
保加利亚 28
保卫 28
保罗 28
光靠 28
全力 28
八十年代 28
公民自由 28
公认 28
冰川 28
准备金 28
凌驾于 28
剧变 28
助推 28
勉强 28
北极 28
十多年 28
压倒 28
口@@ 28
史无前例 28
合理性 28
吉@@ 28
同步 28
否决权 28
哈萨克斯坦 28
四 28
场所 28
基准 28
处境 28
外长 28
委员 28
孤立主义 28
审议 28
密集型 28
层 28
岌岌可危 28
市场份额 28
市场化 28
希拉克 28
干@@ 28
当成 28
微软 28
怎么办 28
想@@ 28
愈演愈烈 28
把握 28
抗药性 28
抵挡 28
招@@ 28
捕获 28
提供援助 28
提起 28
教@@ 28
整整 28
断@@ 28
新闻媒体 28
新高 28
无不 28
无非 28
日内瓦 28
时至今日 28
暴露出 28
替换 28
未经 28
权势 28
桑德斯 28
植根于 28
正统 28
死去 28
民意 28
河流 28
沿海 28
波兰人 28
洞见 28
流血 28
温家宝 28
版 28
特性 28
理智 28
界定 28
监测 28
相去甚远 28
相近 28
看护 28
矛头 28
第一次世界大战 28
筛查 28
筹码 28
管 28
级别 28
统计数据 28
罗@@ 28
罪魁祸首 28
美日 28
群 28
自私 28
节省 28
获利 28
获得成功 28
蒙受 28
论证 28
赤裸裸 28
赶上 28
起@@ 28
这使 28
这家 28
远高于 28
退化 28
透露 28
通货紧缩 28
金融风险 28
随处可见 28
集体行动 28
非国家 28
顺利 28
高利率 28
鸿沟 28
麦凯恩 28
黑@@ 28
1929 27
20@@ 27
36 27
59 27
95 27
E 27
MDG 27
U@@ 27
an@@ 27
o@@ 27
一回 27
一本 27
上学 27
上市 27
不惜 27
不满情绪 27
与否 27
丧生 27
中东欧 27
中立 27
主 27
举@@ 27
买单 27
买家 27
事后 27
亚太地区 27
交易所 27
亲@@ 27
仅限于 27
从来不 27
代 27
令人鼓舞 27
优质 27
会以 27
例 27
信@@ 27
倒塌 27
假装 27
停火 27
健全 27
充其量 27
克什米尔 27
共 27
关 27
关键在于 27
典范 27
军事冲突 27
冷漠 27
冷静 27
列 27
列强 27
初始 27
勘探 27
包 27
北@@ 27
压 27
原理 27
受困 27
右派 27
各不相同 27
合格 27
吸纳 27
唯有 27
商店 27
回@@ 27
因@@ 27
块 27
坚守 27
坚定不移 27
复杂化 27
外汇市场 27
多人 27
大为 27
密@@ 27
尼加拉瓜 27
工 27
巴塞尔 27
席卷 27
常 27
平常 27
并不需要 27
开明 27
快@@ 27
总而言之 27
总裁 27
或多或少 27
战役 27
截至 27
戴高乐 27
所得 27
投票率 27
抗拒 27
拉动 27
数千 27
新闻自由 27
普 27
暂时性 27
替罪羊 27
欧尔 27
正义党 27
汽油 27
涌现 27
渔业 27
游戏规则 27
激励机制 27
灵魂 27
热衷于 27
物流 27
独裁统治 27
现场 27
用@@ 27
用作 27
男人 27
百@@ 27
百万 27
目的地 27
相互依赖 27
确切 27
社会党 27
社会民主党 27
神圣 27
福特 27
种族隔离 27
科@@ 27
空@@ 27
第一种 27
第二次世界大战 27
精心 27
系 27
累计 27
约旦河西岸 27
约翰逊 27
经费 27
肥胖 27
胡锦涛 27
能@@ 27
良多 27
色 27
艾哈迈迪 27
英格兰 27
萨科奇 27
虚拟 27
表演 27
西岸 27
要点 27
观众 27
说出 27
调和 27
赋权 27
跟踪 27
进口关税 27
降至 27
马德里 27
高价 27
鼓吹者 27
1971 26
1982 26
1986 26
7@@ 26
M 26
S 26
al@@ 26
c@@ 26
一致意见 26
三国 26
下属 26
不出所料 26
不容 26
与日俱增 26
世卫 26
严重威胁 26
临时性 26
主@@ 26
乌拉圭 26
乐于 26
亏损 26
亿@@ 26
份 26
体内 26
余额 26
侨汇 26
侯赛因 26
倡导者 26
克鲁格曼 26
全方位 26
六个月 26
兵@@ 26
农作物 26
出口商 26
分割 26
分支 26
分类 26
利基 26
利差 26
加重 26
包@@ 26
发言权 26
各项 26
同一个 26
后期 26
向来 26
启发 26
和平谈判 26
哲学家 26
器官 26
国度 26
土耳其人 26
在世界上 26
墙 26
大部 26
大麻 26
太大而 26
夫人 26
好得多 26
字 26
客 26
富豪 26
对华 26
师 26
常@@ 26
年时 26
并不比 26
废墟 26
开罗 26
开辟 26
张 26
怀孕 26
悲惨 26
执政党 26
拉登 26
拉美国家 26
指@@ 26
挫折 26
振兴 26
排 26
揭露 26
摆在 26
改革者 26
新药 26
无限 26
日本首相 26
早@@ 26
明星 26
是否是 26
普世 26
景象 26
智能手机 26
曼德拉 26
有机 26
权益 26
架 26
核扩散 26
根 26
梅@@ 26
此时 26
步入 26
气@@ 26
泛滥 26
海域 26
澄清 26
热烈 26
片 26
独自 26
球员 26
理所当然 26
电动汽车 26
疏远 26
相互依存 26
相似之处 26
禁运 26
税收制度 26
穷 26
空白 26
算是 26
精神病 26
网络安全 26
罪犯 26
美国财政部 26
美洲 26
耐药 26
耶伦 26
职业生涯 26
脱节 26
自发 26
船只 26
范例 26
蓝图 26
虚弱 26
见到 26
视作 26
许诺 26
询问 26
象征性 26
贾 26
资源配置 26
赞助 26
车臣 26
转@@ 26
达@@ 26
达尔富尔 26
过早 26
这件 26
进口国 26
送到 26
逃税 26
道歉 26
采取任何 26
金属 26
陷入困境 26
隐瞒 26
难民营 26
集会 26
预见到 26
风险管理 26
饮用水 26
马克思 26
马杜罗 26
骗局 26
高位 26
高速公路 26
黑客 26
1973 25
33 25
900 25
AI 25
d@@ 25
上风 25
不起 25
与其说是 25
丝绸之路 25
两名 25
个别 25
中位 25
中叶 25
中国@@ 25
中所 25
丰厚 25
临床 25
为主 25
主管 25
习惯于 25
人体 25
人民党 25
他信 25
优点 25
伤亡 25
假新闻 25
六个 25
兰 25
切@@ 25
列@@ 25
创纪录 25
初@@ 25
初创 25
前瞻性 25
勒庞 25
千万 25
华@@ 25
单靠 25
博@@ 25
卡尔 25
印 25
印@@ 25
印度教 25
厄瓜多尔 25
受访者 25
古 25
同胞 25
品质 25
哥斯达黎加 25
善@@ 25
回事 25
回国 25
回顾 25
国际事务 25
在我看来 25
地区性 25
坦克 25
塞@@ 25
备受 25
大大降低 25
失踪 25
头脑 25
奇 25
好比 25
存活 25
学到 25
学派 25
官僚机构 25
定@@ 25
客观 25
富@@ 25
封锁 25
尽力 25
巨型 25
市政 25
希 25
带到 25
帮 25
底 25
异见 25
引向 25
弗拉基米尔 25
归 25
得主 25
忠实 25
思想家 25
怨恨 25
总会 25
总收入 25
悖论 25
情@@ 25
惊@@ 25
慢慢 25
我国 25
或@@ 25
截止 25
按@@ 25
推@@ 25
擅长 25
政局 25
数亿 25
文在寅 25
新政 25
新近 25
无助于 25
无可否认 25
无情 25
日常生活 25
星球 25
有所增加 25
本书 25
机@@ 25
构想 25
核查 25
欠 25
欠缺 25
欧@@ 25
欧洲委员会 25
没错 25
波 25
波@@ 25
渺茫 25
演变成 25
火箭 25
炮制 25
独有 25
猖獗 25
环境保护 25
略有 25
盛行 25
盯住 25
直至 25
砍伐 25
社团 25
私下 25
科学研究 25
税基 25
空中 25
第一@@ 25
第一位 25
第五 25
管理层 25
索 25
罚款 25
罪名 25
署 25
能源需求 25
药方 25
萨 25
行@@ 25
行动计划 25
觉醒 25
论据 25
评判 25
请求 25
调节 25
货币基金 25
赫 25
赫鲁晓夫 25
起初 25
跻身 25
轻而易举 25
输出 25
进行谈判 25
远程 25
那次 25
重回 25
间谍 25
阐述 25
随意 25
难@@ 25
青少年 25
韩 25
预料到 25
首脑会议 25
验证 25
高油价 25
鱼类 25
鹰派 25
默许 25
39 24
5000 24
66 24
NCD 24
er 24
一次性 24
万个 24
上去 24
下令 24
不同于 24
不快 24
不良 24
不论是 24
不难 24
业已 24
中介 24
中起 24
之手 24
乌托邦 24
乐@@ 24
产@@ 24
代际 24
以内 24
仪式 24
仲裁 24
低工资 24
低廉 24
余地 24
借鉴 24
偏执 24
偶尔 24
偶然 24
克格勃 24
党@@ 24
公里 24
兰@@ 24
关切 24
其二 24
冒犯 24
几位 24
刚果 24
初选 24
利比里亚 24
利益冲突 24
到期 24
制@@ 24
前夕 24
剥削 24
勒 24
单边 24
卖@@ 24
卢@@ 24
原则上 24
参考 24
发电厂 24
取@@ 24
另有 24
可比 24
吉 24
向@@ 24
和谈 24
四分五裂 24
困惑 24
固定汇率 24
国企 24
国界 24
国际金融 24
图 24
坐 24
坚实 24
坦桑尼亚 24
基因组 24
处决 24
多万 24
大不相同 24
大米 24
夫妇 24
失业者 24
夺回 24
孟买 24
学家 24
守@@ 24
实现目标 24
家庭收入 24
居@@ 24
屈从 24
峰值 24
崇拜 24
巨量 24
已知 24
帕@@ 24
度过 24
延迟 24
建成 24
弹劾 24
徒 24
徘徊 24
必定 24
总人口 24
戈登 24
手术 24
承担责任 24
抑郁症 24
抗击 24
抛 24
招聘 24
排@@ 24
掣肘 24
推理 24
摆 24
摇摇欲坠 24
改革派 24
教堂 24
教条 24
断 24
施罗德 24
无人 24
无序 24
无法控制 24
无济于事 24
时才 24
明智地 24
有损于 24
服用 24
朴槿惠 24
杀手 24
权重 24
枪 24
标题 24
核反应堆 24
此事 24
毕业 24
求助 24
海岸 24
消极影响 24
游客 24
特质 24
独裁政权 24
男女 24
登 24
直升机 24
看着 24
知名 24
秋天 24
穆勒 24
空袭 24
第三方 24
紧迫性 24
纳税 24
终身 24
维@@ 24
维和 24
缺点 24
美欧 24
节 24
莫@@ 24
街道 24
被控 24
装备 24
裨益 24
该@@ 24
诺 24
读 24
资本外逃 24
赢 24
超低 24
身后 24
辅之以 24
辩解 24
进口品 24
迷失 24
适应性 24
遗忘 24
避开 24
避税 24
重新考虑 24
重现 24
阿尔巴尼亚 24
降临 24
降低利率 24
隐性 24
顶 24
预料 24
领地 24
饮食 24
首位 24
首尔 24
鲜明 24
黑 24
齐心协力 24
1950 23
62 23
F 23
WTO 23
an 23
ar@@ 23
一类 23
一组 23
一股 23
业@@ 23
东正教 23
东非 23
两位数 23
两项 23
中美洲 23
为时过早 23
为止 23
之多 23
买@@ 23
事宜 23
二十@@ 23
互联 23
人口数量 23
仅为 23
任职 23
伎俩 23
优@@ 23
何@@ 23
信徒 23
信用卡 23
值得注意 23
倾听 23
其一 23
兹 23
养活 23
军事政变 23
减贫 23
分娩 23
刻意 23
劳动生产率 23
卫生工作者 23
危险性 23
原料 23
双边贸易 23
反感 23
反犹主义 23
发酵 23
取缔 23
叙利亚人 23
司机 23
同理 23
后面 23
听说 23
善意 23
四大 23
国家@@ 23
图@@ 23
圈 23
地被 23
城镇 23
域 23
声@@ 23
多达 23
大获全胜 23
夫@@ 23
契合 23
奖金 23
好转 23
威@@ 23
安全部门 23
完 23
官僚主义 23
实时 23
审核 23
宪政 23
家中 23
小企业 23
小农 23
局部 23
山 23
布雷 23
库 23
弊端 23
弗兰克 23
弱化 23
征服 23
快乐 23
怀疑派 23
总能 23
您 23
惯例 23
成人 23
把持 23
抵押品 23
拉低 23
捐款 23
换言之 23
接@@ 23
接入 23
撤退 23
改良 23
放 23
放心 23
政治经济 23
政界 23
教义 23
数万亿美元 23
无处不在 23
显露 23
期@@ 23
木@@ 23
极易 23
柏林墙 23
某人 23
某种意义 23
核裁军 23
欲 23
正规 23
此人 23
死灰复燃 23
殆尽 23
段时间 23
毋庸置疑 23
毫不犹豫 23
民主政体 23
没人 23
油气 23
法西斯主义 23
波动性 23
流通 23
海 23
消退 23
深 23
混淆 23
演说 23
点燃 23
爱国主义 23
牵涉到 23
球 23
瓦 23
生产国 23
生意 23
生殖 23
生长 23
男子 23
界线 23
病@@ 23
碎片 23
碰到 23
神@@ 23
移动电话 23
税制 23
突破性 23
立@@ 23
算 23
纪念日 23
纯属 23
纽约时报 23
线索 23
组 23
胚胎 23
脚步 23
自有 23
自称 23
航空 23
莫拉莱 23
萨默斯 23
薪水 23
蚊帐 23
装置 23
西奈半岛 23
观看 23
角落 23
议案 23
诱人 23
说辞 23
调动 23
谈判者 23
谈到 23
谈话 23
谬误 23
貌似 23
走势 23
越@@ 23
践踏 23
轮值 23
轴心 23
轻微 23
过大 23
远见 23
选手 23
递交 23
部族 23
里@@ 23
金正日 23
铀 23
银行贷款 23
长久以来 23
阿卜杜拉 23
随心所欲 23
雷 23
雷@@ 23
霸主 23
非洲地区 23
革新 23
顾及 23
顾客 23
马车 23
高中 23
黯淡 23
鼓舞 23
1947 22
1972 22
3.5 22
48 22
55 22
67 22
J@@ 22
or@@ 22
一向 22
一生 22
七 22
万名 22
三 22
三次 22
上将 22
下面 22
不感兴趣 22
与会者 22
世界市场 22
世纪末 22
东扩 22
两国之间 22
两国政府 22
两家 22
两难 22
严苛 22
严重后果 22
个性 22
中国崛起 22
临床试验 22
乐观主义 22
乘数 22
亚洲地区 22
亿吨 22
仅次于 22
低效率 22
债 22
先发制人 22
全国性 22
八个 22
公共利益 22
共同点 22
关键点 22
具 22
军政府 22
农@@ 22
农地 22
出身 22
分为 22
力气 22
功@@ 22
加利福尼亚 22
势@@ 22
北欧国家 22
区块 22
南中国海 22
卸任 22
压抑 22
发动战争 22
发现自己 22
取而代之 22
受众 22
变动 22
只@@ 22
各自为政 22
名列 22
嘴 22
回升 22
团结一致 22
国务院 22
国际足联 22
土 22
在此之前 22
坐@@ 22
坚@@ 22
塑料 22
塞拉利昂 22
增量 22
声望 22
外包 22
多德 22
大片 22
天堂 22
天才 22
夺取 22
宁愿 22
安慰 22
宗教信仰 22
定律 22
宣誓 22
室 22
寄希望于 22
将要 22
小于 22
小心翼翼 22
小说 22
层次 22
展望 22
属 22
州长 22
差不多 22
巴以 22
并@@ 22
延缓 22
弗里德曼 22
强人 22
归结为 22
当权者 22
微观 22
德黑兰 22
忘 22
急@@ 22
急剧下降 22
恩@@ 22
息 22
悬而未决 22
愈加 22
意料 22
感谢 22
慢 22
批判 22
技术@@ 22
技术转让 22
抗议者 22
报@@ 22
拉大 22
招致 22
拥挤 22
捐助 22
援引 22
政@@ 22
政治危机 22
教徒 22
敢于 22
新西兰 22
旗帜 22
晚 22
暗中 22
替 22
最优 22
月底 22
李克强 22
极具 22
极少数 22
枢纽 22
枪支 22
欧洲中央银行 22
正确方向 22
残暴 22
每桶 22
气氛 22
求 22
沙文主义 22
法制 22
渗透 22
牺牲品 22
现今 22
生育 22
白@@ 22
看出 22
祖先 22
神秘 22
禁忌 22
福音 22
笔者 22
紧急状态 22
统计数字 22
罗纳德 22
美国市场 22
美德 22
老布什 22
老牌 22
联手 22
股份 22
自上而下 22
自相矛盾 22
色情 22
萨@@ 22
血 22
被动 22
规律 22
许下 22
词汇 22
说话 22
象 22
贝 22
走私 22
起着 22
跌 22
跟进 22
输送 22
达尔文 22
迅猛 22
过渡期 22
近一半 22
返回 22
这句 22
这样一来 22
远非 22
迟早 22
追加 22
那场 22
重中之重 22
重返 22
野生动物 22
闹剧 22
闻名 22
降息 22
零利率 22
预先 22
领取 22
驻军 22
驾驭 22
驾驶 22
骚扰 22
高官 22
高盛 22
鸦片 22
鼓动 22
0.1 21
1.2 21
130 21
47 21
54 21
56 21
64 21
76 21
GDP@@ 21
HIV 21
P 21
TTIP 21
Twitter 21
V@@ 21
b@@ 21
en@@ 21
f@@ 21
一口气 21
一夜之间 21
一所 21
上下 21
不切实际 21
不啻 21
不惜一切 21
不景气 21
不管怎样 21
专业化 21
专业知识 21
世界舞台 21
业绩 21
中美关系 21
中部 21
主角 21
举步维艰 21
乃是 21
之初 21
乌@@ 21
乌克兰人 21
也好 21
书@@ 21
乳腺癌 21
争@@ 21
交易成本 21
亲信 21
仍能 21
伊始 21
伊朗政府 21
会见 21
伯@@ 21
伸出 21
作@@ 21
保持沉默 21
倘若 21
借入 21
停@@ 21
偿还债务 21
免遭 21
免除 21
入境 21
入狱 21
全职 21
公务员 21
内政 21
几项 21
出任 21
别处 21
制度化 21
剂量 21
助 21
助手 21
北 21
医药 21
升 21
卡斯特罗 21
历史记录 21
原子弹 21
参@@ 21
反美 21
发育 21
变量 21
叫 21
叫停 21
可悲 21
可笑 21
合作社 21
合力 21
合并 21
同情心 21
同比 21
吹嘘 21
命 21
哈佛大学 21
回购 21
基本权利 21
基辛格 21
塞族 21
增值 21
壮大 21
外交部长 21
外衣 21
多尔 21
够 21
大体 21
大声 21
失调 21
奇@@ 21
奋斗 21
奖 21
委托 21
子公司 21
孟加拉 21
宾 21
小得多 21
小泉 21
就任 21
已久 21
巴解组织 21
市民 21
布勒 21
希@@ 21
帕 21
常识 21
广播 21
库@@ 21
建@@ 21
异 21
强奸 21
忧心忡忡 21
恐怖活动 21
恶意 21
患 21
悲哀 21
情报机构 21
惩罚性 21
慢性 21
成年 21
打消 21
打败 21
批评家 21
投行 21
拉脱维亚 21
排外 21
提倡 21
提取 21
携带 21
撤回 21
攫取 21
收拾 21
改@@ 21
放宽 21
敌 21
救@@ 21
数据库 21
新鲜 21
族群 21
无与伦比 21
无可 21
无可避免 21
无所作为 21
时会 21
普遍存在 21
暴乱 21
暴动 21
暴政 21
最受 21
最小 21
最能 21
有过 21
木材 21
松 21
标志性 21
树 21
树木 21
横@@ 21
欧派 21
每当 21
民主改革 21
民主选举 21
沉迷于 21
油田 21
沿岸 21
法令 21
法西斯 21
浓缩铀 21
消费品 21
深渊 21
添加 21
源头 21
演进 21
激进分子 21
热带 21
然 21
爱沙尼亚 21
牢记 21
物品 21
甲烷 21
电厂 21
登记 21
皮@@ 21
省份 21
磋商 21
神 21
私人企业 21
种群 21
立 21
类别 21
粗暴 21
精明 21
素质 21
紧 21
纸币 21
细分 21
结构调整 21
绩效 21
缩水 21
罹患 21
翻一番 21
老年 21
耗资 21
联合行动 21
肆无忌惮 21
能源供应 21
自力更生 21
自卫 21
节目 21
若非 21
营销 21
萨达特 21
蒙蒂 21
虚伪 21
血@@ 21
袖手旁观 21
被@@ 21
覆辙 21
视 21
认清 21
讨好 21
证 21
课堂 21
课税 21
购物 21
赔偿 21
赞美 21
赞赏 21
超额 21
越大 21
越长 21
轻@@ 21
较少 21
过往 21
远@@ 21
迪 21
迷惑 21
退回 21
通 21
通道 21
道德风险 21
重新分配 21
重蹈 21
野生 21
错过 21
闲置 21
防范 21
陈述 21
限定 21
随机 21
雪上加霜 21
霍乱 21
韧性 21
频率 21
驻扎 21
高回报 21
默认 21
1.6 20
110 20
1962 20
1968 20
2.7 20
350 20
44 20
46 20
9@@ 20
ISIS 20
at@@ 20
g@@ 20
一大半 20
一席之地 20
下注 20
不可@@ 20
不道德 20
世界大战 20
东海 20
丢掉 20
之力 20
之大 20
之比 20
云@@ 20
五大 20
五岁 20
产业政策 20
人力资源 20
人来 20
什 20
仇视 20
令人振奋 20
仿效 20
伯格 20
位居 20
供@@ 20
促 20
保持稳定 20
停顿 20
光是在 20
党员 20
入学率 20
八国集团 20
公平竞争 20
公民权 20
共同努力 20
共鸣 20
关乎 20
兴奋 20
写入 20
军人 20
凝聚 20
出资者 20
划分 20
列入 20
列出 20
到处 20
加紧 20
北爱尔兰 20
十个 20
十倍 20
单 20
单边主义 20
占有 20
卢拉 20
卫队 20
压缩 20
原 20
原先 20
双 20
反犹 20
取 20
受制于 20
变异 20
可怜 20
同僚 20
同期 20
名言 20
名誉 20
向上 20
吨 20
周@@ 20
哈佛 20
哈维尔 20
四分之三 20
国会议员 20
国际舞台 20
坐在 20
基 20
塞内加尔 20
处置 20
大谈 20
太高 20
头寸 20
奢侈 20
奥斯曼帝国 20
奴役 20
好莱坞 20
威尔逊 20
嫌 20
实用 20
宣战 20
寨 20
将@@ 20
少@@ 20
尽@@ 20
届时 20
工@@ 20
巧合 20
差额 20
带动 20
平 20
年末 20
庄稼 20
强健 20
彰显 20
影片 20
心理学 20
性行为 20
总体经济 20
总的来说 20
悲伤 20
情报局 20
截然 20
扎@@ 20
扣除 20
抑或 20
投机者 20
拉宾 20
指示 20
挺身而出 20
换@@ 20
推断 20
推销 20
收支平衡 20
斯堪的纳维亚 20
新生儿 20
无异于 20
无条件 20
日期 20
日益严重 20
日趋 20
时常 20
最早 20
有鉴于此 20
本国货币 20
杀虫剂 20
权限 20
村 20
束手无策 20
杰@@ 20
构成威胁 20
枚 20
样本 20
殖民主义 20
汇款 20
波及 20
波斯湾 20
流动资金 20
流氓 20
深思熟虑 20
激活 20
火@@ 20
犹豫 20
独@@ 20
玉米 20
现已 20
现时代 20
珍视 20
由来已久 20
电 20
留 20
短期内 20
矿产 20
破坏力 20
碰撞 20
福岛 20
科威特 20
积压 20
积极参与 20
移交 20
稳 20
穿 20
竟然 20
童工 20
第一批 20
第三次 20
管辖 20
粒子 20
经济效益 20
缔造 20
胜 20
自然而然 20
良性 20
艺术家 20
苦苦 20
董事 20
融化 20
裂痕 20
观察员 20
讨厌 20
论者 20
话语权 20
诱使 20
调 20
谈 20
谈判桌 20
负有 20
负责人 20
贬低 20
贴 20
赫@@ 20
越是 20
蹂躏 20
身@@ 20
迎合 20
近于零 20
这样的话 20
这点 20
进口商品 20
迪@@ 20
逍遥法外 20
酒精 20
针锋相对 20
阈值 20
阿卜杜勒 20
零售商 20
青睐 20
顺序 20
预警 20
额度 20
食 20
马斯特里赫特 20
马歇尔 20
高尚 20
0.7 19
0@@ 19
19@@ 19
41 19
43 19
57 19
al 19
ar 19
is@@ 19
k@@ 19
l 19
一只 19
一季度 19
一度 19
一番 19
三驾 19
不容忽视 19
不禁 19
不稳定性 19
世俗主义 19
世界级 19
丢失 19
严重破坏 19
中来 19
义@@ 19
之久 19
乱 19
乱象 19
些许 19
人则 19
人口老龄化 19
仅靠 19
从不 19
他会 19
令其 19
伊斯坦布尔 19
伪善 19
似的 19
保密 19
信托 19
信条 19
假 19
偏远 19
偿债 19
充满希望 19
入主 19
公园 19
共@@ 19
共存 19
共担 19
养老 19
再融资 19
凯利 19
列宁 19
创出 19
创始人 19
初步 19
前面 19
剔除 19
力求 19
加工 19
升@@ 19
卓越 19
南北 19
卡特尔 19
厌倦 19
去世 19
双重标准 19
反之 19
另一方 19
合情合理 19
君主 19
启示 19
吸烟 19
呈现出 19
商@@ 19
善于 19
嘲笑 19
困 19
国土 19
国籍 19
土耳其政府 19
圣地 19
地为 19
地域 19
坐视 19
增@@ 19
外表 19
大有裨益 19
天生 19
太大 19
威权 19
学位 19
完整性 19
实证 19
家里 19
寄望 19
富兰克林 19
寻常 19
尽量 19
工资水平 19
带领 19
席 19
幼稚 19
店 19
废止 19
开放市场 19
急迫 19
总之 19
总有一天 19
慢性病 19
憎恨 19
戴 19
所知 19
手下 19
扎 19
扫清 19
扶贫 19
承@@ 19
担当 19
拖 19
拥抱 19
持续时间 19
捐助国 19
摩@@ 19
攻势 19
教学 19
数目 19
文学 19
斯密 19
新来者 19
易@@ 19
晚些时候 19
智库 19
暗@@ 19
更广 19
更换 19
更替 19
更迭 19
有所提高 19
朝@@ 19
术语 19
李@@ 19
杜@@ 19
杰出 19
极@@ 19
核设施 19
格格不入 19
橙色 19
欧佩克 19
毛 19
水域 19
水源 19
沙@@ 19
没完没了 19
没法 19
泄露 19
浮动 19
消费量 19
淡化 19
滋生 19
滑向 19
然@@ 19
牌 19
猛烈 19
环 19
现存 19
瓦哈比 19
用水 19
留欧 19
略 19
直截了当 19
相关性 19
看见 19
真实世界 19
礼物 19
私人资本 19
科夫斯基 19
科研 19
空 19
窃取 19
第二天 19
筹资 19
箭 19
篇文章 19
精神疾病 19
红@@ 19
红线 19
经济模型 19
缺 19
网络空间 19
罪恶 19
美丽 19
美国银行 19
老人 19
而来 19
肆意 19
脱颖而出 19
自由贸易区 19
良性循环 19
花@@ 19
萨尔瓦多 19
虔诚 19
蚊子 19
螺旋 19
行动者 19
衍生 19
见解 19
警示 19
计 19
订立 19
诉诸 19
误导性 19
诽谤 19
谋生 19
财政收入 19
贩毒 19
超@@ 19
超国家 19
输 19
输入 19
运气 19
运送 19
远大于 19
连贯 19
迟迟 19
通知 19
酝酿 19
采伐 19
金融时报 19
铁@@ 19
铺平 19
附带 19
集权 19
顶级 19
预想 19
预防措施 19
马克里 19
驳斥 19
魔鬼 19
鲍威尔 19
麦肯锡 19
0 18
1933 18
1974 18
3.2 18
53 18
7.5 18
: 18
AfD 18
IPCC 18
JCPOA 18
NPT 18
T 18
en 18
on@@ 18
一整套 18
一线 18
丈夫 18
下半年 18
不适 18
东北亚 18
两天 18
严酷 18
中将 18
之苦 18
之行 18
乐 18
争辩 18
互不 18
亨利 18
人造 18
仍会 18
付款 18
以使 18
以免 18
任@@ 18
众@@ 18
优化 18
但愿 18
低位 18
作业 18
侵入 18
俄@@ 18
信任度 18
倒@@ 18
催化剂 18
儿 18
克罗地亚 18
免@@ 18
全都 18
关门 18
兴建 18
军事手段 18
凯@@ 18
出租车 18
出访 18
刘晓波 18
别 18
前辈 18
割裂 18
助益 18
劳@@ 18
劳动法 18
十亿 18
十字路口 18
单枪匹马 18
卖出 18
原谅 18
双管齐下 18
发言人 18
取悦 18
受到限制 18
叫做 18
各式各样 18
合 18
含量 18
和平共处 18
哪@@ 18
嗤之以鼻 18
囤积 18
国防部 18
国际原子能机构 18
国际收支 18
在技术上 18
埃克森 18
基金组织 18
塞夫 18
墨西哥湾 18
多名 18
多家 18
大战 18
大有 18
太空 18
太阳 18
头条 18
女人 18
媒体报道 18
学历 18
学界 18
安装 18
宗 18
实 18
宽带 18
对应 18
对照 18
封@@ 18
就@@ 18
就职 18
就让 18
尼古拉斯 18
居 18
崭新 18
巴尔干地区 18
巴林 18
市盈率 18
干脆 18
平庸 18
幸存者 18
广@@ 18
广受 18
应急 18
度假 18
开发商 18
引进 18
弱小 18
强行 18
彼此之间 18
很难说 18
忠于 18
怀疑论者 18
思@@ 18
恶性 18
感情 18
戈尔 18
战火 18
战略目标 18
房 18
所属 18
手握 18
才华 18
打着 18
扶持 18
技术性 18
投资率 18
折@@ 18
抬高 18
抹黑 18
拉加 18
拘留 18
拼命 18
拿不出 18
指南 18
挽回 18
捕鱼 18
排挤 18
接替 18
推测 18
推论 18
撒谎 18
改变现状 18
放到 18
政见 18
斡旋 18
无家可归 18
无核化 18
既定 18
日后 18
易 18
普尔 18
暴涨 18
更是如此 18
杀人 18
极低 18
构架 18
果实 18
柴油 18
核威胁 18
次@@ 18
欣赏 18
每位 18
每月 18
比作 18
民主人士 18
水电 18
永恒 18
求@@ 18
沙 18
派别 18
流亡 18
流感 18
流量 18
浮动汇率 18
清@@ 18
潘基文 18
点@@ 18
热@@ 18
热门 18
煤 18
熟练 18
犹太教 18
玩 18
环节 18
现 18
球迷 18
球队 18
理想主义 18
理论家 18
相邻 18
看不见 18
眼 18
眼看 18
破@@ 18
破产法 18
确定性 18
私营企业 18
科学界 18
移植 18
空洞 18
第四个 18
系列 18
纾 18
线路 18
经济收益 18
维也纳 18
维和部队 18
维系 18
网络攻击 18
罢工 18
联邦调查局 18
肮脏 18
背上 18
胜过 18
自主权 18
自满 18
致@@ 18
致富 18
芝加哥 18
菌 18
言@@ 18
诱惑力 18
财长 18
质 18
贩卖 18
赴 18
越来越少 18
躲避 18
较之 18
较弱 18
辅助 18
迁往 18
近邻 18
迟早会 18
迪拜 18
适度 18
逃脱 18
通向 18
酒店 18
重心 18
防@@ 18
阳光 18
降级 18
集 18
非凡 18
面貌 18
顿 18
颁发 18
领衔 18
风 18
食品安全 18
驱动力 18
麦加 18
1.3 17
1.7 17
1.8 17
180 17
2.3 17
3000 17
32 17
3D 17
99 17
I 17
am@@ 17
es 17
ia 17
k 17
一同 17
一层 17
一幅 17
一致同意 17
一连串 17
七个 17
三者 17
上诉 17
下调 17
不佳 17
不可思议 17
不合时宜 17
不堪重负 17
不遗余力 17
东北部 17
两国关系 17
两场 17
中世纪 17
中旬 17
乌 17
乍一看 17
了不起 17
五 17
五十年 17
交 17
亲眼目睹 17
亲自 17
人工 17
仇外 17
付费 17
代表团 17
代表性 17
令@@ 17
令人遗憾 17
伊斯兰共和国 17
伤 17
伦@@ 17
伦齐 17
低点 17
使用者 17
供应量 17
便@@ 17
俘虏 17
保持警惕 17
假以时日 17
偏@@ 17
做过 17
兑换 17
全人类 17
公信力 17
公斤 17
公职 17
共和 17
写照 17
冠军 17
决@@ 17
减支 17
几率 17
几种 17
几近 17
出国 17
分开 17
分成 17
分权 17
分钟 17
分销 17
切尼 17
创意 17
到位 17
助力 17
势力范围 17
区间 17
医 17
十国集团 17
十足 17
单个 17
南欧国家 17
南美 17
占多数 17
即可 17
参选 17
友 17
发掘 17
取胜 17
受灾 17
受限制 17
另一边 17
同道 17
名人 17
名叫 17
后尘 17
呆 17
咖啡 17
哈耶克 17
商业活动 17
噩梦 17
四倍 17
困局 17
国际主义 17
圣经 17
在实践中 17
在意 17
地向 17
坐等 17
城@@ 17
塞 17
士气 17
处@@ 17
大使馆 17
大到 17
大厦 17
大增 17
大头 17
威 17
威茨 17
孕育 17
存@@ 17
存储 17
孤@@ 17
官 17
实际工资 17
室内 17
容纳 17
将令 17
尽头 17
工人阶级 17
市场竞争 17
带头 17
干细胞 17
年会 17
年龄段 17
应得 17
引爆 17
彻头彻尾 17
很强 17
微乎其微 17
心脏病 17
必@@ 17
怀旧 17
恶@@ 17
患有 17
惨痛 17
想一想 17
想象力 17
感@@ 17
战时 17
战线 17
房贷 17
托尼 17
批判性 17
承包商 17
抉择 17
投@@ 17
投向 17
抛出 17
抛开 17
拖入 17
拟议 17
指挥官 17
挖掘 17
挤压 17
挥霍 17
描绘成 17
提供者 17
摩根 17
敏感性 17
教 17
数千名 17
文字 17
斯诺 17
无误 17
时间表 17
旷日持久 17
明日黄花 17
普遍性 17
暴@@ 17
更为严重 17
更难 17
曼@@ 17
最低水平 17
有何 17
有所改善 17
有罪 17
服 17
服装 17
望 17
未曾 17
杀@@ 17
杜绝 17
条@@ 17
来得 17
极为重要 17
构造 17
概括 17
步@@ 17
毁 17
每周 17
毒@@ 17
比索 17
民 17
水泥 17
沃尔福 17
治 17
治@@ 17
活着 17
流行病 17
清 17
清真寺 17
游击队 17
满@@ 17
激进主义 17
濒危 17
灌溉 17
煽动者 17
爱@@ 17
牵头 17
犯罪分子 17
犯罪行为 17
玩弄 17
电@@ 17
电子商务 17
疑惑 17
百 17
百分比 17
皮克提 17
监视 17
盟军 17
相一致 17
相容 17
相连 17
研制 17
碳化 17
福克斯 17
私募 17
种姓 17
税务 17
突变 17
窗口 17
竞相 17
章程 17
第三种 17
等级 17
算计 17
篇 17
素 17
索罗斯 17
纵观 17
经济区 17
经济秩序 17
罗斯 17
美俄 17
耶 17
育儿 17
肺炎 17
背负着 17
脂肪 17
脸书 17
自我实现 17
自负 17
航班 17
节能 17
苏 17
荣誉 17
落到 17
蒂 17
藏 17
虚构 17
行为准则 17
表 17
表决 17
装 17
装@@ 17
西尔 17
视频 17
角 17
警报 17
诚信 17
调低 17
谢里夫 17
谱 17
贫富差距 17
资本家 17
资深 17
资金来源 17
赞誉 17
走到 17
足 17
跑 17
达赖喇嘛 17
这能 17
进@@ 17
违法 17
追随 17
退缩 17
逆差 17
透过 17
遍布 17
道义 17
里程碑 17
里面 17
重获 17
金融工具 17
钓鱼岛 17
钞票 17
铲除 17
银行资本 17
错觉 17
门@@ 17
险 17
难以置信 17
顶端 17
预定 17
食用 17
餐馆 17
马其顿 17
骇人听闻 17
0.@@ 16
1500 16
2.@@ 16
6.5 16
8000 16
8@@ 16
ICT 16
L 16
R 16
Uber 16
ab@@ 16
ap@@ 16
as 16
el@@ 16
it@@ 16
re@@ 16
t 16
w@@ 16
¾ 16
一无所知 16
一辆 16
一边倒 16
一门 16
三名 16
上班 16
下个月 16
不住 16
不动产 16
不安全感 16
不屑一顾 16
不懈 16
不难想象 16
不高 16
与其说 16
与此相反 16
专长 16
两百万 16
严重性 16
个人@@ 16
为时尚早 16
义 16
之高 16
乱局 16
事例 16
云 16
五倍 16
亚当 16
交易员 16
人手 16
仍@@ 16
令人@@ 16
以致于 16
任何一方 16
位列 16
体重 16
余@@ 16
佩雷斯 16
使@@ 16
侨民 16
修补 16
假说 16
偷@@ 16
元@@ 16
克隆 16
入学 16
八 16
公立学校 16
关塔那摩 16
兴@@ 16
再次发生 16
军备竞赛 16
决意 16
减记 16
出生率 16
出自 16
刀 16
刊登 16
刑事法庭 16
刚@@ 16
创办 16
制订 16
力图 16
化合物 16
医@@ 16
匿名 16
协同 16
卡尔德隆 16
卡特 16
卫生设施 16
印度人民党 16
印证 16
友谊 16
双赢 16
反叛 16
反响 16
发言 16
取向 16
受害 16
古兰经 16
吃@@ 16
向下 16
吸取教训 16
命名 16
品@@ 16
商业化 16
喜@@ 16
囚禁 16
回收 16
回流 16
围@@ 16
固有 16
国际制裁 16
图景 16
土著 16
地步 16
坦@@ 16
垃圾 16
堂 16
增加收入 16
士 16
外币 16
多得多 16
多极 16
多样 16
大手笔 16
天真 16
天赋 16
太少 16
奴隶 16
如下 16
子弹 16
存 16
安全感 16
家庭成员 16
宽@@ 16
密切合作 16
密切相关 16
少女 16
尼亚 16
崇高 16
已故 16
巴罗 16
市值 16
布托 16
希腊人 16
带@@ 16
平等性 16
年收入 16
年长 16
并非易事 16
广岛 16
底线 16
延@@ 16
建 16
开出 16
开发新 16
强权 16
形 16
得势 16
微@@ 16
怎样才能 16
急速 16
性别歧视 16
恐怖份子 16
恰逢 16
悠久 16
或者说 16
所用 16
所能 16
所起 16
扎尔 16
打下 16
打入 16
打压 16
扪心自问 16
抑郁 16
抗衡 16
拉姆斯菲尔德 16
拍卖 16
拒 16
持@@ 16
挑战性 16
捍卫者 16
捕捉 16
捷克斯洛伐克 16
探@@ 16
掩饰 16
摄氏度 16
撞 16
撼动 16
收容 16
收费 16
效忠 16
教室 16
数以百万计 16
数百@@ 16
整顿 16
断言 16
新生 16
新闻@@ 16
新闻报道 16
新鲜事 16
旗号 16
无望 16
无法解释 16
无限期 16
旧@@ 16
星@@ 16
暗杀 16
曾@@ 16
月初 16
有失 16
有意识 16
有所作为 16
有近 16
服务提供商 16
朝向 16
朝鲜人 16
朝鲜战争 16
权宜之计 16
李光耀 16
来临 16
果真 16
校园 16
核化 16
核威慑 16
欲望 16
残@@ 16
殴打 16
每人 16
毒性 16
池 16
沃 16
沙漠 16
注资 16
浓度 16
消亡 16
深@@ 16
深层 16
深感 16
温床 16
滞后 16
漠不关心 16
灵感 16
烂摊子 16
煽动性 16
牛肉 16
牵涉 16
猫 16
王储 16
生动 16
电池 16
症候 16
直接参与 16
看@@ 16
眼里 16
着重于 16
短时间 16
碳税 16
社会保险 16
秀 16
科菲 16
租金 16
稍 16
笔 16
符号 16
第四次 16
筛选 16
算盘 16
箱 16
类比 16
纠结 16
纯 16
终点 16
经常性 16
经济损失 16
经济援助 16
结成 16
结果表明 16
结算 16
维 16
维度 16
美韩 16
聆听 16
职 16
肉类 16
胜利者 16
脱钩 16
脸 16
英 16
英@@ 16
英法 16
药@@ 16
莫 16
获 16
蒙受损失 16
薄熙来 16
蛋白质 16
表述 16
被占领土 16
视野 16
解放军 16
詹姆斯 16
让位 16
让渡 16
论断 16
论述 16
试想 16
说@@ 16
课 16
谁知 16
调@@ 16
象征意义 16
货 16
货币化 16
贫困率 16
贵族 16
资料 16
资质 16
赚钱 16
走过 16
起源 16
转为 16
转折 16
辉煌 16
输掉 16
辖区 16
还远 16
这两项 16
这才 16
这片 16
迫不及待 16
选择性 16
通勤 16
逼近 16
遣返 16
铭记 16
锁定 16
错失 16
长大 16
长期性 16
长期投资 16
阿塞拜疆 16
阿富汗人 16
阿联酋 16
陈光诚 16
陌生人 16
难以想象 16
难免 16
难民潮 16
雅典 16
集中营 16
震荡 16
霍 16
非暴力 16
领土完整 16
飞@@ 16
饭店 16
首要任务 16
高端 16
高薪 16
鱼 16
鲜明对比 16
麦克 16
齐@@ 16
龙@@ 16
17@@ 15
1931 15
1940 15
1951 15
1984 15
2500 15
4.5 15
68 15
72 15
78 15
AKP 15
CDS 15
FDI 15
G7 15
NAFTA 15
OMT 15
V 15
ampnbsp 15
es@@ 15
il@@ 15
th@@ 15
u 15
z@@ 15
一人 15
一副 15
一台 15
一员 15
一处 15
一封 15
一点点 15
万灵丹 15
三中全会 15
三月 15
上半年 15
上层 15
上要 15
不出 15
不可否认 15
不无道理 15
不明智 15
不结盟运动 15
不行 15
世界性 15
严@@ 15
个@@ 15
个州 15
个性化 15
中性 15
中是 15
临界点 15
为数 15
乡村 15
乱@@ 15
争相 15
五年计划 15
产妇 15
亲身 15
人质 15
人道 15
亿万富翁 15
什维利 15
今时 15
从长远看 15
代议制 15
令人吃惊 15
伊拉克政府 15
休假 15
会上 15
伪 15
低价 15
低级 15
低调 15
例证 15
依@@ 15
侵略性 15
保存 15
保护措施 15
保费 15
借@@ 15
假消息 15
做生意 15
储藏 15
僵尸 15
充分发挥 15
公式 15
六 15
共同之处 15
兴盛 15
兵 15
其核 15
内外 15
内心 15
军事基地 15
冲@@ 15
几代人 15
凭 15
击@@ 15
创@@ 15
别@@ 15
加利福尼亚州 15
加盟 15
勾结 15
化肥 15
医改 15
华盛顿邮报 15
协调一致 15
卓著 15
博物馆 15
卡钦斯基 15
卢森堡 15
反对票 15
发病率 15
受够了 15
受限 15
古代 15
可控 15
可预测性 15
司法部 15
含@@ 15
听从 15
听众 15
启蒙运动 15
周 15
命@@ 15
四处 15
回家 15
回落 15
困难重重 15
国与国 15
国家元首 15
城市居民 15
增加值 15
备@@ 15
备忘录 15
夏@@ 15
夏季 15
大惊小怪 15
太久 15
失当 15
夺去 15
如能 15
姆@@ 15
始作俑者 15
娜 15
季 15
孱弱 15
宁可 15
实例 15
容 15
容@@ 15
宽 15
寻租 15
少于 15
少数几个 15
就范 15
层级 15
屈服于 15
屈辱 15
屏障 15
属性 15
州政府 15
巨富 15
巨资 15
市@@ 15
常说 15
平行 15
废物 15
开拓 15
弄 15
张@@ 15
弹@@ 15
当初 15
得出结论 15
微 15
德国联邦 15
德斯 15
德斯坦 15
怪异 15
患病 15
情愿 15
惯性 15
想必 15
感知 15
慕尼黑 15
憧憬 15
懂 15
战斗机 15
战略伙伴 15
所在地 15
打印 15
投保 15
投诉 15
护士 15
抵免 15
拥护 15
拿破仑 15
持有者 15
指明 15
挑战者 15
捐助者 15
损伤 15
据@@ 15
据点 15
接过 15
支援 15
收买 15
收场 15
收支 15
改善生活 15
放开 15
故@@ 15
数百年 15
文化大革命 15
斯蒂格 15
施行 15
旁 15
旅行者 15
无休止 15
无穷无尽 15
无足轻重 15
旧金山 15
旱灾 15
易于 15
星 15
曲线 15
有效率 15
有赖于 15
服务@@ 15
期权 15
末期 15
本世纪末 15
权力斗争 15
来袭 15
板 15
查 15
核心作用 15
根本原因 15
格拉斯 15
次贷 15
款项 15
武装力量 15
氦 15
水果 15
水面 15
永久化 15
汇集 15
汉密尔顿 15
污点 15
没收 15
油@@ 15
法兰克福 15
泥潭 15
消费税 15
涌向 15
涨幅 15
淡水 15
深厚 15
淹没 15
热浪 15
燃油 15
爆炸式 15
牢牢 15
牧师 15
物资 15
王室 15
现金流 15
班农 15
理顺 15
生理 15
病态 15
盎格鲁 15
相悖 15
相适应 15
真@@ 15
真心 15
真能 15
知情 15
破 15
硬件 15
社会化 15
社会科学 15
离婚 15
稀少 15
税法 15
稳定局势 15
立法机构 15
立陶宛 15
第三国 15
管理人员 15
管理局 15
管用 15
米勒 15
精@@ 15
紧随其后 15
累进 15
纪录 15
组装 15
终将 15
经@@ 15
经济周期 15
维奇 15
综合性 15
缺位 15
罗兴亚人 15
罗格 15
置 15
美元汇率 15
美国会 15
美国式 15
翻 15
老化 15
老师 15
胃口 15
能比 15
能源技术 15
腹泻 15
腿 15
自大 15
自此 15
自给自足 15
自豪感 15
致 15
苛刻 15
英联邦 15
草根 15
莫桑比克 15
菲 15
萎靡不振 15
萨卡 15
蔬菜 15
蛋糕 15
血液 15
行不通 15
被判 15
裁员 15
要是 15
解决不了 15
警觉 15
计划生育 15
认证 15
诠释 15
诺@@ 15
诺言 15
调停 15
负担得起 15
账单 15
贯彻 15
贵 15
费尔 15
资 15
资本密集型 15
赌博 15
赖以 15
赛@@ 15
赤贫 15
赶 15
越过 15
跟随 15
车辆 15
辨别 15
过来 15
过热 15
迈克尔 15
远见卓识 15
选@@ 15
通@@ 15
造@@ 15
遗传学 15
邮件 15
鄙视 15
重商主义 15
钻井 15
银行存款 15
错配 15
问鼎 15
阐明 15
防线 15
阳性 15
阿布哈兹 15
阿拉维 15
阿里巴巴 15
附加 15
陈旧 15
险恶 15
隔 15
难以实现 15
难免会 15
难怪 15
集中精力 15
非常简单 15
顺差 15
须知 15
领先地位 15
飞 15
香烟 15
马尔代夫 15
黄热病 15
黑手党 15
黑色 15
&gt; 14
&lt; 14
0.3 14
1.4 14
1.9 14
10@@ 14
140 14
1953 14
1988 14
2.4 14
4000 14
5.5 14
58 14
73 14
74 14
8.@@ 14
AMR 14
ECB 14
H 14
Sh@@ 14
in 14
is 14
m 14
ol@@ 14
― 14
一丝 14
一书 14
一味 14
一对 14
一手 14
一时 14
一月 14
一枚 14
一百年 14
一臂之力 14
三项 14
下一场 14
下定决心 14
不如说 14
不明 14
不远 14
与众不同 14
丑陋 14
专政 14
世界主义 14
东欧国家 14
两派 14
两类 14
个人所得税 14
中东国家 14
中为 14
中日 14
举债 14
之地 14
之情 14
之旅 14
之源 14
乌里韦 14
乘客 14
习@@ 14
争斗 14
二是 14
二等 14
五角大楼 14
亚太 14
产油国 14
人口@@ 14
人口比例 14
仇@@ 14
从那以后 14
付 14
付钱 14
代孕 14
令人满意 14
以牙还牙 14
价@@ 14
任职期间 14
仿佛 14
余下 14
佛@@ 14
使用量 14
侵占 14
保护环境 14
保有 14
信息时代 14
借债 14
借用 14
偏差 14
做会 14
元 14
先锋 14
光彩 14
免不了 14
全套 14
全额 14
公共交通 14
共同@@ 14
兵力 14
其父 14
写@@ 14
军备 14
军费开支 14
军阀 14
农业@@ 14
冰@@ 14
冲突地区 14
减低 14
出卖 14
出口商品 14
出口导向型 14
分量 14
判处 14
前首相 14
剧增 14
办 14
加之 14
加倍 14
动植物 14
十 14
十五年 14
十分复杂 14
华 14
占@@ 14
卫生保健 14
印刷 14
即@@ 14
压@@ 14
厘清 14
双向 14
反倒 14
发端 14
发誓 14
取得胜利 14
受人 14
叛乱分子 14
可取 14
史上 14
合乎 14
向着 14
吓@@ 14
含有 14
吸毒 14
告别 14
周末 14
味 14
味道 14
命题 14
咄咄逼人 14
和平解决 14
唯@@ 14
唱@@ 14
商业利益 14
回复 14
因果关系 14
固定资产 14
国家主义 14
国民议会 14
国际标准 14
图书馆 14
圆 14
圣诞节 14
地想 14
场景 14
坏@@ 14
坏账 14
坚称 14
基准利率 14
基辅 14
增添 14
士@@ 14
复原 14
外交部 14
外人 14
外资 14
多位 14
多极化 14
大事 14
大卫 14
大坝 14
大局 14
大师 14
大涨 14
大火 14
大自然 14
大行其道 14
天主教徒 14
失效 14
失策 14
失落 14
套利 14
奢侈品 14
奶@@ 14
好战 14
孤独 14
学术界 14
宗派主义 14
定罪 14
实物 14
实际收入 14
审计 14
宫颈癌 14
容许 14
密特朗 14
对准 14
对外部 14
对立面 14
小额 14
小麦 14
尖端 14
尤为重要 14
尤先科 14
岁月 14
左倾 14
巨大损失 14
巴希尔 14
带入 14
常任理事 14
平均收入 14
并不认为 14
广告商 14
广袤 14
庆幸 14
康复 14
开玩笑 14
开设 14
引诱 14
归@@ 14
当事人 14
当政 14
形@@ 14
往@@ 14
往常 14
征 14
得分 14
得知 14
心中 14
心里 14
必定会 14
志愿者 14
怎么样 14
思路 14
总共 14
息息相关 14
恰好 14
悲观派 14
情报部门 14
惨败 14
惨重 14
意@@ 14
慈善机构 14
戈@@ 14
战事 14
户 14
所在国 14
手上 14
手脚 14
扎克 14
执政者 14
扩@@ 14
扰乱 14
抓 14
投机性 14
投降 14
抗争 14
抽@@ 14
拉拢 14
拉美地区 14
挥之不去 14
摧残 14
操控 14
放慢 14
政治权利 14
救世主 14
救命 14
教练 14
文献 14
新奥尔良 14
新德里 14
新闻业 14
无政府主义 14
昂山 14
普拉斯 14
暴力事件 14
暴力行为 14
暴君 14
曙光 14
曾几何时 14
月度 14
本意 14
本该 14
松散 14
构筑 14
标@@ 14
核战争 14
核能力 14
格斯 14
格林 14
桑@@ 14
棉花 14
棒 14
森@@ 14
欧洲法院 14
毁坏 14
比其 14
毫无道理 14
民心 14
民意测验 14
民权 14
波士顿 14
波罗的海 14
泰米尔 14
洗钱 14
流域 14
浓厚 14
海量 14
深远影响 14
渐渐 14
渐进式 14
漂亮 14
演习 14
漠视 14
灌输 14
火灾 14
热量 14
爱国 14
牢固 14
物理学家 14
牲畜 14
特使 14
特例 14
特拉维夫 14
状 14
狗 14
率先 14
玩家 14
班@@ 14
瓦尔 14
甚微 14
生产能力 14
生机 14
生机勃勃 14
用到 14
用尽 14
电信 14
电报 14
畸高 14
疏离 14
盗窃 14
直观 14
相互作用 14
相形见绌 14
眼睛 14
短@@ 14
石油市场 14
矿业 14
碳氢化合物 14
私@@ 14
私利 14
章 14
笑 14
算@@ 14
管辖权 14
米洛舍维奇 14
粉碎 14
紧急情况 14
紧紧 14
纪念碑 14
纳粹德国 14
细致 14
经营者 14
绑 14
结@@ 14
维持现状 14
维生素 14
绿党 14
缔造者 14
网@@ 14
罪魁 14
置之不理 14
美国股市 14
股票价格 14
肥 14
背负 14
胡@@ 14
能以 14
自利 14
至此 14
航空公司 14
芯片 14
茶 14
著称 14
葬礼 14
蒙蔽 14
薄 14
血统 14
行之有效 14
被告 14
裁军 14
要@@ 14
议价 14
记 14
证券化 14
该项 14
误判 14
诸国 14
诺基亚 14
调解 14
贝@@ 14
贸易量 14
费@@ 14
赛 14
走廊 14
跌幅 14
转让 14
过后 14
这块 14
这要 14
迟缓 14
逊尼 14
造福 14
遇刺 14
道@@ 14
遵从 14
银行业务 14
长足 14
阿布 14
陆地 14
陈词滥调 14
隐@@ 14
难逃 14
非常复杂 14
顺 14
顺从 14
须 14
预知 14
风力 14
饲养 14
首个 14
马克思主义 14
马拉 14
高压 14
高潮 14
高调 14
鲨鱼 14
麻疹 14
默多克 14
&amp; 13
0.6 13
1975 13
1978 13
49 13
52 13
61 13
7000 13
79 13
88 13
CCS 13
ISP 13
ad@@ 13
az@@ 13
ch@@ 13
in@@ 13
n 13
on 13
r 13
一个多 13
一视同仁 13
一间 13
丁 13
三位 13
三点 13
上个世纪 13
不停 13
不均 13
不易 13
不算 13
不能允许 13
专栏作家 13
世纪之交 13
东德 13
东道主 13
两院 13
中央集权 13
主办 13
之战 13
乏力 13
九年 13
习俗 13
书面 13
争吵 13
井喷 13
亚洲各国 13
交谈 13
亮 13
人中 13
人文 13
人有 13
人格 13
今年年底 13
介绍 13
从未有过 13
仓促 13
付诸 13
代名词 13
价格下降 13
任意 13
传说 13
伤@@ 13
但会 13
低薪 13
佐 13
使人 13
俄罗斯政府 13
保健 13
修 13
偏袒 13
充分认识 13
兜售 13
公共开支 13
六十年 13
兹@@ 13
兹事体大 13
养@@ 13
内尔 13
写作 13
军国主义 13
农场主 13
冷@@ 13
准入 13
减 13
几 13
出钱 13
刀@@ 13
切尔诺贝利 13
列举 13
刺杀 13
前后 13
前方 13
前线 13
加倍努力 13
加勒比 13
加税 13
务@@ 13
动武 13
劫持 13
劳动@@ 13
勇@@ 13
勿庸置疑 13
医学院 13
十九 13
十分之一 13
华沙 13
南奥塞梯 13
博客 13
卢比 13
危地马拉 13
即刻 13
即时 13
厄运 13
参与方 13
参谋长 13
双手 13
双相 13
发作 13
发声 13
发病 13
受阻 13
口头 13
古希腊 13
另@@ 13
另类 13
可卡因 13
可靠性 13
合规 13
向往 13
告诫 13
周刊 13
呼吸 13
品种 13
哈 13
哈里发 13
商业@@ 13
商定 13
嘲讽 13
因特网 13
国家级 13
国旗 13
在位 13
地理位置 13
地铁 13
基什 13
基本@@ 13
堡垒 13
增多 13
墨西哥人 13
壮观 13
处罚 13
多亏 13
多层次 13
多数派 13
夜 13
大亨 13
大棒 13
大臣 13
大跌 13
大都 13
大革命 13
太晚 13
夭折 13
失 13
威力 13
安哥拉 13
宏伟 13
定制 13
定性 13
实用主义 13
实际汇率 13
害 13
家乡 13
对外贸易 13
导@@ 13
封存 13
小孩 13
小步 13
尚@@ 13
尤 13
尾@@ 13
居然 13
屋顶 13
展现出 13
巡@@ 13
工薪阶层 13
巨变 13
巴尔干半岛 13
币值 13
市场@@ 13
市场机制 13
市场需求 13
布拉格 13
平均寿命 13
广阔 13
庇护所 13
延续下去 13
开放性 13
异议 13
弊大于利 13
引来 13
归属 13
归属感 13
归还 13
形形色色 13
影@@ 13
德拉 13
心理学家 13
怀有 13
怒 13
总值 13
情境 13
想方设法 13
愿 13
战略家 13
所作 13
所言 13
手法 13
打下基础 13
打出 13
扣减 13
执照 13
扩充 13
披上 13
抱负 13
拉动型 13
拖@@ 13
拖欠 13
拜登 13
拥 13
挑@@ 13
捷克共和国 13
推崇 13
搞@@ 13
摇摆 13
摒弃 13
摩 13
支@@ 13
改 13
改写 13
攻@@ 13
放下 13
政治@@ 13
政治势力 13
敏锐 13
新建 13
新思维 13
新疆 13
方兴未艾 13
施加压力 13
施展 13
无权 13
无能为力 13
既然如此 13
早先 13
昨天 13
是@@ 13
普什图 13
普斯 13
智 13
暴徒 13
有太多 13
服@@ 13
望@@ 13
未可知 13
末日 13
松@@ 13
枪@@ 13
某@@ 13
柔性 13
查尔斯 13
校长 13
核弹头 13
核燃料 13
根@@ 13
格言 13
桑托斯 13
档案 13
桥 13
欲@@ 13
正以 13
正试图 13
歪曲 13
死后 13
每日 13
每隔 13
毛@@ 13
氏 13
民主派 13
民粹 13
氢 13
水利 13
汇聚 13
汽车业 13
沃@@ 13
沃尔玛 13
泄漏 13
法国政府 13
泛美 13
波兰政府 13
洛夫 13
活@@ 13
派出 13
浮出 13
海水 13
海盗 13
涅 13
液压 13
混为一谈 13
渡过 13
游 13
滥用权力 13
演员 13
火上浇油 13
火焰 13
父辈 13
牛奶 13
牛津 13
特区 13
特有 13
犯错 13
犹豫不决 13
猪 13
现代人 13
现实情况 13
珊瑚礁 13
理@@ 13
瑞 13
瓶 13
生于 13
生产成本 13
由此看来 13
略高于 13
痛 13
盖 13
直@@ 13
相扑 13
相较 13
相辅相成 13
看好 13
看重 13
看齐 13
真诚 13
着力 13
知晓 13
石 13
石@@ 13
石化 13
确诊 13
磷虾 13
示好 13
社会@@ 13
福@@ 13
移居 13
税后 13
空前 13
突显出 13
端倪 13
笨拙 13
第三条 13
筹集资金 13
签署国 13
管@@ 13
管治 13
籍 13
米歇尔 13
繁荣期 13
约瑟夫 13
纳米技术 13
纳粹主义 13
纵容 13
结果显示 13
给定 13
绝佳 13
绥靖 13
继承人 13
维克 13
维奥 13
综合症 13
置身事外 13
美分 13
美印 13
老兵 13
而战 13
耗时 13
联络 13
肥沃 13
肿瘤 13
胎儿 13
腐蚀 13
臃肿 13
自杀式 13
舒适 13
艘 13
节制 13
花言巧语 13
苏@@ 13
菲尔 13
萌芽 13
虫 13
蚕食 13
裁量 13
西德 13
要不是 13
要说 13
规格 13
解@@ 13
计入 13
记@@ 13
试图用 13
诚意 13
诺贝尔和平奖 13
诺贝尔经济学奖 13
调查结果 13
谷 13
责 13
贫困家庭 13
贫民窟 13
贾@@ 13
资不抵债 13
资金投入 13
赖以生存 13
走进 13
赶下台 13
足迹 13
身着 13
软化 13
较量 13
辐射 13
近@@ 13
还给 13
这令 13
这比 13
进一步提高 13
违规 13
退步 13
逃亡 13
逐出 13
逝世 13
遴选 13
邻邦 13
重工业 13
钻石 13
铁 13
铁腕 13
铝 13
长寿 13
问及 13
问责制 13
阿亚图 13
阿赫玛 13
附加值 13
降低成本 13
限额 13
院校 13
隐患 13
集@@ 13
集结 13
露面 13
青@@ 13
青年人 13
靖国神社 13
非洲联盟 13
非金融 13
非银行 13
面@@ 13
韦 13
音 13
预测者 13
领@@ 13
首@@ 13
首选 13
马萨诸塞州 13
驳回 13
高级别 13
黑市 13
0.4 12
170 12
1948 12
1949 12
1956 12
1958 12
1987 12
2.2 12
2040 12
2100 12
220 12
3.4 12
4.@@ 12
6000 12
81 12
83 12
? 12
AAA 12
GCC 12
II 12
ODA 12
ac@@ 12
ag@@ 12
d 12
de 12
iPhone 12
ir@@ 12
j@@ 12
os 12
ur@@ 12
一个@@ 12
一例 12
一刀切 12
一厢情愿 12
一大批 12
一大步 12
一把 12
一波 12
一艘 12
一颗 12
七十年 12
七十年代 12
上市公司 12
上扬 12
上空 12
上调 12
下议院 12
下限 12
不值一提 12
不在乎 12
不妨 12
不小 12
不得而知 12
不至于 12
与非 12
专制主义 12
东风 12
两起 12
严重不足 12
丧命 12
中东问题 12
中位数 12
中印 12
中方 12
中非共和国 12
为所欲为 12
为时已晚 12
主任 12
二次 12
互@@ 12
互惠 12
五星 12
交接 12
交由 12
产值 12
人事 12
人民@@ 12
亿多 12
什@@ 12
仍旧 12
从此 12
付@@ 12
以邻为壑 12
任性 12
会员 12
传导 12
伪装 12
伯 12
住房价格 12
住所 12
佛教 12
佛罗里达州 12
供水 12
侵袭 12
倒下 12
偏远地区 12
停战 12
儒家 12
克里姆林 12
公共@@ 12
公共资源 12
公报 12
公民权利 12
共产主义者 12
关税同盟 12
关键时刻 12
兼@@ 12
兼容 12
内陆 12
军事化 12
军事演习 12
军售 12
农药 12
冰岛 12
冰盖 12
决非 12
几十个 12
凯蒂 12
凶@@ 12
出发点 12
出面 12
分工 12
删除 12
别说 12
到访 12
制造者 12
刻不容缓 12
前期 12
副@@ 12
副产品 12
劝说 12
功 12
加权 12
劫@@ 12
劳力 12
势 12
化身 12
区区 12
医疗系统 12
十二 12
十八 12
千 12
午餐 12
半个 12
单单 12
单极 12
卖家 12
卖掉 12
卜 12
卡尔德 12
卵子 12
去向 12
参与度 12
及@@ 12
双双 12
反腐败 12
发动机 12
发泄 12
发生冲突 12
取暖 12
变数 12
口袋 12
口风 12
古怪 12
史@@ 12
叶 12
叶@@ 12
名副其实 12
后悔 12
后裔 12
周边国家 12
和普京 12
唤醒 12
商务 12
喜爱 12
四国 12
国家开发银行 12
国家队 12
国际劳工组织 12
国际性 12
圆@@ 12
圣战者 12
地狱 12
坚持不懈 12
坦率地 12
坦白说 12
堆 12
塔伊 12
增兵 12
处方 12
复仇 12
复国主义 12
多余 12
多出 12
大桥 12
大洲 12
大通 12
大额 12
大马士革 12
天安门 12
太低 12
失败者 12
奋力 12
契机 12
套@@ 12
好坏 12
如出一辙 12
妄想 12
始@@ 12
委任 12
委内瑞拉人 12
孔子 12
字@@ 12
存有 12
存货 12
季莫申科 12
安定 12
定居者 12
宝@@ 12
审理 12
富于 12
射 12
小行星 12
尤科斯 12
尼斯 12
尼日尔 12
尽早 12
尽显 12
居于 12
屋主 12
展@@ 12
履新 12
崇尚 12
工业生产 12
巨@@ 12
巴塞罗那 12
市中心 12
常用 12
平方公里 12
年轻一代 12
幻灭 12
度@@ 12
康@@ 12
开销 12
强制执行 12
归来 12
当做 12
形态 12
待@@ 12
得益 12
微生物 12
心脏 12
怒火 12
性格 12
总有 12
恩斯 12
恶 12
悲剧性 12
惠@@ 12
意料之外 12
意欲 12
愚弄 12
成因 12
成瘾 12
戒@@ 12
战败 12
戴维 12
所受 12
所指 12
扎伊 12
执委会 12
投入品 12
投给 12
抹 12
抹杀 12
拥有者 12
拨@@ 12
捆绑 12
捷径 12
控制@@ 12
推荐 12
措辞 12
提炼 12
援手 12
搜索引擎 12
撕@@ 12
支点 12
支离破碎 12
放在首位 12
放射性 12
放贷 12
政 12
政府部门 12
政治学家 12
政治犯 12
政治经济学 12
敌视 12
敢 12
数月 12
斗@@ 12
斗士 12
斯基 12
斯洛伐克 12
斯洛文尼亚 12
新世界 12
新人 12
新教 12
方方面面 12
旗下 12
无一例外 12
无形 12
无政府 12
无用 12
无益 12
无须 12
日益加剧 12
时不时 12
时尚 12
时限 12
明晰 12
显@@ 12
暗淡 12
更富 12
更有意义 12
最先 12
最穷 12
最高层 12
服务提供者 12
朔伊 12
期刊 12
期盼 12
本着 12
机会主义 12
村民 12
极力 12
林肯 12
标记 12
树@@ 12
核技术 12
核聚变 12
梦@@ 12
梵蒂冈 12
检讨 12
欧后 12
歌 12
歌@@ 12
正当性 12
歧视性 12
比不上 12
民兵组织 12
民营企业 12
水准 12
汇总 12
江 12
沃伦 12
没@@ 12
沿海地区 12
波斯 12
洛 12
洛佩斯 12
津贴 12
洪灾 12
海岸线 12
温暖 12
濒临 12
灭亡 12
热带雨林 12
热心 12
热爱 12
热钱 12
煤电 12
熊市 12
爱因斯坦 12
爱国者 12
牵扯 12
狐疑 12
狭窄 12
玩@@ 12
玩世不恭 12
环保主义者 12
现阶段 12
瓶颈 12
甘@@ 12
申根 12
电台 12
电气化 12
留@@ 12
留住 12
痛@@ 12
登@@ 12
皇帝 12
相媲美 12
相左 12
看一看 12
着实 12
瞄准 12
破败 12
祈祷 12
祖父 12
禁 12
种@@ 12
科夫 12
科学技术 12
称赞 12
程 12
税@@ 12
税收政策 12
稳@@ 12
穆兄会 12
空缺 12
空调 12
窘境 12
童婚 12
第一季度 12
第一年 12
第三@@ 12
第六 12
等@@ 12
等量齐观 12
粉丝 12
精彩 12
精通 12
素季 12
索@@ 12
索契 12
紧密联系 12
繁琐 12
纠缠 12
纷争 12
纸 12
纽带 12
终@@ 12
经济指标 12
继 12
继任 12
维克托 12
绿色革命 12
缔约国 12
罢了 12
美伊 12
美国众议院 12
美国联邦 12
翻@@ 12
翻了一番 12
老挝 12
老百姓 12
而生 12
职场 12
联@@ 12
聚会 12
肌肉 12
肤浅 12
胡萝卜 12
能令 12
脱@@ 12
腾 12
腾飞 12
自卫队 12
自恋 12
自治权 12
自然选择 12
自由放任 12
舞弊 12
艾@@ 12
艾森豪威尔 12
节节 12
苏维埃 12
苦@@ 12
英美 12
茨 12
草 12
获得者 12
菲德尔 12
营 12
萨利赫 12
蒂勒 12
行政命令 12
表象 12
衰老 12
被困 12
西班牙人 12
见效 12
解 12
解放出来 12
解脱 12
誓言 12
警钟 12
让给 12
许@@ 12
许可证 12
评论员 12
诉 12
试点 12
诗人 12
该州 12
象棋 12
负增长 12
财政危机 12
败 12
贸易额 12
走@@ 12
起因 12
越少 12
跟上 12
跨国企业 12
路@@ 12
跳 12
车@@ 12
软性 12
轻 12
轻视 12
较差 12
辈 12
输出国 12
辛 12
迄今 12
迅速行动 12
近十年 12
还@@ 12
这有 12
这番话 12
进出 12
远不止 12
连通性 12
连锁 12
连锁反应 12
迷恋 12
速 12
遗@@ 12
遥不可及 12
避难所 12
避风港 12
配 12
采 12
重叠 12
金敬姬 12
金融交易 12
金融公司 12
金融界 12
铁幕 12
铺平道路 12
长崎 12
阿尔 12
附属 12
际 12
限 12
院 12
随即 12
随时随地 12
难以为继 12
难以避免 12
集中化 12
零碳 12
震动 12
震慑 12
霍梅尼 12
非传统 12
非洲开发银行 12
面目 12
食@@ 12
饿死 12
首 12
高加索 12
高墙 12
高点 12
高超 12
鲁@@ 12
鸽派 12
麻风病 12
黄@@ 12
黑帮 12
默德 12
鼓舞人心 12
0.9 11
1.1 11
15@@ 11
3.6 11
3.8 11
4.7 11
4.8 11
7.@@ 11
71 11
750 11
82 11
84 11
FARC 11
FOMC 11
IPL 11
O 11
PiS 11
as@@ 11
ic@@ 11
st@@ 11
一体 11
一切照旧 11
一千万 11
一如既往 11
一时期 11
一根 11
一环 11
三角 11
三角洲 11
下一阶段 11
不出意外 11
不可分割 11
不振 11
不明朗 11
不相容 11
不诚实 11
不谈 11
与会 11
东亚地区 11
两件事 11
两座 11
中亚地区 11
中华人民共和国 11
中长期 11
丰裕 11
为生 11
举止 11
久@@ 11
乏味 11
乏善可陈 11
乔@@ 11
乡@@ 11
了@@ 11
争执 11
二月 11
互信 11
五分 11
五月 11
亚洲开发银行 11
人气 11
亿美金 11
仅@@ 11
今@@ 11
仗 11
价格水平 11
任上 11
任地 11
休@@ 11
众 11
优越 11
优雅 11
会因 11
传闻 11
伴侣 11
位数 11
体制改革 11
余波 11
作风 11
佩@@ 11
供养 11
依 11
依照 11
保护主义者 11
保证金 11
保险@@ 11
信息@@ 11
信赖 11
修正主义 11
倍感 11
偏颇 11
像@@ 11
充实 11
充裕 11
先知 11
光景 11
克尔 11
克维尔 11
免疫系统 11
免税 11
全美 11
公决 11
公司债务 11
公顷 11
共同化 11
关@@ 11
关系密切 11
其余部分 11
其新 11
养殖 11
内涵 11
再次出现 11
再者 11
军事优势 11
军费 11
农业部门 11
农民工 11
冷却 11
冷酷 11
减产 11
几分 11
几十亿美元 11
凶手 11
出口量 11
出资人 11
分水岭 11
切 11
切实可行 11
划算 11
列日涅夫 11
创新者 11
创造条件 11
利亚 11
利弊 11
利率政策 11
制品 11
制造品 11
前列 11
助@@ 11
助理 11
勃 11
包袱 11
区@@ 11
区别对待 11
十一月 11
十年间 11
南极 11
卡特里娜 11
卡车 11
卢 11
印巴 11
却会 11
厅 11
历@@ 11
历经 11
原子 11
参拜 11
参照 11
参观 11
反垄断 11
发布会 11
发电量 11
口味 11
古吉拉特邦 11
另一端 11
司空见惯 11
各级 11
同志 11
名词 11
后盾 11
听证会 11
告 11
哀叹 11
哪种 11
商榷 11
喀布尔 11
善 11
国营 11
国际联盟 11
图像 11
土崩瓦解 11
圣雄甘地 11
地主 11
地质 11
垂@@ 11
培@@ 11
基因工程 11
墙@@ 11
增加一倍 11
增至 11
壳牌 11
备选 11
夏 11
外交@@ 11
外交事务 11
外部环境 11
多方 11
多极世界 11
大佬 11
大受 11
大学@@ 11
大旗 11
失利 11
失能 11
头巾 11
奇怪的是 11
套 11
女权主义 11
女生 11
妈妈 11
妖魔化 11
威尔 11
守 11
安全局 11
完全正确 11
宗教团体 11
实际意义 11
审批 11
审讯 11
家属 11
家常便饭 11
家庭暴力 11
密度 11
尔特 11
尤@@ 11
尼赫鲁 11
局长 11
层@@ 11
工作组 11
巨 11
巨人 11
巨大变化 11
差@@ 11
已成 11
已近 11
巴勒斯坦民族权力机构 11
巴尔@@ 11
巴拿马 11
带回 11
带走 11
幕 11
干净 11
平壤 11
年化 11
年期 11
并会 11
幸福感 11
序列 11
应为 11
底@@ 11
废@@ 11
延期 11
开创性 11
开城 11
开火 11
开脱 11
弃 11
弄@@ 11
引人瞩目 11
引力 11
弗朗哥 11
弗莱 11
弥漫 11
弱@@ 11
强度 11
归于 11
归类 11
当天 11
彻底改变 11
微调 11
心灵 11
必 11
必要措施 11
忍@@ 11
志向 11
忧心 11
忽略不计 11
怀 11
怀抱 11
思索 11
急转直下 11
性价比 11
性骚扰 11
总成本 11
总支出 11
恩怨 11
患上 11
惟其 11
惨遭 11
意想不到 11
懂得 11
成败 11
战前 11
战机 11
房@@ 11
扎根 11
打仗 11
打赢 11
托马斯 11
扫@@ 11
扬 11
批@@ 11
找@@ 11
技术支持 11
把戏 11
抓住机会 11
投资人 11
抛@@ 11
护照 11
抵扣 11
抵触 11
押 11
拆@@ 11
拆除 11
拉尔 11
持续上升 11
挂 11
按计划 11
挖@@ 11
挣 11
损@@ 11
换句话 11
排序 11
掠夺性 11
接壤 11
接待 11
插手 11
摄入 11
摆@@ 11
摆布 11
撑腰 11
撕裂 11
收 11
改革开放 11
政治局 11
政治性 11
效用 11
散 11
敬仰 11
数不清 11
数以千计 11
数周 11
文官 11
斯特 11
斯特恩 11
新一届 11
施密特 11
无人驾驶 11
无罪 11
无风险 11
既@@ 11
日本央行 11
明目张胆 11
明确指出 11
是非 11
晋升 11
暗示着 11
最深 11
月@@ 11
有损 11
朗 11
朗@@ 11
本文 11
术 11
机密 11
李明博 11
杜 11
条例 11
来源国 11
板球 11
极端化 11
某位 11
染上 11
标准化 11
栖息地 11
校@@ 11
案@@ 11
桥@@ 11
检视 11
楼 11
模拟 11
模糊不清 11
横扫 11
横行 11
次数 11
欢@@ 11
欢呼 11
正像 11
正逢 11
此刻 11
此项 11
死胡同 11
残疾 11
毒气 11
毛拉 11
民间团体 11
气质 11
水坝 11
求助于 11
汉 11
法郎 11
注射 11
泰勒 11
活跃分子 11
派兵 11
派对 11
浩劫 11
海洋法 11
海湾战争 11
消化 11
涨 11
深信 11
深思 11
温@@ 11
游刃有余 11
游行示威 11
溃败 11
源源不断 11
滑落 11
满意度 11
漩涡 11
潜艇 11
火箭弹 11
火车 11
爆炸性 11
牛@@ 11
牛市 11
物体 11
犬儒主义 11
犯人 11
狂 11
王 11
现身 11
理 11
理会 11
理查德 11
甚@@ 11
生物医学 11
用处 11
甩 11
田@@ 11
电力供应 11
电力公司 11
电动车 11
男@@ 11
画 11
画面 11
留出 11
疲弱 11
痕迹 11
瘟疫 11
癌细胞 11
白 11
白白浪费 11
百年 11
皇室 11
监察 11
监督机构 11
盘 11
盲目 11
直到现在 11
相匹配 11
眼睁睁 11
矫正 11
神奇 11
福 11
离职 11
离谱 11
秘密警察 11
秘诀 11
移 11
空谈 11
立法机关 11
第三季度 11
第二@@ 11
第二年 11
签字 11
简单化 11
繁殖 11
红海 11
纺织品 11
经验丰富 11
绝@@ 11
绝不能 11
罗兴亚 11
羁押 11
美孚 11
美的 11
羞耻 11
群岛 11
翻倍 11
老生常谈 11
考试 11
职员 11
联合国儿童基金会 11
联大 11
联盟党 11
联邦制 11
肉@@ 11
股份公司 11
胁迫 11
胆 11
脑@@ 11
脱碳 11
自下而上 11
自尊 11
自欺欺人 11
自然环境 11
自由党 11
自行 11
节@@ 11
苗头 11
若@@ 11
若干年 11
英国议会 11
茶党 11
莱 11
获准 11
获胜者 11
蒙 11
虎 11
虚幻 11
行将 11
表@@ 11
衰弱 11
袭击者 11
装作 11
西伯利亚 11
角力 11
解密 11
训练有素 11
议院 11
论@@ 11
设计师 11
评分 11
诅咒 11
诋毁 11
试射 11
话语 11
语@@ 11
说来 11
诸多方面 11
调控 11
谷物 11
财政纪律 11
财政负担 11
质@@ 11
质问 11
购 11
赞成票 11
走高 11
起源于 11
超乎 11
越高 11
踏上 11
身陷 11
软着陆 11
辍学 11
达卡 11
过快 11
运往 11
还债 11
这为 11
这本 11
这段 11
进度 11
远东 11
远超 11
追寻 11
追赶 11
追逐 11
逃往 11
逆@@ 11
道义上 11
遗留下来 11
遗留问题 11
邻近 11
郊区 11
配给 11
里拉 11
重任 11
重大进展 11
重拾 11
重量 11
野 11
量@@ 11
金融城 11
钢 11
钱@@ 11
链条 11
销量 11
错综复杂 11
锚定 11
镜头 11
长于 11
长期债务 11
长期趋势 11
问题重重 11
防御性 11
防治 11
陈@@ 11
降水 11
降雨 11
除@@ 11
除去 11
隔@@ 11
难以获得 11
难堪 11
雅 11
集合 11
零@@ 11
需@@ 11
静悄悄 11
非人 11
非但 11
非正规 11
面包 11
革命者 11
顺风 11
顽强 11
频发 11
题 11
颜色 11
颠覆性 11
飞行员 11
饭 11
饭碗 11
首当其冲 11
马纳 11
驯服 11
骗子 11
骨@@ 11
高举 11
高地 11
高峰期 11
鱼@@ 11
鲸 11
麦@@ 11
黄 11
黑猩猩 11
1938 10
1957 10
1961 10
1963 10
1969 10
1983 10
2.6 10
2022 10
2035 10
4.2 10
4.9 10
91 10
97 10
98 10
Airbnb 10
GNP 10
K 10
N 10
id@@ 10
os@@ 10
tr@@ 10
un@@ 10
v@@ 10
x@@ 10
一党 10
一刻 10
一劳永逸 10
一去不返 10
一地 10
一架 10
一级 10
万一 10
万亿日元 10
万年 10
三十@@ 10
三方 10
上次 10
不丹 10
不太@@ 10
不妙 10
不成比例 10
不然 10
不言自明 10
世代 10
世界@@ 10
世界人权宣言 10
东亚国家 10
东欧地区 10
东西方 10
两周 10
个人主义 10
中亚国家 10
中风 10
丹 10
主人 10
之声 10
之差 10
之时 10
之策 10
习 10
书名 10
买房 10
二十 10
二次大战 10
互补 10
井@@ 10
亚历山大 10
交出 10
交往 10
交易量 10
交织 10
交通@@ 10
交通工具 10
亮@@ 10
亲属 10
人人平等 10
人心 10
人想 10
人民银行 10
仅凭 10
今年年初 10
仍远 10
令人惊叹 10
令人担心 10
以期 10
以防 10
价格@@ 10
企业界 10
休闲 10
会否 10
传输 10
估量 10
位@@ 10
体会 10
何在 10
作弊 10
佩林 10
使用暴力 10
供电 10
供需 10
便于 10
保 10
保护伞 10
保持一致 10
信息战 10
信誓旦旦 10
借给 10
值得一提的是 10
倾@@ 10
倾销 10
假期 10
偏执狂 10
停火协议 10
傀儡 10
先生 10
光有 10
光荣 10
克斯 10
克林 10
克莱@@ 10
全力支持 10
全球战略 10
公共事务 10
公关 10
公司债券 10
公平性 10
关注度 10
关进 10
其为 10
具@@ 10
内罗毕 10
再生 10
农户 10
冬天 10
冰 10
冰箱 10
冲销 10
决 10
决策权 10
净值 10
几内亚 10
几十@@ 10
几百@@ 10
凭空 10
凶残 10
出对 10
出新 10
出租 10
分散化 10
分数 10
分界线 10
刑法 10
刑讯 10
创造者 10
创造财富 10
初中 10
判@@ 10
判定 10
利特 10
券 10
刹车 10
前提条件 10
力争 10
办@@ 10
加码 10
努 10
劳尔 10
勒@@ 10
勒曼 10
勾勒 10
十八世纪 10
千百万 10
单元 10
单身 10
博 10
博茨瓦纳 10
占领者 10
卡恩 10
卢卡申科 10
卫生@@ 10
印有 10
危机四伏 10
卷@@ 10
厂商 10
压倒一切 10
压迫者 10
友好关系 10
双边协议 10
反之亦然 10
反动 10
反向 10
反复无常 10
反民主 10
发展@@ 10
发送 10
受控 10
可不 10
可再生 10
可耻 10
可见一斑 10
右 10
右倾 10
吃惊 10
各异 10
合作者 10
同化 10
同性 10
吝啬 10
听@@ 10
听证 10
吹@@ 10
告@@ 10
周年纪念 10
响 10
响亮 10
哥伦比亚人 10
商讨 10
啊 10
善举 10
喜马拉雅山 10
囊括 10
四次 10
回击 10
回旋余地 10
团@@ 10
固@@ 10
国库 10
国民党 10
国民大会 10
国际法庭 10
土地@@ 10
圣保罗 10
地下水 10
地是 10
地表 10
坎坷 10
坦率 10
垮 10
基尼系数 10
基调 10
堆积 10
塔纳 10
塞浦路斯人 10
境外 10
增幅 10
备 10
外部性 10
大大提高 10
大学生 10
大崩盘 10
大打折扣 10
大本营 10
大道 10
天安门广场 10
太远 10
夫斯基 10
奉 10
奉@@ 10
奥尔默特 10
奥斯本 10
好奇心 10
如是说 10
妓女 10
媒介 10
学费 10
安心 10
安格拉 10
定量 10
实事求是 10
实际操作 10
客@@ 10
害@@ 10
家庭@@ 10
宽泛 10
寄生虫 10
寥寥无几 10
对美 10
小事 10
少之又少 10
就位 10
就职演说 10
就读 10
局@@ 10
局外人 10
展望未来 10
展期 10
展览 10
岸 10
工业园区 10
差劲 10
巴基斯坦政府 10
巴尔 10
巴西政府 10
平均年龄 10
平时 10
并用 10
并购 10
幸存 10
广度 10
庇隆 10
床 10
座@@ 10
康 10
廷 10
开展业务 10
开枪 10
异乎寻常 10
弗朗索瓦 10
弹 10
强者 10
当地政府 10
影像 10
很@@ 10
徒劳 10
得过且过 10
微型 10
微笑 10
心安理得 10
志愿 10
忙 10
念 10
怀疑论 10
怀着 10
急 10
性命 10
恪守 10
恶果 10
想像 10
意大利政府 10
意料之中 10
成型 10
战区 10
戴@@ 10
所犯 10
手册 10
打动 10
执@@ 10
执掌 10
执着 10
把握住 10
折扣 10
抛售 10
抱@@ 10
抽取 10
抽象 10
拔@@ 10
拿走 10
持平 10
挤@@ 10
换成 10
掌管 10
探究 10
接到 10
接班人 10
推入 10
推到 10
推卸 10
握有 10
摩苏尔 10
撒钱 10
撕毁 10
撤资 10
攸关 10
政治学 10
政界人士 10
救灾 10
散@@ 10
数十@@ 10
数百万美元 10
数百名 10
文凭 10
断然 10
斯蒂格利茨 10
新书 10
新年 10
施 10
施以 10
旅程 10
无尽 10
无所不在 10
无所不能 10
无核 10
无耻 10
日增 10
日新月异 10
旧有 10
早前 10
易感 10
景@@ 10
更何况 10
更有甚者 10
更近 10
曼彻斯特 10
曼谷 10
最富 10
最终目标 10
有余 10
有幸 10
有形 10
有理 10
有的是 10
朝圣 10
木 10
未免 10
未知数 10
本地化 10
杀人犯 10
极富 10
果@@ 10
枪击 10
某一 10
查理 10
校 10
校友 10
核力量 10
核危机 10
核打击 10
格拉 10
案子 10
概@@ 10
欣欣向荣 10
止 10
此基础 10
步履蹒跚 10
残余 10
每一项 10
民营 10
水库 10
沙皇 10
沾沾自喜 10
法外 10
洁净 10
洗@@ 10
洛@@ 10
洲际 10
派驻 10
流传 10
测 10
涉嫌 10
涨@@ 10
深海 10
深深地 10
混@@ 10
渐@@ 10
渗透到 10
渡边 10
温 10
渲染 10
渴求 10
游@@ 10
滋长 10
演 10
灯塔 10
灵@@ 10
炫耀 10
烟 10
热点 10
燃起 10
爆炸事件 10
爱戴 10
父 10
牙齿 10
物@@ 10
物价指数 10
犯罪率 10
猛增 10
献金 10
生命线 10
生存率 10
生物体 10
用品 10
用词 10
由此可见 10
电子邮件 10
男 10
畏惧 10
留任 10
疲劳 10
病原体 10
病症 10
病菌 10
痴迷 10
百姓 10
皆 10
相互之间 10
相继 10
看守 10
眼@@ 10
着重 10
睡 10
睿智 10
知 10
示威游行 10
礼貌 10
社保 10
祖玛 10
禁@@ 10
禁烟 10
禁飞区 10
离任 10
科学知识 10
租 10
积极性 10
稍@@ 10
空军 10
突袭 10
第一条 10
第五@@ 10
笼罩 10
简报 10
算术 10
管理机构 10
粮食产量 10
糟 10
紊乱 10
索尔仁 10
约束条件 10
纳米比亚 10
纽约市 10
组织者 10
细@@ 10
经济@@ 10
经济总量 10
经济社会 10
给与 10
维尔 10
缠身 10
罗索 10
美国@@ 10
美式 10
美金 10
羡慕 10
老路 10
考@@ 10
而今 10
职业培训 10
联 10
聘用 10
股息 10
肯 10
胜选 10
能源消耗 10
脱盟 10
脱贫 10
脱身 10
腰包 10
自此以后 10
自由民主党 10
自贸 10
至@@ 10
致歉 10
舒服 10
艾伦 10
节点 10
花掉 10
荒唐 10
荣耀 10
莎 10
莱斯 10
萨德 10
蒙@@ 10
蒙羞 10
蓝领 10
薪资 10
藏@@ 10
虽 10
衣 10
表情 10
表露无遗 10
袭 10
裂缝 10
裙带关系 10
西撒哈拉 10
西斯 10
西班牙政府 10
要务 10
要少 10
要职 10
覆盖面 10
见@@ 10
解放运动 10
解答 10
触动 10
警醒 10
认@@ 10
评 10
诊 10
词@@ 10
词语 10
诱导 10
诺华 10
诺贝尔 10
谦卑 10
象牙 10
负债累累 10
负值 10
负数 10
责任感 10
责怪 10
贯穿 10
贷 10
贸易条件 10
赦免 10
赫尔辛基 10
走低 10
走得 10
赵紫阳 10
起步 10
越南战争 10
趋向 10
跟不上 10
踢 10
踩 10
轩然大波 10
转化成 10
转机 10
软禁 10
较@@ 10
输@@ 10
输血 10
辛@@ 10
过低 10
过活 10
过滤 10
这时 10
这篇 10
迪克 10
逆转录 10
选定 10
逊 10
途中 10
通话 10
避险 10
那天 10
那段 10
那维亚 10
邮政 10
部长级 10
采取相应 10
采矿 10
重重的 10
野心勃勃 10
金日成 10
金本位制 10
金色 10
金融@@ 10
银行行长 10
销 10
销售税 10
销售额 10
错乱 10
锚 10
长远利益 10
问问 10
问题所在 10
防空 10
阵@@ 10
阵痛 10
阿尔@@ 10
陆军 10
陌生 10
降@@ 10
随@@ 10
隔绝 10
难事 10
雄 10
雅@@ 10
雅克 10
集中度 10
雨 10
零排放 10
雷达 10
非同寻常 10
非法行为 10
顶@@ 10
预@@ 10
风波 10
餐厅 10
餐桌 10
饲料 10
首任 10
马基雅 10
高血压 10
鲁棒 10
鸟 10
鸡 10
麻省理工学院 10
0.25 9
0.8 9
1932 9
1976 9
1977 9
1985 9
2.1 9
2.9 9
270 9
3.1 9
3.@@ 9
30@@ 9
330 9
5.8 9
51 9
92 9
ACA 9
BBC 9
CF@@ 9
Ch@@ 9
DDT 9
IBM 9
IF@@ 9
Ifo 9
SA 9
SEC 9
UN@@ 9
X@@ 9
ak@@ 9
at 9
av@@ 9
end@@ 9
g 9
ou@@ 9
son 9
é 9
一些则 9
一会儿 9
一切都是 9
一己 9
一帆风顺 9
一心 9
一心一意 9
一模一样 9
一百多万 9
一蹶不振 9
七月 9
万吨 9
万能 9
三人 9
三重 9
下次 9
下游 9
不可同日而语 9
不合 9
不同寻常 9
不容乐观 9
不尽相同 9
不消说 9
不起作用 9
与@@ 9
与生俱来 9
世@@ 9
世袭 9
业主 9
东耶路撒冷 9
丢 9
两代 9
两条 9
两点 9
严密 9
严谨 9
个人利益 9
个人消费 9
为人所知 9
为重 9
主因 9
举个 9
乐趣 9
习以为常 9
乳@@ 9
二季度 9
互利 9
互补性 9
交到 9
交易@@ 9
交易税 9
亲王 9
人口构成 9
人大 9
人才流失 9
亿英镑 9
仁@@ 9
从容 9
付诸实施 9
伊尔 9
伊曼纽尔 9
优于 9
传统媒体 9
传言 9
伤及 9
伦 9
伪@@ 9
但用 9
住房@@ 9
体育@@ 9
佛山 9
作何 9
作恶 9
佩尔 9
依法 9
侧重于 9
俗@@ 9
保守势力 9
保护区 9
保护者 9
信中 9
修宪 9
假想 9
偏爱 9
偏隘 9
做事 9
停下来 9
催生出 9
先兆 9
先后 9
先天 9
先行 9
光伏 9
克林顿政府 9
全力以赴 9
全局 9
全面禁止 9
公司@@ 9
公开化 9
公开市场 9
公民投票 9
六方会谈 9
六月 9
共事 9
共同市场 9
共进 9
关头 9
其时 9
内向 9
内讧 9
内部事务 9
再三 9
冒@@ 9
冗长 9
军舰 9
农 9
农田 9
冰山一角 9
冲 9
冲绳 9
净资产 9
凌@@ 9
凝@@ 9
凡@@ 9
凶险 9
凸现 9
出乎意料 9
出口品 9
击中 9
分支机构 9
分析表明 9
分红 9
分道扬镳 9
刑 9
刚果民主共和国 9
创始 9
初级阶段 9
利夫 9
利比亚人 9
利用率 9
利益者 9
制成 9
刻 9
前几次 9
前来 9
前瞻 9
前行 9
剧 9
剧@@ 9
副手 9
办事处 9
功劳 9
加勒比地区 9
勒索 9
十大 9
千亿美元 9
升至 9
半导体 9
南沙群岛 9
南韩 9
卡德罗夫 9
卡拉 9
卡梅隆 9
卢布 9
去除 9
参数 9
友善 9
反差 9
反日 9
反面 9
发展前景 9
受害人 9
受挫 9
受援国 9
变更 9
古典 9
另一面 9
另辟蹊径 9
只得 9
叫@@ 9
叫嚣 9
可喜 9
可恶 9
台风 9
号召力 9
各有不同 9
合乎逻辑 9
合理化 9
合计 9
合谋 9
同侪 9
吞没 9
含糊 9
吵@@ 9
吸@@ 9
周小川 9
和平@@ 9
哈塔米 9
哥伦比亚革命武装力量 9
唤起 9
喀拉拉邦 9
喘息 9
嘴@@ 9
四天 9
四季度 9
回头 9
回想 9
固执 9
国家银行 9
国际清算银行 9
图谋 9
在家 9
在职 9
地产 9
地会 9
地用 9
地盘 9
地要 9
坑 9
坚固 9
坦 9
堪 9
塔克 9
增长势头 9
墨@@ 9
壳 9
处处 9
外交家 9
外科手术 9
多国 9
多数票 9
多钱 9
大加 9
大权 9
大错特错 9
天空 9
太子党 9
太小 9
失序 9
夷为平地 9
奈 9
奈@@ 9
奥萨马 9
奥运 9
女子 9
好好 9
好过 9
好运 9
如若 9
妊娠 9
姗姗来迟 9
威廉 9
威望 9
婚@@ 9
孕妇 9
字母 9
它@@ 9
官@@ 9
定论 9
宝 9
实际行动 9
审@@ 9
宣传攻势 9
宾@@ 9
宿命 9
对华贸易 9
对错 9
尊@@ 9
小岛 9
小镇 9
少量 9
尸体 9
尼察 9
尼琴 9
尾声 9
层出不穷 9
展 9
屠宰 9
岛上 9
岛国 9
崇拜者 9
嵌入 9
巡逻 9
工业@@ 9
工业国 9
工具箱 9
己 9
巴菲特 9
希尔 9
希霍夫 9
帮凶 9
幕僚 9
平权 9
并于 9
并存 9
幸免 9
幸灾乐祸 9
幸运地 9
幽灵 9
序幕 9
库尔德斯坦 9
应运而生 9
底部 9
废弃 9
庭 9
延误 9
建树 9
开办 9
开张 9
开车 9
弄巧成拙 9
引渡 9
录@@ 9
录得 9
彦 9
影 9
彼得 9
往来 9
征@@ 9
徒@@ 9
得当 9
得逞 9
德国马克 9
德尔 9
心血管 9
志同道合 9
忧@@ 9
快要 9
态@@ 9
思 9
总干事 9
总统制 9
悲观主义 9
想当然 9
想见 9
愈 9
憎恶 9
戈 9
戏 9
戏@@ 9
我会 9
战乱 9
战壕 9
戛然而止 9
户口 9
所持 9
所致 9
所要 9
扎实 9
扑灭 9
承担风险 9
投了 9
投放 9
投票站 9
投票箱 9
投票者 9
抗体 9
折衷 9
抢 9
抢@@ 9
担@@ 9
担负 9
拉马 9
拜访 9
拥@@ 9
拥护者 9
持久和平 9
指派 9
挤 9
挨饿 9
捐献者 9
捐赠者 9
损坏 9
损失惨重 9
换来 9
据信 9
排在 9
排量 9
控 9
控制力 9
控制线 9
掩护 9
提拔 9
提高产量 9
搜查 9
摄@@ 9
撤@@ 9
撤走 9
支票 9
收效甚微 9
放出 9
政治立场 9
效 9
教导 9
教材 9
教益 9
教育@@ 9
敞口 9
数据分析 9
数百人 9
敲响 9
整场 9
斗 9
断层 9
斯堪 9
新教徒 9
新闻网 9
旁边 9
无国界 9
无害 9
无果 9
无稽之谈 9
时数 9
时说 9
明知 9
昏@@ 9
昔 9
显 9
显现出来 9
智商 9
更改 9
替代者 9
最低点 9
有个 9
有益于 9
有见 9
有远见 9
服饰 9
期货 9
未知领域 9
未雨绸缪 9
末@@ 9
本地人 9
本届 9
本性 9
朱镕基 9
杂@@ 9
材 9
杜罗 9
杜马 9
杰 9
极尽 9
某项 9
柯@@ 9
标本 9
样 9
桶 9
楼@@ 9
榨取 9
横跨 9
欠@@ 9
次大陆 9
欢呼雀跃 9
欢欣鼓舞 9
欧安组织 9
欧洲共同 9
欺凌 9
欺骗性 9
歉收 9
正直 9
正确性 9
步子 9
步履维艰 9
残局 9
毁于一旦 9
母@@ 9
毒 9
毫不含糊 9
民族党 9
民生 9
水涨船高 9
水灾 9
水量 9
汉@@ 9
汉森 9
汽车@@ 9
沉溺于 9
沉闷 9
没人能 9
河@@ 9
油井 9
法律效力 9
法语 9
波特 9
泥淖 9
泰@@ 9
泽@@ 9
洪森 9
洲 9
派@@ 9
流产 9
流放 9
流言 9
流逝 9
浪 9
海报 9
海洋生物 9
海湾地区 9
消弭 9
消费水平 9
涉足 9
渐行 9
渔民 9
湖 9
滑稽 9
漫画 9
潘多拉 9
激化 9
火星 9
炮 9
烙印 9
烟@@ 9
烧@@ 9
照此 9
熟知 9
爆 9
版图 9
牵连 9
特里谢 9
狂欢 9
狡猾 9
猛 9
率领 9
环境@@ 9
玷污 9
班加西 9
理想化 9
琐碎 9
甚于 9
生命力 9
生命危险 9
用场 9
甲@@ 9
电力系统 9
电池板 9
电站 9
电视节目 9
畅销 9
疗效 9
病患 9
症结 9
痢疾 9
皇家 9
监督者 9
目 9
相似性 9
相对来说 9
相称 9
看清 9
看电视 9
真实情况 9
着@@ 9
着迷 9
知之甚少 9
矿 9
矿物 9
研究员 9
研讨会 9
砸 9
硬性 9
碎 9
社会秩序 9
祝贺 9
神权 9
票据 9
福利制度 9
离不开 9
离奇 9
私人机构 9
私立学校 9
种族歧视 9
科学@@ 9
秘书 9
积聚 9
称得上 9
移除 9
稍微 9
稳定器 9
稳步增长 9
穆 9
穆@@ 9
穆拉 9
穆特 9
究其原因 9
穿过 9
窥 9
童 9
童年 9
笑话 9
第@@ 9
第一届 9
第一项 9
第三世界 9
第三项 9
第二季度 9
第二点 9
简@@ 9
算得 9
米@@ 9
粉饰 9
粗@@ 9
粗略 9
紧缺 9
繁文缛节 9
繁重 9
约@@ 9
纽伦堡 9
终 9
终极目标 9
终生 9
经常帐户 9
经济体制 9
经验教训 9
维基 9
维持下去 9
绿灯 9
编@@ 9
编制 9
缴税 9
罗德里克 9
罚金 9
美中 9
美国共和党 9
美国参议院 9
美国士兵 9
美方 9
美苏 9
美英 9
耀武扬威 9
老练 9
而应 9
而行 9
耳 9
耶鲁大学 9
联储 9
联合会 9
联合声明 9
联赛 9
肉食 9
肥料 9
肩负着 9
背心 9
胜@@ 9
能效 9
脾气 9
自以为是 9
自决 9
自来水 9
自行车 9
至上 9
致裂法 9
舍@@ 9
航线 9
船上 9
良方 9
良知 9
艰辛 9
节日 9
花大 9
苏格兰人 9
英文 9
苹果公司 9
草率 9
荡 9
荷兰人 9
莱@@ 9
莱希 9
萨哈 9
落@@ 9
蒸汽机 9
蕴含 9
藐视 9
藩篱 9
行贿 9
街 9
衡量标准 9
表现出色 9
裁量权 9
装饰 9
西雅图 9
观望 9
解冻 9
警官 9
计划经济 9
认同感 9
议长 9
设计者 9
访华 9
评议 9
试 9
诱因 9
说道 9
课@@ 9
调停人 9
谋 9
谨小慎微 9
象@@ 9
贝鲁特 9
负责管理 9
财 9
败坏 9
货@@ 9
贪污 9
贫富 9
贫苦 9
费舍尔 9
资本金 9
赎回 9
赶不上 9
赶出 9
起飞 9
越久 9
趋于 9
跨过 9
身体健康 9
辆 9
辜负 9
辱 9
边@@ 9
过少 9
过渡性 9
过激 9
运 9
还款 9
这帮 9
这起 9
进军 9
进出口 9
进化论 9
进去 9
远景 9
迥然不同 9
迷你 9
追捕 9
追溯 9
退@@ 9
退休者 9
逃 9
逆 9
递减 9
途 9
造 9
逼迫 9
遗漏 9
遮@@ 9
那一刻 9
那套 9
部件 9
里奥 9
里程碑式 9
重夺 9
重整 9
重新配置 9
重蹈覆辙 9
金主 9
金价 9
金融家 9
针 9
针灸 9
钞 9
钥匙 9
钻@@ 9
铎 9
银@@ 9
锐减 9
错@@ 9
长度 9
门类 9
问@@ 9
问责性 9
间歇性 9
闻 9
防火墙 9
阴暗 9
阿拉伯地区 9
阿曼 9
陈水扁 9
限制性 9
陷 9
隐形 9
隐蔽 9
隔夜 9
难以承受 9
雄厚 9
雄心壮志 9
雅尔 9
集群 9
雪 9
雪@@ 9
需求量 9
露 9
非营利 9
顺@@ 9
顽疾 9
顿巴斯 9
预兆 9
频频 9
颓势 9
风潮 9
风电 9
飞地 9
餐 9
饮料 9
首领 9
马戏团 9
马拉维 9
马里奥 9
高加索地区 9
高度集中 9
鲜血 9
鸭 9
齐奥塞斯库 9
0.2 8
1300 8
1700 8
1900 8
1944 8
1964 8
2.0 8
2.8 8
240 8
3.3 8
3.7 8
5.1 8
5.6 8
5.@@ 8
6.8 8
69 8
77 8
911 8
96 8
AMLO 8
ESG 8
En@@ 8
FDP 8
G8 8
IC@@ 8
III 8
NGO 8
PISA 8
St@@ 8
TFP 8
U 8
X 8
ad 8
am 8
com 8
ent@@ 8
los 8
ra 8
í 8
一以贯之 8
一击 8
一分钱 8
一则 8
一千@@ 8
一旁 8
一无是处 8
一日 8
一月份 8
一栋 8
一桶 8
一流 8
一目了然 8
一般来说 8
一般而言 8
一蹴而就 8
一马当先 8
三十多年 8
三季度 8
三家 8
上半叶 8
上行 8
下决心 8
下半叶 8
下层 8
下才 8
不为人知 8
不动 8
不堪一击 8
不寒而栗 8
不相上下 8
不符 8
不约而同 8
不经意 8
不解 8
不论如何 8
专制政府 8
世界之最 8
世贸 8
东北 8
丢@@ 8
两度 8
两极 8
个人化 8
个人电脑 8
中介机构 8
中央@@ 8
中毒 8
中等教育 8
中西部 8
中间人 8
临@@ 8
临时政府 8
丹@@ 8
丹尼尔 8
丽@@ 8
之三 8
之梦 8
之类 8
之选 8
乌兹别克斯坦 8
乍 8
乐意 8
乔 8
乘坐 8
乙醇 8
九段 8
书中 8
了如指掌 8
二世 8
二十五年 8
二十多年 8
二者 8
于事无补 8
五国 8
亚斯 8
亡 8
交战 8
交换条件 8
交易系统 8
交易者 8
产业界 8
亮点 8
亲欧 8
亵渎 8
人员伤亡 8
人才@@ 8
人权记录 8
人生 8
什叶 8
仁慈 8
从业者 8
从政 8
仔细观察 8
他国 8
代码 8
令人厌恶 8
令人激动 8
令人费解 8
以求 8
以较 8
仪 8
仰仗 8
价格低廉 8
价格比 8
伊万 8
伊核 8
休战 8
优待 8
会起 8
传媒 8
传感器 8
伤口 8
伤痕 8
伯尼 8
伸@@ 8
伸张 8
低劣 8
低端 8
住@@ 8
体外受精 8
体量 8
佩 8
侧面 8
俄勒冈州 8
保全 8
保护@@ 8
保护性 8
信仰者 8
信守 8
信服 8
候选 8
借款者 8
假象 8
停电 8
偿付能力 8
僧侣 8
充分条件 8
兆 8
兆头 8
先是 8
先驱 8
克里@@ 8
全无 8
八国 8
公允 8
公共安全 8
公开信 8
公海 8
公用事业 8
公益 8
公立 8
公职人员 8
公营 8
六倍 8
六百万 8
兰德 8
共产 8
关上 8
兴旺 8
兴旺发达 8
兴衰 8
兼职 8
兼顾 8
内政部长 8
再也不能 8
军事援助 8
军演 8
冤@@ 8
决不 8
决策层 8
冷 8
几千 8
几小时 8
几无 8
出血 8
出错 8
击落 8
分发 8
分裂主义 8
切割 8
刑事@@ 8
划@@ 8
创 8
创下 8
创业精神 8
创业者 8
创新能力 8
创设 8
利雅得 8
刺@@ 8
刺耳 8
刻@@ 8
前一天 8
前所未见 8
前车之鉴 8
前进方向 8
办事 8
加勒比海 8
加大力度 8
务 8
劳作 8
劳动收入 8
勤@@ 8
包裹 8
化学@@ 8
北非地区 8
医师 8
医护人员 8
十分相似 8
十周年 8
千禧 8
单凭 8
卖淫 8
南极洲 8
南辕北辙 8
博尔顿 8
博科 8
卡尔@@ 8
卡尼 8
历任 8
历史@@ 8
历届 8
原状 8
去@@ 8
去年同期 8
去核 8
县 8
双胞胎 8
反倾销 8
反制 8
反型 8
反省 8
反转 8
发人深省 8
发展势头 8
发明者 8
发觉 8
变本加厉 8
口中 8
口头上 8
口气 8
口诛笔伐 8
古柯 8
句 8
另一@@ 8
只顾 8
可兑换 8
可兑换性 8
可惜 8
可知 8
台面 8
吃紧 8
各层次 8
各有 8
同类 8
含 8
听任 8
启蒙 8
吸毒者 8
告急 8
周旋 8
周边地区 8
哈特 8
哥 8
哥伦比亚政府 8
哪条 8
唯恐 8
唾弃 8
喀@@ 8
喊 8
四名 8
国力 8
国在 8
国境 8
国有银行 8
国民@@ 8
国民会议 8
图片 8
圣彼得堡 8
在场 8
地址 8
地站 8
均@@ 8
坏处 8
坐下 8
坚韧 8
垫底 8
埋 8
埋葬 8
城市群 8
城市规划 8
基因@@ 8
基建 8
基本法 8
基督教徒 8
基础性 8
堡 8
堵住 8
境 8
增 8
墨西哥城 8
复 8
复发 8
外贸 8
多亿美元 8
多变 8
多岁 8
多管齐下 8
夜@@ 8
夜晚 8
大举 8
大受欢迎 8
大法官 8
大英帝国 8
大街 8
大豆 8
大都市 8
天下 8
天平 8
太快 8
太迟 8
太阳@@ 8
夸@@ 8
奥尔特加 8
奶牛 8
好几个 8
好斗 8
好日子 8
姆林宫 8
婚 8
嫌疑 8
子虚乌有 8
孔@@ 8
字眼 8
孙 8
季@@ 8
孤儿 8
学前教育 8
宁@@ 8
安保 8
安全@@ 8
安全措施 8
安然 8
安理会常任理事国 8
宏观政策 8
宗旨 8
官司 8
定于 8
宝莱坞 8
实地 8
实权 8
宣传@@ 8
宣判 8
宣布独立 8
家们 8
家伙 8
容易接受 8
宿@@ 8
寄@@ 8
导师 8
导演 8
封信 8
封禁 8
尊重人权 8
小小的 8
尘埃落定 8
尼古拉 8
尼罗河 8
尽量减少 8
屋 8
工业部门 8
工艺 8
巨大进步 8
巴伐利亚 8
巴西人 8
市政府 8
布达佩斯 8
师@@ 8
希德 8
帐户 8
幅 8
幌子 8
平和 8
平板 8
年纪 8
并发症 8
幼儿 8
广为 8
广泛应用 8
庆典 8
床@@ 8
度量 8
建模 8
建筑@@ 8
开幕式 8
弄清 8
弄清楚 8
弓形虫 8
引人入胜 8
引起争议 8
弗@@ 8
弱国 8
弱者 8
归为 8
归入 8
当地人 8
当真 8
形同虚设 8
往事 8
径 8
很久 8
很久以前 8
徒劳地 8
得不偿失 8
得来 8
微观经济 8
德克萨斯州 8
德米特里 8
心声 8
心怀不满 8
心理@@ 8
心理健康 8
心知肚明 8
忏悔 8
怀疑者 8
思潮 8
性取向 8
怪诞 8
总产值 8
恨 8
恰@@ 8
恶棍 8
恶行 8
悬@@ 8
悬念 8
悲观者 8
情报@@ 8
惊喜 8
惧怕 8
愚不可及 8
感染者 8
愤慨 8
战斗@@ 8
截@@ 8
所学 8
手持 8
手指 8
手机@@ 8
打断 8
打电话 8
执行者 8
扩张政策 8
扫除 8
抓@@ 8
投射 8
投票表决 8
投资额 8
抗抑郁 8
抚养 8
抵@@ 8
抵抗力 8
拉斯维加斯 8
拍 8
拍@@ 8
拒之门外 8
拘禁 8
拨乱反正 8
拨付 8
拱手 8
拿@@ 8
按时 8
捉襟见肘 8
捐献 8
控@@ 8
控股公司 8
推文 8
推波助澜 8
推算 8
措手不及 8
提振@@ 8
提问 8
揭开 8
搬@@ 8
搭建 8
携@@ 8
摇@@ 8
摊牌 8
摸@@ 8
撒 8
撒@@ 8
撞@@ 8
撬动 8
操@@ 8
操作系统 8
支 8
收成 8
攻击性 8
攻讦 8
放之四海而皆准 8
政府首脑 8
效能 8
敌@@ 8
敌对势力 8
敢@@ 8
散布 8
散播 8
数万 8
数个 8
数以 8
数十个 8
数千亿美元 8
数千年 8
数据@@ 8
数次 8
文化@@ 8
文化遗产 8
文职 8
料 8
料@@ 8
斯塔 8
斯雷 8
新晋 8
新能源 8
新车 8
新闻界 8
方才 8
旅@@ 8
无怪乎 8
无意识 8
无穷 8
无穷的 8
无聊 8
日前 8
日报 8
时为 8
明朗 8
显例 8
显现出 8
显眼 8
晚上 8
晦涩 8
景气 8
曲 8
更佳 8
更差 8
曼努埃尔 8
曾任 8
替代性 8
替代物 8
最少 8
最差 8
最重 8
最高峰 8
有朝一日 8
服刑 8
本拉登 8
本轮 8
杀人@@ 8
杜鲁门 8
束之高阁 8
来之不易 8
杯 8
板@@ 8
板上钉钉 8
极小 8
极难 8
果敢 8
某国 8
栏 8
核实 8
核心@@ 8
梳理 8
植入 8
植树 8
模@@ 8
模范 8
欣喜 8
欧亚大陆 8
欧洲式 8
歇 8
止@@ 8
正轨 8
此时此刻 8
武@@ 8
武装部队 8
残留 8
殖民化 8
母国 8
每况愈下 8
比前 8
毛里求斯 8
毫无希望 8
毫无用处 8
民主运动 8
民事 8
水污染 8
求职 8
汇@@ 8
汇报 8
汗 8
污染物 8
汹涌 8
没人会 8
沿 8
法国社会党 8
波利 8
浅 8
海洛因 8
海牙 8
涨势 8
涵义 8
深重 8
清晰可见 8
渎职 8
渐远 8
渔船 8
港@@ 8
漏 8
潘@@ 8
潮@@ 8
激@@ 8
激动 8
激动人心 8
火药桶 8
灭 8
灾后 8
炸毁 8
点击 8
烟雾 8
煤矿 8
照看 8
煽风点火 8
爱尔兰人 8
版权 8
特工 8
特立独行 8
特纳 8
特里 8
特雷斯 8
犯有 8
狂@@ 8
独家 8
独立国家 8
狱中 8
玩具 8
环绕 8
现代性 8
现代科学 8
现实主义者 8
现政府 8
玻利瓦尔 8
珍珠港 8
瑞@@ 8
甚广 8
生命周期 8
生成 8
用以 8
甩卖 8
田 8
由谁来 8
留学 8
疏忽 8
疯子 8
疼痛 8
痛恨 8
癌 8
百万@@ 8
百分之@@ 8
皇@@ 8
益 8
盛@@ 8
目@@ 8
直接对话 8
相冲突 8
相差 8
相等 8
眼球 8
知觉 8
短信 8
石头砸 8
硬币 8
礼@@ 8
社会主义者 8
社会学家 8
祖@@ 8
神圣不可 8
神经元 8
禁区 8
离@@ 8
秉承 8
科巴 8
科技进步 8
科特迪瓦 8
积极主动 8
积蓄 8
称@@ 8
称作 8
称道 8
程序员 8
税负 8
稿 8
穆加贝 8
空气质量 8
空穴来风 8
穿着 8
突击 8
突如其来 8
窃听 8
笃定 8
符合中国 8
第一类 8
第一线 8
第一轮 8
第四@@ 8
等候 8
答 8
筹措 8
管控 8
米切尔 8
米哈伊尔 8
类@@ 8
粮食价格 8
精 8
精准 8
精神@@ 8
精神病学 8
精诚合作 8
紧@@ 8
紧迫感 8
繁衍 8
红色 8
红色高棉 8
红衣主教 8
纪录片 8
纳尔逊 8
纳瓦尔 8
线性 8
经济大国 8
经济成就 8
经济特区 8
绝对多数 8
绝缘 8
继之 8
编码 8
缺乏经验 8
缺席 8
缺水 8
罗亚尔 8
罚 8
美中关系 8
美国国务院 8
美国国防部 8
美国大使馆 8
美好未来 8
群@@ 8
翻版 8
考虑一下 8
耕地 8
耕种 8
耳熟能详 8
聒噪 8
联想起 8
聘请 8
聚@@ 8
股票交易 8
肥胖率 8
育 8
肾脏 8
胆敢 8
背@@ 8
背弃 8
胜负 8
腾出 8
腾挪 8
臣民 8
自然@@ 8
自然界 8
自称为 8
自诩 8
舍 8
航行 8
色@@ 8
艺术品 8
节俭 8
芬 8
苏尔 8
英尺 8
草@@ 8
荣 8
获@@ 8
菅直 8
菲@@ 8
落幕 8
著 8
葬送 8
蒂@@ 8
蒙混过关 8
蓄意 8
蓝@@ 8
蓬佩奥 8
蔡 8
薪 8
蛊惑 8
融 8
行政部门 8
行政长官 8
行程 8
补救措施 8
被誉为 8
裂变 8
裙带 8
要数 8
覆灭 8
规模较 8
视之为 8
视线 8
触目惊心 8
言简意赅 8
计@@ 8
议事日程 8
议席 8
记账 8
讲@@ 8
讲座 8
访 8
证券市场 8
证词 8
识 8
识别区 8
诊疗 8
话@@ 8
诟病 8
该地 8
误读 8
诱发 8
诸如此类 8
谈判代表 8
谓 8
谢@@ 8
贝克 8
贝鲁 8
财年 8
财政支出 8
责难 8
败@@ 8
账 8
账目 8
贫困地区 8
资金流 8
赖斯 8
赢@@ 8
走入 8
走强 8
走极端 8
赶紧 8
起义军 8
起效 8
超市 8
越走越远 8
趋向于 8
趸 8
跛脚 8
跟着 8
路易斯 8
轨 8
转变成 8
轮@@ 8
轮流 8
软@@ 8
软肋 8
轻蔑 8
载 8
较长 8
输入国 8
辞 8
迈 8
运@@ 8
返@@ 8
这一@@ 8
进口量 8
远大 8
违宪 8
连同 8
连贯性 8
迟 8
迥异 8
迪人 8
迷@@ 8
适龄 8
选中 8
透支 8
逐一 8
逐年 8
途经 8
通关 8
通力合作 8
通行 8
遍 8
遗留 8
遵守规则 8
避免出现 8
避孕 8
那年 8
邦联 8
酋长国 8
酒 8
酒@@ 8
采取有效 8
重写 8
重归 8
重担 8
重新加入 8
重油 8
重负 8
重量级 8
野@@ 8
量子 8
金库 8
金融资本 8
钟 8
钢@@ 8
银行信用 8
销往 8
锡 8
锻炼 8
门户 8
闭门 8
问道 8
闲 8
队长 8
防护 8
阴@@ 8
阴谋论 8
阿勒颇 8
阿尔巴尼亚人 8
阿拉伯联盟 8
附@@ 8
陆上 8
降幅 8
险@@ 8
隧道 8
难上加难 8
难以忍受 8
难以预料 8
难度很大 8
集体利益 8
雕像 8
零售业 8
零部件 8
震撼 8
霍@@ 8
霍华德 8
露出 8
静 8
非军事 8
非经济 8
非西方 8
非贸易 8
靠@@ 8
面对面 8
革命@@ 8
鞋 8
韩国政府 8
顶点 8
预警系统 8
领事馆 8
领会 8
颇受欢迎 8
颗粒物 8
飞行 8
饮水 8
香@@ 8
马哈茂德 8
马尔@@ 8
马首是瞻 8
骄傲地 8
高分 8
高危 8
高性价比 8
高谈阔论 8
鬼 8
鲍@@ 8
鸡@@ 8
麻木不仁 8
黎巴嫩真主党 8
黎明 8
黑洞 8
默@@ 8
默罕 8
鼓@@ 8
1.25 7
1200 7
124 7
190@@ 7
1910 7
1936 7
1937 7
1965 7
320 7
360 7
4.6 7
6.3 7
6.4 7
6.9 7
8.5 7
86 7
87 7
9.11 7
9000 7
93 7
94 7
Am@@ 7
BRCA1 7
BRCA2 7
CBO 7
CDU 7
CPI 7
CRA 7
ECT 7
EID 7
MD@@ 7
MENA 7
NTC 7
Pr@@ 7
Re@@ 7
SA@@ 7
SC@@ 7
SNCF 7
SPD 7
SWIFT 7
TC 7
YouTube 7
Z@@ 7
ah@@ 7
and@@ 7
ica 7
ie 7
if@@ 7
ill@@ 7
im 7
im@@ 7
la 7
om@@ 7
p 7
ta 7
to 7
ul@@ 7
um@@ 7
us@@ 7
ó 7
一举 7
一书中 7
一到 7
一千年 7
一半左右 7
一大堆 7
一头 7
一律 7
一愿景 7
一成不变 7
一扇 7
一杯 7
一步步 7
一派 7
一清二楚 7
一票 7
一端 7
一股脑儿 7
一般性 7
一败涂地 7
一页 7
丁@@ 7
七国集团 7
万亿元 7
万张 7
三十 7
三天 7
上游 7
上瘾 7
上网 7
上街 7
上议院 7
下会 7
下列 7
不上 7
不下 7
不以 7
不休 7
不便 7
不可不 7
不同之处 7
不大 7
不尽 7
不尽人意 7
不曾 7
不稳 7
不罚 7
不胜枚举 7
不能不 7
不良后果 7
不见@@ 7
不谋而合 7
不通 7
专利申请 7
专家组 7
专属 7
丘 7
东盟国家 7
两份 7
两地 7
两大阵营 7
两样 7
两面 7
中国外交部 7
中国银行 7
中小型 7
中年 7
中所起 7
为名 7
主导作用 7
主观 7
主食 7
乃 7
之低 7
之国 7
之数 7
之母 7
之火 7
之物 7
之窗 7
乍得 7
乘@@ 7
九牛一毛 7
买不起 7
买得起 7
乱伦 7
争论不休 7
事与愿违 7
事关重大 7
互相冲突 7
五十 7
亚的斯亚贝巴 7
亚美尼亚人 7
亚齐 7
亟待 7
亟待解决 7
交付 7
交火 7
交通拥堵 7
交通运输 7
产品@@ 7
亲密关系 7
人死于 7
人比 7
人流 7
人类文明 7
人行 7
人身 7
介@@ 7
从那时起 7
付给 7
仙@@ 7
代言人 7
令人咋舌 7
令人欣慰 7
令人窒息 7
以极 7
任何迹象 7
份量 7
仿制 7
休 7
休眠 7
众人 7
众人皆知 7
众筹 7
众说纷纭 7
优先权 7
伟人 7
传 7
伪造 7
但他却 7
低得 7
低速 7
住宿 7
作出反应 7
佣金 7
佬 7
供求 7
依赖性 7
侥幸 7
侯选人 7
侵@@ 7
便捷 7
俄军 7
俄罗斯联邦 7
俄美 7
俄语 7
保单 7
保持良好 7
信件 7
信息处理 7
修辞 7
倍@@ 7
借来 7
债转股 7
假如 7
健@@ 7
僵硬 7
兀鹫 7
充@@ 7
充满信心 7
先行者 7
光环 7
光辉 7
光鲜 7
克里斯 7
克雅 7
全天候 7
全年 7
全权 7
全面战争 7
公共场合 7
公告 7
六大 7
关键技术 7
兴奋剂 7
具体@@ 7
具体地说 7
具体情况 7
具体措施 7
养 7
养家糊口 7
兼而有之 7
内乱 7
再有 7
再造 7
冠@@ 7
冬奥会 7
冰雪 7
冲击波 7
冲浪 7
决定权 7
决策机构 7
况 7
冷淡 7
净@@ 7
减灾 7
几分钟 7
几十亿 7
几千年 7
几百万 7
凡 7
凯南 7
出众 7
出兵 7
出其 7
出名 7
出逃 7
分解 7
切中要害 7
刑罚 7
划时代 7
划清界限 7
列宁主义 7
列岛 7
列车 7
创新型 7
创造性地 7
判 7
利亚@@ 7
利害关系 7
利库德 7
利用@@ 7
到此为止 7
制宪会议 7
制药业 7
制衣 7
刺 7
刻板 7
剑桥 7
副行长 7
割礼 7
力挽狂澜 7
办公 7
加以解决 7
加尔@@ 7
务农 7
劣@@ 7
动手 7
勇于 7
募集 7
勾@@ 7
匆忙 7
北大西洋 7
北极圈 7
北溪 7
区内 7
十二月 7
十六 7
千里 7
半叶 7
半年 7
华为 7
卓@@ 7
单向 7
博士学位 7
卡拉奇 7
卡斯 7
卫@@ 7
卫星电视 7
卫生部长 7
卫生部门 7
印刷@@ 7
印记 7
印钞机 7
危急 7
即使如此 7
即将来临 7
卵 7
卵@@ 7
厄立特里亚 7
厉害 7
厚@@ 7
原定 7
原油价格 7
参战 7
双轨 7
反导 7
反射 7
反正 7
反犹太 7
发展壮大 7
发放贷款 7
发行人 7
取舍 7
受助 7
受审 7
变换 7
口吻 7
另一回事 7
另一家 7
只用 7
台@@ 7
右@@ 7
各路 7
合意 7
合资企业 7
吉尔吉斯斯坦 7
同伴 7
名额 7
后备 7
后天 7
后腿 7
后遗症 7
向东 7
向南 7
吕@@ 7
君主制 7
否 7
周日 7
咆哮 7
和平时期 7
哈利波 7
哈里里 7
哥@@ 7
哥伦比亚大学 7
哮喘 7
哺育 7
售@@ 7
唯 7
唾手可得 7
商务旅行 7
商学院 7
喜 7
喜不喜欢 7
喝彩 7
喷@@ 7
嘲弄 7
噪音 7
囊中羞涩 7
回响 7
因果 7
园 7
困于 7
困难性 7
围墙 7
国境线 7
国营企业 7
国际刑警组织 7
圈子 7
土库曼斯坦 7
土豆 7
圣诞 7
在所难免 7
在校 7
地上 7
地区冲突 7
地去 7
地方性 7
地球@@ 7
地面部队 7
场@@ 7
坎帕拉 7
坚强 7
坦然 7
垃圾@@ 7
埃及政府 7
埋下 7
城乡 7
城市@@ 7
城镇化 7
培 7
基斯 7
基督 7
基线 7
塔吉克斯坦 7
填@@ 7
境遇 7
壮举 7
处死 7
复合 7
复活 7
夏威夷 7
外交活动 7
外援 7
外汇管制 7
外面 7
多条 7
多长时间 7
大不@@ 7
大同 7
大同小异 7
大声疾呼 7
大幅度提高 7
大幅度降低 7
大户 7
大楼 7
大灾难 7
大肆宣传 7
大象 7
天分 7
天赐 7
失业工人 7
失学 7
头痛 7
奋起 7
奖@@ 7
奢华 7
奢望 7
奥巴桑乔 7
好人 7
好奇 7
如法炮制 7
妄@@ 7
姊妹 7
嫉妒 7
嫌疑人 7
存续 7
孟@@ 7
季节性 7
学术研究 7
学说 7
安乐死 7
安全套 7
完@@ 7
完全相同 7
完工 7
完毕 7
宗@@ 7
官邸 7
实属 7
客人 7
家务 7
家门口 7
密集度 7
富足 7
寒 7
察@@ 7
对前 7
对朝 7
对称性 7
寻@@ 7
寿终正寝 7
封 7
射击 7
小丑 7
尔斯 7
尸@@ 7
尼古丁 7
尽全力 7
尽失 7
尾 7
山区 7
岁入 7
崩塌 7
工作@@ 7
左@@ 7
巧 7
差强人意 7
已达 7
巴切 7
巴斯克 7
布基纳法索 7
布鲁@@ 7
希腊@@ 7
帕特尔 7
帖子 7
席尔瓦 7
帮@@ 7
常规武器 7
干部 7
平凡 7
平均工资 7
平坦 7
平等主义 7
年复一年 7
年率 7
年级 7
年薪 7
年限 7
并不相同 7
并不知道 7
并不等于 7
并肩作战 7
并驾齐驱 7
幼@@ 7
广为人知 7
广泛支持 7
应税 7
底特律 7
店@@ 7
庞@@ 7
废 7
废气 7
廷@@ 7
建筑物 7
开口 7
开幕 7
异教徒 7
弗朗西斯 7
强于 7
当属 7
当权 7
录音 7
形状 7
彭斯 7
往返 7
征兆 7
很多年 7
很深 7
很能 7
德克萨斯 7
德意志银行 7
德拉克马 7
德鲁兹 7
心想 7
志@@ 7
怀有敌意 7
怒@@ 7
急不可耐 7
急性 7
性关系 7
性生活 7
怨 7
怨气 7
怪圈 7
总书记 7
总供给 7
总司令 7
恒@@ 7
恢复过来 7
息@@ 7
恰如其分 7
悄然 7
悲@@ 7
情商 7
情节 7
惨@@ 7
惯用 7
愈发 7
感冒 7
慈善家 7
慎之又慎 7
懒得 7
懦弱 7
戈兰高地 7
戒烟 7
战俘 7
战略决策 7
战略地位 7
战略思维 7
战略武器 7
房地产业 7
房间 7
所幸 7
所得税率 7
所欠 7
所称 7
所述 7
打通 7
扔 7
执业 7
扫地 7
扫描 7
扬言 7
承压 7
抓捕 7
投下 7
投身 7
折旧 7
护 7
护@@ 7
披@@ 7
抬升 7
抱有幻想 7
押注 7
抽出 7
拉伊 7
拉合尔 7
招 7
拜@@ 7
拥堵 7
拨 7
拳@@ 7
拷打 7
拼@@ 7
持久战 7
持股 7
挑衅性 7
挖 7
挡 7
挣钱 7
挥舞 7
振@@ 7
振奋 7
挺 7
捐@@ 7
掉@@ 7
掌 7
排外主义 7
探底 7
接任 7
接受者 7
接手 7
接收国 7
控制系统 7
控股 7
推举 7
推动者 7
推升 7
推定 7
推手 7
推特上 7
提早 7
插曲 7
握 7
握手 7
援助国 7
揽 7
携 7
摇身一变 7
播@@ 7
播下 7
播放 7
支持性 7
收受 7
收敛 7
收税 7
改观 7
改革家 7
放过 7
政敌 7
政治局势 7
政治局面 7
故乡 7
效法 7
敌对行动 7
敌方 7
教士 7
敞开 7
敬@@ 7
敬畏 7
数以亿计 7
数千万 7
数百亿美元 7
敲诈 7
文化冲突 7
文化差异 7
文明@@ 7
文本 7
断定 7
斯坦 7
斯坦@@ 7
斯宾塞 7
新低 7
新闻标题 7
新颖 7
施舍 7
旁@@ 7
旅 7
族@@ 7
无可@@ 7
无可救药 7
无奈 7
无异 7
无情地 7
无懈可击 7
无法无天 7
无缝 7
无限量 7
既得利益者 7
日本自卫队 7
日程表 7
早年 7
旱@@ 7
时光 7
晚@@ 7
普通百姓 7
普遍现象 7
景观 7
暖@@ 7
暗物质 7
暴 7
曲解 7
更多人 7
更慢 7
更要 7
曼昆 7
最出色 7
最前沿 7
最惠国 7
最高值 7
有名 7
有权有势 7
有线电视 7
有误 7
有过之而无不及 7
有钱 7
期望值 7
期货市场 7
木薯 7
未有 7
末尾 7
本可 7
本年度 7
机会成本 7
机动 7
权贵 7
条路 7
杯水车薪 7
杰克 7
杰哈德 7
板块 7
极其重要 7
果 7
枷锁 7
标 7
标榜 7
核电厂 7
格里 7
桎梏 7
桑 7
桩 7
梅德 7
检@@ 7
欢庆 7
欧洲经济共同体 7
歌手 7
正值 7
正向 7
正是如此 7
正视 7
武断 7
母 7
母乳喂养 7
母婴 7
毒枭 7
比比皆是 7
毫不掩饰 7
氏病 7
民族团结 7
民族自决 7
民族英雄 7
民族运动 7
氟 7
氧化 7
氮 7
水体 7
汇 7
江泽民 7
沃森 7
沉@@ 7
沉重打击 7
沥青 7
治安 7
洋@@ 7
洪流 7
洪都拉斯 7
活体 7
活生生 7
流派 7
浑@@ 7
消@@ 7
消耗量 7
消融 7
消费市场 7
涨价 7
深化改革 7
混合体 7
温斯顿 7
湄公河 7
滑 7
滑入 7
滞胀 7
漏洞百出 7
潜意识 7
灯 7
灵丹妙药 7
点对点 7
烈士 7
烧 7
热衷 7
照@@ 7
照护 7
熊 7
熊彼特 7
爱好者 7
父母亲 7
爸爸 7
牛津大学 7
牢靠 7
特蕾莎 7
特许 7
特鲁多 7
犀牛 7
犯@@ 7
犯罪集团 7
犹太复国 7
狂潮 7
独立战争 7
狮子 7
猛然 7
猜疑 7
率@@ 7
王@@ 7
玛 7
环境影响 7
现@@ 7
现代史 7
现实生活 7
珠三角 7
班加罗尔 7
理想主义者 7
瑟 7
甜叶菊 7
生产方式 7
生根 7
生死存亡 7
生活@@ 7
生物@@ 7
用意 7
田东 7
电子游戏 7
电能 7
畅通 7
略@@ 7
畸形 7
疏散 7
疑 7
疑@@ 7
病情 7
病痛 7
登陆 7
白色 7
皇 7
盆地 7
监管部门 7
盗取 7
盛会 7
目光短浅 7
盯 7
盲人 7
直指 7
直白 7
直言不讳 7
相伴 7
相处 7
盼望 7
真实性 7
真心实意 7
真菌 7
知@@ 7
知识经济 7
石油工业 7
码 7
硬@@ 7
碰@@ 7
碰巧 7
碳化物 7
礼 7
礼仪 7
社 7
社会变革 7
社会效益 7
社会规范 7
神宫 7
神经@@ 7
票价 7
票数 7
禁毒 7
禁锢 7
离心离德 7
禽流感 7
私下里 7
私密 7
科斯 7
科米 7
称不上 7
称霸 7
移@@ 7
稀土 7
稀缺资源 7
稀释 7
税款 7
税金 7
稳妥 7
稳定下来 7
穷@@ 7
空军基地 7
突显 7
窘迫 7
竖起 7
竞标 7
笃信 7
笔记本电脑 7
第一份 7
第一家 7
第一手 7
第三支 7
第二位 7
第二步 7
第二阶段 7
笼子 7
筹划 7
签名 7
管理体系 7
米兰 7
米尔 7
粗俗 7
粗鲁 7
精密 7
精简 7
紧紧抓住 7
累进税 7
红 7
约定 7
纵使 7
纵向 7
纸@@ 7
组@@ 7
细 7
终究 7
经济基础 7
经济学界 7
经济负担 7
经理人 7
结 7
绕 7
绘制 7
绝无 7
统计学家 7
统计局 7
维克多 7
维利 7
维茨基 7
绿皮书 7
缔结 7
编程 7
缝@@ 7
缩@@ 7
网络@@ 7
罗夫 7
罗姆 7
罪@@ 7
羊 7
美国最高法院 7
美国法院 7
美国联邦储备委员会 7
美墨 7
美好生活 7
老派 7
老鼠 7
而大受 7
而论 7
耐 7
耗竭 7
耶西 7
联军 7
联动 7
联合利华 7
联合国粮农组织 7
肤色 7
肯尼亚政府 7
背书 7
背离 7
胎 7
胡塞 7
胡斯尼 7
能源业 7
脱口秀 7
腐败现象 7
膳食 7
自然科学 7
自由落体 7
至高无上 7
舒@@ 7
航 7
船长 7
良心 7
艾 7
艾哈迈德 7
节约型 7
花园 7
苏格拉底 7
苦 7
苦果 7
英勇 7
莫属 7
莫拉 7
莫迪@@ 7
莱恩 7
莱特 7
菜 7
营业 7
萨特 7
落后地区 7
落空 7
蒸发 7
虚@@ 7
虚张声势 7
行驶 7
衣@@ 7
衰竭 7
衰败 7
被迫辞职 7
裁 7
裁减 7
裁判 7
西北 7
西太平洋 7
西方式 7
要挟 7
规@@ 7
规划者 7
规矩 7
觉 7
触底 7
言下之意 7
警 7
警@@ 7
计票 7
讯息 7
许多年 7
设 7
诀窍 7
评论者 7
识字 7
该书 7
该行 7
误 7
误算 7
说明性 7
诸@@ 7
调查报告 7
调查者 7
调研 7
调节税 7
谈@@ 7
谈不上 7
豪赌 7
负反馈 7
负有责任 7
财产权 7
财产税 7
财政困难 7
财政预算 7
败北 7
贫乏 7
购买者 7
购物中心 7
贵@@ 7
贷给 7
资源管理 7
资金不足 7
赞助者 7
走弱 7
起伏 7
起先 7
起始 7
超重 7
趋紧 7
足球场 7
足额 7
跌至 7
距 7
跨部门 7
路子 7
跳出 7
身在 7
身高 7
车道 7
转到 7
轮廓 7
载@@ 7
载体 7
辅导 7
输送到 7
辩称 7
边境线 7
达乌德 7
达尔文主义 7
迁 7
过多地 7
过失 7
过山车 7
过得 7
迈尔 7
运输成本 7
这三大 7
这则 7
这张 7
这股 7
这边 7
进口产品 7
进口商 7
远不如 7
远期 7
连通 7
迟疑 7
迟钝 7
迫于 7
述 7
迷 7
追@@ 7
追究 7
送给 7
适宜 7
逃生 7
选举人 7
透明化 7
通吃 7
逼 7
遇 7
道德@@ 7
道德观 7
遗址 7
遵照 7
那儿 7
那般 7
都市 7
都柏林 7
配偶 7
酷刑 7
酸 7
采@@ 7
采蝇 7
采集 7
释放出来 7
里克 7
重新@@ 7
重新制定 7
重新启动 7
重生 7
重重困难 7
金字塔 7
金枪鱼 7
鉴定 7
钢铁业 7
钱包 7
锅 7
镜 7
镜子 7
长城 7
闪@@ 7
问一问 7
间@@ 7
防 7
防御能力 7
阶梯 7
阿以 7
阿列克谢 7
阿拉伯半岛 7
阿根廷政府 7
阿马 7
陆续 7
陶醉 7
陷入僵局 7
隆@@ 7
随便 7
隐喻 7
隐秘 7
难以克服 7
难以确定 7
难以预测 7
难受 7
难点 7
雀巢公司 7
集会自由 7
零星 7
雷杰普 7
震中 7
非关税壁垒 7
非常容易 7
非法活动 7
非盟 7
靠边站 7
面值 7
面子 7
面纱 7
韦@@ 7
韩朝 7
音乐会 7
顶部 7
顺便 7
顺应 7
顾 7
顾名思义 7
顾忌 7
领头羊 7
领导权 7
领海 7
颗 7
颠倒 7
食品@@ 7
馆 7
首肯 7
马佐维耶茨基 7
马尔萨斯 7
马约 7
骑士 7
骤降 7
高效率 7
高龄 7
魔法 7
鱼群 7
鲸鱼 7
鸟类 7
鸡蛋 7
鹿 7
麦 7
黄豆 7
黄金价格 7
黑天鹅 7
黑社会 7
齐聚 7
龄 7
1100 6
125 6
1600 6
16@@ 6
17.@@ 6
1789 6
190 6
1907 6
1916 6
1917 6
192 6
1920 6
2028 6
210 6
370 6
4.1 6
6.6 6
6.7 6
650 6
7.6 6
7500 6
850 6
9.@@ 6
950 6
Af@@ 6
Ah@@ 6
And@@ 6
BJP 6
BR@@ 6
CA 6
CAFTA 6
CB@@ 6
EA 6
FA 6
FSB 6
G2 6
GPS 6
Google 6
IP@@ 6
In@@ 6
JP 6
MGI 6
Mar@@ 6
OPEC 6
REDD 6
SD@@ 6
SNB 6
Sp@@ 6
Tr@@ 6
UGHE 6
Y@@ 6
ash@@ 6
em@@ 6
it 6
ob@@ 6
oo@@ 6
ov 6
ow@@ 6
que 6
ro@@ 6
us 6
z 6
° 6
一丁点 6
一两个 6
一剂 6
一国两制 6
一大部分 6
一对一 6
一帮 6
一期 6
一次次 6
一步之遥 6
一空 6
一窥 6
一职 6
一长串 6
七月份 6
三世 6
三周 6
三条 6
三管齐下 6
三边 6
三难 6
上司 6
上旬 6
上级 6
上述情况 6
下周 6
下场 6
下届 6
下放 6
下结论 6
下载 6
下达 6
不为 6
不为过 6
不予 6
不人道 6
不以为然 6
不光 6
不可收拾 6
不同点 6
不太会 6
不失为 6
不如@@ 6
不定 6
不得@@ 6
不择手段 6
不放 6
不时 6
不相干 6
不祥 6
不称职 6
不耐烦 6
不见 6
不起眼 6
不难看出 6
丑恶 6
专 6
专属经济区 6
世上 6
业界 6
丛林 6
丝@@ 6
丝路 6
两大党 6
两性 6
两极化 6
两轮 6
两面性 6
严厉批评 6
严格遵守 6
丧@@ 6
个人信息 6
个人行为 6
中仅 6
中以 6
中伤 6
中型 6
中层 6
中日关系 6
临界 6
为数不多 6
为时未晚 6
主导型 6
主持人 6
主旨 6
举足轻重 6
之位 6
之友 6
之心 6
之风 6
乌云 6
乌克兰政府 6
乌斯 6
乐土 6
书店 6
买下 6
争 6
争取时间 6
争夺战 6
事务@@ 6
事务所 6
二十亿 6
于是乎 6
互助 6
互相矛盾 6
五亿 6
五名 6
五年期 6
五百万 6
五花八门 6
亚伯拉罕 6
亚太经合组织 6
亟需 6
交通事故 6
亦非 6
产业@@ 6
产假 6
产科 6
亨廷顿 6
亨萨林 6
亲爱 6
人性化 6
人文学科 6
人用 6
人种 6
人要 6
仅以 6
今年初 6
仍有 6
从此以后 6
付息 6
代之以 6
代币 6
代表权 6
令人兴奋 6
以供 6
以待 6
以至 6
以色列国 6
仰@@ 6
件@@ 6
价格指数 6
任何理由 6
任重道远 6
企@@ 6
企业主 6
企业倒闭 6
伊斯兰堡 6
伊玛姆 6
优惠@@ 6
优柔寡断 6
优步 6
优越性 6
伟大领袖 6
传出 6
传授 6
传送 6
低垂 6
低头 6
低息贷款 6
低落 6
佐利克 6
体育赛事 6
佛罗里达 6
作出贡献 6
佩戴 6
使出 6
使用权 6
使该 6
供应者 6
依存 6
依存度 6
依附 6
侵略者 6
促@@ 6
俄罗斯@@ 6
保值 6
保留意见 6
信心危机 6
信誉度 6
修昔底 6
修道院 6
俱@@ 6
候@@ 6
借出 6
债@@ 6
值得尊敬 6
做能 6
停下 6
偶像 6
偷渡 6
偷猎 6
储蓄@@ 6
储贷 6
僵持 6
儿@@ 6
元凶 6
充分考虑 6
充沛 6
光芒 6
克鲁@@ 6
党专政 6
党羽 6
党魁 6
入侵者 6
入学考试 6
全国人民代表大会 6
全国代表大会 6
全球股市 6
全能 6
公元 6
公共秩序 6
公司股票 6
公有 6
六十年代 6
共同行动 6
关键所在 6
其内 6
其间 6
具体来讲 6
典 6
养育 6
养鸡 6
内政部 6
内有 6
内燃机 6
冒险主义 6
冗余 6
冠 6
冲击力 6
冲破 6
决策程序 6
决赛 6
冷落 6
冷藏 6
冷酷无情 6
准确性 6
减半 6
减去 6
减慢 6
减退 6
减速时 6
几何 6
几名 6
凡尔赛 6
凡是 6
出乎 6
出产 6
出价 6
出力 6
出口@@ 6
出品 6
出格 6
出版物 6
分手 6
分摊 6
分离主义 6
分配@@ 6
分配机制 6
分阶段 6
刑事犯罪 6
划入 6
划归 6
列明 6
刘@@ 6
创立者 6
创记录 6
判断力 6
利他主义 6
利库德集团 6
利息收入 6
利用效率 6
利马 6
别提 6
到期日 6
制冷 6
制服 6
制片人 6
制高点 6
削@@ 6
剥离 6
剪@@ 6
割@@ 6
劝告 6
功效 6
功能性 6
加以控制 6
加州@@ 6
劣质 6
动向 6
动能 6
努力学习 6
势在必行 6
勒姆 6
勒紧 6
化疗 6
北极熊 6
北非国家 6
区域合作 6
医治 6
医药费 6
十六世纪 6
十几岁 6
十分明确 6
十天 6
十月 6
千丝万缕 6
千疮百孔 6
升势 6
升迁 6
半世纪 6
半壁江山 6
华尔街日报 6
协@@ 6
协同效应 6
卖力 6
南亚地区 6
南朝鲜 6
博士 6
博弈论 6
卡内基 6
卡拉@@ 6
卡耶夫 6
卫报 6
卫生系统 6
卫生部 6
危 6
危言耸听 6
即期 6
历史教训 6
压垮 6
压得 6
厌@@ 6
原型 6
原子能 6
去往 6
友人 6
双面 6
反以 6
反作用 6
反共 6
反其道而行之 6
反射率 6
反革命 6
发展潜力 6
发行量 6
发表意见 6
取出 6
受到冲击 6
受命 6
受雇 6
受骗 6
变坏 6
变异型 6
变种 6
叛@@ 6
叛国 6
口径 6
只靠 6
可供 6
可信性 6
可想而知 6
可有可无 6
可贵 6
可逆 6
台湾@@ 6
司法@@ 6
司法独立 6
司法部长 6
吃掉 6
各个部门 6
各政党 6
各派 6
合作性 6
合作方 6
合共 6
合在一起 6
合著 6
吉布提 6
名存实亡 6
名流 6
名称 6
名符其实 6
后退 6
君@@ 6
听命于 6
启@@ 6
启发性 6
吸收能力 6
吹捧 6
周密 6
呼唤 6
呼应 6
和亲 6
咒语 6
咬 6
哈尔 6
哈瓦那 6
哈菲兹 6
哪位 6
售价 6
售出 6
商业机会 6
商业行为 6
商业贷款 6
商品化 6
啤酒 6
喊@@ 6
喜马拉雅 6
囊中 6
四川 6
四月 6
四月份 6
回去 6
回忆起 6
回想起来 6
回扣 6
回暖 6
困@@ 6
围困 6
国中 6
国人 6
国情 6
国情咨文 6
国有资产 6
国际法院 6
图斯 6
图案 6
囿于 6
圆桌 6
圈养 6
圈套 6
圣城 6
在建 6
圭亚那 6
地处 6
均值 6
坍塌 6
坎昆 6
块@@ 6
坚持下去 6
坦承 6
型@@ 6
埃沃 6
基利 6
基因突变 6
基层 6
基本原理 6
堆@@ 6
堆积如山 6
堪忧 6
堵塞 6
塑@@ 6
塞西 6
增发 6
增支 6
墨 6
声名狼藉 6
复仇主义 6
复兴党 6
外交人员 6
外汇交易 6
外相 6
多一点 6
多亿 6
多方面 6
多时 6
多种多样 6
大吃一惊 6
大地 6
大大减少 6
大家庭 6
大张旗鼓 6
大洋 6
大海 6
大潮 6
大理石 6
大而 6
大肆宣扬 6
大胜 6
大赦 6
天主教会 6
天皇 6
天花 6
太多人 6
太平洋地区 6
夫妻 6
失业人数 6
失业问题 6
失势 6
失明 6
失职 6
头衔 6
夺权 6
奇特 6
奉承 6
奉献 6
奖学金 6
奖牌 6
奖赏 6
奥夫 6
奥尔班 6
奥斯曼 6
奥班 6
女士 6
女王 6
奴隶制 6
好几年 6
好意 6
好感 6
如履薄冰 6
如愿 6
如此一来 6
妇 6
妙@@ 6
妻@@ 6
委 6
威慑力 6
媲美 6
嫌犯 6
存入 6
孙@@ 6
孤军奋战 6
孤家寡人 6
学业 6
学员 6
孰@@ 6
宁 6
安全形势 6
安全隐患 6
安娜 6
安德鲁 6
安拉 6
宗教@@ 6
定为 6
实践者 6
审 6
客观@@ 6
宣示 6
宣读 6
室外 6
害处 6
家政 6
家畜 6
容量 6
宽恕 6
宿主 6
寄 6
密不可分 6
察觉 6
察觉到 6
对接 6
对症下药 6
对话者 6
导火索 6
小学生 6
小报 6
尘@@ 6
就行了 6
尼亚@@ 6
尼茨基 6
尼采 6
屁股 6
居留 6
屈@@ 6
屏幕 6
履行@@ 6
山地 6
巅峰 6
工厂化 6
工程技术 6
工资收入 6
左 6
巴德 6
市场导向 6
布伦特 6
布宜诺斯艾利斯 6
布尔什维克 6
布莱@@ 6
布隆迪 6
希曼 6
帐 6
帐篷 6
带头作用 6
带薪 6
帮忙 6
常委 6
常设 6
帽 6
干什么 6
干系 6
平均@@ 6
平均值 6
年长者 6
幽@@ 6
幽默 6
广东 6
庄@@ 6
庆贺 6
应用@@ 6
应验 6
店主 6
庞然大物 6
废水 6
废黜 6
延后 6
建国以来 6
建起 6
开倒车 6
开去 6
开发@@ 6
开发者 6
开工 6
开立 6
开除 6
弃权 6
弄错 6
弊病 6
式微 6
引述 6
弗利 6
弗林 6
弥漫着 6
强硬态度 6
当一国 6
当前@@ 6
当口 6
当量 6
录像 6
彻底消除 6
彼得@@ 6
征用 6
很差 6
得体 6
得利 6
循@@ 6
德曼 6
必需品 6
志 6
忘却 6
快感 6
快车道 6
忽@@ 6
怀揣 6
总的来讲 6
总资产 6
恐惧症 6
恢复@@ 6
恢复正常 6
恰尔邦 6
悔@@ 6
悟 6
情报搜集 6
惊慌 6
惨剧 6
惨状 6
惯常 6
惰性 6
惶@@ 6
惹恼 6
愚昧 6
感到高兴 6
愤 6
愤愤不平 6
懒惰 6
成功经验 6
成本上升 6
战斗人员 6
战犯 6
截止期 6
房屋贷款 6
所写 6
所有制 6
所涉 6
手腕 6
手表 6
扑热息痛 6
打个比方 6
扣押 6
扩大内需 6
扩张主义 6
扫荡 6
扭@@ 6
批 6
承载 6
技术升级 6
抓紧 6
投资@@ 6
投资决策 6
抗氧化剂 6
抚@@ 6
抢劫 6
抢占 6
报应 6
押@@ 6
担负起 6
拆分 6
拉开 6
拉近 6
拉迪奇 6
拉马拉 6
拟定 6
拦截 6
拿下 6
拿来 6
指导思想 6
指导性 6
指挥@@ 6
挥霍无度 6
挪@@ 6
捉摸不定 6
捐款人 6
捕@@ 6
捕鲸 6
捞 6
捧 6
捷 6
授@@ 6
掌@@ 6
掌声 6
掏出 6
掏空 6
掏钱 6
排他性 6
排行榜 6
排队 6
控制区 6
推而广之 6
提上 6
提供商 6
提出@@ 6
提示 6
揭@@ 6
揭发 6
搅乱 6
搜寻 6
搞错 6
搬迁 6
搭 6
携带者 6
摆出 6
摇摆不定 6
摩尔 6
摸 6
撒克逊 6
操之过急 6
收复 6
收拾残局 6
收窄 6
收音机 6
改装 6
放权 6
政府军 6
政教 6
政治形势 6
政治舞台 6
政策措施 6
教学@@ 6
教给 6
教育者 6
教育部长 6
散发 6
数据保护 6
敲@@ 6
敲定 6
整体而言 6
整治 6
文盲 6
斑@@ 6
斥责 6
断然拒绝 6
断绝 6
斯拉夫 6
斯特@@ 6
新世纪 6
新债 6
新古典主义 6
新奇 6
新娘 6
新意 6
方略 6
方程 6
施加影响 6
施政 6
旁观者 6
旅游@@ 6
旋@@ 6
无价 6
无功而返 6
无助 6
无名 6
无家可归者 6
无形资产 6
无影无踪 6
无法忍受 6
无线 6
无线@@ 6
既成 6
既成事实 6
日产 6
日军 6
日本@@ 6
日本式 6
日美 6
早日 6
早晨 6
时日 6
时间推移 6
时髦 6
昆@@ 6
明智之举 6
易事 6
星期日 6
昭然若揭 6
晚近 6
普及教育 6
普及率 6
普罗 6
普罗迪 6
普通@@ 6
智人 6
暧昧 6
暴发 6
暴露无遗 6
更多@@ 6
更弱 6
更贵 6
曾多次 6
最低@@ 6
最后通牒 6
最慢 6
最高点 6
月球 6
月间 6
有三大 6
有悖于 6
有生之年 6
有违 6
朔 6
朝圣者 6
期待已久 6
本党 6
本笃 6
朱@@ 6
朴@@ 6
机动车 6
机票 6
村@@ 6
村落 6
杜瓦 6
来不及 6
极大地提高 6
极强 6
极快 6
枝@@ 6
枪决 6
架@@ 6
柏拉图 6
染指 6
查戈斯 6
标明 6
标的 6
栖身 6
核大国 6
核心内容 6
核算 6
根本就是 6
格莱布 6
格雷 6
格雷厄姆 6
桑托 6
桑迪 6
档 6
梅内 6
梅纳德 6
棋盘 6
棕@@ 6
森林保护 6
模块 6
模棱两可 6
横财 6
橄榄枝 6
欧文 6
欧洲@@ 6
歇斯底里 6
正义@@ 6
步行 6
武器化 6
歧途 6
歪曲事实 6
死于 6
毁@@ 6
母鸡 6
每种 6
毒品走私 6
毒害 6
毒瘾 6
毗邻 6
毫不留情 6
民@@ 6
民主@@ 6
民主思想 6
民主联盟 6
民族和解 6
民间组织 6
水力 6
水电站 6
水门事件 6
永不 6
求学 6
汉堡 6
沃尔克 6
沉沦 6
沉浸 6
沉睡 6
沉重负担 6
沙拉 6
没多大 6
沦落 6
油砂 6
沿用 6
法兰西共和国 6
法军 6
法学 6
波恩 6
注 6
泰 6
泰爱泰党 6
泾渭分明 6
洞 6
洪@@ 6
测@@ 6
浓厚兴趣 6
海事 6
海军基地 6
海底 6
海滩 6
消费国 6
涉及面 6
涌 6
液 6
液体 6
液化 6
淋漓尽致 6
深信不疑 6
深入人心 6
深受其害 6
深圳 6
混 6
清教徒 6
清盘 6
渐进性 6
渗入 6
温室效应 6
湿地 6
滞涨 6
满怀希望 6
滥@@ 6
漏油 6
演绎 6
漫@@ 6
激进派 6
灰@@ 6
灰色 6
灵 6
灵巧 6
灾民 6
点位 6
炼@@ 6
烂 6
烟民 6
烟草业 6
热切地 6
热潮 6
烹饪 6
焚烧 6
煎熬 6
煤@@ 6
照明 6
熊@@ 6
熟练工人 6
燃气 6
爆炸案 6
片中 6
牟利 6
牢 6
牲口 6
特梅尔 6
特种部队 6
特郎普 6
特雷莎 6
犬类 6
犯罪活动 6
狐狸 6
独 6
独岛 6
独立党 6
狭义 6
狼藉 6
猜想 6
献@@ 6
王毅 6
玛@@ 6
玩火 6
玫瑰 6
环@@ 6
环境因素 6
现实意义 6
现实状况 6
现政权 6
现正 6
现行制度 6
现金支付 6
琳 6
甚嚣尘上 6
甚大 6
生产线 6
生命科学 6
生存环境 6
生物学家 6
生病 6
用力 6
用地 6
用武之地 6
由前 6
甲 6
申@@ 6
申请者 6
电价 6
电子@@ 6
电子产品 6
电视屏幕 6
男青年 6
留学生 6
略低于 6
疲于 6
疹 6
登革热 6
白领 6
的@@ 6
盎司 6
监护 6
盛宴 6
盲从 6
盲点 6
直击 6
直线 6
相互影响 6
相互指责 6
相互竞争 6
相关者 6
相向 6
相对而言 6
相貌 6
盾 6
看做 6
看过 6
真人秀 6
真切 6
真话 6
着想 6
督促 6
瞩目 6
石油业 6
石油资源 6
研究院 6
破除 6
硫 6
确保安全 6
确有 6
示弱 6
社会关系 6
社会群体 6
社论 6
神经系统 6
神职人员 6
祸 6
祸@@ 6
禀赋 6
禁脔 6
禁酒令 6
福萨 6
离心机 6
离散 6
私生活 6
私隐 6
秋季 6
种下 6
科研机构 6
科鲁兹 6
秘书处 6
秘方 6
租@@ 6
积极分子 6
积极支持 6
稀@@ 6
稀松 6
稀缺性 6
税项 6
稳定增长 6
空想 6
穿戴 6
突发 6
突进 6
立竿见影 6
立足 6
站@@ 6
竭尽所能 6
端的 6
笔@@ 6
第一夫人 6
第七 6
第八 6
第四季度 6
等价 6
等同 6
等级制度 6
策 6
策略性 6
筹备 6
签 6
签发 6
管理制度 6
管理系统 6
管线 6
精心设计 6
精神分裂症 6
精神障碍 6
精神领袖 6
系数 6
索赔 6
紧急措施 6
紧急状况 6
紧接着 6
纠正错误 6
约会 6
纳吉布 6
纺织 6
纺织业 6
纽@@ 6
纽约州 6
练习 6
绅士 6
经不起 6
经受考验 6
经常出现 6
经济带 6
经济过热 6
经济运行 6
经由 6
绑定 6
绕开 6
统@@ 6
维基百科 6
绿@@ 6
绿化 6
缄默 6
缓@@ 6
缓冲国 6
编写 6
编造 6
缩 6
缩影 6
缺@@ 6
网民 6
网络战 6
网页 6
罔顾 6
罢免 6
美以 6
美国司法部 6
美国大学 6
美妙 6
老一辈 6
而终 6
耐@@ 6
耐用 6
耶@@ 6
耸人听闻 6
联合体 6
肇事者 6
肩上 6
肾@@ 6
胆固醇 6
胜仗 6
胡佛 6
胡作非为 6
能源@@ 6
能耗 6
脑 6
脚@@ 6
脚下 6
脱轨 6
腐朽 6
腐烂 6
腐败问题 6
臂 6
自动@@ 6
自律 6
自救 6
自生自灭 6
自私自利 6
自行其是 6
自贸区 6
致力 6
致命性 6
舞蹈 6
舟 6
航天 6
航母 6
航空业 6
航空母舰 6
舰艇 6
舰队 6
船@@ 6
良药 6
艳羡 6
节省下来 6
芝加哥大学 6
苦涩 6
英吉利海峡 6
英国@@ 6
英拉 6
英迪拉 6
茁壮成长 6
荒芜 6
莫不 6
莱茵河 6
莱西 6
获得胜利 6
获释 6
菲律宾人 6
营地 6
营运 6
萦绕 6
萨拉热窝 6
落下 6
葡萄酒 6
蒂斯 6
蒙上 6
蕴含着 6
蕴藏 6
藉此 6
藏身 6
蛊惑人心 6
蛋 6
蛮横 6
融@@ 6
行为人 6
行使权力 6
行凶 6
补@@ 6
补救 6
裁@@ 6
西亚 6
西半球 6
西岸地区 6
要害 6
要花 6
覆盖范围 6
见面 6
观@@ 6
观测 6
规章 6
规管 6
视@@ 6
视觉 6
觊觎 6
角逐 6
解放@@ 6
解救 6
警卫队 6
计算机技术 6
计算能力 6
让出 6
记分牌 6
许 6
证书 6
识字率 6
试探 6
诗歌 6
该市 6
该片 6
语气 6
语调 6
误@@ 6
误差 6
说成 6
说教 6
请愿 6
请愿书 6
诸 6
诸脑 6
读过 6
课以 6
课本 6
谅解 6
谈成 6
谋@@ 6
谜题 6
谢瓦尔德纳泽 6
谣言 6
谷@@ 6
豁免权 6
豪华 6
贝京 6
贝尔斯 6
负@@ 6
财力 6
货币主义 6
货运 6
购@@ 6
购房者 6
贴@@ 6
贴现 6
贴近 6
贸易@@ 6
贸易区 6
贾帕克萨 6
赎金 6
赢回 6
走下坡路 6
走投无路 6
赶@@ 6
赶走 6
起起落落 6
超前 6
超强 6
超标 6
超然 6
越境 6
趣 6
足球比赛 6
足量 6
跌价 6
跌去 6
距今 6
跨@@ 6
跨越国界 6
路德 6
跳@@ 6
踪影 6
身亡 6
身影 6
身患 6
身陷囹圄 6
躲 6
转动 6
转播 6
转账 6
轰炸机 6
轻率 6
输电 6
输给 6
辛苦 6
辞@@ 6
辞去 6
达尔 6
过境 6
过早地 6
过量 6
迈@@ 6
迈克 6
运河 6
近距离 6
这一下 6
这两点 6
这代人 6
这批 6
这波 6
进驻 6
远为 6
远古 6
远处 6
违@@ 6
违法行为 6
连接起来 6
迟到 6
迪顿 6
迷人 6
追捧 6
退去 6
送@@ 6
适@@ 6
适于 6
适应力 6
选举权 6
透 6
透@@ 6
递@@ 6
递增 6
造势 6
造船 6
逮捕令 6
遍及 6
遍地 6
遍地开花 6
遏止 6
道德规范 6
遥遥无期 6
遭@@ 6
遮羞布 6
避 6
那位 6
那瓦 6
邮@@ 6
郎 6
酋长 6
酒吧 6
酗酒 6
酷热 6
酸化 6
醒 6
醒悟 6
采掘 6
里尔 6
里德 6
里斯坦 6
重债国 6
重力 6
重合 6
重型 6
重大损失 6
重庆 6
针@@ 6
钢材 6
钱来 6
铁杆 6
铜 6
银行@@ 6
链接 6
锈带 6
错位 6
锦标赛 6
镇 6
长途 6
长途跋涉 6
闲@@ 6
闹 6
闻名于世 6
阅 6
防范措施 6
阳 6
阳@@ 6
阴云 6
阵地 6
阻击 6
阿什 6
阿利 6
阿基诺 6
阿姆斯特丹 6
阿尔茨海默 6
阿拉斯加 6
阿波罗 6
阿鲁纳 6
阿齐兹 6
附庸 6
难以捉摸 6
难以解决 6
难得 6
难过 6
雄@@ 6
雄辩 6
雅虎 6
集团公司 6
雨水 6
零点 6
雷斯 6
雷茨 6
雾 6
震@@ 6
青蒿素 6
静态 6
静默 6
非常明显 6
非正统 6
非洲之角 6
非盈利 6
面孔 6
面额 6
鞑靼人 6
韦捷夫 6
页 6
预备 6
预测值 6
领先者 6
领土问题 6
领教 6
领略 6
颇@@ 6
颇受 6
频道 6
颠簸 6
风险投资 6
飞往 6
飞涨 6
飞跃 6
飞速 6
饥渴 6
饮@@ 6
饮酒 6
饱@@ 6
首屈一指 6
香 6
马丁 6
马尔 6
马来 6
马格 6
马达加斯加 6
驱@@ 6
驾车 6
骂 6
骑@@ 6
骚动 6
骨 6
高低 6
高歌猛进 6
高污染 6
高瞻远瞩 6
高附加值 6
高院 6
鬼@@ 6
鬼城 6
魔力 6
魔咒 6
魔术 6
鲍里斯 6
鲜为人知 6
麦地那 6
黄禹锡 6
黑海 6
默 6
默默 6
默默无闻 6
鼎@@ 6
鼠 6
齐头并进 6
龙头 6
07 5
12@@ 5
1400 5
170@@ 5
18.@@ 5
1905 5
1913 5
1918 5
1922 5
193 5
1939 5
1959 5
1966 5
2021 5
2023 5
2070 5
245 5
377 5
430 5
550 5
6.1 5
610 5
7.25 5
7.7 5
89 5
9.5 5
AC 5
AP 5
Ab@@ 5
Al@@ 5
Ar@@ 5
BIS 5
BP 5
CA@@ 5
CH@@ 5
CRISPR 5
EC@@ 5
ES 5
FC@@ 5
FN 5
Fre@@ 5
GAVI 5
Gavi 5
Hadjiev 5
He@@ 5
IM@@ 5
J 5
LHC 5
MFF 5
Nor@@ 5
P5 5
PI@@ 5
PKK 5
PNV 5
PPP 5
PTA 5
Pesa 5
Q@@ 5
RC@@ 5
RI 5
RePEc 5
SCAF 5
SS@@ 5
SUV 5
ari 5
ask@@ 5
ate 5
ath@@ 5
ay@@ 5
c 5
com@@ 5
ed 5
ed@@ 5
el 5
f 5
ig@@ 5
ik 5
ik@@ 5
ind@@ 5
ing 5
ing@@ 5
ion 5
ip@@ 5
oc@@ 5
od@@ 5
ol 5
or 5
org 5
qu@@ 5
se 5
ter 5
the 5
uc@@ 5
ver@@ 5
x 5
ä 5
一一 5
一下子 5
一侧 5
一再强调 5
一口 5
一吨 5
一堆 5
一招 5
一整 5
一文 5
一案 5
一桩 5
一款 5
一百@@ 5
一眼 5
一落千丈 5
一记 5
一身 5
一阵 5
一面镜子 5
一飞冲天 5
七分 5
七大 5
万事俱备 5
万家 5
万年前 5
万桶 5
三件 5
三军 5
三思 5
三支 5
三维 5
三轮车 5
上午 5
上移 5
上门 5
下任 5
下任总统 5
下挫 5
下流 5
下落 5
下风 5
不一而足 5
不一致性 5
不久以后 5
不争 5
不介意 5
不俗 5
不公平地 5
不列颠 5
不可估量 5
不可知论 5
不可逾越 5
不合逻辑 5
不向 5
不好过 5
不容置疑 5
不容许 5
不带 5
不成 5
不成文 5
不折不扣 5
不断@@ 5
不断加强 5
不断涌现 5
不断进步 5
不无 5
不朽 5
不清 5
不温不火 5
不相@@ 5
不相称 5
不知情 5
不管怎么 5
不能容忍 5
不良@@ 5
不良资产 5
不计 5
不计后果 5
不详 5
不需 5
不靠 5
与时俱进 5
专业@@ 5
专业性 5
专业技能 5
专利权 5
专制@@ 5
专断 5
专栏 5
专用 5
世界末日 5
世界杯赛 5
丙@@ 5
业务@@ 5
东南欧 5
东进 5
两件 5
两国@@ 5
两国间 5
两头 5
两百年 5
两端 5
两组 5
两部 5
严守 5
严格控制 5
严肃认真 5
个案 5
中东战争 5
中产 5
中心@@ 5
中情局 5
中立@@ 5
中肯 5
中说 5
中较 5
中非 5
丰@@ 5
串通 5
为数众多 5
主动性 5
主战场 5
主编 5
乃@@ 5
之于 5
之作 5
之光 5
之士 5
之夜 5
之少 5
之比为 5
之流 5
之用 5
之痛 5
之能事 5
之辞 5
之锚 5
乌合之众 5
乍@@ 5
九 5
九月 5
九百万 5
乡 5
买进 5
乳房 5
争先恐后 5
争吵不休 5
争议性 5
二三十年 5
二人 5
二元 5
二十年代 5
二月份 5
二选 5
互惠互利 5
互相@@ 5
互相联系 5
互联互通 5
五天 5
五常 5
井 5
亚利桑那州 5
亚里士多德 5
交付给 5
交叉 5
交替 5
交界 5
交纳 5
亦@@ 5
产品价格 5
产地 5
产生共鸣 5
享用 5
亲缘 5
亲美 5
亲身经历 5
亲近 5
人以 5
人力物力 5
人口众多 5
人后 5
人命 5
人头 5
人尽皆知 5
人权宣言 5
人格@@ 5
人民民主党 5
人满为患 5
人类基因 5
人身安全 5
人身攻击 5
人间 5
人际 5
人际关系 5
人马 5
亿比索 5
仇 5
今秋 5
介于 5
仍不愿 5
从业人员 5
从中作梗 5
从头@@ 5
从头开始 5
从小 5
从总体上 5
从现在起 5
从这一点 5
付诸行动 5
代表大会 5
代顿 5
令人发指 5
以眼还眼 5
以降 5
仪@@ 5
仰慕 5
价格调整 5
任内 5
企业管理者 5
伊凡 5
伊斯兰@@ 5
伊朗伊斯兰共和国 5
休戚相关 5
优 5
优先@@ 5
优劣 5
优异 5
优良 5
会议室 5
传到 5
传奇 5
传播@@ 5
传来 5
伴@@ 5
伺@@ 5
似是而非 5
似曾相识 5
但埃 5
低质量 5
住院 5
佐@@ 5
佐科维 5
体育场 5
体育运动 5
体能 5
何 5
何以 5
何地 5
何塞 5
何方 5
余 5
佩里 5
佳@@ 5
使用@@ 5
例@@ 5
例行 5
例行公事 5
供暖 5
供资 5
依赖@@ 5
侦@@ 5
促发 5
俄国政府 5
俄罗斯族 5
保守党政府 5
保安 5
保护国 5
保持联系 5
保险业 5
保险费 5
信息量 5
信用等级 5
修修补补 5
俾斯麦 5
倍加 5
倒数 5
倒霉 5
候选者 5
债主 5
债台高筑 5
值@@ 5
倾向性 5
倾覆 5
偏误 5
做好事 5
做成 5
做文章 5
做来 5
做点 5
做饭 5
停 5
停止使用 5
停车 5
偶 5
偶发 5
偷税漏税 5
储备@@ 5
储备基金 5
傻@@ 5
像样 5
儒教 5
儿童@@ 5
兄 5
充耳不闻 5
兆瓦 5
先于 5
先河 5
先见之明 5
光明@@ 5
光纤 5
光谱 5
克努特 5
克劳斯 5
克多 5
免职 5
全书 5
全副武装 5
全民教育 5
全靠 5
八卦 5
八成 5
八月 5
公元前 5
公寓 5
公开场合 5
六分之一 5
六周 5
六月份 5
共生 5
关系恶化 5
关联性 5
关贸总协定 5
兴 5
兴业银行 5
其净 5
其来 5
具体内容 5
具体来说 5
内幕 5
内斯 5
内生性 5
再用 5
再见 5
写手 5
军事战略 5
军事装备 5
军事设施 5
军火 5
冬季 5
冯 5
冰冷 5
冰山 5
冷血 5
冷静下来 5
准@@ 5
准备就绪 5
减债 5
几千人 5
几轮 5
凭@@ 5
凯撒 5
凯末尔 5
出了名 5
出击 5
出口税 5
出口额 5
出局 5
出版商 5
出生地 5
出类拔萃 5
出行 5
函数 5
分散@@ 5
分立 5
分辨 5
分隔 5
切换 5
刑@@ 5
刑法典 5
划 5
划出 5
刚性 5
创新力 5
初次 5
利兹 5
利好 5
利己 5
利沃夫 5
别墅 5
别忘了 5
别斯兰 5
别无他法 5
到哪去 5
到来之际 5
制宪 5
制衣厂 5
刺猬 5
刻画 5
前不久 5
前台 5
前端 5
前置 5
剥@@ 5
剧本 5
剧院 5
割 5
劝阻 5
功绩 5
加尔 5
加征 5
加速器 5
劣等 5
动因 5
动性 5
动荡不安 5
动辄 5
助产士 5
努@@ 5
努钦 5
劲 5
劳动党 5
勃@@ 5
勒斯 5
募捐 5
匈牙利人 5
化工 5
化武 5
北半球 5
北方邦 5
匹敌 5
区位 5
医学@@ 5
医疗@@ 5
医疗界 5
医药公司 5
十个月 5
十二@@ 5
十二五 5
十余年 5
十分@@ 5
十家 5
千名 5
千载难逢 5
升空 5
升职 5
半段 5
半身像 5
华丽 5
华而不实 5
卑@@ 5
单打独斗 5
博主 5
博彩 5
占优 5
卡利 5
卡尼@@ 5
卡普兰 5
卡绍 5
卡路里 5
卢斯科尼 5
卢梭 5
卧@@ 5
卫士 5
卫生界 5
印钱 5
危险区 5
厄@@ 5
历程 5
历练 5
压倒多数 5
厕所 5
原告 5
参半 5
又@@ 5
友好@@ 5
友邦 5
双眼 5
反华 5
反应@@ 5
反覆 5
反覆无常 5
发号施令 5
发展部 5
发源地 5
发热 5
发生@@ 5
发电机 5
发电能力 5
发票 5
发芽 5
发起人 5
受其 5
受助者 5
受惠 5
受益匪浅 5
受约束 5
受贿 5
受难 5
变体 5
变化@@ 5
变弱 5
变慢 5
变革性 5
叙 5
叙@@ 5
叛乱者 5
叛徒 5
叠 5
叠床架屋 5
口实 5
口服 5
古巴人 5
另一半 5
只想 5
只消 5
只能靠 5
召回 5
可取之处 5
可变 5
可循 5
可比性 5
可追溯 5
可预见性 5
台前 5
台海 5
台湾人 5
台阶 5
史密斯 5
号称 5
司法制度 5
司法程序 5
各个领域 5
各位 5
各处 5
各邦 5
合众国 5
合作项目 5
吉利 5
吉尔 5
同学 5
同心协力 5
同谋 5
名列前茅 5
名著 5
后发优势 5
后果严重 5
后现代 5
吐@@ 5
吞 5
吞@@ 5
否决票 5
含糊不清 5
听见 5
吴登盛 5
吸 5
吸入 5
吸烟@@ 5
吹 5
吻合 5
呈@@ 5
周全 5
周到 5
周永康 5
呼 5
呼@@ 5
呼吸系统 5
命脉 5
和平主义 5
和平利用 5
咖啡@@ 5
咬@@ 5
哀@@ 5
哀悼 5
品尝 5
哈雷 5
哗众取宠 5
唉 5
唐@@ 5
售 5
唯独 5
唱 5
商业地产 5
商谈 5
啦 5
喀麦隆 5
善变 5
喇叭 5
喉@@ 5
喉舌 5
喘 5
喜剧演员 5
喜好 5
喜马拉雅山脉 5
喝@@ 5
喧嚣 5
嗜好 5
囊 5
四周 5
四百万 5
四种 5
回路 5
团伙 5
国债券 5
国将 5
国库券 5
国防军 5
国际主义者 5
国际象棋 5
图表 5
土壤@@ 5
圣 5
圣人 5
在此之后 5
在线教育 5
在野 5
地中海地区 5
地以 5
地理学 5
地看 5
坎波 5
坏人 5
坠入 5
坠落 5
坦诚 5
垂直 5
垃圾桶 5
垄断@@ 5
埃米尔 5
城市交通 5
域@@ 5
基奇 5
基数 5
基本要素 5
基础教育 5
堂@@ 5
堤坝 5
堵 5
塞尔 5
填写 5
境界 5
增加出口 5
墨尔本 5
壁 5
声浪 5
声言 5
声讨 5
处以 5
处理不当 5
备战 5
备用 5
复杂程度 5
夕@@ 5
外交大臣 5
外出 5
外向 5
外太空 5
外资银行 5
外逃 5
多一倍 5
多巴胺 5
多种形式 5
多米尼加 5
多米诺骨牌 5
多花 5
多边合作 5
夜间 5
大可 5
大喊 5
大学教授 5
大帝 5
大度 5
大方 5
大有希望 5
大湾 5
大纲 5
大跃进 5
大陆架 5
天性 5
天文学家 5
天鹅绒 5
失地 5
失忆症 5
失算 5
头条新闻 5
头版 5
头绪 5
夹 5
夺@@ 5
奇达 5
奋@@ 5
奎@@ 5
契@@ 5
奖项 5
奥特 5
奥马 5
女权主义者 5
奶制品 5
好似 5
好友 5
好时机 5
好象 5
如意算盘 5
如火如荼 5
妄图 5
妈 5
妓院 5
妥善 5
姆贝基 5
始终@@ 5
姐妹 5
委内瑞拉政府 5
委婉 5
委托人 5
威尔克斯 5
威尔士 5
威尼斯 5
娅 5
婚礼 5
媒 5
孔 5
孕产妇 5
存亡 5
存放 5
存款人 5
季节 5
学龄儿童 5
孩@@ 5
守法 5
安东尼奥 5
安格尔 5
安逸 5
完美无缺 5
宗主国 5
宗教自由 5
定得 5
定点 5
宜居 5
实惠 5
实用性 5
实际效果 5
实验性 5
审问 5
客机 5
宫 5
宫殿 5
家具 5
家用 5
家门 5
容性 5
宽带接入 5
寄居 5
寓@@ 5
寡头政治 5
对内 5
对华关系 5
对华政策 5
对台 5
对抗性 5
对非 5
寻找机会 5
寻觅 5
将领 5
尊 5
小团体 5
小姐 5
小说家 5
少不了 5
少数@@ 5
少有 5
尖 5
尖阁 5
尚有 5
尝@@ 5
就业人口 5
就业人数 5
就职典礼 5
尼克 5
尽如人意 5
尽职 5
居伦 5
居所 5
屏蔽 5
属@@ 5
屡见不鲜 5
山姆 5
岛@@ 5
岛民 5
崭露头角 5
工业园 5
工种 5
工资@@ 5
左右为难 5
巧@@ 5
巨大@@ 5
巨星 5
巨浪 5
巨额利润 5
已能 5
已高达 5
巴厘 5
巴拉圭 5
巴马 5
市场繁荣 5
市场营销 5
市政@@ 5
布哈林 5
布拉@@ 5
布里 5
布里斯班 5
布鲁金斯 5
帐@@ 5
帕尔 5
帖 5
带上 5
帮派 5
帷幕 5
常会 5
帽子 5
幕@@ 5
平克 5
平滑 5
年产量 5
年仅 5
年度预算 5
年春 5
年秋 5
年青 5
并称 5
幸@@ 5
幼儿园 5
广播电台 5
庄严 5
庄园 5
庆@@ 5
库什 5
库特 5
应是 5
应用程序 5
底下 5
废弃物 5
废纸 5
度假@@ 5
庭@@ 5
建筑工人 5
建筑材料 5
开会 5
开关 5
开放政策 5
开诚布公 5
开足马力 5
异曲同工 5
式@@ 5
弗吉尼亚 5
张扬 5
弥@@ 5
弹头 5
弹药 5
强加于 5
强烈反应 5
强烈抗议 5
归结 5
归罪于 5
归还给 5
当即 5
当是 5
当晚 5
录 5
形式化 5
彭@@ 5
役 5
彼@@ 5
彼时 5
往后 5
往日 5
得票 5
得罪 5
循序渐进 5
微薄 5
德国@@ 5
德班 5
德罗 5
德语 5
德高望重 5
心存 5
心怀 5
心情 5
心智 5
心理疾病 5
忌惮 5
忙不迭 5
快得多 5
怀@@ 5
怀念 5
态 5
怂恿 5
怒不可遏 5
思想@@ 5
性伴侣 5
性侵犯 5
性暴力 5
怨声载道 5
怪 5
怪@@ 5
怪事 5
总监 5
恐@@ 5
恣睢 5
恳请 5
恶意软件 5
恶魔 5
悍然 5
悲痛 5
情结 5
情绪化 5
惊异 5
惊慌失措 5
惜 5
惠 5
惨 5
惯@@ 5
惯于 5
惹@@ 5
意向 5
感召力 5
感叹 5
感染率 5
愤@@ 5
愤世嫉俗 5
慷慨@@ 5
慷慨解囊 5
戏剧 5
成事 5
成倍 5
成本@@ 5
成泽 5
成熟@@ 5
成熟度 5
成群结队 5
我者 5
我行我素 5
我要 5
战争@@ 5
战术性 5
战略@@ 5
戴维营 5
户@@ 5
房东 5
所困 5
所愿 5
所见 5
手工 5
手来 5
才华横溢 5
才干 5
扑朔迷离 5
打个 5
打乱 5
打倒 5
打响 5
打扮 5
打折 5
打死 5
打赌 5
打造出 5
托儿 5
托斯 5
托菲 5
执意 5
执法@@ 5
执行@@ 5
扩建 5
扯皮 5
扰动 5
扶@@ 5
扶助 5
扶植 5
承受能力 5
技@@ 5
技术手段 5
技术革新 5
把@@ 5
投产 5
投票@@ 5
投票决定 5
投资界 5
投身于 5
投钱 5
抗药 5
抗菌素 5
折 5
折射出 5
抢夺 5
报以 5
报废 5
抬 5
抱歉 5
抵 5
抵抗运动 5
抵销 5
抹@@ 5
拉丁 5
拉卡 5
拉夫桑贾尼 5
拉德 5
拉拉 5
拉斯 5
拉比 5
拉氏 5
拉长 5
拍摄 5
拒@@ 5
拓宽 5
拖后腿 5
拖拉机 5
招收 5
拟@@ 5
拥戴 5
拳 5
持仓 5
挂帅 5
指数化 5
挑拨 5
挥@@ 5
挫伤 5
振 5
振奋人心 5
挺@@ 5
捉@@ 5
捕杀 5
换届 5
捶@@ 5
掂量 5
授粉 5
排出 5
接受国 5
接班 5
接种员 5
接踵而至 5
推上 5
推倒 5
推卸责任 5
推导 5
推敲 5
掮客 5
提价 5
提法 5
提高效率 5
搁浅 5
搅局 5
搜@@ 5
搬 5
搬到 5
搬起 5
搭便车 5
摆在面前 5
摆脱困境 5
摆设 5
摔@@ 5
撒哈拉沙漠 5
播种 5
撰文 5
操作@@ 5
攀@@ 5
支付宝 5
支持系统 5
收留 5
收看 5
改为 5
改编 5
政治信仰 5
政策方针 5
政绩 5
故 5
故作姿态 5
故障 5
敌对@@ 5
敌手 5
敏@@ 5
救治 5
救赎 5
教学法 5
教学质量 5
教育权 5
教育领域 5
散居 5
敬而远之 5
数值 5
数十名 5
数千个 5
数据共享 5
数百 5
数百种 5
整 5
整体利益 5
文中 5
文化背景 5
文盲率 5
文艺复兴 5
料到 5
斜@@ 5
斩@@ 5
斯威士兰 5
斯拉 5
斯文森 5
斯蒂芬 5
新兴力量 5
新旧 5
新机制 5
新理念 5
新生@@ 5
於 5
族人 5
旗 5
旗鼓相当 5
无产阶级 5
无人@@ 5
无以 5
无以为继 5
无休无止 5
无可争议 5
无可厚非 5
无孔不入 5
无差别 5
无所不包 5
无所谓 5
无所适从 5
无法弥补 5
无法挽回 5
无法自拔 5
无神论者 5
无私 5
无脑 5
无薪 5
无论怎样 5
无论谁 5
无谓 5
无遗 5
既定目标 5
日常@@ 5
日本民主党 5
日益频繁 5
日间 5
早早 5
早晚 5
时装 5
时间@@ 5
昂@@ 5
明治 5
明确提出 5
明确规定 5
易得 5
星期@@ 5
春@@ 5
春季 5
昭示 5
晚期 5
普惠 5
普林斯顿大学 5
普选 5
普通法 5
普金 5
智利人 5
智囊团 5
智识 5
暖 5
暗流 5
暗箱 5
暴力行动 5
暴增 5
更令 5
更优 5
更坏 5
更胜一筹 5
曼联 5
曾一度 5
曾以 5
替之以 5
最令 5
最合适 5
最新@@ 5
有别于 5
有增无减 5
有机体 5
有染 5
服役 5
朝鲜政府 5
朦胧 5
未受 5
未获 5
本世纪初 5
机能 5
杂交 5
权威性 5
杆 5
杆菌 5
杜克 5
杜特 5
杜赫 5
杜达 5
杭州 5
杰作 5
杰斐逊 5
松弛 5
松懈 5
极了 5
极佳 5
极右 5
极左 5
林登 5
果糖 5
枪炮 5
柄 5
染 5
柳叶刀 5
柴 5
标语 5
样@@ 5
样板 5
核事故 5
核军备 5
核爆 5
根据地 5
格勒 5
格哈德 5
梅隆 5
梦寐以求 5
检 5
检察长 5
检查@@ 5
棋局 5
棋手 5
棵 5
植物@@ 5
模块化 5
模特 5
模糊@@ 5
欠发达 5
欠发达国家 5
次优 5
欣慰 5
欧洲联盟 5
欺@@ 5
此种 5
步枪 5
武装人员 5
死海 5
殊@@ 5
残疾人 5
殖民统治 5
段落 5
毋@@ 5
母公司 5
母校 5
每十年 5
比方 5
比花 5
毫@@ 5
毫不费力 5
毫无根据 5
民主权利 5
民粹派 5
民进党 5
民选总统 5
水中 5
水文 5
永@@ 5
污染者 5
汽油税 5
沃尔@@ 5
沉没 5
沉迷 5
沙漠化 5
沙特政府 5
没落 5
沦丧 5
沦陷 5
河水 5
治病 5
沼泽 5
沿线 5
泄密 5
法兰西 5
泛@@ 5
泛欧 5
泡 5
波利萨 5
波黑 5
注脚 5
泽 5
泽纳维 5
洗衣机 5
洛克 5
洛杉矶 5
津 5
津@@ 5
活下去 5
流动资产 5
济@@ 5
浪费时间 5
浮 5
浮@@ 5
浮夸 5
海军陆战队 5
海外投资 5
海峡 5
海湾合作委员会 5
消散 5
涉 5
涌@@ 5
涟漪 5
淋@@ 5
淫@@ 5
深入研究 5
深切 5
深刻影响 5
深刻理解 5
深处 5
深恶痛绝 5
深感忧虑 5
深知 5
清白 5
清迈 5
游牧民 5
游离 5
渺小 5
湖@@ 5
湖泊 5
湿@@ 5
溶@@ 5
滑坡 5
滔滔不绝 5
滞留 5
满满地 5
满足感 5
滥用职权 5
漏@@ 5
演@@ 5
演出 5
潜藏 5
澳大利亚人 5
激素 5
火力 5
灭@@ 5
灭火 5
灵活@@ 5
灾 5
灾区 5
炉子 5
炎 5
烈 5
烈@@ 5
烦 5
烦恼 5
烧毁 5
焦头烂额 5
焦躁 5
照搬 5
照料 5
照样 5
燃油税 5
爆发式 5
爆破 5
爪牙 5
爱丽舍宫 5
爱德华 5
牢房 5
牧场 5
物价上涨 5
物竞天择 5
牵@@ 5
牵制 5
牵着鼻子 5
特人 5
特别法庭 5
特尔 5
特殊性 5
特种 5
特科夫 5
犯罪者 5
犹太主义 5
狂妄 5
狂飙 5
狠狠 5
独断专行 5
猥亵 5
献身 5
王子 5
玛丽 5
玛沙 5
现值 5
现有企业 5
珀 5
珍惜 5
珠@@ 5
班子 5
理清 5
理睬 5
瑞典人 5
瑞士法郎 5
瓜分 5
瓜葛 5
瓦夫 5
瓦尔斯 5
瓦文萨 5
瓦济 5
瓦罗 5
瓦鲁法 5
瓶子 5
甄选 5
甚深 5
生产资料 5
生命安全 5
生存能力 5
生死 5
生死攸关 5
生殖细胞 5
生活水准 5
生育权 5
用工 5
用语 5
申诉 5
申请专利 5
电商 5
电子货币 5
电影@@ 5
电影明星 5
电视机 5
电视频道 5
畅通无阻 5
留下来 5
留存 5
留心 5
畜牧业 5
疯@@ 5
病入膏肓 5
痛处 5
痼疾 5
瘾君子 5
登月 5
白沙瓦 5
白热化 5
白皮书 5
的确如此 5
皈依 5
皮亚斯 5
皮科 5
盈利性 5
盐 5
监督机制 5
盖@@ 5
盗版 5
盗贼 5
盘@@ 5
盛 5
目录 5
目瞪口呆 5
直 5
相互尊重 5
相当严重 5
省级 5
看得见 5
真到 5
真想 5
真有 5
眼花缭乱 5
着陆 5
睡@@ 5
睡眠 5
瞬息万变 5
短命 5
短处 5
短线 5
短语 5
石头 5
矿石 5
破产案 5
破纪录 5
破解 5
碳排 5
礁 5
示@@ 5
社会制度 5
社会各界 5
神经科学 5
神经细胞 5
神经过敏 5
神经递质 5
祭 5
祭出 5
禁核 5
禁酒 5
福尔 5
离间 5
私企 5
秋 5
种植者 5
科克伦 5
科幻小说 5
科恩 5
科技领域 5
科普特人 5
科罗拉多州 5
科赫 5
科雷亚 5
科雷拉 5
秒 5
秒钟 5
积极意义 5
程度较高 5
税来 5
税费 5
稳定物价 5
穆斯塔法 5
穆萨维 5
穷苦 5
突发事件 5
突发性 5
窃 5
窒息 5
窗户 5
立宪 5
站得住脚 5
站点 5
站稳脚跟 5
竞技场 5
笑@@ 5
笔下 5
第一任 5
第一场 5
第一波 5
第三代 5
第三类 5
第二代 5
第二条 5
笼 5
筒 5
筹 5
筹@@ 5
简单明了 5
简短 5
管们 5
管理@@ 5
管理模式 5
米洛 5
类人 5
粉 5
粗放 5
粗糙 5
粮 5
精度 5
精炼 5
精神病院 5
系统地 5
索偿 5
紧要 5
紧邻 5
累@@ 5
纠缠不清 5
纠葛 5
约旦河 5
约束性 5
级@@ 5
纪 5
纯一 5
纯洁 5
纳伊夫 5
纳伦 5
纳粹党 5
纳西 5
纳赛尔 5
纵@@ 5
纸质 5
练 5
组阁 5
细微 5
细胞株 5
绊脚石 5
经济史 5
经济实体 5
经济波动 5
经销商 5
结出 5
结尾 5
给@@ 5
给力 5
绝对优势 5
绞尽脑汁 5
统计学 5
统领 5
继位 5
继而 5
维吾尔族 5
维多利亚 5
维希 5
维护和平 5
维斯 5
维生 5
缅怀 5
缘@@ 5
罂粟 5
网络化 5
罪人 5
罪过 5
置身于 5
羁绊 5
美国化 5
美国民主党 5
美国电话电报公司 5
美国进口 5
美国陆军 5
美墨加 5
翼 5
老大 5
老大哥 5
考 5
而动 5
而定 5
而成 5
耕 5
耗 5
耗@@ 5
耗油 5
耳@@ 5
耶娃 5
职业道德 5
职工 5
职权范围 5
联合国人权委员会 5
联想 5
聚光灯 5
聚合物 5
肝脏 5
股掌 5
肺炎球菌 5
肺癌 5
背 5
背井离乡 5
胜者 5
胡安 5
胡言乱语 5
胸 5
能克服 5
能用 5
脉 5
脑海中 5
脑袋 5
脑部 5
脚跟 5
脚踏实地 5
脸上 5
臣 5
自传 5
自作自受 5
自始至终 5
自封 5
自居 5
自我@@ 5
自我意识 5
自我标榜 5
自杀性 5
自治区 5
自省 5
自给 5
臭@@ 5
臭氧层 5
至多 5
致敬 5
致病 5
舌 5
舞 5
舞@@ 5
航运 5
般地 5
良 5
良@@ 5
艾什 5
艾德礼 5
节水 5
花花公子 5
苏丹政府 5
苏珊 5
苏黎世 5
若想 5
英明 5
英特尔 5
茶@@ 5
荡然无存 5
荣@@ 5
药店 5
药物滥用 5
荷 5
荷尔蒙 5
莫斯 5
莱因哈特 5
获奖 5
菌株 5
菜单 5
菲利普 5
菲特 5
营@@ 5
营养素 5
萨拉 5
萨赫勒 5
落于 5
落差 5
董建华 5
葬 5
蒙古 5
蒙特雷 5
蒸蒸日上 5
蓬勃 5
薄@@ 5
虎@@ 5
虚与委蛇 5
虫@@ 5
蚊 5
蚊虫 5
蛇 5
蛋白 5
蜂拥 5
蜜月 5
蜡烛 5
血红蛋白 5
行为规范 5
行医 5
行者 5
街上 5
衣钵 5
补 5
补给 5
表彰 5
表示@@ 5
表达意见 5
衰减 5
衰退期 5
被忽略了 5
裕仁 5
裤腰带 5
裹足不前 5
襁褓 5
西化 5
西南部 5
西奈 5
西奥 5
西欧国家 5
要紧 5
要花费 5
见于 5
规 5
规划署 5
角@@ 5
解放组织 5
触@@ 5
言听计从 5
言过其实 5
警察部队 5
计算@@ 5
计算机化 5
计量 5
讨论会 5
议会制 5
议论 5
讯 5
记忆犹新 5
记载 5
讲授 5
访美 5
证件 5
诊@@ 5
词来 5
试探性 5
试行 5
试问 5
诗 5
诚@@ 5
诡@@ 5
该法 5
语焉不详 5
误入歧途 5
误导作用 5
误用 5
误认为 5
说实话 5
说客 5
说谎 5
读@@ 5
谁错 5
调整机制 5
调配 5
谈判桌上 5
谈及 5
谈起 5
谋划 5
谚语 5
谢尔盖 5
谢赫 5
谢钦 5
谨守 5
谬论 5
贝南克 5
贝塔 5
贝尔格莱德 5
贝布托 5
贝隆 5
负担过重 5
负罪感 5
贡献者 5
财@@ 5
财产权利 5
财物 5
财经 5
责任人 5
责任心 5
责备 5
账号 5
货币汇率 5
贩子 5
贩运 5
贫民 5
贫血 5
贯@@ 5
贱民 5
贴现率 5
贸 5
费力 5
资产阶级 5
资历 5
资本积累 5
赔付 5
赔款 5
赖 5
赛义德 5
赛克斯 5
赞比亚 5
赠款 5
赢取 5
赤道 5
赫尔 5
赫里斯 5
走狗 5
走路 5
赶下 5
超凡 5
越变 5
越拉越 5
越来越低 5
趋 5
跃升 5
跌@@ 5
跑道 5
跨界 5
路障 5
踌躇满志 5
蹩脚 5
身体@@ 5
身居 5
身穿 5
车祸 5
转型期 5
转瞬即逝 5
转身 5
轮状病毒 5
软件@@ 5
软弱无力 5
轰动 5
较慢 5
输油管道 5
辨认 5
辩护者 5
边上 5
辽阔 5
达伊 5
达赫 5
迁就 5
过渡政府 5
过错 5
迈入 5
迈勒 5
迈得 5
迎@@ 5
运抵 5
运营商 5
运输系统 5
近代 5
近年 5
返还 5
还手 5
这三项 5
这儿 5
这支 5
这正 5
这颗 5
进取心 5
进口成本 5
进口税 5
违规行为 5
迷信 5
迹 5
送上 5
送往 5
适用范围 5
逃@@ 5
逃出 5
逆向 5
逆袭 5
选情 5
选择权 5
选用 5
透明性 5
逐@@ 5
通报 5
通用汽车 5
通缉 5
通论 5
通货 5
通过观察 5
通风 5
造访 5
逾 5
遂 5
遇@@ 5
遇害 5
遍布全国 5
道琼斯 5
遥遥领先 5
遭殃 5
配@@ 5
配备 5
酶 5
酿成 5
里亚尔 5
里夫 5
里斯 5
重大意义 5
重大成就 5
重开 5
重提 5
重新部署 5
重构 5
重燃 5
重症 5
重金 5
量身 5
金斯 5
金融风暴 5
针头 5
钟摆 5
钢琴家 5
钻 5
钻探 5
铁丝网 5
铁了心 5
铅笔 5
银币 5
铸造 5
铺天盖地 5
铺张浪费 5
链@@ 5
错误@@ 5
长处 5
长官 5
长线 5
门前 5
闭嘴 5
问世 5
阪神 5
阻@@ 5
阿亚 5
阿勒萨尼 5
阿德利 5
阿斯匹林 5
阿森纳 5
阿罗约 5
阿隆 5
附加税 5
附着 5
陆克文 5
陈 5
陋习 5
降格 5
降速 5
限量 5
陡峭 5
险胜 5
陷在 5
隆 5
随从 5
随波逐流 5
隐晦 5
隐私权 5
隔离墙 5
隙 5
隶属于 5
难以自拔 5
雅加达 5
集体化 5
集权主义 5
雪崩 5
雷克斯 5
震 5
霍布斯 5
青藏高原 5
静止 5
非军事区 5
非市场 5
非法@@ 5
非营利性 5
面世 5
面试 5
革命派 5
须@@ 5
预估 5
预感 5
预料中 5
预案 5
预算案 5
预订 5
领到 5
领头 5
领导阶层 5
颇丰 5
颗粒 5
颜面扫地 5
风光 5
风度 5
风起云涌 5
飘忽不定 5
飞行器 5
飞速发展 5
食品业 5
食品行业 5
食言 5
餐饮 5
饮用 5
饱 5
饱和 5
馅饼 5
首付 5
首府 5
首批 5
香肠 5
马其顿共和国 5
马古富力 5
马尼拉 5
马拉喀什 5
马斯克 5
马格里布 5
马科斯 5
马英九 5
驶向 5
驾@@ 5
骤@@ 5
高产 5
高企@@ 5
高呼 5
高品质 5
高层次 5
高时 5
高等法院 5
高等级 5
高管们 5
高速铁路 5
魄 5
魄力 5
鲁兹 5
鲨 5
麦克纳马拉 5
麦卡锡 5
麦迪逊 5
黄金时代 5
黑客攻击 5
黑石 5
黑钱 5
! 4
0.05 4
020 4
08 4
1.65 4
101 4
104 4
105 4
115 4
12.5 4
13@@ 4
169 4
1800 4
185 4
1870 4
191 4
1915 4
1919 4
1923 4
1941 4
1942 4
1946 4
195 4
1952 4
1954 4
280 4
2800 4
290 4
380 4
4.4 4
401k 4
450 4
6.2 4
6.@@ 4
60@@ 4
640 4
680 4
7.2 4
9.2 4
9.6 4
ABC 4
AD 4
AIG 4
ALBA 4
ARPA 4
An@@ 4
BECCS 4
BS 4
CAPE 4
CBD 4
CFT 4
CN@@ 4
CO@@ 4
CP 4
CP@@ 4
CPJ 4
CR@@ 4
Cas@@ 4
DR 4
DVD 4
EITC 4
EPRDF 4
ES@@ 4
ET@@ 4
El@@ 4
FCI 4
FDIC 4
FTA 4
GNI 4
HICCup 4
HPV 4
ICC 4
ICU 4
INDC 4
IP 4
IR@@ 4
IS@@ 4
IST 4
JPM 4
Kibaki 4
LFPR 4
Lugovoi 4
MB 4
MH17 4
MIT 4
MS 4
Maghicle 4
Me@@ 4
Meet@@ 4
NA 4
NA@@ 4
NASA 4
ND@@ 4
OP@@ 4
OS 4
P2P 4
PA 4
PC 4
PDVSA 4
PE@@ 4
PMI 4
PP@@ 4
PYD 4
Po@@ 4
Pol@@ 4
QE3 4
QE@@ 4
SAARC 4
SARS 4
SC 4
ST@@ 4
Sarkozy 4
Sn@@ 4
Te@@ 4
UPA 4
WHC 4
ach@@ 4
ampgt 4
amplt 4
anc@@ 4
and 4
ang@@ 4
ard 4
arg@@ 4
arn@@ 4
ass@@ 4
aw@@ 4
b 4
bill 4
edia 4
era 4
ert 4
ess@@ 4
est 4
et@@ 4
gu@@ 4
iPad 4
ib@@ 4
ie@@ 4
ine 4
io 4
ir 4
konzo 4
nd@@ 4
ors 4
ov@@ 4
par@@ 4
pp@@ 4
q@@ 4
re 4
sh@@ 4
te 4
te@@ 4
ts@@ 4
tt@@ 4
uel 4
ul 4
ut@@ 4
ya 4
ü 4
▪ 4
一一@@ 4
一万亿美元 4
一串 4
一众 4
一党制 4
一具 4
一出 4
一切正常 4
一切顺利 4
一千 4
一团糟 4
一堂 4
一塌糊涂 4
一岁 4
一帖 4
一年一度 4
一弹 4
一惊 4
一意孤行 4
一无所获 4
一点一滴 4
一点一点 4
一片@@ 4
一瞬间 4
一秒 4
一章 4
一线希望 4
一缕 4
一般地说 4
一英里 4
一言九鼎 4
一言以蔽之 4
一贫如洗 4
一辈子 4
一针 4
一顿 4
七十 4
七名 4
七成 4
万份 4
万例 4
万多 4
万里 4
三心二意 4
三思而后行 4
三月份 4
三百@@ 4
三百万 4
三类 4
上报 4
上持 4
上校 4
下一波 4
下意识 4
下级 4
不买账 4
不了@@ 4
不信任感 4
不值 4
不偏不倚 4
不共戴天 4
不准 4
不分青红皂白 4
不厌其烦 4
不可告人 4
不可磨灭 4
不周 4
不堪@@ 4
不多 4
不妥 4
不屈 4
不屑 4
不怎么 4
不知@@ 4
不稳固 4
不绝于耳 4
不能@@ 4
不能自拔 4
不致 4
不菲 4
不言而喻 4
不设 4
不连贯 4
不间断 4
不闻不问 4
不顾一切 4
与此相关 4
丑 4
丑化 4
专业人才 4
专利@@ 4
专利制度 4
专员 4
专家@@ 4
专有 4
世俗化 4
世界遗产 4
世界领先 4
丛生 4
东侧 4
东南亚地区 4
东帝汶 4
两国人民 4
两套 4
两岸关系 4
两方 4
两翼 4
两股 4
两边 4
严 4
严冬 4
严刑@@ 4
严峻考验 4
严惩 4
严格@@ 4
严重错误 4
丧钟 4
个人隐私 4
个例 4
中华@@ 4
中国人民解放军 4
中国式 4
中大获 4
中央委员会 4
中心点 4
中美合作 4
丰 4
丰收 4
串@@ 4
临时工 4
临沂 4
丹尼 4
丹尼尔斯 4
为时@@ 4
为限 4
主力 4
主办@@ 4
主宰世界 4
主旋律 4
主管部门 4
主要职责 4
丽 4
举世@@ 4
举例来说 4
举棋不定 4
久拖不决 4
久经考验 4
义词 4
之举 4
之义 4
之人 4
之名 4
之巅 4
之徒 4
之星 4
之春所 4
之词 4
之谜 4
之音 4
乌戈 4
乎 4
乐团 4
乐施会 4
乙@@ 4
九倍 4
九月份 4
乞@@ 4
乞求 4
也@@ 4
也罢 4
乡下 4
书写 4
乳腺 4
了结 4
事倍功半 4
事到如今 4
事前 4
事实真相 4
事要 4
二级 4
于世 4
亏@@ 4
亏空 4
亏钱 4
互赖性 4
五人 4
五十万 4
五十年代 4
五千 4
五百 4
亚历克 4
亚尔 4
亡@@ 4
亡羊补牢 4
交易平台 4
交还给 4
交通系统 4
交道 4
交锋 4
交集 4
产业化 4
产后 4
享有@@ 4
京@@ 4
亲人 4
亲手 4
亲眼@@ 4
人口总数 4
人向 4
人多@@ 4
人才外流 4
人文科学 4
人权委员会 4
人类学家 4
人里 4
亿万 4
亿个 4
亿元 4
亿多美元 4
仅仅只是 4
仅存 4
今夏 4
今春 4
介质 4
仓@@ 4
他成 4
他本 4
仗@@ 4
付之@@ 4
付诸@@ 4
付诸东流 4
代表制 4
代谢 4
令人钦佩 4
以助 4
以有 4
以比 4
以示 4
以身作则 4
仲@@ 4
仲裁者 4
价值观念 4
任人唯亲 4
任何@@ 4
仿真 4
企 4
企业@@ 4
企业债 4
企及 4
伊丽莎白 4
伊利诺伊州 4
伊德 4
伊本 4
伍迪 4
伏击 4
休斯 4
众矢之的 4
优先股 4
优惠条件 4
优渥 4
优秀@@ 4
优美 4
优越感 4
会用 4
会计准则 4
会计师 4
传承 4
传教 4
传染给 4
传给 4
传统观念 4
伤痛 4
伦敦@@ 4
伪科学 4
伯利恒 4
伯特 4
伴 4
伴有 4
伸手 4
但据 4
但莫迪 4
但近 4
低层 4
佐证 4
体化 4
体面地 4
何况 4
何去何从 4
佛伦 4
佛得角 4
佛蒙特州 4
作法 4
作用力 4
你@@ 4
佩克 4
佯装 4
使然 4
使者 4
使馆 4
侄@@ 4
侍者 4
供给者 4
侦测 4
侵权行为 4
侵略@@ 4
俄中 4
俄亥俄州 4
俄政府 4
俗 4
保守党人 4
保持@@ 4
保持高速 4
信任@@ 4
信众 4
信奉宗教 4
信息系统 4
信用风险 4
信贷风险 4
修改@@ 4
修缮 4
修订版 4
修饰 4
俯首称臣 4
倍受 4
倒计时 4
候选国 4
倚@@ 4
倚赖 4
借机 4
倡议者 4
值此 4
假丝 4
假想敌 4
假肢 4
偏重于 4
停产 4
停战协定 4
停用 4
偷走 4
偿@@ 4
傅@@ 4
傍晚 4
催化 4
僧@@ 4
僧伽罗 4
元首 4
兄弟姐妹 4
充分@@ 4
充分证明 4
充满@@ 4
先期 4
先验 4
光顾 4
克劳 4
克劳德 4
克拉底 4
克曼 4
免 4
兢@@ 4
入不敷出 4
入境者 4
入手 4
全体@@ 4
全国@@ 4
全局性 4
全心全意 4
全是 4
全民投票 4
全球排名 4
全球通 4
全票 4
全面实施 4
全面性 4
八强 4
公 4
公之于众 4
公交@@ 4
公会 4
公共关系 4
公共场所 4
公墓 4
公审 4
公正性 4
公理 4
公路@@ 4
六方 4
六日 4
六次 4
兰尼加 4
兰花 4
共性 4
共计 4
共谋 4
共通 4
关停 4
关怀 4
关键@@ 4
关键步骤 4
关门大吉 4
兴高采烈 4
其上 4
其以 4
其向 4
其子 4
其本质 4
其能 4
具体步骤 4
养分 4
养殖业 4
兼具 4
兼容@@ 4
兽@@ 4
兽医 4
内债 4
内所 4
内疚 4
册 4
再也不会 4
再保险 4
再现 4
写下 4
写给 4
军中 4
军工 4
军警 4
农业生产者 4
农庄 4
农村居民 4
冤冤相报 4
冥@@ 4
冯@@ 4
冰点 4
冲锋枪 4
决不会 4
况且 4
冷眼旁观 4
净流入 4
准确率 4
凋零 4
减薪 4
几万 4
几代 4
几任 4
几十万 4
几千@@ 4
几点 4
几英里 4
凭着 4
凭证 4
出事 4
出人头地 4
出人意表 4
出入 4
出场 4
出境 4
出柜 4
出比 4
出狱 4
击毙 4
分之一 4
分明 4
分泌 4
分离出来 4
分级 4
分裂性 4
刊物 4
刑期 4
划拨 4
划界 4
则否 4
刚愎自用 4
创业家 4
创作 4
创造物 4
判例 4
利于 4
利大于弊 4
利己主义 4
利得税 4
利润率 4
别有用心 4
到时候 4
制成品 4
制肘 4
刺激作用 4
刺眼 4
剃@@ 4
削减到 4
前些年 4
前人 4
前哨 4
前无古人 4
前路 4
前身 4
剑 4
剑拔弩张 4
剩 4
剩@@ 4
劝@@ 4
劝服 4
办公@@ 4
功夫 4
功课 4
加在一起 4
加总 4
加拉加斯 4
加拿大人 4
加薪 4
加里 4
劣根性 4
动型 4
努力实现 4
劳 4
劳伦斯 4
劳工市场 4
劳方 4
势不可挡 4
势必 4
勒德 4
勤奋 4
包装盒 4
匈牙利政府 4
化为乌有 4
化为泡影 4
化妆品 4
化工产品 4
北方四岛 4
北海 4
北韩 4
匹兹堡 4
区域@@ 4
医学杂志 4
医疗机构 4
医药行业 4
十七世纪 4
十三 4
十三个 4
十名 4
十字军 4
十字架 4
十岁 4
十次 4
升起 4
升降 4
半边 4
华盛顿州 4
卓有成效 4
单一@@ 4
南半球 4
南墙 4
南岸 4
南美国家 4
南美洲 4
占领军 4
占领区 4
卡通@@ 4
卢卡斯 4
卢武铉 4
卫星@@ 4
卫生机构 4
卫生条件 4
卫生领域 4
印度@@ 4
印度河 4
印度议会 4
印美 4
危如累卵 4
却成 4
却没能 4
卸@@ 4
厂房 4
厄尔尼诺 4
历史渊源 4
历史背景 4
历次 4
厉@@ 4
压榨 4
压裂 4
厌烦 4
厚望 4
原产地 4
原创 4
原地踏步 4
原子@@ 4
去年底 4
参与@@ 4
参会 4
参差不齐 4
及早 4
双倍 4
双方同意 4
双轨制 4
双边会谈 4
双边协定 4
双边合作 4
反分裂法 4
反叛者 4
反恐怖 4
反托拉斯 4
反攻 4
发出信号 4
发明@@ 4
发电@@ 4
发自内心 4
发行@@ 4
发行者 4
发难 4
取回 4
受伤害 4
受到破坏 4
受压迫 4
受托 4
受灾地区 4
受苦 4
受试者 4
受限于 4
变富 4
变局 4
变幻 4
变幻莫测 4
变现 4
变相 4
叛国罪 4
叛逆 4
古板 4
召@@ 4
召唤 4
可以信赖 4
可口可乐 4
可望 4
可望而不可及 4
可达 4
可验证 4
台北 4
史密夫 4
史蒂文斯 4
史诗 4
号角 4
司 4
司@@ 4
司令 4
司法公正 4
叹@@ 4
叹为观止 4
吃饭 4
各个击破 4
各个方面 4
各党 4
各界 4
各省 4
各种因素 4
合体 4
合作@@ 4
合宪性 4
合法利益 4
合法政府 4
合法权利 4
合资 4
吉尔@@ 4
吉拉尼 4
吉米 4
吊@@ 4
同一天 4
同一时间 4
同时代 4
同步增长 4
同等条件 4
同胞@@ 4
同质 4
名录 4
名气 4
名誉扫地 4
后人 4
后勤 4
后台 4
后院 4
吐 4
吐温 4
吓 4
吞下 4
听天由命 4
启用 4
启迪 4
吴@@ 4
吸取经验 4
呆板 4
呈上升 4
告竭 4
告罄 4
员@@ 4
周边环境 4
呵护 4
咋 4
和平统一 4
和平部队 4
咳嗽 4
咸@@ 4
哈利 4
哈桑 4
哥哥 4
哪儿 4
哭@@ 4
哺乳动物 4
唇枪@@ 4
唯物主义 4
商业价值 4
商务@@ 4
喀喇昆仑山 4
喂饱 4
善良 4
喜剧 4
喜忧参半 4
喜悦 4
喝 4
喷洒 4
嗅觉 4
嘈杂 4
嘎@@ 4
嘴皮子 4
嘴里 4
器@@ 4
噪声 4
噱头 4
噶玛@@ 4
四岁 4
四日 4
四邻 4
四面楚歌 4
回头路 4
回忆录 4
回想到 4
回溯 4
回潮 4
回调 4
回首 4
因国 4
团结@@ 4
园丁 4
园区 4
围 4
围攻 4
固 4
固化 4
固定成本 4
国家机器 4
国家补贴 4
国所 4
国民经济 4
国父 4
国立大学 4
国门 4
国际公约 4
国际奥林匹克委员会 4
国际形势 4
国际石油 4
图书 4
圆桌会议 4
圆满@@ 4
圈@@ 4
土生土长 4
土著居民 4
在乎 4
在所不惜 4
地使 4
地方@@ 4
地质学家 4
场馆 4
均匀 4
坎 4
坎@@ 4
坏名声 4
坐以待毙 4
坐拥 4
坐视不理 4
坟墓 4
坠 4
坡 4
坦白 4
垂死 4
埃以 4
埃德 4
埋@@ 4
埋单 4
城市贫民 4
城镇@@ 4
域外 4
培养@@ 4
基准@@ 4
基加利 4
基尔库克 4
基本技能 4
基本特征 4
基本知识 4
基督教堂 4
基督教民主联盟 4
基督教社会联盟 4
基础@@ 4
基础科学 4
基要 4
堡@@ 4
堤 4
堪@@ 4
堪萨斯城 4
塔尔 4
塔拉特 4
塞尔维亚人 4
塞拉 4
塞维奇 4
墓 4
墓@@ 4
墓地 4
增产 4
增加@@ 4
增长幅度 4
增长量 4
增高 4
墨索里尼 4
墨西哥@@ 4
壁@@ 4
壮 4
声势 4
声势浩大 4
处事 4
处理@@ 4
外加 4
外向型 4
外来@@ 4
外汇@@ 4
外籍 4
多一些 4
多克 4
多党 4
多公里 4
多来 4
多种不同 4
多速 4
夥伴 4
大一统 4
大众公司 4
大体相当 4
大减 4
大力支持 4
大嘴巴 4
大夫 4
大放厥词 4
大杂烩 4
大案 4
大炮 4
大牢 4
大猩猩 4
大致相同 4
大船 4
大获 4
大计 4
大赢家 4
大跌眼镜 4
大都会 4
大错 4
大降 4
大雨 4
大鱼 4
天上掉 4
天下@@ 4
天体 4
天天 4
天敌 4
天文 4
天线阵 4
太平 4
太弱 4
太早 4
失之@@ 4
失血 4
头发 4
头号 4
头把交椅 4
头来 4
头版头条 4
头疼 4
头顶 4
夸大其词 4
夸夸其谈 4
夹击 4
夺得 4
奇点 4
奔 4
奔@@ 4
奔波 4
奔赴 4
套现 4
套餐 4
奥威尔 4
奥孔乔 4
奥尔 4
奥斯维辛 4
奥林匹克 4
奧 4
女婿 4
女权 4
奴 4
奸 4
奸@@ 4
好不容易 4
好些 4
好几@@ 4
好几代 4
好客 4
如其 4
如是 4
如此说来 4
妥 4
妻 4
始 4
姑且 4
姓名 4
委会 4
委派 4
威吓 4
威廉姆斯 4
威慑@@ 4
威摄 4
娃 4
嫁接 4
嫌疑犯 4
嫖@@ 4
孔雀 4
孕 4
字面上 4
存储@@ 4
孙子 4
孜@@ 4
季奇 4
学年 4
学术@@ 4
宅@@ 4
宇宙学 4
守住 4
守护者 4
安上 4
安东尼 4
安全带 4
安全部 4
安全阀 4
安和@@ 4
安宁 4
安德森 4
安德烈 4
安第斯@@ 4
安纳 4
安静 4
完全恢复 4
完全符合 4
宏伟目标 4
宏愿 4
官僚作风 4
官兵 4
宙斯 4
定位@@ 4
定势 4
定局 4
宜 4
宝贵@@ 4
实录 4
实际成本 4
客观性 4
宣传机构 4
宣泄 4
宣誓就职 4
宣讲 4
宫@@ 4
宫廷 4
宴@@ 4
家族企业 4
家用电器 4
家电 4
家长作风 4
容忍度 4
容错过 4
宽慰 4
宾夕法尼亚州 4
寂@@ 4
寄主 4
寄托 4
寅 4
密克罗尼西亚联邦 4
密切关系 4
富含 4
富庶 4
富有成效 4
富集 4
富饶 4
寒@@ 4
察 4
寡@@ 4
寥寥 4
寸@@ 4
对决 4
对埃 4
对局 4
对本 4
对照组 4
对阵 4
寺庙 4
导 4
导游 4
导者 4
导航 4
封堵 4
封建 4
射杀 4
射程 4
小型企业 4
小城 4
小城镇 4
小幅 4
小康之家 4
小生产者 4
小男孩 4
小觑 4
小额贷款 4
少年 4
尔森 4
尔比 4
尖@@ 4
尖塔 4
尖端科技 4
就会 4
就象 4
尺度 4
尼安德 4
尼日利亚人 4
尼日利亚政府 4
尼泊尔人 4
尼维斯 4
尼雷尔 4
尽人皆知 4
尽其所能 4
居住@@ 4
居住地 4
居家 4
居尔 4
居民区 4
屈尊 4
届@@ 4
属实 4
屡次 4
履@@ 4
履历 4
山坡 4
山脉 4
岗 4
岸信 4
崇@@ 4
崎@@ 4
崩 4
州@@ 4
工人党 4
工会组织 4
工作量 4
工商界 4
工地 4
工时 4
工科 4
工程学 4
巨大成功 4
巨灾 4
巫术 4
差点 4
己@@ 4
己方 4
己见 4
已使 4
已降 4
巴东 4
巴克 4
巴兰 4
巴厘岛 4
巴布亚新几内亚 4
巴拉@@ 4
巴政府 4
巴斯 4
布兰@@ 4
布加勒斯特 4
布尔 4
布拉特 4
布置 4
布莱恩 4
布道 4
布隆 4
布鲁斯 4
师资 4
希波 4
希里 4
帕斯卡 4
帝王 4
带去 4
席勒 4
常年 4
常规战争 4
幕后操纵 4
干干净净 4
干涸 4
平反 4
平均主义 4
平均气温 4
平平 4
平方米 4
平等@@ 4
平衡点 4
年任 4
年龄@@ 4
并不大 4
并列 4
幼儿@@ 4
广播@@ 4
庆 4
底气 4
底牌 4
废料 4
庭审 4
康德 4
康拉德 4
庸 4
庸@@ 4
廉洁 4
建坝 4
建筑商 4
建设项目 4
开动 4
开发利用 4
开发计划 4
开国元勋 4
开宗明义 4
开征 4
开源 4
开邦 4
开门 4
异口同声 4
异端 4
弃@@ 4
弊 4
引人关注 4
弗 4
弗氏 4
弗洛伊德 4
弗雷 4
弟@@ 4
弟弟 4
张贴 4
弯@@ 4
强加在 4
强盗 4
强音 4
当之无愧 4
当众 4
当场 4
当头@@ 4
当该 4
录取 4
形同 4
彻@@ 4
彼 4
彼迪 4
征得 4
征询 4
径@@ 4
待见 4
很棒 4
得偿 4
得少 4
得病 4
循环系统 4
微量 4
微量元素 4
德国议会 4
德意志 4
德维尔 4
德茜 4
德萨 4
德里克 4
心思 4
心满意足 4
心灰意冷 4
心甘情愿 4
心脏地带 4
必备 4
必由之路 4
忍 4
忍受@@ 4
忍饥挨饿 4
志在 4
忙@@ 4
忠诚度 4
快速反应 4
念头 4
忿@@ 4
态度强硬 4
怎能 4
怒气冲冲 4
怕 4
思维@@ 4
怠慢 4
急切需要 4
急跌 4
性交 4
性别角色 4
性能 4
性虐待 4
怪人 4
怪罪 4
总产量 4
总督 4
总要 4
恋@@ 4
恐怖事件 4
恐怖行动 4
恐惧感 4
恣意妄为 4
恩格尔 4
恭@@ 4
恭顺 4
恰到好处 4
恶习 4
恶劣影响 4
恶名 4
恶性@@ 4
恶梦 4
恶毒 4
恼怒 4
悄@@ 4
悉尼 4
患@@ 4
患病率 4
悼@@ 4
情侣 4
情理之中 4
情绪高涨 4
惊叹 4
惊吓 4
惨不忍睹 4
惨淡 4
惯 4
想不出 4
惹 4
愈@@ 4
愈合 4
愈渐 4
意指 4
意见@@ 4
感召 4
感性 4
感激 4
感觉良好 4
愿@@ 4
慈善事业 4
慢@@ 4
慢于 4
慢动作 4
懊@@ 4
戈森 4
成为@@ 4
成像 4
成功率 4
成功者 4
成形 4
成本增加 4
成瘾性 4
成绩@@ 4
成问题 4
我以 4
我能 4
戒严令 4
戒律 4
战国 4
战斗力 4
战斗部队 4
战略意义 4
战略方针 4
战绩 4
所想 4
所提 4
所获 4
所见所闻 4
扇 4
手术室 4
手臂 4
手铐 4
才行 4
扎卡维 4
打分 4
打包 4
打手 4
打理 4
打起 4
扔@@ 4
托儿所 4
托塔 4
托宾税 4
执政@@ 4
扩大化 4
扰@@ 4
批发 4
承办 4
承担者 4
技术人员 4
投票选举 4
投资总额 4
投资收益 4
投送 4
折中 4
抚慰 4
抢先 4
抢眼 4
抢走 4
报价 4
披 4
抬@@ 4
抱定 4
抽象@@ 4
抽走 4
拉丁@@ 4
拉夫罗夫 4
拉姆 4
拐@@ 4
拒绝给予 4
拓@@ 4
拖垮 4
拖拉 4
拖网 4
拙@@ 4
招工 4
拣@@ 4
拦@@ 4
拼图 4
拿捏 4
挂@@ 4
指导意义 4
指导方针 4
指手画脚 4
指挥部 4
指日可待 4
挡箭牌 4
挣到 4
挪用 4
挫折感 4
捆住 4
捏 4
捏造 4
捕 4
捞@@ 4
损 4
换代 4
捣@@ 4
捷@@ 4
授课 4
掌权者 4
掌舵 4
掏腰包 4
排位 4
排入 4
排列 4
排名第 4
排头兵 4
排斥性 4
掘出 4
掠 4
掠夺者 4
探寻 4
接受程度 4
接种率 4
接见 4
控告 4
控诉 4
推后 4
推向市场 4
推进改革 4
掷 4
描写 4
提速 4
插@@ 4
握@@ 4
揭露出 4
援救 4
搅@@ 4
搞好关系 4
搞清楚 4
搭乘 4
摇滚乐 4
摇篮 4
摊派 4
摘@@ 4
摩天大楼 4
摩湾 4
摩西 4
撇开 4
撒旦 4
撞击 4
播 4
播出 4
撰@@ 4
擅@@ 4
操 4
操作性 4
操守 4
操心 4
擦@@ 4
攀爬 4
收入者 4
收效 4
收缴 4
改名 4
改弦更张 4
改用 4
改组 4
攻 4
放任自流 4
放眼世界 4
放置 4
放血 4
政治史 4
政治气候 4
政治界 4
政要 4
效@@ 4
敏感度 4
救命稻草 4
救市 4
教条主义 4
教父 4
教育体制 4
教诲 4
敛@@ 4
敬 4
敬意 4
数不胜数 4
数亿美元 4
数以万计 4
数以千万计 4
数千@@ 4
数百万个 4
整理 4
文书 4
文人 4
文化交流 4
文科 4
斐然 4
斤@@ 4
斥为 4
斩获 4
斩钉截铁 4
断断续续 4
断裂 4
斯图尔特 4
斯德哥尔摩 4
斯托@@ 4
斯托克 4
斯拉@@ 4
斯特劳斯 4
斯瓦特 4
斯科特 4
斯顿 4
新一波 4
新兴@@ 4
新华社 4
新房 4
新手 4
新技能 4
新版 4
新篇章 4
新老 4
新股 4
新词 4
新闻台 4
新闻频道 4
新陈代谢 4
方在 4
方来 4
方法论 4
方程组 4
方都 4
施工 4
施瓦@@ 4
旁观 4
旁遮@@ 4
旅客 4
旅途 4
旗@@ 4
旗手 4
无伤大雅 4
无偿 4
无党派 4
无力感 4
无常 4
无所不用其极 4
无所事事 4
无数次 4
无止境 4
无法@@ 4
无现金 4
无理 4
无端 4
无证 4
日俄战争 4
日夜 4
日托 4
日本化 4
日本国会 4
日积月累 4
日薄西山 4
日起 4
早点 4
早该 4
时代@@ 4
时向 4
时报 4
时有 4
时有发生 4
时段 4
时滞 4
时节 4
时要 4
旺盛 4
昂 4
昆德拉 4
明斯克 4
明确要求 4
易如反掌 4
星期一 4
星期天 4
映@@ 4
昭@@ 4
显身手 4
显露出 4
晋@@ 4
晚年 4
晚餐 4
普拉@@ 4
普适 4
景 4
景色 4
晴雨表 4
智@@ 4
智力测验 4
智能@@ 4
晾 4
暗含 4
暗指 4
暴力犯罪 4
暴富 4
暴虐 4
曲@@ 4
曲折 4
更让人 4
更足 4
替代选择 4
最弱 4
最最 4
最热 4
最糟 4
最让人 4
最长 4
最难 4
有创造力 4
有句名言 4
有多@@ 4
有大 4
有志于 4
有意思 4
有意无意 4
有所区别 4
有理有据 4
有钱人 4
服务供应商 4
服务行业 4
服务质量 4
望而生畏 4
朝日新闻 4
期内 4
未成年 4
未确定 4
本方 4
本是 4
本来面目 4
本案 4
本金 4
朱莉 4
朴 4
机智 4
机械@@ 4
机械式 4
机率 4
权威人士 4
权宜 4
权谋 4
杆@@ 4
李 4
李嘉图 4
杞人忧天 4
束@@ 4
来回 4
来访 4
杰拉德 4
极好 4
极点 4
极端困难 4
构@@ 4
林地 4
林毅夫 4
枪击案 4
枯@@ 4
枯荣 4
枯萎 4
柔@@ 4
查看 4
柯拉 4
柯比 4
柯齐 4
标普 4
标杆 4
栋 4
核废料 4
核心理念 4
核政策 4
核装置 4
核试 4
格兰@@ 4
格尔 4
格莱@@ 4
桌面 4
梅在 4
梯@@ 4
棉兰 4
棋子 4
棒@@ 4
植被 4
概念@@ 4
榜首 4
槽 4
横亘 4
横向 4
橄榄@@ 4
橄榄球 4
欠下 4
欠佳 4
欠款 4
次年 4
次序 4
欧洲地区 4
欧者 4
款@@ 4
歌剧 4
歌颂 4
止步 4
正为 4
正确@@ 4
正站 4
正统思想 4
正统性 4
此列 4
此地 4
此处 4
此案 4
此番 4
此起彼伏 4
步调一致 4
武 4
武装斗争 4
死伤 4
死板 4
死硬派 4
死者 4
残 4
残酷无情 4
殖民者 4
母猪 4
每一 4
每加仑 4
毒剂 4
比亚 4
比值 4
比奥 4
比用 4
比肩 4
毕@@ 4
毛派 4
毛里塔尼亚 4
毛骨悚然 4
毫不动摇 4
毫不迟疑 4
毫无@@ 4
毫无作用 4
毫无关系 4
氏症 4
民主主义 4
民事@@ 4
民航 4
气候@@ 4
气息 4
气愤 4
气旋 4
气田 4
氢弹 4
氧气 4
水产 4
水火不容 4
水落石出 4
永生 4
求存 4
求职者 4
汇回 4
汉班 4
汗@@ 4
江@@ 4
江户 4
江河日下 4
汤 4
汤姆 4
汽车行业 4
沈阳 4
沉 4
沉寂 4
沉痛 4
沙林 4
沙里夫 4
没想到 4
没有勇气 4
没用 4
治标不治本 4
沿袭 4
泄@@ 4
法典 4
法学家 4
法尔 4
法律义务 4
法律手段 4
法律法规 4
法律界 4
法拉奇 4
法比尤斯 4
泡影 4
波利斯 4
波浪 4
波音 4
注视 4
泰姬陵 4
泰尔 4
泼 4
洋洋自得 4
洗手 4
洗澡水 4
洗白 4
洗礼 4
洗耳恭听 4
洛斯 4
洛特 4
洞察 4
活在 4
活跃度 4
流民 4
浅@@ 4
浑身解数 4
浪@@ 4
浴缸 4
海关 4
海市蜃楼 4
海拔 4
海洋环境 4
海洋资源 4
海滨 4
海豹 4
海边 4
海鲜 4
涂成 4
涅姆佐夫 4
消 4
消减 4
消解 4
消费主义 4
涌动 4
涡轮机 4
涣散 4
深刻反思 4
深感不安 4
混凝土 4
混淆视听 4
添@@ 4
清洁工 4
清醒过来 4
渊博 4
渐进主义 4
渐长 4
渡@@ 4
温哥华 4
温州 4
渴 4
游击 4
游泳 4
游行者 4
游览 4
湾 4
溜@@ 4
溢@@ 4
滋味 4
滚@@ 4
满怀 4
满满 4
满满的 4
滴 4
漆@@ 4
漏水 4
演化出 4
演示 4
演讲时 4
潘 4
潜@@ 4
潜伏 4
激进份子 4
灌溉系统 4
火箭炮 4
火花 4
火车头 4
火车站 4
火鸡 4
灯@@ 4
灰飞烟灭 4
灵长类 4
炉 4
炎热 4
炭 4
炮弹 4
炸@@ 4
炸死 4
炸药 4
炼油 4
炼油厂 4
烟消云散 4
烟草行业 4
热切 4
热点问题 4
热议 4
焕然一新 4
焦 4
煞费苦心 4
熔炉 4
熙 4
熟 4
熟练程度 4
熟视无睹 4
爬 4
爱国@@ 4
爱好 4
爱心 4
父@@ 4
片段 4
片面 4
版@@ 4
牟取 4
牢牢地 4
牢狱之灾 4
牧 4
牧民 4
物业 4
物质@@ 4
物质利益 4
牵强 4
牵线 4
特斯拉 4
特曼 4
特派团 4
特许权 4
特赦 4
犹他州 4
犹太教徒 4
犹如 4
狂妄自大 4
狂热者 4
狄@@ 4
狗狗 4
独力 4
独断 4
独裁政治 4
狱@@ 4
狼狈 4
狼狈为奸 4
猛烈地 4
猛虎 4
猜 4
猜@@ 4
猴子 4
玉@@ 4
王位 4
王星 4
王牌 4
玛雅 4
玩笑 4
环保局 4
环境友好 4
环境署 4
环境退化 4
环球时报 4
现代战争 4
现如今 4
现货 4
珍 4
珍妮弗 4
珍贵 4
珠宝 4
球场上 4
理事 4
理直气壮 4
琴 4
琴科 4
瑞安 4
瓦时 4
瓶装水 4
甄别 4
甘 4
甘愿 4
甚众 4
甚远 4
甜@@ 4
生产链 4
生命@@ 4
生命体 4
生存空间 4
生日 4
生物制药 4
生物化学 4
生物科技 4
生长激素 4
用电 4
用药 4
用量 4
田园 4
田地 4
申报 4
申明 4
申请人 4
申请加入 4
电动 4
电脑@@ 4
电视辩论 4
电话会议 4
画@@ 4
画作 4
画像 4
畅销书 4
界@@ 4
畏缩 4
略作 4
略显 4
番 4
疆界 4
疏@@ 4
疑欧 4
疟俘 4
疯 4
疲于奔命 4
疲惫不堪 4
病虫害 4
痛斥 4
痴人说梦 4
痴呆 4
瘦 4
登岛 4
白天 4
白手起家 4
白白 4
百分之一 4
百名 4
百强 4
百科全书 4
的黎波里 4
皆知 4
皇军 4
皇后 4
皮涅拉 4
皮球 4
皮肤 4
盐@@ 4
监@@ 4
盖洛普 4
盗@@ 4
盛大 4
盟 4
目标值 4
直升飞机 4
直言 4
直通 4
相互信任 4
相互合作 4
相互间 4
相像 4
相关联 4
相助 4
相对论 4
相隔 4
省下 4
眉@@ 4
看不出 4
看得 4
看门人 4
眠 4
眼前一亮 4
眼前利益 4
眼皮底下 4
着眼点 4
睁@@ 4
睁一只眼 4
睡觉 4
睦邻政策 4
知名度 4
短期投资 4
短短的 4
石原慎太郎 4
石油@@ 4
石油危机 4
石油部门 4
矿产资源 4
码事 4
砍@@ 4
砍伐森林 4
砍掉 4
研究生 4
破坏者 4
破碎 4
硅 4
硬通货 4
确@@ 4
碍@@ 4
碎@@ 4
碰上 4
碰面 4
碳@@ 4
碳水化合物 4
磅 4
磨 4
磨难 4
磷酸盐 4
示 4
示范 4
社@@ 4
社会活动 4
社会科学家 4
社会转型 4
社会阶层 4
社群 4
祈@@ 4
祖母 4
祖辈 4
神化 4
神学 4
神学院 4
神灵 4
祸根 4
禁售 4
离世 4
离网 4
私 4
私房 4
私有财产 4
种族主义者 4
科威特人 4
科学依据 4
科目 4
科齐 4
租期 4
租赁 4
积分 4
积极响应 4
积极行动 4
积重难返 4
称呼 4
移动性 4
移居国外 4
移民法 4
程序性 4
税则 4
税源 4
税额 4
稻田 4
稻米 4
穆迪 4
穷途末路 4
空头支票 4
空话 4
穿@@ 4
突触 4
窄 4
窝@@ 4
立下 4
立志 4
立方米 4
立法会 4
站边 4
竟 4
符合@@ 4
笨重 4
第一天 4
第一阶段 4
第三名 4
第三点 4
第九 4
第二名 4
第二套 4
第五版 4
第四条 4
第四种 4
笼箱 4
笼罩着 4
等式 4
策划者 4
策源地 4
筹款 4
签定 4
签约国 4
简洁 4
算作 4
管理机制 4
箱@@ 4
箱子 4
篮球 4
篱笆 4
米特 4
类药物 4
粉@@ 4
粮农组织 4
精于 4
精心安排 4
精心策划 4
精神失常 4
精神科 4
精良 4
糊弄 4
糖@@ 4
系@@ 4
素养 4
素食者 4
索取 4
索尼娅 4
索引 4
索性 4
紧张状态 4
紧随 4
繁@@ 4
繁荣昌盛 4
红场 4
红树林 4
红灯 4
红衫 4
约翰内斯堡 4
纪念馆 4
纲 4
纳斯 4
纳斯鲁拉 4
纳特 4
纾解 4
线@@ 4
线粒体 4
细胞@@ 4
终究会 4
终身@@ 4
经久不衰 4
经济趋势 4
经济部长 4
经验@@ 4
经验不足 4
绑架者 4
结成联盟 4
结社 4
给钱 4
绝无仅有 4
绝路 4
绞刑 4
统一行动 4
统帅 4
统治阶级 4
统治集团 4
继任人 4
继承权 4
继承者 4
继续前进 4
绳 4
绳@@ 4
绳之以法 4
维修 4
维持秩序 4
缓 4
编排 4
编织 4
缘 4
缠住 4
缩写 4
缴@@ 4
缴款 4
缴获 4
缺钱 4
网络时代 4
罗伯茨 4
罗兹 4
罗恩 4
罗素 4
罗马帝国 4
罪责 4
置喙 4
置若罔闻 4
美国商务部 4
美国国家安全局 4
美国联邦政府 4
美国能源 4
美国能源部 4
美帝国主义 4
美索不达米亚 4
羞于 4
群众运动 4
群情 4
羽@@ 4
羽毛 4
翻修 4
翻天覆地 4
老一代 4
老年@@ 4
老式 4
老手 4
老方 4
老话 4
老龄 4
而仅 4
而会 4
而出 4
而广受 4
而此 4
而用 4
而非 4
耳道 4
耶夫 4
耶稣 4
耶鲁 4
职业女性 4
职业技能 4
联合会杯 4
联合开发 4
联名 4
联结 4
联署 4
联通 4
聘 4
聚变 4
聪明才智 4
肇始 4
股@@ 4
股价指数 4
股市市值 4
肢 4
肥皂泡 4
肩负 4
育种 4
胆子 4
胜于 4
胜算 4
胡 4
胡主席 4
胡说八道 4
胸@@ 4
能干 4
能活 4
脏@@ 4
脑子 4
脚手架 4
脸@@ 4
脸皮 4
脸色 4
脸面 4
腾讯 4
自保 4
自卫权 4
自吹自擂 4
自家 4
自我批评 4
自满情绪 4
自然哲学 4
自由@@ 4
自由度 4
自由职业者 4
自由言论 4
自由选择 4
自行@@ 4
自觉 4
自认 4
自说自话 4
自问 4
致裂 4
舌战 4
舒 4
航天局 4
航海 4
航空航天 4
舰船 4
舶来品 4
艰难度日 4
色子 4
艳 4
艺术作品 4
花招 4
苍白无力 4
苏丹人 4
苏共 4
若能 4
苦于 4
苦恼 4
英亩 4
英属 4
范@@ 4
茶叶 4
草原 4
荒 4
荒@@ 4
荒漠化 4
药价 4
药厂 4
药房 4
荷兰政府 4
荷比卢 4
莫名其妙 4
莫大 4
莫氏 4
莫汉 4
莫里斯 4
莱索托 4
莱维 4
获奖者 4
获得性 4
获知 4
菜@@ 4
菲尔德 4
营养价值 4
营养学 4
萨尔维尼 4
萨斯 4
萨缪尔森 4
落败 4
董事长 4
蒂尔 4
蒙代尔 4
蒙德 4
蒙特 4
蒙特利尔 4
蒸汽 4
蓄水 4
蓝领工人 4
薪金 4
藏传佛教 4
藏匿 4
虐 4
虐@@ 4
虚无主义 4
蛇头 4
蜂 4
螺旋式 4
蟒蛇 4
血管 4
行为@@ 4
行刑 4
行刑队 4
行将就木 4
行星 4
街@@ 4
补充性 4
补足 4
表外 4
表格 4
表露 4
表面文章 4
袋鼠 4
被压迫 4
被抛弃了 4
被盗 4
裁军谈判 4
装扮 4
褪去 4
西南 4
西奥多 4
西姆 4
西科尔斯基 4
西非国家 4
要员 4
要强 4
见怪不怪 4
见过 4
见风使舵 4
观感 4
观赏 4
规范化 4
规范性 4
视听 4
觉@@ 4
解职 4
触 4
触犯 4
言语 4
詹@@ 4
誉 4
警卫 4
计划@@ 4
计数 4
计算机科学 4
计算机程序 4
订@@ 4
订单 4
订阅 4
认真思考 4
认知技能 4
讨 4
讨@@ 4
让路 4
训练营 4
训诫 4
议 4
议@@ 4
议定 4
论战 4
讽刺性 4
设置障碍 4
访日 4
证@@ 4
证人 4
证券交易 4
评定 4
诈 4
诉@@ 4
诉诸武力 4
试@@ 4
试验场 4
询 4
该报 4
该是 4
该案 4
该税 4
详尽 4
语境 4
说起 4
诺克 4
诺德 4
读一读 4
课程@@ 4
谁又能 4
调查员 4
调解人 4
调转 4
谋利 4
谎 4
谜 4
谢 4
谦虚 4
谦逊 4
谲 4
豪@@ 4
贝克尔 4
贝卢斯 4
贝尔 4
负债率 4
负面效应 4
财务@@ 4
财务状况 4
财政年度 4
财政部门 4
货运量 4
质子 4
贫 4
贴切 4
贸易国 4
费尔南德斯 4
费希尔 4
贺 4
贾利勒 4
贾南 4
资产负债 4
资源@@ 4
资金量 4
赋@@ 4
赌 4
赌场 4
赌局 4
赎罪 4
赏 4
赐予 4
赖@@ 4
赛事 4
赞 4
赠与 4
赤@@ 4
走私者 4
赵连海 4
起色 4
趁@@ 4
超高 4
越战 4
越近 4
越重 4
趋之若鹜 4
趣@@ 4
足球运动 4
跌入 4
跌落 4
跟@@ 4
路面 4
跳板 4
跳舞 4
践行 4
踊跃 4
身体状况 4
身心健康 4
身材 4
躺 4
转包 4
转发 4
转嫁 4
转嫁给 4
转换成 4
转载 4
轴 4
轻信 4
轻度 4
轻描淡写 4
辅助性 4
输赢 4
辛斯基 4
辞令 4
辨 4
辱骂 4
边境地区 4
边境税 4
边界线 4
边防 4
达到目标 4
迁入 4
过桥 4
过渡时期 4
过火 4
过猛 4
过重 4
运算 4
运载 4
近在眼前 4
这倒 4
这出 4
这名 4
这回 4
这届 4
这幅 4
这番 4
这群人 4
这门 4
进口额 4
进攻性 4
进步性 4
进退两难 4
远去 4
远胜 4
连动 4
连环 4
迟@@ 4
迫不得已 4
迷惑不解 4
追求@@ 4
追索 4
退潮 4
退让 4
送入 4
送回 4
适时 4
逃到 4
逃跑 4
逃过 4
逃避现实 4
逆流 4
逆转录酶 4
逆风 4
选取 4
选购 4
逊@@ 4
递延 4
通讯@@ 4
逝 4
道德行为 4
遗孀 4
遗迹 4
遥相呼应 4
避@@ 4
避孕套 4
避难权 4
邪恶轴心 4
邻 4
部@@ 4
部位 4
郭 4
配电 4
酪 4
酬劳 4
酵母 4
酵母菌 4
酸@@ 4
里卡多 4
里德尔 4
里约热内卢 4
重估 4
重压 4
重复性 4
重大事件 4
重大突破 4
重大胜利 4
重温 4
野火 4
野田 4
金牌 4
金白银 4
金矿 4
钟@@ 4
钟情 4
钟爱 4
钦奈 4
钩 4
铁律 4
铁托 4
铅 4
铜@@ 4
银行信贷 4
银行界 4
铸就 4
铸币 4
铺@@ 4
铺就 4
铺设 4
销@@ 4
锁 4
错误信息 4
锡克教 4
镇@@ 4
镜像 4
长期化 4
长程 4
长篇 4
长篇大论 4
长袖善舞 4
长足进步 4
长长的 4
长队 4
闭@@ 4
闭一只眼 4
问卷 4
问询 4
问过 4
闯入 4
闲暇 4
间断 4
间谍活动 4
闻所未闻 4
阐释 4
队员 4
阴 4
阵脚 4
阶段性 4
阻拦 4
阿克拉 4
阿兰 4
阿尔瓦罗 4
阿德 4
阿拉伯联合酋长国 4
阿拉伯语 4
阿瑟 4
阿登纳 4
阿赫 4
附加条件 4
附和 4
陈腐 4
降下来 4
降为 4
降价 4
降温 4
院@@ 4
院长 4
除掉 4
除此以外 4
险些 4
陪审团 4
隐忍 4
隐忧 4
隔阂 4
难看 4
难辞其咎 4
雅鲁藏布江 4
集中@@ 4
集中体现 4
集中力量 4
集中控制 4
集体主义 4
雏形 4
雨@@ 4
雨林 4
零下 4
零散 4
零时 4
霍夫 4
霍尔 4
露@@ 4
青春期 4
静观其变 4
非专利 4
非国大 4
非常低 4
非常少 4
非得 4
非标准 4
非核 4
非盈利性 4
非线性 4
非议 4
靠着 4
面向未来 4
面面俱到 4
靶子 4
鞭策 4
韦伯 4
韦兹 4
韦拉 4
韩@@ 4
韩三国 4
韩日 4
韩美 4
韬光养晦 4
音@@ 4
音乐@@ 4
页面 4
顶住 4
项@@ 4
顺理成章 4
预报 4
预料之中 4
预言家 4
领 4
领养 4
领军人物 4
领导小组 4
领导班子 4
领空 4
频 4
题为 4
颤抖 4
风向 4
风气 4
风貌 4
风雨 4
风雨飘摇 4
飘@@ 4
飞船 4
首发 4
首届 4
首脑会晤 4
首访 4
首轮 4
香料 4
香港政府 4
香蕉 4
马克斯 4
马匹 4
马哈蒂尔 4
马琳 4
马苏 4
马蒂斯 4
马解 4
马达 4
马里兰州 4
驱赶 4
驱逐出境 4
驳 4
驳倒 4
驻@@ 4
驻地 4
驻外 4
驾轻就熟 4
骆驼 4
验 4
骎 4
骗 4
骗术 4
骨头 4
高分子 4
高原 4
高发 4
高喊 4
高学历 4
高居 4
高度@@ 4
高度发达 4
高度重视 4
高明 4
高枕无忧 4
高校 4
高档 4
高温 4
高等 4
高级@@ 4
高铁 4
高高在上 4
魁北克 4
魂@@ 4
魔@@ 4
魔爪 4
魔盒 4
鱼肉 4
鲜活 4
鲜花 4
鳕鱼 4
鸠山 4
鸣 4
鹅 4
麦克@@ 4
麦当劳 4
麾下 4
黄岩岛 4
黎凡特 4
黎巴嫩人 4
黑塞哥维那 4
黑手 4
黑熊 4
默拉 4
黛@@ 4
黯然 4
鼠标 4
鼻@@ 4
齐达内 4
* 3
.5 3
0.0@@ 3
09 3
1.0@@ 3
1.37 3
1.45 3
10.6 3
106 3
113 3
116 3
12000 3
126 3
127 3
134 3
135 3
143 3
149 3
1492 3
15.1 3
157 3
162 3
17000 3
1707 3
1718 3
1812 3
1815 3
1825 3
1861 3
1871 3
1892 3
1926 3
1934 3
1955 3
196 3
200@@ 3
2027 3
2033 3
2060 3
2080 3
215 3
2200 3
230 3
2300 3
236 3
260 3
299 3
30MKM 3
310 3
345 3
3G 3
4.3 3
40@@ 3
425 3
440 3
444 3
470 3
480 3
5.2 3
5.4 3
5.7 3
580 3
6400 3
7.8 3
75000 3
8.4 3
8.6 3
8.7 3
80@@ 3
8500 3
860 3
870 3
9.1 3
9.3 3
9.7 3
@ 3
AES 3
AFC 3
AGI 3
AO 3
ART 3
ATM 3
Abkhazia 3
Adua 3
Al 3
Alex@@ 3
At@@ 3
BLS 3
BMW 3
BT 3
Bar@@ 3
CDR 3
CE@@ 3
CEA 3
CELAC 3
CIA 3
CNN 3
CNY 3
COP@@ 3
CSU 3
Cal@@ 3
Casalud 3
Cl@@ 3
DF 3
DP 3
DS 3
DSM 3
Del@@ 3
DiEM25 3
Digital 3
Du@@ 3
EBM 3
EDC 3
EFS@@ 3
EMU 3
EN@@ 3
EPA 3
EPP 3
ESM 3
EverSweet 3
E通 3
FC 3
FML@@ 3
FON 3
FP 3
Fit@@ 3
GB 3
GBD 3
GDVC 3
GGE 3
GP 3
H1N1 3
Han@@ 3
ICD 3
ICO 3
ICSID 3
ICTY 3
ID 3
IDA 3
INGO 3
IPS 3
IRGC 3
Jacques 3
John@@ 3
KR@@ 3
Kaczynski 3
K党 3
LIA 3
LinkedIn 3
M5S 3
MBS 3
MDB 3
MFI 3
MHP 3
MO 3
MP 3
Mailat 3
Mas@@ 3
Me 3
Med@@ 3
Mirror 3
Mon@@ 3
My@@ 3
NAIRU 3
NANBU 3
NBA 3
NHS 3
NI@@ 3
NT@@ 3
Nex@@ 3
OO@@ 3
ORT 3
Office 3
Ooniprobe 3
PAR@@ 3
PAS 3
PC@@ 3
PESA 3
PM2.5 3
PN@@ 3
PO 3
PR@@ 3
PSA 3
Paul 3
Pay@@ 3
Per@@ 3
Pl@@ 3
Power@@ 3
Pro@@ 3
R2P 3
RE@@ 3
Reid 3
Ro@@ 3
SBN 3
STEM 3
Shwari 3
Siegel 3
Skill@@ 3
Stre@@ 3
T3 3
TARG@@ 3
TTP 3
TV@@ 3
Target 3
Tigar 3
UNFCCC 3
UNRWA 3
UWF 3
WHO 3
Watsi 3
Wolf@@ 3
X光 3
Yar 3
YouG@@ 3
ace 3
ai 3
ami 3
ana 3
ani 3
ans@@ 3
ard@@ 3
are 3
ars 3
art 3
ba@@ 3
bit 3
chad@@ 3
co@@ 3
de@@ 3
der@@ 3
dit 3
eaf 3
ean 3
ec@@ 3
ect 3
ek@@ 3
enberg 3
ens@@ 3
ern@@ 3
esc@@ 3
et 3
ev@@ 3
ex@@ 3
ez 3
ff@@ 3
fir@@ 3
fos@@ 3
ian@@ 3
ich@@ 3
ick@@ 3
id 3
ident@@ 3
iel 3
ig 3
indows 3
ity 3
iv@@ 3
ive 3
ix 3
kill 3
las 3
net 3
oh@@ 3
oj@@ 3
ola 3
old 3
oll@@ 3
omic@@ 3
ons@@ 3
oor 3
oun@@ 3
ous 3
out 3
owitz 3
oz@@ 3
polac@@ 3
pro@@ 3
tify 3
ub@@ 3
uk@@ 3
ure 3
w 3
ws 3
yan 3
zi 3
º 3
á 3
‑ 3
‧ 3
一万@@ 3
一世 3
一丘之貉 3
一两年 3
一个个 3
一个半 3
一个多月 3
一个零 3
一事 3
一亿 3
一伙 3
一关 3
一分 3
一去不复返了 3
一周年 3
一团 3
一团和气 3
一堵 3
一声 3
一夜 3
一大块 3
一大笔钱 3
一大群 3
一夫多@@ 3
一季 3
一干二净 3
一年级 3
一并 3
一损俱损 3
一无所有 3
一时间 3
一极 3
一枪 3
一棒 3
一概 3
一段距离 3
一段路 3
一比 3
一氧化@@ 3
一氧化碳 3
一点儿 3
一现 3
一百 3
一百万个 3
一百万年 3
一百个 3
一百倍 3
一百八十度 3
一百周年 3
一盘散沙 3
一知半解 3
一笔勾销 3
一纸空文 3
一股脑 3
一般来讲 3
一袋 3
一览无余 3
一言堂 3
一说 3
一课 3
一走了之 3
一遍 3
一鼓作气 3
万事大吉 3
万事达 3
万分 3
万分之 3
万到 3
万劫不复 3
万多名 3
万左右 3
万票 3
万辆 3
三亿 3
三四十 3
三座 3
三星 3
三起 3
上下@@ 3
上位 3
上佳 3
上升幅度 3
上升时 3
上场 3
上届 3
上当 3
上时 3
上映 3
上海浦东 3
上用 3
上缴 3
上花 3
上规模 3
上证 3
上证@@ 3
上述事实 3
下岗工人 3
下旬 3
不一 3
不两立 3
不义之财 3
不予@@ 3
不倒 3
不假思索 3
不免 3
不全 3
不前 3
不加 3
不加@@ 3
不及格 3
不发 3
不合情理 3
不在意 3
不在此列 3
不坏 3
不多见 3
不够格 3
不太好 3
不屈不挠 3
不归路 3
不得人心 3
不得已 3
不怀好意 3
不惜@@ 3
不惮 3
不懈努力 3
不敢@@ 3
不断深入 3
不晚 3
不期@@ 3
不比 3
不法@@ 3
不灵 3
不由 3
不畅 3
不痛不痒 3
不着边际 3
不知不觉 3
不知疲倦 3
不离 3
不移 3
不结盟 3
不胜任 3
不许 3
不论什么 3
不费吹灰之力 3
不逊于 3
不长 3
不问 3
不齿 3
与世隔绝 3
与此无关 3
专门@@ 3
专门从事 3
专项资金 3
世世代代 3
世故 3
世是 3
世界冠军 3
世界大国 3
世界报 3
世界纪录 3
世间 3
业内 3
东京都 3
东南@@ 3
东南部 3
东山再起 3
东方@@ 3
东海岸 3
东边 3
丝 3
丝虫病 3
两党制 3
两分 3
两分法 3
两到 3
两国制 3
两国均 3
两届 3
两德 3
两手@@ 3
两条路 3
两枚 3
两艘 3
两败俱伤 3
两道 3
两面@@ 3
严加 3
严格执行 3
严重@@ 3
丧 3
个人收入 3
个体差异 3
个体户 3
中一 3
中产阶层 3
中去 3
中受 3
中向 3
中国社会科学院 3
中均 3
中央财政 3
中小 3
中度 3
中心地带 3
中所处 3
中所言 3
中曾 3
中曾根康弘 3
中流砥柱 3
中称 3
中程 3
中窥@@ 3
中约 3
中要 3
中转 3
中途 3
中间@@ 3
中韩关系 3
中饱私囊 3
丰田 3
临 3
临床@@ 3
为人@@ 3
为傲 3
为害 3
为己有 3
主人公 3
主办国 3
主动权 3
主宰者 3
主导权 3
主导者 3
主岛 3
主播 3
主政 3
主教 3
主观@@ 3
丽卡 3
久坐 3
久远 3
义不容辞 3
之事 3
之以 3
之妙 3
之妻 3
之子 3
之实 3
之害 3
之年 3
之忧 3
之怒 3
之慨 3
之所@@ 3
之春中 3
之春后 3
之机 3
之极 3
之死 3
之父 3
之箭 3
之计 3
之踵 3
之重 3
之长 3
乌兹别@@ 3
乌卢 3
乌里 3
乌龟 3
乒乓@@ 3
乔杜里 3
乔纳森 3
乖@@ 3
九十 3
九岁 3
乡镇 3
书呆子 3
书架上 3
书记 3
买主 3
买到 3
买空 3
买账 3
乱麻 3
乳 3
争议地区 3
事上 3
事务部长 3
事实胜于雄辩 3
事已@@ 3
事端 3
二十多 3
二号 3
二手车 3
二氧化硫 3
于用 3
互为补充 3
互动@@ 3
互相合作 3
互联@@ 3
互访 3
互谅互让 3
五位 3
五六十年代 3
五家 3
五小时 3
五星@@ 3
五月份 3
五次 3
五点 3
亚人 3
亚历 3
亚太经济 3
亚德 3
亚拉 3
亚米 3
亚诺夫 3
亚非 3
亚马@@ 3
交了 3
交响乐团 3
交恶 3
交通业 3
交错 3
亦步亦趋 3
产前 3
产品开发 3
产品质量 3
产权保护 3
产油 3
产生分歧 3
享 3
享@@ 3
享乐 3
亲历者 3
亲善 3
亲朋好友 3
亲眼 3
人一 3
人会@@ 3
人去 3
人口数 3
人口普查 3
人口老化 3
人因 3
人寿保险 3
人工合成 3
人工岛 3
人手不足 3
人时 3
人松 3
人格化 3
人正 3
人民日报 3
人浮于事 3
人称 3
人肉 3
人脉 3
人花 3
人行道 3
人贩子 3
人身@@ 3
人造卫星 3
人造黄油 3
人间@@ 3
亿公顷 3
亿日元 3
亿立方米 3
什科娃 3
仅剩 3
仆@@ 3
今年以来 3
今年冬天 3
今年底 3
介意 3
仍为 3
仍陷 3
从业 3
从中渔利 3
从以 3
从天@@ 3
仓 3
他命 3
仙台 3
代理@@ 3
代表@@ 3
代议 3
令人困惑 3
令人寒心 3
令人注目 3
令人生厌 3
令人生畏 3
令人羡慕 3
令人讨厌 3
令人难忘 3
以东 3
以人为本 3
以令 3
以低 3
以军 3
以史为鉴 3
以多快 3
以新 3
以此为@@ 3
仪器 3
仪态 3
价值@@ 3
价格体系 3
价钱 3
任其 3
任用 3
企业债券 3
企求 3
企鹅 3
伊克 3
伊利@@ 3
伊拉 3
伊格 3
伊格尔 3
伊泽特贝戈维奇 3
伊玛目 3
伊莎贝尔 3
伊蚊 3
伍 3
伍@@ 3
伍德罗 3
伏@@ 3
伏笔 3
休息@@ 3
众口一词 3
众怒 3
优厚 3
优素福 3
伙 3
会后 3
会员国 3
会场 3
会想 3
会拉低 3
会步 3
会花 3
会议@@ 3
会议记录 3
会费 3
会输 3
会面时 3
伞 3
伞@@ 3
伟 3
伟大@@ 3
传授给 3
传播方式 3
传教士 3
伤亡@@ 3
伤疤 3
伦理学 3
伪劣 3
伪装成 3
伯克 3
伯尔@@ 3
伯恩 3
伯恩斯坦 3
伯罗奔尼撒 3
估计不足 3
估计值 3
伸张正义 3
似@@ 3
但光 3
但那次 3
但鲁 3
位处 3
低且 3
低人一等 3
低洼 3
低空 3
低能 3
低至 3
住户 3
体外 3
体操 3
体育明星 3
体育锻炼 3
何时何地 3
余年 3
余生 3
佛教徒 3
佛朗 3
作废 3
作恶者 3
作案 3
作此 3
作证 3
你死我活 3
佳 3
例会 3
供不应求 3
供应@@ 3
供应国 3
供水系统 3
供求@@ 3
供热 3
供给@@ 3
供职 3
依法@@ 3
侧翼 3
侯 3
侵扰 3
促进作用 3
促进改革 3
俄乌 3
俄总统 3
俗称 3
保尔森 3
保护局 3
保持平衡 3
保留@@ 3
保证@@ 3
保释 3
保险制度 3
保险商 3
信以 3
信任感 3
信使 3
信口@@ 3
信心十足 3
信息流 3
信息源 3
信贷政策 3
俩 3
修剪 3
修筑 3
俯首帖耳 3
倒戈 3
倒掉 3
倒置 3
倒转 3
候 3
借着 3
倡@@ 3
债务@@ 3
债市 3
倾倒 3
偃旗息鼓 3
假冒 3
假扮 3
偏 3
偏低 3
偏偏 3
偏狭 3
做爱 3
做起 3
停建 3
停歇 3
停火协定 3
停车@@ 3
健康@@ 3
健康权 3
健忘 3
偶@@ 3
偷 3
偷懒 3
储@@ 3
催产素 3
催促 3
催泪弹 3
傲@@ 3
傻 3
僭 3
儒@@ 3
儒家思想 3
儿女 3
儿时 3
儿科 3
元件 3
元老 3
充分体现 3
充分说明 3
充盈 3
先人 3
先机 3
光凭 3
光合作用 3
克劳塞维茨 3
克劳狄 3
克族 3
克朗 3
克林@@ 3
克洛德 3
克莱门特 3
克里斯蒂娜 3
克鲁尼 3
免疫力 3
免费搭车 3
兑付 3
兔子 3
党人 3
党代会 3
党团 3
党执政 3
党报 3
党政 3
党章 3
兜底 3
入伍 3
入场券 3
入室 3
全党 3
全国上下 3
全境 3
全然 3
全球@@ 3
全盘 3
全盘否定 3
全盘接受 3
全身 3
全身心 3
全身而退 3
全过程 3
全部@@ 3
全面@@ 3
全面解决 3
八分 3
八十 3
八名 3
公交车 3
公共汽车 3
公共设施 3
公务 3
公告牌 3
公平交易 3
公平合理 3
公益事业 3
公诸@@ 3
公道 3
六七岁 3
六名 3
六点 3
兰特 3
共产党人 3
共产党员 3
共党 3
关塔那摩湾 3
关灯 3
关爱 3
关系史 3
关系紧张 3
关键人物 3
兴奋@@ 3
其前 3
其咎 3
其大 3
其有 3
其软 3
其较 3
具体分析 3
具体安排 3
典@@ 3
典籍 3
养护 3
养老保险 3
兼备 3
内为 3
内华达州 3
内含 3
内地 3
内斗 3
内斗@@ 3
内核 3
内生 3
内部矛盾 3
内阁@@ 3
再接再厉 3
再犯 3
再购 3
冒失 3
冒险家 3
冒险性 3
写信 3
写字楼 3
写明 3
军事@@ 3
军事同盟 3
军事法庭 3
军校 3
军民 3
军职 3
军营 3
农业部长 3
农奴 3
农村妇女 3
农民@@ 3
农牧民 3
冠以 3
冠冕堂皇 3
冤 3
冬 3
冰冰 3
冰层 3
冰球 3
冲出 3
冲浪@@ 3
冲突性 3
决不允许 3
决不可 3
决定论 3
决然 3
冷冻 3
冷却塔 3
冻@@ 3
净化 3
准军事 3
准备金率 3
准确@@ 3
准绳 3
减肥 3
凑@@ 3
几何@@ 3
几十名 3
几千名 3
几家 3
几座 3
几条 3
几秒 3
凡此种种 3
凤毛麟角 3
凭借着 3
凭空@@ 3
凯斯 3
出世 3
出以 3
出头 3
出版@@ 3
出版社 3
出现@@ 3
出示 3
出色完成 3
出该 3
出走 3
出过 3
出门 3
击 3
击碎 3
击退 3
分一杯羹 3
分内之事 3
分内事 3
分出 3
分得 3
分心 3
分析@@ 3
分析员 3
分治 3
分派 3
分流 3
分组 3
分行 3
分部 3
分配不公 3
分配资源 3
分野 3
分销商 3
切不可 3
切入点 3
切合实际 3
切实@@ 3
切尔西 3
切身利益 3
刊 3
刊@@ 3
刊发 3
刑讯@@ 3
刚果共和国 3
创世纪 3
创举 3
创痛 3
初具 3
初现 3
初等教育 3
删@@ 3
判罚 3
利害攸关 3
利得 3
利性 3
利息支出 3
利润@@ 3
利物浦 3
利率差 3
利益@@ 3
利维坦 3
别列佐 3
别无二致 3
刮目相看 3
到场 3
制胜 3
制造@@ 3
刹@@ 3
刺激@@ 3
前两天 3
前南 3
前哨@@ 3
前沿阵地 3
剥夺权利 3
剧中 3
剪 3
割掉 3
剽窃 3
剿 3
剿灭 3
力不从心 3
力促 3
力学 3
劝 3
办公桌 3
办理 3
功勋 3
功能@@ 3
加工@@ 3
加斯 3
加热 3
加蓬 3
加西亚 3
加里@@ 3
务劳动 3
务必 3
劣 3
动人 3
动听 3
动物@@ 3
动画 3
动真格 3
努力争取 3
努力奋斗 3
努力提高 3
努瓦@@ 3
努里 3
劫 3
劫机 3
劫难 3
劲敌 3
劳务 3
劳动所得 3
劳动报酬 3
劳工@@ 3
劳资关系 3
劳资双方 3
势均力敌 3
势态 3
勇敢@@ 3
勉力 3
勋爵 3
勒布 3
勤勉 3
勾当 3
勾画 3
勾销 3
匆匆 3
化为 3
化学物质 3
化将 3
化身为 3
北冰洋 3
北南 3
北极海 3
北越 3
北高加索 3
匪夷所思 3
匹@@ 3
医务人员 3
医学教育 3
十万 3
十二个 3
十八个 3
十几@@ 3
十几年 3
十分必要 3
十分艰巨 3
十分迅速 3
十多个 3
十月份 3
千克 3
千吨 3
千方百计 3
千瓦 3
千真万确 3
升水 3
升级@@ 3
午 3
午@@ 3
半后 3
半数以上 3
半途而废 3
华斯沃夫 3
华裔 3
协作性 3
协商一致 3
协约 3
协调员 3
协调性 3
卑劣 3
卑微 3
卑鄙 3
单性 3
单是 3
单词 3
卖方 3
南京大屠杀 3
南北@@ 3
南北战争 3
南方人 3
南方共同市场 3
南端 3
南越 3
南部非洲 3
南非政府 3
博学 3
博尔@@ 3
博格 3
博爱 3
博达文 3
卜拉欣 3
占优势 3
占星@@ 3
卡介苗 3
卡娅 3
卡斯帕罗夫 3
卡梅伦@@ 3
卡瓦 3
卡罗来纳州 3
卡舒吉 3
卡车司机 3
卡通 3
卡门 3
卫 3
卫道士 3
印制 3
印控 3
印第@@ 3
危@@ 3
危在旦夕 3
危害性 3
危局 3
危机@@ 3
危难 3
即以 3
即用 3
却令 3
却说 3
卷 3
厄 3
历史悠久 3
历史舞台 3
历时 3
历险 3
厌恶感 3
厘米 3
厚 3
原住民 3
原则性 3
原地 3
原子核 3
原生 3
原由 3
厨师 3
去年初 3
去职 3
去过 3
参众两院 3
参军 3
参政 3
及时@@ 3
友@@ 3
友好条约 3
友爱 3
双刃剑 3
双输 3
双边条约 3
双重@@ 3
反常现象 3
反战 3
反托拉斯法 3
反核 3
反欧 3
反洗钱 3
反科学 3
反问 3
反面@@ 3
发了 3
发出声音 3
发动@@ 3
发型 3
发射@@ 3
发展缓慢 3
发扬光大 3
发烧 3
发生巨变 3
发生率 3
发育不良 3
发话 3
取人 3
取其轻 3
取得成效 3
取得联系 3
取经 3
受到谴责 3
受到重视 3
受精 3
受精卵 3
受苦受难 3
受训 3
受访 3
受调查者 3
变差 3
变性 3
变性人 3
变穷 3
变质 3
叙美 3
叙述 3
口头禅 3
口是心非 3
古典@@ 3
古国 3
古奈姆 3
古已有之 3
古巴共产党 3
古拉格 3
句子 3
句话 3
叨@@ 3
叩@@ 3
只会令 3
只字未提 3
叫喊 3
可上 3
可及 3
可憎 3
可敬 3
可数 3
可查 3
可用性 3
台上 3
史中 3
史克 3
史学家 3
史蒂夫 3
司令官 3
司令部 3
司法机关 3
司法部门 3
吁@@ 3
吃不@@ 3
吃力 3
吃苦耐劳 3
各式 3
各种类型 3
各色 3
各行各业 3
合乎情理 3
合二为一 3
合同@@ 3
合同条款 3
合影 3
合理@@ 3
吉列 3
吉卜林 3
吉特 3
吊销 3
同一性 3
同为 3
同伙 3
同位素 3
同属 3
同情者 3
同步进行 3
同等@@ 3
同谋@@ 3
同质化 3
同辈 3
同龄 3
名列榜首 3
名望 3
名牌@@ 3
后发 3
后来者 3
后现代主义 3
后门 3
向性 3
向西 3
吓人 3
吓退 3
君主国 3
君主政体 3
吞吐@@ 3
吟@@ 3
含混不清 3
含糊其@@ 3
含蓄 3
听之任之 3
听信 3
听听 3
吸引外资 3
吸收@@ 3
吸食 3
吹毛求疵 3
呈交 3
告密者 3
告方 3
呐喊 3
呕吐 3
员工@@ 3
周六 3
周岁 3
周恩来 3
周而复始 3
周转 3
味@@ 3
呼叫 3
呼喊 3
命者 3
命运@@ 3
和世卫 3
和约 3
和谐社会 3
咎@@ 3
咨询@@ 3
咬牙 3
品牌形象 3
哄骗 3
哈卡尼 3
哈姆 3
哈姆丹 3
哈得逊 3
哈罗德 3
哈肖吉 3
哈贝马斯 3
哈迪 3
哈里 3
哈里斯 3
哦 3
哪一条 3
哪些因素 3
哪家 3
唐突 3
啃@@ 3
商业中心 3
商业界 3
商业贸易 3
商品@@ 3
商品交易 3
商议 3
商量 3
啡 3
啮齿@@ 3
喀山 3
善终 3
喋喋不休 3
喘病 3
喧闹 3
喷嚏 3
喷射 3
喷气 3
喷气@@ 3
嘉@@ 3
嘉吉 3
嘴上 3
器官移植 3
器械 3
噩梦般 3
噪 3
噬 3
噶@@ 3
嚣@@ 3
囚徒 3
四人 3
四位 3
四十多年 3
四十年代 3
四射 3
四点 3
四肢 3
四通八达 3
回顾@@ 3
回顾过去 3
回馈 3
因其 3
因祸得福 3
团聚 3
园艺 3
困顿 3
围棋 3
固体 3
固守 3
固定@@ 3
固定资本 3
国产 3
国会山 3
国内法 3
国内贸易 3
国务@@ 3
国安局 3
国宴 3
国家化 3
国家所有 3
国家有关 3
国家机密 3
国家环保总局 3
国家计划 3
国并 3
国等 3
国防@@ 3
国际争端 3
国际奥委会 3
国际局势 3
国际形象 3
国际竞争 3
国际红十字会 3
国际货币基金 3
图标 3
图画 3
图谱 3
圆滑 3
圈地 3
土耳其共和国 3
土著人 3
圣地亚哥 3
圣徒 3
圣诞老人 3
在世 3
在实践上 3
在握 3
在结构上 3
在表面上 3
圭臬 3
地下@@ 3
地下通道 3
地平线 3
地方主义 3
地方法院 3
地朝 3
地权 3
地来 3
地标 3
地毯 3
地热 3
地热能 3
地理分布 3
地税 3
地花 3
地表水 3
地质灾害 3
地道 3
地里 3
场地 3
场面 3
坊 3
坐实 3
坐标 3
坐而论道 3
坐落 3
坐落于 3
坐飞机 3
坑洼 3
坚持@@ 3
坠毁 3
垂手可得 3
垂涎 3
垄断权 3
型化 3
垒@@ 3
垫 3
垫脚石 3
埃塞俄比亚人 3
埃尔 3
埃斯特拉达 3
埃洛普 3
埃维昂 3
埃迪 3
城乡@@ 3
城堡 3
基因库 3
基尔 3
基尼 3
基层组织 3
基本一致 3
基本点 3
基金@@ 3
堆肥 3
堪比 3
堵死 3
塌 3
塌@@ 3
塑像 3
塑料制品 3
塞奇 3
塞浦路斯@@ 3
塞翁失马 3
塞齐 3
填满 3
填补@@ 3
增收 3
增派 3
壤@@ 3
壮@@ 3
声中 3
声誉卓著 3
处方药 3
处理器 3
处理过程 3
复活@@ 3
复生 3
复萌 3
夏初 3
夏末 3
夕 3
外事 3
外交使团 3
外围地区 3
外国@@ 3
外国专家 3
外强中干 3
外省 3
外科 3
外观 3
外语 3
外资企业 3
多事 3
多伦多 3
多党制 3
多半 3
多国部队 3
多多益善 3
多夫 3
多尼 3
多快 3
多数党 3
多有 3
多杰 3
多病 3
多种语言 3
多米尼克 3
多维 3
多维度 3
多远 3
多迪克 3
多面@@ 3
够@@ 3
大不一样 3
大主教 3
大众@@ 3
大众传媒 3
大党 3
大公 3
大决战 3
大力@@ 3
大势 3
大叔 3
大名 3
大哥 3
大国家党 3
大型项目 3
大大@@ 3
大大小小 3
大大缩短 3
大失所望 3
大好@@ 3
大学毕业 3
大意 3
大戏 3
大手大脚 3
大敌 3
大有@@ 3
大有可为 3
大权在握 3
大步 3
大气层 3
大洋洲 3
大白@@ 3
大而@@ 3
大腿 3
大舒 3
大衣 3
大起大落 3
大转弯 3
大逆转 3
大量@@ 3
大难@@ 3
大风 3
天后 3
天大 3
天安 3
天数 3
天文数字 3
天气@@ 3
天然@@ 3
天经地义 3
天花板 3
太平洋战争 3
太慢 3
太窄 3
太长 3
太难 3
失之 3
失准 3
失去@@ 3
失去理性 3
失真 3
失踪者 3
失速 3
头号敌人 3
头牛 3
头盔 3
头等大事 3
头脑清醒 3
夷 3
夷平 3
夹@@ 3
奄奄一息 3
奇妙 3
奇异 3
奇想 3
奇观 3
奇迹般地 3
奇高 3
奏 3
奔走 3
奖得主 3
套用 3
套路 3
奥古斯@@ 3
奥尔默 3
奥斯@@ 3
奥斯卡 3
奥林匹克@@ 3
奥维尔 3
女佣 3
女友 3
女孩子 3
女权运动 3
女演员 3
女神 3
奶 3
奶奶 3
好于 3
好几十年 3
好地解决 3
好恶 3
好时光 3
好歹 3
好运气 3
如愿以偿 3
如日中天 3
如此等等 3
如此这般 3
妇@@ 3
妇女地位 3
妇女解放 3
妥善@@ 3
妹 3
妹妹 3
姆切 3
始终保持 3
姑@@ 3
委员@@ 3
姿势 3
威信 3
婉@@ 3
媾和 3
子孙 3
孕育出 3
字句 3
字样 3
字游戏 3
字面 3
存活率 3
存贷款 3
存钱 3
孙子@@ 3
季风 3
学习成绩 3
学徒 3
学术论文 3
学问 3
学院派 3
孩 3
孵化 3
宁边 3
宅 3
宇航员 3
安全区 3
安全法 3
安全监管 3
安卓 3
安吉拉 3
安哲秀 3
安在 3
安慰@@ 3
安插 3
安插在 3
安放 3
安曾 3
安然无恙 3
安纳@@ 3
安纳托 3
安身立命 3
安重根 3
宋思明 3
完全@@ 3
完全一致 3
完备 3
完好无损 3
完成@@ 3
完蛋 3
宏@@ 3
宏图 3
宗族 3
官场 3
官方语言 3
定下 3
定义明确 3
定式 3
定心丸 3
定期检查 3
定理 3
宛若 3
宜@@ 3
宜家 3
实业 3
实业家 3
实乃 3
实务 3
实效 3
实用@@ 3
实话 3
实话实说 3
实践@@ 3
实践经验 3
宠 3
宠儿 3
宠爱 3
客气 3
客运 3
宣传战 3
宣传者 3
宣告@@ 3
室@@ 3
宪政改革 3
宰@@ 3
宰杀 3
害群之马 3
害虫 3
家喻户晓 3
家庭主妇 3
家庭医生 3
家教 3
家禽 3
家长式 3
宽裕 3
宾夕法尼亚 3
密 3
密切联系 3
密歇根州 3
密码 3
密谋 3
密集区 3
寇@@ 3
富余 3
富强 3
富有经验 3
富翁 3
寓意 3
寡妇 3
寸 3
对以 3
对党 3
对印 3
对德 3
对梅 3
对莫迪 3
对路 3
对金氏 3
对面 3
寺 3
寺@@ 3
寻 3
寿@@ 3
寿司 3
封建主义 3
封杀 3
封死 3
封面 3
射入 3
小圈子 3
小巷 3
小心谨慎 3
小时候 3
小白鼠 3
小组@@ 3
小组讨论 3
小群 3
小菜@@ 3
小视 3
小道 3
小题大做 3
小鱼 3
少得 3
少数几家 3
尔塔 3
尔河 3
尔法 3
尖锐对立 3
尘 3
尘埃 3
尘封 3
尚且 3
尚存 3
尝 3
尤什申科 3
尤利娅 3
尤甚 3
就是说 3
尸 3
尽到 3
尽露 3
尾部 3
尿@@ 3
局局长 3
屁@@ 3
居功至伟 3
居民家庭 3
居民消费 3
届满 3
屋@@ 3
屋子 3
展开讨论 3
屠夫 3
屠宰场 3
屡@@ 3
履 3
山上 3
山头 3
山火 3
山谷 3
山雨欲来 3
山顶 3
岔@@ 3
岗@@ 3
岩@@ 3
岸@@ 3
峡 3
峡@@ 3
峰 3
崇敬 3
崩坏 3
州级 3
巡航导弹 3
巢 3
工业区 3
工业品 3
工作效率 3
工作日 3
工匠 3
工期 3
工薪 3
左右手 3
巧取豪夺 3
巨大作用 3
巨著 3
巫统 3
差一点 3
差值 3
差异化 3
差异性 3
差得多 3
差错 3
己任 3
已于 3
已婚 3
巴人 3
巴列维 3
巴勒斯坦@@ 3
巴塞洛 3
巴士 3
巴士@@ 3
巴布@@ 3
巴斯德 3
巴特 3
巴赫 3
币来 3
市场前景 3
市级 3
布下 3
布兰 3
布坎南 3
布料 3
布满 3
布热津斯基 3
布特 3
布赖恩 3
布雷@@ 3
布雷特 3
帆 3
希伯伦 3
帕拉 3
帕斯@@ 3
帕特@@ 3
帕金森@@ 3
帕金森病 3
帝制 3
帝国@@ 3
带进 3
席卷@@ 3
常人 3
常理 3
常规@@ 3
常驻 3
幅员辽阔 3
干得 3
干涉主义 3
干涉内政 3
干燥 3
平均数 3
平民百姓 3
平淡无奇 3
平稳过渡 3
平等权利 3
平衡器 3
平衡性 3
年头 3
年用 3
年资 3
并不多 3
并令 3
并无@@ 3
并轨 3
幸 3
幸运儿 3
幻 3
幻@@ 3
幻象 3
幼发拉底河 3
幼小 3
幼童 3
广东省 3
广州 3
广播节目 3
庆典活动 3
庇 3
序言 3
库尔 3
库房 3
库马 3
应从 3
应声 3
应激 3
应能 3
底斯 3
底盘 3
庙宇 3
度过难关 3
座右铭 3
康复者 3
康多莉 3
庸俗 3
廉 3
廉@@ 3
廉价地 3
延 3
延续性 3
建岛 3
建立联系 3
建筑师 3
建设@@ 3
建设繁荣 3
建设者 3
开会讨论 3
开具 3
开垦 3
开头 3
开始@@ 3
开局 3
开放@@ 3
开普敦 3
开花 3
开通 3
开采@@ 3
开采量 3
开阔 3
异化 3
异性 3
异类 3
异议人士 3
弃儿 3
弃权票 3
弊@@ 3
式化 3
引以为傲 3
引以为荣 3
引以为豪 3
引退 3
弗劳@@ 3
弗吉尼亚州 3
弗拉 3
弗拉@@ 3
弗拉芒 3
弗朗@@ 3
弗林特 3
弗格森 3
弗莱明 3
弗里 3
弗里@@ 3
弗雷德 3
弘扬 3
张伯伦 3
张开 3
弥赛亚 3
弦@@ 3
弧 3
强制力 3
强区 3
强壮 3
强奸@@ 3
强弱 3
强心针 3
强悍 3
强权政治 3
强烈@@ 3
强硬@@ 3
强迫性 3
强项 3
归化 3
归属于 3
归根到底 3
归纳 3
当事@@ 3
当其 3
当回事 3
当新 3
当权派 3
录像带 3
彩 3
彩@@ 3
彩票 3
彭博社 3
彼岸 3
彼此间 3
往好 3
征地 3
征求 3
征求意见 3
征程 3
待查 3
很早以前 3
律师@@ 3
律法 3
徒劳无功 3
得上 3
得住 3
得克@@ 3
得票率 3
得胜 3
得起 3
御@@ 3
循 3
微粒 3
微言@@ 3
微软公司 3
德洛尔 3
德累斯顿 3
心不@@ 3
心力 3
心头 3
心意 3
心照不宣 3
心胸狭隘 3
心腹 3
心腹大患 3
心跳 3
必修课 3
必有 3
必然结果 3
必胜 3
忆 3
忌 3
忌@@ 3
忍无可忍 3
忘@@ 3
忘掉 3
忘症 3
忠 3
忠告 3
忧郁 3
快车 3
快递 3
快餐业 3
念@@ 3
怀德 3
怀恨在心 3
怀柔 3
怎么回事 3
怒气 3
怒江 3
怒火中烧 3
怜悯 3
怠 3
急功近利 3
急转 3
性化 3
性恋 3
性爱 3
性犯罪 3
怨@@ 3
怨言 3
怪不得 3
怪兽 3
怯@@ 3
怯懦 3
总价值 3
总体水平 3
总体规划 3
总死亡率 3
总比@@ 3
总的@@ 3
总统府 3
总预算 3
恃@@ 3
恋爱 3
恐外 3
恐慌性 3
恐袭 3
恒定 3
恒星 3
恢复健康 3
恨@@ 3
恩里克 3
恫吓 3
恰 3
恰巧 3
恼 3
恼火 3
悄悄 3
悄悄地 3
悔 3
悔恨 3
悖 3
悠@@ 3
悦@@ 3
悬殊 3
悲剧重演 3
悲叹 3
悲惨@@ 3
情人 3
情况@@ 3
情报界 3
情谊 3
惊动 3
惊恐 3
惊险 3
惧 3
惨遭杀害 3
惩处 3
惩戒 3
想以 3
想出 3
想尽办法 3
想得到 3
想着 3
惴@@ 3
意外@@ 3
愕 3
愚@@ 3
愚人 3
愚蠢地 3
感到遗憾 3
感官 3
感情用事 3
感染力 3
愤懑 3
愧@@ 3
愧疚 3
愿景@@ 3
慌乱 3
慎重 3
慰安@@ 3
懒@@ 3
戏剧化 3
成份 3
成命 3
成文 3
成见 3
成都 3
成风 3
我家 3
我来 3
戒备 3
或用 3
或非 3
战争状态 3
战争贩子 3
战利品 3
战友 3
战团 3
战果 3
战略重点 3
戴姆勒 3
戴维斯 3
户外 3
户籍 3
戾 3
房利美 3
房地 3
房地产@@ 3
房市 3
房门 3
所住 3
所剩 3
所应 3
所欲 3
所示 3
所花 3
手头 3
手无寸铁 3
手榴弹 3
手续 3
才@@ 3
扎营 3
扑克 3
打击@@ 3
打击犯罪 3
打到 3
打得 3
打成 3
打成一片 3
打扰 3
打拼 3
托夫 3
托尔斯泰 3
托洛茨基 3
扣 3
扣@@ 3
扣留 3
执委 3
执教 3
执行力 3
执行权 3
扩 3
扩大@@ 3
扩张@@ 3
扫射 3
扫盲 3
扭转@@ 3
扳机 3
找回 3
承受者 3
承接 3
承销 3
技 3
技师 3
技术细节 3
抄@@ 3
把手 3
抑制@@ 3
抑制剂 3
投出 3
投到 3
投影仪 3
投机@@ 3
投标 3
投资选择 3
抗日战争 3
抗旱 3
抗病毒 3
折价 3
抢购 3
报偿 3
报告@@ 3
报复性 3
报章 3
抱有成见 3
抵税 3
抹除 3
抽回 3
抽签 3
抽象概念 3
抽身 3
担责 3
拆借 3
拆散 3
拆毁 3
拉回来 3
拉奎 3
拉平 3
拉开@@ 3
拉开帷幕 3
拉拉@@ 3
拉斐尔 3
拉票 3
拉霍伊 3
拍出 3
拍照 3
拒不承认 3
拔 3
拔地而起 3
拔除 3
拖动 3
拖延@@ 3
拖慢 3
拘押 3
拘捕 3
拘泥于 3
招人 3
招徕 3
招牌 3
招生 3
拜占庭 3
拜斯 3
拜金主义 3
拢 3
拦路@@ 3
拧@@ 3
拧紧 3
拨打 3
拮@@ 3
拱 3
拼 3
拼凑 3
拼车 3
持久性 3
持有期 3
持续@@ 3
挂牌 3
指为 3
指使 3
指着 3
按原 3
按此 3
按键 3
挑动 3
挖坑 3
挖空 3
挣@@ 3
挣来 3
挤占 3
挨@@ 3
振作 3
振作起来 3
振聋发聩 3
挺过 3
挽@@ 3
捉 3
捐助人 3
捞取 3
捡 3
换个 3
换算 3
据报 3
捷列 3
授信 3
掉头 3
掌握权力 3
掏 3
排水系统 3
排行 3
探 3
探明 3
探测 3
接下去 3
接二连三 3
接地 3
接触面 3
接踵而来 3
接轨 3
控方 3
推介 3
推动型 3
推演 3
推着 3
推给 3
推送 3
推选 3
推高到 3
掩 3
掩@@ 3
措@@ 3
掺杂 3
提前退休 3
提夫 3
提尔 3
提防 3
揣@@ 3
揣测 3
揭晓 3
揭秘 3
援 3
援助者 3
援外 3
搏斗 3
搬家 3
搭档 3
摄像头 3
摄取 3
摆动 3
摆放 3
摇晃 3
摊@@ 3
摩根士丹利 3
撑 3
撑@@ 3
撤职 3
操弄 3
操盘手 3
操纵者 3
擦边球 3
攀登 3
攫@@ 3
支行 3
收割 3
收尾 3
收录 3
收藏 3
收走 3
改变方向 3
改建 3
改成 3
改换 3
改正 3
改进型 3
攻击行为 3
攻打 3
攻读 3
放入 3
放射@@ 3
放款 3
放火 3
放纵 3
放进 3
政治动员 3
政治宣传 3
政治责任 3
政治避难 3
政策史 3
效果显著 3
效而仿 3
敏 3
敏锐地 3
救出 3
救星 3
救济金 3
教养 3
教员 3
教唆 3
教官 3
教师@@ 3
教育资源 3
教育部 3
敞开大门 3
散失 3
散户 3
散落 3
敬佩 3
敬重 3
数不尽 3
数代 3
数以百计 3
数倍 3
数千条 3
数名 3
数字@@ 3
数学@@ 3
数学模型 3
数据传输 3
数据流 3
数据系统 3
数最多 3
数百亿 3
数码 3
敲诈@@ 3
整套 3
整年 3
整座 3
敷衍 3
敷衍塞责 3
文中说 3
文学界 3
文版 3
文职人员 3
文莱 3
斋@@ 3
斑 3
斟酌 3
斥之为 3
斧 3
斩首 3
断供 3
斯克里 3
斯勒 3
斯卡@@ 3
斯卡娅 3
斯坦尼 3
斯塔@@ 3
斯塔特 3
斯巴达 3
斯库 3
斯汀 3
斯洛博 3
斯特伐 3
斯特劳 3
斯特拉斯堡 3
斯瓦拉 3
斯皮尔 3
斯蒂@@ 3
新加坡@@ 3
新干线 3
新年伊始 3
新机遇 3
新来 3
新法 3
新泽西州 3
新疆自治区 3
新疗法 3
新约 3
新纪元 3
新纪录 3
新纳粹 3
新著 3
新起点 3
新钞 3
新面孔 3
新鲜@@ 3
新鲜血液 3
方便之门 3
方向@@ 3
方对 3
方言 3
施以援 3
施暴者 3
旅行社 3
旋 3
旋翼 3
旋转 3
旗舰 3
无一@@ 3
无业 3
无中生有 3
无从下手 3
无从谈起 3
无以复加 3
无关痛痒 3
无兴趣 3
无力回天 3
无可指责 3
无可挑剔 3
无可替代 3
无可置疑 3
无国籍 3
无声 3
无处藏身 3
无意间 3
无所@@ 3
无所畏惧 3
无期徒刑 3
无核国家 3
无法回答 3
无独有偶 3
无疾而终 3
无缘无故 3
无解 3
无证据 3
无话可说 3
无赖 3
无趣 3
无限@@ 3
既定政策 3
既能 3
日中 3
日方 3
日本公司 3
日本天皇 3
日益壮大 3
日盛 3
日落 3
日趋激烈 3
旧债 3
旧址 3
旧式 3
旧账 3
旧酒 3
旧金山湾 3
旨 3
早上 3
早于 3
旱 3
时世 3
时代精神 3
时大@@ 3
时性 3
时断时续 3
时日无多 3
时机@@ 3
时点 3
时用 3
时长 3
旺@@ 3
昆虫 3
昌@@ 3
明明 3
明确性 3
昏 3
易受 3
易纲 3
易行 3
星巴克 3
星期二 3
星罗棋布 3
春 3
显微镜 3
显性 3
晋身 3
晚于 3
普世@@ 3
普密蓬 3
普普通通 3
普法 3
普通员工 3
普通家庭 3
普邦 3
普里 3
普鲁@@ 3
普鲁士 3
景仰 3
景点 3
晴@@ 3
晶体管 3
智囊 3
智者 3
智胜 3
暂缓 3
暇 3
暖气 3
暗 3
暮@@ 3
暴利 3
暴力@@ 3
暴民 3
暴躁 3
曝光率 3
曝出 3
曲目 3
更受 3
更多 3
更新@@ 3
更远 3
更重 3
曼哈顿 3
曾用 3
替身 3
最不受 3
最不坏 3
最不愿 3
最佳@@ 3
最底层 3
最易 3
最晚 3
最能体现 3
最高级别 3
月末 3
有且 3
有利条件 3
有多远 3
有效@@ 3
有机@@ 3
有核 3
有病 3
有的放矢 3
有线 3
有色@@ 3
有色人种 3
有限@@ 3
朊病毒 3
朋@@ 3
服务体系 3
服务水平 3
服药 3
服装@@ 3
服软 3
朗诵 3
望去 3
望而却步 3
朝鲜@@ 3
朝鲜族 3
期满 3
木马 3
未果 3
未竟 3
未经@@ 3
未能幸免 3
未遂政变 3
本州 3
本源 3
本科 3
本职工作 3
本质@@ 3
本质性 3
本雅明 3
朱 3
机械化 3
机械表 3
机组 3
杀伤 3
杀伤力 3
杂 3
杂乱无章 3
权国家 3
权威部门 3
权等 3
权衡利弊 3
李显龙 3
材@@ 3
村里 3
杖 3
杜德尼 3
杜恩 3
束手@@ 3
杠@@ 3
条形码 3
条线 3
来势汹汹 3
来得@@ 3
来时 3
来算 3
杭 3
杯@@ 3
杰克逊 3
杰出人物 3
杰布 3
极右派 3
极地 3
极少数人 3
极端@@ 3
极长 3
林文夫 3
林立 3
枝 3
枪口 3
枪声 3
枪杀 3
架苏 3
架设 3
某一国 3
某件事 3
某次 3
染色体 3
查证 3
查阅 3
柯立芝 3
柱 3
柳@@ 3
柴油@@ 3
标价 3
标尺 3
标示 3
树敌 3
校准 3
株 3
核准 3
核及 3
核子武器 3
核导弹 3
核武器@@ 3
核泄漏 3
根本@@ 3
根本利益 3
根植 3
根治 3
格伦 3
格斗 3
格陵兰 3
格雷@@ 3
桀骜不@@ 3
框 3
框定 3
桌旁 3
桌面上 3
梁 3
梁振英 3
梅伦钦 3
梅将 3
梅尔@@ 3
梅特涅 3
梅琳 3
梅纳赫姆 3
梦游 3
梵@@ 3
检查员 3
检查站 3
检疫 3
棉兰老岛 3
棍@@ 3
棍棒 3
棒喝 3
棚户 3
森严 3
森玛斯 3
棺@@ 3
椅子 3
植 3
植@@ 3
椭@@ 3
楔子 3
楷模 3
楼市 3
概述 3
榜 3
模糊地 3
横 3
橡皮图章 3
橡胶 3
次席 3
欢迎@@ 3
欣 3
欣喜若狂 3
欣然 3
欧共体 3
欧地区 3
欧美地区 3
欺侮 3
止住 3
止步不前 3
止痛药 3
正压 3
正宗 3
正常人 3
正式化 3
正当理由 3
正当竞争 3
正数 3
正派 3
正确处理 3
正确认识 3
正经 3
正统@@ 3
正规军 3
正途 3
此机会 3
此消彼长 3
步步为营 3
步调 3
武器装备 3
武士 3
武装@@ 3
武装集团 3
歹徒 3
死亡@@ 3
死亡威胁 3
死前 3
死守 3
死而复生 3
死难者 3
殃及 3
殉难 3
殊途同归 3
残缺不全 3
殷勤 3
殿@@ 3
毅力 3
每人每年 3
每名 3
每条 3
每每 3
每笔 3
每股 3
每针 3
毒药 3
比上 3
比大 3
比拟 3
比比 3
比真 3
比绍 3
比较而言 3
毕生 3
毛利 3
毫不@@ 3
毫不相干 3
毫无效果 3
民主自由 3
民事诉讼 3
民享 3
民族性 3
民族情绪 3
民权运动 3
民盟 3
民营化 3
气价 3
气焰 3
气象@@ 3
气象局 3
氟@@ 3
氧 3
氧化物 3
氮@@ 3
水价 3
水兵 3
水分 3
水底 3
水性 3
水暖工 3
水流 3
水温 3
水漂 3
水火 3
水管 3
水路 3
水道 3
水龙头 3
永无休止 3
求真 3
汇丰银行 3
汇率问题 3
汉娜 3
汉斯 3
汉族 3
汗牛充栋 3
江湖 3
池@@ 3
池子 3
污 3
污@@ 3
污水 3
污蔑 3
汤因 3
汽油价格 3
沁 3
沃尔夫 3
沃尔芬森 3
沆瀣一气 3
沙丘 3
沙子 3
沙米尔 3
沙里 3
沟 3
没人@@ 3
没底 3
河内 3
河道 3
油菜 3
油轮 3
沿@@ 3
泄 3
法兰克 3
法国@@ 3
法国总理 3
法家 3
泛太平洋 3
泛滥成灾 3
泡@@ 3
波尔 3
波折 3
波拉 3
波拉尼 3
波斯语 3
波普尔 3
波澜 3
波澜不惊 3
波澜壮阔 3
波立维 3
波罗的海地区 3
波诡云 3
泥@@ 3
泥沼 3
泥炭 3
注射器 3
注重实效 3
泰德 3
泰晤士报 3
泵 3
洋 3
洒 3
洗 3
洗劫 3
洗脑 3
洛尼 3
洛维奇 3
洞悉 3
洪水猛兽 3
活到 3
活动份子 3
活动分子 3
活得 3
派往 3
流下 3
流将 3
流感病毒 3
流是 3
流水线 3
流淌 3
流血事件 3
流行性 3
浅滩 3
浇@@ 3
测定 3
测序 3
测绘 3
测试@@ 3
测验 3
济 3
浏览 3
浓@@ 3
浦东 3
浪漫 3
浪漫@@ 3
海南省政府 3
海外奇谈 3
海外经营 3
海床 3
海特 3
海绵状 3
海藻 3
海运 3
海面 3
海龟 3
浸透 3
涂@@ 3
涅@@ 3
消停 3
消息来源 3
消息灵通 3
消耗战 3
消费@@ 3
消费力 3
消逝 3
消防@@ 3
涉事 3
涌现出 3
涓滴 3
涡轮 3
涨到 3
涨落 3
液@@ 3
淡 3
淡@@ 3
淡出 3
淡无光 3
深入@@ 3
深奥 3
深挖 3
深蓝 3
深谙 3
深造 3
混合经济 3
混战 3
混杂 3
淹死 3
清偿 3
清廉 3
清醒认识 3
清风 3
渊源 3
渐 3
渐增 3
渔@@ 3
渔利 3
渔夫 3
渔获 3
渗透率 3
渡 3
渡部 3
温度控制 3
港元 3
游击队员 3
游叙 3
游弋 3
游荡 3
游走 3
溃 3
溃@@ 3
源@@ 3
溜走 3
溢 3
滋养 3
滋生腐败 3
滑@@ 3
滚 3
滚石 3
滞 3
满天飞 3
满洲 3
满目疮痍 3
滨 3
滨@@ 3
滩 3
滴@@ 3
漏税 3
演化成 3
演奏 3
演戏 3
演艺 3
漠然 3
漫漫 3
潜台词 3
潜在力量 3
潜移默化 3
潜质 3
潜逃 3
潮水 3
潮汐 3
澳@@ 3
澳大利亚政府 3
激 3
激愤 3
濒临@@ 3
灌 3
灌@@ 3
火上加油 3
火炬 3
火烧@@ 3
灯泡 3
灰 3
灰暗 3
灵光 3
灵敏 3
灵药 3
灾@@ 3
灿烂 3
炉具 3
炎@@ 3
炒作 3
炮@@ 3
炮兵 3
炮击 3
炮火 3
点上 3
点名 3
点头 3
点球 3
炼狱 3
烂尾 3
烟尘 3
烤 3
烦@@ 3
烦躁 3
烫 3
烬 3
热岛 3
热忱 3
热那亚 3
热门话题 3
烯 3
焚@@ 3
焦急 3
煤炭行业 3
照办 3
熄火 3
熄灭 3
燃料电池 3
燃眉之急 3
爆@@ 3
爆出 3
爬行 3
爱尔兰共和国 3
爵士 3
父权 3
爷@@ 3
版权保护 3
牌@@ 3
牌子 3
牌照 3
牙 3
牛皮癣 3
牢笼 3
牧@@ 3
牧业 3
牧歌 3
物价水平 3
物尽其用 3
牵引 3
特兰 3
特利 3
特大 3
特拉 3
特效药 3
特殊@@ 3
特郎 3
特里@@ 3
牺牲者 3
状况良好 3
犹太民族 3
犹太裔 3
狂人 3
狂奔 3
狂躁 3
狙击手 3
狠毒 3
独善其身 3
独揽 3
独特性 3
独生子女 3
独立自主 3
独霸 3
独领风骚 3
狭小 3
狼来了 3
猎物 3
猛@@ 3
猛升 3
猛降 3
猜忌 3
猩猩 3
猪@@ 3
猪濑直 3
猪肉 3
献给 3
猿类 3
王妃 3
王岐山 3
王者 3
玛格丽特 3
玩得 3
环保署 3
环境标准 3
环环相扣 3
环球 3
现世 3
现付 3
现代版 3
现实@@ 3
现收 3
现行政策 3
珍@@ 3
珠 3
理事国 3
理喻 3
理当 3
理所应当 3
理论@@ 3
琢磨 3
琴@@ 3
琼斯 3
琼根 3
瑞典@@ 3
瑞士@@ 3
瑞德 3
瑞郎 3
瑟@@ 3
瓜 3
瓦尔@@ 3
瓦斯 3
甘冒 3
甘心 3
甚高 3
生不@@ 3
生产厂家 3
生产量 3
生存权 3
生态@@ 3
生态环境 3
生殖器 3
生气 3
生活品质 3
生物医药 3
生物圈 3
生物工程 3
生物能 3
生硬 3
生而 3
用不上 3
用人 3
用做 3
用兵 3
用心良苦 3
用武 3
用水量 3
用钱 3
用飞机 3
甩掉 3
甫 3
由党 3
由州 3
由衷 3
由该 3
申 3
申斯 3
申科 3
电击 3
电器 3
电子媒体 3
电子表格 3
电文 3
电气 3
电磁@@ 3
电视@@ 3
电视剧 3
电视广告 3
电视网 3
电视观众 3
电邮 3
男女@@ 3
男权 3
画上 3
画家 3
画皮 3
界人士 3
界面 3
畏 3
畏@@ 3
畔 3
留待 3
留意 3
留有 3
畜 3
略为 3
略低 3
略地 3
畸@@ 3
疆域 3
疏 3
疏导 3
疏漏 3
疑罪从无 3
疑难杂症 3
疗 3
疗程 3
疟 3
疲 3
病因 3
病夫 3
病房 3
病毒感染 3
症@@ 3
痛楚 3
痴呆症 3
瘤 3
瘦@@ 3
瘦身 3
癌@@ 3
癖 3
登台 3
登场 3
登峰造极 3
登盛 3
白旗 3
白痴 3
白白地 3
白衣 3
百万富翁 3
百万美元 3
百亿 3
皆大欢喜 3
皇宫 3
皮埃尔 3
皮带 3
皮诺切特 3
盈 3
盏 3
监督员 3
监督权 3
盒 3
盒子 3
盖子 3
盛事 3
盛产 3
目的性 3
盯上 3
直率 3
直系亲属 3
相互@@ 3
相互理解 3
相仿 3
相加 3
相当程度 3
相投 3
相撞 3
相机 3
相权 3
相联 3
省略 3
省钱 3
省长 3
看空 3
看透 3
真像 3
真相大白 3
真纳 3
眨眼 3
眼巴巴 3
眼界 3
着力点 3
着火 3
着眼 3
睦邻友好 3
瞎@@ 3
矛盾性 3
知事 3
知会 3
知名人士 3
知识界 3
矫枉过正 3
短于 3
短期@@ 3
短期贷款 3
短板 3
石油换 3
矿井 3
码头 3
研@@ 3
研究@@ 3
研究型 3
研究室 3
砖 3
破绽 3
砸@@ 3
硕果 3
确 3
确定无疑 3
碌@@ 3
碍 3
碑 3
碰头 3
碱@@ 3
磁石 3
磐石 3
礁石 3
示范@@ 3
社会党人 3
社会存在 3
社会意识 3
社区卫生 3
社区服务 3
社民党 3
祈求 3
祖 3
祖父母 3
祖马 3
祝愿 3
祝福 3
神学家 3
神庙 3
神户 3
神明 3
神父 3
神社 3
神经外科 3
神经学 3
票@@ 3
票仓 3
祸害 3
禁制 3
禁用 3
离去 3
离家 3
离心 3
离心力 3
禽@@ 3
私底下 3
私立 3
私自 3
秃鹫 3
秋@@ 3
种株 3
科学杂志 3
科学论文 3
科学院 3
科尼@@ 3
科拉 3
科研人员 3
科研经费 3
科纳克里 3
秘密@@ 3
租用 3
积@@ 3
积极@@ 3
积极因素 3
积虑 3
积雪 3
称其为 3
移出 3
稀奇 3
稀有 3
程序@@ 3
程式化 3
稍稍 3
税会 3
税务@@ 3
税改 3
税是 3
税种 3
税赋 3
稳定@@ 3
稳定剂 3
稳定期 3
稳步前进 3
稻草 3
稿件 3
穆伦 3
穆塞韦尼 3
穴居人 3
穷困 3
空中@@ 3
空中交通 3
空中客车 3
空喊 3
空子 3
空投 3
空置 3
空间@@ 3
穿梭 3
突@@ 3
突然转向 3
窃@@ 3
窃贼 3
窠臼 3
窥@@ 3
窥探 3
立场坚定 3
立法委员 3
立盟 3
站台 3
站稳 3
竞技 3
章节 3
竭 3
竹 3
笑容 3
笑柄 3
符合国家 3
符合国际 3
第一代 3
第一副 3
第一周 3
第一点 3
第三阶段 3
第二支 3
第二类 3
第六个 3
第六次 3
第十@@ 3
第十九次 3
第十二个 3
第四代 3
第四阶段 3
第比利斯 3
笼@@ 3
等价物 3
等待时间 3
等量 3
筋疲力尽 3
答@@ 3
筹钱 3
签订协议 3
签订合同 3
简历 3
简易 3
简要 3
算数 3
管制@@ 3
管理体制 3
管理员 3
管理权 3
管辖区 3
箭@@ 3
箴言 3
篇幅 3
簇拥 3
籍@@ 3
米利班德 3
米尔顿 3
米斯 3
类人猿 3
粉墨登场 3
粒 3
粘性 3
粪便 3
粮食作物 3
精妙 3
精巧 3
精疲力竭 3
精确@@ 3
精致 3
糊 3
糊口 3
糖价 3
糟糕透顶 3
系于 3
系统@@ 3
系统化 3
系统对 3
素@@ 3
素姬 3
素材 3
索夫 3
索尔 3
索拉纳 3
索菲亚 3
索要 3
索马里人 3
紧盯 3
紧箍咒 3
累 3
累加 3
累退 3
繁多 3
繁忙 3
纠@@ 3
红十字会 3
纤维 3
约旦人 3
约翰尼 3
纬度 3
纯@@ 3
纯正 3
纳什 3
纳布卢斯 3
纳扎尔巴耶夫 3
纳斯达克 3
纵火 3
纵火犯 3
纷至沓来 3
纸上谈兵 3
纸老虎 3
纸面 3
纽斯 3
纽曼 3
纽约@@ 3
线上 3
组件 3
组织@@ 3
细化 3
细小 3
细微差别 3
细枝末节 3
织@@ 3
终其一生 3
终端 3
绍伊古 3
经典著作 3
经得起 3
经济复原 3
经济委员会 3
经济性 3
经纪商 3
经营权 3
结婚年龄 3
结构化 3
结核 3
给养 3
络 3
绝对值 3
绝少 3
绞@@ 3
统一@@ 3
统一性 3
统一指挥 3
继@@ 3
继续加强 3
续签 3
续约 3
绰号 3
绳索 3
维亚 3
维他命 3
维勒 3
维护者 3
维格 3
维特 3
维瑟尔 3
维稳 3
维阿 3
绿地 3
缉毒 3
缘故 3
缚@@ 3
缪 3
缪@@ 3
缸 3
缺乏@@ 3
罐 3
网开一面 3
网点 3
网球 3
网络覆盖 3
网络连接 3
罗宾汉 3
罗尔斯 3
罗斯@@ 3
罗曼 3
罗申科 3
罗默 3
罢黜 3
罩 3
罩袍 3
罪孽 3
置@@ 3
置业 3
置身 3
羊@@ 3
羊毛 3
美元兑 3
美国中情局 3
美国使馆 3
美国队 3
美好@@ 3
美景 3
美朝 3
美梦 3
美沙酮 3
美洲国家 3
美洲国家组织 3
美联社 3
美轮美奂 3
群情激愤 3
羹 3
翻两番 3
翻新 3
翻译 3
翻译成 3
耀 3
耀@@ 3
耀眼 3
老一套 3
老套 3
老朋友 3
老谋深算 3
考克斯 3
考古学家 3
考查 3
考证 3
者@@ 3
而令 3
而梅 3
而至 3
而视 3
而言之 3
耍@@ 3
耐久 3
耕@@ 3
耕作 3
耗电 3
耳光 3
耳目一新 3
耳边 3
耶尔 3
耸耸肩 3
耻 3
耿耿于怀 3
聊@@ 3
聊天 3
聊胜于无 3
职业化 3
职人员 3
联动性 3
联合公报 3
联合国@@ 3
联合国人口基金 3
联合国教科文组织 3
联合国难民事务高级专员公署 3
联姻 3
联席会议 3
聚 3
聚居区 3
聚首 3
肃@@ 3
肉制品 3
肉牛 3
肌 3
肌@@ 3
肌体 3
肠@@ 3
股东大会 3
肥胖症 3
肩@@ 3
肯@@ 3
肯尼斯 3
肺 3
肺@@ 3
肺部 3
肾上腺素 3
胆@@ 3
胆怯 3
胆量 3
胎死腹中 3
胜利果实 3
胜地 3
胡乱 3
胡尔 3
胡德 3
胡锡 3
胶 3
胶@@ 3
能动 3
能动性 3
能源危机 3
能源行业 3
能源部 3
脉@@ 3
脊@@ 3
脑中 3
脑机 3
脑病 3
脑膜炎 3
脱不了 3
脱落 3
腐@@ 3
腕 3
腰 3
腰@@ 3
腹地 3
膜 3
自上 3
自主性 3
自信心 3
自决权 3
自助 3
自我感觉 3
自我管理 3
自我陶醉 3
自欺 3
自洽 3
自焚 3
自然生态 3
自然语言 3
自由思想 3
自由职业 3
自相残杀 3
自绝 3
自缚 3
自营 3
自食其果 3
自鸣得意 3
至死 3
致意 3
致死率 3
致残 3
臻 3
舆论@@ 3
舍克 3
舒尔茨 3
舒曼 3
舒瓦 3
舒缓 3
航@@ 3
舰 3
舱 3
船舶 3
船队 3
艇 3
艺术@@ 3
艾哈德 3
艾肯 3
节约@@ 3
节节败退 3
芋 3
芝 3
芬@@ 3
芬兰人 3
花旗银行 3
花旗集团 3
花朵 3
苍蝇 3
苏哈托 3
苏联地区 3
苏门答腊 3
苏非派 3
苗 3
苟同 3
若斯潘 3
若要 3
苦痛 3
英军 3
英国大学 3
英德 3
英语词典 3
英超 3
英雄主义 3
茂 3
范 3
范龙佩 3
茨@@ 3
草地 3
草坪 3
草拟 3
荒诞 3
荣光 3
荣幸 3
荣景 3
荣誉感 3
荧屏 3
药片 3
药理 3
荷枪实弹 3
荼毒 3
莎士比亚 3
莎莉 3
莫伊 3
莫兰迪 3
莫盖 3
莫西 3
莫雷尔 3
莱夫 3
莱尼 3
莱文 3
莱昂 3
莱茵 3
获益匪浅 3
获选 3
菜肴 3
菲永 3
菲永@@ 3
营养食品 3
营利 3
营收 3
营救 3
萦绕在 3
萨克 3
萨克逊 3
萨德尔 3
萨斯州 3
萨米 3
萨缪尔 3
落了空 3
落到实处 3
落后者 3
落地 3
落选 3
葛 3
葛兰素 3
葛底斯堡 3
葡萄 3
葡萄牙@@ 3
董 3
葬@@ 3
蒂亚 3
蒂萨 3
蒋@@ 3
蒋介石 3
蒙在鼓里 3
蒙塔泽里 3
蒙巴萨 3
蒙面 3
蔡美儿 3
蕞尔小国 3
薄弱环节 3
薪@@ 3
藏人 3
藤 3
虎跳峡 3
虐俘 3
虐囚 3
虑 3
虚报 3
虚拟现实 3
虽说 3
蚀@@ 3
蛇@@ 3
蛛丝马迹 3
蛮力 3
蜂蜜 3
蜕变 3
蝠 3
融为一体 3
融资额 3
螺丝 3
蠢 3
蠢@@ 3
血本 3
行业协会 3
行为主体 3
行使主权 3
行动迟缓 3
行情 3
行政当局 3
行走 3
行进 3
衍生物 3
街区 3
衣物 3
补习班 3
补偿金 3
补助金 3
补给@@ 3
表演者 3
表演艺术 3
表现形式 3
表示同意 3
表达@@ 3
表达出来 3
表达方式 3
衫 3
衰 3
袋 3
被害者 3
被访者 3
被诉 3
被选为 3
袭来 3
裁撤 3
裂 3
裂@@ 3
装备精良 3
装扮成 3
装有 3
装模作样 3
装满 3
装饰@@ 3
裤 3
褪色 3
西北@@ 3
西式 3
西蒙 3
西西 3
要价 3
要命 3
覆盖率 3
见分晓 3
见底 3
见面会 3
观察@@ 3
观点鲜明 3
规律性 3
视同 3
视察 3
视频@@ 3
解决目前 3
解放阵线 3
解救出来 3
解构 3
解锁 3
言行 3
詹 3
誓 3
誓要 3
誓词 3
警力 3
警务 3
警告@@ 3
计时 3
计算机芯片 3
计量@@ 3
订 3
认命 3
认知@@ 3
认罪 3
认识@@ 3
认购 3
讨伐 3
训 3
训令 3
训斥 3
训练@@ 3
记忆法 3
记述 3
讲台 3
讲师 3
讲解 3
讲课 3
讲道德 3
讳 3
许多倍 3
讹诈 3
访@@ 3
访者 3
证监会 3
评@@ 3
评审 3
评说 3
评述 3
识@@ 3
诉苦 3
词典 3
试着 3
试金石 3
诘难 3
诚 3
诚挚 3
该死 3
该药 3
该词 3
诧异 3
语义 3
语法 3
误会 3
诱 3
诱@@ 3
说不定 3
说得@@ 3
说真的 3
说错 3
诵 3
诸位 3
诺夫 3
诺曼底 3
诺贝尔文学奖 3
读书 3
读卖新闻 3
课题 3
调停者 3
调遣 3
谄媚 3
谋取 3
谋杀案 3
谢天谢地 3
谨记 3
谩骂 3
谭 3
豆@@ 3
象是 3
豪 3
豪华轿车 3
豪斯 3
豪斯曼 3
豪猪 3
貌 3
贝娜齐尔 3
贝宁 3
贝拉 3
贝格 3
贞洁 3
负担沉重 3
负疚 3
负相关 3
贡 3
贡献力量 3
财产损失 3
财务顾问 3
财团 3
财大气粗 3
财政@@ 3
财政开支 3
责任制 3
贤 3
败露 3
货品 3
货币制度 3
货币量 3
货车 3
贩 3
贩毒集团 3
贪@@ 3
贪欲 3
贪污腐败 3
贫瘠 3
贬@@ 3
贬损 3
购买量 3
购入 3
购置 3
贵金属 3
贷方 3
贷款风险 3
贸@@ 3
贸易中心 3
贸易总额 3
贸然 3
费率 3
贻害 3
贾比尔 3
资@@ 3
资信 3
资方 3
资源分配 3
赈灾 3
赎 3
赐 3
赔偿@@ 3
赚@@ 3
赛场 3
赛尔 3
赞助人 3
赞助商 3
赢利 3
赫伯特 3
走动 3
走回头路 3
走来 3
走软 3
走近 3
走马上任 3
起伏不定 3
起势 3
起死回生 3
起码 3
起草者 3
起见 3
超人 3
超导 3
超常 3
超现实主义 3
超负荷 3
越低 3
越南人 3
越强 3
越来越重 3
越深 3
趋缓 3
趟 3
足@@ 3
足球赛 3
足球队 3
足矣 3
足联 3
跃 3
跃@@ 3
跃居 3
跋涉 3
跌倒 3
跌到 3
跌得 3
跌破 3
跌跌撞撞 3
跑@@ 3
跑步 3
跟风 3
跨入 3
跨度 3
跨文化 3
路边 3
跳入 3
跳水 3
跳跃 3
踏@@ 3
踏入 3
踢@@ 3
蹒跚 3
蹲 3
身兼 3
身心 3
躬@@ 3
躲@@ 3
车上 3
车间 3
车队 3
转嫁到 3
转运 3
轮到 3
轮回 3
轮胎 3
轮船 3
轰轰烈烈 3
轻型 3
轻重缓急 3
辅@@ 3
辉@@ 3
输往 3
辛勤工作 3
辩 3
辩词 3
辩驳 3
辱性 3
边界争端 3
边界地区 3
边界问题 3
边缘@@ 3
边远 3
边远地区 3
达到高潮 3
达吉斯坦 3
达拉斯 3
达特茅斯 3
达赖 3
达达 3
达里 3
迁@@ 3
迅捷 3
迅猛发展 3
过于自信 3
过人 3
过场 3
过敏 3
过渡阶段 3
过犹不及 3
过高估计 3
迈兰 3
迈阿密 3
运动场 3
运转不畅 3
近些年来 3
近似 3
近年以来 3
近海 3
返 3
还应 3
这三条 3
这么久 3
这极 3
这群 3
进到 3
进取 3
进犯 3
进账 3
远好 3
远征 3
远超过 3
远距离 3
远近 3
远远不如 3
远远地 3
违 3
违抗 3
违规者 3
连其 3
连在一起 3
连成 3
连续性 3
连绵不断 3
连连 3
迟来 3
迪尔 3
迫 3
迫切希望 3
迷惘 3
迷雾 3
追索权 3
退一步 3
退伍 3
退却 3
退后 3
退路 3
送交 3
送货 3
送餐 3
适应能力 3
适者生存 3
适耕 3
选举法 3
选拔 3
选择地 3
逊于 3
透顶 3
逐利 3
逐步提高 3
递 3
途@@ 3
通令 3
通俗 3
通气 3
通用汽车公司 3
通用电气 3
通缉令 3
通行证 3
通讯业 3
通谕 3
通车 3
速@@ 3
速效 3
速率 3
造假 3
造化 3
造影 3
逢 3
逻@@ 3
逼@@ 3
遇袭 3
遇难 3
遑 3
遑论 3
遗产税 3
遗传@@ 3
遗传变异 3
遗嘱 3
遗毒 3
遣 3
遭致 3
遭袭 3
避孕措施 3
避而不谈 3
避讳 3
邀 3
邀@@ 3
邓@@ 3
那一 3
那就是说 3
那条 3
那类 3
那股 3
邦@@ 3
邦政府 3
邸 3
邻居们 3
郁@@ 3
郑@@ 3
部下 3
都@@ 3
都市@@ 3
配件 3
配对 3
配资 3
配额制 3
酸盐 3
醇 3
醉 3
醒来 3
醒目 3
采掘业 3
采矿业 3
采访@@ 3
里亚 3
里加 3
里安 3
里尼 3
里萨 3
重围 3
重大贡献 3
重掌 3
重新估价 3
重新安排 3
重权 3
重灾区 3
重置 3
重要@@ 3
重重@@ 3
重镇 3
野生植物 3
量级 3
金墉 3
金大中 3
金家 3
金币 3
金边 3
钉@@ 3
钓 3
钚 3
钦@@ 3
钦佩 3
钱花 3
钱财 3
钳制 3
钻头 3
铁矿石 3
铁路沿线 3
铁蹄 3
铃木 3
铤而走险 3
银 3
银河系 3
铺路 3
链是 3
销售@@ 3
销蚀 3
销路 3
锁@@ 3
锂 3
锈 3
锐 3
错事 3
错得 3
锡金 3
锤 3
镀金 3
镜@@ 3
镶@@ 3
长久之计 3
长到 3
长子 3
长得 3
长期保持 3
长期贷款 3
长老 3
长袍 3
门人 3
门口 3
门可罗雀 3
门外 3
门面 3
闭 3
闭幕 3
问候 3
问到 3
问责@@ 3
间接@@ 3
间隔 3
闻名世界 3
阀 3
阔@@ 3
防暴警察 3
防洪 3
防火 3
防灾 3
阵列 3
阶 3
阻断 3
阿什顿 3
阿伦 3
阿伦特 3
阿伯特 3
阿克 3
阿列 3
阿卜杜 3
阿司匹林 3
阿塔 3
阿塔图尔克 3
阿尔伯特 3
阿尔及尔 3
阿尔塞 3
阿布扎比 3
阿帕约 3
阿德@@ 3
阿斯塔纳 3
阿族 3
阿比 3
阿片类 3
阿特拉斯 3
阿罗 3
阿里斯蒂德 3
附件 3
附庸国 3
陆路 3
陈列 3
降临到 3
降落 3
限速 3
除少数 3
除开 3
陪@@ 3
陪伴 3
陪同 3
陪审员 3
陪衬 3
陶器 3
陷落 3
隆姆 3
随身 3
隔开 3
障 3
隶属 3
难以名状 3
难以相处 3
难关 3
难民署 3
难觅 3
雅塔 3
集散地 3
集约 3
集聚 3
集装箱 3
雇佣工人 3
雇工 3
雌性 3
雨后春笋 3
雨果 3
零件 3
零八 3
零关税 3
零净 3
零售@@ 3
零增长 3
雷克雅未克 3
雷姆斯 3
雷布林 3
雷诺 3
雾气 3
震耳欲聋 3
霉@@ 3
霍尔姆 3
露西 3
霸 3
霸占 3
霸道 3
霾 3
青 3
静@@ 3
静候 3
静坐 3
非人类 3
非住宅 3
非关税 3
非典 3
非典型 3
非地区 3
非官方 3
非常任 3
非常适合 3
非必要 3
非成员国 3
非技术 3
非技术性 3
非此即彼 3
非生产性 3
非裔 3
靡 3
面粉 3
鞋子 3
韩国@@ 3
韩美军 3
项目管理 3
项背 3
顺着 3
顽强抵抗 3
顾@@ 3
顾拜旦 3
顿@@ 3
顿涅茨克 3
颁 3
颂扬 3
预判 3
预制 3
预想到 3
预选 3
领事 3
领会到 3
领导岗位 3
领袖人物 3
频@@ 3
频仍 3
频密 3
颓@@ 3
题@@ 3
颜@@ 3
颜面 3
额@@ 3
风头 3
风投 3
风生水 3
风险性 3
飞快 3
食谱 3
餐@@ 3
饭@@ 3
饮品 3
饲@@ 3
饼 3
饿@@ 3
首场 3
首度 3
香草 3
马力 3
马可 3
马哈拉施特拉邦 3
马尔默 3
马拉松 3
马斯 3
马来@@ 3
马来亚 3
马洪 3
马耳他 3
马蒂 3
驯 3
驰 3
驱动器 3
驱散 3
驱虫 3
驱逐舰 3
驱除 3
驶@@ 3
驶入 3
驾 3
骄人 3
骑 3
骤停 3
骨骼 3
髓 3
高下 3
高于一切 3
高人一等 3
高傲 3
高利贷 3
高到 3
高声 3
高层论坛 3
高悬 3
高房价 3
高手 3
高标准 3
高科技产品 3
高糖 3
高素质 3
高级专员 3
高能耗 3
高贵 3
高频 3
魅力四射 3
魏 3
魏玛 3
魔法师 3
鱼翅 3
鱼鹰 3
鲁棒性 3
鲁莽地 3
鳄 3
鳄@@ 3
鳍 3
鸠山由纪夫 3
鸡窝 3
鸦片贸易 3
鹤立鸡群 3
麦康奈尔 3
麦当娜 3
麦田 3
麻@@ 3
麻木 3
麻醉 3
麻风 3
黄油 3
黄种 3
黄色 3
黎 3
黎@@ 3
黑山 3
黑海地区 3
默默地 3
黯然失色 3
鼎盛时期 3
鼓起勇气 3
鼠疫 3
龟 3
) 2
.@@ 2
00 2
10.7 2
14@@ 2
1848 2
1943 2
2.75 2
590 2
770 2
AA 2
AI@@ 2
AK@@ 2
AM@@ 2
AS 2
ASAT 2
BA 2
BC 2
BI 2
Bruegel 2
CNVs 2
COP15 2
CT@@ 2
CTBT 2
DD@@ 2
EC 2
FS@@ 2
GN@@ 2
Gr@@ 2
HC 2
HI@@ 2
HIC@@ 2
IA 2
IA@@ 2
IC 2
Kib@@ 2
ME@@ 2
MF@@ 2
Ma@@ 2
Medicare 2
NC@@ 2
OM 2
OM@@ 2
OP 2
PEC 2
PP 2
Proc@@ 2
Q 2
RBI 2
SDSN 2
SF 2
SNP 2
SW@@ 2
TA 2
Tu@@ 2
Tweet 2
Ub@@ 2
Ver@@ 2
Y 2
You@@ 2
Zmapp 2
ab 2
ada 2
amp@@ 2
eb@@ 2
hra 2
iP@@ 2
ill 2
iprobe 2
ist 2
ital 2
le 2
oi 2
onzo 2
quo@@ 2
tor 2
ue@@ 2
up 2
v 2
weet 2
ã 2
一丝@@ 2
一二十年 2
一分为二 2
一分钟 2
一切办法 2
一半@@ 2
一团@@ 2
一国@@ 2
一来 2
一死 2
一段@@ 2
一看 2
一等 2
一筹 2
一线@@ 2
一股@@ 2
一般化 2
一言@@ 2
一面@@ 2
万事@@ 2
万亿@@ 2
丈 2
丈@@ 2
三代人 2
三角@@ 2
上会 2
上层@@ 2
上所述 2
上策 2
上而下 2
下以 2
下图 2
下院 2
不决 2
不利因素 2
不单@@ 2
不可动摇 2
不复 2
不好受 2
不容@@ 2
不平 2
不攻自破 2
不知所措 2
不管是谁 2
不绝@@ 2
不肯 2
不自@@ 2
不论@@ 2
不足@@ 2
不齐 2
与会@@ 2
与会代表 2
丑行 2
且@@ 2
世俗@@ 2
世贸@@ 2
丛 2
东北@@ 2
东北地区 2
东尼 2
东流 2
两可 2
两国应 2
严厉@@ 2
严肃@@ 2
个人账户 2
个人资料 2
中全会 2
中国队 2
中士 2
丰硕 2
临界@@ 2
为难 2
主义@@ 2
主动@@ 2
主导@@ 2
主持@@ 2
主要@@ 2
之不@@ 2
之以@@ 2
之意 2
之春@@ 2
之灾 2
之祸 2
之遥 2
乘 2
乘以 2
乙 2
九次 2
乾@@ 2
了之 2
予 2
予@@ 2
争夺@@ 2
二致 2
于众 2
亏 2
互 2
互通 2
五年@@ 2
亚于 2
亚利桑@@ 2
亚历山@@ 2
亚地区 2
亚太@@ 2
亚州 2
亚当斯 2
亚文化 2
亚裔 2
交互 2
交换@@ 2
交融 2
产生@@ 2
亨@@ 2
亲临 2
亲密@@ 2
亲戚 2
人为@@ 2
人人@@ 2
人口稠密 2
人工@@ 2
人意 2
人所@@ 2
人民解放军 2
人生@@ 2
人类@@ 2
人造@@ 2
人际@@ 2
仁 2
今已是 2
从何而来 2
从技术上 2
从未@@ 2
仑 2
付酬 2
代人 2
令禁止 2
以为@@ 2
以能 2
以远 2
件事 2
任人@@ 2
仿@@ 2
伊夫 2
伊斯 2
伊斯@@ 2
伊朗@@ 2
伎@@ 2
伐@@ 2
休眠状态 2
伟@@ 2
传统@@ 2
传统意义 2
伤痕累累 2
估 2
估@@ 2
似 2
伽 2
伽@@ 2
但令 2
但此 2
住宅@@ 2
住院治疗 2
佐夫 2
佐治@@ 2
佑 2
体制性 2
体大 2
何为 2
何时@@ 2
余力 2
佛罗@@ 2
作呕 2
作对 2
作梗 2
佣@@ 2
佼佼者 2
使命感 2
使团 2
例外情况 2
侍 2
侍@@ 2
供体 2
侧@@ 2
侧重 2
侯@@ 2
俄克拉荷马 2
俊 2
俘 2
俘获 2
保护法 2
保持中立 2
保险人 2
保障@@ 2
信奉@@ 2
信贷@@ 2
俯@@ 2
倚 2
借款国 2
倦 2
倦@@ 2
债务缠身 2
债国 2
值得@@ 2
值得一@@ 2
做得@@ 2
健康人 2
储 2
催@@ 2
催化作用 2
催泪@@ 2
傲 2
僵@@ 2
儒家@@ 2
允@@ 2
兄@@ 2
兄弟@@ 2
充 2
充电 2
先锋队 2
光纤网络 2
光说不练 2
克什@@ 2
克罗@@ 2
免费@@ 2
兑换@@ 2
兔 2
兢 2
全州 2
公交 2
公共事业 2
公开@@ 2
公款 2
公民@@ 2
公用@@ 2
公诉人 2
六七@@ 2
兰经 2
共处 2
关税@@ 2
关税壁垒 2
关系@@ 2
关系不大 2
其三 2
其事 2
具体任务 2
典礼 2
养殖@@ 2
兽 2
冀 2
内华@@ 2
内布拉@@ 2
内特 2
内部@@ 2
内陆@@ 2
冉@@ 2
再生@@ 2
冕 2
军用 2
冬@@ 2
冲击@@ 2
冲突@@ 2
决战 2
决策@@ 2
决选 2
凄@@ 2
准备@@ 2
凉 2
凉@@ 2
凑 2
凛@@ 2
凯恩 2
出人@@ 2
出勤 2
凿@@ 2
刀刃 2
刁@@ 2
刃 2
分之 2
分法 2
分清 2
分而治之 2
切尔 2
切尔@@ 2
切尔诺贝@@ 2
切特 2
切身感受 2
刑事诉讼 2
列表 2
列颠 2
刘 2
创业@@ 2
创始@@ 2
利人 2
利他@@ 2
利器 2
利尔 2
利斯 2
别无@@ 2
制冷系统 2
制片@@ 2
刷@@ 2
前兆 2
前后@@ 2
前所未@@ 2
剑@@ 2
剖@@ 2
剧减 2
割让 2
力军 2
功利主义 2
加利@@ 2
加拿大@@ 2
动物园 2
劲@@ 2
劳苦@@ 2
劳资@@ 2
勃兰特 2
勃勃 2
勉@@ 2
勋 2
勒令 2
勘@@ 2
勿 2
勿@@ 2
匀@@ 2
包商 2
北方@@ 2
北极@@ 2
北美@@ 2
北美自由@@ 2
匝@@ 2
匪 2
医疗法 2
匿@@ 2
十九@@ 2
十四 2
十月革命 2
千差万别 2
千美元 2
华人 2
协同@@ 2
协调@@ 2
卑 2
卒 2
南方@@ 2
博士@@ 2
博得 2
卜@@ 2
卡德@@ 2
卡洛 2
卡萨@@ 2
卡钦@@ 2
卫兵 2
卫生组织 2
危急关头 2
即兴 2
却@@ 2
却步 2
历 2
历史进程 2
厕 2
厘@@ 2
原籍 2
厨@@ 2
叉 2
叉@@ 2
反复@@ 2
反对@@ 2
反式 2
反教 2
发明家 2
发生地 2
发表@@ 2
发言@@ 2
叔叔 2
受到@@ 2
受害@@ 2
受援 2
受灾@@ 2
受益@@ 2
变形 2
变革@@ 2
叠@@ 2
叠加 2
口水战 2
古巴@@ 2
句@@ 2
句号 2
叨 2
只眼 2
叮@@ 2
可为 2
可乐 2
可乘之机 2
可图 2
可证 2
台词 2
史普 2
叶剑英 2
号@@ 2
叹 2
吃素 2
各自为@@ 2
各部 2
各项@@ 2
各项政策 2
同性恋者 2
同感 2
同流合污 2
名列@@ 2
向导 2
吗@@ 2
君子 2
吝 2
吟 2
吠 2
吨@@ 2
听命 2
吻 2
吼 2
吼@@ 2
呃 2
呆@@ 2
呛 2
呼之欲@@ 2
呼吸@@ 2
命中注定 2
咎 2
咒@@ 2
咙 2
咽@@ 2
哀 2
哄 2
哄@@ 2
哇 2
哈佛@@ 2
哈利@@ 2
哈德 2
哈萨@@ 2
哔 2
哗@@ 2
哨@@ 2
哪些@@ 2
哮@@ 2
唇@@ 2
唐吉诃德 2
唤 2
唬 2
唾@@ 2
商家 2
啧@@ 2
啼@@ 2
喉 2
喘@@ 2
嗑 2
嗡@@ 2
嗣 2
嗤@@ 2
嗯 2
嘉 2
嘘@@ 2
嘛 2
嘟@@ 2
嘿 2
噎@@ 2
嚷 2
嚼 2
嚼@@ 2
囊中之物 2
囔 2
囚@@ 2
四十 2
四家 2
四海@@ 2
囤@@ 2
园@@ 2
困苦 2
固定价格 2
国内@@ 2
国家电网 2
国有@@ 2
国防工业 2
圈子里 2
土穆 2
圣诞@@ 2
在校@@ 2
地板 2
地理@@ 2
地雷 2
址 2
坏帐 2
坚 2
坚定@@ 2
坚持原则 2
坛 2
坝 2
坟@@ 2
坠@@ 2
坡路 2
坤 2
坪 2
垂 2
垄断价格 2
型企业 2
垒 2
垮@@ 2
埃勒 2
埃塞俄比@@ 2
埃胡德 2
埋没 2
基亚 2
基本粒子 2
堂皇 2
堵@@ 2
塑 2
塑料@@ 2
塔吉@@ 2
塞蒂 2
塞进 2
填 2
增长期 2
声响 2
壳@@ 2
壶 2
复杂@@ 2
外伤 2
外来者 2
多元@@ 2
多多@@ 2
多数@@ 2
多疑 2
多种@@ 2
多米@@ 2
大大的 2
大好局面 2
大局观 2
大开@@ 2
大开杀戒 2
大气@@ 2
天使 2
天花@@ 2
天鹅 2
太郎 2
夯实 2
失常 2
夸大其@@ 2
夹缝 2
夺 2
契 2
奚@@ 2
奠 2
奠基 2
奥会 2
奥古@@ 2
奥地@@ 2
奥尔@@ 2
奥尼尔 2
奥斯汀 2
奥运@@ 2
女郎 2
好受 2
妄 2
妆 2
妇女@@ 2
妊@@ 2
妒@@ 2
妙 2
妥当 2
妮 2
妮@@ 2
姐@@ 2
姑 2
委@@ 2
委屈 2
姨@@ 2
威斯@@ 2
威斯康@@ 2
娃@@ 2
娠@@ 2
娱乐@@ 2
娴@@ 2
娼 2
娼@@ 2
婊@@ 2
婴 2
媚@@ 2
嫁@@ 2
嫡@@ 2
嫩@@ 2
嬉@@ 2
子里 2
孙辈 2
孢@@ 2
孤儿院 2
学习@@ 2
学金 2
学龄@@ 2
孪生兄弟 2
孰 2
宁静 2
它用 2
宇 2
宇宙@@ 2
宇航局 2
安德@@ 2
安第@@ 2
完好 2
完美@@ 2
官僚化 2
官方@@ 2
官样文章 2
定时炸弹 2
宛@@ 2
实验@@ 2
宠@@ 2
审判@@ 2
审计@@ 2
宣@@ 2
宣告破产 2
害者 2
宴 2
宽广 2
寅@@ 2
密切@@ 2
密苏里州 2
密集@@ 2
对外@@ 2
寿 2
将士 2
小儿@@ 2
小儿麻@@ 2
小泽 2
少部分 2
尔德 2
尔邦 2
尖端@@ 2
就业@@ 2
就职@@ 2
就行 2
尺 2
尼尔 2
尼日@@ 2
居留权 2
屈膝 2
屏@@ 2
屏住 2
属国 2
屡 2
山积 2
岖 2
岛礁 2
岳@@ 2
岿@@ 2
峻@@ 2
崇 2
川@@ 2
巡洋舰 2
巡航 2
工事 2
工人@@ 2
工人员 2
工人工资 2
工会@@ 2
工作室 2
工程@@ 2
左右@@ 2
左拉 2
巩@@ 2
巫 2
巴伐@@ 2
巴基@@ 2
巴基斯坦@@ 2
巴塞罗@@ 2
币@@ 2
市郊 2
布里@@ 2
帅 2
帅@@ 2
师涛 2
帕潘德里欧 2
帙@@ 2
席@@ 2
常有 2
幡@@ 2
幢 2
干戈 2
平均温度 2
平方@@ 2
平民主义 2
年度@@ 2
年轻@@ 2
并不@@ 2
幸福@@ 2
幼 2
广告@@ 2
广告牌 2
广播公司 2
广泛传播 2
庄 2
序 2
序@@ 2
库克 2
库尔@@ 2
库斯 2
应变 2
府 2
康奈@@ 2
廓@@ 2
建构 2
建立@@ 2
开刀 2
开放式 2
开行 2
开进 2
弈 2
弓@@ 2
引 2
引见 2
引起@@ 2
弗兰@@ 2
弗洛@@ 2
弧@@ 2
弯 2
强制@@ 2
强心@@ 2
强烈要求 2
强迫@@ 2
归宿 2
当日 2
彬@@ 2
役@@ 2
彻 2
彻底@@ 2
彼特 2
往前 2
很久@@ 2
律@@ 2
律性 2
徒刑 2
徒劳@@ 2
得人心 2
得意 2
得通 2
循环@@ 2
德法 2
德涅斯特河 2
德温 2
心烦意乱 2
必然@@ 2
必胜信念 2
忍气吞声 2
忠@@ 2
忾 2
怀俄明州 2
怎@@ 2
怕@@ 2
急救 2
性别@@ 2
总体@@ 2
总计 2
恋 2
恐 2
恐怖@@ 2
恒 2
恕 2
恙 2
恤@@ 2
恶劣@@ 2
恼@@ 2
悖@@ 2
悠 2
悬 2
悲观@@ 2
悸 2
情绪@@ 2
惋@@ 2
惜@@ 2
惟@@ 2
惨烈 2
惩@@ 2
想过 2
愁 2
愁@@ 2
愉@@ 2
意志@@ 2
感到@@ 2
愧 2
慈@@ 2
慈善@@ 2
慎@@ 2
慕@@ 2
慨@@ 2
慰藉 2
憎 2
懂@@ 2
懵@@ 2
戎@@ 2
成功@@ 2
成品 2
成就感 2
成本低 2
我常 2
战略规划 2
戴着 2
房产税 2
房者 2
所在@@ 2
扁@@ 2
打了个 2
扬@@ 2
扭 2
扭转局势 2
扮@@ 2
扯 2
扯@@ 2
扰 2
扳@@ 2
扶 2
批判@@ 2
承 2
抑 2
抒@@ 2
投入@@ 2
投入使用 2
抚 2
抽 2
拂 2
拂@@ 2
拉克 2
拉克@@ 2
拉夫 2
拉夫@@ 2
拉特 2
拉萨 2
拒绝执行 2
拖下水 2
招来 2
拟 2
择 2
括 2
拭@@ 2
拱手让出 2
拳击 2
拴 2
拷@@ 2
拾@@ 2
持久@@ 2
指导@@ 2
指摘 2
指纹 2
挑 2
挠 2
挤满 2
挨 2
挫 2
捂@@ 2
捅@@ 2
捉摸 2
捋 2
捏@@ 2
捐出 2
捕猎 2
损失@@ 2
捡@@ 2
捧@@ 2
掀@@ 2
掐@@ 2
掘@@ 2
掠@@ 2
接受@@ 2
接受度 2
接收@@ 2
控制中心 2
推延 2
推特@@ 2
措 2
描@@ 2
提供@@ 2
提高@@ 2
插 2
握住 2
揪@@ 2
揪心 2
援@@ 2
揿 2
搀@@ 2
搏@@ 2
搜捕 2
搞清 2
搭@@ 2
摄像@@ 2
摇 2
摇滚@@ 2
摒@@ 2
摧@@ 2
摩天@@ 2
摩尔定律 2
摸得着 2
撇 2
撇清 2
撤除 2
撰 2
撷@@ 2
操纵@@ 2
攒@@ 2
支持@@ 2
支配@@ 2
收归国有 2
收益@@ 2
收盘@@ 2
收视率 2
改变@@ 2
改善@@ 2
放手 2
放眼@@ 2
政策@@ 2
故事情节 2
效率高 2
救药 2
散步 2
敦 2
数据安全 2
整体@@ 2
文在@@ 2
文档 2
文革 2
斐 2
斥 2
断电 2
斯在 2
斯洛伐@@ 2
斯珀林 2
新发明 2
新疆@@ 2
方便@@ 2
方济@@ 2
方程@@ 2
旋律 2
无上 2
无余 2
无几 2
无可奈@@ 2
无声@@ 2
无处@@ 2
无度 2
无往@@ 2
无息 2
无神@@ 2
无路可走 2
日复一日 2
日无多 2
日益@@ 2
日程@@ 2
旦 2
时起 2
旷@@ 2
昌 2
明显增加 2
明特费林 2
明说 2
昙花一现 2
映 2
昧@@ 2
昨@@ 2
晃@@ 2
晒@@ 2
晚矣 2
普及@@ 2
普罗米修斯 2
普通工人 2
普遍@@ 2
暂@@ 2
暑@@ 2
暴风 2
曰 2
曹@@ 2
替@@ 2
替代@@ 2
最终@@ 2
最高@@ 2
最高者 2
有势 2
有可@@ 2
有形资产 2
有过之 2
有钱@@ 2
有限性 2
期货@@ 2
本科@@ 2
朵 2
机枪 2
杂着 2
权力@@ 2
权威机构 2
村子 2
束 2
条文 2
杨 2
杰文斯 2
极差 2
极致 2
枉@@ 2
林书豪 2
枢 2
枢@@ 2
某处 2
染色@@ 2
查出 2
查德 2
柬 2
柬埔寨政府 2
柯林斯 2
柴@@ 2
栅@@ 2
标志@@ 2
栈 2
树林 2
栗@@ 2
校车 2
栩@@ 2
核查员 2
格兰 2
格奈森 2
格陵兰岛 2
格鲁 2
格鲁@@ 2
框@@ 2
桌 2
桌@@ 2
梅尔 2
梅尼 2
梅氏 2
梢 2
梦魇 2
梯 2
棉 2
棉@@ 2
棋 2
棋@@ 2
棚户区 2
棣@@ 2
森林@@ 2
棵@@ 2
椅 2
楼价 2
概率分布 2
榈@@ 2
榜@@ 2
樟@@ 2
模 2
模板 2
樱@@ 2
欢 2
欣@@ 2
欺人 2
歉@@ 2
止痛@@ 2
此时@@ 2
武器@@ 2
歧@@ 2
歪 2
歪@@ 2
殖民@@ 2
殚精竭虑 2
殷@@ 2
毁誉参半 2
毅 2
每晚 2
每逢 2
毒贩 2
比利时人 2
比自 2
比较@@ 2
比较复杂 2
比较突出 2
比雷埃夫斯 2
毙 2
毛主席 2
毛之地 2
毛泽东思想 2
毛里 2
毫不妥协 2
毫不差 2
毫不相关 2
毫不退缩 2
毫不逊色 2
毫无价值 2
毫无例外 2
毫无保留 2
毫无准备 2
毫无瓜葛 2
毯@@ 2
氏族 2
氏菌 2
民主决策 2
民主制 2
民主权力 2
民主监督 2
民主革命 2
民众@@ 2
民国 2
民族利益 2
民族自决权 2
民族风格 2
民治 2
气势 2
气势汹汹 2
气大伤 2
气来 2
气概 2
气沉沉 2
气流 2
气象 2
气道 2
氚 2
氢@@ 2
氦气 2
氯 2
氯@@ 2
水井 2
水位 2
水军 2
水力@@ 2
水危机 2
水土流失 2
水处理 2
水平线 2
水循环 2
水晶球 2
水深火热 2
水火之中 2
水电工 2
水稻 2
水能 2
水边 2
永恒不变 2
永道 2
汀 2
求于 2
求救 2
汇入 2
汇点 2
汇率变动 2
汇聚一堂 2
汉城 2
汉字 2
汞 2
江三角洲 2
江山 2
江郎才尽 2
江青 2
污名 2
污染性 2
污秽 2
汤@@ 2
汲@@ 2
汽车出口 2
汽车尾气 2
沃克 2
沃土 2
沃尔特 2
沃尼亚 2
沃纳 2
沈@@ 2
沉思 2
沉溺 2
沉疴 2
沉积 2
沉积物 2
沉船 2
沉醉于 2
沉降 2
沙俄 2
沙发 2
沙哈 2
沟@@ 2
没上 2
没完 2
没有@@ 2
没有特权 2
没法儿 2
没道理 2
没钱 2
沧@@ 2
沧海@@ 2
河山 2
河床 2
河谷 2
沸沸扬扬 2
沸点 2
油水 2
油漆 2
油脂 2
油腻腻 2
油门 2
治政 2
治理者 2
治疗@@ 2
治百病 2
治罪 2
沾 2
沾@@ 2
泉@@ 2
法兰 2
法国式 2
法国议会 2
法在 2
法学院 2
法币 2
法律@@ 2
法律援助 2
法律条文 2
法律责任 2
法美 2
法老 2
法耶兹 2
法蒂玛 2
法鲁克 2
泡沫@@ 2
波兹南 2
波士@@ 2
波尔布 2
波涛 2
波涛汹涌 2
波顿 2
泥 2
泥足 2
注@@ 2
注一掷 2
注册地 2
注意@@ 2
注解 2
注释 2
注销 2
泪水 2
泯@@ 2
泰因 2
泰国人 2
泰柬 2
泰米尔猛虎组织 2
泰铢 2
泱@@ 2
泻@@ 2
泼@@ 2
泽一郎 2
洁 2
洋洋 2
洋洋得意 2
洗刷 2
洗牌 2
洗衣@@ 2
洛佩兹 2
洛克@@ 2
洛克式 2
洛克菲勒 2
洛尼亚 2
洛琳 2
洛瓦底江 2
洛茨 2
洞察力 2
洞朗 2
津津乐道 2
活儿 2
活泼 2
洽 2
洽@@ 2
派胡言 2
流亡国外 2
流亡者 2
流从 2
流到 2
流动@@ 2
流动率 2
流感疫苗 2
流油 2
流浪@@ 2
流社会 2
流落 2
流血@@ 2
流血冲突 2
流行@@ 2
流行病学 2
流行语 2
流行起来 2
流转 2
流露出 2
浅显 2
浆 2
测器 2
浏览器 2
浓重 2
浦 2
浦@@ 2
浩繁 2
浪费资源 2
浮士德 2
浮游生物 2
浮起 2
浮躁 2
浴 2
浴室 2
浴火重生 2
海中 2
海伍德 2
海伦 2
海军上将 2
海冰 2
海塘 2
海德拉巴 2
海法 2
海浪 2
海港 2
海盗行为 2
海路 2
海达 2
海马 2
浸 2
涅夫 2
涅槃 2
消化@@ 2
消毒 2
消毒剂 2
消沉 2
消耗掉 2
消遣 2
消防员 2
消防队 2
消防队员 2
涉@@ 2
涉入 2
涌上 2
涎@@ 2
润@@ 2
涨潮 2
涯 2
液态 2
涵 2
淀粉 2
淘金 2
淡定 2
淤积 2
淫 2
深有同感 2
深根 2
深水 2
深藏 2
深表 2
深邃 2
深部 2
混乱状态 2
混养 2
混合型 2
混合物 2
混血人 2
添加剂 2
添砖加瓦 2
清一色 2
清偿债务 2
清剿 2
清扫 2
清晨 2
清晰化 2
清点 2
渎@@ 2
渔业法 2
渔场 2
渔捕 2
渡陈仓 2
渣 2
渣@@ 2
渥太华 2
温带 2
温泉 2
温顺 2
港府 2
游乐园 2
游就馆 2
游戏@@ 2
游泳@@ 2
游艇 2
湮灭 2
溃不成军 2
溃烂 2
溅 2
源远流长 2
溯 2
溯到 2
溯源 2
溶解 2
溺水 2
滑轮 2
滕@@ 2
滚滚 2
满怀@@ 2
满时 2
满是 2
满目 2
满足需要 2
满面 2
滥伐 2
滥发 2
漂@@ 2
漂泊 2
漂流 2
漂移 2
漏出 2
漏掉 2
演化过程 2
演算 2
演练 2
演讲@@ 2
演讲者 2
演说家 2
漫 2
漫不经心 2
漫无边际 2
漫游 2
潜伏着 2
潜入 2
潜水 2
澳门 2
激昂 2
濒临破产 2
濒于 2
濒死 2
瀑布 2
灌进 2
火冒三丈 2
火山@@ 2
火库 2
火拼 2
火海 2
火炉 2
火炮 2
火热 2
火纷飞 2
灯具 2
灰尘 2
灰心丧气 2
灵丹 2
灶具 2
炉灶 2
炒掉 2
炒鱿鱼 2
炙手可热 2
炫@@ 2
炭黑 2
炮灰 2
炮轰 2
炸 2
点出 2
点子 2
点数 2
炼 2
炼化 2
炼金术 2
炼金术士 2
烂@@ 2
烂熟 2
烈地 2
烈度 2
烘@@ 2
烛光 2
烟囱 2
烤箱 2
烧掉 2
烧死 2
烧煤 2
烫@@ 2
热力学 2
热带风暴 2
热度 2
热得 2
热情@@ 2
热情洋溢 2
热水器 2
热点话题 2
热电厂 2
热病 2
热血沸腾 2
热诚 2
热闹 2
焉 2
焉知非福 2
焕 2
焕发 2
焦@@ 2
焦土 2
焦虑不安 2
然不动 2
然不同 2
然大怒 2
然无声 2
煤矿@@ 2
照单全收 2
照常 2
照物 2
照理 2
照章办事 2
照耀 2
照进 2
煮@@ 2
煮熟 2
煽起 2
熏@@ 2
熔化 2
熔毁 2
熙@@ 2
熟@@ 2
熟稔 2
熠@@ 2
熬过 2
燃 2
燃@@ 2
燃料@@ 2
燃气@@ 2
燃烧弹 2
燃物 2
燎原 2
燎原之势 2
爆料 2
爆炸@@ 2
爪@@ 2
爬@@ 2
爱上 2
爱丽丝 2
爱尔兰共和军 2
爱情 2
爱滋病 2
爱荷华州 2
爱迪 2
爵 2
父女 2
爷 2
爽 2
爽快 2
片@@ 2
片刻 2
牌局 2
牌式 2
牌榜 2
牙买@@ 2
牙刷 2
牙医 2
牙科 2
牙膏 2
牛排 2
牛皮 2
牛群 2
牢@@ 2
牢固地 2
牢狱 2
物业税 2
物化 2
物有所值 2
物理@@ 2
物理学界 2
物美 2
牵引力 2
牵线搭桥 2
特丽克丝 2
特会 2
特兰大 2
特则 2
特别强调 2
特劳斯 2
特古@@ 2
特和佩 2
特惠 2
特拉华州 2
特效 2
特斯 2
特朗 2
特朗@@ 2
特权阶层 2
特案 2
特殊照顾 2
特殊要求 2
特洛 2
特洛@@ 2
特许费 2
特遣队 2
特里克 2
特长 2
犀牛角 2
犬儒 2
犯罪团伙 2
犯罪案件 2
犯过 2
状@@ 2
状况不佳 2
犹@@ 2
犹未 2
犹未尽 2
犹犹豫豫 2
犹豫@@ 2
狂乱 2
狂欢节 2
狂轰滥炸 2
狂风 2
狗@@ 2
狗咬狗 2
狗娘养 2
狗熊 2
狠 2
狡猾地 2
狡诈 2
狩猎 2
独创性 2
独到 2
独占 2
独厚 2
独症 2
独立宣言 2
独立思考 2
狮 2
狱 2
狼@@ 2
猎 2
猎@@ 2
猎杀 2
猎熊 2
猛涨 2
猛药 2
猛跌 2
猝不及防 2
猫科动物 2
猫腻 2
献 2
献血者 2
献身精神 2
猴 2
猿 2
獭 2
玄@@ 2
玄虚 2
率地 2
率高 2
率高达 2
玉 2
玉尔地 2
王座 2
王权 2
玛丽亚 2
玛利亚 2
玛吉德 2
玛瓦蒂 2
玩忽职守 2
玩耍 2
玫瑰@@ 2
环境污染 2
环境规划 2
环礁 2
环绕着 2
环顾 2
现为 2
现代医学 2
现代科技 2
现时 2
现都 2
现金流量 2
玻璃@@ 2
珀@@ 2
珍品 2
珍妮特 2
珠链 2
班农@@ 2
班治下 2
班级 2
班达尔 2
球场 2
球星 2
球赛 2
理发师 2
理发店 2
理学 2
理工学院 2
理性主义 2
理想@@ 2
理疗 2
理论依据 2
理说 2
琉斯 2
琐@@ 2
琳娜 2
琼森 2
瑕 2
瑙 2
瑞克斯 2
瑟斯 2
瑟琳 2
瓜达尔 2
瓦小时 2
瓦尔品第 2
瓦德 2
瓦拉 2
瓦特 2
瓦略 2
瓦茨拉夫 2
瓦莱里 2
瓦西里 2
瓶装 2
甘于 2
甘巴里 2
甘落后 2
甚为 2
甚少 2
甚巨 2
甚或 2
甜味 2
甜头 2
甜点 2
生下 2
生产@@ 2
生产潜力 2
生会 2
生养 2
生出 2
生化 2
生命权 2
生子 2
生存@@ 2
生存条件 2
生态灾难 2
生怕 2
生意人 2
生来 2
生死关头 2
生气勃勃 2
生活状况 2
生活费 2
生源 2
生物资源 2
生物进化 2
生猪 2
生疑 2
生筏 2
生肉 2
生路 2
生还 2
用同 2
用土地 2
用心 2
用户@@ 2
用户数 2
用油 2
用物资 2
用电量 2
用脚 2
用过 2
用近 2
用餐 2
甩@@ 2
田纳西州 2
田间 2
由受 2
由正 2
甲型 2
申报者 2
申请经费 2
电信联盟 2
电动机 2
电子元件 2
电子设备 2
电工程 2
电影院 2
电灯 2
电磁学 2
电缆 2
电脑前 2
电脑屏幕 2
电脑游戏 2
电表 2
电视直播 2
电视讲话 2
电话@@ 2
电话号码 2
电路 2
男士 2
男朋友 2
男爵夫人 2
男童 2
画出 2
画画 2
畅 2
畅@@ 2
界处 2
畏首畏尾 2
留守 2
留恋 2
留着 2
畜栏 2
畜牧 2
略多于 2
略少 2
略知一二 2
略萨 2
番@@ 2
疆辟土 2
疏解 2
疑义 2
疑云 2
疑似 2
疑犯 2
疗方 2
疟疾疫苗 2
疤痕 2
疫@@ 2
疲态 2
疲惫 2
疽 2
疾@@ 2
疾病@@ 2
病倒 2
病原@@ 2
病床 2
病毒传播 2
病理学 2
病理性 2
痒 2
痛心 2
痴@@ 2
痴心妄想 2
痹 2
瘾 2
癖好 2
癫痫 2
登山@@ 2
登时代 2
白喉 2
白日梦 2
白板 2
白种 2
白纸黑字 2
白芝浩 2
白蚁 2
白雪@@ 2
百事 2
百事可乐 2
百亿美元 2
百出 2
百分@@ 2
百分之一百 2
百分之五 2
百合 2
百多 2
百般@@ 2
百货 2
百货商店 2
的人 2
的士 2
的放矢 2
皮克 2
皮士 2
皮姆 2
皮毛 2
皮肤癌 2
盆 2
盈亏 2
益@@ 2
益发 2
盐潮 2
监听 2
监察员 2
监护人 2
监督管理 2
盖弥彰 2
盖特 2
盖达尔 2
盖过 2
盗用 2
盘剥 2
盘尼西林 2
盘尾 2
盘根错节 2
盘算 2
盘踞 2
盛名 2
盛时期 2
盛期 2
盛装 2
盛誉 2
盛赞 2
盟约 2
目以待 2
目击 2
目击者 2
目无法纪 2
目标@@ 2
盲 2
盲@@ 2
直上 2
直入 2
直布罗陀 2
直投 2
直接@@ 2
直男癌 2
直视 2
直达 2
直选 2
直飞 2
相为 2
相依 2
相同之处 2
相吻合 2
相安无事 2
相对主义 2
相差@@ 2
相差无几 2
相当可观 2
相形之下 2
相抵 2
相持 2
相比而言 2
相爱 2
相符合 2
相聚 2
相识 2
相距甚远 2
相遇 2
相配套 2
盼望着 2
省人 2
省会 2
省内 2
省市 2
省政府 2
看不惯 2
看不懂 2
看不起 2
看不透 2
看中 2
看清楚 2
看熊 2
真实写照 2
真是太 2
真理报 2
真诚地 2
真面目 2
眨 2
眩目 2
眼不见 2
眼中钉 2
眼帘 2
眼泪 2
眼镜 2
着干 2
着急 2
着瞧 2
着重强调 2
督@@ 2
睦 2
瞎 2
瞒天过海 2
瞒报 2
瞠目结舌 2
瞧 2
瞧不起 2
瞬间 2
矛盾体 2
知先@@ 2
知情权 2
知识@@ 2
矩@@ 2
石器 2
石器时代 2
石油输出国组织 2
石油部长 2
石英表 2
矿产品 2
矿山 2
矿工 2
矿物质 2
码@@ 2
砍 2
研 2
研究会 2
研究局 2
砖块 2
砝码 2
破伤风 2
破土而出 2
破坏活动 2
破天荒 2
破常规 2
破脸 2
破血流 2
破记录 2
破镜重圆 2
砸毁 2
砾 2
硕果仅存 2
硫酸 2
硬伤 2
硬碰硬 2
硬脱 2
硬要 2
硬退 2
硬骨头 2
确凿 2
确凿无疑 2
确是 2
确有其事 2
碌 2
碍于 2
碍眼 2
碗 2
碗@@ 2
碘 2
碰 2
碰壁 2
碱性 2
碳基 2
碳源 2
碳酸 2
碾碎 2
磁@@ 2
磕@@ 2
磨@@ 2
磨坊 2
示众 2
示器 2
示威抗议 2
示录 2
礼品 2
礼拜 2
社会学 2
社会底层 2
社会民主主义 2
社团组织 2
祖克曼 2
祖布 2
祖籍 2
祖鲁 2
祝 2
神创论 2
神圣@@ 2
神授 2
祟 2
祥和 2
票否决权 2
票面价值 2
祭司 2
祭坛 2
祭祀 2
祷@@ 2
祸不单行 2
禁不住 2
禁言 2
福克@@ 2
福利待遇 2
福址 2
福大学 2
福德尼 2
福田 2
福萨@@ 2
离乡背井 2
离家@@ 2
离得 2
离心分离 2
离解 2
禽 2
私人@@ 2
私人关系 2
私人生活 2
私吞 2
私有制 2
私生子 2
私用 2
私营经济 2
秃顶 2
秃鹰 2
秉@@ 2
秉持 2
秋后算账 2
种族问题 2
种植园 2
科伦坡 2
科医生 2
科塔 2
科尔特斯 2
科尼 2
科托努 2
科技@@ 2
科技股 2
科文 2
科研@@ 2
科达 2
秘密文件 2
秘密活动 2
秘性 2
秘鲁人 2
租借 2
秦@@ 2
秩序井然 2
积 2
积居奇 2
积攒 2
积极合作 2
称其 2
称得起 2
称职 2
称谓 2
移开 2
程序开发 2
稍早 2
稍纵即逝 2
稍长 2
税为 2
税前 2
税单 2
税局 2
税能 2
稚@@ 2
稳稳地 2
稷 2
稽@@ 2
稿人 2
穆德 2
穆罕 2
穆雷 2
穴 2
究 2
穷兵黩武 2
穷凶极恶 2
穷孩子 2
穷尽 2
穷邦 2
空中客车公司 2
空仓 2
空余 2
空军@@ 2
空域 2
空巷 2
空想家 2
空手@@ 2
空洞@@ 2
空白@@ 2
空空 2
空空荡荡 2
空虚 2
空运 2
空难 2
空饷 2
突出@@ 2
突出表现 2
突击队 2
突然性 2
突破点 2
突飞猛进 2
窍不通 2
窑 2
窗 2
窗@@ 2
窘@@ 2
窝 2
窝藏 2
窟窿 2
窥视 2
立不安 2
立业 2
立为 2
立国 2
立足之地 2
立足于 2
立足点 2
立陶宛人 2
立马 2
站上 2
站住脚 2
站队 2
竞次 2
竞逐 2
竟@@ 2
章取义 2
竣工 2
童军 2
童子军 2
童话@@ 2
竭@@ 2
竭力反对 2
竹@@ 2
竹岛 2
竿而起 2
笑不得 2
笑了之 2
笑皆非 2
笔墨 2
笔记 2
笔记本 2
笛卡尔 2
符 2
符@@ 2
符合实际 2
笨手笨脚 2
第一件 2
第一层 2
第一幕 2
第一所 2
第一枪 2
第一站 2
第一部 2
第一首 2
第七@@ 2
第七条 2
第三层 2
第三轮 2
第九条 2
第九章 2
第二件 2
第二份 2
第二根 2
第二道 2
第二重 2
第二项 2
第五十 2
第五条 2
第八个 2
第六名 2
第六条 2
第十一 2
第十一章 2
第四项 2
笼统 2
等于零 2
等州 2
等等等等 2
等闲视之 2
筋 2
筑坝 2
筑底 2
筑起 2
答卷 2
答复 2
答应 2
策动 2
策略师 2
签字仪式 2
简 2
简明 2
简略 2
简称 2
简约 2
简陋 2
算上 2
算了 2
算什么 2
算得了 2
管局 2
管弦乐团 2
管得 2
管理学 2
管理工作 2
管理工具 2
管理所 2
管理状况 2
管理费用 2
篇一律 2
篝火 2
篡@@ 2
篮 2
簧 2
簿 2
米其林 2
米卡 2
米尔地区 2
米开朗基罗 2
米德 2
米洛@@ 2
米特里 2
类产品 2
类动物 2
类固醇 2
粉尘 2
粉饰太平 2
粗野 2
粘合 2
粘合剂 2
粘土 2
粘菌 2
粤港澳 2
粪@@ 2
粮@@ 2
粮仓 2
粮绝 2
粮食@@ 2
粮食计划署 2
精力@@ 2
精力充沛 2
精华 2
精品 2
精子 2
精干 2
精彩@@ 2
精打@@ 2
精灵 2
精确度 2
精神异常 2
精算 2
精辟 2
精锐部队 2
糊涂 2
糕 2
糖业 2
糖厂 2
糖果 2
糖类 2
糜烂 2
糟@@ 2
系结构 2
素来 2
素瘤 2
素食 2
素食主义者 2
索乌坦 2
索回 2
索尼 2
索洛维 2
索纳罗 2
索者 2
紧俏 2
紧密@@ 2
紧张状况 2
紧急事件 2
紧急会议 2
紧急状态法 2
紧急行动 2
紧牙关 2
紧绷 2
紧要关头 2
紧跟 2
紧身@@ 2
紧逼 2
紧锣密鼓 2
紧闭 2
紫@@ 2
紫外线 2
紫禁城 2
累托 2
累犯 2
累积到 2
累累 2
累范特 2
累赘 2
絮@@ 2
繁复 2
繁盛 2
繁育 2
繁荣@@ 2
纠 2
红军 2
红卫兵 2
红头文件 2
红火 2
红色@@ 2
纤细 2
约克 2
约合 2
约国 2
约性 2
约等于 2
约组织 2
约翰斯 2
级制 2
级数 2
纪念活动 2
纯洁性 2
纯理论 2
纱 2
纲@@ 2
纳人 2
纳吉 2
纳吉@@ 2
纳哥 2
纳塔@@ 2
纳塔尔省 2
纳夫 2
纳尔 2
纳恩 2
纳斯尔 2
纳斯鲁拉@@ 2
纳沙泰尔 2
纳瓦兹 2
纳税者 2
纳耶夫 2
纳迪 2
纵横@@ 2
纵深 2
纷繁 2
纷繁复杂 2
纷纷表示 2
纸媒 2
纸钞 2
纹@@ 2
纺织@@ 2
纺织工人 2
纽卡斯尔 2
纽埃 2
线下 2
线虫病 2
组合体 2
组装@@ 2
组长 2
细菌性 2
终归 2
终端用户 2
绍@@ 2
经传 2
经合 2
经商 2
经手 2
经文 2
经济作物 2
经济可行性 2
经济合作@@ 2
经济命脉 2
经济型 2
经济实用 2
经济组织 2
经济腾飞 2
经济落后 2
经纪 2
经纪人 2
经营@@ 2
经验主义 2
结下 2
结为 2
结余 2
结合体 2
结晶 2
结构主义 2
结社自由 2
结资产 2
绘 2
绘@@ 2
绘画 2
给予帮助 2
给人以 2
绝人寰 2
绝口不提 2
绝命 2
绝境 2
绝大 2
绝密 2
绝对性 2
绝种 2
绝育 2
绝食抗议 2
统 2
统制 2
统治权 2
统称 2
统计人员 2
统计分析 2
统计算法 2
继在 2
继往开来 2
继承法 2
继者 2
绰绰有余 2
维塞尔 2
维尔@@ 2
维尔纳 2
维护费用 2
维斯塔 2
维新 2
维权 2
维权网 2
维派 2
维纳斯 2
维诺格 2
绵 2
绵羊 2
绵软 2
综上所述 2
综合征 2
综指 2
综述 2
绽放 2
绿洲 2
缅因州 2
缅甸人 2
缅甸政府 2
缓冲区 2
缓冲器 2
缓步 2
缔@@ 2
缕 2
编 2
编入 2
编撰 2
编辑部 2
缘由 2
缠@@ 2
缠斗 2
缩减到 2
缩性 2
缩窄 2
缩紧 2
缴 2
缺一不可 2
缺勤 2
缺医少药 2
缺粮 2
罐@@ 2
罐子 2
网络工具 2
网络平台 2
网购 2
网速 2
罕 2
罕@@ 2
罕布什尔州 2
罕有 2
罕萨 2
罗伊斯 2
罗列 2
罗姆裔 2
罗宋汤 2
罗宾逊 2
罗州 2
罗廖夫 2
罗德 2
罗提 2
罗森若克 2
罗琳 2
罗盘 2
罗马@@ 2
罗马诺 2
罚@@ 2
罢@@ 2
罢休 2
罩@@ 2
罪刑 2
罪案 2
置疑 2
置诸脑后 2
署@@ 2
美军基地 2
美利坚 2
美制 2
美加 2
美古 2
美味 2
美国之音 2
美国军舰 2
美国宇航局 2
美国科学院 2
美国黑人 2
美好前景 2
美巴 2
美感 2
美援 2
美日关系 2
美沙 2
美资 2
美酒 2
美食 2
羞@@ 2
羞愧 2
羞耻感 2
群众中 2
群星 2
群氓 2
群起 2
群龙无首 2
羽翼未丰 2
翁 2
翅膀 2
翎 2
翔实 2
翘首 2
翘首企盼 2
翩 2
翩翩@@ 2
翰 2
翻云覆雨 2
翻地覆 2
翻开 2
翻脸 2
翻身 2
翻过 2
翼@@ 2
翼之下 2
老城 2
老婆 2
老实 2
老将 2
老幼 2
老把戏 2
老掉牙 2
老是 2
老虎 2
考文献 2
考特 2
考试成绩 2
考问题 2
而不@@ 2
而不为 2
而不群 2
而入 2
而净 2
而前 2
而埃 2
而外 2
而实不至 2
而建 2
而归 2
而据 2
而无@@ 2
而无一@@ 2
而治 2
而能 2
而莫迪 2
而西 2
而谷歌 2
而过 2
而长 2
而降 2
而马 2
而鸣 2
耍 2
耐力 2
耐受 2
耐德 2
耐烦 2
耗能 2
耳曼 2
耳目 2
耶夫斯基 2
耶河 2
耶稣会 2
耸 2
耸@@ 2
耻@@ 2
耻笑 2
耻辱感 2
耽@@ 2
耿 2
耿飚 2
职业@@ 2
职业妇女 2
职能部门 2
联合国安全理事会 2
联合国开发计划署 2
联合王国 2
联合阵线 2
联系@@ 2
联袂 2
联起 2
聚合 2
聚在一起 2
聚居 2
聚集一堂 2
聚集区 2
聪@@ 2
肃 2
肃然起敬 2
肆 2
肆@@ 2
肉奶 2
肉用 2
肉鸡 2
肌理 2
肖@@ 2
肖像 2
肝 2
肝@@ 2
肝炎 2
股利 2
股民 2
股票指数 2
肢解 2
肥@@ 2
肥力 2
肥皂 2
肥皂剧 2
肥私 2
肩 2
肯尼思 2
育出 2
育有 2
育龄 2
育龄妇女 2
肺病 2
肿 2
肿@@ 2
胀 2
胆大包天 2
胆小 2
胆小鬼 2
胆略 2
背信弃义 2
背叛者 2
背着 2
背诵 2
背锅 2
背靠 2
胎@@ 2
胖 2
胚胎学 2
胜国 2
胜数 2
胜选@@ 2
胡奥 2
胡子 2
胡志@@ 2
胡说 2
胸怀 2
胸部 2
胸顿足 2
能力差异 2
能及 2
能少 2
能教 2
能源经济 2
能算出 2
脂 2
脆弱不堪 2
脊 2
脊椎 2
脏 2
脏话 2
脏钱 2
脑力 2
脑后 2
脑子里 2
脑癌 2
脖子 2
脚本 2
脱不开 2
脱拜 2
脱水 2
脱瘾 2
脱离@@ 2
脱衣@@ 2
脱贫@@ 2
脱逃 2
脸谱 2
脸部 2
腐 2
腐化 2
腐败@@ 2
腔@@ 2
腥@@ 2
腰带 2
腰斩 2
腰缠万贯 2
腹 2
腹@@ 2
腺癌 2
腾@@ 2
膜拜 2
膝 2
膺 2
臂@@ 2
臆想 2
臆测 2
臣服 2
臣服于 2
自体 2
自作主张 2
自制 2
自动扶梯 2
自助@@ 2
自助式 2
自卫战争 2
自危 2
自取灭亡 2
自命@@ 2
自夸 2
自如 2
自学 2
自寻死路 2
自尊@@ 2
自小 2
自怨自艾 2
自我牺牲 2
自我认识 2
自找 2
自找麻烦 2
自担 2
自新 2
自杀身亡 2
自残 2
自治@@ 2
自灭 2
自然规律 2
自由女神 2
自由支配 2
自由权 2
自由邦 2
自立 2
自肥 2
自行解决 2
自认是 2
自证 2
自谋生路 2
自责 2
自闭症 2
自食其@@ 2
臭又长 2
至今已是 2
至大 2
至近 2
致信 2
致命伤 2
致密 2
致瘾 2
致癌 2
致癌物质 2
致罪 2
舌@@ 2
舌剑 2
舌头 2
舌尔 2
舍弃 2
舒适性 2
舔 2
舛 2
舟共济 2
航向 2
航路 2
航道 2
舰@@ 2
舵人 2
船运 2
良好开端 2
良策 2
艰巨性 2
艰苦卓绝 2
艰难困苦 2
艰难险阻 2
艾丽@@ 2
艾克 2
艾尔文 2
节余 2
节岛 2
节省@@ 2
节约能源 2
节节胜利 2
芒果 2
芥子气 2
芬党 2
芬在 2
芬奇 2
芬恩 2
芭蕾 2
花光 2
花卉 2
花名册 2
花旗 2
花销 2
芽 2
苍白 2
苏伊士运河 2
苏台德 2
苏尔坦 2
苏菲 2
苏西洛 2
苛求 2
苟延残喘 2
苟言笑 2
若干@@ 2
苦心经营 2
苦练 2
英伦 2
英勇斗争 2
英国公司 2
英国内政部 2
英国外交部 2
英国女王 2
英国广播公司 2
英国海军 2
英寸 2
英才 2
英美两国 2
英雄@@ 2
英雄形象 2
范本 2
茫然@@ 2
茫茫 2
茬 2
茶室 2
草草 2
草药 2
草除根 2
荒无人烟 2
荒诞不经 2
荒谬性 2
荒野 2
荣革命 2
荧幕 2
荫权 2
药企 2
药企@@ 2
药剂 2
药剂师 2
药学 2
药库 2
药用 2
药者 2
荷@@ 2
荷兰盾 2
莅临 2
莉@@ 2
莎@@ 2
莎侬 2
莫内 2
莫及 2
莫名 2
莫哈 2
莫奈 2
莫妮卡 2
莫尔 2
莫扎特 2
莫特 2
莫能外 2
莫角 2
莫迪凯 2
莫迪里 2
莫须有 2
莱利 2
莱多 2
莱尔 2
莱德 2
莱拉 2
获取信息 2
获救 2
获益者 2
获邀 2
莹 2
菌剂 2
菜农 2
菲克 2
菲利普斯 2
菲尔铁塔 2
菲派 2
萌发 2
营养元素 2
营级 2
萨利 2
萨尔@@ 2
萨岛 2
萨巴赫 2
萨拉姆 2
萨里 2
萨默 2
落下风 2
落伍 2
落地生根 2
落定 2
落实@@ 2
落得 2
落脚 2
落脚点 2
落马 2
著名@@ 2
著名人士 2
著效果 2
葡@@ 2
葡萄牙政府 2
葡萄糖 2
董@@ 2
葬身 2
蒂加 2
蒂姆 2
蒂米什瓦拉 2
蒙哥马利 2
蒙大@@ 2
蒙田 2
蒙赫 2
蒙难 2
蒸@@ 2
蓄势 2
蓄地 2
蓝点 2
蓝色 2
蓬 2
蔚@@ 2
蔚然成风 2
蔡@@ 2
蔡斯 2
蕴藏量 2
薛@@ 2
藕 2
藤@@ 2
蘑@@ 2
虐待狂 2
虚 2
虚作假 2
虚拟@@ 2
虚拟世界 2
虚拟性 2
虞 2
虫们 2
虫病 2
虾@@ 2
蚀 2
蚂蚁 2
蛋@@ 2
蛰伏 2
蛾 2
蜂@@ 2
蜗居 2
蜚@@ 2
蜜腹剑 2
蜿蜒 2
蝇 2
蝗虫 2
融和 2
融水 2
融洽 2
融资难 2
融进 2
蠕虫 2
蠢事 2
蠢蠢欲动 2
蠢货 2
蠵 2
血债累累 2
血小板 2
血汗 2
血流成河 2
血浆 2
血症 2
血管病 2
血糖 2
血缘 2
血肉@@ 2
血肉之躯 2
血腥味 2
血鬼 2
行业@@ 2
行为不端 2
行为学 2
行会谈 2
行其是 2
行动党 2
行善 2
行将崩溃 2
行尸走肉 2
行得通 2
行政官员 2
行期 2
行李 2
行渐 2
行端正 2
行话 2
行贿者 2
行逆施 2
行道 2
衔 2
衔接 2
衣服 2
衣着 2
衣裤 2
衣食住行 2
补仓 2
补偿性 2
补充剂 2
补充品 2
补全 2
补缺 2
补贴额 2
表层 2
表扬 2
表示遗憾 2
表里不一 2
表面温度 2
衫@@ 2
衬衣 2
衬衫 2
衮衮诸公 2
衰@@ 2
衰亡 2
衷心 2
衷心希望 2
袖而去 2
被俘 2
被保险人 2
被列 2
被弃 2
被扣 2
被提名者 2
被斥 2
被称作 2
被统治者 2
被调查者 2
袭扰 2
裁掉 2
裁缝 2
裂变物质 2
装机容量 2
装点 2
装版 2
装聋作哑 2
装进 2
装配 2
裙 2
裸泳 2
裸露 2
裹挟 2
褒@@ 2
襄樊 2
西凑 2
西北部 2
西南@@ 2
西塞罗 2
西孟加拉 2
西孟加拉邦 2
西安 2
西尼 2
西巴尔 2
西得 2
西德罗 2
西斯科 2
西柏林 2
西欧人 2
西欧各国 2
西沙群岛 2
西海岸 2
西澳大利亚 2
西班牙@@ 2
西红柿 2
西装 2
西西里岛 2
西部片 2
西里 2
要不了 2
要不然 2
要冲 2
要开 2
要性 2
要慢 2
要步 2
要矛盾 2
要远 2
要领 2
覆@@ 2
覆巢之下 2
覆盖@@ 2
见不得人 2
见多识广 2
见微知著 2
见长 2
观者 2
规约 2
规蹈矩 2
视其为 2
视化 2
视此 2
视着 2
视网膜 2
视若无睹 2
视频会议 2
觉察 2
角斗场 2
解决@@ 2
解剖 2
解开 2
解放后 2
解毒剂 2
解矛盾 2
解药 2
解释@@ 2
解除武装 2
触即发 2
触怒 2
触情绪 2
触手 2
言不惭 2
言之@@ 2
言之凿凿 2
言及 2
言外之意 2
言明 2
言行@@ 2
言表 2
言顺 2
詹森 2
誓@@ 2
警世 2
警世钟 2
警察@@ 2
警察局 2
警戒 2
警视厅 2
警车 2
譬如 2
计为 2
计划署 2
计算公式 2
计算出来 2
计算机病毒 2
计算机系统 2
计算机软件 2
讣告 2
认不@@ 2
认可度 2
认真@@ 2
认真反思 2
讥讽 2
讨生活 2
讨者 2
讨论@@ 2
让@@ 2
让持 2
训中心 2
议事 2
议会下院 2
记分卡 2
记取 2
记录@@ 2
记录下来 2
讲义 2
讲故事 2
讲话@@ 2
讳言 2
讷 2
许多@@ 2
许多种 2
许给 2
论理 2
讽喻 2
设@@ 2
设下 2
设厂 2
设性 2
设计@@ 2
设身处地 2
访印 2
访谈 2
访问期间 2
访问者 2
证伪 2
证券交易所 2
证券监管 2
证据@@ 2
证责任 2
评估所 2
评判者 2
评比 2
识之士 2
诈骗 2
诉讼法 2
诊室 2
词是 2
译 2
试水 2
试爆 2
试种 2
试者 2
试错 2
试验@@ 2
诗@@ 2
诗意 2
诘问 2
诙@@ 2
诚如 2
诚实可靠 2
诚恳 2
话术 2
话要说 2
诞生地 2
诞辰 2
诡异 2
诡秘 2
该局 2
该文 2
该校 2
该港 2
该省 2
该组 2
该邦 2
详细审查 2
诫 2
语句 2
语录 2
语言@@ 2
语言表达 2
误以为 2
误诊 2
说三道四 2
说了算 2
说些 2
说会 2
说准 2
说变 2
说得好 2
说教式 2
说是 2
请@@ 2
诸多困难 2
诸葛亮 2
诺伯特 2
诺姆 2
诺斯 2
诺曼 2
读书@@ 2
读完 2
读物 2
诽谤@@ 2
课以重税 2
调侃 2
调回 2
调情 2
调拨 2
调整@@ 2
调整计划 2
调查@@ 2
调用 2
调解员 2
调门 2
调降 2
调高 2
调高@@ 2
谆@@ 2
谈定 2
谈钱 2
谋取私利 2
谋士 2
谋杀@@ 2
谋私 2
谍报 2
谎@@ 2
谜团 2
谜底 2
谟 2
谢菲尔德 2
谢谢 2
谢里梅 2
谣@@ 2
谦虚谨慎 2
谱@@ 2
谷底 2
谷氨酸 2
豆 2
豆类 2
豆腐@@ 2
豚 2
象征@@ 2
象牙塔 2
豢养 2
豪华酒店 2
豪宅 2
豪言 2
豪言壮语 2
豹 2
貌@@ 2
贝克曼 2
贝内特 2
贝利 2
贝基 2
贝多芬 2
贝娅 2
贝尔@@ 2
贝尔萨 2
贝当 2
贝格尔 2
贝淡宁 2
贝索斯 2
贝胡 2
贝鲁斯科 2
负向 2
负盛名 2
负荷 2
负重 2
负面性 2
财务管理 2
财政管理 2
财源 2
财经@@ 2
责@@ 2
责任@@ 2
责成 2
贤@@ 2
败垂成 2
败笔 2
败给 2
败诉 2
账@@ 2
账本 2
账面 2
货商 2
货币@@ 2
货店 2
货物贸易 2
货运@@ 2
贩@@ 2
贩卖@@ 2
贪污受贿 2
贪污罪 2
贪腐 2
贫@@ 2
贫困化 2
贫困者 2
贫民区 2
贬为 2
购买@@ 2
购得 2
购车 2
贮@@ 2
贯 2
贯彻执行 2
贱 2
贴画 2
贵人 2
贷出 2
贷款额 2
贷款额度 2
贸易商 2
贸易往来 2
贸易组织 2
贸易部 2
费尔南多 2
费尽心机 2
费时 2
费时费力 2
费者 2
费赞 2
费迪南德 2
费钱 2
贺胥黎 2
贻害无穷 2
贼 2
贾布 2
贾布里 2
贾瓦 2
贾里 2
赃@@ 2
资本@@ 2
资本化 2
资本输出 2
资格@@ 2
资源共享 2
资金分配 2
资金外流 2
资金短缺 2
资金雄厚 2
赈济 2
赌徒 2
赔钱 2
赘言 2
赘述 2
赛义夫 2
赛斯 2
赛跑 2
赞@@ 2
赞叹 2
赞歌 2
赞许 2
赞颂 2
赠@@ 2
赡养 2
赤瓜礁 2
赤道几内亚 2
赦@@ 2
赫尔@@ 2
赫尔伯特 2
赫尔佐格 2
赫尔曼 2
赫斯 2
赫斯特 2
赫然 2
走上正轨 2
走时 2
走私@@ 2
走访 2
走遍 2
走钢丝 2
赴美 2
赶回到 2
赶快 2
赶赴 2
起义@@ 2
起之秀 2
起劲 2
起头 2
起平坐 2
起床 2
起手来 2
起炉灶 2
起直追 2
起该 2
起身 2
趁机 2
趁着 2
超大 2
超大型 2
超大规模 2
超支 2
超级市场 2
超级计算机 2
超群 2
超脱 2
超自然 2
超调 2
超量 2
超额利润 2
超额完成 2
越会 2
越共 2
越南共产党 2
越国 2
越多 2
越大越 2
越好 2
越弱 2
越晚 2
越来 2
越来越近 2
越界 2
越线 2
越轻 2
越远 2
趋于稳定 2
趋异 2
趋近 2
趣味 2
趣味性 2
足智多谋 2
足率 2
足珍贵 2
足球联赛 2
足足 2
跃跃欲试 2
跋扈 2
跌下 2
跌势 2
跛 2
跤 2
跨学科 2
跨欧 2
跪 2
路人 2
路器 2
路易十四 2
路易斯@@ 2
路易斯安@@ 2
路标 2
路灯 2
路程 2
路透社 2
跳如雷 2
跳楼价 2
跳跃式 2
跳车 2
跻身于 2
踌躇@@ 2
踏步 2
踩踏 2
踪 2
踪迹 2
蹄 2
蹑@@ 2
蹲过 2
身份@@ 2
身先士卒 2
身受 2
身家 2
身居高位 2
身手 2
身无分文 2
身材矮小 2
身段 2
躬屈膝 2
躯壳 2
躲躲藏藏 2
躲过 2
躲进 2
躺卧 2
车厢 2
车型 2
车子 2
车手 2
车程 2
轫 2
转不灵 2
转交 2
转入 2
转危为安 2
转变态度 2
转变立场 2
转售 2
转坏 2
转好 2
转手 2
转投 2
转接 2
转暖 2
转移性 2
转站 2
转负 2
转述 2
转门 2
轮机 2
轮椅 2
轮番 2
轮盘 2
轮社 2
软弱@@ 2
软脱 2
轰@@ 2
轰然 2
轶事 2
轻举妄动 2
轻孰重 2
轻心 2
轻松@@ 2
轻点 2
载入史册 2
载歌载舞 2
轿车 2
较佳 2
较强 2
较浅 2
较紧 2
较轻 2
较长时间 2
辅 2
辈@@ 2
辉 2
辉瑞 2
辑@@ 2
输数据 2
输气管 2
输气管道 2
输油 2
输油@@ 2
辖 2
辖@@ 2
辗转@@ 2
辛勤劳动 2
辛贾@@ 2
辜朝明 2
辜者 2
辞任 2
辞呈 2
辟 2
辨@@ 2
辨别@@ 2
辨认@@ 2
辨识 2
辩@@ 2
辩护律师 2
辱没 2
边幅 2
边干边学 2
边府 2
边沁 2
边疆 2
辽宁省 2
达成谅解 2
达旺 2
达标 2
达理 2
达瓦 2
达维 2
迁回 2
迁离 2
迂@@ 2
迂回 2
过上 2
过不去 2
过人之处 2
过份 2
过境迁 2
过夜 2
过大@@ 2
过大时 2
过望 2
过核 2
过河 2
过节 2
过长 2
迎刃而解 2
迎头赶上 2
迎接挑战 2
运到 2
运动会 2
运费 2
运输业 2
运输机 2
近三年 2
近东 2
近两年 2
近两年来 2
近亲 2
近代史 2
近似于 2
近几周来 2
近因 2
近日 2
近期内 2
近视 2
近郊 2
返现 2
返祖 2
还会@@ 2
还击 2
还原 2
还清 2
还魂 2
这一以 2
这下 2
这么一来 2
这些年来 2
这代 2
这几年来 2
这向 2
这四人 2
这头 2
这所 2
这条线 2
这栋 2
这段话 2
这绝 2
这艘 2
这趟 2
这辈子 2
进出口银行 2
进发 2
进度缓慢 2
进步人士 2
进步党 2
进退 2
进食 2
远东地区 2
远大@@ 2
远快 2
远播 2
远洋 2
远至 2
远镜 2
违法者 2
违纪 2
连为 2
连城 2
连夜 2
连接@@ 2
连结 2
连续剧 2
迦 2
迦南 2
迦罗人 2
迪亚兹 2
迪伦 2
迪南 2
迪尔@@ 2
迪尔玛 2
迪恩 2
迪斯 2
迪斯尼 2
迪沙 2
迪马 2
迫近 2
迭@@ 2
述@@ 2
述说 2
迷失方向 2
迷思 2
迷茫 2
迹未干 2
追 2
追回 2
追平 2
追悔莫及 2
追杀 2
追究责任 2
追随着 2
退位 2
退堂鼓 2
退居 2
退役 2
退税 2
退耕还林 2
退行性 2
退还 2
退避三舍 2
适 2
适应@@ 2
适时地 2
适用房 2
适龄@@ 2
逃不过 2
逃之夭夭 2
逃入 2
逃走 2
逃逸速度 2
逃难 2
逆境 2
逆戟鲸 2
选举@@ 2
选人 2
选他 2
选入 2
选前 2
选年 2
选权 2
选秀 2
透彻 2
透析 2
透视 2
逐个 2
逐步@@ 2
递进 2
逗 2
逗@@ 2
通例 2
通俗易懂 2
通信@@ 2
通婚 2
通敌 2
通电 2
通电话 2
通畅 2
通讯社 2
通路 2
通过@@ 2
通过培训 2
通过率 2
通量 2
逝去 2
速之客 2
造出 2
造岛 2
造林 2
造谣 2
逢时 2
逸@@ 2
逼利诱 2
逼真 2
逼进 2
逾@@ 2
逾越 2
遇见 2
遇阻 2
遇难者 2
遍@@ 2
遍布整个 2
道姓 2
道岔 2
道德哲学 2
道格拉斯 2
道路@@ 2
遗书 2
遗传信息 2
遗传学家 2
遗体 2
遗弃 2
遗策 2
遗骸 2
遣@@ 2
遣散 2
遣送回国 2
遥@@ 2
遮掩 2
遮盖 2
遴选出 2
避孕药 2
邓 2
邓小平理论 2
那句 2
那头 2
那州 2
那帮 2
那样@@ 2
那罗@@ 2
那该 2
邦达 2
邪@@ 2
邪恶势力 2
邪教 2
邪路 2
邮报 2
邱园 2
邵德 2
邻@@ 2
邻近地区 2
邻里 2
郁症 2
郑和 2
郑重 2
郑重@@ 2
部份 2
部副 2
部委 2
部长会议 2
部长职务 2
都远胜 2
配不上 2
配售 2
配套 2
配套@@ 2
配得 2
配方 2
配有 2
配给量 2
配送 2
酬 2
酯 2
酷 2
酷性 2
酸性 2
酸楚 2
酿 2
酿酒 2
醉心于 2
醉酒 2
醋 2
采摘 2
采暖 2
采油 2
采用率 2
采矿权 2
释 2
释@@ 2
里会 2
里斯河 2
里昂 2
里海 2
里程 2
里诺夫斯基 2
里雾里 2
重于 2
重击 2
重商 2
重大@@ 2
重大成果 2
重奏 2
重整旗鼓 2
重新整理 2
重新武装 2
重新认识 2
重新铸造 2
重武器 2
重水 2
重画 2
重磅 2
重税 2
重罪 2
重脚轻 2
重订 2
重质 2
重走 2
重造 2
重铸 2
野党 2
野外 2
野猪 2
量产 2
量入为出 2
量子力学 2
量子化 2
量对比 2
量身定做 2
金丝雀 2
金奈 2
金属@@ 2
金星 2
金沙萨 2
金融体制 2
金融学 2
金融贸易 2
金辰勇 2
金量 2
金银 2
鉴@@ 2
鉴别能力 2
针毡 2
钉住 2
钓鱼 2
钝 2
钝@@ 2
钢性 2
钢琴 2
钢铁企业 2
钢铁工业 2
钢铁工人 2
钢铁行业 2
钦定 2
钧一发 2
钩@@ 2
钮 2
钱太多 2
钻出来 2
钾肥 2
铁娘子 2
铁心 2
铁板一块 2
铁证如山 2
铁路工人 2
铁路线 2
铁路运输 2
铁道@@ 2
铁锈 2
铜矿 2
铝@@ 2
铭@@ 2
银行法 2
铺 2
铺垫 2
链中 2
销员 2
销售策略 2
销声匿迹 2
锋 2
锌 2
锏 2
锒铛入狱 2
错用 2
错误判断 2
错误认识 2
锡@@ 2
锡克 2
锡安 2
锤@@ 2
锤炼 2
锦@@ 2
锦标 2
键@@ 2
锯@@ 2
镇企业 2
镣铐 2
长三角 2
长且 2
长出 2
长征 2
长此以往 2
长河 2
长治久安 2
长篇累牍 2
长老会 2
长者 2
长计议 2
长距离 2
长路 2
长辈 2
长达@@ 2
长途@@ 2
门别类 2
门后 2
门员 2
门店 2
门庭 2
门心思 2
门户网站 2
门砖 2
门罗主义 2
门诊 2
闪光点 2
闪击 2
闪烁 2
闪现 2
闪电 2
闪电战 2
闭会 2
闭口不谈 2
闭塞 2
闭门谢客 2
问卷调查 2
闯 2
闲聊 2
间别墅 2
间歇期 2
间隙 2
闹@@ 2
闹事 2
闹翻 2
闻@@ 2
闻名遐@@ 2
阀割据 2
阁 2
阁楼 2
阅兵 2
阑珊 2
阔斧 2
阪 2
防卫性 2
防守 2
防御@@ 2
防御工事 2
防扩散 2
防止出现 2
防毒 2
阴险 2
阵 2
阵阵 2
阵风 2
阻塞 2
阿克顿 2
阿凡 2
阿利耶夫 2
阿塞拜疆人 2
阿姆赫斯 2
阿尔及利亚人 2
阿尔贝 2
阿尼 2
阿巴 2
阿布@@ 2
阿布革 2
阿拉 2
阿拉@@ 2
阿拉克 2
阿提@@ 2
阿杜德 2
阿根 2
阿桑@@ 2
阿牛 2
阿盟 2
阿纳 2
阿纳托@@ 2
阿美 2
阿莱@@ 2
阿萨 2
阿萨姆 2
阿谀@@ 2
阿贝迪 2
阿迪达斯 2
陀 2
陀@@ 2
附加费 2
附属国 2
附带条件 2
际@@ 2
际线 2
际遇 2
陆@@ 2
陆军@@ 2
陈云 2
陈本 2
陈词 2
降低标准 2
降时 2
降生 2
降税 2
降解 2
降雨量 2
限@@ 2
限内 2
限期 2
陡@@ 2
陡增 2
院制 2
院里 2
除万难 2
除以 2
除名 2
除罪 2
除草@@ 2
险境 2
险种 2
陷入重围 2
隆坡 2
随形 2
随意性 2
随机应变 2
随机性 2
随身携带 2
隐 2
隐现 2
隐退 2
隔热板 2
隔离区 2
隔离政策 2
障目 2
难产 2
难以使用 2
难以启齿 2
难以容忍 2
难以想像 2
难以达到 2
难以逾越 2
难保 2
难怪会 2
难料 2
难有 2
难民所 2
难民收容 2
难算 2
难缠 2
难解 2
雀@@ 2
雄伟 2
雄安 2
雄性 2
雄辩家 2
雅兹@@ 2
雅尔塔 2
雅鲁泽尔斯基 2
集中地 2
集体性 2
集团军 2
集大@@ 2
集市 2
集成 2
集成电路 2
集权国家 2
雇 2
雇人 2
雇佣兵 2
雇佣军 2
雌雄 2
雕刻 2
雕塑 2
雨季 2
雨点小 2
雪佛@@ 2
雪佛龙 2
雪山 2
零售额 2
零开始 2
零核 2
雷区 2
雷声大 2
雷德 2
雷格 2
雷欧 2
雷福斯 2
雷阵 2
雾状 2
需以 2
需时 2
需求@@ 2
霄@@ 2
霉 2
霍克 2
霍利 2
霍姆斯 2
霍尔@@ 2
霍普金斯大学 2
露出来 2
露出马脚 2
露天 2
露天矿 2
露端倪 2
露脸 2
露骨 2
霸@@ 2
霸权主义 2
霹雳 2
青人 2
青年报 2
青年时代 2
青年运动 2
青春 2
青桑珠 2
青海 2
非主流 2
非以 2
非农 2
非农业 2
非决定性 2
非同@@ 2
非同一般 2
非处方药 2
非实质 2
非对称 2
非常@@ 2
非常重视 2
非战斗 2
非政治化 2
非政治性 2
非机动车 2
非正常 2
非歧视 2
非洲@@ 2
非现金 2
非碳 2
非美 2
靠前 2
靠山 2
面上 2
面具 2
面包@@ 2
面向@@ 2
面善 2
面容 2
面对现实 2
面带@@ 2
面更广 2
面目全非 2
革@@ 2
革命党 2
革命制度党 2
革命政权 2
革履 2
靴@@ 2
靶 2
鞭@@ 2
鞭笞 2
韦斯特 2
韦里 2
音信@@ 2
音器 2
音带 2
韵 2
顶头上司 2
顷刻间 2
顺畅 2
顽@@ 2
顽固@@ 2
顽固性 2
顽症 2
顾全 2
顾问@@ 2
顿市 2
颁@@ 2
颁奖仪式 2
颁布@@ 2
预 2
预先确定 2
预审 2
预留 2
预算@@ 2
预见性 2
预览 2
预设 2
预防犯罪 2
领头人 2
领奖 2
领导集体 2
领悟 2
领跑者 2
颇感 2
颇有价值 2
颇费 2
频出 2
题目 2
颜 2
额外负担 2
颠@@ 2
风向标 2
风吹草动 2
风唤雨 2
风声鹤唳 2
风平浪静 2
风暴潮 2
风暴雨 2
风来 2
风水 2
风车 2
风靡 2
风马牛不相及 2
飘扬 2
飞利@@ 2
飞去 2
飞奔 2
飞翔 2
食人@@ 2
食利 2
食品药品 2
食物链 2
食用@@ 2
食用油 2
餐桌上 2
饥似渴 2
饥民 2
饮 2
饮养 2
饰 2
饰语 2
饱经 2
饲喂 2
饵料 2
饶 2
饶恕 2
饶有兴致 2
饼干 2
饿 2
馆@@ 2
馊主意 2
首份 2
首名 2
首席法官 2
首年 2
首当其冲者 2
首推 2
首歌 2
首鼠两端 2
香港@@ 2
香饽饽 2
马上会 2
马不停蹄 2
马丹 2
马什 2
马修 2
马克思主义者 2
马六甲海峡 2
马其顿人 2
马列主义 2
马尔维 2
马库斯 2
马德@@ 2
马德拉斯 2
马扎@@ 2
马拉@@ 2
马拉多纳 2
马拉松@@ 2
马斯@@ 2
马斯说 2
马来人 2
马格@@ 2
马沙 2
马甲 2
马科 2
马约尔 2
马脚 2
马行空 2
马贾利 2
马赛 2
马赛克 2
马赫迪 2
马路 2
马那瓜 2
马铃薯 2
马马虎虎 2
马龙派 2
驮 2
驱蚊剂 2
驴 2
驶上 2
驻日 2
驾护航 2
驾驶员 2
骄人成绩 2
骄傲@@ 2
骆家辉 2
骇@@ 2
骇人 2
验@@ 2
骑墙派 2
骑着 2
骗@@ 2
骗人 2
骗取 2
骗税 2
骤增 2
骨器 2
骨子里 2
骨灰盒 2
骨眼 2
骷@@ 2
骸 2
高且 2
高个 2
高中学生 2
高丽 2
高企时 2
高克@@ 2
高分辨率 2
高升 2
高压政策 2
高发@@ 2
高增值 2
高尔夫 2
高尔夫球 2
高层@@ 2
高层领导 2
高强度 2
高性能 2
高息 2
高技术 2
高棉人 2
高深莫测 2
高潮@@ 2
高特 2
高目标 2
高碳 2
高票 2
高等@@ 2
高等教育部 2
高精尖 2
高而 2
高见 2
高质 2
高近 2
高速@@ 2
高速路 2
高难度 2
高雅 2
鬃毛 2
魂 2
魔 2
魔法石 2
鱼业 2
鱼得水 2
鱼翅羹 2
鱼贯 2
鲁宾 2
鲁拉 2
鲁格 2
鲁比 2
鲁芬 2
鲁莽行事 2
鲍勃 2
鲍德温 2
鲜 2
鲜见 2
鲸船 2
鲼 2
鳐 2
鸟@@ 2
鸡尾酒 2
鸡棚 2
鸡犬@@ 2
鸣大放 2
鸦@@ 2
鸭@@ 2
鸭子 2
鹅@@ 2
鹰 2
麦克朗 2
麦克阿瑟 2
麦德林 2
麦片粥 2
麦瑟 2
麦肯锡公司 2
麻 2
麻痹 2
麻省理工 2
麻麻 2
黄严忠 2
黄牌 2
黎里 2
黏@@ 2
黑名单 2
黑塞 2
黑山共和国 2
黑工 2
黑幕 2
黑暗时代 2
黑暗面 2
黑板 2
黑森 2
黑田 2
黑箱 2
黑脚们 2
黑色@@ 2
黑色幽默 2
黑锅 2
黑非洲 2
默契 2
默尔 2
黛安娜 2
黯@@ 2
鼓 2
鼓声 2
鼠@@ 2
鼠目寸光 2
鼻子 2
齐全 2
齐划一 2
齐声 2
齐尔 2
齐聚一堂 2
齐齐 2
齿@@ 2
齿冷 2
齿轮 2
龄人 2
龙所 2
龟缩 2
０ 2
２ 2
201@@ 1
740 1
AL@@ 1
AT@@ 1
Air@@ 1
BM 1
CS 1
CS@@ 1
DA 1
Di@@ 1
EM@@ 1
FD@@ 1
Fac@@ 1
GA@@ 1
GE 1
HE 1
ISA 1
Joh@@ 1
LO 1
MH@@ 1
MW 1
NH@@ 1
NP@@ 1
ON 1
PDV@@ 1
PE 1
PS 1
REF 1
RT 1
SB@@ 1
SDS@@ 1
SM 1
SN@@ 1
SP@@ 1
Sar@@ 1
TAR@@ 1
Targ@@ 1
Tig@@ 1
Tw@@ 1
UG@@ 1
VC 1
WT@@ 1
Z 1
_ 1
agh@@ 1
alud 1
app 1
avi 1
be 1
ea@@ 1
enb@@ 1
erg 1
gel 1
hone 1
icddr 1
j 1
kill@@ 1
kozy 1
nb@@ 1
pol@@ 1
q 1
si 1
sk@@ 1
ski 1
ug@@ 1
yn@@ 1
Ö 1
ñ 1
ú 1
ē 1
ş 1
˚ 1
【 1
】 1
〔 1
〕 1
一二 1
一再@@ 1
一刀@@ 1
一去不复@@ 1
一变 1
一夜@@ 1
一大@@ 1
一夫@@ 1
一年@@ 1
一心@@ 1
一斑 1
一点@@ 1
一百万@@ 1
一盘@@ 1
一角 1
一读 1
一郎 1
一问 1
万贯 1
万难 1
三思@@ 1
上加@@ 1
上升@@ 1
上海@@ 1
下岗@@ 1
下水 1
不仁 1
不以为@@ 1
不值@@ 1
不值一@@ 1
不入 1
不利@@ 1
不厌@@ 1
不可耐 1
不大@@ 1
不屑@@ 1
不折不@@ 1
不提 1
不来 1
不治@@ 1
不疑 1
不着@@ 1
不知所@@ 1
不管@@ 1
不经 1
不绝 1
不觉 1
不计@@ 1
不难@@ 1
不顾@@ 1
丐 1
丑@@ 1
业税 1
丛@@ 1
两大@@ 1
两番 1
严峻@@ 1
丧气 1
丫@@ 1
中介@@ 1
中美@@ 1
串 1
丸 1
为一 1
为所@@ 1
为数@@ 1
为过 1
为重要 1
主人@@ 1
主妇 1
主宰@@ 1
主席@@ 1
主演 1
主管@@ 1
久经@@ 1
之不易 1
之众 1
之家 1
之急 1
之明 1
之若@@ 1
之门 1
乌克@@ 1
乌托@@ 1
乎@@ 1
乎其@@ 1
乎寻常 1
乏 1
乒@@ 1
乓 1
乖 1
了当 1
争取@@ 1
事事 1
事会 1
事关@@ 1
事实@@ 1
事者 1
事长 1
亘@@ 1
亚伯@@ 1
亚历@@ 1
亚洲@@ 1
些@@ 1
些年 1
亢@@ 1
交响@@ 1
交椅 1
亥@@ 1
产品安全 1
产税 1
产阶级 1
亩 1
亵@@ 1
人员@@ 1
人文@@ 1
人权@@ 1
人权法 1
人民代表大会 1
人民共和国 1
人道@@ 1
亿万@@ 1
仆 1
介 1
仔@@ 1
仔细@@ 1
他州 1
以此@@ 1
以色列@@ 1
价物 1
任人唯@@ 1
任职@@ 1
仿 1
企盼 1
伎 1
伏 1
伐 1
众所@@ 1
众生 1
伙@@ 1
会到 1
会越 1
伦堡 1
伦斯 1
估价 1
佃@@ 1
佐科@@ 1
佑@@ 1
佛 1
作恶@@ 1
佞@@ 1
例行@@ 1
依存@@ 1
侠 1
侠@@ 1
侨 1
侮 1
侮@@ 1
侵 1
俄亥@@ 1
俄克拉@@ 1
俄州 1
俊@@ 1
俑 1
信不疑 1
信仰@@ 1
信用@@ 1
俭 1
俭@@ 1
修斯 1
修订@@ 1
修课 1
俯首@@ 1
俳@@ 1
俺 1
俾@@ 1
借款@@ 1
倨@@ 1
倾 1
偕@@ 1
停火@@ 1
健 1
偿还@@ 1
催 1
僚@@ 1
僧 1
僻 1
僻@@ 1
儆@@ 1
元勋 1
兄会 1
兆@@ 1
先科 1
光纤@@ 1
光缆 1
克伦 1
克劳@@ 1
克森 1
克罗地@@ 1
免权 1
兑@@ 1
党制 1
兜 1
兜@@ 1
入籍 1
入量 1
公之@@ 1
公务@@ 1
公子 1
公平@@ 1
公正@@ 1
六世纪 1
兮 1
兮@@ 1
兰人 1
兰克 1
兰岛 1
共济 1
关联@@ 1
兴旺@@ 1
兴致 1
其害 1
其烦 1
其身 1
养老@@ 1
冀@@ 1
内政@@ 1
冈 1
册@@ 1
冒险@@ 1
冕@@ 1
农村@@ 1
冢 1
况@@ 1
冻 1
凌 1
凌驾@@ 1
减到 1
几内@@ 1
凡尔@@ 1
凤 1
凤@@ 1
凯 1
凰 1
凶 1
出一辙 1
出不@@ 1
出乎@@ 1
出生@@ 1
出资@@ 1
击手 1
击破 1
击者 1
函 1
分之二 1
分晓 1
划一 1
列宁@@ 1
则@@ 1
创新@@ 1
创造@@ 1
初级@@ 1
刨@@ 1
利诱 1
刮@@ 1
制药@@ 1
刷 1
券@@ 1
刽@@ 1
剁 1
前沿@@ 1
前茅 1
劈@@ 1
力于 1
办事@@ 1
功利@@ 1
加利福@@ 1
加瓦 1
加速@@ 1
动产 1
动荡@@ 1
助于 1
助者 1
努力@@ 1
努特 1
励 1
励@@ 1
勇 1
勋@@ 1
募 1
募@@ 1
勤 1
勺 1
匈 1
匍@@ 1
匐 1
匕@@ 1
化为@@ 1
化工@@ 1
化成 1
北美洲 1
匠 1
匣 1
匣@@ 1
匿 1
十七@@ 1
半壁@@ 1
半球 1
半身@@ 1
协力 1
南德 1
南美@@ 1
占地 1
占领@@ 1
卡斯@@ 1
卡罗@@ 1
卡罗来@@ 1
卢斯 1
卤 1
卦 1
印钞@@ 1
危急@@ 1
危险@@ 1
卸 1
厂家 1
历者 1
压倒@@ 1
厕@@ 1
厘 1
原子能@@ 1
原教@@ 1
厢@@ 1
厨 1
厩 1
县@@ 1
参谋@@ 1
反其@@ 1
反射@@ 1
反间谍 1
发人@@ 1
发制人 1
发布@@ 1
发式 1
发现@@ 1
发育@@ 1
发起@@ 1
叔 1
取豪夺 1
变幻@@ 1
变越 1
叛乱@@ 1
古人 1
召 1
可口@@ 1
可用@@ 1
可行@@ 1
可行之道 1
史蒂@@ 1
叵@@ 1
号码 1
吁 1
各种@@ 1
合剂 1
合法@@ 1
吉尔吉@@ 1
吉拉@@ 1
吊 1
同仁 1
同日而语 1
同步@@ 1
同盟国 1
名状 1
后果@@ 1
吏 1
向型 1
君 1
君主@@ 1
吝@@ 1
吩@@ 1
含糊@@ 1
听闻 1
吭@@ 1
启 1
启发@@ 1
吵 1
吸引@@ 1
告人 1
呕@@ 1
呗 1
员公署 1
周知 1
周边@@ 1
呵@@ 1
呻@@ 1
呼之欲出 1
咋舌 1
和平奖 1
和谐@@ 1
咐 1
咙@@ 1
咧@@ 1
咨文 1
咯@@ 1
咽 1
品牌@@ 1
哈姆@@ 1
哈斯 1
哈肖@@ 1
哈顿 1
哑@@ 1
哗 1
哥伦比亚@@ 1
哨 1
哭 1
哮 1
哲@@ 1
哺@@ 1
哺乳@@ 1
唁 1
唆@@ 1
唐 1
唐吉@@ 1
唤@@ 1
啃 1
啄@@ 1
啉 1
啜@@ 1
啤@@ 1
啥 1
啬@@ 1
啰 1
啷 1
喀 1
喂 1
喂@@ 1
喂养 1
喇嘛 1
喋@@ 1
喔 1
喜剧@@ 1
喧@@ 1
喷 1
喹 1
喹@@ 1
喻 1
喽@@ 1
嗅 1
嗅@@ 1
嗓@@ 1
嗝 1
嗟@@ 1
嘱@@ 1
嘶@@ 1
噤@@ 1
噩 1
噩@@ 1
噶 1
嚎 1
嚎@@ 1
嚷@@ 1
囚 1
四伏 1
四面@@ 1
回头@@ 1
囹圄 1
国情@@ 1
国政府 1
土耳@@ 1
在一起 1
在心 1
在旦夕 1
地质@@ 1
地马拉 1
场上 1
坎南 1
坐视@@ 1
坑@@ 1
坚不可摧 1
坛@@ 1
坞 1
坦白@@ 1
垠 1
垢 1
垣 1
垫@@ 1
埃尔文 1
堑 1
堑@@ 1
塔尼亚 1
塞内@@ 1
境@@ 1
墉@@ 1
増 1
增值@@ 1
增长@@ 1
墨西@@ 1
墩 1
壑 1
壤 1
士卒 1
声名@@ 1
复兴@@ 1
复国 1
外线 1
外部@@ 1
夙@@ 1
多巴@@ 1
多月 1
多瓦 1
多谋 1
多边@@ 1
夥 1
大于@@ 1
大于利 1
大体@@ 1
大包@@ 1
大同@@ 1
大型@@ 1
大患 1
大惊@@ 1
大放 1
大放@@ 1
大权@@ 1
大洋@@ 1
大男子主义 1
大白 1
大相@@ 1
大都@@ 1
天主@@ 1
天主教堂 1
天安门@@ 1
天鹅@@ 1
太子@@ 1
夫斯 1
夭 1
央@@ 1
失措 1
失色 1
头脑@@ 1
夷@@ 1
奋 1
奋战 1
奎 1
奕 1
奠@@ 1
奥塞梯 1
奥多 1
奥委会 1
奥萨@@ 1
奴@@ 1
奴隶@@ 1
她@@ 1
妄为 1
妓 1
妖@@ 1
妥@@ 1
妨@@ 1
姆斯 1
始至终 1
姐 1
姓 1
姗 1
姗@@ 1
姨 1
姻@@ 1
姿 1
威士@@ 1
威尔@@ 1
威廉@@ 1
威斯康星州 1
娇@@ 1
娈@@ 1
娘 1
娘@@ 1
娜@@ 1
娱@@ 1
娶 1
娶@@ 1
娿 1
婆 1
婆@@ 1
婴@@ 1
婶 1
婶@@ 1
媒@@ 1
媚 1
媳@@ 1
嫁 1
嫉@@ 1
嫌@@ 1
嬴 1
子气 1
孚 1
孚@@ 1
孝@@ 1
孟 1
孤军@@ 1
学前@@ 1
孳@@ 1
孵@@ 1
孺@@ 1
安东@@ 1
安吉@@ 1
安哥@@ 1
安局 1
安然无@@ 1
宋 1
宏 1
宏伟@@ 1
宕@@ 1
宗派@@ 1
官僚@@ 1
定时@@ 1
实处 1
实弹 1
实际@@ 1
宣 1
宰 1
害性 1
家长@@ 1
宽带@@ 1
宾夕法@@ 1
宿 1
寄生@@ 1
密尔顿 1
富有@@ 1
寞 1
寡 1
寥寥@@ 1
寮 1
对性 1
对抗@@ 1
对话@@ 1
导火@@ 1
封建@@ 1
射@@ 1
射出 1
尉 1
尊重@@ 1
小小 1
小康@@ 1
尔克 1
尔坦 1
尔斯@@ 1
尔西 1
尔顿 1
尖锐@@ 1
尤利@@ 1
就绪 1
尺@@ 1
尼亚人 1
尼加 1
尼尔斯 1
尼拉 1
尼泊尔@@ 1
尼派 1
尼罗@@ 1
尼诺 1
尽其用 1
尽心@@ 1
尽所能 1
尽量@@ 1
尾气 1
屁 1
居民@@ 1
屈 1
屏 1
屐 1
屠 1
屠@@ 1
屹@@ 1
岁@@ 1
岂@@ 1
岑 1
岩 1
岳 1
峋 1
峰期 1
峻 1
崔 1
崔@@ 1
崭@@ 1
崴 1
嵌 1
嵌@@ 1
嶙@@ 1
巅@@ 1
巍@@ 1
川 1
巡 1
巢@@ 1
工具@@ 1
工厂@@ 1
工学院 1
工薪@@ 1
巫@@ 1
已有之 1
巴勒@@ 1
巴巴 1
巴萨 1
巴西@@ 1
巴达 1
巷@@ 1
巾@@ 1
布哈@@ 1
布尔@@ 1
布斯 1
布林 1
帑 1
帕克@@ 1
帕哈雷斯 1
帖@@ 1
帘@@ 1
帜 1
帜@@ 1
帝 1
帝@@ 1
带头@@ 1
帷@@ 1
常现象 1
帼@@ 1
幄 1
幅@@ 1
幕后@@ 1
平衡@@ 1
并肩@@ 1
并进 1
幸运@@ 1
广东@@ 1
广泛@@ 1
庇@@ 1
庐@@ 1
底里 1
庙@@ 1
府@@ 1
庶@@ 1
廊 1
廓 1
廖@@ 1
廷顿 1
建国@@ 1
弄巧@@ 1
弓 1
弘@@ 1
弛 1
弛@@ 1
弟 1
弥 1
弦 1
彗 1
彗@@ 1
彰 1
彼得堡 1
待毙 1
徇@@ 1
很难@@ 1
律 1
得其@@ 1
御 1
徳 1
德意志@@ 1
德林 1
德里@@ 1
德黑@@ 1
徽 1
心于 1
心怀@@ 1
心脏@@ 1
心自问 1
忖@@ 1
忧 1
快餐@@ 1
忽 1
忿 1
怀特 1
怂 1
怎 1
怖 1
怙@@ 1
怜@@ 1
急转@@ 1
怯 1
总协定 1
总局 1
怼 1
恍@@ 1
恐惧@@ 1
恣@@ 1
恤 1
恪@@ 1
恭 1
恳@@ 1
恶意@@ 1
恶感 1
恸 1
悄悄@@ 1
悉 1
悉@@ 1
悍 1
悍@@ 1
悚 1
悛 1
悟@@ 1
悦 1
悯@@ 1
惑 1
惑不解 1
惕 1
惕@@ 1
惧@@ 1
惨遭@@ 1
惬@@ 1
惭@@ 1
想不到 1
想家 1
惴 1
惶 1
惺 1
惺@@ 1
意味@@ 1
意大利@@ 1
意妄为 1
意性 1
意料@@ 1
意识@@ 1
意赅 1
愚 1
感染@@ 1
感觉@@ 1
愠@@ 1
慈 1
慕 1
慢性@@ 1
慧 1
慨 1
慰 1
慵@@ 1
憾 1
憾@@ 1
懈@@ 1
懒 1
懦@@ 1
懵 1
戍@@ 1
成灾 1
截 1
戮 1
戳 1
戳@@ 1
所料 1
所未@@ 1
扇@@ 1
扉 1
手可@@ 1
手术@@ 1
才智 1
扒@@ 1
打成@@ 1
打折扣 1
扛@@ 1
执 1
扫 1
扳 1
批评@@ 1
扼 1
扼@@ 1
找麻烦 1
承受@@ 1
承担@@ 1
抄 1
抑@@ 1
抖 1
抗日@@ 1
折不@@ 1
抡 1
护人 1
护航 1
抵抗@@ 1
抵押@@ 1
担 1
拆 1
拈@@ 1
拉姆@@ 1
拉尼 1
拉斯@@ 1
拉格 1
拉纳 1
拌@@ 1
拎 1
拒不@@ 1
拓 1
拗@@ 1
拘 1
拙 1
拢@@ 1
拣 1
拦 1
拧 1
择@@ 1
括@@ 1
拯@@ 1
拱手@@ 1
拷 1
拽 1
拾 1
指手@@ 1
挈@@ 1
挑剔 1
挚@@ 1
挞 1
挟 1
挟@@ 1
挡@@ 1
挥 1
挥霍@@ 1
振奋@@ 1
挽 1
捐 1
捭@@ 1
捷克@@ 1
捷夫 1
捺@@ 1
授 1
排名@@ 1
排放@@ 1
掷@@ 1
掺 1
揄 1
揉@@ 1
揍 1
提前@@ 1
提条件 1
提款@@ 1
揠@@ 1
揣 1
揩 1
揶@@ 1
揽@@ 1
搀 1
搁 1
搅 1
搏 1
搓 1
搓@@ 1
搔@@ 1
搜 1
搜索@@ 1
搪@@ 1
搭桥 1
摄 1
摆在@@ 1
摇摇@@ 1
摊 1
摔 1
摘 1
撇@@ 1
撤 1
撩@@ 1
撬@@ 1
撮 1
撼@@ 1
擎 1
擎@@ 1
擒 1
擘 1
擦 1
攀 1
攘 1
攘@@ 1
攥 1
支付@@ 1
收支@@ 1
改弦@@ 1
改革@@ 1
攻击@@ 1
放任@@ 1
放在@@ 1
政府@@ 1
故事@@ 1
敉@@ 1
敏感@@ 1
救命@@ 1
敖@@ 1
教条@@ 1
教科文组织 1
敛 1
敝 1
敞 1
文主义 1
文斯 1
斐@@ 1
斟@@ 1
斤 1
斥@@ 1
斧@@ 1
断力 1
斯克 1
斯加 1
斯图@@ 1
斯堡 1
斯堪@@ 1
斯大@@ 1
斯宾@@ 1
斯文@@ 1
斯曼 1
斯洛文@@ 1
斯特拉@@ 1
斯瓦@@ 1
斯科 1
斯里兰@@ 1
新几内亚 1
新泽@@ 1
新西@@ 1
方人 1
旅行@@ 1
旗鼓 1
无关@@ 1
无影@@ 1
无意@@ 1
无损 1
无故 1
无期 1
无睹 1
无穷@@ 1
无能@@ 1
无阻 1
既往 1
日俱@@ 1
日趋@@ 1
旨@@ 1
旬 1
旭 1
旷 1
旺 1
明了 1
明州 1
明显@@ 1
易懂 1
昭 1
昵@@ 1
昼 1
晒 1
晓 1
晓@@ 1
晕 1
晕@@ 1
晨 1
晨@@ 1
普兰 1
普查 1
普罗@@ 1
晶 1
晶@@ 1
智力@@ 1
晾@@ 1
暂 1
暄 1
暑 1
暗示@@ 1
曝 1
曳 1
曹 1
最小@@ 1
有利@@ 1
有制 1
有期 1
有线@@ 1
朋 1
期徒刑 1
未决 1
未干 1
未知@@ 1
末路 1
本世纪@@ 1
本地@@ 1
札@@ 1
术@@ 1
朴槿@@ 1
机会@@ 1
权威@@ 1
杉 1
李嘉@@ 1
杠 1
来了 1
来者 1
杨@@ 1
杵@@ 1
极大@@ 1
构 1
枉 1
析 1
析@@ 1
柏 1
柏@@ 1
某种@@ 1
染@@ 1
柔 1
柜 1
柠@@ 1
柬埔寨@@ 1
柯 1
柱@@ 1
柳 1
标准@@ 1
栉@@ 1
栏@@ 1
栓 1
栓@@ 1
栖@@ 1
栗 1
核不@@ 1
格达 1
格鲁吉@@ 1
格鲁吉亚人 1
栽 1
栽@@ 1
桀骜@@ 1
桂@@ 1
桃 1
桃@@ 1
桌上 1
桔@@ 1
档@@ 1
桦@@ 1
桨 1
桶@@ 1
梁@@ 1
梅内@@ 1
梗@@ 1
梭@@ 1
械 1
梳@@ 1
梵 1
检察@@ 1
棍 1
棕 1
棘 1
棘@@ 1
棚@@ 1
森堡 1
森州 1
棱@@ 1
棺 1
椎@@ 1
椟@@ 1
椰@@ 1
楔@@ 1
楚 1
楚@@ 1
楞@@ 1
榄 1
榨 1
榨@@ 1
榭@@ 1
榻 1
樊@@ 1
橄@@ 1
橙@@ 1
橡@@ 1
橡皮@@ 1
檬@@ 1
欧共@@ 1
欧国家 1
欧美@@ 1
欺 1
欺骗@@ 1
歉 1
止境 1
正当@@ 1
正教 1
正规@@ 1
正错误 1
步兵 1
步履@@ 1
步步@@ 1
歼 1
歼@@ 1
殃@@ 1
殇 1
残杀 1
殖@@ 1
段@@ 1
殿 1
毁灭@@ 1
每加@@ 1
毒者 1
比为 1
比利@@ 1
比萨饼 1
毕业@@ 1
毫 1
毫发无损 1
毯 1
民主共和国 1
民党 1
民变 1
民意@@ 1
民族@@ 1
民族融合 1
民族解放 1
民法 1
民用航空 1
民间@@ 1
气味 1
气象学家 1
氧@@ 1
氧化@@ 1
氨@@ 1
氰 1
氰@@ 1
永 1
汁 1
求知 1
汇率@@ 1
汐@@ 1
汝@@ 1
江河@@ 1
汪@@ 1
汰 1
汽 1
汽@@ 1
沉默@@ 1
沌 1
沐@@ 1
沙场 1
沙尔 1
沙滩 1
沛 1
沥@@ 1
沪 1
沪@@ 1
沫 1
沸腾 1
油国 1
沼@@ 1
沽@@ 1
泄密者 1
泊 1
泊@@ 1
法兰西@@ 1
法国巴黎 1
法拉@@ 1
法特 1
法西@@ 1
法院@@ 1
法院系统 1
法鲁@@ 1
泞 1
波利@@ 1
波斯湾地区 1
泣 1
泥土 1
注册@@ 1
注射@@ 1
泪 1
泪@@ 1
泰党 1
泰晤@@ 1
泰晤士@@ 1
泰米尔@@ 1
泳@@ 1
泵@@ 1
洁@@ 1
洁性 1
洒@@ 1
洛杉@@ 1
洛林 1
洞@@ 1
洞察@@ 1
洪 1
洪涝 1
洲@@ 1
活率 1
流亡@@ 1
浆@@ 1
浊 1
浑身上下 1
浓 1
浓郁 1
浙@@ 1
浩@@ 1
浴@@ 1
海关@@ 1
海基 1
海外@@ 1
海岭 1
海市@@ 1
海湖 1
海盗@@ 1
浸淫 1
涂 1
消失掉 1
消极@@ 1
消费额 1
涉案 1
涕 1
涛 1
涝 1
涝@@ 1
涡 1
涡@@ 1
涤 1
涤@@ 1
润 1
涮 1
涵@@ 1
淀 1
淋 1
淌 1
淑@@ 1
淘@@ 1
淮 1
深刻@@ 1
深受@@ 1
深地 1
深有@@ 1
淳 1
淳@@ 1
混凝@@ 1
混在 1
淹 1
清晰@@ 1
清清楚楚 1
渊 1
渊@@ 1
渎 1
渔业@@ 1
渗@@ 1
渝 1
渠@@ 1
游乐@@ 1
游击@@ 1
游子 1
渺 1
湍@@ 1
湎 1
湮@@ 1
湾@@ 1
源代码 1
源地 1
源源@@ 1
溘@@ 1
溜 1
溪 1
溪@@ 1
溶 1
溺@@ 1
滋@@ 1
滓 1
滔@@ 1
滔滔@@ 1
滕 1
滞@@ 1
满意@@ 1
满满@@ 1
满负荷 1
滴流 1
漠 1
漫画书 1
漫画家 1
潜 1
潜在@@ 1
潜规则 1
潦@@ 1
澄@@ 1
澜@@ 1
澳大@@ 1
激动@@ 1
激进党 1
瀚 1
火山 1
火药@@ 1
灵通 1
灶 1
灼 1
灾害性 1
炊@@ 1
炒 1
炫 1
炫目 1
炬 1
炸机 1
点火 1
点缀 1
点钟 1
炽@@ 1
烁@@ 1
烙 1
烛 1
烟工业 1
烤@@ 1
热切@@ 1
热化 1
热带@@ 1
热电 1
烷@@ 1
烹@@ 1
焕@@ 1
焖 1
焖@@ 1
焦虑@@ 1
然大@@ 1
然如此 1
然接受 1
然无@@ 1
然的话 1
煌@@ 1
煎@@ 1
煞 1
煤炭@@ 1
照亮 1
照旧 1
煽@@ 1
熄@@ 1
熙熙攘攘 1
熟练@@ 1
熟练工 1
熨@@ 1
熬 1
熬@@ 1
燕 1
燥 1
燥@@ 1
爪 1
爱尔兰@@ 1
爱德@@ 1
爱荷@@ 1
爵@@ 1
爸 1
牙舞爪 1
牛角 1
牡@@ 1
物价@@ 1
物力 1
牲 1
牵线@@ 1
特兰@@ 1
特制 1
特加 1
特勒 1
特拉@@ 1
特权@@ 1
特立@@ 1
特费林 1
特雷@@ 1
特鲁@@ 1
牺牲@@ 1
犀利 1
犁@@ 1
犊@@ 1
犒@@ 1
犬 1
犬@@ 1
状病毒 1
犷 1
犹太@@ 1
犹未@@ 1
狂澜 1
狍@@ 1
狞 1
狠@@ 1
狡@@ 1
狡猾@@ 1
独立@@ 1
独行 1
狭@@ 1
狮@@ 1
狼 1
猛兽 1
猝@@ 1
猥@@ 1
猫@@ 1
猴@@ 1
猿@@ 1
玛丽@@ 1
玛德@@ 1
环保@@ 1
环保总局 1
环球@@ 1
现代主义 1
现出 1
现金@@ 1
现金交易 1
玲@@ 1
玻@@ 1
玻璃 1
珊 1
珊@@ 1
珍珠@@ 1
珍藏 1
珑 1
球@@ 1
球菌 1
琅 1
理性分析 1
理论化 1
琉@@ 1
琐 1
琢@@ 1
琴家 1
琼 1
瑕@@ 1
瑙@@ 1
瑚 1
瑜 1
瑟夫 1
瑰@@ 1
瓜@@ 1
瓢 1
瓢@@ 1
瓦蒂 1
瓷@@ 1
甚明 1
甜 1
生产流程 1
生俱@@ 1
生性 1
生意@@ 1
生机@@ 1
生死@@ 1
生活习惯 1
生物武器 1
生物质 1
生生 1
生而@@ 1
生而平等 1
生育@@ 1
甥 1
甥@@ 1
用公款 1
由此@@ 1
由此可知 1
电力@@ 1
电工 1
电池@@ 1
电脑系统 1
电量 1
男癌 1
甸@@ 1
画葫芦 1
畅销@@ 1
留驻 1
畜@@ 1
番话 1
疗@@ 1
疙@@ 1
疟@@ 1
疡 1
疫 1
疮 1
疮痍 1
疱 1
疱@@ 1
疲@@ 1
疲倦 1
疲力尽 1
疵 1
疼@@ 1
疾 1
痂 1
病学 1
病毒@@ 1
病理 1
痉挛 1
痊@@ 1
痒@@ 1
痘@@ 1
痛不@@ 1
痛诉 1
痞@@ 1
痰 1
瘁 1
瘤@@ 1
瘩 1
瘪 1
瘫 1
瘸 1
白质 1
百万计 1
百年纪念 1
百日咳 1
百花齐放 1
百货@@ 1
的是 1
皆@@ 1
皆准 1
皑 1
皑@@ 1
皮癣 1
皮肤@@ 1
皱 1
皿 1
盆@@ 1
盆大雨 1
盈@@ 1
监测@@ 1
监测站 1
监督@@ 1
监管@@ 1
盔@@ 1
盗 1
盟@@ 1
盯@@ 1
直前 1
直奔 1
直播 1
相互交织 1
相威胁 1
相对@@ 1
相报 1
相望 1
相让 1
盼 1
盾@@ 1
省@@ 1
眈 1
眈@@ 1
看台 1
看吧 1
看得@@ 1
真人 1
真假 1
真如 1
真心@@ 1
真格 1
真理@@ 1
眠@@ 1
眷 1
眺 1
睐 1
睐@@ 1
睛 1
督 1
睦@@ 1
睬 1
睹 1
睹@@ 1
睽 1
睽@@ 1
瞒@@ 1
瞟@@ 1
瞥 1
瞥@@ 1
瞧@@ 1
瞻 1
瞻@@ 1
矗@@ 1
矛 1
矛@@ 1
矛盾@@ 1
矜@@ 1
矢@@ 1
矣 1
矫@@ 1
短程 1
矮 1
矮@@ 1
矮小 1
石破天惊 1
矶@@ 1
矿@@ 1
砂@@ 1
砌 1
砌@@ 1
砖@@ 1
砭 1
破产@@ 1
破土@@ 1
砷@@ 1
硅@@ 1
硕 1
硕@@ 1
硕果@@ 1
硝@@ 1
硫@@ 1
碑@@ 1
碘@@ 1
碟 1
碧@@ 1
碾@@ 1
磁体 1
磁铁 1
磨灭 1
磷 1
磷@@ 1
礁@@ 1
示威@@ 1
示意 1
祇 1
祝@@ 1
神入化 1
神经纤维 1
神论 1
神贯注 1
祟@@ 1
祠 1
禀 1
禄 1
禄@@ 1
禅@@ 1
福利@@ 1
福斯 1
福格 1
禧 1
禧@@ 1
私家车 1
私有@@ 1
秃 1
秃@@ 1
秋色 1
种植@@ 1
科普特 1
科氏 1
科罗拉@@ 1
科隆 1
秒@@ 1
秘@@ 1
租户 1
租房 1
租车 1
秣@@ 1
秤 1
秸@@ 1
移动@@ 1
秽@@ 1
稀 1
稅@@ 1
程@@ 1
稍后 1
税收@@ 1
稳步@@ 1
稻 1
稽 1
穆斯@@ 1
穆罕@@ 1
穴@@ 1
究@@ 1
穷得 1
穹@@ 1
空气@@ 1
空荡荡 1
穿衣服 1
突击@@ 1
突发@@ 1
突破@@ 1
窃国 1
窄@@ 1
立大学 1
立方@@ 1
立法@@ 1
立面 1
竖@@ 1
站不@@ 1
竞@@ 1
竞技@@ 1
章@@ 1
童话 1
端@@ 1
端坐 1
端正 1
竽@@ 1
笃@@ 1
笔钱 1
笛 1
笨 1
笨蛋 1
笫 1
第一口 1
第一颗 1
第二任 1
第二场 1
第六@@ 1
等离子体 1
等级森严 1
等身 1
筋@@ 1
筑@@ 1
筑墙 1
筝 1
筱@@ 1
筷 1
筷@@ 1
签字@@ 1
签约 1
简单@@ 1
算账 1
管弦@@ 1
篇@@ 1
篇章 1
篑 1
篱@@ 1
籁 1
米尔@@ 1
籽 1
粒@@ 1
粗鄙 1
粟 1
粟@@ 1
粤@@ 1
粥 1
粪 1
粱@@ 1
粹 1
精心@@ 1
精算师 1
糊@@ 1
糕@@ 1
糙 1
糜 1
糜@@ 1
素福 1
索尔@@ 1
索尼@@ 1
索斯 1
索邦 1
紧张@@ 1
紧急@@ 1
紧握 1
累牍 1
繁杂 1
纂 1
约尔 1
纪@@ 1
纫 1
纫@@ 1
纰@@ 1
纱@@ 1
纳州 1
纳布@@ 1
纳德 1
纳托@@ 1
纳米@@ 1
纳罗 1
纵火@@ 1
纷@@ 1
纸上@@ 1
纸牌 1
纺 1
纽 1
练@@ 1
细则 1
织 1
终局 1
终日 1
终端@@ 1
绊 1
绊@@ 1
绌 1
绍 1
绎@@ 1
经久不@@ 1
经济学奖 1
绒 1
结了婚 1
结婚@@ 1
结构@@ 1
结核@@ 1
结识 1
绕@@ 1
绕着 1
绚@@ 1
绝对@@ 1
绝食 1
绣 1
绣@@ 1
绥@@ 1
继续@@ 1
绪 1
续 1
续@@ 1
绰 1
绳上 1
维吾@@ 1
维吾尔@@ 1
维基@@ 1
维护@@ 1
维茨 1
绵@@ 1
绵延 1
绷@@ 1
综@@ 1
综合@@ 1
绿 1
缄@@ 1
缆 1
编辑@@ 1
缝 1
缮 1
罅@@ 1
罗万象 1
罗伯@@ 1
罗哈斯 1
罗尔 1
罗森@@ 1
罗蒙诺索 1
罢 1
置换 1
美国国家@@ 1
美国移民 1
美国空军 1
美土 1
美洲@@ 1
美洲开发银行 1
羔@@ 1
羞 1
羡 1
群众@@ 1
群情@@ 1
羸@@ 1
羹@@ 1
羽翼@@ 1
翁@@ 1
翅@@ 1
翘首@@ 1
翩@@ 1
老资格 1
考古@@ 1
考虑@@ 1
考试@@ 1
者之间 1
而仿 1
而去 1
而止 1
而谈 1
耳不闻 1
耶稣@@ 1
耸肩 1
耿@@ 1
聂@@ 1
聆@@ 1
聊 1
职@@ 1
职守 1
职权 1
联合@@ 1
联席@@ 1
联络小组 1
联邦@@ 1
联邦储备@@ 1
联邦贸易委员会 1
聘@@ 1
聚力 1
聪明@@ 1
肇@@ 1
肉眼 1
肖 1
肚@@ 1
肚子 1
肛 1
股东@@ 1
股票@@ 1
肢@@ 1
肤 1
肪@@ 1
育@@ 1
肴 1
肾 1
胁性 1
胃 1
胖@@ 1
胚@@ 1
胜一筹 1
胞胎 1
胯@@ 1
胰@@ 1
胳 1
胳膊 1
胺 1
能入 1
能力@@ 1
脂@@ 1
脓@@ 1
脓包 1
脯 1
脱口@@ 1
脱胎 1
腆 1
腊@@ 1
腐败无能 1
腑 1
腑@@ 1
腕@@ 1
腮@@ 1
腺 1
腺@@ 1
腻 1
腿@@ 1
膀 1
膏 1
膛 1
膝@@ 1
膦 1
膳 1
臀@@ 1
臆@@ 1
自主@@ 1
自取@@ 1
自在 1
自成@@ 1
自明 1
自毁 1
自由民 1
自给@@ 1
自顾@@ 1
至尾 1
至终 1
致于 1
致人 1
舀@@ 1
舆@@ 1
舐 1
舟@@ 1
航空@@ 1
船高 1
艘@@ 1
良好@@ 1
艰@@ 1
艰苦@@ 1
艰苦奋斗 1
艳@@ 1
艺 1
艺@@ 1
艾哈@@ 1
艾森@@ 1
节性 1
节节@@ 1
芒 1
芜@@ 1
芝@@ 1
芝加哥@@ 1
芝麻 1
芭@@ 1
花样 1
芳@@ 1
芸芸众生 1
苍@@ 1
苏伊@@ 1
苏维@@ 1
苛@@ 1
苟 1
苟@@ 1
若即若离 1
若泽 1
苦心@@ 1
英格兰@@ 1
苷@@ 1
苹果@@ 1
茂@@ 1
茄 1
茄@@ 1
茅@@ 1
茅斯 1
茉@@ 1
茎 1
茧 1
茨基 1
茫@@ 1
茵 1
荆@@ 1
荏 1
荟@@ 1
荡@@ 1
荫 1
荫@@ 1
药物@@ 1
荷兰@@ 1
荷马 1
莉 1
莒 1
莞 1
莫拉@@ 1
莫测 1
莫申科 1
莫能@@ 1
莫衷一是 1
获取数据 1
获得@@ 1
获益@@ 1
菇 1
菇@@ 1
菌@@ 1
菜鸟 1
菲利@@ 1
菲律宾@@ 1
萃 1
萌@@ 1
萝@@ 1
营企业 1
营养@@ 1
萧@@ 1
萨克@@ 1
萨克斯 1
萨克森州 1
萨利@@ 1
萨姆 1
萨维 1
萨达@@ 1
萸 1
落后@@ 1
落成 1
落落 1
葆@@ 1
著作@@ 1
葛@@ 1
葛兰@@ 1
葡萄干 1
葫芦 1
葱 1
葱@@ 1
蒋 1
蒜@@ 1
蒲@@ 1
蒸 1
蓄 1
蓄@@ 1
蓄势待发 1
蓖@@ 1
蓝 1
蓬@@ 1
蓬佩@@ 1
蓬勃@@ 1
蔗 1
蔻 1
蔽 1
蔽@@ 1
蕉@@ 1
蕴 1
薯@@ 1
藉 1
藉@@ 1
藕@@ 1
藻 1
藻@@ 1
藿@@ 1
虏@@ 1
虔@@ 1
虚无 1
虞@@ 1
虫剂 1
虽@@ 1
虾 1
蚁@@ 1
蚂蚱 1
蚪 1
蚱@@ 1
蛀@@ 1
蛎 1
蛛@@ 1
蛮 1
蜂拥而至 1
蜗@@ 1
蜘蛛 1
蜢 1
蜷@@ 1
蝇@@ 1
蝌@@ 1
螂 1
螺@@ 1
蟑@@ 1
蟒 1
血红@@ 1
行不@@ 1
行不悖 1
行动@@ 1
行动指南 1
行性 1
行政@@ 1
衙@@ 1
衣无缝 1
表现@@ 1
表现型 1
表面@@ 1
衬 1
衬@@ 1
衷@@ 1
袋@@ 1
袍 1
袍@@ 1
袒@@ 1
袖 1
袜@@ 1
裁者 1
装成 1
裕 1
裙@@ 1
裸 1
裸@@ 1
裹 1
褐 1
褐@@ 1
褛 1
褪 1
褴@@ 1
褶@@ 1
西伯@@ 1
西奈@@ 1
西洋 1
西西@@ 1
要论 1
覆 1
见一斑 1
见大巫 1
观主义 1
规划@@ 1
规制 1
规模宏大 1
览 1
览@@ 1
觉者 1
觞 1
言不@@ 1
言论@@ 1
计划成本 1
计可施 1
计算机@@ 1
计费 1
订购 1
认 1
认知疗法 1
讥 1
让你在 1
讫 1
训@@ 1
讯@@ 1
记硬背 1
讳@@ 1
讶@@ 1
讷@@ 1
讽刺@@ 1
设限 1
访客 1
[...]
