, 110417
the 108938
. 84078
to 55428
of 51695
and 49315
in 38777
a 34612
that 25909
is 25764
&apos;s 19006
for 17230
&quot; 15362
it 13472
be 12738
as 12315
are 11701
on 11311
but 11153
with 10868
not 10405
have 9596
by 9519
has 9519
will 8655
this 8462
more 7461
its 7278
their 7227
from 7166
an 6573
they 6338
would 6064
at 5721
was 5717
US 5366
or 5312
than 4905
countries 4852
can 4771
China 4436
which 4296
we 4064
world 3982
if 3961
all 3923
been 3918
economic 3846
one 3652
should 3421
% 3394
there 3393
also 3377
only 3370
no 3303
new 3280
such 3195
even 3172
his 3165
could 3148
other 3126
so 3123
government 3116
growth 3063
: 3031
these 3026
when 2971
many 2954
political 2949
global 2923
about 2906
most 2890
now 2858
people 2857
; 2807
what 2774
who 2710
Europe 2687
some 2663
he 2652
must 2549
were 2535
country 2453
financial 2382
while 2376
years 2349
may 2306
do 2304
economy 2251
? 2233
into 2210
European 2161
had 2137
policy 2133
out 2121
much 2101
because 2059
over 2045
time 2031
after 1974
them 1963
like 1959
EU 1953
those 1869
power 1866
international 1859
up 1808
how 1746
need 1746
public 1725
first 1691
crisis 1657
between 1636
our 1633
America 1622
I 1620
any 1613
today 1581
trade 1562
year 1541
well 1536
just 1529
two 1528
Trump 1511
leaders 1502
system 1499
market 1466
both 1465
against 1442
way 1441
too 1426
make 1422
less 1418
governments 1410
United 1406
Russia 1399
yet 1351
investment 1342
last 1338
own 1335
change 1333
become 1332
indeed 1316
since 1315
markets 1314
does 1309
support 1309
far 1276
still 1264
policies 1259
important 1235
debt 1218
long 1204
where 1201
$ 1195
being 1195
rates 1182
state 1181
banks 1173
national 1167
development 1166
recent 1163
interest 1161
Chinese 1160
same 1160
future 1153
military 1138
social 1137
Japan 1127
example 1121
economies 1100
already 1095
through 1087
without 1087
take 1069
might 1066
likely 1062
security 1060
American 1054
another 1049
then 1047
President 1046
India 1044
use 1039
capital 1033
nuclear 1033
made 1032
work 1030
fact 1027
given 1027
Iran 1026
foreign 1012
good 1010
end 1009
war 1007
cannot 993
course 990
problem 989
energy 988
Germany 987
help 983
large 983
prices 981
better 974
high 973
did 954
risk 953
rate 946
rather 943
right 943
major 940
result 929
current 927
among 926
fiscal 926
real 920
States 918
demand 918
under 917
moreover 903
often 901
tax 897
part 888
states 888
GDP 886
before 882
health 882
institutions 882
why 880
central 872
order 871
approach 868
very 860
companies 847
whether 846
few 845
region 843
&apos;t 841
around 833
billion 829
past 818
during 817
role 815
however 811
us 810
little 809
needs 803
including 801
Israel 789
increase 787
human 783
higher 782
back 772
eurozone 770
Africa 767
oil 764
case 763
East 762
three 759
needed 758
Korea 756
million 756
toward 756
income 748
North 746
clear 746
South 745
within 745
democracy 744
least 744
rise 744
private 743
remains 743
education 739
next 739
monetary 737
Asia 736
developing 735
continue 733
second 729
efforts 725
domestic 724
problems 719
Obama 717
though 717
process 715
climate 711
different 711
money 711
others 711
down 709
further 709
s 708
business 705
come 705
costs 703
potential 700
strong 699
means 697
reforms 694
thus 694
women 688
remain 683
West 681
despite 674
point 668
citizens 667
reform 666
Union 664
enough 663
spending 663
longer 662
you 659
difficult 658
sector 658
decades 655
Bank 649
inflation 649
put 648
France 647
Iraq 647
best 645
every 642
key 642
price 642
almost 640
increasingly 639
poor 638
seems 637
long-term 634
itself 633
labor 633
question 632
World 631
benefits 629
growing 628
her 626
workers 626
each 624
peace 623
progress 623
agreement 622
especially 622
interests 620
share 620
able 618
never 618
challenges 614
population 611
greater 610
regime 608
provide 607
reason 607
rights 607
resources 606
used 605
children 604
election 604
regional 604
emerging 603
instead 603
politics 603
administration 602
control 601
possible 597
ago 594
law 591
currency 589
off 586
services 584
Putin 583
him 581
number 580
technology 579
set 576
ensure 572
making 572
Turkey 571
life 571
investors 570
simply 570
free 565
face 564
level 563
see 562
Middle 560
effective 559
impact 559
access 557
place 557
risks 557
issues 556
reduce 556
small 554
War 550
members 550
once 550
) 549
believe 547
together 547
jobs 546
( 545
particularly 544
terms 542
want 542
cost 540
my 540
beyond 539
serious 538
strategy 538
rising 537
create 536
stability 536
true 536
action 535
democratic 535
forces 535
low 535
go 534
infrastructure 534
leadership 529
society 529
until 529
based 528
led 528
rules 527
again 526
great 526
history 525
recently 525
early 523
force 521
local 520
find 518
conflict 517
president 517
Western 515
challenge 515
lead 515
systems 512
themselves 512
similar 510
data 509
member 509
threat 509
across 508
bank 507
firms 507
get 506
always 505
common 505
levels 505
significant 505
measures 504
sense 500
know 498
view 498
Syria 497
community 497
according 496
require 495
research 495
dollar 494
ever 490
left 490
Arab 489
increased 488
deal 487
Russian 486
seem 485
hard 481
value 480
issue 479
she 478
turn 477
employment 476
policymakers 474
century 473
opportunity 471
UN 468
Greece 467
poverty 467
British 464
say 464
address 463
perhaps 463
credit 461
done 460
information 460
lower 459
position 458
former 455
politicians 454
times 454
open 452
cooperation 450
taken 449
unemployment 449
focus 448
Ukraine 447
lack 447
euro 446
Americans 443
French 442
success 442
rule 440
response 439
consequences 438
per 438
balance 437
finance 437
Britain 435
areas 433
parties 433
young 433
changes 432
home 432
pressure 432
having 431
programs 431
decade 430
program 429
media 428
short 428
model 427
requires 427
strategic 427
although 426
move 426
voters 426
developed 425
pay 424
Bush 423
conditions 423
groups 423
officials 421
decline 417
production 417
food 416
said 416
consider 415
improve 415
run 415
return 414
achieve 413
alone 413
exchange 413
hope 413
finally 412
half 411
productivity 408
ways 406
violence 405
either 404
party 404
several 404
German 402
2008 401
third 401
capacity 400
doing 400
Fed 399
budget 399
largely 399
goods 398
inequality 398
term 398
working 398
average 397
increasing 397
industry 397
effort 396
campaign 395
deficit 395
UK 394
away 394
necessary 394
ability 393
influence 392
think 392
expected 390
makes 390
sure 390
cause 388
clearly 387
powerful 387
news 385
fall 384
nor 384
relations 384
created 383
five 383
began 382
prevent 381
worse 381
effects 380
failed 380
start 380
advanced 378
bring 378
full 378
lost 378
structural 378
weapons 378
assets 377
leading 376
top 376
opposition 374
experience 373
globalization 373
Minister 372
20 371
care 371
water 371
whose 371
avoid 370
job 370
close 369
consumption 369
day 369
failure 369
fear 369
environment 367
evidence 367
natural 367
old 367
big 365
emissions 365
governance 365
opportunities 365
step 365
debate 364
leader 364
rich 364
IMF 363
rest 363
banking 362
months 362
nearly 361
exports 360
majority 360
shift 360
Italy 358
Pakistan 358
sustainable 358
age 357
benefit 357
living 357
supply 357
allow 356
give 356
here 356
main 356
play 356
massive 355
traditional 355
wealth 355
elections 354
Asian 353
aid 353
lives 353
using 353
act 352
really 352
four 351
later 351
solution 351
agenda 350
bad 350
seen 350
taking 349
things 349
actually 348
owing 348
form 347
look 346
popular 346
effect 345
account 344
limited 344
build 343
investments 343
period 343
innovation 342
behind 340
called 340
un@@ 340
technologies 339
annual 338
found 338
something 338
values 338
boost 337
civil 337
idea 337
report 337
Party 336
ECB 335
Japanese 333
keep 333
authorities 332
kind 332
largest 332
side 332
negotiations 331
official 329
protect 329
recovery 329
Council 328
nothing 328
single 328
funds 327
hold 327
larger 327
rapid 327
taxes 327
legal 326
modern 326
concerns 324
following 324
soon 324
economists 323
particular 323
cities 322
plan 321
sanctions 321
situation 321
became 320
goal 320
live 320
mean 320
Afghanistan 318
certainly 318
comes 318
competition 318
decision 317
easy 317
Prime 316
status 316
decisions 315
re@@ 315
behavior 313
cases 313
vote 312
hand 310
responsibility 310
- 309
50 309
-@@ 308
Congress 308
Egypt 308
offer 308
reach 308
reality 308
contrast 307
highly 306
gas 305
huge 305
refugees 305
relationship 305
businesses 304
defense 304
New 303
currently 303
freedom 303
integration 303
thing 303
collapse 302
Islamic 301
environmental 301
matter 301
powers 301
total 301
external 300
probably 300
coming 299
creating 299
fundamental 299
millions 299
produce 297
quickly 297
successful 297
Central 296
attacks 296
commitment 296
presidential 296
raise 296
reasons 296
reducing 296
Soviet 295
trillion 295
individual 294
corruption 293
meet 293
path 293
attention 292
products 292
Palestinian 291
continued 291
outcome 291
words 291
NATO 290
dangerous 290
elsewhere 290
understand 290
existing 289
group 289
land 289
above 288
recognize 288
results 287
standards 287
Europeans 286
line 285
stop 285
worldwide 285
African 284
corporate 284
relatively 284
Mexico 283
complex 283
direct 283
Latin 282
meanwhile 282
skills 282
building 281
include 281
month 281
confidence 280
entire 280
gains 280
union 280
unlikely 280
Brazil 279
call 279
cut 279
deep 279
develop 279
weak 279
deficits 278
came 277
held 277
projects 277
show 277
unfortunately 277
wrong 277
1 276
becoming 276
financing 276
similarly 276
Commission 275
basic 275
essential 275
fight 275
performance 275
prosperity 275
Kingdom 274
critical 274
eventually 274
let 273
30 272
advantage 272
available 272
ultimately 272
2015 270
Brexit 270
Saudi 270
along 270
took 270
ahead 269
everyone 269
helped 268
in@@ 268
scale 268
maintain 267
organizations 267
answer 265
framework 265
known 265
technological 265
bonds 264
management 264
positive 264
accept 263
additional 262
alternative 262
caused 262
certain 261
fully 260
institutional 259
relative 259
general 258
continues 257
liberal 257
Xi 256
communities 256
cuts 256
independence 256
overall 256
rapidly 256
simple 256
10 255
Internet 255
Nations 255
funding 255
minister 255
personal 255
willing 255
Security 254
claim 254
incentives 254
manufacturing 254
consumers 253
effectively 253
generation 253
industrial 253
outside 253
ten 253
beginning 252
leave 252
moral 252
source 252
asset 251
matters 251
negative 251
shared 250
late 249
religious 249
science 249
short-term 249
stimulus 249
transition 249
allies 248
knowledge 248
won 248
Fund 247
death 247
output 247
quality 247
ideas 246
argue 245
don 245
forced 245
movement 245
required 245
2 244
Muslim 244
basis 244
revolution 244
societies 244
reduced 243
family 242
independent 242
established 241
agreed 240
days 240
forward 240
individuals 240
intervention 240
men 240
obvious 240
/ 239
expect 239
flows 239
neither 239
choice 238
activities 237
direction 237
facing 237
factors 237
protection 237
reserves 237
stronger 237
borders 236
recession 236
target 236
2010 235
International 235
creation 235
goals 235
damage 234
extreme 234
industries 234
suggests 234
May 233
State 233
contrary 233
era 233
project 233
pursue 233
vulnerable 233
actions 232
austerity 232
claims 232
concern 232
losses 232
therefore 232
disease 231
grow 231
providing 231
solutions 231
victory 231
gain 230
households 230
likewise 230
S@@ 229
brought 229
cultural 229
moment 229
respect 229
service 229
stable 229
area 228
company 228
driven 228
expansion 228
meeting 228
regulation 228
significantly 228
allowed 227
dollars 227
export 227
questions 227
reached 227
throughout 227
agreements 226
nature 226
partners 226
vision 226
crises 225
easily 225
models 225
stock 225
talks 225
thought 225
encourage 224
events 224
turned 224
impossible 223
internal 223
roughly 223
widely 223
authority 222
establish 222
responsible 222
savings 222
school 222
trying 222
40 221
produced 221
slow 221
wants 221
1990 220
elected 220
serve 220
trading 220
understanding 220
digital 219
insurance 219
net 219
proposed 219
scientific 219
amount 218
sectors 218
thereby 218
aimed 217
argument 217
attack 217
parts 217
politically 217
bilateral 216
points 216
promote 216
Great 215
chance 215
feel 215
immigration 215
populist 215
core 214
culture 214
focused 214
me 214
plans 214
Indian 213
diplomatic 213
steps 213
thinking 213
trust 213
2014 212
appears 212
class 212
fail 212
increases 212
man 212
manage 212
provided 212
secure 212
summit 212
terrorism 212
wages 212
2013 211
uncertainty 211
Arabia 210
anything 210
follow 210
September 209
demands 209
push 209
excessive 208
game 208
ground 208
seek 208
strengthen 208
Korean 207
agree 207
economics 207
equity 207
office 207
begin 206
below 206
difference 206
Hamas 205
committed 205
crucial 205
historical 205
housing 205
seeking 205
terrorist 205
Spain 204
carbon 204
doubt 204
laws 204
loans 204
lose 204
loss 204
subsidies 204
2012 203
Greek 203
record 203
surplus 203
burden 202
gap 202
reduction 202
thousands 202
treatment 202
whatever 202
whole 202
earlier 201
imports 201
liquidity 201
respond 201
saving 201
seemed 201
sources 201
study 201
Republican 200
consensus 200
consumer 200
students 200
border 199
deliver 199
happen 199
option 199
prime 199
shows 199
directly 198
reflects 198
try 198
2009 197
Barack 197
competitive 197
federal 197
incomes 197
otherwise 197
profits 197
regions 197
shown 197
specific 197
truth 197
unless 197
worth 197
Kim 196
Republicans 196
biggest 196
differences 196
save 196
takes 196
ties 196
wars 196
limit 195
middle 195
non-@@ 195
reflect 195
trend 195
unable 195
whereas 195
15 194
Israeli 194
abroad 194
context 194
implement 194
principle 194
principles 194
vital 194
II 193
P@@ 193
going 193
importance 193
prove 193
Palestinians 192
limits 192
membership 192
outcomes 192
safety 192
sovereignty 192
various 192
anti-@@ 191
city 191
faces 191
multilateral 191
paid 191
training 191
warming 191
air 190
fuel 190
none 190
six 190
speech 190
depend 189
faster 189
immediate 189
tend 189
center 188
lies 188
presidency 188
renminbi 188
spread 188
achieved 187
broader 187
changing 187
efficient 187
health-care 187
prospects 187
targets 187
your 187
falling 186
regulatory 186
urban 186
wage 186
Donald 185
compared 185
danger 185
de 185
neighbors 185
Argentina 184
child 184
construction 184
continent 184
depends 184
extent 184
followed 184
helping 184
improving 184
intelligence 184
legitimacy 184
managed 184
property 184
2011 183
A@@ 183
Lebanon 183
Merkel 183
drive 183
geopolitical 183
precisely 183
raising 183
story 183
anyone 182
expectations 182
favor 182
lot 182
partly 182
referendum 182
stand 182
vast 182
changed 181
drug 181
fair 181
tools 181
commercial 180
message 180
migration 180
previous 180
severe 180
Cold 179
Eastern 179
adopted 179
enable 179
ensuring 179
sides 179
special 179
regard 178
unlike 178
Iranian 177
R@@ 177
T@@ 177
assistance 177
dis@@ 177
invest 177
legislation 177
primary 177
sometimes 177
standard 177
Clinton 176
Muslims 176
becomes 176
generally 176
hundreds 176
schools 176
sovereign 176
spent 176
suggest 176
threats 176
2016 175
National 175
experts 175
getting 175
improved 175
leaving 175
normal 175
B@@ 174
current-account 174
happened 174
identity 174
resulting 174
size 174
space 174
100 173
Islam 173
causes 173
lending 173
regulations 173
structure 173
views 173
25 172
Paris 172
Syrian 172
win 172
Poland 171
coalition 171
faced 171
himself 171
i 171
initiative 171
received 171
rural 171
started 171
tariffs 171
viewed 171
barriers 170
efficiency 170
farmers 170
instability 170
promise 170
rhetoric 170
December 169
afford 169
competitiveness 169
everything 169
mechanisms 169
safe 169
stage 169
succeed 169
F@@ 168
advance 168
choose 168
collective 168
else 168
fighting 168
fund 168
macroeconomic 168
merely 168
possibility 168
rely 168
soft 168
substantial 168
D@@ 167
House 167
giving 167
lines 167
promises 167
November 166
The 166
agricultural 166
announced 166
circumstances 166
forms 166
remained 166
attempt 165
considerable 165
developments 165
spend 165
strategies 165
suffering 165
tried 165
undermine 165
upon 165
activity 164
addition 164
designed 164
entirely 164
families 164
goes 164
learn 164
mass 164
near 164
person 164
provides 164
road 164
sound 164
struggle 164
supported 164
2000 163
accounts 163
appear 163
considered 163
contribute 163
democracies 163
equally 163
inevitable 163
mind 163
nonetheless 163
opinion 163
police 163
11 162
Trade 162
calls 162
final 162
justice 162
3 161
break 161
deeply 161
diseases 161
recognized 161
so-called 161
sufficient 161
Federal 160
associated 160
ed 160
ethnic 160
hit 160
practices 160
subject 160
theory 160
2005 159
E@@ 159
M@@ 159
credibility 159
fears 159
implications 159
range 159
revenues 159
scenario 159
wanted 159
2007 158
Gaza 158
K@@ 158
absence 158
base 158
boom 158
er 158
maintaining 158
stands 158
strengthening 158
sustained 158
worst 158
agencies 157
am 157
argued 157
enormous 157
estimated 157
medical 157
press 157
related 157
test 157
June 156
allowing 156
borrowing 156
conflicts 156
household 156
priority 156
ratio 156
supposed 156
transformation 156
went 156
Organization 155
ating 155
b@@ 155
buy 155
involved 155
participation 155
resistance 155
strength 155
2001 154
appropriate 154
comprehensive 154
controls 154
distribution 154
greatest 154
imbalances 154
latest 154
nationalism 154
ordinary 154
permanent 154
regimes 154
task 154
60 153
H@@ 153
N@@ 153
commitments 153
expensive 153
explain 153
factor 153
gone 153
moving 153
overcome 153
places 153
smaller 153
trends 153
London 152
Reserve 152
addressing 152
built 152
candidates 152
estimates 152
receive 152
refugee 152
restore 152
welfare 152
widespread 152
Development 151
closer 151
drugs 151
generate 151
hardly 151
army 150
believed 150
diplomacy 150
fortunately 150
present 150
ready 150
running 150
declared 149
elites 149
ended 149
o 149
C@@ 148
Erdoğan 148
L@@ 148
blame 148
disaster 148
es 148
expand 148
numbers 148
options 148
playing 148
productive 148
proved 148
returns 148
talk 148
treaty 148
usually 148
active 147
alliance 147
broad 147
decide 147
imagine 147
scientists 147
southern 147
G@@ 146
affairs 146
cash 146
credible 146
decision-making 146
head 146
migrants 146
promised 146
resolve 146
revenue 146
territory 146
troops 146
week 146
5 145
ask 145
economically 145
unprecedented 145
whom 145
70 144
January 144
actors 144
ally 144
combined 144
deaths 144
enterprises 144
offered 144
operations 144
planet 144
slowdown 144
suffer 144
worked 144
Global 143
aggregate 143
fell 143
heavily 143
holding 143
immigrants 143
proposal 143
pursuing 143
raised 143
relevant 143
represents 143
shape 143
supporters 143
tensions 143
universal 143
agriculture 142
ate 142
authoritarian 142
conventional 142
creditors 142
de@@ 142
debts 142
ers 142
fallen 142
impose 142
inclusive 142
mechanism 142
objective 142
positions 142
resolution 142
yes 142
2@@ 141
Abe 141
Macron 141
affect 141
conservative 141
gender 141
nation 141
seriously 141
Republic 140
add 140
engage 140
initiatives 140
join 140
perspective 140
quite 140
ruling 140
sustain 140
Democrats 139
Libya 139
capitalism 139
compromise 139
d@@ 139
ongoing 139
putting 139
useful 139
Kremlin 138
achieving 138
analysis 138
bankers 138
currencies 138
electoral 138
electricity 138
expanding 138
imposed 138
leverage 138
offers 138
physical 138
planning 138
populations 138
1980 137
General 137
asked 137
carry 137
easier 137
equal 137
establishment 137
mistake 137
movements 137
peaceful 137
radical 137
towards 137
urgent 137
2006 136
4 136
80 136
George 136
body 136
commodity 136
dramatically 136
event 136
front 136
lesson 136
name 136
online 136
potentially 136
prospect 136
protests 136
quarter 136
room 136
works 136
Assad 135
ates 135
constraints 135
critics 135
cycle 135
e@@ 135
experienced 135
fewer 135
girls 135
hands 135
implemented 135
looking 135
parliamentary 135
solve 135
starters 135
told 135
underlying 135
Court 134
York 134
assume 134
capita 134
cutting 134
divided 134
fast 134
killed 134
met 134
prepared 134
producers 134
sharply 134
sought 134
12 133
Washington 133
ated 133
decided 133
emerged 133
heart 133
networks 133
partner 133
played 133
regulators 133
Treaty 132
armed 132
coal 132
conference 132
determine 132
due 132
hopes 132
immediately 132
launched 132
leads 132
mainly 132
necessarily 132
objectives 132
remaining 132
sharp 132
truly 132
apparent 131
driving 131
implies 131
ing 131
lessons 131
measure 131
determined 130
gold 130
humanitarian 130
learning 130
patients 130
realize 130
terrorists 130
default 129
genuine 129
guarantee 129
includes 129
learned 129
opponents 129
pace 129
type 129
wide 129
zero 129
2004 128
Democratic 128
Jewish 128
amounts 128
degree 128
desire 128
highest 128
pattern 128
supporting 128
violent 128
Turkish 127
begun 127
causing 127
constitutional 127
corporations 127
dramatic 127
dynamic 127
easing 127
practice 127
saw 127
structures 127
t 127
universities 127
worry 127
Canada 126
al 126
choices 126
concerned 126
constitution 126
deeper 126
fueled 126
happens 126
innovative 126
moved 126
regardless 126
studies 126
Venezuela 125
field 125
gradually 125
incentive 125
intended 125
kept 125
knows 125
ones 125
presence 125
seven 125
technical 125
temporary 125
Islamist 124
Modi 124
Monetary 124
Sea 124
adjustment 124
adopt 124
arrangements 124
bound 124
complete 124
green 124
investing 124
mostly 124
trouble 124
unique 124
virtually 124
Revolution 123
bringing 123
combination 123
continuing 123
court 123
demonstrated 123
employees 123
everywhere 123
gave 123
light 123
meant 123
nationalist 123
payments 123
robust 123
scope 123
9 122
Secretary 122
Vietnam 122
adequate 122
bear 122
belief 122
book 122
elite 122
exchange-rate 122
mandate 122
operate 122
re-@@ 122
threatened 122
transparency 122
visit 122
2003 121
3@@ 121
G-20 121
bottom 121
contributed 121
costly 121
establishing 121
keeping 121
restrictions 121
shocks 121
starting 121
Ireland 120
arms 120
backed 120
minority 120
occur 120
priorities 120
ts 120
undermining 120
1@@ 119
a@@ 119
ation 119
bond 119
candidate 119
capabilities 119
defend 119
dialogue 119
educational 119
en@@ 119
extremely 119
firm 119
intellectual 119
journalists 119
modest 119
percentage 119
poorest 119
proposals 119
suffered 119
ambitious 118
cancer 118
emergence 118
formal 118
inadequate 118
relief 118
signs 118
surely 118
territorial 118
thanks 118
Hong 117
added 117
apply 117
billions 117
declining 117
dependent 117
organization 117
quo 117
secular 117
sustainability 117
team 117
track 117
turning 117
victims 117
addressed 116
criticism 116
deflation 116
figure 116
friends 116
historic 116
integrated 116
looks 116
norms 116
players 116
product 116
7 115
Economic 115
Kong 115
educated 115
failing 115
humans 115
legitimate 115
parliament 115
pension 115
round 115
sign 115
transfer 115
twentieth 115
typically 115
weeks 115
2017 114
90 114
Parliament 114
be@@ 114
board 114
clean 114
enabled 114
figures 114
host 114
house 114
regarded 114
represent 114
solidarity 114
stagnation 114
CO2 113
O@@ 113
Russians 113
boosting 113
embrace 113
fate 113
felt 113
g@@ 113
moderate 113
promoting 113
sharing 113
surprising 113
affected 112
aim 112
exactly 112
generations 112
list 112
ministers 112
occurred 112
operating 112
plants 112
processes 112
species 112
summer 112
targeted 112
tell 112
uncertain 112
HIV 111
Vladimir 111
confront 111
contracts 111
convinced 111
emergency 111
identify 111
launch 111
logic 111
nations 111
observers 111
opening 111
opposite 111
previously 111
self-@@ 111
sentiment 111
surprise 111
understood 111
volatility 111
votes 111
John 110
Taiwan 110
accepted 110
born 110
design 110
grew 110
issued 110
mobility 110
paying 110
preventing 110
signed 110
survival 110
Communist 109
approaches 109
bubble 109
crimes 109
emerge 109
essentially 109
inevitably 109
pollution 109
protecting 109
s@@ 109
sell 109
ASEAN 108
calling 108
concluded 108
discussion 108
implementation 108
liberalization 108
practical 108
senior 108
withdrawal 108
Italian 107
July 107
Treasury 107
destruction 107
e 107
eight 107
engagement 107
fuels 107
healthy 107
heavy 107
hours 107
implementing 107
large-scale 107
possibly 107
primarily 107
pushed 107
pushing 107
state-owned 107
weakened 107
Sunni 106
doesn 106
double 106
eliminate 106
fourth 106
genetic 106
harder 106
joint 106
language 106
network 106
purpose 106
reflected 106
reported 106
researchers 106
someone 106
stake 106
welcome 106
Singapore 105
W@@ 105
battle 105
charge 105
encouraging 105
finding 105
grown 105
harm 105
initial 105
losing 105
negotiate 105
obviously 105
perceived 105
smart 105
sort 105
ted 105
aggressive 104
aging 104
cheap 104
equality 104
flow 104
guide 104
ignore 104
k@@ 104
legacy 104
professional 104
promising 104
protectionism 104
raises 104
reaching 104
recognition 104
reports 104
search 104
unity 104
D 103
March 103
al-@@ 103
appeal 103
bold 103
closely 103
coordination 103
defined 103
exist 103
f@@ 103
fragile 103
gained 103
innovations 103
mainstream 103
malaria 103
managing 103
mere 103
mission 103
sales 103
setting 103
stance 103
standing 103
strongly 103
uses 103
€ 103
8 102
Al 102
Assembly 102
Sarkozy 102
White 102
allows 102
budgets 102
compete 102
di@@ 102
effectiveness 102
pressures 102
profound 102
religion 102
requirements 102
settlement 102
speak 102
Depression 101
Gulf 101
attract 101
carried 101
centuries 101
excess 101
failures 101
i@@ 101
illegal 101
included 101
published 101
race 101
reasonable 101
red 101
restructuring 101
reverse 101
says 101
t@@ 101
travel 101
weakness 101
Indonesia 100
Iraqi 100
Netanyahu 100
Taliban 100
drop 100
faith 100
import 100
introduced 100
shifting 100
showed 100
undoubtedly 100
· 100
abuse 99
attractive 99
borrow 99
completely 99
defeat 99
disputes 99
enabling 99
engaged 99
exposed 99
h@@ 99
purchases 99
weaker 99
y 99
&apos; 98
AIDS 98
Palestine 98
QE 98
Sweden 98
W. 98
accompanied 98
an@@ 98
aside 98
claimed 98
creates 98
escape 98
explanation 98
homes 98
narrative 98
p@@ 98
parents 98
phase 98
rejected 98
reliable 98
survive 98
wider 98
acting 97
annually 97
centers 97
helps 97
humanity 97
northern 97
populism 97
shock 97
substantially 97
tests 97
tough 97
wave 97
youth 97
TB 96
University 96
challenging 96
civilian 96
crime 96
emerging-market 96
ending 96
female 96
fire 96
globally 96
inflows 96
offering 96
replace 96
stay 96
television 96
unsustainable 96
weaken 96
woman 96
1970 95
Australia 95
capable 95
donors 95
flexible 95
link 95
reserve 95
retirement 95
wrote 95
y@@ 95
Nigeria 94
October 94
concept 94
cross-border 94
delivered 94
described 94
dominated 94
earnings 94
exit 94
expanded 94
kinds 94
nevertheless 94
offset 94
package 94
remarkable 94
served 94
subsequent 94
wealthy 94
Israelis 93
Jews 93
bankruptcy 93
enhance 93
fossil 93
interventions 93
k 93
leaves 93
linked 93
nominal 93
nowadays 93
ownership 93
rarely 93
sea 93
struggling 93
turmoil 93
&amp; 92
April 92
I@@ 92
J@@ 92
Wall 92
balanced 92
consistent 92
correct 92
customers 92
die 92
discussions 92
diverse 92
divide 92
equivalent 92
executive 92
extend 92
generated 92
holds 92
identified 92
nine 92
resource 92
responses 92
saying 92
soldiers 92
table 92
threaten 92
transfers 92
2020 91
Hezbollah 91
attempts 91
buying 91
conducted 91
cyber 91
deals 91
downturn 91
expense 91
m@@ 91
newly 91
policymaking 91
predict 91
strike 91
supplies 91
willingness 91
18 90
6 90
Georgia 90
People 90
accountability 90
arguments 90
declined 90
destroy 90
elements 90
facts 90
im@@ 90
invasion 90
latter 90
meaning 90
momentum 90
negotiating 90
o@@ 90
one-third 90
opposed 90
over@@ 90
progressive 90
repeatedly 90
replaced 90
sophisticated 90
users 90
yield 90
18@@ 89
February 89
ISIS 89
ambitions 89
apart 89
conduct 89
corrupt 89
cover 89
facilitate 89
foreign-exchange 89
fundamentally 89
knew 89
material 89
mobile 89
placed 89
private-sector 89
publicly 89
quantitative 89
refused 89
risky 89
transparent 89
transport 89
twenty-first 89
voted 89
weight 89
Yemen 88
ab@@ 88
abandon 88
chains 88
compensation 88
contribution 88
dependence 88
depreciation 88
depression 88
gives 88
ideological 88
multiple 88
painful 88
passed 88
shifts 88
simultaneously 88
statement 88
united 88
university 88
via 88
viable 88
wait 88
2030 87
Supreme 87
badly 87
chief 87
closed 87
demonstrate 87
devastating 87
examples 87
expressed 87
flexibility 87
foundation 87
got 87
happening 87
impressive 87
institution 87
obligations 87
pursued 87
rational 87
renewed 87
responsibilities 87
ruled 87
stimulate 87
stress 87
systemic 87
usual 87
C 86
Health 86
WTO 86
accelerate 86
advances 86
assessment 86
careful 86
con@@ 86
concrete 86
extended 86
facilities 86
father 86
ideology 86
ignored 86
managers 86
ourselves 86
partnership 86
polls 86
populists 86
released 86
stopped 86
taxpayers 86
wake 86
17 85
Shia 85
V@@ 85
appreciation 85
ations 85
bill 85
conclusion 85
contain 85
counterparts 85
demanding 85
died 85
obstacles 85
patterns 85
platform 85
rose 85
series 85
shareholders 85
solar 85
stories 85
surprisingly 85
transactions 85
Egyptian 84
Kenya 84
academic 84
actual 84
applied 84
chaos 84
computer 84
courts 84
criminal 84
dealing 84
decisive 84
diversity 84
ends 84
initially 84
lie 84
participants 84
pose 84
resist 84
returned 84
severely 84
tackle 84
threatening 84
transformed 84
worried 84
Jordan 83
Kosovo 83
concerning 83
consequence 83
consistently 83
daily 83
displaced 83
ethical 83
eyes 83
focusing 83
furthermore 83
insufficient 83
lacks 83
minimum 83
missing 83
mutual 83
pointed 83
predicted 83
pressing 83
revolutionary 83
securities 83
selling 83
ting 83
twice 83
! 82
2018 82
Beijing 82
Senate 82
alike 82
approval 82
black 82
carefully 82
combat 82
commit 82
consolidation 82
contributions 82
damaging 82
extraordinary 82
far-reaching 82
improvement 82
limiting 82
materials 82
missile 82
profit 82
runs 82
send 82
sheets 82
treat 82
ultimate 82
waiting 82
warned 82
Department 81
OECD 81
accounting 81
brings 81
bubbles 81
chronic 81
condition 81
coverage 81
debates 81
dispute 81
en 81
encouraged 81
forcing 81
hunger 81
imposing 81
lasting 81
m 81
narrow 81
pain 81
paper 81
participate 81
periphery 81
producing 81
recognizing 81
responded 81
right-wing 81
somewhat 81
transform 81
variety 81
wisdom 81
1990s 80
Chile 80
Germans 80
adapt 80
alternatives 80
appeared 80
ban 80
catastrophe 80
discrimination 80
emphasis 80
financed 80
fixed 80
grounds 80
imply 80
instruments 80
king 80
presidents 80
proven 80
reaction 80
reductions 80
revealed 80
statements 80
talent 80
taxation 80
threatens 80
voting 80
wish 80
wonder 80
4@@ 79
Committee 79
Pakistani 79
acts 79
ad@@ 79
aftermath 79
block 79
co@@ 79
date 79
ding 79
enter 79
equipment 79
extra 79
governing 79
ha@@ 79
inclusion 79
interest-rate 79
mis@@ 79
n 79
prosperous 79
slowly 79
statistics 79
surpluses 79
Nobel 78
Spring 78
advantages 78
advocates 78
aware 78
barely 78
believes 78
ch@@ 78
demographic 78
downward 78
earn 78
er@@ 78
historically 78
insist 78
invested 78
justify 78
middle-income 78
perfect 78
platforms 78
prepare 78
prison 78
purchase 78
rebalancing 78
resolved 78
root 78
sexual 78
shares 78
sold 78
tool 78
u 78
weakening 78
AI 77
Brussels 77
Chancellor 77
Keynes 77
R 77
Reagan 77
activists 77
advice 77
animals 77
car 77
characterized 77
considering 77
discipline 77
dropped 77
engineering 77
entrepreneurs 77
features 77
frequently 77
fueling 77
mental 77
minds 77
mistakes 77
oppose 77
overwhelming 77
plant 77
post-@@ 77
proper 77
provision 77
rulers 77
showing 77
son 77
staff 77
successfully 77
suddenly 77
supposedly 77
survey 77
two-thirds 77
valuable 77
yields 77
1.5 76
August 76
Bangladesh 76
Christian 76
apparently 76
binding 76
broken 76
creative 76
draw 76
drawn 76
function 76
improvements 76
it@@ 76
marked 76
measured 76
moves 76
notion 76
seemingly 76
slower 76
suggested 76
turns 76
word 76
200 75
Colombia 75
England 75
Jinping 75
Netherlands 75
Street 75
al@@ 75
bigger 75
broadly 75
brutal 75
confrontation 75
eastern 75
g 75
gaining 75
high-@@ 75
joined 75
killing 75
maintained 75
mark 75
methods 75
neighboring 75
older 75
openly 75
peak 75
plenty 75
prefer 75
preserve 75
retain 75
sensible 75
succeeded 75
surge 75
tragedy 75
trials 75
triggered 75
winning 75
1980s 74
500 74
Blair 74
Hungary 74
ad 74
affordable 74
assumed 74
bodies 74
considerably 74
content 74
enforcement 74
expertise 74
extremists 74
foreign-policy 74
image 74
le 74
meaningful 74
or@@ 74
posed 74
pre-@@ 74
proportion 74
protectionist 74
risen 74
stocks 74
unfair 74
urgently 74
vehicles 74
w@@ 74
Google 73
Mubarak 73
Philippines 73
Re@@ 73
TPP 73
ar 73
artificial 73
capture 73
compelling 73
counter 73
destroyed 73
exercise 73
feed 73
fields 73
fill 73
labor-market 73
manner 73
match 73
operation 73
picture 73
plays 73
resilience 73
resulted 73
review 73
skilled 73
spirit 73
streets 73
successor 73
types 73
vaccines 73
1930 72
2050 72
A 72
Dutch 72
Mediterranean 72
Thailand 72
accordingly 72
ans 72
attempting 72
cars 72
chances 72
charges 72
chemical 72
enjoy 72
exception 72
free-trade 72
imperative 72
n@@ 72
patient 72
renewable 72
secret 72
stabilize 72
trial 72
trigger 72
workforce 72
1989 71
Cameron 71
Facebook 71
Myanmar 71
als 71
am@@ 71
backlash 71
beneficial 71
books 71
civilians 71
contract 71
doctors 71
dream 71
economist 71
expression 71
fails 71
false 71
funded 71
ideal 71
judgment 71
machines 71
meetings 71
minorities 71
on@@ 71
ons 71
organized 71
over-@@ 71
partnerships 71
payment 71
planned 71
protected 71
reluctant 71
repression 71
rescue 71
trap 71
unconventional 71
Moscow 70
Polish 70
Sudan 70
ac@@ 70
adverse 70
analysts 70
brain 70
complicated 70
controlled 70
coordinated 70
dead 70
deepening 70
difficulties 70
dominant 70
electorate 70
employers 70
happy 70
indicators 70
l@@ 70
negotiated 70
opened 70
pass 70
relationships 70
remember 70
representatives 70
rightly 70
speed 70
stakes 70
strengthened 70
style 70
sudden 70
sufficiently 70
surveillance 70
tradition 70
treated 70
undermined 70
weaknesses 70
zone 70
... 69
5@@ 69
Brotherhood 69
California 69
Crimea 69
Saddam 69
actively 69
avoided 69
benefited 69
birth 69
blood 69
c@@ 69
collaboration 69
concessions 69
crops 69
favorable 69
foreigners 69
gradual 69
granted 69
guaranteed 69
heads 69
hurt 69
isn 69
mitigate 69
motivated 69
poorly 69
provisions 69
realistic 69
regarding 69
resort 69
ro@@ 69
se@@ 69
warning 69
wind 69
Social 68
adjust 68
ag@@ 68
aims 68
backing 68
circle 68
constructive 68
coup 68
entered 68
existence 68
greatly 68
importantly 68
informal 68
inside 68
island 68
longer-term 68
mention 68
monitoring 68
openness 68
poorer 68
presented 68
problematic 68
properly 68
protest 68
regular 68
restoring 68
scheme 68
stem 68
terror 68
traditionally 68
unemployed 68
z@@ 68
Denmark 67
Labour 67
accused 67
adopting 67
adoption 67
ar@@ 67
background 67
borrowers 67
collapsed 67
didn 67
doctrine 67
ease 67
element 67
enemies 67
halt 67
isolation 67
low-income 67
nowhere 67
persistent 67
poses 67
reliance 67
remove 67
reputation 67
residents 67
reversed 67
rooted 67
separate 67
software 67
south 67
t-@@ 67
vaccine 67
voice 67
Y@@ 66
accelerated 66
achievement 66
acknowledge 66
approved 66
assumption 66
communication 66
connected 66
decent 66
delay 66
details 66
evolution 66
foremost 66
inefficient 66
involvement 66
ks 66
low-carbon 66
mobilize 66
monopoly 66
onto 66
original 66
perception 66
pricing 66
purposes 66
real-estate 66
recover 66
reject 66
sent 66
signal 66
talking 66
under@@ 66
waste 66
16 65
1999 65
75 65
Africans 65
Agreement 65
Khamenei 65
Southeast 65
US-@@ 65
argues 65
attitudes 65
communism 65
confronting 65
dilemma 65
dominance 65
e-@@ 65
estate 65
falls 65
gets 65
guarantees 65
imperial 65
index 65
introduce 65
links 65
persuade 65
route 65
sets 65
steel 65
stood 65
teachers 65
tourism 65
underway 65
unions 65
upward 65
written 65
22 64
27 64
28 64
City 64
Climate 64
Spanish 64
Tunisia 64
Z@@ 64
alongside 64
awareness 64
chose 64
claiming 64
classes 64
computers 64
divisions 64
facto 64
forget 64
foster 64
integrity 64
internationally 64
involve 64
memory 64
mortgage 64
proliferation 64
se 64
well-@@ 64
white 64
13 63
14 63
G20 63
Islamists 63
Kurdish 63
Plan 63
Portugal 63
Qaeda 63
Serbia 63
Sub-Saharan 63
acute 63
anywhere 63
bolster 63
caught 63
colleagues 63
competing 63
controversial 63
convergence 63
cooperate 63
count 63
couple 63
dangers 63
destructive 63
dignity 63
eager 63
enforce 63
engine 63
except 63
feature 63
feeling 63
functioning 63
generating 63
human-rights 63
li@@ 63
machine 63
male 63
noted 63
pro-@@ 63
prolonged 63
puts 63
r@@ 63
ranks 63
ri@@ 63
richer 63
sooner 63
tech 63
v@@ 63
vulnerability 63
1979 62
Bashar 62
Defense 62
Financial 62
Morsi 62
affecting 62
assuming 62
asylum 62
atmosphere 62
bailout 62
blow 62
constantly 62
division 62
estimate 62
exists 62
experiencing 62
extremism 62
fulfill 62
fundamentals 62
inflationary 62
j@@ 62
lacking 62
manipulation 62
middle-class 62
occupation 62
optimistic 62
outright 62
parallel 62
phenomenon 62
politician 62
pre@@ 62
resilient 62
seeks 62
shortages 62
somehow 62
specifically 62
st@@ 62
35 61
Atlantic 61
Ethiopia 61
Koreans 61
Norway 61
Qatar 61
adjustments 61
anxiety 61
arguing 61
assess 61
avoiding 61
balances 61
bomb 61
command 61
communist 61
component 61
d 61
de-@@ 61
define 61
dictatorship 61
discuss 61
evident 61
experiences 61
foundations 61
involving 61
judge 61
le@@ 61
looked 61
notably 61
outbreak 61
prevention 61
ra@@ 61
removed 61
revival 61
seats 61
secondary 61
struck 61
stuck 61
student 61
telling 61
transportation 61
version 61
wellbeing 61
Forum 60
In@@ 60
Jerusalem 60
Pacific 60
SDGs 60
abandoned 60
advisers 60
al-Assad 60
anger 60
at@@ 60
constant 60
cooperative 60
criteria 60
delivery 60
directed 60
embraced 60
expenditure 60
fit 60
greenhouse-gas 60
integrate 60
intervene 60
lenders 60
maybe 60
optimism 60
pharmaceutical 60
projected 60
providers 60
quick 60
reconciliation 60
reinforce 60
represented 60
sensitive 60
slightly 60
spur 60
stated 60
tightening 60
unilateral 60
virus 60
worker 60
24 59
6@@ 59
Angela 59
Big 59
David 59
Northern 59
Rights 59
S 59
absolute 59
accountable 59
ap@@ 59
blamed 59
bo@@ 59
breaking 59
concentrated 59
congressional 59
dynamics 59
exporters 59
extensive 59
finances 59
fix 59
indicate 59
lend 59
modernization 59
mounting 59
numerous 59
preparing 59
procedures 59
read 59
realities 59
requiring 59
sectarian 59
serving 59
testing 59
weather 59
2002 58
Berlin 58
Cuba 58
Deng 58
Keynesian 58
abuses 58
accession 58
attitude 58
bargaining 58
bid 58
breakthrough 58
camp 58
chosen 58
coherent 58
committee 58
conclude 58
consideration 58
considerations 58
contemporary 58
contributing 58
crop 58
demanded 58
denied 58
dominate 58
enjoyed 58
expansionary 58
famous 58
findings 58
flight 58
implying 58
inability 58
inspired 58
interested 58
justified 58
kill 58
popularity 58
purchasing 58
reflecting 58
suicide 58
threshold 58
2.5 57
300 57
7@@ 57
Copenhagen 57
Kurds 57
Switzerland 57
Times 57
accurate 57
adding 57
anniversary 57
ant 57
applications 57
assumptions 57
bridge 57
code 57
confident 57
cope 57
cycles 57
ded 57
differently 57
diplomats 57
enlargement 57
explained 57
eye 57
flawed 57
fresh 57
gaps 57
ge@@ 57
lay 57
liberty 57
marriage 57
medicine 57
method 57
obtain 57
prevented 57
propaganda 57
realized 57
repeated 57
sites 57
slowing 57
socially 57
steady 57
targeting 57
visible 57
65 56
Ahmadinejad 56
Burma 56
Constitution 56
Peace 56
Summit 56
acquire 56
agency 56
ages 56
animal 56
art 56
asking 56
aspects 56
automation 56
b 56
cells 56
components 56
creditor 56
dark 56
delivering 56
disastrous 56
disorder 56
disruption 56
ds 56
el@@ 56
eliminated 56
ent 56
explains 56
favored 56
fossil-fuel 56
giant 56
greenhouse 56
monetary-policy 56
mutually 56
permit 56
preferences 56
psychological 56
quest 56
ratings 56
reduces 56
relies 56
shifted 56
street 56
suit 56
ti@@ 56
toxic 56
unrest 56
upcoming 56
Abbas 55
Arabs 55
announcement 55
autonomy 55
career 55
chain 55
choosing 55
competitors 55
crash 55
defending 55
deny 55
deposits 55
desirable 55
enemy 55
eventual 55
expenditures 55
formed 55
freely 55
frequent 55
generous 55
isolated 55
les 55
loan 55
maximize 55
mix 55
mo@@ 55
mortality 55
multinational 55
naturally 55
p 55
precedent 55
pride 55
prior 55
privacy 55
professionals 55
rival 55
slowed 55
sphere 55
spring 55
steadily 55
temptation 55
translate 55
volatile 55
y-@@ 55
yen 55
Afghan 54
Ch@@ 54
Chávez 54
arguably 54
arise 54
arrangement 54
bu@@ 54
bureaucracy 54
cabinet 54
cast 54
challenged 54
co-@@ 54
cohesion 54
collection 54
desperate 54
determination 54
difficulty 54
disasters 54
enacted 54
enhanced 54
entering 54
erupted 54
farm 54
fashion 54
fish 54
ic 54
ine 54
informed 54
insecurity 54
judges 54
legally 54
ling 54
meat 54
obstacle 54
pensions 54
physics 54
prominent 54
saved 54
securing 54
sex 54
sh@@ 54
tactics 54
territories 54
u@@ 54
understandable 54
1960 53
Hitler 53
absorb 53
accounted 53
achievements 53
acted 53
adults 53
allocation 53
amid 53
appreciate 53
aspirations 53
begins 53
bit 53
campaigns 53
consume 53
courage 53
deserve 53
devoted 53
disparities 53
entry 53
half-century 53
hostile 53
influential 53
likelihood 53
lived 53
ly 53
multilateralism 53
produces 53
remarkably 53
representative 53
revive 53
roles 53
sees 53
serves 53
stabilizing 53
striking 53
waves 53
western 53
withdraw 53
21 52
Scotland 52
alliances 52
ancient 52
bias 52
bills 52
broke 52
ch 52
channels 52
closing 52
communications 52
cultures 52
desperately 52
distant 52
do@@ 52
doubts 52
evil 52
executives 52
explicit 52
familiar 52
frameworks 52
headed 52
heard 52
holdings 52
hostility 52
indispensable 52
introduction 52
investigation 52
minimize 52
occupied 52
odds 52
out@@ 52
pragmatic 52
prevailing 52
pull 52
pursuit 52
ran 52
seeing 52
settle 52
shaping 52
solid 52
straightforward 52
supports 52
temporarily 52
tobacco 52
transmission 52
treaties 52
unwilling 52
watch 52
Ebola 51
English 51
Fatah 51
Indians 51
Musharraf 51
Nixon 51
Partnership 51
Road 51
Rwanda 51
Somalia 51
Stalin 51
accelerating 51
ator 51
blocked 51
boundaries 51
catastrophic 51
civil-society 51
commodities 51
convince 51
convincing 51
declaration 51
declines 51
definition 51
donor 51
emphasize 51
empire 51
exacerbated 51
flaws 51
for@@ 51
forecast 51
forest 51
go@@ 51
hour 51
intention 51
livelihoods 51
lowest 51
margin 51
marginal 51
murder 51
nineteenth 51
nobody 51
orderly 51
panic 51
pledge 51
rating 51
rejection 51
relying 51
restored 51
revolutions 51
reward 51
scenarios 51
soil 51
suggesting 51
temperatures 51
tends 51
tens 51
ter 51
trained 51
transforming 51
vi@@ 51
warfare 51
write 51
1,000 50
1991 50
Act 50
An@@ 50
BRICS 50
Mar@@ 50
Mexican 50
Nazi 50
P 50
Ronald 50
Shanghai 50
Sri 50
We 50
bloc 50
character 50
civilization 50
comfortable 50
deployed 50
discovered 50
discussed 50
disruptive 50
electric 50
equilibrium 50
explicitly 50
exploit 50
fairly 50
feasible 50
frustration 50
genes 50
innocent 50
involves 50
joining 50
landing 50
lawyers 50
magnitude 50
newspaper 50
observed 50
oriented 50
periods 50
pledged 50
rare 50
redistribution 50
strikes 50
strongest 50
tomorrow 50
typical 50
45 49
Conference 49
Convention 49
Cup 49
Free 49
Human 49
Justice 49
Malaysia 49
Mao 49
Sharon 49
adaptation 49
administrative 49
advocate 49
captured 49
charged 49
cheaper 49
comparison 49
conservatives 49
constitute 49
criticized 49
destabilizing 49
deterrence 49
dire 49
distinguish 49
door 49
eliminating 49
existential 49
extending 49
fellow 49
fine 49
fishing 49
fought 49
fraction 49
grand 49
gross 49
he@@ 49
hear 49
ill 49
indicator 49
landscape 49
liabilities 49
liberals 49
listen 49
looming 49
manufacturers 49
medicines 49
medium 49
missiles 49
mood 49
north 49
occurring 49
owners 49
placing 49
post-war 49
predecessors 49
public-sector 49
rebels 49
regularly 49
reinforced 49
release 49
responding 49
returning 49
roots 49
selection 49
shortage 49
shrinking 49
si@@ 49
situations 49
skill 49
soaring 49
speaking 49
speculative 49
tasks 49
trajectory 49
tsunami 49
worrying 49
1997 48
26 48
Cyprus 48
Kennedy 48
PBOC 48
Sustainable 48
Ukrainian 48
acceptable 48
advancing 48
ambition 48
application 48
architecture 48
as@@ 48
bulk 48
bureaucratic 48
camps 48
concentration 48
constrained 48
curb 48
devaluation 48
draft 48
edge 48
enhancing 48
enthusiasm 48
ethics 48
excessively 48
experiment 48
extremist 48
finds 48
follows 48
forever 48
friendly 48
governed 48
grave 48
happiness 48
headlines 48
highlights 48
houses 48
images 48
ineffective 48
instrument 48
interpretation 48
irrelevant 48
ism 48
ity 48
legislative 48
mothers 48
outlook 48
peoples 48
perform 48
persist 48
player 48
polarization 48
prevail 48
raw 48
resolving 48
reversal 48
shaped 48
shed 48
significance 48
strict 48
supply-side 48
surface 48
tendency 48
toll 48
volume 48
wise 48
Berlusconi 47
Hollande 47
Industrial 47
Investment 47
Kyoto 47
Mo@@ 47
Romney 47
Rouhani 47
SDR 47
SOEs 47
Saudis 47
U@@ 47
accord 47
alter 47
beliefs 47
checks 47
colonial 47
comparable 47
demonstrations 47
drawing 47
enables 47
enterprise 47
exclusive 47
functions 47
grows 47
heat 47
ho@@ 47
hospitals 47
industrialization 47
initiated 47
lo@@ 47
long-run 47
losers 47
map 47
meantime 47
mortgages 47
nets 47
newspapers 47
normalization 47
ous 47
protesters 47
ratios 47
remote 47
seize 47
settlements 47
sight 47
sub@@ 47
tension 47
th 47
train 47
transatlantic 47
tremendous 47
triumph 47
unacceptable 47
undermines 47
unknown 47
unstable 47
virtual 47
winners 47
19 46
Bill 46
Energy 46
TV 46
acceptance 46
altogether 46
antibiotics 46
anticipated 46
biology 46
central-bank 46
confronted 46
cure 46
devices 46
distinction 46
distributed 46
dozens 46
dynamism 46
dysfunctional 46
ec@@ 46
epidemic 46
exchanges 46
feared 46
followers 46
forecasts 46
globalized 46
h 46
honor 46
imported 46
intense 46
investor 46
ists 46
knowing 46
lands 46
ministry 46
monitor 46
mother 46
norm 46
occurs 46
ought 46
precise 46
predictable 46
principal 46
privatization 46
prone 46
proud 46
refusal 46
regulated 46
safer 46
ships 46
skeptics 46
soared 46
speculation 46
spreading 46
struggles 46
successes 46
tariff 46
tide 46
tons 46
unexpected 46
unnecessary 46
urbanization 46
ves 46
younger 46
1970s 45
1992 45
23 45
Agency 45
Authority 45
Czech 45
Institute 45
Jong-un 45
Roosevelt 45
accepting 45
answers 45
applies 45
au@@ 45
citizen 45
confined 45
customs 45
deflationary 45
departure 45
deployment 45
duty 45
equipped 45
ex@@ 45
exacerbate 45
exclusively 45
exposure 45
f 45
fairness 45
focuses 45
football 45
fragmentation 45
friend 45
genuinely 45
hence 45
high-quality 45
honest 45
hundred 45
impunity 45
indicates 45
ingly 45
ings 45
insisted 45
interim 45
ir@@ 45
laid 45
liquid 45
love 45
medium-term 45
nationalists 45
nutrition 45
officers 45
origin 45
paralysis 45
polio 45
possibilities 45
preferred 45
protections 45
ranging 45
recall 45
recorded 45
regain 45
respected 45
rivals 45
signals 45
storm 45
supervision 45
symptoms 45
terrible 45
tied 45
tions 45
triggering 45
undertake 45
uphold 45
vacuum 45
value-added 45
ve 45
vicious 45
whenever 45
widening 45
x 45
&#91; 44
&#93; 44
-based 44
Apple 44
Foreign 44
Growth 44
Irish 44
Lanka 44
Ocean 44
Twitter 44
accomplished 44
accumulation 44
acknowledged 44
affects 44
aggressively 44
ance 44
appealing 44
approaching 44
arrest 44
attempted 44
brink 44
capability 44
collectively 44
commentators 44
complexity 44
connection 44
consent 44
contraction 44
cyclical 44
diminish 44
disagree 44
discontent 44
efficiently 44
encourages 44
entities 44
entrenched 44
escalation 44
hate 44
highlighted 44
illness 44
interesting 44
judicial 44
l 44
myriad 44
near-@@ 44
neighborhood 44
no@@ 44
orders 44
oversight 44
owned 44
preserving 44
prisoners 44
qualified 44
reasoning 44
reconstruction 44
refuse 44
respectively 44
routinely 44
sending 44
site 44
skeptical 44
sp@@ 44
st 44
stagnant 44
stakeholders 44
to-@@ 44
tolerance 44
tragic 44
treatments 44
unilaterally 44
vested 44
waters 44
&apos;re 43
1995 43
20@@ 43
8@@ 43
Churchill 43
Con@@ 43
Conservative 43
Earth 43
Iraqis 43
Morocco 43
Peninsula 43
acquired 43
adequately 43
admit 43
aggression 43
alism 43
ample 43
appointed 43
ard 43
balance-sheet 43
behave 43
blind 43
burdens 43
calm 43
carries 43
clinical 43
clout 43
cold 43
collateral 43
collect 43
college 43
compliance 43
counter-@@ 43
counterproductive 43
doubled 43
driver 43
ecosystem 43
employed 43
engaging 43
expectation 43
express 43
firmly 43
forests 43
grasp 43
harsh 43
high-income 43
il@@ 43
illiberal 43
ironically 43
lowering 43
median 43
minimal 43
miss 43
negotiators 43
note 43
obligation 43
outlets 43
outsiders 43
pro@@ 43
reasonably 43
receiving 43
reporting 43
roads 43
s-@@ 43
safeguard 43
schemes 43
silent 43
skepticism 43
surprised 43
surrounding 43
sustaining 43
tight 43
trip 43
underpinned 43
units 43
veto 43
visited 43
wife 43
ze 43
150 42
Army 42
De@@ 42
Doha 42
Francis 42
Ghana 42
Goals 42
Hillary 42
Roma 42
Sunnis 42
albeit 42
alleged 42
allocated 42
aspect 42
autocratic 42
bin 42
bought 42
catch 42
channel 42
commission 42
completed 42
construct 42
deadly 42
declare 42
diagnosis 42
dismissed 42
distrust 42
emerges 42
enduring 42
entails 42
evolutionary 42
excuse 42
expectancy 42
factory 42
farming 42
fighters 42
freedoms 42
govern 42
high-level 42
hot 42
id@@ 42
identities 42
immense 42
impede 42
inter@@ 42
judiciary 42
ked 42
lift 42
makers 42
mid-@@ 42
missed 42
mixed 42
negotiation 42
neighbor 42
pays 42
philosophy 42
plausible 42
premium 42
pundits 42
racial 42
regulate 42
repay 42
retail 42
ru@@ 42
scarce 42
stages 42
substitute 42
suffers 42
superior 42
surveys 42
suspicion 42
tempted 42
ul@@ 42
unclear 42
unified 42
vice 42
villages 42
voices 42
wall 42
window 42
zones 42
.@@ 41
1930s 41
9@@ 41
Ali 41
B 41
CCP 41
DNA 41
First 41
Lisbon 41
Medvedev 41
absent 41
angry 41
arrested 41
benefiting 41
benign 41
bureaucrats 41
ca@@ 41
carrying 41
cell 41
closest 41
composition 41
conservation 41
countless 41
d-@@ 41
decisively 41
defeated 41
degradation 41
demonstrates 41
depending 41
deregulation 41
diminished 41
discourse 41
discovery 41
disintegration 41
distortions 41
distress 41
dying 41
earned 41
empower 41
enact 41
entity 41
exceed 41
famously 41
five-year 41
fluctuations 41
fragmented 41
haven 41
hedge 41
hegemony 41
hire 41
hoped 41
ice 41
ig@@ 41
implicit 41
impression 41
inputs 41
journalism 41
letter 41
logical 41
long-@@ 41
maritime 41
medium-size 41
mired 41
misguided 41
multi-@@ 41
normally 41
op@@ 41
overwhelmingly 41
patent 41
premature 41
promoted 41
pure 41
purely 41
reading 41
res 41
rewards 41
routine 41
run-up 41
secured 41
shadow 41
sheet 41
sit 41
solving 41
store 41
strain 41
te@@ 41
thrive 41
timing 41
traffic 41
tribal 41
watching 41
weapon 41
Bernanke 40
Board 40
E 40
King 40
Lehman 40
NPT 40
Park 40
Paul 40
Tibet 40
Viktor 40
alive 40
association 40
attacked 40
bloody 40
bombing 40
boosted 40
burning 40
calculations 40
centralized 40
combine 40
condemned 40
controlling 40
conviction 40
damaged 40
deleveraging 40
democratically 40
destroying 40
disproportionately 40
drag 40
drivers 40
earth 40
emphasized 40
engineers 40
exclusion 40
facilitating 40
factories 40
fe@@ 40
film 40
forgotten 40
founded 40
gathering 40
grant 40
grievances 40
hidden 40
hiring 40
inequalities 40
infected 40
infectious 40
insurgency 40
irresponsible 40
izing 40
justification 40
lender 40
lifting 40
located 40
militants 40
notwithstanding 40
ocean 40
officially 40
partisan 40
performed 40
phone 40
poll 40
profession 40
profitable 40
proof 40
punish 40
rebuild 40
recognizes 40
representation 40
resentment 40
separation 40
shale 40
ship 40
sovereign-debt 40
spiral 40
spurred 40
ten-year 40
th@@ 40
topic 40
vary 40
violations 40
w 40
warnings 40
wild 40
1.@@ 39
Brothers 39
Change 39
Davos 39
Hussein 39
NGOs 39
Peru 39
Policy 39
Power 39
Yanukovych 39
anemic 39
ballot 39
basket 39
beneficiaries 39
capitalist 39
check 39
compensate 39
contagion 39
debt-@@ 39
deemed 39
deepen 39
disarmament 39
distinct 39
drove 39
educate 39
el 39
ent@@ 39
erosion 39
ev@@ 39
evolved 39
excluded 39
expert 39
facility 39
filled 39
foreseeable 39
games 39
giants 39
gu@@ 39
guided 39
harmful 39
high-tech 39
ia 39
intensity 39
lately 39
liberties 39
low-@@ 39
mainland 39
miles 39
ne@@ 39
ot@@ 39
overseas 39
par@@ 39
post 39
punishment 39
repair 39
richest 39
sadly 39
savers 39
shortcomings 39
shot 39
solely 39
starts 39
subjects 39
suspect 39
systematic 39
teams 39
theoretical 39
tion 39
tive 39
trafficking 39
transnational 39
underground 39
ver@@ 39
voluntary 39
zing 39
1993 38
19@@ 38
34 38
Algeria 38
Ar@@ 38
Brazilian 38
Chairman 38
Congressional 38
Day 38
Harvard 38
Israeli-Palestinian 38
Le@@ 38
League 38
M 38
Me@@ 38
Office 38
Square 38
accumulated 38
adjusted 38
alarming 38
article 38
assault 38
bar@@ 38
bet 38
bombs 38
box 38
centered 38
combating 38
compact 38
comparative 38
compare 38
deciding 38
depressed 38
differ 38
dimension 38
disagreements 38
ecosystems 38
empowered 38
ence 38
endless 38
entitled 38
fake 38
feelings 38
formally 38
fostering 38
gases 38
government-@@ 38
handle 38
ies 38
ignoring 38
inaction 38
incomplete 38
intentions 38
interconnected 38
lacked 38
launching 38
migrant 38
misleading 38
ms 38
notable 38
novel 38
ors 38
ou@@ 38
overly 38
paradigm 38
participating 38
plight 38
proponents 38
protracted 38
quarters 38
reforming 38
reinforcing 38
reportedly 38
restraint 38
retreat 38
rice 38
robots 38
sake 38
scrutiny 38
seized 38
soccer 38
spectrum 38
split 38
spoke 38
stabilization 38
stations 38
stems 38
storage 38
suppliers 38
teaching 38
theories 38
tic 38
traditions 38
troubled 38
underestimated 38
understands 38
versus 38
walk 38
writing 38
zed 38
1950 37
1998 37
400 37
Arafat 37
Charter 37
DC 37
Draghi 37
Finland 37
Gandhi 37
Greenspan 37
NAFTA 37
Tokyo 37
Yeltsin 37
accomplish 37
admitted 37
bed 37
biodiversity 37
biological 37
breakdown 37
buildings 37
car@@ 37
cautious 37
com@@ 37
complacency 37
confirmed 37
contained 37
creativity 37
criminals 37
crude 37
dangerously 37
daunting 37
display 37
disproportionate 37
dozen 37
du@@ 37
elderly 37
emotional 37
ens 37
entrepreneurship 37
er-@@ 37
error 37
es@@ 37
experiments 37
flowing 37
founding 37
gra@@ 37
hoping 37
hospital 37
imbalance 37
industrialized 37
injustice 37
ins 37
irrational 37
ized 37
lifted 37
likes 37
marks 37
object 37
offices 37
om@@ 37
perfectly 37
po@@ 37
postwar 37
presumably 37
privileged 37
proceed 37
projections 37
promotion 37
reconcile 37
ren@@ 37
replacing 37
revised 37
silence 37
symbolic 37
technocratic 37
tenure 37
ters 37
thinks 37
to@@ 37
town 37
tradable 37
traders 37
undertaken 37
urge 37
ve@@ 37
vehicle 37
victim 37
vis-à-vis 37
1945 36
1994 36
1996 36
2025 36
Arctic 36
Balkans 36
Bretton 36
Christians 36
Di@@ 36
Hu 36
Juncker 36
Kerry 36
Nicolas 36
Orbán 36
Thaksin 36
Tony 36
US-led 36
Un@@ 36
abandoning 36
addresses 36
ality 36
anticipate 36
applying 36
arrive 36
assessing 36
attracted 36
authors 36
automatically 36
avert 36
behalf 36
bi@@ 36
card 36
certainty 36
champion 36
cognitive 36
conclusions 36
declaring 36
defining 36
democratization 36
demonstrating 36
describe 36
disappeared 36
distance 36
embedded 36
embracing 36
empty 36
equitable 36
erode 36
favors 36
fifth 36
forge 36
genocide 36
graduates 36
guidance 36
ic@@ 36
immune 36
inherent 36
intensive 36
keen 36
locked 36
low-cost 36
loyalty 36
maintains 36
marginalized 36
maximum 36
meltdown 36
mess 36
mining 36
mobilized 36
non@@ 36
notes 36
os 36
overcoming 36
overnight 36
pe@@ 36
possess 36
propose 36
recessions 36
recommendations 36
reference 36
renewables 36
rests 36
rethink 36
reveals 36
sacrifice 36
ses 36
spends 36
stark 36
stemming 36
techniques 36
temperature 36
tested 36
tiny 36
troubling 36
under-@@ 36
underscores 36
unit 36
unpredictable 36
urgency 36
vague 36
whereby 36
wins 36
worries 36
85 35
Alliance 35
Center 35
Delhi 35
Laden 35
Law 35
Ma@@ 35
Moon 35
Olympic 35
Pro@@ 35
T 35
absurd 35
accident 35
actor 35
agendas 35
appearance 35
appreciated 35
attend 35
attraction 35
audience 35
bargain 35
bears 35
believing 35
ble 35
boards 35
borrowed 35
can@@ 35
childhood 35
clients 35
coalitions 35
consolidate 35
constitutes 35
coordinate 35
cost-effective 35
degrees 35
devise 35
diminishing 35
doors 35
durable 35
eat 35
ed@@ 35
elimination 35
escalating 35
exporting 35
financially 35
fl@@ 35
free-market 35
gene 35
hike 35
ically 35
impoverished 35
incumbent 35
ing@@ 35
interference 35
issuing 35
limitations 35
ma@@ 35
music 35
ner 35
operational 35
opposing 35
ordered 35
paradox 35
perceptions 35
phones 35
practically 35
predecessor 35
pretty 35
preventive 35
probability 35
reckless 35
recovered 35
reminder 35
renewal 35
representing 35
request 35
scene 35
seat 35
square 35
succession 35
suppose 35
tactical 35
tanks 35
thousand 35
two-@@ 35
utterly 35
venture 35
voter 35
wary 35
well-being 35
z 35
+ 34
250 34
29 34
AKP 34
Chen 34
Constitutional 34
Egyptians 34
Gates 34
Group 34
Gu@@ 34
Holocaust 34
Maduro 34
PiS 34
Recession 34
Robert 34
Secretary-General 34
Swiss 34
Uganda 34
Valley 34
WHO 34
Yugoslavia 34
advertising 34
alist 34
anti-corruption 34
arm 34
assert 34
automatic 34
back@@ 34
ban@@ 34
beings 34
bondholders 34
borne 34
brand 34
c 34
cap 34
ceiling 34
censorship 34
classic 34
committing 34
confirm 34
connections 34
counter@@ 34
crowd 34
detailed 34
dictator 34
dioxide 34
dismiss 34
displacement 34
domestically 34
downside 34
ecological 34
empirical 34
engines 34
enrichment 34
episode 34
euros 34
examine 34
exceptional 34
exploiting 34
fault 34
fired 34
fled 34
frustrated 34
generals 34
generates 34
har@@ 34
heightened 34
ideals 34
illusion 34
illustrates 34
implied 34
in-@@ 34
intellectuals 34
interdependence 34
invited 34
is@@ 34
islands 34
keeps 34
maintenance 34
man@@ 34
me@@ 34
merit 34
motivation 34
nuclear-armed 34
offensive 34
organizational 34
outflows 34
passing 34
permanently 34
pervasive 34
poised 34
pre-crisis 34
prevailed 34
professor 34
prudent 34
radically 34
refusing 34
rigid 34
rush 34
sc@@ 34
shut 34
sole 34
solved 34
spectacular 34
sports 34
spreads 34
stopping 34
struggled 34
taught 34
tougher 34
unite 34
unusual 34
village 34
vulnerabilities 34
1.3 33
10@@ 33
Asians 33
Association 33
Austria 33
Brown 33
Cambodia 33
Co@@ 33
Cooperation 33
F 33
God 33
IP 33
Iranians 33
Italians 33
Le 33
MDGs 33
Ministry 33
Nuclear 33
Qaddafi 33
Romania 33
Rome 33
Sh@@ 33
Tayyip 33
WWII 33
advocating 33
already-@@ 33
array 33
arrived 33
arsenal 33
attracting 33
baby 33
ber@@ 33
budgetary 33
caution 33
characteristics 33
comments 33
connect 33
connectivity 33
continental 33
corner 33
covered 33
debtor 33
deter 33
deterioration 33
determining 33
disagreement 33
disruptions 33
dividends 33
elect 33
employ 33
enlightened 33
episodes 33
errors 33
evolving 33
exceptions 33
extends 33
feels 33
fees 33
fires 33
flooding 33
ge 33
indigenous 33
insights 33
insistence 33
intends 33
intent 33
invariably 33
ke 33
ke@@ 33
liability 33
location 33
long-standing 33
luxury 33
master 33
naval 33
night 33
offshore 33
parity 33
per@@ 33
persuaded 33
portfolio 33
portion 33
positioned 33
provoke 33
proxy 33
public-health 33
r 33
rally 33
reap 33
remittances 33
repeat 33
resistant 33
reveal 33
satellite 33
scandal 33
select 33
shortfall 33
statistical 33
stick 33
studied 33
sugar 33
teach 33
technocrats 33
touch 33
transaction 33
trusted 33
turnout 33
ur@@ 33
welcomed 33
wherever 33
100,000 32
36 32
Bar@@ 32
Bolivia 32
En@@ 32
François 32
Lebanese 32
Lee 32
Libyan 32
Mahmoud 32
Mario 32
Recep 32
San 32
Stability 32
Third 32
Wen 32
Woods 32
academics 32
accusations 32
affair 32
aircraft 32
approximately 32
ary 32
assembly 32
attacking 32
attributed 32
barrel 32
boys 32
breaks 32
cards 32
center-left 32
ci@@ 32
civic 32
civilized 32
cliff 32
clo@@ 32
club 32
compatible 32
constraint 32
cre@@ 32
debt-to-GDP 32
debtors 32
den@@ 32
denial 32
deploy 32
derivatives 32
desired 32
deteriorating 32
diabetes 32
disappear 32
drives 32
em@@ 32
exceeded 32
fold 32
fraud 32
freeze 32
fruit 32
gi@@ 32
handful 32
highlight 32
hikes 32
id 32
identifying 32
imminent 32
inclined 32
indebted 32
induce 32
infection 32
influenced 32
initiate 32
invented 32
ite 32
journey 32
judging 32
luck 32
malnutrition 32
markedly 32
ment 32
midst 32
nation-state 32
ning 32
obesity 32
ously 32
owe 32
performing 32
perspectives 32
pick 32
pipeline 32
predictions 32
preference 32
prevents 32
profitability 32
quarter-century 32
quiet 32
rationale 32
react 32
reassuring 32
rebellion 32
recipe 32
regards 32
relied 32
replacement 32
requirement 32
respects 32
satisfy 32
succeeds 32
successive 32
sur@@ 32
towns 32
treating 32
tries 32
twenty-first-century 32
understandably 32
unequal 32
unification 32
unleashed 32
uranium 32
virtue 32
withdrawing 32
withstand 32
¥ 32
&apos;@@ 31
10,000 31
1914 31
5,000 31
Ad@@ 31
Annan 31
Australian 31
Belgium 31
Bosnia 31
Crisis 31
Declaration 31
Empire 31
Ex@@ 31
FDI 31
Foundation 31
Protocol 31
Roman 31
Scottish 31
Shinzo 31
Thatcher 31
a-@@ 31
ably 31
accessible 31
accommodate 31
agents 31
air@@ 31
ak@@ 31
akin 31
aligned 31
alized 31
ative 31
autonomous 31
bases 31
bipartisan 31
citizenship 31
clearer 31
climate-change 31
coastal 31
compromises 31
covering 31
crossed 31
demise 31
denying 31
deposit 31
depth 31
der 31
designing 31
dictators 31
disappointing 31
discourage 31
disrupt 31
distributional 31
emphasizes 31
energy-@@ 31
equ@@ 31
eradication 31
ery 31
expects 31
floor 31
frontier 31
fulfilling 31
gotten 31
governor 31
guidelines 31
healthier 31
helpful 31
hero 31
hungry 31
infections 31
inherited 31
insists 31
inspire 31
interaction 31
ist 31
kilometers 31
legislators 31
letting 31
linkages 31
malaise 31
mandatory 31
memories 31
morally 31
motives 31
municipal 31
navigate 31
nearby 31
organize 31
packages 31
pivot 31
pool 31
printing 31
province 31
records 31
rein 31
removing 31
resisted 31
ring 31
sale 31
scarcity 31
scores 31
sheer 31
smooth 31
speaks 31
statehood 31
steep 31
stores 31
subjected 31
symbol 31
tie 31
tolerate 31
ton 31
trees 31
two-state 31
undergoing 31
vibrant 31
violate 31
we@@ 31
-year 30
1,@@ 30
1.2 30
1.6 30
1960s 30
2019 30
3.5 30
37 30
800 30
Abenomics 30
Article 30
Asia-Pacific 30
Ayatollah 30
Be@@ 30
Church 30
Emmanuel 30
Finance 30
Games 30
Gordon 30
Haiti 30
Islands 30
Leader 30
Li 30
Li@@ 30
Microsoft 30
Mon@@ 30
Par@@ 30
Puerto 30
US-China 30
Web 30
abortion 30
allegations 30
allocate 30
amounted 30
arbitrary 30
aren 30
ba@@ 30
bailouts 30
blocking 30
burst 30
buyers 30
capital-account 30
cha@@ 30
ching 30
clinics 30
coast 30
concerted 30
containment 30
contest 30
contradictory 30
despair 30
destabilize 30
destination 30
discredited 30
disposal 30
diversify 30
dubious 30
endorsed 30
environmentally 30
equities 30
ering 30
exceeds 30
executed 30
exploitation 30
explosive 30
extension 30
farms 30
fi@@ 30
finished 30
firing 30
formidable 30
formula 30
ging 30
guess 30
heed 30
il 30
illnesses 30
immigrant 30
incident 30
influx 30
interact 30
items 30
judged 30
labor-intensive 30
ler 30
lest 30
lu@@ 30
maneuver 30
margins 30
market-based 30
militias 30
miracle 30
mistrust 30
ned 30
ob@@ 30
pact 30
parliaments 30
peripheral 30
permitted 30
personnel 30
phrase 30
piece 30
plummeted 30
pockets 30
postpone 30
pound 30
pressed 30
professors 30
provinces 30
quotas 30
radio 30
render 30
revealing 30
safeguards 30
sanitation 30
scientist 30
self-interest 30
slows 30
spurring 30
stimulating 30
stock-market 30
strange 30
sts 30
sum 30
superpower 30
swept 30
tackling 30
thin 30
tighten 30
torture 30
transitions 30
trapped 30
tu@@ 30
ty-@@ 30
undertaking 30
upgrading 30
upper 30
vastly 30
wasn 30
wasted 30
winner 30
witnessing 30
worsening 30
worthy 30
wouldn 30
° 30
16@@ 29
1981 29
Action 29
Age 29
BJP 29
Baghdad 29
Chief 29
Economy 29
Eurobonds 29
Lo@@ 29
Maastricht 29
Millennium 29
Piketty 29
Prize 29
Sinai 29
Strategy 29
accustomed 29
activist 29
advocated 29
affluent 29
ambassador 29
appeals 29
arises 29
ars 29
availability 29
banned 29
casualties 29
ched 29
clarity 29
clash 29
collapsing 29
comfort 29
comprise 29
continuous 29
conversation 29
cushion 29
decrease 29
deepened 29
deficiencies 29
deliberately 29
democrats 29
dimensions 29
distribute 29
disturbing 29
doubling 29
electronic 29
emphasizing 29
end@@ 29
enters 29
excellent 29
explanations 29
explosion 29
fa@@ 29
facilitated 29
fallout 29
feedback 29
fo@@ 29
foods 29
forefront 29
formation 29
gather 29
ged 29
geography 29
grip 29
habits 29
harness 29
hatred 29
herself 29
hide 29
impeding 29
improves 29
indication 29
intelligent 29
interpreted 29
iron 29
irony 29
linking 29
married 29
masses 29
mindset 29
minor 29
missions 29
named 29
neglected 29
ness 29
non-state 29
notice 29
nurture 29
occasion 29
opaque 29
panel 29
paradoxically 29
partial 29
penalty 29
pillars 29
presents 29
privately 29
profoundly 29
public-private 29
racism 29
rampant 29
reaches 29
reacted 29
realization 29
realizing 29
rec@@ 29
receives 29
referred 29
rejecting 29
reluctance 29
resolutions 29
restricted 29
restricting 29
rigorous 29
scheduled 29
schooling 29
sciences 29
seeds 29
settled 29
shouldn 29
signaled 29
socialist 29
staggering 29
star 29
strengths 29
sub-prime 29
subsidy 29
susceptible 29
talents 29
tells 29
the@@ 29
tighter 29
trillions 29
violation 29
zes 29
2.7 28
31 28
Belt 28
Calderón 28
Catholic 28
Chirac 28
Green 28
High 28
Hindu 28
Hungarian 28
ICT 28
IPCC 28
Initiative 28
Johnson 28
Mali 28
O 28
Report 28
River 28
Seoul 28
Silicon 28
Smith 28
St@@ 28
Syrians 28
TTIP 28
Vice 28
X@@ 28
abundant 28
activism 28
afraid 28
ali@@ 28
ants 28
anytime 28
appointment 28
ari@@ 28
assumes 28
authoritarianism 28
bearing 28
bli@@ 28
booming 28
brief 28
bust 28
campaigning 28
capacities 28
category 28
chairman 28
civilizations 28
counterpart 28
crisis-@@ 28
cumulative 28
delayed 28
deliberate 28
deserves 28
developing-country 28
dictatorships 28
dirty 28
divergence 28
dose 28
dreams 28
duties 28
earning 28
earthquake 28
emotions 28
enforced 28
ensures 28
entail 28
eroded 28
evasion 28
evolve 28
exercises 28
expressing 28
fac@@ 28
forecasting 28
forth 28
fortune 28
futures 28
golden 28
grants 28
hardship 28
height 28
hoc 28
ills 28
imposes 28
incapable 28
indefinitely 28
ines 28
ing-@@ 28
insight 28
integrating 28
intensifying 28
intervening 28
irreversible 28
judgments 28
lag 28
lasted 28
laureate 28
manufactured 28
marketing 28
maternal 28
mentioned 28
modernity 28
needless 28
neutral 28
ni@@ 28
ong 28
optimal 28
originally 28
picked 28
picking 28
polarized 28
post-crisis 28
predicament 28
producer 28
pronounced 28
proposition 28
ps 28
psychology 28
rage 28
rebel 28
removal 28
repeal 28
reporters 28
rules-based 28
safely 28
satisfied 28
sing 28
sitting 28
smoking 28
so@@ 28
spike 28
subsequently 28
subsidiaries 28
substance 28
suspended 28
te 28
uncertainties 28
unsurprisingly 28
vaccination 28
visits 28
walls 28
ying 28
zero-sum 28
-led 27
0.5 27
1.8 27
38 27
AIIB 27
Basel 27
Ben 27
CEO 27
Cairo 27
Caribbean 27
Darfur 27
Education 27
G-8 27
Geneva 27
Gorbachev 27
Kashmir 27
Labor 27
NCDs 27
One 27
Oslo 27
Poles 27
Pope 27
Red 27
Sa@@ 27
Silk 27
Summers 27
Thai 27
achievable 27
ads 27
adult 27
al-Qaeda 27
align 27
alize 27
anchor 27
anti@@ 27
assertive 27
ati@@ 27
atory 27
automated 27
ballistic 27
blaming 27
bri@@ 27
careers 27
cited 27
condemn 27
considers 27
coupled 27
crowded 27
daughter 27
dec@@ 27
deforestation 27
developers 27
devote 27
diffusion 27
disadvantaged 27
diversification 27
domain 27
doomed 27
dri@@ 27
east 27
emulate 27
enrollment 27
environments 27
explore 27
factions 27
fatal 27
favorite 27
feet 27
fertility 27
ff@@ 27
first-@@ 27
fixing 27
flood 27
fore@@ 27
forming 27
freer 27
gay 27
grim 27
headquarters 27
holders 27
ignorance 27
imagined 27
immunization 27
imprisoned 27
inherently 27
intensify 27
internally 27
interpret 27
lethal 27
lowered 27
manageable 27
massacre 27
militarily 27
mismanagement 27
morality 27
much-needed 27
necessity 27
nervous 27
nineteenth-century 27
nomination 27
one-@@ 27
orthodoxy 27
outrage 27
outset 27
pessimistic 27
pillar 27
pledges 27
port 27
prediction 27
pretend 27
prize 27
provoked 27
public-@@ 27
qu@@ 27
quantity 27
reactor 27
rebuilding 27
reflection 27
restrict 27
ry 27
salaries 27
segments 27
sky 27
sluggish 27
social-welfare 27
spot 27
stressed 27
stringent 27
substantive 27
survived 27
tangible 27
ten@@ 27
tendencies 27
ter@@ 27
tes 27
timely 27
ultra-@@ 27
um 27
universe 27
ving 27
vowed 27
wa@@ 27
worsen 27
x@@ 27
é 27
1967 26
33 26
Abu 26
Agenda 26
Al@@ 26
Britons 26
Business 26
CEOs 26
Canadian 26
Chicago 26
Costa 26
Cypriot 26
El 26
He@@ 26
Krugman 26
Madrid 26
News 26
Premier 26
Q@@ 26
Round 26
School 26
Singh 26
Turks 26
Ukrainians 26
Venezuelan 26
Yellen 26
accumulate 26
advised 26
aged 26
agent 26
alcohol 26
alizing 26
amendment 26
an-@@ 26
analytical 26
and@@ 26
anti-Semitism 26
anyway 26
arising 26
artificially 26
assessments 26
bar 26
besides 26
bitter 26
blessing 26
breakup 26
breast 26
brutality 26
celebrate 26
cement 26
champions 26
collected 26
communicate 26
compassion 26
compel 26
compromised 26
contact 26
contains 26
correction 26
cra@@ 26
cu@@ 26
da 26
dedicated 26
defines 26
dictate 26
director 26
discoveries 26
discussing 26
drain 26
drama 26
drinking 26
drone 26
enti@@ 26
ever-@@ 26
export-led 26
exporter 26
expose 26
fastest 26
flourish 26
four-@@ 26
fronts 26
gener@@ 26
globe 26
guard 26
guns 26
handed 26
hard-@@ 26
hardline 26
historians 26
horizon 26
imagination 26
imp@@ 26
implication 26
indicated 26
insisting 26
inter-@@ 26
interactions 26
introducing 26
investigations 26
jeopardize 26
leap 26
listening 26
literally 26
lobbying 26
lows 26
lucky 26
marine 26
market-oriented 26
materialize 26
micro@@ 26
mobilizing 26
namely 26
names 26
narratives 26
neglect 26
newcomers 26
ns 26
obsolete 26
oligarchs 26
operates 26
outdated 26
overlooked 26
pa@@ 26
perceive 26
plus 26
ports 26
prerequisite 26
print 26
profile 26
prohibited 26
prompted 26
proving 26
pu@@ 26
readily 26
recommended 26
reformist 26
reunification 26
reviews 26
rises 26
robotics 26
roll 26
sa@@ 26
secession 26
shing 26
shrink 26
sick 26
signaling 26
similarities 26
slogan 26
socialism 26
staying 26
studying 26
su@@ 26
switch 26
thriving 26
thrown 26
tissue 26
turbulence 26
uncomfortable 26
underpins 26
unintended 26
unpopular 26
unresolved 26
updated 26
warm 26
working-age 26
working-class 26
# 25
.... 25
0@@ 25
1986 25
32 25
59 25
Affairs 25
Amazon 25
Bitcoin 25
Bo@@ 25
Brexiteers 25
G 25
Greeks 25
Jazeera 25
Kazakhstan 25
L 25
Leave 25
Marx 25
McCain 25
Moldova 25
Per@@ 25
Representatives 25
Research 25
Sanders 25
Senator 25
Socialist 25
Xiaoping 25
adapted 25
adhere 25
ah 25
annexation 25
anxious 25
approve 25
assassination 25
ators 25
author 25
breakthroughs 25
calculated 25
capitalize 25
categories 25
centrist 25
codes 25
complaints 25
complementary 25
comply 25
concepts 25
criticize 25
crucially 25
debacle 25
decision-makers 25
decreased 25
dependency 25
depressing 25
deterrent 25
diaspora 25
directions 25
discount 25
distorted 25
divorce 25
doctor 25
drastic 25
drought 25
droughts 25
dry 25
eating 25
ef@@ 25
elusive 25
embargo 25
empowering 25
empowerment 25
endured 25
enjoys 25
enormously 25
evaluate 25
everybody 25
exclude 25
execution 25
exemplified 25
exhausted 25
fed 25
flag 25
geographical 25
grid 25
handling 25
heading 25
her@@ 25
higher-@@ 25
homeowners 25
hostage 25
ian 25
ical 25
identical 25
incremental 25
incurred 25
indirect 25
indirectly 25
inhabitants 25
insolvency 25
inspiration 25
invaded 25
inward 25
jurisdiction 25
jurisdictions 25
ka 25
ker 25
labor-force 25
left-wing 25
liberalism 25
lobby 25
locally 25
loose 25
lower-income 25
meddling 25
messages 25
mine 25
minutes 25
moderates 25
monthly 25
myself 25
myth 25
non-proliferation 25
obliged 25
obsession 25
ol@@ 25
opinions 25
organic 25
patents 25
patience 25
persists 25
personality 25
persons 25
pessimists 25
precarious 25
preoccupied 25
privileges 25
proceeds 25
properties 25
questioning 25
radicals 25
reactions 25
readers 25
real-world 25
realism 25
reassure 25
reformers 25
relevance 25
residential 25
resigned 25
respective 25
revelations 25
reversing 25
revived 25
reviving 25
revolt 25
ride 25
rivalry 25
satisfaction 25
scholars 25
score 25
screening 25
second-largest 25
sed 25
selected 25
self-fulfilling 25
settings 25
shareholder 25
slack 25
slump 25
sounds 25
spoken 25
ste@@ 25
stepped 25
strains 25
stream 25
super@@ 25
supervisory 25
suppress 25
three-quarters 25
tip 25
tone 25
tor 25
ty 25
unavoidable 25
underpin 25
unrealistic 25
uprising 25
urged 25
v 25
varieties 25
video 25
viewing 25
violated 25
well-functioning 25
&apos;ve 24
0.@@ 24
1.7 24
1929 24
1971 24
1973 24
3,000 24
63 24
95 24
FIFA 24
Food 24
Friedman 24
Future 24
IT 24
Is 24
Khrushchev 24
Liu 24
Maynard 24
Mikhail 24
Mohamed 24
Morales 24
Mumbai 24
No 24
Obamacare 24
Olympics 24
Richard 24
Rico 24
Royal 24
SDG 24
Uruguay 24
Zimbabwe 24
accidents 24
acquisition 24
ade 24
algorithms 24
allegedly 24
ang 24
ang@@ 24
apparatus 24
appetite 24
appoint 24
att@@ 24
augment 24
autocrats 24
av@@ 24
awarded 24
ay@@ 24
bankrupt 24
battles 24
behavioral 24
benchmark 24
brother 24
calculation 24
ceasefire 24
channeled 24
che@@ 24
collapses 24
color 24
compelled 24
complained 24
compound 24
connecting 24
constituencies 24
contempt 24
counted 24
courses 24
cru@@ 24
deb@@ 24
decentralized 24
defaults 24
deputy 24
designs 24
detect 24
diagnosed 24
disadvantage 24
document 24
endangered 24
enjoying 24
ently 24
eroding 24
exaggerated 24
excesses 24
exert 24
existed 24
explaining 24
exploring 24
extract 24
fast-growing 24
financial-market 24
fleeing 24
floods 24
footing 24
fre@@ 24
grab 24
hegemonic 24
hi@@ 24
ideally 24
inconsistent 24
indifference 24
insurgents 24
interview 24
invisible 24
ited 24
kes 24
know-how 24
liberation 24
lifestyle 24
lifetime 24
listed 24
longstanding 24
manipulating 24
measuring 24
mitigating 24
modernize 24
mon@@ 24
motion 24
multiplier 24
narrowly 24
native 24
oceans 24
opted 24
optimists 24
organisms 24
origins 24
ostensibly 24
overhang 24
paths 24
percent 24
pi@@ 24
pointing 24
polling 24
portfolios 24
posing 24
posts 24
precautionary 24
preceded 24
precious 24
priced 24
proclaimed 24
procurement 24
proposing 24
provincial 24
proximity 24
pulling 24
purchased 24
qualify 24
quantities 24
ranking 24
ratified 24
rebound 24
recipient 24
reformed 24
rejects 24
reminded 24
respondents 24
restructure 24
scandals 24
seldom 24
sensitivity 24
sentence 24
sentiments 24
societal 24
sorts 24
specialized 24
speculators 24
stars 24
strategically 24
subsidized 24
sums 24
sun 24
supplied 24
supportive 24
swap 24
sweeping 24
swift 24
symbols 24
symptom 24
systematically 24
ta@@ 24
tended 24
textbook 24
textbooks 24
therapy 24
thoroughly 24
tors 24
totally 24
tra@@ 24
traded 24
underscore 24
unfortunate 24
upheaval 24
upholding 24
useless 24
valid 24
violating 24
weigh 24
winter 24
witnessed 24
writer 24
1.4 23
1982 23
2,000 23
42 23
43 23
62 23
700 23
AMR 23
Americas 23
Caucasus 23
Celsius 23
Cha@@ 23
Charles 23
Christmas 23
Cor@@ 23
Cuban 23
Franklin 23
Gaulle 23
Gazprom 23
Goldman 23
Henry 23
Ju@@ 23
KGB 23
Lula 23
Nepal 23
Nor@@ 23
OPEC 23
Ottoman 23
Pen 23
Ra@@ 23
Sha@@ 23
Shi 23
Shiite 23
Southern 23
Swedish 23
Tiananmen 23
Zhou 23
adds 23
ades 23
advancement 23
adversaries 23
af@@ 23
ak 23
alists 23
all-@@ 23
all@@ 23
allied 23
and-@@ 23
arrival 23
atomic 23
ats 23
auto 23
avoidance 23
belt 23
bleak 23
bolstering 23
booms 23
broadband 23
capital-@@ 23
center-right 23
chi@@ 23
chooses 23
competent 23
compounded 23
comprises 23
concentrate 23
confused 23
containing 23
contentious 23
correlation 23
countering 23
counts 23
crackdown 23
credits 23
cryptocurrencies 23
da@@ 23
defended 23
defenders 23
denuclearization 23
dered 23
ders 23
destiny 23
directors 23
disappointed 23
discouraged 23
discouraging 23
dismal 23
disputed 23
dividing 23
divisive 23
duration 23
entrepreneurial 23
essence 23
est 23
est@@ 23
et 23
exp@@ 23
exploration 23
exported 23
fertile 23
fever 23
fierce 23
fits 23
flat 23
floating 23
foolish 23
foot 23
forged 23
ful 23
governors 23
greed 23
guiding 23
hardest 23
hearts 23
heated 23
heating 23
heritage 23
hosted 23
humiliation 23
hyper-@@ 23
impasse 23
imposition 23
incompatible 23
inner 23
interfere 23
iz@@ 23
ization 23
lags 23
languages 23
laying 23
livestock 23
locations 23
lofty 23
lucrative 23
manipulated 23
mistaken 23
mobilization 23
movie 23
multinationals 23
multipolar 23
nominee 23
o-@@ 23
one-fifth 23
orientation 23
outbreaks 23
outweigh 23
overlook 23
overthrow 23
passive 23
persistence 23
personally 23
pipelines 23
plagued 23
plot 23
post-Cold 23
potent 23
pri@@ 23
pro-European 23
proceedings 23
processing 23
prohibition 23
publication 23
punitive 23
reactors 23
recipients 23
rendered 23
responsive 23
revise 23
riots 23
risking 23
signing 23
soul 23
sport 23
squandered 23
storms 23
strife 23
super-@@ 23
surging 23
suspected 23
swaps 23
talented 23
tax-@@ 23
technically 23
tering 23
theirs 23
thinkers 23
traction 23
translated 23
troubles 23
unhappy 23
unlimited 23
valuations 23
victories 23
virtuous 23
visions 23
wartime 23
wing 23
wishes 23
witness 23
world-class 23
worldview 23
é@@ 23
-- 22
160 22
1972 22
2000s 22
44 22
50,000 22
Area 22
Au@@ 22
Binyamin 22
Bulgaria 22
CIA 22
Catholics 22
Colombian 22
Consensus 22
Dodd-Frank 22
Ecuador 22
Freedom 22
GNP 22
Guantánamo 22
Har@@ 22
JCPOA 22
James 22
Koizumi 22
Leone 22
Mandela 22
Nicaragua 22
Pact 22
Review 22
Rohingya 22
Sch@@ 22
Sharif 22
Sierra 22
Theresa 22
Uber 22
We@@ 22
Zealand 22
acknowledging 22
addiction 22
agreeing 22
ana 22
anti-establishment 22
arsenals 22
assertion 22
assured 22
ast@@ 22
asylum-seekers 22
bail 22
balancing 22
behaviors 22
believers 22
betting 22
biased 22
blueprint 22
branch 22
bridges 22
brilliant 22
broad-based 22
broaden 22
busy 22
championed 22
ches 22
childcare 22
conditionality 22
confronts 22
conscious 22
constituents 22
consumed 22
contradictions 22
cor@@ 22
correctly 22
cosmopolitan 22
dates 22
debated 22
defensive 22
depositors 22
describes 22
devastation 22
device 22
diagnostic 22
dic@@ 22
disciplines 22
discover 22
divert 22
documented 22
double-digit 22
emission 22
entertainment 22
evaluation 22
eve 22
evidently 22
exacerbating 22
examined 22
exceptionally 22
expands 22
extraction 22
fans 22
fearful 22
feat 22
forging 22
fu@@ 22
fulfilled 22
ges 22
gravity 22
guaranteeing 22
guilt 22
half-@@ 22
han@@ 22
hardliners 22
havens 22
hosting 22
illicit 22
imprisonment 22
incidents 22
indifferent 22
inflicted 22
innovators 22
invention 22
investigate 22
jihadists 22
ju@@ 22
lawmakers 22
length 22
like-minded 22
lists 22
literature 22
maximizing 22
mega-@@ 22
metrics 22
mild 22
ministries 22
mitigation 22
moderation 22
moments 22
neo-@@ 22
notoriously 22
objections 22
obscure 22
obtained 22
occasionally 22
outsize 22
outstanding 22
peaked 22
peril 22
persecution 22
pessimism 22
plunged 22
portrayed 22
post-World 22
predictably 22
premiums 22
prescription 22
proactive 22
prop 22
pulled 22
qualities 22
rail 22
rated 22
refuses 22
registered 22
remedies 22
repressive 22
reproductive 22
resign 22
responsibly 22
restoration 22
restrictive 22
rid 22
riding 22
sacred 22
secretary 22
self-defeating 22
shocked 22
shorter 22
silver 22
somewhere 22
specialists 22
spiritual 22
sponsored 22
stalled 22
station 22
strengthens 22
surrounded 22
sympathy 22
talked 22
tap 22
technologically 22
theft 22
thoughtful 22
throw 22
tly 22
trades 22
tropical 22
um@@ 22
undercut 22
undervalued 22
uniquely 22
unskilled 22
up@@ 22
valued 22
versa 22
voluntarily 22
warn 22
west 22
wisely 22
woes 22
yellow 22
&apos;m 21
0.1 21
0.7 21
120 21
130 21
14@@ 21
1947 21
2.4 21
48 21
5-@@ 21
600 21
67 21
900 21
Bal@@ 21
Baltic 21
Belarus 21
Bhutto 21
Bi@@ 21
Bo 21
Bundesbank 21
Community 21
For@@ 21
Forces 21
Front 21
IC@@ 21
Jintao 21
Kenyan 21
MPs 21
Man@@ 21
Manuel 21
Monti 21
NTC 21
Ne@@ 21
Orthodox 21
Osama 21
Po@@ 21
RMB 21
Rumsfeld 21
SMEs 21
Sachs 21
Sadat 21
Second 21
Tanzania 21
Winston 21
Year 21
accordance 21
acquiring 21
administrations 21
admission 21
adviser 21
alleviate 21
ast 21
attended 21
attribute 21
backdrop 21
backward 21
bacteria 21
banner 21
barring 21
beat 21
beating 21
boosts 21
br@@ 21
bra@@ 21
broker 21
bur@@ 21
businessmen 21
capital-intensive 21
circles 21
classroom 21
climb 21
coffers 21
collaborate 21
composed 21
conflicting 21
consequently 21
consists 21
consultation 21
contributes 21
craft 21
cross 21
cyberspace 21
cynical 21
dam 21
decides 21
delays 21
delegation 21
depended 21
derived 21
designated 21
disorders 21
documents 21
dog 21
dy 21
efficacy 21
embodied 21
enforcing 21
engineer 21
ening 21
ensuing 21
enthusiastic 21
experimentation 21
exploited 21
expressions 21
fairer 21
financial-@@ 21
formulate 21
founder 21
freed 21
full-blown 21
full-time 21
fying 21
gen@@ 21
geographic 21
ger 21
gr@@ 21
gri@@ 21
groundwork 21
halted 21
harassment 21
headwinds 21
ignores 21
incoming 21
indebtedness 21
individually 21
induced 21
inform 21
innovate 21
insolvent 21
instincts 21
integral 21
intend 21
intensified 21
ites 21
iting 21
junta 21
kers 21
killer 21
kills 21
lagging 21
lavish 21
le-@@ 21
lingering 21
literacy 21
low- 21
manages 21
mandates 21
matched 21
ments 21
merits 21
militia 21
ming 21
motive 21
naïve 21
nightmare 21
occasions 21
off-@@ 21
on-@@ 21
one-quarter 21
operators 21
or-@@ 21
outlays 21
outsourcing 21
owner 21
page 21
participated 21
pause 21
payroll 21
peer 21
peers 21
perpetrators 21
pluralism 21
politicized 21
portray 21
post-communist 21
postponed 21
pping 21
predicting 21
prosecutor 21
prosper 21
quasi-@@ 21
ra 21
railway 21
re-election 21
rebalance 21
refuge 21
remind 21
repayment 21
repercussions 21
reputations 21
resignation 21
rivers 21
rogue 21
rounds 21
scourge 21
season 21
semi-@@ 21
shopping 21
shore 21
short-run 21
shy 21
sion 21
skin 21
speeches 21
ss 21
stagnated 21
stone 21
str@@ 21
strictly 21
suited 21
superiority 21
supreme 21
sustainably 21
tation 21
telecommunications 21
three-@@ 21
tipping 21
trans@@ 21
transit 21
tri@@ 21
unanimously 21
unchanged 21
underestimate 21
underpinning 21
ved 21
vessels 21
well-known 21
worsened 21
worthwhile 21
yielded 21
1.1 20
15@@ 20
1940 20
1968 20
46 20
47 20
53 20
56 20
57 20
64 20
68 20
7.5 20
Abdullah 20
Armenia 20
Bay 20
Ber@@ 20
BoE 20
Boris 20
Euro@@ 20
Force 20
Franco-German 20
GM 20
Guinea 20
Hosni 20
Hugo 20
Infrastructure 20
Jacques 20
Jean-Claude 20
Kissinger 20
Kuwait 20
Liberia 20
Mal@@ 20
Northeast 20
PLO 20
Rica 20
Rowhani 20
Su@@ 20
To@@ 20
Tri@@ 20
Wilson 20
abide 20
absolutely 20
absorbed 20
accumulating 20
accurately 20
acy 20
advocacy 20
ann@@ 20
anti-Semitic 20
apartheid 20
appearing 20
aspire 20
asserted 20
averaged 20
aversion 20
await 20
balance-of-payments 20
ball 20
beautiful 20
beneath 20
bizarre 20
bl@@ 20
boat 20
brave 20
breach 20
carbon-@@ 20
characteristic 20
circumvent 20
cite 20
cloud 20
coherence 20
commentary 20
commerce 20
committees 20
compensated 20
consecutive 20
constrain 20
constructed 20
convention 20
crossroads 20
crunch 20
debating 20
defenses 20
denominated 20
deploying 20
depreciate 20
derive 20
description 20
disappearance 20
disappointment 20
disparate 20
disregard 20
districts 20
donations 20
doses 20
drew 20
dual 20
eligible 20
employee 20
employer 20
enshrined 20
ented 20
everyday 20
extraordinarily 20
extremes 20
filed 20
five-@@ 20
folly 20
forcefully 20
forthcoming 20
forum 20
forward-looking 20
fragility 20
frightening 20
fundamentalists 20
gasoline 20
geopolitics 20
gridlock 20
growth-@@ 20
hand@@ 20
handled 20
hazard 20
helicopter 20
highlighting 20
hole 20
hub 20
hugely 20
hurdles 20
ics 20
idle 20
ili@@ 20
impending 20
inclusiveness 20
inertia 20
inf@@ 20
ingredients 20
intolerance 20
intractable 20
invoked 20
ish 20
jihad 20
jointly 20
keys 20
killings 20
la@@ 20
lesser 20
ley 20
lion 20
lower-@@ 20
majorities 20
manipulate 20
mankind 20
mar@@ 20
mathematics 20
mature 20
min@@ 20
misses 20
modified 20
mount 20
murdered 20
naive 20
onset 20
operated 20
opt 20
organizing 20
ousness 20
panacea 20
parallels 20
paralyzed 20
passes 20
peacefully 20
peacekeeping 20
persuasive 20
perverse 20
polity 20
powered 20
praise 20
prestige 20
prevalence 20
preventable 20
privilege 20
protects 20
proves 20
provocations 20
que 20
quietly 20
ranked 20
recovering 20
referring 20
rents 20
resisting 20
rewarding 20
rivalries 20
second-@@ 20
servants 20
sha@@ 20
shooting 20
short-lived 20
shrunk 20
sidelines 20
sions 20
slide 20
smoothly 20
socioeconomic 20
spillovers 20
spin 20
sporting 20
stayed 20
still-@@ 20
straight 20
stunning 20
stupid 20
succumb 20
survivors 20
suspicious 20
sw@@ 20
tailored 20
teacher 20
theme 20
tired 20
tolerant 20
traits 20
trauma 20
tripled 20
ultra-low 20
undesirable 20
unleash 20
war@@ 20
watched 20
water-@@ 20
workplace 20
­ 20
-year-old 19
0s 19
1920 19
1950s 19
1962 19
2.3 19
3.2 19
30,000 19
4.5 19
55 19
76 19
Arab-Israeli 19
Argentine 19
Austrian 19
BOJ 19
Ban 19
Black 19
Castro 19
Civil 19
Congo 19
Corbyn 19
Cultural 19
Dalai 19
Enlightenment 19
FARC 19
Florida 19
G-7 19
G7 19
Go@@ 19
Governor 19
Hollywood 19
Hu@@ 19
IAEA 19
Istanbul 19
LDP 19
Lama 19
Latvia 19
Narendra 19
Orange 19
PA 19
Powell 19
Program 19
Qu@@ 19
Rabin 19
Resolution 19
SWFs 19
Scandinavian 19
Tea 19
Trans-Pacific 19
Yushchenko 19
acceleration 19
ack 19
admittedly 19
aiming 19
airport 19
alarm 19
alienated 19
alienation 19
alization 19
all-time 19
allegiance 19
amend 19
amounting 19
amp 19
analogy 19
anarchy 19
armies 19
assembled 19
assessed 19
assist 19
attributable 19
audiences 19
automobile 19
aw@@ 19
bas@@ 19
beauty 19
bio@@ 19
bonuses 19
bus 19
capitals 19
catalyst 19
catalyze 19
celebration 19
charisma 19
chart 19
cheaply 19
climate-@@ 19
comparing 19
complement 19
comprising 19
conditional 19
conducting 19
confusion 19
conspiracy 19
consuming 19
cooperating 19
cooperatives 19
critique 19
curbing 19
customer 19
dearth 19
delicate 19
demagogues 19
demonstrators 19
deprived 19
der@@ 19
des 19
describing 19
diarrhea 19
dictates 19
diet 19
dissent 19
distressed 19
draws 19
dre@@ 19
drug-@@ 19
dubbed 19
e-commerce 19
elling 19
embarked 19
ement 19
endorsement 19
endure 19
ents 19
ep@@ 19
ex-@@ 19
exciting 19
exile 19
fabric 19
farther 19
fiction 19
fin@@ 19
financial-sector 19
flee 19
flu 19
food-@@ 19
foreign-@@ 19
functional 19
gathered 19
genetically 19
glance 19
greener 19
guilty 19
gun 19
hawks 19
heroic 19
hierarchy 19
homegrown 19
hor@@ 19
horrific 19
identification 19
iling 19
im 19
incompetent 19
inefficiency 19
iness 19
inferior 19
intellectual-property 19
ire 19
isolate 19
issuance 19
jail 19
knowhow 19
lawyer 19
lean 19
legislature 19
leveraged 19
loosening 19
lots 19
loud 19
matching 19
messy 19
meters 19
militant 19
minded 19
mirror 19
mismatch 19
modification 19
mu@@ 19
murderous 19
noting 19
nuclear-weapons 19
od@@ 19
of-@@ 19
oned 19
oppression 19
ory 19
overdue 19
overhaul 19
owed 19
papers 19
patriotic 19
ph@@ 19
ping 19
powerless 19
pretext 19
prevails 19
prioritize 19
prohibit 19
prudential 19
public-debt 19
publishing 19
puzzle 19
radicalization 19
railways 19
readiness 19
recommend 19
recourse 19
recruit 19
recruiting 19
registration 19
reinforces 19
relentlessly 19
remembering 19
reminds 19
rescued 19
resume 19
retains 19
risk-taking 19
river 19
roadmap 19
routes 19
row 19
sad 19
scant 19
scenes 19
seas 19
segment 19
self-determination 19
sentences 19
setbacks 19
shelter 19
signatories 19
simpler 19
sk@@ 19
sleep 19
squarely 19
st-@@ 19
staged 19
sting 19
structured 19
substitution 19
subtle 19
surrender 19
suspension 19
swing 19
sympathetic 19
systemically 19
taboo 19
tepid 19
tically 19
tier 19
tion-@@ 19
top-down 19
totalitarian 19
transferred 19
transferring 19
traveled 19
tribunal 19
trick 19
twenty 19
ugly 19
untenable 19
unthinkable 19
upside 19
user 19
verdict 19
verge 19
vers 19
vigorous 19
web 19
worlds 19
wrought 19
yesterday 19
17@@ 18
1974 18
200,000 18
39 18
4,000 18
54 18
6.5 18
72 18
8.@@ 18
AMLO 18
AfD 18
Albania 18
Budget 18
CCS 18
Communism 18
Director 18
End 18
Estonia 18
Havel 18
Lenin 18
Macri 18
Marshall 18
Nazis 18
No@@ 18
Old 18
Post 18
Public 18
Renzi 18
Rousseff 18
Se@@ 18
Special 18
Ste@@ 18
Ta@@ 18
Texas 18
abound 18
abused 18
aggravated 18
aides 18
airports 18
announce 18
anonymous 18
anti-immigrant 18
arena 18
arose 18
artists 18
asset-price 18
atively 18
atrocities 18
axis 18
az@@ 18
banker 18
battlefield 18
beef 18
belong 18
bent 18
bling 18
blockchain 18
boats 18
bombings 18
bro@@ 18
broadening 18
capitalists 18
ce 18
ce@@ 18
chair 18
chapter 18
churches 18
classical 18
clean-energy 18
clever 18
clock 18
coal-fired 18
combining 18
commensurate 18
compromising 18
confirms 18
constituency 18
continuation 18
contracting 18
contradiction 18
controversy 18
converge 18
conversely 18
cooling 18
couldn 18
countryside 18
credentials 18
cronies 18
crossing 18
curious 18
curriculum 18
dairy 18
deadline 18
departments 18
determines 18
devastated 18
differential 18
discern 18
disclosure 18
disinformation 18
dismantling 18
disrupted 18
distorting 18
dividend 18
dragged 18
drift 18
dynasty 18
dysfunction 18
ears 18
elaborate 18
embassy 18
encounter 18
endeavor 18
ened 18
eradicating 18
escaping 18
evaluating 18
expecting 18
fan 18
far-right 18
federation 18
ff 18
fied 18
films 18
forecasters 18
frankly 18
friendship 18
fundamentalism 18
fusion 18
gamble 18
genome 18
governmental 18
hailed 18
harming 18
harmonization 18
healthcare 18
hearing 18
hesitate 18
highways 18
historian 18
holy 18
hom@@ 18
ile 18
impeded 18
impedes 18
imperatives 18
imperfect 18
inauguration 18
inc@@ 18
incompetence 18
incorporate 18
incorporated 18
independently 18
indoor 18
inflated 18
instance 18
insured 18
intergenerational 18
intervened 18
ize 18
jihadist 18
killers 18
lers 18
low-wage 18
loyal 18
machinery 18
magic 18
market-@@ 18
maturity 18
measurable 18
meets 18
metaphor 18
milk 18
misery 18
momentous 18
monopolies 18
muster 18
nation-states 18
near-zero 18
nostalgia 18
occupations 18
odd 18
one-party 18
opens 18
ot 18
overcapacity 18
pages 18
parent 18
particles 18
patriotism 18
peninsula 18
perpetual 18
philosopher 18
pie 18
planners 18
plummeting 18
polluting 18
populous 18
possesses 18
pragmatism 18
precedence 18
predominantly 18
pregnancy 18
pregnant 18
preservation 18
primacy 18
promotes 18
proportions 18
provoking 18
questioned 18
rainfall 18
reaffirm 18
reconsider 18
record-high 18
refrain 18
relatives 18
relentless 18
remedy 18
republics 18
restaurants 18
retained 18
retire 18
revision 18
rewarded 18
rough 18
ruler 18
scarcely 18
self-serving 18
senators 18
separated 18
shame 18
shocking 18
shoes 18
siege 18
smarter 18
sour 18
spark 18
spotlight 18
sses 18
start-ups 18
starvation 18
stresses 18
stubbornly 18
sub-@@ 18
submitted 18
subsidizing 18
successors 18
suggestion 18
surpassed 18
synthetic 18
taste 18
text 18
ther 18
title 18
topics 18
torn 18
tracking 18
tradeoff 18
transformational 18
transformative 18
traumatic 18
uncontrolled 18
underscored 18
unfettered 18
unimaginable 18
variations 18
viability 18
virtues 18
weakens 18
wealthier 18
weighed 18
whoever 18
withdrawn 18
would-be 18
xenophobic 18
ya 18
0.6 17
140 17
1933 17
20,000 17
66 17
Adam 17
Against 17
Ali@@ 17
Bre@@ 17
Can@@ 17
Cheney 17
Chinese-@@ 17
Communists 17
DPJ 17
Danish 17
Deal 17
Democracy 17
EMU 17
EU-@@ 17
Euro-Atlantic 17
Executive 17
FBI 17
Fourth 17
Francisco 17
Fukushima 17
Governing 17
Ha@@ 17
It 17
Jong-il 17
Joseph 17
Khodorkovsky 17
Kofi 17
Liberal 17
Liberation 17
Mc@@ 17
McKinsey 17
Medicare 17
Michael 17
Mor@@ 17
Movement 17
Mu@@ 17
Mueller 17
Olmert 17
Persian 17
Protection 17
Remain 17
Revolutionary 17
Rio 17
Ro@@ 17
Salvador 17
Schröder 17
Science 17
Senegal 17
Serbian 17
Service 17
Solidarity 17
Tibetan 17
Ver@@ 17
Way 17
Westerners 17
Wolfowitz 17
Zedong 17
Zika 17
abrupt 17
abundantly 17
accommodation 17
ach@@ 17
acknowledges 17
advanced-country 17
advent 17
analyze 17
ancestors 17
antagonism 17
antibiotic 17
antly 17
articulated 17
assurances 17
at-@@ 17
attained 17
attainment 17
attractiveness 17
authorized 17
autocracy 17
bailed 17
bipolar 17
blunt 17
boast 17
bor@@ 17
bosses 17
branches 17
bul@@ 17
burned 17
by@@ 17
ceased 17
chemistry 17
chess 17
citing 17
clashes 17
coercion 17
coffee 17
coincidence 17
collaborative 17
commonly 17
communists 17
comparisons 17
competence 17
completion 17
conferences 17
consolidating 17
contemplate 17
contend 17
contexts 17
continuity 17
convened 17
convenient 17
conversations 17
counting 17
crafting 17
crumbling 17
cur@@ 17
curricula 17
cynicism 17
dealt 17
decay 17
dem@@ 17
denounced 17
depleted 17
develops 17
diplomat 17
disengagement 17
dissidents 17
divergent 17
dly 17
domination 17
down@@ 17
drug-resistant 17
dust 17
eggs 17
emanating 17
empires 17
encountered 17
engineered 17
enriched 17
equals 17
erratic 17
escalate 17
ethos 17
excitement 17
farmer 17
fascism 17
fearing 17
fisheries 17
formulated 17
fortunes 17
frame 17
frequency 17
friction 17
ga@@ 17
generational 17
genius 17
glory 17
graduate 17
grassroots 17
hallmark 17
harmed 17
head@@ 17
high-risk 17
hitting 17
homeland 17
hopeful 17
hosts 17
hotel 17
hubris 17
humanities 17
hun@@ 17
hurricanes 17
hurts 17
hypocrisy 17
ill-@@ 17
imperialism 17
importing 17
inclination 17
infant 17
injections 17
inspiring 17
instant 17
instructive 17
intermediaries 17
internationalization 17
intrusive 17
jeopardizing 17
label 17
leftist 17
leveraging 17
license 17
lining 17
loved 17
ls 17
lying 17
manifestation 17
mantra 17
march 17
metals 17
ministerial 17
minute 17
modernizing 17
monarchy 17
mountain 17
multiculturalism 17
murders 17
nationalistic 17
navy 17
negligible 17
non-governmental 17
non-tradable 17
normalize 17
od 17
offense 17
officer 17
ologists 17
open-ended 17
organs 17
originated 17
ours 17
outward 17
overwhelmed 17
pan-European 17
pave 17
ped 17
peg 17
penalties 17
permitting 17
perpetuate 17
plain 17
planes 17
pleased 17
post-Soviet 17
powerhouse 17
precondition 17
preferable 17
prejudice 17
premia 17
preparation 17
preparations 17
prevalent 17
pro-growth 17
procedure 17
protective 17
pursues 17
quota 17
ran@@ 17
rankings 17
rapprochement 17
ratification 17
ratify 17
re 17
recoveries 17
recruitment 17
recruits 17
redress 17
regulating 17
reign 17
relating 17
religions 17
repaid 17
replied 17
resembles 17
resolute 17
retaliation 17
rethinking 17
rooms 17
safeguarding 17
salary 17
searching 17
seekers 17
selective 17
sellers 17
separately 17
separating 17
shipping 17
simultaneous 17
sin@@ 17
sink 17
sixth 17
skewed 17
slashed 17
slight 17
smuggling 17
social-@@ 17
spaces 17
stabilized 17
stagnating 17
stalemate 17
standoff 17
ster 17
stricter 17
string 17
subsistence 17
suitable 17
supplier 17
suppression 17
supranational 17
taxed 17
telephone 17
touted 17
treats 17
trivial 17
troika 17
troop 17
turbulent 17
unbalanced 17
uneven 17
ure 17
variant 17
varied 17
ventures 17
verification 17
viruses 17
vocal 17
ward 17
warranted 17
wasteful 17
widened 17
withdrew 17
wood 17
worst-case 17
writers 17
ws 17
year-old 17
yielding 17
2,@@ 16
2.6 16
3D 16
4.7 16
5.5 16
92 16
Administration 16
Bahrain 16
Balkan 16
Bannon 16
Conservatives 16
Croatia 16
Czechoslovakia 16
Dis@@ 16
EU-15 16
Eurasia 16
FSB 16
FTA 16
Frankfurt 16
GCC 16
Gore 16
Gülen 16
Himalayan 16
III 16
Jiabao 16
Ki@@ 16
Koran 16
Libyans 16
Lithuania 16
Lu@@ 16
Macedonia 16
Mecca 16
NA@@ 16
Pe@@ 16
Pentagon 16
Pradesh 16
Pre@@ 16
Prince 16
Ru@@ 16
Saakashvili 16
Sal@@ 16
Silvio 16
Soros 16
Te@@ 16
Treasuries 16
V 16
Vienna 16
Yemeni 16
Yes 16
abstract 16
adapting 16
administered 16
admiration 16
admitting 16
aff@@ 16
anchored 16
appropriately 16
arts 16
assertiveness 16
associations 16
astonishing 16
ational 16
attest 16
automobiles 16
backs 16
beaten 16
best-@@ 16
biases 16
bles 16
bly 16
boon 16
boring 16
boy 16
bribes 16
buffer 16
bullet 16
burdened 16
calamity 16
capitalized 16
catch-up 16
cease 16
chaotic 16
charismatic 16
cheating 16
childbirth 16
chips 16
cho@@ 16
classrooms 16
clause 16
cleaning 16
clubs 16
codependency 16
combines 16
compares 16
complain 16
complaint 16
complications 16
contractors 16
convenience 16
conversion 16
convert 16
converted 16
cooking 16
coordinating 16
corporate-tax 16
corrected 16
cou@@ 16
coun@@ 16
credited 16
cross-@@ 16
cultivate 16
curve 16
dealings 16
decreasing 16
def@@ 16
defiance 16
delaying 16
delivers 16
demographics 16
demonstration 16
desert 16
detail 16
detention 16
deteriorate 16
dies 16
diesel 16
diets 16
discretionary 16
disorderly 16
divides 16
egalitarian 16
electronics 16
elevated 16
empathy 16
endemic 16
ensured 16
enting 16
environmentalists 16
envy 16
equation 16
eradicate 16
erupt 16
escaped 16
exceeding 16
excluding 16
experimental 16
faction 16
fantasy 16
fastest-growing 16
favorably 16
fines 16
fiscally 16
flaw 16
fleet 16
fly 16
footprint 16
framed 16
frozen 16
fruits 16
full-scale 16
fundamentalist 16
g-@@ 16
generosity 16
gh@@ 16
gift 16
goodwill 16
granting 16
hardware 16
hasn 16
hazards 16
hegemon 16
histories 16
humiliating 16
hybrid 16
hypothesis 16
ians 16
ideologies 16
ignorant 16
illegitimate 16
inappropriate 16
incipient 16
infants 16
influences 16
inject 16
intact 16
interrupted 16
intolerable 16
invading 16
ir 16
ironic 16
journalist 16
journals 16
jump 16
lan 16
lax 16
lecture 16
legitimized 16
letters 16
levy 16
liberalizing 16
lic@@ 16
lifestyles 16
linguistic 16
lip 16
longevity 16
ma 16
maker 16
malign 16
marginalization 16
marketplace 16
massively 16
mat@@ 16
mayhem 16
meaningless 16
mergers 16
methane 16
mile 16
mines 16
minimizing 16
misuse 16
moratorium 16
motor 16
nascent 16
nationality 16
nativist 16
neighborhoods 16
neuro@@ 16
no-@@ 16
nonsense 16
now-@@ 16
nutritional 16
opposes 16
ore 16
ouster 16
owes 16
passion 16
pen@@ 16
periodic 16
permits 16
persuading 16
pes 16
physicians 16
pivotal 16
possession 16
posturing 16
practicing 16
practitioners 16
praised 16
prominence 16
prompting 16
propel 16
proposes 16
provocative 16
proxies 16
punished 16
punishing 16
radiation 16
rallied 16
ravaged 16
reckoning 16
referenda 16
refinancing 16
regulator 16
remembered 16
renewable-energy 16
resemble 16
reservations 16
rockets 16
rolling 16
royal 16
sal@@ 16
sample 16
san@@ 16
sat 16
scaling 16
secrecy 16
sen@@ 16
sentenced 16
shaken 16
shaky 16
shes 16
shield 16
shortsighted 16
sinking 16
smallholder 16
sometime 16
spared 16
sparked 16
spill 16
sponsors 16
spontaneous 16
stall 16
state-@@ 16
stature 16
steer 16
sterling 16
sti@@ 16
stoking 16
stolen 16
stops 16
stretch 16
strive 16
stroke 16
sub-Saharan 16
submit 16
suits 16
superpowers 16
supplying 16
supremacy 16
surveyed 16
suspects 16
ta 16
tale 16
tan@@ 16
tape 16
tempting 16
th-@@ 16
totaling 16
tro@@ 16
tuberculosis 16
twentieth-century 16
tyranny 16
uc@@ 16
unaware 16
undergo 16
uniform 16
urging 16
usage 16
ushered 16
utter 16
variable 16
ven@@ 16
visiting 16
waging 16
wear 16
wholesale 16
wildlife 16
woefully 16
worrisome 16
yourself 16
ys 16
£ 16
&apos;a 15
,000-@@ 15
-and-@@ 15
1984 15
4.8 15
49 15
6-@@ 15
61 15
Abkhazia 15
Alibaba 15
Aviv 15
Burmese 15
Ca@@ 15
Catalonia 15
Chernobyl 15
College 15
Com@@ 15
Data 15
Debt 15
Digital 15
Dubai 15
Economics 15
Fox 15
Georgian 15
Gi@@ 15
Government 15
Hassan 15
IS@@ 15
Jean-@@ 15
Kaczyński 15
Khomeini 15
Ko@@ 15
Kyi 15
MBS 15
Manchester 15
Margaret 15
Market 15
Markets 15
Milosevic 15
Muslim-majority 15
Nature 15
Next 15
Nordic 15
Oxford 15
Politics 15
Project 15
Representative 15
Stat@@ 15
Strip 15
Suu 15
System 15
TFP 15
Tehran 15
Tel 15
Thomas 15
Three 15
Uribe 15
W 15
Xinjiang 15
abruptly 15
accompanying 15
accusing 15
ack@@ 15
adherence 15
adhering 15
adjusting 15
aggravate 15
aided 15
alas 15
alignment 15
allocations 15
altering 15
amenable 15
analogous 15
analyses 15
ani 15
anti-Western 15
anymore 15
arbitration 15
architect 15
aries 15
assure 15
asymmetric 15
ate-@@ 15
atic 15
ation-@@ 15
attached 15
attendance 15
attributes 15
avoidable 15
backgrounds 15
basically 15
battery 15
bets 15
biofuels 15
blo@@ 15
brains 15
bright 15
broadcast 15
business-@@ 15
by-@@ 15
canceled 15
cap@@ 15
ces 15
characterize 15
chauvinism 15
clarify 15
classified 15
clearing 15
commonplace 15
communal 15
complicating 15
comprehend 15
computing 15
concluding 15
condemnation 15
conditioning 15
conducive 15
confidence-building 15
consequential 15
constraining 15
convertibility 15
crimin@@ 15
crippling 15
criterion 15
cro@@ 15
crowds 15
cruel 15
culturally 15
curtail 15
dar@@ 15
data-@@ 15
decarbonization 15
deception 15
definitive 15
descent 15
desires 15
deterred 15
disposable 15
dissolution 15
draconian 15
drastically 15
drilling 15
drones 15
drops 15
dumping 15
ear@@ 15
egregious 15
eighteenth 15
eligibility 15
embody 15
embraces 15
emit 15
employing 15
enacting 15
enforceable 15
eng@@ 15
enriching 15
epicenter 15
evening 15
examination 15
exchanging 15
expelled 15
farmland 15
federalism 15
fertilizer 15
file 15
filling 15
firsthand 15
flying 15
formerly 15
formulating 15
free-@@ 15
full-fledged 15
gar@@ 15
gre@@ 15
habit 15
happily 15
harmony 15
havoc 15
healing 15
heartland 15
hiding 15
highs 15
holiday 15
hopeless 15
hotels 15
husband 15
i-@@ 15
ik@@ 15
illusory 15
impacts 15
impartial 15
importers 15
impulse 15
ina 15
inflate 15
inflict 15
injured 15
interdependent 15
invitation 15
isolationism 15
jailed 15
jo@@ 15
journal 15
jumped 15
ket 15
kids 15
landmark 15
lasts 15
layer 15
leg@@ 15
legacies 15
lifelong 15
lin 15
lobbies 15
lobbyists 15
lock 15
long-overdue 15
long-range 15
loop 15
loosen 15
mandated 15
measurement 15
mechanical 15
mentality 15
mer@@ 15
merchandise 15
mercy 15
metal 15
mi@@ 15
mineral 15
mor@@ 15
morale 15
mosquito 15
narrowed 15
ners 15
nu@@ 15
nuclear-@@ 15
objected 15
observation 15
observer 15
obsessed 15
occupational 15
occupying 15
offsetting 15
oil-@@ 15
ok 15
oneself 15
opponent 15
outer 15
overheating 15
overtaken 15
overvalued 15
owning 15
panels 15
paved 15
pensioners 15
persistently 15
phenomena 15
plague 15
planting 15
polluted 15
pornography 15
pp@@ 15
precedents 15
preceding 15
predatory 15
predicts 15
prematurely 15
price-@@ 15
printed 15
private-@@ 15
pro-cyclical 15
pro-democracy 15
processed 15
promptly 15
prosecuted 15
prosecutors 15
proteins 15
provocation 15
questionable 15
racist 15
radicalism 15
rallying 15
references 15
regret 15
reinvent 15
relegated 15
reliant 15
relieve 15
relocate 15
reminiscent 15
repeating 15
requisite 15
reshape 15
respectable 15
resurgence 15
retailers 15
retaining 15
retrenchment 15
retrospect 15
revenge 15
rhetorical 15
rift 15
rigged 15
rock 15
rolled 15
sacrifices 15
saddled 15
savvy 15
scratch 15
screens 15
seeming 15
seizing 15
selfish 15
sends 15
separatist 15
ser@@ 15
servicing 15
setback 15
settlers 15
showdown 15
simplistic 15
sively 15
slaughter 15
slavery 15
sm 15
sons 15
sovereigns 15
spectacle 15
specter 15
spell 15
spillover 15
steam 15
stepping 15
stifle 15
stifling 15
succumbed 15
suffice 15
suspend 15
suspicions 15
sway 15
tables 15
tactic 15
taxi 15
taxing 15
tear 15
teeth 15
ter-@@ 15
tered 15
terrain 15
therapies 15
thoughts 15
throwing 15
thwart 15
tics 15
tortured 15
trains 15
transcend 15
tre@@ 15
treasury 15
umbrella 15
unchecked 15
undeniable 15
ung 15
uni@@ 15
unjust 15
unprepared 15
unregulated 15
unwanted 15
usher 15
vengeance 15
vigorously 15
visas 15
visionary 15
vitality 15
wake-up 15
warheads 15
weakest 15
welcoming 15
wh@@ 15
wondering 15
workable 15
wound 15
� 15
-related 14
1931 14
1951 14
1953 14
1988 14
2.1 14
2.2 14
2.@@ 14
3-@@ 14
3.6 14
30-@@ 14
40,000 14
71 14
8,000 14
800,000 14
81 14
9-@@ 14
99 14
Ab@@ 14
Ac@@ 14
Barroso 14
Biden 14
Boston 14
Bridge 14
Bu@@ 14
CF@@ 14
Car@@ 14
Commonwealth 14
Corporation 14
Coun@@ 14
Cu@@ 14
D. 14
Darwin 14
Do@@ 14
Dream 14
Evo 14
F. 14
FOMC 14
Fidel 14
Five-Year 14
Framework 14
Fre@@ 14
Gen@@ 14
Hamilton 14
Harry 14
Hayek 14
Hiroshima 14
Ho@@ 14
Homo 14
Index 14
Is@@ 14
Jiang 14
Jo@@ 14
Journal 14
Karl 14
Ku@@ 14
MIT 14
Marine 14
Mark 14
Medicaid 14
Medical 14
Men@@ 14
Mexicans 14
Mohammed 14
Mozambique 14
Muammar 14
Munich 14
Nazism 14
Nokia 14
Orleans 14
PA@@ 14
Pearl 14
Peres 14
Portuguese 14
Prague 14
Rom@@ 14
Russian-@@ 14
Seas 14
Senkaku 14
Sin@@ 14
St. 14
Standard 14
Sunday 14
Sunni-Shia 14
Tsipras 14
U 14
UN@@ 14
Venezuelans 14
WWI 14
Warren 14
What 14
Women 14
abolished 14
absorption 14
abundance 14
abyss 14
accompany 14
accuracy 14
acquisitions 14
admired 14
adversary 14
advertisers 14
afforded 14
after-tax 14
agrees 14
ai 14
ain@@ 14
altered 14
aluminum 14
ambiguous 14
ammunition 14
answered 14
anybody 14
app 14
appreciating 14
arrows 14
ate@@ 14
athletes 14
autumn 14
awkward 14
bans 14
bars 14
baseline 14
belongs 14
bidding 14
bind 14
ble@@ 14
bloated 14
blocks 14
boo@@ 14
boss 14
bre@@ 14
buildup 14
bully 14
buried 14
campaigned 14
campaigners 14
cap-and-trade 14
capturing 14
care@@ 14
catching 14
cede 14
cents 14
ceremony 14
chairs 14
charities 14
charity 14
church 14
cleaner 14
cocaine 14
coincided 14
combatants 14
commissioned 14
communiqué 14
comp@@ 14
compounds 14
conception 14
concession 14
conscience 14
consistency 14
consolidated 14
constitutions 14
consultations 14
contacts 14
contracted 14
conundrum 14
conventions 14
convey 14
cool 14
corresponding 14
cow 14
cows 14
cr@@ 14
crazy 14
credit-@@ 14
creditworthiness 14
crippled 14
cul@@ 14
culminated 14
culminating 14
culprit 14
curtailing 14
deepest 14
defuse 14
deli@@ 14
dent 14
department 14
derailed 14
desperation 14
detained 14
determinant 14
devised 14
differentials 14
digitization 14
disability 14
disaffected 14
discredit 14
disdain 14
diversion 14
dom 14
downgrade 14
dropping 14
economic-policy 14
economy-wide 14
ed-@@ 14
eled 14
emb@@ 14
enhances 14
entrants 14
ess 14
establishes 14
euro-zone 14
examining 14
fascist 14
favoring 14
featured 14
fiercely 14
flames 14
fle@@ 14
flights 14
foreign-currency 14
foresee 14
forgiveness 14
fortunate 14
fraught 14
fro@@ 14
frontiers 14
frustrating 14
frustrations 14
fun@@ 14
gas-@@ 14
generic 14
gestures 14
girl 14
glo@@ 14
greatness 14
greeted 14
grossly 14
grounded 14
gy 14
hard@@ 14
headline 14
helium 14
high-profile 14
holes 14
holistic 14
honesty 14
horse 14
human-@@ 14
human@@ 14
humane 14
humiliated 14
ide@@ 14
idealism 14
ier 14
immoral 14
implicitly 14
implosion 14
income-tax 14
incur 14
indicating 14
indications 14
indices 14
inefficiencies 14
inflation-@@ 14
injuries 14
injustices 14
inquiry 14
install 14
instances 14
instantly 14
instructions 14
insult 14
interestingly 14
interventionist 14
invite 14
inviting 14
irrigation 14
ise 14
jihadi 14
k-@@ 14
ken 14
laboratories 14
laboratory 14
lac@@ 14
lam@@ 14
lament 14
law-enforcement 14
leaning 14
lens 14
lessness 14
life-saving 14
logistics 14
loom 14
loopholes 14
low-skill 14
macro 14
magazine 14
mantle 14
measles 14
med 14
melting 14
migrated 14
misplaced 14
morning 14
mounted 14
municipalities 14
muscle 14
nationalization 14
nationals 14
nationwide 14
northeast 14
nurses 14
objects 14
ology 14
ong@@ 14
oning 14
orthodox 14
ousted 14
out-@@ 14
outgoing 14
outlined 14
overwhelm 14
ow@@ 14
paranoid 14
parks 14
patronage 14
penalize 14
petty 14
phased 14
pilot 14
populated 14
positively 14
poster 14
pot 14
practiced 14
prejudices 14
premier 14
prey 14
primaries 14
prophecy 14
prudence 14
publish 14
pump 14
q@@ 14
quit 14
rank 14
rap@@ 14
realm 14
reconciled 14
recurring 14
redistributive 14
refer 14
register 14
rel@@ 14
reliably 14
renew 14
republic 14
requests 14
responds 14
resumption 14
rife 14
risk-@@ 14
rocket 14
rupture 14
scaled 14
schoolchildren 14
script 14
section 14
senator 14
severity 14
shattered 14
shi@@ 14
shops 14
short- 14
shortfalls 14
slim 14
slogans 14
small-scale 14
smallest 14
snap 14
solvency 14
spare 14
specialization 14
spilled 14
squeeze 14
star@@ 14
start-up 14
sticks 14
sto@@ 14
strides 14
strip 14
strongmen 14
stuff 14
submission 14
subordinate 14
subprime 14
succeeding 14
suicidal 14
summits 14
suppressing 14
surged 14
surgical 14
surprises 14
sweep 14
tacit 14
tainted 14
tall 14
tapping 14
tenets 14
tify 14
tized 14
token 14
tour 14
tr@@ 14
transitional 14
tricky 14
triple 14
tted 14
tur@@ 14
twist 14
universally 14
unnecessarily 14
unraveling 14
unusually 14
unveiled 14
unwarranted 14
uprisings 14
utility 14
vain 14
visa 14
visitors 14
waged 14
warriors 14
wedge 14
weighing 14
wheat 14
wildly 14
,@@ 13
0 13
12@@ 13
12th 13
1978 13
199@@ 13
2-@@ 13
2º 13
3.3 13
41 13
7,000 13
7-@@ 13
88 13
A-@@ 13
AM@@ 13
AR@@ 13
Alexander 13
Anwar 13
As@@ 13
Athens 13
BRI 13
Be 13
Ben@@ 13
Buddhist 13
Bundestag 13
CDU 13
CN 13
Cal@@ 13
Century 13
Chechnya 13
Comprehensive 13
Confucian 13
EEA 13
EITC 13
EU-wide 13
Environmental 13
Euro 13
Gerhard 13
Guard 13
ICTY 13
IF@@ 13
Iceland 13
Islam@@ 13
Israel-Palestine 13
Karzai 13
Katrina 13
Ke@@ 13
Khashoggi 13
Kohl 13
M5S 13
Massachusetts 13
Mat@@ 13
Mer@@ 13
Mike 13
Military 13
Mitterrand 13
Muhammad 13
NAM 13
Nagasaki 13
New@@ 13
Niger 13
Non-Proliferation 13
Not 13
ODA 13
Oil 13
Phelps 13
President-elect 13
SPD 13
Scandinavia 13
Sen 13
Sen@@ 13
Sino-American 13
Strategic 13
Sur@@ 13
Taiwanese 13
Tax 13
Trichet 13
US-Japan 13
Vatican 13
Vietnamese 13
Watanabe 13
Western-@@ 13
Yasukuni 13
Zuma 13
abilities 13
absorbing 13
acc@@ 13
accelerates 13
accommodating 13
accuse 13
aci@@ 13
advising 13
afflicted 13
afterwards 13
airlines 13
alert 13
allocating 13
amplify 13
analogies 13
announcing 13
antimicrobial 13
anxieties 13
apathy 13
approached 13
arbitrage 13
are@@ 13
arian 13
arithmetic 13
arm@@ 13
arrogant 13
articulate 13
ass@@ 13
astounding 13
awash 13
barrier 13
bedrock 13
behaved 13
beleaguered 13
benchmarks 13
better-@@ 13
billionaires 13
binge 13
biomedical 13
blocs 13
bloodshed 13
blue-collar 13
blunders 13
bolder 13
bolstered 13
bother 13
bout 13
brake 13
breath 13
breathe 13
brighter 13
bulwark 13
burdensome 13
bureaucracies 13
burn 13
cal@@ 13
captain 13
caste 13
casting 13
catastrophes 13
celebrated 13
centric 13
cer 13
chan@@ 13
char@@ 13
characters 13
chasing 13
chip 13
cholera 13
cigarettes 13
circulation 13
cleansing 13
cli@@ 13
clim@@ 13
coercive 13
cohesive 13
colonialism 13
combustion 13
completing 13
concede 13
concludes 13
condemning 13
consul@@ 13
contingent 13
continually 13
coping 13
cotton 13
council 13
couples 13
courageous 13
crafted 13
creators 13
cry 13
cultivating 13
customary 13
day-to-day 13
debilitating 13
decade-long 13
deep-seated 13
degraded 13
depletion 13
depreciated 13
derail 13
derivative 13
devising 13
din@@ 13
discriminatory 13
disillusioned 13
disrupting 13
dissatisfaction 13
distort 13
distortion 13
dogs 13
doubtful 13
drafted 13
eased 13
economic-growth 13
editors 13
el-Qaddafi 13
electrification 13
els 13
ements 13
emergencies 13
emperor 13
endgame 13
endorse 13
endorsing 13
energies 13
ent-@@ 13
entitlement 13
ep 13
epidemics 13
ethnicity 13
exact 13
exceedingly 13
exempt 13
exercised 13
exploded 13
export-oriented 13
facilitates 13
fade 13
failings 13
fal@@ 13
fallacy 13
fathers 13
fies 13
fighter 13
fil@@ 13
financiers 13
fire@@ 13
fixed-@@ 13
fore 13
forums 13
freeing 13
fringe 13
frontline 13
gesture 13
ghost 13
graphic 13
grass 13
grouping 13
guards 13
guerrillas 13
gun@@ 13
halting 13
halved 13
hampered 13
hang 13
heavier 13
high-speed 13
hired 13
hopelessly 13
horror 13
hum@@ 13
human-induced 13
hypocritical 13
ic-@@ 13
ich 13
ils 13
immunity 13
impaired 13
impediment 13
impediments 13
importer 13
incited 13
incursions 13
infamous 13
infighting 13
inheritance 13
ining 13
installed 13
instinct 13
institute 13
insulated 13
insurers 13
internationalism 13
intimidation 13
intuitive 13
invaluable 13
inventory 13
invoke 13
isolationist 13
issuers 13
ist@@ 13
joblessness 13
joke 13
jury 13
justifies 13
kick 13
kick-start 13
knees 13
krill 13
lagged 13
lane 13
leaked 13
legs 13
lement 13
liable 13
liberated 13
lights 13
liked 13
lim@@ 13
lin@@ 13
load 13
logistical 13
loser 13
loudly 13
lunch 13
macroprudential 13
marched 13
matches 13
math 13
medication 13
medieval 13
mer 13
mes 13
midterm 13
missile-defense 13
mixture 13
mode 13
negatively 13
nice 13
non-nuclear 13
noticed 13
oath 13
oc@@ 13
ominous 13
oms 13
opium 13
oppressive 13
outs 13
ov 13
overseen 13
owns 13
pan@@ 13
pandemics 13
panicked 13
paralyzing 13
parameters 13
paramount 13
passengers 13
passionate 13
peacekeepers 13
pending 13
persisted 13
petroleum 13
physically 13
pin 13
plastic 13
pleasure 13
pledging 13
plug 13
pneumonia 13
polar 13
post-Brexit 13
post@@ 13
posture 13
pre-industrial 13
preferential 13
prisoner 13
prompt 13
propelled 13
protocols 13
publicized 13
quagmire 13
quell 13
raging 13
random 13
rape 13
re-elected 13
reassert 13
recapitalization 13
recruited 13
reining 13
relates 13
relation 13
relaxed 13
reliability 13
rent 13
replete 13
res@@ 13
resentments 13
reset 13
residence 13
respecting 13
restaurant 13
restraints 13
resumed 13
retired 13
retirees 13
ridden 13
ries 13
ris 13
riskier 13
ruins 13
sanctioned 13
scholarly 13
scramble 13
secularism 13
self-reinforcing 13
sequence 13
shake 13
shaking 13
shallow 13
shook 13
short-sighted 13
shortly 13
shoulder 13
shrank 13
sian 13
sister 13
sive 13
sizeable 13
sm@@ 13
sober 13
social-media 13
social-security 13
sourcing 13
spawned 13
spearheaded 13
squeezing 13
stave 13
stewardship 13
stic 13
stoke 13
strangers 13
subsidize 13
swiftly 13
synchronized 13
syndrome 13
tag 13
takeover 13
tal@@ 13
teenagers 13
tense 13
testimony 13
tightened 13
tightly 13
tim@@ 13
time-@@ 13
tin 13
trade-@@ 13
travelers 13
tting 13
tune 13
undemocratic 13
undertook 13
unexpectedly 13
unifying 13
uniting 13
unravel 13
ups 13
upset 13
usefulness 13
utilities 13
val@@ 13
varying 13
vegetables 13
ver 13
verbal 13
versions 13
viewers 13
vindicated 13
virulent 13
void 13
volumes 13
von 13
walking 13
warmer 13
wholly 13
wide-ranging 13
wielding 13
willingly 13
winds 13
work@@ 13
workings 13
yed 13
zero-@@ 13
-up 12
0.3 12
0.4 12
1-@@ 12
110 12
1948 12
1949 12
1956 12
1987 12
2.9 12
201@@ 12
23@@ 12
3.4 12
3.7 12
30@@ 12
4-@@ 12
52 12
58 12
6,000 12
6.7 12
73 12
74 12
78 12
79 12
82 12
83 12
84 12
ANC 12
Accords 12
Air 12
Al-@@ 12
Algerian 12
Am@@ 12
Angola 12
Atomic 12
Aung 12
Azerbaijan 12
BP 12
Barcelona 12
Bashir 12
Bri@@ 12
C. 12
CBO 12
CE@@ 12
Chapter 12
Col@@ 12
Confucius 12
Dmitri 12
Doing 12
Eisenhower 12
Eurasian 12
Europe-wide 12
Fe@@ 12
Glass-Steagall 12
Gra@@ 12
Hurricane 12
ICC 12
Im@@ 12
In 12
Indonesian 12
Institu@@ 12
Iron 12
Islamism 12
Keynesians 12
Kurdistan 12
Land 12
Likud 12
Lincoln 12
MENA 12
MP 12
Mas@@ 12
Michel 12
Money 12
Murdoch 12
N 12
Ni@@ 12
Nicholas 12
OSCE 12
On 12
Pa@@ 12
Pakistanis 12
Patri@@ 12
Protestant 12
Reform 12
Res@@ 12
Right 12
SDRs 12
Santos 12
Schäuble 12
Section 12
Serb 12
Shah 12
Shell 12
Silva 12
Slovenia 12
Star@@ 12
Syriza 12
Tamil 12
Tillerson 12
Tymoshenko 12
UNICEF 12
Universal 12
VAT 12
Vs 12
Warsaw 12
With 12
Work 12
Yale 12
Yu@@ 12
Yukos 12
Zionism 12
abnormal 12
abolition 12
academia 12
accepts 12
aded 12
agile 12
ail@@ 12
alarmingly 12
ale 12
all-out 12
alle@@ 12
ame 12
ams 12
analytics 12
analyzed 12
ani@@ 12
annexed 12
annualized 12
anti-American 12
anti-democratic 12
anticipation 12
apo@@ 12
appalling 12
appointing 12
arisen 12
ash@@ 12
asi@@ 12
ass 12
asserting 12
assertions 12
ation@@ 12
au 12
bal@@ 12
bankruptcies 12
betrayed 12
bigotry 12
biotechnology 12
bit@@ 12
bitterness 12
blatant 12
blockade 12
blue 12
boasts 12
bode 12
bombed 12
bon@@ 12
bottle 12
bread 12
breeding 12
bru@@ 12
bs 12
bullying 12
bury 12
cable 12
calculate 12
capitalization 12
caring 12
cer@@ 12
cervical 12
chaired 12
changer 12
charter 12
civil-@@ 12
cla@@ 12
clauses 12
client 12
clothing 12
coin 12
colleague 12
commander 12
commerci@@ 12
communicable 12
communicating 12
complicate 12
conceded 12
conceivable 12
conceivably 12
conceived 12
conceptual 12
conf@@ 12
confusing 12
congestion 12
constituted 12
consumer-@@ 12
continuously 12
converting 12
cosmopolitanism 12
counter-productive 12
counteract 12
counterweight 12
covers 12
crushed 12
curse 12
dams 12
dare 12
dating 12
daughters 12
dawn 12
dear 12
debt-service 12
deficiency 12
delegates 12
deliberations 12
delusion 12
destined 12
detainees 12
detected 12
deteriorated 12
deterring 12
dev@@ 12
devalue 12
dictated 12
dictum 12
dilemmas 12
directing 12
discomfort 12
discretion 12
dismissing 12
dispute-resolution 12
dissident 12
distinctive 12
distinguished 12
diversified 12
diverted 12
divine 12
dollar-denominated 12
dominates 12
dominating 12
dried 12
dro@@ 12
drowning 12
educating 12
eli@@ 12
emotionally 12
encouragement 12
ency 12
endowed 12
energetic 12
enrolled 12
entitlements 12
entrance 12
equip 12
erecting 12
ess@@ 12
evidence-based 12
exiting 12
expire 12
exposing 12
faltering 12
famine 12
fare 12
fat 12
feeds 12
fence 12
fend 12
fervor 12
fication 12
figured 12
fingers 12
fixes 12
flu@@ 12
fluid 12
fool 12
forcibly 12
foresight 12
form@@ 12
fostered 12
fractious 12
framing 12
freshwater 12
garment 12
gates 12
gauge 12
genetics 12
gging 12
glaciers 12
grain 12
grandchildren 12
habitat 12
hackers 12
handing 12
harbor 12
harnessing 12
hits 12
horrors 12
hyper@@ 12
hypothetical 12
ica 12
ideologically 12
ill@@ 12
illegally 12
illi@@ 12
illiteracy 12
illusions 12
illustrate 12
immensely 12
impetus 12
implausible 12
inadvertently 12
inconceivable 12
incredibly 12
incumbents 12
inequities 12
inexpensive 12
injury 12
input 12
insecure 12
inspections 12
instituted 12
instructed 12
insulate 12
insurmountable 12
int 12
intentionally 12
interviews 12
investigative 12
istic 12
it-@@ 12
jeopardy 12
kings 12
l-@@ 12
laborers 12
lame 12
land@@ 12
landslide 12
law@@ 12
leaks 12
lec@@ 12
lier 12
lighting 12
linear 12
local-government 12
logy 12
ly-@@ 12
m-@@ 12
mad 12
mal@@ 12
manager 12
manifest 12
marking 12
massacres 12
masters 12
mediator 12
mediocre 12
metric 12
metropolitan 12
micro-@@ 12
mid-term 12
mid@@ 12
milestone 12
mitigated 12
modeling 12
modify 12
monitored 12
muddle 12
multi@@ 12
mystery 12
narrowing 12
national-security 12
natural-resource 12
nuanced 12
nurturing 12
ny 12
observations 12
obtaining 12
occupy 12
off@@ 12
often-@@ 12
oil-producing 12
om 12
one-time 12
opting 12
orchestrated 12
overblown 12
oversee 12
overseeing 12
pandemic 12
passions 12
pat@@ 12
peculiar 12
permission 12
perpetuating 12
pesticides 12
petition 12
phases 12
pieces 12
pile 12
pl@@ 12
please 12
politicization 12
possessing 12
poured 12
predictability 12
prescriptions 12
pressured 12
presumed 12
presumption 12
presupposes 12
proclaiming 12
prohibits 12
pronouncements 12
proportional 12
prosecution 12
prospective 12
prowess 12
quarterly 12
radar 12
rain 12
ration@@ 12
rationing 12
refers 12
regaining 12
regionally 12
regressive 12
reinvigorate 12
remark 12
remarks 12
renounce 12
reply 12
requested 12
reshaping 12
restructured 12
restructurings 12
revisions 12
roiled 12
ruthless 12
satellites 12
savage 12
schedule 12
screen 12
se-@@ 12
secretive 12
seed 12
seizure 12
selecting 12
self 12
self-defense 12
self-inflicted 12
seriousness 12
session 12
settling 12
sh-@@ 12
shadows 12
shall 12
shine 12
sho@@ 12
shutdown 12
sis 12
slashing 12
slipped 12
smartphone 12
soar 12
sophistication 12
sounding 12
spectacularly 12
ss@@ 12
standpoint 12
startups 12
static 12
stating 12
stays 12
stimulated 12
stockpile 12
strained 12
strategists 12
streamline 12
strikingly 12
striving 12
subdued 12
substitutes 12
suggestions 12
supervisors 12
tandem 12
taxpayer 12
tellingly 12
texts 12
thereafter 12
thirty 12
threw 12
tilted 12
time-consuming 12
timetable 12
toppled 12
tourists 12
traced 12
trade-offs 12
transformations 12
transparently 12
ture 12
tweet 12
tweets 12
ue 12
unchallenged 12
underinvestment 12
unequivocally 12
unhealthy 12
unilateralism 12
unipolar 12
unpaid 12
unpleasant 12
unrelated 12
unreliable 12
unwillingness 12
us@@ 12
ut@@ 12
validity 12
van 12
van@@ 12
vanished 12
ven 12
verifiable 12
vigilant 12
vitally 12
waning 12
warns 12
wealthiest 12
weaponry 12
whopping 12
wi@@ 12
widen 12
wield 12
wiser 12
wished 12
wishful 12
wondered 12
wonderful 12
wounded 12
xenophobia 12
yearning 12
zero-carbon 12
zombie 12
ł@@ 12
− 12
&apos;ll 11
-of-GDP 11
0-@@ 11
00-@@ 11
0th 11
1.9 11
125 11
19th 11
2040 11
3.8 11
3.@@ 11
91 11
AP 11
Academy 11
Afghans 11
After 11
Ahmedinejad 11
Aid 11
Airbnb 11
Alan 11
Allies 11
Ban@@ 11
Bayrou 11
Bhutan 11
Bin 11
Bureau 11
CC@@ 11
CP@@ 11
Can 11
Capital 11
Carter 11
China-@@ 11
Clean 11
Columbia 11
Criminal 11
Daniel 11
Dec@@ 11
Delta 11
Democrat 11
Deputy 11
Dominique 11
EFSF 11
ES 11
Einstein 11
Electoral 11
Exchange 11
Far 11
Fin@@ 11
G8 11
GOP 11
Ge@@ 11
Ghraib 11
Grexit 11
Gülenists 11
Ham@@ 11
Her@@ 11
IV 11
Independence 11
Kabul 11
Kar@@ 11
Khan 11
Kyiv 11
La@@ 11
Lagarde 11
Laos 11
Lastly 11
Left 11
Luxembourg 11
MGI 11
Mac@@ 11
Mahatma 11
Man 11
Managing 11
Maoist 11
Na@@ 11
Navy 11
Nelson 11
OMT 11
Ossetia 11
PE@@ 11
Por@@ 11
Pri@@ 11
Principles 11
Ri@@ 11
Rogoff 11
Schengen 11
Serbs 11
Services 11
Si@@ 11
Snowden 11
Sochi 11
Staff 11
Stern 11
Th@@ 11
Transatlantic 11
Tunisian 11
War@@ 11
Water 11
Western-style 11
Wilders 11
Will 11
Wor@@ 11
Years 11
Ze@@ 11
Zhao 11
Zhu 11
Zone 11
abolish 11
abor@@ 11
accords 11
ach 11
acious 11
across-the-board 11
adaptive 11
ading 11
affirmative 11
ails 11
airline 11
al-Ahmar 11
al-Maliki 11
aligning 11
alizes 11
allowances 11
alternatively 11
alumni 11
amendments 11
ami 11
amp@@ 11
analyzing 11
anti-Americanism 11
anti-European 11
anti-globalization 11
apology 11
applicable 11
appointments 11
arch@@ 11
architects 11
arrow 11
ascent 11
ash 11
asks 11
aspiration 11
aspiring 11
asserts 11
asset-@@ 11
assigned 11
asteroid 11
atop 11
attachment 11
attending 11
averages 11
awaiting 11
backstop 11
bag 11
bank@@ 11
banning 11
bare 11
barred 11
bashing 11
bastion 11
battered 11
battling 11
bay 11
beggar-thy-neighbor 11
beholden 11
bel@@ 11
belonging 11
ber 11
biomass 11
bite 11
bits 11
blanket 11
blowing 11
blu@@ 11
bluster 11
bo 11
boldness 11
bonus 11
boomers 11
bothered 11
branding 11
brands 11
breed 11
bribery 11
brightest 11
broadened 11
brokers 11
buck 11
build-up 11
bullets 11
buys 11
cal 11
calculus 11
carrier 11
cash-strapped 11
cat 11
cattle 11
ced 11
chancellor 11
channeling 11
charm 11
chemical-weapons 11
chemicals 11
chilling 11
circulating 11
circum@@ 11
cl@@ 11
clear-cut 11
clerical 11
climbed 11
cling 11
clusters 11
co 11
codified 11
coins 11
col@@ 11
colleges 11
collision 11
comeback 11
comfortably 11
comm@@ 11
commands 11
commercially 11
comparatively 11
complacent 11
compounding 11
comprised 11
concentrating 11
confrontational 11
congress 11
consisted 11
consumes 11
cont@@ 11
contested 11
contractionary 11
contributors 11
conv@@ 11
convicted 11
copy 11
coral 11
correlated 11
cost-@@ 11
counsel 11
counter-terrorism 11
countercyclical 11
countered 11
crack 11
critically 11
criticisms 11
criticizing 11
cutbacks 11
cutting-edge 11
cy 11
cy@@ 11
dashed 11
database 11
dead@@ 11
deadlock 11
decency 11
deceptive 11
defaulted 11
defeating 11
deferred 11
deficient 11
deleverage 11
delu@@ 11
demand-@@ 11
demon@@ 11
den 11
denies 11
denouncing 11
depress 11
dest 11
developed-country 11
differs 11
diminishes 11
directives 11
disconnect 11
displayed 11
diss@@ 11
distract 11
district 11
disunity 11
divergences 11
doubted 11
drought-@@ 11
eagerly 11
ects 11
elec@@ 11
elitist 11
emails 11
embodies 11
employs 11
endanger 11
endowments 11
enmity 11
envoy 11
erodes 11
espionage 11
evolves 11
expedi@@ 11
expenses 11
exponentially 11
expresses 11
ey@@ 11
fabric@@ 11
family-@@ 11
fanatics 11
far-fetched 11
fat@@ 11
fatigue 11
feminism 11
fif@@ 11
fights 11
finger 11
finish 11
finite 11
flag@@ 11
foes 11
follow-up 11
forgiven 11
fosters 11
four@@ 11
frac@@ 11
fracking 11
fracturing 11
furious 11
futile 11
fy 11
ga 11
gang 11
gender-@@ 11
geographically 11
geostrategic 11
gged 11
glut 11
grace 11
grateful 11
growth-enhancing 11
hacking 11
hair@@ 11
hal@@ 11
half-million 11
hampering 11
hangs 11
hazardous 11
headway 11
hectares 11
heights 11
hell 11
helm 11
heroes 11
high@@ 11
holder 11
hollow 11
home@@ 11
horizons 11
hu@@ 11
hubs 11
humankind 11
hurricane 11
hurting 11
hydrocarbons 11
ick 11
identifies 11
idity 11
impeachment 11
impossibility 11
impotence 11
impressed 11
incapacity 11
incendiary 11
incidence 11
incite 11
indicted 11
infancy 11
influencing 11
ingenuity 11
ingredient 11
inherit 11
ini@@ 11
initiating 11
inspection 11
institutionalized 11
instrumental 11
insular 11
inter-Korean 11
inter-governmental 11
interbank 11
interior 11
interpretations 11
interwar 11
irrationality 11
isolating 11
itable 11
item 11
jeopardized 11
jihadis 11
kets 11
kin@@ 11
kingdom 11
la 11
ladder 11
lar@@ 11
largesse 11
latent 11
lawlessness 11
lawsuits 11
layers 11
leaf 11
leak 11
leisure 11
lengthy 11
lets 11
leveled 11
levers 11
libel 11
library 11
ll 11
localized 11
locals 11
longtime 11
looms 11
looser 11
loses 11
low@@ 11
man-made 11
mar 11
marry 11
mathematical 11
mid-century 11
migrate 11
military-@@ 11
minimized 11
minimum-wage 11
miscalculation 11
money-market 11
movies 11
mp@@ 11
much-@@ 11
muddling 11
multitude 11
na@@ 11
near-term 11
needing 11
neglecting 11
negotiator 11
neoliberalism 11
neutrality 11
newborn 11
newer 11
nexus 11
non-existent 11
non-financial 11
non-profit 11
notorious 11
nurtured 11
nutrients 11
objection 11
occurrence 11
offending 11
oldest 11
once-@@ 11
ony 11
opera 11
organ 11
outraged 11
outrageous 11
overarching 11
overestimate 11
overt 11
overtake 11
overturned 11
palace 11
pale 11
passage 11
pe 11
percentage-point 11
performs 11
philosophers 11
photo 11
photos 11
pioneering 11
pitfalls 11
pity 11
planted 11
policing 11
ponder 11
portrays 11
post-1945 11
post-election 11
posting 11
power-@@ 11
pped 11
preemptive 11
preparedness 11
prepares 11
prisons 11
professions 11
profligate 11
programming 11
proliferating 11
protocol 11
psycho@@ 11
public-policy 11
publications 11
pushes 11
q 11
qualifications 11
quar@@ 11
ramifications 11
reaffirmed 11
real-time 11
rebuilt 11
reclaim 11
reconciling 11
recovers 11
red-@@ 11
redundant 11
reflation 11
relate 11
releasing 11
relieved 11
rendering 11
rent-seeking 11
republican 11
reputational 11
rer 11
resorting 11
respectful 11
restrain 11
restrained 11
resuming 11
retaliate 11
retraining 11
retribution 11
revaluation 11
risk-management 11
robot 11
rumors 11
rushed 11
sapiens 11
satisfying 11
scapegoats 11
scare 11
school@@ 11
scored 11
self-confidence 11
sexually 11
sh 11
shale-gas 11
shark 11
shop 11
shoring 11
shots 11
shoulders 11
sians 11
sible 11
sights 11
sleeping 11
sobering 11
soci@@ 11
socialization 11
speaker 11
spiraling 11
squ@@ 11
starkly 11
starved 11
statesmen 11
steering 11
sticking 11
stir 11
stockpiles 11
stoked 11
stored 11
storing 11
stra@@ 11
stretching 11
strongman 11
subpar 11
sul@@ 11
sunlight 11
supervisor 11
supplement 11
supporter 11
suppressed 11
surgery 11
surpass 11
swaths 11
symbolism 11
tank 11
tant 11
tarnished 11
tastes 11
taxable 11
terrifying 11
tertiary 11
then-@@ 11
ther@@ 11
therapeutic 11
thesis 11
thwarted 11
tional 11
tness 11
top-@@ 11
trac@@ 11
transmitted 11
traps 11
travails 11
traveling 11
treatable 11
tricks 11
truce 11
trump 11
truths 11
tweeted 11
ty@@ 11
ubiquitous 11
un 11
unaccountable 11
unambiguous 11
unanimity 11
uncharted 11
unconditional 11
undercutting 11
uneasy 11
unfold 11
unforeseen 11
unproductive 11
unsettling 11
untold 11
upend 11
upgrade 11
valuation 11
varies 11
veteran 11
villagers 11
viral 11
vivid 11
vo@@ 11
volunteers 11
wane 11
wanting 11
wearing 11
website 11
websites 11
weighted 11
well-established 11
whales 11
win-win 11
wine 11
wings 11
wounds 11
ys@@ 11
yuan 11
za 11
zealots 11
í@@ 11
-market 10
0.8 10
0.9 10
10-@@ 10
100-@@ 10
170@@ 10
180 10
1938 10
1940s 10
1957 10
1958 10
1961 10
1963 10
1975 10
1983 10
1985 10
200@@ 10
2022 10
25,000 10
250,000 10
30-year 10
300,000 10
4.6 10
4.9 10
4.@@ 10
500,000 10
60-@@ 10
8-@@ 10
86 10
98 10
AGI 10
AT 10
Abraham 10
African-American 10
Ale@@ 10
All 10
Arab-@@ 10
Ash@@ 10
BBC 10
Ba@@ 10
Battle 10
Bolton 10
Bosnian 10
Botswana 10
Brezhnev 10
CDF 10
CDS 10
CO 10
Carney 10
Case 10
Chair 10
Charlie 10
Children 10
Christianity 10
Coalition 10
Coast 10
Company 10
Damascus 10
Des@@ 10
Dialogue 10
Dilma 10
Duma 10
EC@@ 10
EPP 10
Ehud 10
El@@ 10
Emirates 10
Euro-@@ 10
Eurozone 10
FDP 10
FDR 10
Federation 10
Feldstein 10
Fiscal 10
Ford 10
Franco 10
Fu@@ 10
GST 10
Gamal 10
Geun-hye 10
Golan 10
Golden 10
Gre@@ 10
Guangdong 10
Guatemala 10
Gujarat 10
Gülenist 10
H 10
HIV-positive 10
Harbor 10
Helsinki 10
Higgs 10
Hindus 10
Home 10
IN@@ 10
IP@@ 10
IPL 10
IVF 10
If 10
Ifo 10
Inter@@ 10
Japan-@@ 10
Je@@ 10
Joe 10
José 10
Keqiang 10
Kerala 10
Kha@@ 10
Ki-moon 10
Leonid 10
Liber@@ 10
MNCs 10
Maliki 10
Manafort 10
Matteo 10
Mechanism 10
Mill 10
Miller 10
Min@@ 10
Mis@@ 10
Mitt 10
Mohammad 10
Morgan 10
Mul@@ 10
My@@ 10
NCD 10
Nairobi 10
Napoleon 10
Nicolás 10
Nieto 10
Nord 10
Novartis 10
Obrador 10
Open 10
Ori@@ 10
Osborne 10
P5 10
PLA 10
Pan@@ 10
Panel 10
Paper 10
Peña 10
Ph@@ 10
Pi@@ 10
Plenum 10
Poli@@ 10
Political 10
Poor 10
Press 10
Pyongyang 10
REDD 10
Regulation 10
Reinhart 10
Relations 10
Rice 10
Rodrik 10
Rus@@ 10
SEC 10
Saleh 10
Salman 10
Securities 10
Shinawatra 10
Slovakia 10
Sol@@ 10
Solzhenitsyn 10
Sou@@ 10
Spratly 10
Strait 10
Stream 10
Sun@@ 10
TR@@ 10
Things 10
This 10
Ti@@ 10
Tocqueville 10
Tur@@ 10
Wahhabi 10
Wal@@ 10
Wang 10
William 10
Young 10
abolishing 10
abu@@ 10
abysmal 10
academy 10
accidental 10
accommodative 10
accomplishments 10
acies 10
acupuncture 10
acutely 10
ade@@ 10
adherents 10
administer 10
admire 10
adulthood 10
advanced-economy 10
advantageous 10
adventures 10
advise 10
advisory 10
affiliated 10
age-old 10
ailing 10
ain 10
ala 10
alarmed 10
alarmist 10
alities 10
alli@@ 10
ama 10
amplified 10
an-style 10
anic 10
animated 10
anism 10
ano@@ 10
appealed 10
arrests 10
articles 10
asing 10
aspires 10
asymmetrical 10
ately 10
attracts 10
autocracies 10
avenues 10
avi@@ 10
avoids 10
bailing 10
bands 10
bble 10
behaving 10
behind-the-scenes 10
beneficiary 10
betrayal 10
bi 10
black@@ 10
bluntly 10
bombers 10
book@@ 10
bordering 10
borrower 10
boundary 10
bounds 10
brewing 10
briefly 10
brothers 10
brush 10
brutally 10
builders 10
burden-sharing 10
burgeoning 10
businesspeople 10
buttress 10
bypassing 10
cage 10
calculating 10
caliphate 10
cancel 10
cannabis 10
cardiovascular 10
cartel 10
cartels 10
catches 10
chest 10
chronically 10
cle@@ 10
cleared 10
clouds 10
coincide 10
collecting 10
collusion 10
colors 10
colossal 10
commanding 10
commissions 10
common@@ 10
conceive 10
concentrations 10
concert 10
conflict-@@ 10
connects 10
consciousness 10
conservatism 10
consist 10
conspicuous 10
constitu@@ 10
contractual 10
contradict 10
contradicts 10
contrasting 10
contrasts 10
contributor 10
cop@@ 10
corners 10
correcting 10
countervailing 10
coups 10
covert 10
creature 10
critic 10
crony 10
cult 10
cultivated 10
cumbersome 10
curtailed 10
custody 10
custom@@ 10
cyclically 10
dampen 10
daring 10
dated 10
decades-old 10
deceit 10
deduction 10
deductions 10
deeds 10
defect 10
defects 10
definitely 10
defl@@ 10
defy 10
dele@@ 10
deliberation 10
democratizing 10
denounce 10
deposed 10
depressions 10
destabilized 10
destroys 10
detection 10
determinants 10
devaluations 10
development-@@ 10
devil 10
dge 10
di 10
diagnostics 10
differentiated 10
dignified 10
dim 10
direc@@ 10
directive 10
dirt 10
disappearing 10
disarray 10
discernible 10
discord 10
disguised 10
dismantle 10
dismay 10
disparity 10
dispatched 10
dispersed 10
displace 10
dispose 10
dispute-settlement 10
distributing 10
doctrines 10
downs 10
downturns 10
dr@@ 10
dragging 10
earliest 10
eastward 10
ect 10
eg@@ 10
electing 10
electrical 10
elephant 10
eliminates 10
embark 10
embarrassment 10
emulating 10
en-@@ 10
encounters 10
endangering 10
enrich 10
enroll 10
ensued 10
envisaged 10
envisages 10
eras 10
eruption 10
erupts 10
escalated 10
et@@ 10
eternal 10
eth@@ 10
ethic 10
euro@@ 10
exc@@ 10
exchanged 10
exiled 10
explode 10
exponential 10
expulsion 10
externalities 10
extinction 10
fading 10
famines 10
fanaticism 10
fee 10
feeding 10
fences 10
fer@@ 10
fester 10
fifty 10
finalized 10
fintech 10
fiscal-policy 10
fitting 10
fla@@ 10
flourishing 10
focal 10
for-@@ 10
founders 10
fran@@ 10
franc 10
fraying 10
freight 10
fulfills 10
funeral 10
generously 10
ger@@ 10
gloom 10
graft 10
grandfather 10
grandiose 10
grasped 10
grips 10
gro@@ 10
gs 10
guise 10
gut 10
halfway 10
handouts 10
harshly 10
head-on 10
hearings 10
heighten 10
herald 10
herein 10
high-growth 10
high-value 10
hin@@ 10
hinder 10
hindsight 10
honestly 10
honored 10
honoring 10
hood 10
hovering 10
hukou 10
ial 10
ick@@ 10
ie 10
iled 10
illustrated 10
imbued 10
impairment 10
imper@@ 10
implicated 10
impotent 10
inaccurate 10
inception 10
incorporating 10
induces 10
inducing 10
ine@@ 10
information-@@ 10
inroads 10
insiders 10
intangible 10
intensifies 10
intergovernmental 10
interviewed 10
intimidate 10
intra-@@ 10
intuition 10
inventories 10
investigating 10
investigators 10
invests 10
invoking 10
isms 10
ities 10
jihadism 10
job-@@ 10
jobless 10
junior 10
kicking 10
kilograms 10
knit 10
ko 10
ko@@ 10
kov 10
lab 10
labor-@@ 10
lackluster 10
lan@@ 10
land-@@ 10
laundering 10
lease 10
leftists 10
legalization 10
legislatures 10
lent 10
leprosy 10
lessly 10
leveling 10
lever 10
liberalized 10
liberate 10
licenses 10
licensing 10
lied 10
lifeline 10
loaded 10
lobbied 10
loc@@ 10
logies 10
managerial 10
manufacture 10
marginally 10
mayors 10
meager 10
medium- 10
ment-@@ 10
mercantilist 10
merging 10
mers 10
microeconomic 10
mightily 10
mini-@@ 10
mistakenly 10
misunderstanding 10
mob 10
modes 10
modicum 10
molecular 10
moribund 10
mortgage-backed 10
mosques 10
multi-polar 10
muscular 10
mutualization 10
myths 10
nanotechnology 10
narrower 10
nation@@ 10
neat 10
nel 10
neoliberal 10
neurons 10
nine-@@ 10
nit@@ 10
noise 10
nominated 10
non-performing 10
nose 10
notions 10
odious 10
offspring 10
og@@ 10
oil-rich 10
oli@@ 10
omics 10
ori@@ 10
oring 10
ots 10
ound 10
overhauling 10
overstated 10
p-@@ 10
packaging 10
pacts 10
painted 10
paranoia 10
partially 10
peasants 10
per-@@ 10
permissible 10
peso 10
pesos 10
phasing 10
pictures 10
piecemeal 10
piracy 10
plac@@ 10
placement 10
plainly 10
plan@@ 10
pleasing 10
pling 10
plunge 10
plunging 10
pointless 10
pon@@ 10
pop 10
por@@ 10
posted 10
pour 10
power-sharing 10
pre-emptive 10
precipitate 10
preclude 10
precursor 10
preliminary 10
prescribed 10
presenting 10
prestigious 10
principally 10
principled 10
pro-American 10
probable 10
problem-solving 10
procedural 10
proceeding 10
productively 10
productivity-enhancing 10
profit-@@ 10
prohibiting 10
prolong 10
prominently 10
propped 10
prosecute 10
prosecutions 10
protectionists 10
proudly 10
provider 10
pumped 10
pur@@ 10
puzzled 10
quoted 10
raid 10
rallies 10
reacting 10
realist 10
reasoned 10
reassurance 10
receipts 10
recommending 10
recording 10
redefine 10
relinquish 10
relocating 10
relocation 10
remarked 10
repatriation 10
replaces 10
replicate 10
repress 10
repressed 10
reproduce 10
reproduction 10
requesting 10
reserved 10
reside 10
rested 10
revert 10
revisionist 10
revolutionized 10
ris@@ 10
risk-free 10
ro 10
rock-bottom 10
rooting 10
ruin 10
salt 10
scholar 10
segregation 10
sel@@ 10
seller 10
separatists 10
sided 10
signature 10
sil@@ 10
sincere 10
single-@@ 10
single-minded 10
sinks 10
sits 10
six-party 10
sky-high 10
slowest 10
smoke 10
snow 10
social-democratic 10
sol@@ 10
soldier 10
soli@@ 10
someday 10
sorry 10
speculate 10
spite 10
spo@@ 10
ssing 10
stagnate 10
stan@@ 10
standstill 10
statesman 10
staunch 10
steal 10
stein 10
stemmed 10
ster@@ 10
sters 10
stifled 10
stigma 10
streams 10
stri@@ 10
sunk 10
supplements 10
surpassing 10
surrogacy 10
surviving 10
swings 10
swung 10
tability 10
tail 10
tally 10
tantamount 10
tea 10
tectonic 10
tel@@ 10
temptations 10
tenth 10
textile 10
textiles 10
theater 10
theorists 10
thered 10
third-@@ 10
tical 10
ticket 10
til@@ 10
tion@@ 10
tis 10
tively 10
tiveness 10
too-big-to-fail 10
tooth 10
tor@@ 10
totalitarianism 10
tracks 10
traffickers 10
trans 10
translates 10
transmitting 10
tree 10
tribe 10
tribes 10
triggers 10
tru@@ 10
tumultuous 10
tures 10
twin 10
twins 10
tz 10
ud@@ 10
ulation 10
unabated 10
unaffordable 10
unconscious 10
uncovered 10
und@@ 10
unfolding 10
unfounded 10
unnoticed 10
unreasonable 10
unsafe 10
unsettled 10
unsuccessful 10
unused 10
upgraded 10
upheavals 10
upturn 10
uring 10
va 10
vanguard 10
variables 10
verify 10
veterans 10
victorious 10
viewpoint 10
vocabulary 10
vocational 10
warlords 10
warrant 10
warrants 10
washing 10
well-defined 10
well-meaning 10
weren 10
wo@@ 10
wonders 10
world-@@ 10
worsens 10
wrongly 10
youthful 10
á@@ 10
&apos;Adua 9
-like 9
-to-@@ 9
1,200 9
13@@ 9
1969 9
1976 9
1977 9
20-@@ 9
2007-2008 9
2008-2009 9
2035 9
20th 9
2100 9
25-@@ 9
3.1 9
350 9
4.2 9
450 9
5.6 9
50th 9
51 9
5th 9
7.@@ 9
87 9
AAA 9
AC@@ 9
Ambassador 9
Antarctic 9
Arabian 9
Armenian 9
As 9
Ay@@ 9
Back 9
Banking 9
Beirut 9
Benelux 9
Bernie 9
Better 9
Bir@@ 9
Budapest 9
Bur@@ 9
CN@@ 9
CPI 9
Cap@@ 9
Catalan 9
Chase 9
Commissioner 9
Cri@@ 9
Cro@@ 9
Curtain 9
Del@@ 9
Donbas 9
Dor@@ 9
Dr. 9
Du@@ 9
EM@@ 9
ES@@ 9
Economist 9
Election 9
Eurogroup 9
Euroskeptic 9
Exxon 9
ExxonMobil 9
FC 9
Family 9
Flake 9
Fo@@ 9
Fran@@ 9
Gini 9
Good 9
Governance 9
Han@@ 9
Hansen 9
Howard 9
Hun 9
Hy@@ 9
I. 9
IDB 9
IMF-@@ 9
Information 9
JPMorgan 9
Janet 9
Jimmy 9
Juan 9
K 9
KRG 9
Kadima 9
Kenyans 9
Khatami 9
Kirchner 9
Kuroda 9
Kyong-hui 9
Luiz 9
Lyndon 9
Management 9
Manmohan 9
Maoists 9
Marcos 9
Media 9
Ministers 9
Missile 9
Mosul 9
NA 9
NGO 9
NSA 9
Navalny 9
Nehru 9
Nigerian 9
North-South 9
Okinawa 9
Os 9
Palin 9
Panama 9
Pas@@ 9
Pence 9
Pennsylvania 9
Petersburg 9
Pew 9
Politburo 9
Pompeo 9
Presidents 9
Protestants 9
Raisi 9
Raúl 9
Regional 9
Riyadh 9
Romanian 9
Russia-@@ 9
Rust 9
SD@@ 9
SNB 9
SOE 9
Sahara 9
Sam 9
Sciences 9
Seattle 9
Seehofer 9
Self-Defense 9
Shin@@ 9
Siberia 9
Slobodan 9
Soviets 9
Spaniards 9
Standing 9
Stiglitz 9
Sudanese 9
Sun 9
Sunni-@@ 9
Sy@@ 9
Technology 9
Thucydides 9
Tig@@ 9
Trust 9
UAE 9
US-Iran 9
Uni@@ 9
Up 9
Vo@@ 9
Wa@@ 9
Wal-Mart 9
Wars 9
Wh@@ 9
Wil@@ 9
Win@@ 9
Yar 9
Yellow 9
Yitzhak 9
Youth 9
Zardari 9
abandonment 9
abject 9
abortions 9
accompanies 9
achieves 9
acknowledgement 9
activated 9
adage 9
adamant 9
addictive 9
adi@@ 9
administrators 9
adopts 9
adventurism 9
afflicting 9
ah@@ 9
aiding 9
airspace 9
airstrikes 9
alignments 9
aliz@@ 9
allu@@ 9
allure 9
amazing 9
ambiguity 9
ameliorate 9
aming 9
amnesia 9
amply 9
anarch@@ 9
ange 9
anim@@ 9
announcements 9
anti-trust 9
antiretroviral 9
antitrust 9
any@@ 9
appe@@ 9
appease 9
appeasement 9
applauded 9
appliances 9
applicants 9
artillery 9
assemble 9
asymmetry 9
aters 9
ath@@ 9
ative-@@ 9
attests 9
audit 9
awakening 9
awi 9
ay 9
babies 9
backbone 9
backfire 9
backfired 9
backsliding 9
bang 9
belonged 9
ben@@ 9
bers 9
beset 9
bi-@@ 9
bic@@ 9
big@@ 9
blackmail 9
blames 9
bleeding 9
blew 9
blin@@ 9
bomber 9
bone 9
borrows 9
bottlenecks 9
bottom-up 9
boycott 9
brinkmanship 9
buffers 9
bull 9
bursting 9
buttressed 9
bypass 9
calibrated 9
cancers 9
candidacy 9
capit@@ 9
caps 9
captive 9
carnage 9
cash-@@ 9
causal 9
ce-@@ 9
cease-fire 9
celebrations 9
cent 9
challenger 9
challengers 9
characterizes 9
charitable 9
check@@ 9
checked 9
checking 9
cherished 9
choke 9
cies 9
cigarette 9
cing 9
circulated 9
civility 9
cleric 9
clerics 9
climate-related 9
cloth 9
coexistence 9
cohort 9
comforting 9
commemor@@ 9
commemorate 9
comment 9
commodity-@@ 9
community-based 9
compensating 9
competi@@ 9
complexities 9
compreh@@ 9
conceal 9
confirmation 9
confrontations 9
confuse 9
consortium 9
constrains 9
constructing 9
constructively 9
contemplated 9
contemplating 9
contests 9
convene 9
conveniently 9
convictions 9
copies 9
corporation 9
corps 9
corrections 9
corridor 9
cour@@ 9
cracks 9
crush 9
curiosity 9
damages 9
dampening 9
debt-financed 9
decentralization 9
decimated 9
declarations 9
decom@@ 9
decoupling 9
deduc@@ 9
definitively 9
delusions 9
deported 9
deserved 9
devotion 9
diagnoses 9
dig@@ 9
disabled 9
disadvantages 9
disaffection 9
disarm 9
disciplined 9
disclose 9
disease-@@ 9
disillusionment 9
dismantled 9
disseminate 9
dissimilar 9
dition 9
dogma 9
domains 9
doorstep 9
double-@@ 9
doubtless 9
downfall 9
downstream 9
dressed 9
droves 9
early-@@ 9
earmarked 9
earnest 9
earns 9
echo 9
edifice 9
edition 9
ego@@ 9
ek 9
eling 9
ell@@ 9
elu@@ 9
email 9
emboldened 9
embryo 9
embryos 9
enactment 9
encirclement 9
encroachment 9
energy-intensive 9
ens@@ 9
entertaining 9
ential 9
envisage 9
envision 9
envisioned 9
epic 9
ero@@ 9
err@@ 9
establishments 9
estimating 9
ethnically 9
euphoria 9
evacuation 9
evade 9
ever-larger 9
exemption 9
exemptions 9
exodus 9
exorbitant 9
expansionism 9
expel 9
expropriation 9
extensively 9
extra-@@ 9
extrapol@@ 9
exuberance 9
ez@@ 9
fact-based 9
factual 9
faded 9
fanciful 9
far-@@ 9
far@@ 9
fast-@@ 9
fathom 9
feder@@ 9
federalist 9
fer 9
ffs 9
fiasco 9
fickle 9
figuring 9
flags 9
fledgling 9
flimsy 9
float 9
fol@@ 9
fooled 9
forceful 9
forego 9
formali@@ 9
four-year 9
frank 9
fray 9
free@@ 9
frenzy 9
fringes 9
fron@@ 9
front-loaded 9
fuel-@@ 9
ful@@ 9
gal@@ 9
gam@@ 9
gambling 9
gangs 9
garnered 9
gas@@ 9
gel 9
generators 9
genic 9
gic 9
glacial 9
glaring 9
glimpse 9
glob@@ 9
govern@@ 9
governs 9
grabbing 9
graduation 9
grand@@ 9
grids 9
grotesque 9
groupings 9
guarded 9
gue 9
guy 9
hai 9
hand-@@ 9
har 9
harbinger 9
harmonized 9
harsher 9
heady 9
health-@@ 9
heightening 9
hens 9
hesitant 9
hesitation 9
hierarchies 9
hij@@ 9
hint 9
hinted 9
hints 9
hol@@ 9
home-@@ 9
hospitality 9
hostilities 9
humility 9
hydrogen 9
ides 9
ie@@ 9
ign@@ 9
impe@@ 9
impover@@ 9
impulses 9
inciting 9
income-@@ 9
incorrect 9
ind@@ 9
indictment 9
infect 9
infer@@ 9
infinite 9
inflammatory 9
inflation-targeting 9
inflow 9
inhibit 9
insidious 9
insignificant 9
installations 9
instruction 9
insurrection 9
int@@ 9
integr@@ 9
intermediation 9
intertwined 9
invent 9
inventors 9
investigated 9
investment-led 9
ious 9
ishing 9
itu@@ 9
izes 9
jailing 9
ji@@ 9
joy 9
ki 9
kidney 9
ky 9
lab@@ 9
labs 9
lah 9
laissez-faire 9
lamented 9
lanes 9
lap@@ 9
late-@@ 9
layoffs 9
league 9
leg 9
legality 9
len@@ 9
lia 9
lid 9
lieu 9
limitation 9
literate 9
livelihood 9
lively 9
lo 9
locking 9
logging 9
logically 9
long-time 9
longest 9
loosened 9
lowers 9
macroeconomics 9
mafia 9
malevolent 9
malicious 9
maps 9
marijuana 9
market-friendly 9
marshal 9
mask 9
masked 9
mastery 9
mayor 9
meal 9
meals 9
measurements 9
medications 9
mel@@ 9
mentally 9
microfinance 9
mid-1990 9
millennia 9
minerals 9
mirrors 9
mistreatment 9
mod@@ 9
moderating 9
mold 9
molecules 9
monks 9
mortal 9
motivations 9
mullahs 9
muscles 9
mutations 9
naked 9
nearing 9
nefarious 9
neg@@ 9
negate 9
neo-liberal 9
no-brainer 9
noble 9
non-tariff 9
normalcy 9
normative 9
nuclear-power 9
nuclear-weapon 9
oblige 9
obscures 9
observe 9
occasional 9
oil-price 9
oll@@ 9
omy 9
onian 9
operative 9
oppressed 9
orbit 9
ord@@ 9
organizers 9
ort 9
os@@ 9
ou 9
ounce 9
outdoor 9
outlet 9
outward-looking 9
overestimated 9
overtures 9
pac@@ 9
painfully 9
panics 9
paradoxical 9
parliamentarians 9
parochial 9
participant 9
particle 9
passively 9
path@@ 9
pay@@ 9
payoff 9
peer-to-peer 9
penchant 9
perilous 9
perils 9
pernicious 9
perseverance 9
personalities 9
persuasion 9
pharmaceuticals 9
philosophical 9
pin@@ 9
pleas 9
pluralistic 9
poet 9
poison 9
polarizing 9
pollsters 9
pools 9
pope 9
post-2008 9
potatoes 9
precision 9
predetermined 9
premise 9
premises 9
preserved 9
president-elect 9
pretending 9
pretense 9
primitive 9
privatized 9
pro-EU 9
probabilities 9
proclaim 9
profiles 9
profit-sharing 9
profligacy 9
programmed 9
projection 9
proliferate 9
propping 9
prosecuting 9
protector 9
protesting 9
psychologically 9
publics 9
pul@@ 9
puzzling 9
qualitative 9
quantum 9
rac@@ 9
radioactive 9
rati@@ 9
rationally 9
realistically 9
realists 9
reaping 9
recalling 9
reciprocal 9
reciprocate 9
rectitude 9
redistribute 9
redouble 9
reefs 9
reformer 9
refu@@ 9
regained 9
reinvigorating 9
reiterated 9
relapse 9
relic 9
repaired 9
replicated 9
resented 9
resonate 9
resounding 9
resource-@@ 9
resurrected 9
revitalize 9
revolts 9
revolutionaries 9
rewrite 9
righ@@ 9
ron@@ 9
rosy 9
roy@@ 9
runoff 9
rupee 9
rushing 9
ruthlessly 9
s-based 9
sacked 9
saga 9
salvage 9
scapegoat 9
sch@@ 9
scrap 9
sec@@ 9
sectarianism 9
securitization 9
sel 9
senses 9
sexuality 9
shale-energy 9
shapes 9
shar@@ 9
sharks 9
shockingly 9
shrug 9
shrugged 9
shun 9
sibility 9
sigh 9
silenced 9
sin 9
sing@@ 9
sinister 9
sized 9
sizes 9
slash 9
slip 9
slippery 9
slipping 9
slope 9
smartphones 9
sn@@ 9
soft-power 9
sorely 9
sou@@ 9
sow 9
specified 9
spheres 9
spots 9
squeezed 9
stadium 9
stagflation 9
startling 9
starving 9
statist 9
statisticians 9
sted 9
stiff 9
stretched 9
structurally 9
stunned 9
sty 9
styles 9
stymied 9
sub-regional 9
sued 9
suffrage 9
sun@@ 9
supervised 9
sus 9
susceptibility 9
sword 9
sy@@ 9
tan 9
taper 9
tations 9
teaches 9
technology-driven 9
teen 9
tery 9
themes 9
then-US 9
third-largest 9
thorough 9
ths 9
tic@@ 9
tilt 9
timid 9
tin@@ 9
tionary 9
tives 9
too-@@ 9
toolkit 9
topple 9
tragedies 9
translating 9
transmit 9
treason 9
treasure 9
tsunamis 9
tunnels 9
turnaround 9
two-year 9
umb@@ 9
unaddressed 9
unanimous 9
unbridled 9
undeniably 9
undo 9
undocumented 9
undue 9
unelected 9
unequivocal 9
unfinished 9
unleashing 9
unmet 9
unmitigated 9
unpredictability 9
untapped 9
unwinding 9
update 9
upswing 9
uptick 9
ur 9
ured 9
usable 9
ust 9
vacation 9
variation 9
ve-@@ 9
vehemently 9
videos 9
vigor 9
violently 9
voiced 9
vs. 9
walked 9
watches 9
watershed 9
weights 9
well-designed 9
wheel 9
whichever 9
windfall 9
wiped 9
yer 9
yev 9
és 9
-minded 8
.com 8
0.0@@ 8
0.2 8
12,000 8
15-@@ 8
18-@@ 8
190 8
190@@ 8
1920s 8
1964 8
2.8 8
21st 8
4,@@ 8
40@@ 8
5.1 8
5.8 8
50-@@ 8
50@@ 8
6.4 8
6.9 8
60,000 8
69 8
6th 8
77 8
8.5 8
9,000 8
9.5 8
94 8
AI@@ 8
About 8
Agriculture 8
Alawite 8
Alex@@ 8
Allied 8
Anglo-Saxon 8
Ara@@ 8
Armed 8
Armenians 8
At@@ 8
Az@@ 8
BAT 8
BIS 8
BNP 8
Baker 8
Bali 8
Bangkok 8
Bangladeshi 8
Bas@@ 8
Benazir 8
Benedict 8
Benghazi 8
Bloomberg 8
Bollywood 8
Bra@@ 8
Breivik 8
CTBT 8
Cambridge 8
Camp 8
Care 8
Cas@@ 8
Chad 8
Char@@ 8
Che@@ 8
Chechen 8
China-US 8
Cho@@ 8
Clo@@ 8
Colombians 8
Commerce 8
Correa 8
Cruz 8
Cubans 8
Cypriots 8
DDT 8
Dar@@ 8
Diet 8
Dim@@ 8
Dow 8
Druze 8
EA@@ 8
ER@@ 8
EU-level 8
Ed@@ 8
Em@@ 8
Emperor 8
Europe@@ 8
FAO 8
FC@@ 8
Fa@@ 8
Facility 8
Fi@@ 8
Fifth 8
Filipinos 8
Fischer 8
Forward 8
Franco-@@ 8
Fun@@ 8
German-@@ 8
Globalization 8
Goal 8
Governors 8
Grand 8
H.W. 8
HF@@ 8
Hague 8
Hariri 8
Hebdo 8
Heights 8
Holy 8
IA 8
ID@@ 8
IO@@ 8
ISPs 8
Innovation 8
Inácio 8
Israeli-@@ 8
Ivan 8
Jack 8
Japanese-@@ 8
Jew 8
Joint 8
Jones 8
Kan 8
Khmer 8
Koreas 8
Kur@@ 8
Kyrgyzstan 8
La 8
Lady 8
Lessons 8
Lev@@ 8
Long 8
Los 8
M-@@ 8
MD@@ 8
MDG 8
Mad@@ 8
Made 8
Maghreb 8
Malaria 8
Mars 8
Marxist 8
Mayor 8
Mir@@ 8
Model 8
Mr. 8
Mugabe 8
Nikita 8
Nile 8
Non-@@ 8
Nouri 8
Nuremberg 8
Ortega 8
Ou@@ 8
Out 8
PC 8
PISA 8
PN@@ 8
Pandora 8
Pap@@ 8
Paulo 8
Peter 8
Pra@@ 8
Pur@@ 8
R2P 8
RBI 8
Rab@@ 8
Raf@@ 8
Refugee 8
Region 8
Ricardo 8
Ross 8
Rouge 8
SA 8
SNP 8
SO@@ 8
Schumpeter 8
Sec@@ 8
Sharia 8
She@@ 8
Shias 8
Single 8
Socialists 8
Society 8
Space 8
Sputnik 8
Srebrenica 8
Stalinism 8
Stu@@ 8
T. 8
TF@@ 8
Target 8
Tha@@ 8
The@@ 8
Tom@@ 8
Too 8
Tor@@ 8
Tra@@ 8
Trading 8
Truman 8
Trump-@@ 8
Truth 8
Tsai 8
Tudor 8
U-@@ 8
US-based 8
USMCA 8
USSR 8
Vic@@ 8
Volcker 8
Weapons 8
Wester@@ 8
Without 8
Wo@@ 8
Wol@@ 8
Workers 8
X 8
YouTube 8
abstr@@ 8
abusive 8
ac 8
accoun@@ 8
aches 8
acker 8
acks 8
acqu@@ 8
adamantly 8
addicted 8
adequacy 8
admirable 8
ado@@ 8
adolescents 8
adventure 8
advisors 8
affirm 8
afflict 8
affront 8
ai@@ 8
ales 8
ali 8
alienate 8
alizations 8
allay 8
alleviating 8
alleviation 8
alo@@ 8
alter@@ 8
altruistic 8
amassed 8
ame@@ 8
anachronistic 8
anathema 8
anch@@ 8
anchoring 8
ancy 8
anda 8
animosity 8
annex 8
ante 8
anti-EU 8
anti-Iran 8
anti-Israel 8
anti-Japanese 8
anti-inflation 8
anticipating 8
antipathy 8
ao 8
apologize 8
appearances 8
appraisal 8
appreci@@ 8
approving 8
aps 8
ar-@@ 8
ara 8
arbiter 8
arbitr@@ 8
archaic 8
ardent 8
arduous 8
arial 8
arians 8
armaments 8
arranged 8
arriving 8
ascendancy 8
ased 8
asis 8
aspirational 8
assassinated 8
assign 8
assuring 8
aster 8
asthma 8
asy 8
ata 8
ater@@ 8
ath 8
atism 8
atmospheric 8
attendant 8
attribution 8
authentic 8
authorizing 8
auto@@ 8
automakers 8
averaging 8
averted 8
aviation 8
awa@@ 8
backwardness 8
bad@@ 8
band 8
barrels 8
basing 8
beacon 8
belligerent 8
bend 8
benevolent 8
berg 8
beside 8
bility 8
binds 8
bing 8
bir@@ 8
births 8
bitterly 8
blatantly 8
blessed 8
bloggers 8
blown 8
blows 8
blurring 8
bonanza 8
border-@@ 8
borderless 8
bot@@ 8
bow 8
braz@@ 8
breaches 8
breakout 8
breathtaking 8
brethren 8
brokered 8
brunt 8
brute 8
buc@@ 8
bud@@ 8
builds 8
built-in 8
burner 8
busts 8
but@@ 8
buyer 8
c-@@ 8
ca 8
cables 8
cages 8
cake 8
calamitous 8
canceling 8
capital-market 8
captures 8
cared 8
caregivers 8
cares 8
carrots 8
cas@@ 8
cat@@ 8
ceding 8
celebrity 8
cem@@ 8
cen@@ 8
censors 8
centenary 8
centerpiece 8
centrifuges 8
cessation 8
ch-@@ 8
chaebol 8
chickens 8
chiefly 8
child-@@ 8
chur@@ 8
civili@@ 8
clearest 8
closures 8
clothes 8
clu@@ 8
clues 8
cohorts 8
collabor@@ 8
collaborating 8
collec@@ 8
colony 8
commanded 8
commercialization 8
commons 8
compulsory 8
conciliatory 8
condoms 8
configuration 8
conglomerates 8
conjunction 8
consensual 8
consisting 8
consulted 8
contents 8
contingencies 8
convening 8
convict 8
copper 8
copyright 8
corn 8
cornerstone 8
corporate-@@ 8
corrosive 8
costing 8
councils 8
counseling 8
cracking 8
crowding 8
crown 8
cruelty 8
cs 8
culpability 8
culprits 8
cured 8
cyber-@@ 8
darkness 8
deaf 8
dearly 8
decidedly 8
deepens 8
defendants 8
defied 8
delegating 8
deployments 8
depreciating 8
depressive 8
deprive 8
derailing 8
derives 8
descendants 8
desertification 8
desk 8
despised 8
destinations 8
detecting 8
developmental 8
devi@@ 8
die@@ 8
differing 8
diffuse 8
digitalization 8
dinner 8
dip 8
disastrously 8
discrepancies 8
discriminate 8
disenchantment 8
disillusion 8
disp@@ 8
displays 8
displeasure 8
dissatisfied 8
distances 8
distancing 8
distracted 8
distribu@@ 8
disturbances 8
disturbed 8
diversifying 8
divestment 8
documentary 8
doldrums 8
donation 8
doom 8
downright 8
dress 8
du 8
dwindling 8
early-stage 8
early-warning 8
earners 8
echoes 8
eds 8
ef 8
elder 8
electorates 8
elementary 8
elicit 8
embarrassing 8
embassies 8
emigration 8
eminent 8
emitters 8
emp@@ 8
employment-@@ 8
energy-efficient 8
engulfed 8
ense 8
enslaved 8
entailed 8
equi@@ 8
equitably 8
ered 8
eries 8
es-@@ 8
ethanol 8
evaluated 8
ever-greater 8
exacerbates 8
exams 8
excellence 8
exhibit 8
exhor@@ 8
exits 8
expansive 8
expedient 8
expiration 8
explo@@ 8
explored 8
exposes 8
externally 8
faiths 8
fallacies 8
fanatical 8
fanfare 8
fantasies 8
far-flung 8
far-sighted 8
fascinating 8
fashionable 8
fateful 8
fats 8
fav@@ 8
façade 8
featuring 8
fertilizers 8
fications 8
fifteen 8
files 8
financial-services 8
firmness 8
fitness 8
fix@@ 8
flat@@ 8
flew 8
flo@@ 8
flooded 8
foe 8
for-profit 8
forbidden 8
foreclosures 8
foreseen 8
fortified 8
franchise 8
frictions 8
frightened 8
fruitful 8
frustrate 8
ft 8
full-employment 8
fun 8
func@@ 8
fur@@ 8
furniture 8
fury 8
gambit 8
gation 8
gers 8
ght 8
gifts 8
gig@@ 8
global-governance 8
go-@@ 8
grabs 8
grade 8
graduated 8
graph@@ 8
grapple 8
gravest 8
greedy 8
gripped 8
groundbreaking 8
guarantor 8
guys 8
gy@@ 8
hable 8
half-decade 8
half-dozen 8
halving 8
ham@@ 8
harmonious 8
harmonize 8
harms 8
harvest 8
health-insurance 8
heels 8
hefty 8
heroin 8
highway 8
hiking 8
hindered 8
hinges 8
holdout 8
holdouts 8
homogeneous 8
hormone 8
house@@ 8
hydraulic 8
hyper-globalization 8
iP@@ 8
iPhone 8
idd@@ 8
idealistic 8
ids 8
ield 8
igh@@ 8
illiterate 8
illumin@@ 8
ily 8
impair 8
impress 8
inactive 8
inadequacy 8
ination 8
incarceration 8
incitement 8
incoherent 8
inconclusive 8
inconsistency 8
inexperienced 8
influenza 8
information-technology 8
inging 8
ini 8
injection 8
inland 8
innocence 8
insider 8
insofar 8
inspirational 8
inspires 8
insulting 8
intensely 8
intentional 8
intermediate 8
internationalist 8
intrinsic 8
intrusion 8
invade 8
inward-looking 8
ishes 8
ivory 8
ja 8
jet 8
jets 8
jittery 8
justifiable 8
keepers 8
ker@@ 8
ki@@ 8
kin 8
labeled 8
labor-saving 8
last-minute 8
lation 8
laudable 8
lectures 8
legitimizing 8
lev@@ 8
liber@@ 8
liberalize 8
liberating 8
life-@@ 8
lify 8
lighter 8
lightly 8
linkage 8
liver 8
long-held 8
long@@ 8
loving 8
low-level 8
low-skilled 8
lung 8
lure 8
macro-@@ 8
madness 8
maize 8
males 8
malfeasance 8
mall 8
mandarins 8
maneuvers 8
manifestations 8
manufactures 8
masks 8
mattered 8
mediated 8
mediation 8
megabanks 8
meltdowns 8
mentions 8
menu 8
meritocratic 8
metaphors 8
middle- 8
militarized 8
mimic 8
miracles 8
misinformation 8
mobile-@@ 8
mockery 8
moderately 8
modernized 8
modestly 8
mongers 8
monitors 8
monopoli@@ 8
monumental 8
monuments 8
mp 8
mul@@ 8
murky 8
muted 8
my@@ 8
national-level 8
nationally 8
natives 8
nativism 8
navigating 8
nearest 8
neatly 8
needlessly 8
nerves 8
networking 8
newfound 8
ney 8
no-fly 8
non 8
non-binding 8
non-democratic 8
nongovernmental 8
normality 8
noxious 8
nul@@ 8
numbered 8
nur@@ 8
offenses 8
old-fashioned 8
ological 8
oming 8
ominously 8
one-off 8
one-tenth 8
optim@@ 8
oral 8
originate 8
ote 8
oub@@ 8
ounded 8
ous@@ 8
oust 8
outflow 8
outreach 8
overcame 8
overlooks 8
overreaction 8
override 8
overthrew 8
overthrown 8
overweening 8
overweight 8
own@@ 8
oxide 8
pack 8
packaged 8
packed 8
pains 8
paint 8
pair 8
pal@@ 8
paltry 8
pandering 8
par 8
paraphrase 8
pardon 8
parental 8
pariah 8
partition 8
pastoralists 8
pathogens 8
peasant 8
penetration 8
perpetrator 8
philanthropic 8
photographs 8
physicists 8
pigs 8
pioneered 8
pitting 8
plaintiffs 8
planetary 8
plastics 8
plausibly 8
plo@@ 8
plummet 8
poaching 8
policemen 8
policy-@@ 8
pooling 8
porous 8
portable 8
postal 8
posters 8
postponing 8
precautions 8
predicated 8
predictive 8
preeminence 8
prerogative 8
presided 8
presses 8
prints 8
programmers 8
progressed 8
progressives 8
protestors 8
proverbial 8
pseudo-@@ 8
psyche 8
psychiatric 8
public-relations 8
pumping 8
purge 8
purview 8
qualifies 8
ram@@ 8
ranges 8
raped 8
ration 8
rationality 8
rays 8
rea@@ 8
real-@@ 8
recalcitrant 8
recapitalized 8
recapture 8
recast 8
reception 8
recipes 8
recur 8
recycling 8
referendums 8
regrettable 8
rehabilitation 8
releases 8
religi@@ 8
remake 8
remotely 8
reneging 8
renegotiating 8
renowned 8
repo 8
repressing 8
reputable 8
resentful 8
resettlement 8
resource-rich 8
respiratory 8
restive 8
resumes 8
resurgent 8
rethought 8
retro@@ 8
rev@@ 8
revelation 8
reviewed 8
revising 8
ri 8
riddled 8
right-@@ 8
rightful 8
rigidities 8
rin@@ 8
risk-sharing 8
rob 8
robustness 8
rubble 8
ruble 8
sa 8
sabotage 8
sacrificed 8
sacrificing 8
sadness 8
salvation 8
sand 8
sar@@ 8
satisfies 8
saves 8
scarred 8
scars 8
scorn 8
seal 8
seaside 8
secularists 8
see@@ 8
self-sufficient 8
sensational 8
sensing 8
sensitivities 8
sensors 8
sequencing 8
sessions 8
she@@ 8
shedding 8
shelf 8
shining 8
shly 8
shores 8
short-@@ 8
short-termism 8
shortcoming 8
shutting 8
silencing 8
similarity 8
six-@@ 8
sixteenth 8
skies 8
skillful 8
skyrocketed 8
skyrocketing 8
sle@@ 8
slice 8
sliding 8
slums 8
small-@@ 8
solvent 8
somebody 8
sor@@ 8
sounded 8
specifics 8
speeds 8
spilling 8
spirits 8
sta@@ 8
staffed 8
stamp 8
stand@@ 8
state-building 8
state-sponsored 8
statecraft 8
statesmanship 8
statute 8
stealing 8
stoves 8
straining 8
stranded 8
stranger 8
stricken 8
strident 8
stripping 8
stro@@ 8
stry 8
stubborn 8
stumble 8
submitting 8
subsidiary 8
sue 8
suite 8
superficial 8
supervise 8
supply-@@ 8
surrendered 8
surround 8
swayed 8
sworn 8
system@@ 8
taboos 8
tackled 8
tain 8
tales 8
tame 8
tapering 8
teachings 8
tears 8
temper 8
terribly 8
there@@ 8
thering 8
thers 8
thick 8
thrived 8
tian 8
tifying 8
timed 8
timeframe 8
tire 8
tiz@@ 8
tolerable 8
tolerated 8
tot@@ 8
transcends 8
tremendously 8
trilateral 8
trips 8
troublesome 8
trucks 8
trustworthy 8
tt@@ 8
tumors 8
turbines 8
tw@@ 8
two-way 8
ua 8
uck@@ 8
ult 8
um-@@ 8
un-@@ 8
unattainable 8
unavailable 8
unconstitutional 8
undergone 8
undone 8
unease 8
unethical 8
unfamiliar 8
unify 8
unlawful 8
unlock 8
unstoppable 8
unsurprising 8
unt 8
untested 8
unwelcome 8
unwise 8
upheld 8
utmost 8
uttered 8
vacations 8
var 8
vent@@ 8
venue 8
vers@@ 8
vertical 8
vet 8
vetoed 8
vetoing 8
victimized 8
violates 8
vitamin 8
vow 8
vulture 8
wa 8
waited 8
wards 8
wasting 8
watchdog 8
water-related 8
wea@@ 8
weekend 8
weekly 8
weighs 8
well-developed 8
wells 8
whe@@ 8
wherewithal 8
whip 8
whites 8
wire 8
worship 8
worthless 8
wrath 8
wreak 8
writes 8
yn@@ 8
yo@@ 8
youngest 8
zation 8
zeal 8
ü@@ 8
0.25 7
00 7
101 7
15th 7
170 7
18.@@ 7
1870 7
1900 7
1910 7
192 7
1936 7
1937 7
1944 7
1965 7
1997-1998 7
2.0 7
220 7
3,500 7
3-4 7
4.1 7
400,000 7
5-10 7
60th 7
7.7 7
75,000 7
80,000 7
80@@ 7
9.@@ 7
93 7
96 7
97 7
ACA 7
AD@@ 7
APEC 7
Ababa 7
Aceh 7
Addis 7
Af@@ 7
Ak@@ 7
Albanians 7
Albert 7
Alexis 7
Allen 7
Amendment 7
Amnesty 7
Anderson 7
Andre@@ 7
Antarctica 7
Are 7
Ariel 7
Arizona 7
Articles 7
Ass@@ 7
Awakening 7
BC 7
BRCA1 7
Bachelet 7
Bak@@ 7
Banks 7
Barak 7
Barro 7
Basic 7
Belgian 7
Bible 7
Bon@@ 7
Bor@@ 7
Br@@ 7
Bran@@ 7
Brazilians 7
Bro@@ 7
Brookings 7
Burkina 7
CO2-@@ 7
CO@@ 7
CPC 7
CRA 7
Cape 7
Chilean 7
Club 7
Comey 7
Coming 7
Condoleezza 7
Cs 7
DV@@ 7
Da@@ 7
Daily 7
Dam@@ 7
Dan@@ 7
Daoud 7
Dawn 7
Def@@ 7
Deutsche 7
Dick 7
Dom@@ 7
Dublin 7
Duch 7
Dwight 7
EIB 7
EID 7
ENP 7
ER 7
ESDP 7
ESG 7
Emissions 7
Er@@ 7
Erdogan 7
Es 7
Faso 7
Finnish 7
Fortune 7
Foshan 7
Fra@@ 7
French-@@ 7
GB@@ 7
GGE 7
GPE 7
Game 7
Geo@@ 7
German@@ 7
Go 7
Greens 7
Guardian 7
H. 7
Hay@@ 7
Haz@@ 7
Herbert 7
Hill 7
History 7
Houthi 7
Huawei 7
Hun@@ 7
Hur@@ 7
Hwang 7
IBM 7
ID 7
IM@@ 7
IR@@ 7
Il@@ 7
Imam 7
Imperial 7
Inequality 7
Interpol 7
Islamophobia 7
Island 7
JPM 7
John@@ 7
Jr 7
Judaism 7
Kadyrov 7
Kampala 7
Lahore 7
Las 7
Len@@ 7
Limits 7
Lin 7
Line 7
Lord 7
Lukashenko 7
Machiavellian 7
Macierewicz 7
Magna 7
Magnitsky 7
Mah@@ 7
Maj@@ 7
Make 7
Maldives 7
Mazowiecki 7
Meeting 7
Mekong 7
Michelle 7
Mil@@ 7
Milan 7
Mitchell 7
Mongo@@ 7
Morawiecki 7
More 7
Moroccan 7
Ms. 7
NASA 7
NBU 7
Naif 7
Najib 7
Nan@@ 7
Nasser 7
Nep@@ 7
Neves 7
Obasanjo 7
Ol@@ 7
Oregon 7
Over@@ 7
PC@@ 7
PM@@ 7
PR 7
PRC 7
PTAs 7
Palestinian-Israeli 7
Patel 7
Pax 7
Peoples 7
Pervez 7
Pius 7
Plato 7
Poverty 7
Province 7
Ramadan 7
Re-@@ 7
Recovery 7
Refugees 7
Rex 7
Ric@@ 7
Ricans 7
SARS 7
SGP 7
SNCF 7
SWF 7
Samuelson 7
Sar@@ 7
Sartre 7
Saud 7
Schroeder 7
Sein 7
Sergei 7
Shiites 7
Shoal 7
So@@ 7
Socrates 7
Somali 7
Stephen 7
Sumo 7
Super@@ 7
Syn@@ 7
TVET 7
Tal@@ 7
Tar@@ 7
Taylor 7
Tech 7
Terror 7
Theory 7
Thir@@ 7
Threat 7
Tigers 7
Time 7
To 7
Tories 7
Tribunal 7
Tro@@ 7
Trudeau 7
Turkmenistan 7
UBI 7
UGHE 7
UMNO 7
US-South 7
Unilever 7
Us 7
Uzbekistan 7
Varoufakis 7
Vegas 7
Ven@@ 7
Versailles 7
Virginia 7
WEF 7
Wealth 7
Wei@@ 7
Wi@@ 7
WikiLeaks 7
Wrong 7
Xiaobo 7
Yahoo 7
Yor@@ 7
Z 7
Zambia 7
abandons 7
abduction 7
able-@@ 7
accelerator 7
accessing 7
accompli@@ 7
accomplishment 7
accrue 7
acquiescence 7
acumen 7
adept 7
adheres 7
admissions 7
admits 7
adolescent 7
advertisements 7
aerial 7
afar 7
affirmed 7
afflicts 7
affordability 7
afloat 7
age-@@ 7
agro-@@ 7
ake 7
aled 7
aler@@ 7
alese 7
aling 7
all-powerful 7
alley 7
alling 7
ally-@@ 7
altar 7
alternate 7
ambassadors 7
ambivalence 7
ambivalent 7
amorphous 7
analyst 7
ania 7
anointed 7
anonymity 7
anti-dumping 7
antibodies 7
ape 7
app@@ 7
appalled 7
apples 7
appro@@ 7
apps 7
arable 7
arc 7
ards 7
ared 7
ari 7
arid 7
arming 7
arrogance 7
ases 7
aspirin 7
assa@@ 7
assaults 7
assembling 7
assigning 7
assisting 7
associates 7
assuage 7
assurance 7
asted 7
astonishingly 7
ati 7
atoms 7
attackers 7
attain 7
aud@@ 7
auspices 7
auto-@@ 7
averse 7
averting 7
awaits 7
awaken 7
awe 7
ax@@ 7
aya 7
b-@@ 7
backwards 7
barbaric 7
bargains 7
bark 7
bat@@ 7
bear@@ 7
behest 7
benef@@ 7
bert 7
bet@@ 7
betray 7
bickering 7
big-@@ 7
billionaire 7
bio-@@ 7
biop@@ 7
bird 7
blank 7
bled 7
blighted 7
blinded 7
blurred 7
bodes 7
bond-buying 7
bones 7
boomed 7
bots 7
bouts 7
boxes 7
brew 7
bribing 7
brittle 7
broadcasters 7
broadcasts 7
brown 7
buffeted 7
bumpy 7
bun@@ 7
bund@@ 7
bung@@ 7
cab@@ 7
cameras 7
capital-flow 7
capricious 7
carbon-dioxide 7
carbon-intensive 7
carpet 7
carved 7
catchphrase 7
cated 7
categor@@ 7
cats 7
cau@@ 7
causality 7
cautiously 7
centrally 7
chambers 7
chat@@ 7
chim@@ 7
cians 7
circular 7
circus 7
city-@@ 7
claimants 7
clampdown 7
clan 7
clarified 7
classification 7
clean@@ 7
cleanup 7
clearinghouse 7
cleavage 7
climate-friendly 7
clue 7
coal-@@ 7
coexist 7
collu@@ 7
colonized 7
columnist 7
columnists 7
combinations 7
comman@@ 7
commander-in-chief 7
commanders 7
commodi@@ 7
commodity-price 7
commun@@ 7
competencies 7
complaining 7
complementarity 7
complementing 7
compliant 7
compression 7
conce@@ 7
conditioned 7
confers 7
conflagration 7
conflict-affected 7
congen@@ 7
consciously 7
constituent 7
constitutionally 7
continents 7
contours 7
contraception 7
convoluted 7
corrective 7
corresponds 7
cosmo@@ 7
countenance 7
counter-cyclical 7
country-specific 7
countrymen 7
cowed 7
crashes 7
credibly 7
cricket 7
cries 7
cross@@ 7
crossings 7
crum@@ 7
crypto-@@ 7
cryptocurrency 7
crystal 7
cubic 7
cultivation 7
cus@@ 7
cushions 7
custo@@ 7
cyber-security 7
cynics 7
dam@@ 7
dan@@ 7
darker 7
dash 7
deadlines 7
death-@@ 7
decelerating 7
decision-maker 7
decisiveness 7
decolonization 7
decree 7
decrees 7
decry 7
deductible 7
deer 7
defends 7
defer 7
defusing 7
del@@ 7
delegated 7
dementia 7
demo@@ 7
democr@@ 7
demograph@@ 7
demography 7
dental 7
dented 7
denuclearize 7
depicted 7
deportation 7
depths 7
deranged 7
desirability 7
despotism 7
destabilization 7
detached 7
deters 7
detractors 7
detriment 7
devaluing 7
diagnosing 7
dictatorial 7
diff@@ 7
differed 7
disaster-@@ 7
disbur@@ 7
discer@@ 7
disciplinary 7
disclosed 7
disconnected 7
discrimin@@ 7
disgrace 7
disguise 7
dish@@ 7
dislike 7
dislocation 7
dispar@@ 7
dissemination 7
dissolve 7
dissolved 7
distinctly 7
distinguishing 7
distortionary 7
distorts 7
distraction 7
dit@@ 7
dithering 7
divisiveness 7
doc@@ 7
dog@@ 7
dollar-@@ 7
don@@ 7
donated 7
dormant 7
doubles 7
doubly 7
dow@@ 7
drafting 7
draw@@ 7
drill 7
drink 7
dual-@@ 7
duck 7
duly 7
duplic@@ 7
duplication 7
dwellers 7
dynam@@ 7
earthquakes 7
easiest 7
easy-to-@@ 7
edges 7
educ@@ 7
educators 7
efs 7
efully 7
egg 7
eighteenth-century 7
eland 7
electr@@ 7
electro@@ 7
elicited 7
ell 7
ely 7
embarking 7
embarrassed 7
embolden 7
emig@@ 7
eminently 7
emissions-reduction 7
emitted 7
emitter 7
emitting 7
empi@@ 7
enablers 7
enclaves 7
encompassing 7
engender 7
enraged 7
ental 7
entangled 7
entr@@ 7
entrepreneur 7
envi@@ 7
epitom@@ 7
equations 7
eradicated 7
erect 7
erected 7
eri@@ 7
escal@@ 7
esh 7
espoused 7
estrangement 7
etc 7
ethically 7
euro-denominated 7
eurobonds 7
excludes 7
execute 7
executing 7
exemp@@ 7
exhibition 7
exhibits 7
expansions 7
expatriates 7
exploitative 7
extortion 7
extra@@ 7
extravagant 7
eye@@ 7
eyed 7
ez 7
facile 7
faculty 7
faithful 7
farm@@ 7
fascists 7
fast-changing 7
fel@@ 7
fervent 7
ffer 7
fiat 7
fiel@@ 7
filing 7
film@@ 7
finalize 7
finishing 7
firepower 7
fissures 7
fit@@ 7
flies 7
flowers 7
foil 7
foment 7
foot@@ 7
foothold 7
foreign-born 7
formul@@ 7
formulas 7
forward-thinking 7
fractured 7
fraternity 7
fraudulent 7
frayed 7
free-for-all 7
fri@@ 7
frivolous 7
frothy 7
fulfillment 7
full-@@ 7
furiously 7
furnish 7
garments 7
gate 7
gated 7
gatherings 7
gear 7
geared 7
gene-@@ 7
generalized 7
genocidal 7
gent 7
ggling 7
gl@@ 7
glaringly 7
glori@@ 7
glorious 7
gn@@ 7
gondii 7
gossip 7
gravitational 7
greening 7
grief 7
grievance 7
grocer@@ 7
gru@@ 7
guerrilla 7
guess@@ 7
guides 7
hair 7
haircut 7
happier 7
hard-won 7
hardest-@@ 7
hasty 7
haunted 7
hea@@ 7
heal 7
heaven 7
heavy-handed 7
hedging 7
heel 7
hel@@ 7
helicopters 7
helpless 7
hen@@ 7
henchmen 7
hereditary 7
hesitated 7
hides 7
high-end 7
high-return 7
high-skill 7
higher-quality 7
hijacked 7
hitherto 7
hockey 7
homeless 7
honors 7
hook 7
horrendous 7
horrifying 7
hotspots 7
hur@@ 7
hydrocarbon 7
hydroelectric 7
hydropower 7
i.e. 7
iceberg 7
iconic 7
ideologues 7
idly 7
ight 7
ignite 7
ill-advised 7
illegality 7
illiquid 7
illustration 7
immature 7
impairing 7
impersonal 7
improbable 7
imprudent 7
impulsive 7
inaccessible 7
inadequately 7
inations 7
inci@@ 7
inconvenient 7
incurring 7
incursion 7
inde@@ 7
indefinite 7
indicative 7
indulge 7
ined 7
inexorable 7
inflexible 7
ingrained 7
inhabit 7
ink 7
insecticides 7
inspectors 7
instinctively 7
insure 7
intellectually 7
intelligentsia 7
intensively 7
interconnectedness 7
interlocutor 7
interlocutors 7
intermittent 7
interruption 7
intervals 7
intra-European 7
intriguing 7
introduces 7
inv@@ 7
invasive 7
inventions 7
investment-@@ 7
invites 7
irresistible 7
irresponsibility 7
irrit@@ 7
ishment 7
istically 7
ital 7
itated 7
ja@@ 7
jar 7
jargon 7
je@@ 7
jump-start 7
justifiably 7
justifying 7
ke-@@ 7
knock-on 7
knocking 7
ku@@ 7
lash 7
latecomer 7
lau@@ 7
legalizing 7
legitimately 7
legitimize 7
lends 7
lengths 7
less-@@ 7
levied 7
li 7
liberal-democratic 7
licensed 7
lifesaving 7
light-@@ 7
likelier 7
likened 7
linchpin 7
lined 7
liquidate 7
lish 7
listened 7
liters 7
lity 7
lli@@ 7
loading 7
loathing 7
lonely 7
longing 7
lopsided 7
lords 7
lottery 7
louder 7
low-hanging 7
ludicrous 7
macro-prudential 7
magically 7
makeshift 7
makeup 7
malnourished 7
mann 7
manpower 7
manship 7
mapping 7
marginalize 7
marred 7
marriages 7
mas 7
mas@@ 7
mass-@@ 7
maternity 7
mates 7
maturities 7
maximization 7
meanings 7
mechanics 7
melt 7
mend 7
mendacious 7
ment@@ 7
merge 7
merger 7
meritocracy 7
metaboli@@ 7
meter 7
microbes 7
mid-1980 7
mid-1980s 7
mid-1990s 7
mildly 7
militancy 7
militarism 7
mindful 7
mini-grids 7
mir 7
miscalculations 7
misdeeds 7
mismatches 7
mistre@@ 7
misused 7
monetization 7
monster 7
monument 7
mosque 7
mosquitoes 7
motor@@ 7
mourning 7
mouth 7
multifaceted 7
multiply 7
multipolarity 7
mundane 7
murderers 7
musical 7
nasty 7
native-born 7
natural-@@ 7
navigated 7
needy 7
neglects 7
nerve 7
networked 7
newborns 7
nicotine 7
noisy 7
nom@@ 7
non-EU 7
non-bank 7
non-compliance 7
non-transparent 7
non-violent 7
nonproliferation 7
nor@@ 7
normalizing 7
northeastern 7
not-so-@@ 7
notices 7
nourished 7
nudge 7
nutritious 7
objec@@ 7
oblivion 7
oblivious 7
occupies 7
offenders 7
offerings 7
offs 7
offshoring 7
ola 7
oligarchy 7
ome 7
onal 7
one-way 7
onerous 7
onists 7
onslaught 7
op 7
oper@@ 7
orchestrating 7
ored 7
organ@@ 7
organism 7
ose 7
oted 7
oun@@ 7
ounding 7
outline 7
outperformed 7
over-indebted 7
overhauled 7
overinvestment 7
overlapping 7
overreach 7
owl 7
palatable 7
parasites 7
park 7
part-time 7
participatory 7
partisanship 7
passivity 7
passport 7
paternalism 7
pathways 7
paving 7
payers 7
pendulum 7
perceives 7
personalized 7
pest 7
pet 7
philanthropy 7
picks 7
pilots 7
plane 7
playbook 7
plea 7
plentiful 7
plurality 7
pocket 7
poli@@ 7
pollu@@ 7
pollutants 7
poly@@ 7
portend 7
possessed 7
post-2015 7
post-conflict 7
pouring 7
powerfully 7
pr@@ 7
pra@@ 7
pre-2008 7
pre-war 7
precipitous 7
precipitously 7
preconditions 7
predictor 7
preempt 7
prefers 7
premiership 7
preschool 7
prescribe 7
presentation 7
pressuring 7
priceless 7
prince 7
princelings 7
pro-Russian 7
pro-Western 7
probe 7
proceeded 7
profession@@ 7
proficiency 7
projecting 7
prolonging 7
pronged 7
prop@@ 7
propensity 7
property-rights 7
prophet 7
prostitution 7
protested 7
psychiatry 7
psychologists 7
public-opinion 7
publicity 7
purged 7
purity 7
qui@@ 7
radicalized 7
raison 7
ramp 7
randomized 7
rant 7
re-emergence 7
reads 7
realizes 7
reas@@ 7
reassured 7
rebounded 7
rebuke 7
recalibrate 7
recalls 7
recapitalize 7
receptive 7
recessionary 7
recognizable 7
recommendation 7
recommends 7
reconstruct 7
recycled 7
red@@ 7
redirected 7
redistributed 7
redistributing 7
reduc@@ 7
reelected 7
reelection 7
reeling 7
refin@@ 7
reformists 7
relax 7
relaxation 7
relaxing 7
reli@@ 7
reluctantly 7
remuneration 7
renewing 7
renunciation 7
reopen 7
reopened 7
repairing 7
repatriate 7
replicating 7
reporter 7
rescuing 7
resemblance 7
resembling 7
resident 7
residual 7
resists 7
resolutely 7
resonates 7
responsiveness 7
restart 7
retailing 7
retreating 7
revamp 7
revamped 7
reverberate 7
revolutionizing 7
revulsion 7
rian 7
ric@@ 7
riches 7
rigorously 7
riparian 7
risk-averse 7
risk@@ 7
risked 7
rists 7
ron 7
rub@@ 7
rudimentary 7
ruinous 7
rulings 7
rumor 7
run-off 7
sacrosanct 7
salient 7
samples 7
sanction 7
sanctuary 7
sanguine 7
sav@@ 7
scales 7
sch 7
scientifically 7
screened 7
scru@@ 7
scrutinize 7
sealed 7
seasoned 7
second-class 7
second-round 7
secretaries 7
secrets 7
self-destructive 7
self-employed 7
self-interested 7
semiconductors 7
separatism 7
seventeenth 7
seventh 7
shadow-banking 7
sheds 7
shelling 7
shipped 7
shoot 7
shootings 7
shoots 7
showcase 7
shrines 7
sidelined 7
signatory 7
silos 7
simplicity 7
simplify 7
single-market 7
singled 7
singular 7
sins 7
six@@ 7
skyscrapers 7
slo@@ 7
slowdowns 7
smashing 7
smokers 7
smugglers 7
socio-@@ 7
softening 7
soils 7
solves 7
sowing 7
spans 7
spe@@ 7
specialize 7
specul@@ 7
speeding 7
spi@@ 7
spies 7
spirals 7
springs 7
ss-@@ 7
stacked 7
stadiums 7
staff@@ 7
staging 7
stakeholder 7
staking 7
staple 7
state-controlled 7
stealth 7
stereotypes 7
stering 7
strand 7
stronghold 7
stumbling 7
subcontinent 7
submarine 7
substances 7
super-rich 7
supra-national 7
surges 7
sustains 7
swath 7
swe@@ 7
sweet 7
swimming 7
switched 7
sy 7
symbolically 7
synergies 7
tablets 7
tail@@ 7
takers 7
tapped 7
tar@@ 7
tasked 7
taxis 7
technique 7
telemedicine 7
tempered 7
tent 7
teous 7
terminated 7
the-@@ 7
theorist 7
therein 7
thinker 7
though@@ 7
thri@@ 7
thuggish 7
thugs 7
thwarting 7
tickets 7
timber 7
timeline 7
tious 7
tivity 7
top@@ 7
tos 7
tou@@ 7
toughness 7
tracked 7
trader 7
trajectories 7
transplant 7
trappings 7
travels 7
tread 7
tribunals 7
trickle 7
trilemma 7
truc@@ 7
tsetse 7
tt 7
tta 7
tter 7
tti 7
tunnel 7
turnover 7
two-party 7
tying 7
tyrant 7
uck 7
unanswered 7
unc@@ 7
uncompetitive 7
underdeveloped 7
underpinnings 7
underrepresented 7
undoing 7
unfairly 7
unfeasible 7
unfit 7
unforeseeable 7
unfulfilled 7
unfunded 7
unilateralist 7
unparalleled 7
unqualified 7
unruly 7
unsecured 7
unsure 7
upholds 7
ura 7
ural 7
utilization 7
utopian 7
vaccinated 7
vaccinations 7
vege@@ 7
veil 7
vely 7
venal 7
vian 7
victors 7
voracious 7
vy 7
wal@@ 7
wan 7
war-torn 7
warring 7
well-educated 7
well-managed 7
whaling 7
wipe 7
wishing 7
wit@@ 7
withhold 7
wore 7
workforces 7
worn 7
wreck 7
xenophobes 7
yard 7
ze@@ 7
zo@@ 7
zy 7
ía 7
ö@@ 7
• 7
&apos;Ivoire 6
,0@@ 6
-controlled 6
-driven 6
-free 6
-style 6
.5 6
08 6
1,500 6
1.25 6
11th 6
13th 6
15,000 6
15-year 6
15.@@ 6
160,000 6
17.@@ 6
1789 6
185 6
19-@@ 6
1907 6
1913 6
1916 6
1917 6
1932 6
193@@ 6
198@@ 6
2,500 6
20-30 6
2021 6
2028 6
240 6
5.9 6
550 6
6.1 6
6.3 6
6.6 6
6.8 6
600,000 6
7,@@ 6
7.6 6
700,000 6
8th 6
9.7 6
90,000 6
AT@@ 6
Abdel-Jalil 6
Abdul 6
Abidine 6
Accord 6
Adviser 6
African-Americans 6
Again 6
Ahtisaari 6
Airbus 6
Aires 6
Alaska 6
Aleppo 6
Allah 6
Amaz@@ 6
Americ@@ 6
American-@@ 6
Americana 6
Amsterdam 6
Apollo 6
Arabic 6
Arunachal 6
Assistance 6
Att@@ 6
Attlee 6
B-@@ 6
BRIC 6
BRICs 6
Bangalore 6
Bavaria 6
Bec@@ 6
Begin 6
Benjamin 6
Bismarck 6
Blu@@ 6
Bou@@ 6
Brother 6
Buenos 6
Buil@@ 6
Bulgarian 6
Burundi 6
But 6
By@@ 6
CA@@ 6
CAFTA 6
CBDCs 6
CI@@ 6
CITES 6
CJD 6
CM@@ 6
CMIM 6
CSR 6
Californians 6
Canadians 6
Carbon 6
Cardinal 6
Carl 6
Carta 6
Chall@@ 6
Channel 6
China-led 6
Chongqing 6
Christine 6
Colin 6
Colorado 6
Comm@@ 6
Common 6
Commons 6
Commun@@ 6
Confederation 6
Confucianism 6
Constituent 6
Continent 6
Control 6
Cristina 6
Cross 6
Crown 6
DB 6
DRC 6
Dahlan 6
Darwinian 6
Dead 6
Deaton 6
Dem@@ 6
Democr@@ 6
Den@@ 6
Deut@@ 6
Dhaka 6
Divi@@ 6
Dokdo 6
Don 6
Drug 6
Duda 6
EC 6
ECJ 6
EPA 6
Earthquake 6
East-West 6
Eff@@ 6
Electric 6
Emergency 6
Employment 6
Enough 6
Environment 6
Eritrea 6
Ethiopian 6
European-@@ 6
F-@@ 6
FE 6
FT@@ 6
FTAs 6
Fattah 6
Fernández 6
Filipino 6
Fillon 6
Five 6
Flynn 6
Four 6
Friedrich 6
G-2 6
GAVI 6
GF@@ 6
GPS 6
GVCs 6
Ga@@ 6
Gab@@ 6
Gap 6
Geithner 6
Gender 6
Gener@@ 6
Gil@@ 6
Graham 6
Gran@@ 6
Greater 6
Gri@@ 6
Guang@@ 6
Guterres 6
Hal@@ 6
Happ@@ 6
Hatoyama 6
Havana 6
Hawaii 6
Hensarling 6
Herzegovina 6
Hi@@ 6
High-Level 6
Hirschman 6
Holmes 6
Hoover 6
Horn 6
Hum@@ 6
Humala 6
Human@@ 6
IC 6
IRGC 6
ITER 6
Income 6
India-Pakistan 6
Indian-@@ 6
Indira 6
Indo-Pacific 6
Indu@@ 6
Institution 6
Intel 6
Inter-@@ 6
Interest 6
Interior 6
Ir@@ 6
Iran-@@ 6
Ishihara 6
Islamabad 6
Jarosław 6
Jim 6
Jon@@ 6
Jose 6
Justin 6
Kaczynski 6
Kansas 6
Karachi 6
Kaz@@ 6
Kelly 6
Kenneth 6
Khobragade 6
Klaus 6
Koch 6
Kor@@ 6
LAC 6
Lake 6
Lancet 6
Last 6
Lat@@ 6
Lech 6
Leninist 6
Leung 6
Levant 6
Life 6
Lima 6
Louis 6
Luddites 6
López 6
M. 6
MFIs 6
Ma 6
Mag@@ 6
Malawi 6
Manila 6
Mari@@ 6
Maryland 6
Mauricio 6
Mauritius 6
Max 6
May@@ 6
McNamara 6
Medicine 6
Mem@@ 6
Milton 6
Mindanao 6
Mit@@ 6
Monnet 6
Monta@@ 6
Monterrey 6
Motors 6
Mount 6
Mur@@ 6
Museum 6
Namibia 6
Nasrallah 6
Nation 6
Nations-@@ 6
Naz@@ 6
Neanderthals 6
Nietzsche 6
Nigerians 6
Norwegian 6
Now 6
OM@@ 6
Only 6
Op@@ 6
Outlook 6
Oxfam 6
PBC 6
PKK 6
PP@@ 6
PR@@ 6
PRD 6
PT@@ 6
Parfit 6
Parkinson 6
Path 6
Peronist 6
Perón 6
Phili@@ 6
Planet 6
Plaza 6
Pol@@ 6
Pot@@ 6
Powerhouse 6
Priv@@ 6
Problem 6
Prodi 6
Programme 6
Promise 6
Prophet 6
Que@@ 6
Queen 6
Railway 6
Rajan 6
Rajapaksa 6
Ramaphosa 6
Rec@@ 6
Reconstruction 6
Regrettably 6
Reli@@ 6
Republican-@@ 6
Rhine 6
Risk 6
Roc@@ 6
Rock 6
Rosneft 6
Roundtable 6
Rudd 6
SA@@ 6
SCAF 6
START 6
Sakharov 6
San@@ 6
Sandy 6
Sarajevo 6
Scarborough 6
Schmidt 6
Scots 6
Ser@@ 6
Ses@@ 6
Shabbir 6
Sheet 6
Shenzhen 6
Shevardnadze 6
Shi@@ 6
Shia-@@ 6
Shiller 6
Shimon 6
Sho@@ 6
Should 6
Sichuan 6
Sikh 6
Sirleaf 6
Snow 6
Sonia 6
Spe@@ 6
Stalinist 6
Star 6
Statistics 6
Stock 6
Strauss-Kahn 6
Sufi 6
Surkov 6
Syri@@ 6
São 6
THAAD 6
Tahrir 6
Tamils 6
Techno@@ 6
Temer 6
Ten@@ 6
Thin@@ 6
Tibetans 6
Tob@@ 6
Tory 6
Tou@@ 6
Transparency 6
Trumpism 6
Tuberculosis 6
Tung 6
Tusk 6
Tw@@ 6
UK@@ 6
UN-@@ 6
UNESCO 6
UNHCR 6
USTR 6
Ur@@ 6
V-@@ 6
Val@@ 6
Ve@@ 6
Volkswagen 6
Watergate 6
Watson 6
Waziristan 6
Wel@@ 6
Who 6
Wikipedia 6
Winter 6
Woodrow 6
Y 6
Yew 6
Yi 6
You 6
Zemin 6
Zero 6
Zine 6
Zionist 6
Zoellick 6
abi@@ 6
ables 6
abrog@@ 6
access@@ 6
accessibility 6
accommodated 6
accru@@ 6
accusation 6
accuses 6
aces 6
ached 6
ada 6
adap@@ 6
adjudic@@ 6
admirers 6
admon@@ 6
ador@@ 6
advantaged 6
adversely 6
adversity 6
advertised 6
affili@@ 6
affirmation 6
affirming 6
afterward 6
aide 6
ail 6
ailments 6
air-@@ 6
aked 6
aker 6
akes 6
alarms 6
albedo 6
alerts 6
algorithm 6
alleg@@ 6
alt 6
alty 6
aly@@ 6
amazingly 6
amended 6
amicable 6
ance-@@ 6
ances 6
anci@@ 6
anecdot@@ 6
anew 6
animus 6
annihilation 6
annul 6
ano 6
ant@@ 6
anti-Assad 6
anti-Muslim 6
anti-competitive 6
anti-immigration 6
anti-missile 6
antibiotic-resistant 6
antidote 6
antioxidant 6
anz@@ 6
apartment 6
apologized 6
apparel 6
applicant 6
appoints 6
approximate 6
apt 6
ard@@ 6
aring 6
armistice 6
arms-control 6
arrears 6
arri@@ 6
arrives 6
asc@@ 6
ase 6
asse@@ 6
assiduously 6
assimilate 6
assu@@ 6
astro@@ 6
astron@@ 6
atal 6
athe@@ 6
athlete 6
atically 6
atize 6
atro@@ 6
attach 6
attaining 6
attorney 6
auc@@ 6
audacious 6
audacity 6
augmented 6
authorization 6
autocrat 6
automotive 6
avalanche 6
avo@@ 6
avowed 6
award 6
awarding 6
awful 6
axi@@ 6
ays 6
backers 6
backlashes 6
backlog 6
bacterial 6
bacterium 6
bag@@ 6
ballooned 6
ballots 6
banknotes 6
bankrupted 6
barometer 6
batteries 6
battlefields 6
bedeviled 6
beer 6
beg 6
beg@@ 6
behemoths 6
belatedly 6
believable 6
believer 6
below-@@ 6
below-target 6
belt-tightening 6
belts 6
bereft 6
best-case 6
best-known 6
bilater@@ 6
billion-dollar 6
bio 6
birds 6
birthday 6
biting 6
blical 6
blindly 6
blindness 6
blood@@ 6
blow@@ 6
blun@@ 6
bogus 6
bol@@ 6
boldly 6
bond-market 6
bottom@@ 6
bowed 6
bracing 6
brain-@@ 6
bran@@ 6
branded 6
breached 6
breadth 6
breastfeeding 6
breath@@ 6
bred 6
bribe 6
bridging 6
broadcasting 6
brow@@ 6
buoyed 6
business-friendly 6
businessman 6
button 6
buybacks 6
bypassed 6
cad@@ 6
calculates 6
calmed 6
camera 6
cancellation 6
cand@@ 6
candid 6
capacity-building 6
capped 6
capping 6
carbon-based 6
care-giving 6
caricature 6
carriers 6
carto@@ 6
cartoons 6
cascade 6
cascading 6
casual 6
casualty 6
cation 6
caucus 6
causation 6
caveats 6
cellphones 6
cellular 6
cements 6
central-@@ 6
centrality 6
centralization 6
centuries-old 6
cers 6
certification 6
chaebols 6
championship 6
charging 6
cheapest 6
cheat 6
cheerleaders 6
chessboard 6
chicken 6
chil@@ 6
cholesterol 6
chop@@ 6
cin@@ 6
circul@@ 6
circuses 6
cites 6
ck@@ 6
clear-@@ 6
clinging 6
clinic 6
clinicians 6
clique 6
closure 6
clou@@ 6
cluster 6
coach 6
coaches 6
coalesce 6
coastline 6
coca 6
coerce 6
cognition 6
colonies 6
colonization 6
column 6
combustible 6
commits 6
compar@@ 6
compass 6
compatibility 6
competences 6
complemented 6
complicates 6
complicit 6
complied 6
compu@@ 6
concomitant 6
condone 6
conducts 6
confederation 6
confer 6
confidently 6
confinement 6
confines 6
congratulated 6
connectedness 6
cons 6
conserv@@ 6
constituting 6
consult 6
consultants 6
consulting 6
consumer-led 6
contingency 6
contra@@ 6
contractor 6
controversies 6
converging 6
cooperated 6
corporatist 6
correlates 6
correspond 6
correspondingly 6
corridors 6
corro@@ 6
corrup@@ 6
corrupting 6
cosmopolitans 6
cost-benefit 6
counterbalance 6
counties 6
cozy 6
cracked 6
crave 6
cream 6
credit-fueled 6
creeping 6
cri@@ 6
criminality 6
cronyism 6
cross-country 6
cruelly 6
crushing 6
crying 6
cryp@@ 6
cue 6
curbed 6
cures 6
currents 6
curtail@@ 6
cyber@@ 6
cyclone 6
data-driven 6
databases 6
dazzling 6
dd@@ 6
debased 6
debasement 6
decades-long 6
decarbonize 6
deceive 6
deceleration 6
decim@@ 6
declares 6
decoupled 6
decrepit 6
decrying 6
deem 6
defective 6
deficit-@@ 6
definitions 6
deflect 6
defying 6
degrade 6
delegate 6
deliveries 6
demagoguery 6
demar@@ 6
demonetization 6
denomination 6
denominator 6
densely 6
depart 6
departed 6
deplete 6
deplo@@ 6
deposit-insurance 6
depriving 6
deputies 6
derided 6
des@@ 6
desc@@ 6
descriptions 6
deserted 6
despise 6
despot 6
despotic 6
detain 6
deteriorates 6
deton@@ 6
deviation 6
devolution 6
devotees 6
diagnose 6
dial@@ 6
diamond 6
dic 6
differentiate 6
digging 6
diligence 6
disabilities 6
disappointments 6
disapproval 6
discounts 6
discourages 6
discrepancy 6
disenchanted 6
disentangle 6
disgust 6
dish 6
dishes 6
displacing 6
disregarded 6
dissipate 6
distinctions 6
diverge 6
dization 6
dock 6
domin@@ 6
donate 6
donating 6
doub@@ 6
down-@@ 6
downplay 6
downsizing 6
dra@@ 6
drawbacks 6
dreamed 6
driverless 6
drowned 6
drying 6
dug 6
dull 6
dum 6
durability 6
détente 6
ech@@ 6
echoed 6
echoing 6
econom@@ 6
economic-@@ 6
economic-reform 6
ecting 6
ective 6
edes 6
edi@@ 6
editor 6
editorial 6
edly 6
effici@@ 6
ego 6
ei 6
eigh@@ 6
eighth 6
el-@@ 6
elabor@@ 6
elders 6
ele@@ 6
electrified 6
elegant 6
eless 6
elev@@ 6
emancipation 6
embezzlement 6
embroiled 6
emerging-economy 6
emotion 6
emphatically 6
ems 6
enamored 6
encies 6
end-@@ 6
ende@@ 6
endlessly 6
engages 6
enlarge 6
enlist 6
enni@@ 6
ensues 6
entang@@ 6
enter@@ 6
enthusiastically 6
enticing 6
epidemiological 6
epigenetic 6
epoch 6
epochal 6
equivalents 6
ero 6
esa 6
escap@@ 6
est-@@ 6
ety 6
eu@@ 6
euph@@ 6
eurozone-wide 6
evenly 6
ever-increasing 6
ex 6
examinations 6
exceptionalism 6
excited 6
excuses 6
executions 6
exhaustion 6
exotic 6
ext@@ 6
extensions 6
extinguished 6
extracted 6
extracting 6
extrapolate 6
fair@@ 6
falsehoods 6
fan@@ 6
fantastic 6
fared 6
fares 6
farfetched 6
fascination 6
fatally 6
faulty 6
feasibility 6
feeble 6
ferocious 6
festering 6
fetus 6
feu@@ 6
feud@@ 6
ffe@@ 6
fic@@ 6
fig 6
fine-@@ 6
finest 6
first-hand 6
fiscal-@@ 6
fishermen 6
fissile 6
fist 6
fleeting 6
flip 6
flir@@ 6
flock 6
flourished 6
fluctuating 6
foot-dragging 6
foreclosure 6
forfe@@ 6
forgetting 6
forgive 6
forgo 6
forty 6
froze 6
fulness 6
fundraising 6
future-oriented 6
gades 6
gallon 6
galvanized 6
game-@@ 6
game-changing 6
gan@@ 6
gang@@ 6
gaping 6
garbage 6
gateway 6
ge-@@ 6
genomic 6
genomics 6
genot@@ 6
geothermal 6
gested 6
ggy 6
gious 6
glimmer 6
global-@@ 6
glu@@ 6
god@@ 6
grades 6
grams 6
grandparents 6
graph 6
graphy 6
graver 6
graves 6
gravitate 6
green-@@ 6
greet 6
gress@@ 6
groundswell 6
groundwater 6
growers 6
grudgingly 6
gulf 6
hacked 6
ham 6
handcu@@ 6
hang@@ 6
harassed 6
hardened 6
harvesting 6
hast@@ 6
hasten 6
headquartered 6
healed 6
hearted 6
hed@@ 6
heeded 6
heir 6
heirs 6
hem@@ 6
hemisphere 6
heral@@ 6
hero@@ 6
hesit@@ 6
heterogeneous 6
high-cost 6
high-stakes 6
hijra 6
hindering 6
hinge 6
hinged 6
hist@@ 6
hoax 6
holidays 6
homelessness 6
homicide 6
homo@@ 6
homosexuality 6
hon@@ 6
hopelessness 6
horrible 6
hostages 6
hourly 6
household-@@ 6
how@@ 6
hunt 6
hunting 6
hygiene 6
hysteria 6
idealists 6
identi@@ 6
ified 6
ile@@ 6
ility 6
imaginary 6
imaging 6
imperfections 6
imperialist 6
impervious 6
impro@@ 6
incalculable 6
incites 6
inclinations 6
inclu@@ 6
incre@@ 6
indexed 6
indiscriminate 6
individualism 6
individualistic 6
indul@@ 6
industrialize 6
industrializing 6
ine-@@ 6
ineffectual 6
inept 6
ineptitude 6
inequitable 6
inequity 6
inevitability 6
inextricably 6
infatuation 6
infer 6
inflame 6
inflicting 6
infr@@ 6
infrastructure-@@ 6
infuriated 6
inhabited 6
injecting 6
inmates 6
innocuous 6
innovation-@@ 6
innumerable 6
inous 6
insecticide-treated 6
inseparable 6
instituting 6
institutionalizing 6
insults 6
intelligently 6
interactive 6
interest-@@ 6
internationalize 6
internecine 6
interpreting 6
intricate 6
invest@@ 6
investment-income 6
involuntary 6
io 6
ion 6
irreconcilable 6
irrelevance 6
irresponsibly 6
ita 6
itarian 6
itation 6
ith 6
itor 6
itous 6
itted 6
iz 6
jettisoned 6
jokes 6
journalistic 6
jun@@ 6
jure 6
ken@@ 6
kicked 6
kilometer 6
knowledge-based 6
knowledgeable 6
landed 6
laptops 6
las@@ 6
lat@@ 6
lauded 6
launches 6
lawless 6
lawsuit 6
learns 6
lef@@ 6
left-right 6
legitimization 6
lender-of-last-resort 6
lessen 6
levies 6
lian 6
libertarian 6
life-long 6
life-threatening 6
lifeblood 6
liking 6
limelight 6
liner 6
liners 6
liness 6
linger 6
lira 6
lized 6
lling 6
loath 6
local-currency 6
locate 6
lodge 6
log@@ 6
long-awaited 6
long-established 6
long-lasting 6
low-interest 6
low-paid 6
low-quality 6
low-tax 6
lower-cost 6
lunatic 6
lus 6
macro@@ 6
macroeconomists 6
magnificent 6
malaria-@@ 6
mani@@ 6
manifesto 6
marching 6
markers 6
market-driven 6
martial 6
masse 6
mate 6
materialized 6
medals 6
mediate 6
medium-@@ 6
meg@@ 6
men@@ 6
menace 6
menacing 6
mentioning 6
mercantilism 6
meth@@ 6
methodological 6
micro-level 6
mid-August 6
mid-size 6
milder 6
mili@@ 6
millennium 6
miniscule 6
mislead 6
modeled 6
modus 6
monarchies 6
moon 6
moral-hazard 6
morphed 6
mosquitos 6
motivate 6
motto 6
mountains 6
mounts 6
mouths 6
mped 6
mpi@@ 6
muddled 6
multidimensional 6
multilater@@ 6
multiplied 6
multipliers 6
murderer 6
mysterious 6
na 6
nal 6
narcotics 6
natural-gas 6
ne 6
near-universal 6
necessitate 6
neo-conservative 6
nepotism 6
neutralize 6
new-@@ 6
newest 6
next-generation 6
nity 6
non-European 6
non-discrimination 6
non-eurozone 6
non-interference 6
northwest 6
not-for-profit 6
numerical 6
oaths 6
obe@@ 6
offend 6
offended 6
offline 6
oil@@ 6
oked 6
ol 6
olive 6
olls 6
ologically 6
ols 6
olution 6
omnipresent 6
ona 6
one-year 6
ong-@@ 6
open-@@ 6
oph@@ 6
opi@@ 6
opioid 6
opportunistic 6
optimist 6
optional 6
orchestras 6
ordinarily 6
originating 6
ounces 6
ouse 6
ousing 6
outlines 6
outsider 6
outsourced 6
outstrip 6
outweighed 6
ov@@ 6
over-extended 6
overburdened 6
overlap 6
overriding 6
overstate 6
overthrowing 6
ows 6
oxygen 6
pa 6
pacifist 6
pales 6
palpable 6
paracetamol 6
parasite 6
pathology 6
patrol 6
patrons 6
pay-for-success 6
payoffs 6
peace-@@ 6
pedestri@@ 6
peer-reviewed 6
pegged 6
pegs 6
penalized 6
people-@@ 6
perennial 6
perestroika 6
perpetually 6
person@@ 6
physiological 6
pickup 6
piety 6
pil@@ 6
piled 6
pilgrims 6
pill@@ 6
pinned 6
pioneers 6
pit 6
pitch 6
pits 6
plagues 6
planets 6
plateau 6
platitudes 6
ple 6
ple@@ 6
pleasant 6
plotting 6
plumbers 6
plutocrats 6
plutonium 6
poetry 6
poisoning 6
poker 6
policeman 6
policymaker 6
pooled 6
portal 6
portends 6
portraying 6
pos@@ 6
potency 6
pounds 6
powerlessness 6
pper 6
pragmatists 6
prayer 6
pre-recession 6
preaching 6
preeminent 6
prelude 6
presiding 6
presumptive 6
pretended 6
prided 6
primary-care 6
primary-school 6
pro-independence 6
pro-market 6
productivity-@@ 6
prof@@ 6
profiling 6
prohibitively 6
proponent 6
proportionality 6
propositions 6
prostitutes 6
protagonists 6
prudently 6
psychiatrists 6
public-investment 6
purported 6
purportedly 6
putative 6
quandary 6
quantify 6
ques 6
quotes 6
racing 6
radi@@ 6
radiological 6
raft 6
raids 6
ransom 6
rants 6
rash 6
rav@@ 6
ray 6
re-establish 6
reactionary 6
ready-made 6
realignment 6
reallocate 6
reallocation 6
realpolitik 6
rearing 6
reassess 6
rebate 6
rebuffed 6
recalled 6
receding 6
reciprocity 6
reck@@ 6
reckoned 6
reco@@ 6
recordings 6
recurrence 6
redirect 6
reestablish 6
refinance 6
refineries 6
refrained 6
registering 6
regre@@ 6
rejoice 6
reminding 6
renaissance 6
renegotiate 6
renminbi-denominated 6
renounced 6
rental 6
reorganization 6
repayments 6
repetitive 6
rescues 6
resear@@ 6
researcher 6
resembled 6
resent 6
reservoir 6
resettled 6
residency 6
resides 6
resonance 6
resoundingly 6
retailer 6
retake 6
retention 6
reticence 6
reversals 6
reversible 6
revisit 6
revol@@ 6
ric 6
ridicule 6
rifts 6
rings 6
riot 6
ripe 6
rit@@ 6
ritual 6
riven 6
roaring 6
robotic 6
roofs 6
rotating 6
rotation 6
rs 6
rubber 6
rule-making 6
rulebook 6
rump 6
safe-haven 6
safeguarded 6
sage 6
sal 6
salience 6
same-sex 6
sanctuaries 6
sanitary 6
sat@@ 6
sati@@ 6
saver 6
saving-short 6
scaffolding 6
scared 6
schizophrenia 6
scrapping 6
scre@@ 6
screws 6
scribed 6
seamlessly 6
searched 6
seasonal 6
secede 6
second-best 6
sections 6
self-driving 6
self-esteem 6
self-evident 6
self-imposed 6
self-proclaimed 6
self-sufficiency 6
sells 6
sement 6
seminal 6
separates 6
service-sector 6
services-led 6
sharpen 6
sharper 6
shell 6
shirts 6
shness 6
shove 6
show@@ 6
shr@@ 6
shrinks 6
shunned 6
si 6
side@@ 6
siding 6
simulation 6
sional 6
siph@@ 6
sisters 6
sixty 6
sizable 6
sketched 6
skew 6
ski 6
skillfully 6
skirt 6
slave 6
slides 6
slightest 6
smartest 6
smo@@ 6
smug 6
snu@@ 6
so-@@ 6
soundness 6
soup 6
southwest 6
speakers 6
spearheading 6
spec@@ 6
speci@@ 6
specialist 6
specify 6
speculated 6
spikes 6
spinning 6
splendid 6
spokesman 6
sponsor 6
spouses 6
sprawling 6
spraying 6
spurt 6
squabbles 6
squares 6
ssi@@ 6
sson 6
stabilizer 6
stabilizes 6
stain 6
staked 6
staples 6
startup 6
starve 6
state-led 6
state-of-the-art 6
state-run 6
staunchly 6
stem-cell 6
sterilization 6
stic@@ 6
stimulative 6
stipulates 6
stirred 6
stockholders 6
stop@@ 6
stranglehold 6
streaming 6
streamlined 6
streamlining 6
strings 6
stripped 6
structural-reform 6
stunted 6
subjecting 6
subjective 6
sucked 6
sum@@ 6
supermarkets 6
superstars 6
supplant 6
supplemented 6
suspending 6
sustainable-development 6
swallowed 6
swee@@ 6
switching 6
symmetry 6
symptomatic 6
synthesize 6
takeoff 6
takeovers 6
tal 6
technology-@@ 6
telecoms 6
televised 6
temperament 6
temperate 6
tenuous 6
termin@@ 6
testament 6
th-largest 6
thaw 6
theocratic 6
thir@@ 6
throats 6
thrust 6
thumb 6
tible 6
ticking 6
tiger 6
tile 6
tioning 6
tit-for-tat 6
tled 6
to-GDP 6
ton-@@ 6
topped 6
tops 6
totaled 6
totals 6
touched 6
touches 6
toughest 6
touting 6
trade-off 6
trait 6
transcending 6
traumatized 6
trawler 6
treacherous 6
treachery 6
treat@@ 6
tribu@@ 6
trolls 6
truer 6
tto 6
tumbling 6
tumor 6
tun@@ 6
tuna 6
tuous 6
tup 6
tural 6
tured 6
two-day 6
two-track 6
ud 6
udes 6
ultimatum 6
una 6
uncanny 6
uncontrollable 6
undecided 6
underemployment 6
underestimating 6
underlies 6
underscoring 6
understandings 6
understates 6
underwrite 6
uneducated 6
unevenly 6
unfolds 6
ungovernable 6
unimportant 6
unites 6
university-@@ 6
unknowns 6
unlocking 6
unmanageable 6
unmistakable 6
unorthodox 6
unreported 6
unrestricted 6
unseemly 6
unseen 6
unsound 6
unspeakable 6
unwavering 6
unwinnable 6
updates 6
updating 6
upended 6
upshot 6
upstream 6
upwards 6
urban-rural 6
uri@@ 6
urs 6
use@@ 6
ushering 6
vaguely 6
value-@@ 6
vanquished 6
variability 6
variants 6
vaunted 6
veiled 6
vel 6
vens 6
venues 6
veritable 6
vetting 6
vians 6
vic@@ 6
victimization 6
viewpoints 6
visibly 6
visual 6
vortex 6
vulgar 6
waivers 6
waking 6
war-@@ 6
warhead 6
warrior 6
watch@@ 6
watersheds 6
wayside 6
wed 6
wedded 6
weeds 6
weir@@ 6
well-intentioned 6
well-trained 6
wer 6
wicked 6
winding 6
wireless 6
withdrawals 6
wives 6
wn 6
wonks 6
wor@@ 6
wording 6
work-sharing 6
worm 6
wr@@ 6
wrapped 6
wrenching 6
wrest@@ 6
xed 6
xi@@ 6
ype 6
zen@@ 6
zzle 6
zzled 6
º 6
ä@@ 6
&apos;Amato 5
&apos;Estaing 5
&apos;d 5
,000 5
-level 5
-out 5
.amp 5
1,800 5
10-15 5
120,000 5
124 5
150,000 5
17,000 5
180@@ 5
1905 5
1918 5
1922 5
193 5
1939 5
1941 5
194@@ 5
1959 5
2000-@@ 5
2002-@@ 5
2023 5
2070 5
215 5
245 5
27@@ 5
280 5
330 5
350,000 5
377 5
380 5
4-5 5
4.3 5
40-@@ 5
4th 5
5,@@ 5
6,@@ 5
6.2 5
680 5
7,500 5
7-8 5
7.2 5
7.4 5
750 5
8,@@ 5
8-year-old 5
9-year-old 5
9.3 5
9.6 5
AA 5
ABS 5
AC 5
ADB 5
AIG 5
AU 5
Abdul@@ 5
Achilles 5
Advisers 5
Agr@@ 5
Agricultural 5
Ah@@ 5
Ahn 5
Airport 5
Aishetu 5
Albanian 5
Alexeyeva 5
Algiers 5
Alzheimer 5
American-led 5
An 5
Andrew 5
Angeles 5
Angell 5
Anglo-American 5
Anim@@ 5
Anthony 5
Anti-@@ 5
Anton@@ 5
Approach 5
Aquino 5
Arab@@ 5
Aristotle 5
Armageddon 5
Aron 5
Arsenal 5
Arthur 5
At 5
Atlas 5
Auschwitz 5
Ax@@ 5
Azer@@ 5
B. 5
BA 5
BAM 5
BR@@ 5
BRCA2 5
BT 5
Base 5
Bat@@ 5
Bear 5
Belaru@@ 5
Belgrade 5
Beng@@ 5
Bengal 5
Bern@@ 5
Beslan 5
Best 5
Bil@@ 5
Bonn 5
Border 5
Brent 5
Brisbane 5
Bru@@ 5
Brun@@ 5
Brzezinski 5
Buddhism 5
Buffett 5
Bukharin 5
CACs 5
CAP 5
CAPE 5
CD 5
CD@@ 5
CDSs 5
CH@@ 5
CNN 5
CPJ 5
CR@@ 5
CRISPR 5
CSU 5
Cambodian 5
Campaign 5
Capitol 5
Carnegie 5
Carolina 5
Catholicism 5
Ceausescu 5
Chagossians 5
Cham@@ 5
Chelsea 5
Chemical 5
Chi@@ 5
Chiang 5
Chileans 5
China-bashing 5
China-centric 5
Chri@@ 5
Cities 5
Civi@@ 5
Cla@@ 5
Colonel 5
Comman@@ 5
Complex 5
Consul@@ 5
Corps 5
Could 5
Countries 5
Cr@@ 5
Côte 5
DPP 5
DR@@ 5
DSM-@@ 5
Dalit 5
Delors 5
Detroit 5
Develo@@ 5
Directive 5
Disease 5
Djibouti 5
Doctrine 5
Dra@@ 5
Dre@@ 5
Durban 5
Duterte 5
ECT 5
EI@@ 5
EP@@ 5
ESM 5
ETS 5
Ed 5
Elizabeth 5
English-language 5
Equ@@ 5
Ethics 5
Euro-skeptic 5
European-style 5
Euroskepticism 5
Euroskeptics 5
FA 5
FN 5
FS@@ 5
FTT 5
Farage 5
Fatah@@ 5
Felipe 5
Finns 5
Flemish 5
Fol@@ 5
From 5
Fron@@ 5
GATT 5
GHG 5
GNI 5
Gar@@ 5
Gaullist 5
Gavi 5
Ghan@@ 5
Ghe@@ 5
Giscard 5
Gr@@ 5
Green@@ 5
Greenland 5
Gro@@ 5
Gul 5
Générale 5
HFCs 5
HFO 5
HIV-@@ 5
HPV 5
Had@@ 5
Hadjiev 5
Hafez 5
Hai@@ 5
Hamburg 5
Haram 5
Health@@ 5
Hel@@ 5
Heritage 5
Hesse 5
High@@ 5
Hirohito 5
Hispanic 5
Holland 5
Honduras 5
Hope 5
Hor@@ 5
How 5
Hungarians 5
Huntington 5
IA@@ 5
II@@ 5
IL 5
ILO 5
INDCs 5
Ide@@ 5
Ig@@ 5
Il 5
Il-sung 5
Impact 5
Inclusive 5
Industries 5
Intelligence 5
Intergovernmental 5
J. 5
JFK 5
Jakarta 5
Jar@@ 5
Jawaharlal 5
Jefferson 5
Jibril 5
Jihad 5
Jin@@ 5
Jokowi 5
Junichiro 5
Jürgen 5
Ka@@ 5
Kalashni@@ 5
Kat@@ 5
Kennan 5
Kicillof 5
Kiliçdaroğlu 5
Kobe 5
Kon@@ 5
Konrad 5
Korea-@@ 5
Kuan 5
Kuomintang 5
LA 5
LF@@ 5
LGBT 5
LHC 5
Lam@@ 5
Lau@@ 5
Leap 5
Leon 5
Leviathan 5
Liberty 5
Lopez 5
Lou@@ 5
M-Pesa 5
MA 5
ME@@ 5
MHP 5
MM@@ 5
MO@@ 5
Macedonian 5
Machiavelli 5
Macro@@ 5
Madagascar 5
Madison 5
Magufuli 5
Mahdi 5
Malaysian 5
Malthus 5
Marie 5
Marines 5
Martin 5
Marxism 5
Mary 5
Mashal 5
Massacre 5
Maurit@@ 5
Maz@@ 5
Mbeki 5
McCarthy 5
Medina 5
Megrahi 5
Meiji 5
Melbourne 5
Mellon 5
Messi@@ 5
Mi@@ 5
Mid@@ 5
Migration 5
Mik@@ 5
Milošević 5
Mogherini 5
Musk 5
Mé@@ 5
NAIRU 5
NB@@ 5
NP@@ 5
NPLs 5
Nakasone 5
Nao@@ 5
Nation@@ 5
Nawaz 5
Nem@@ 5
Nevada 5
Nine@@ 5
Nissan 5
Nuclear-@@ 5
Nutrition 5
OBOR 5
Ocampo 5
Oce@@ 5
Ohio 5
Ok@@ 5
Oman 5
On@@ 5
Order 5
Orwell 5
Ossetian 5
Our 5
Over 5
Ozawa 5
PDP 5
PP 5
PPP 5
PRI 5
PYD 5
Pad@@ 5
Pakistan-@@ 5
Pal@@ 5
Palace 5
Pashtun 5
Pat@@ 5
Peretz 5
Peshawar 5
Pharma 5
Philippine 5
Pic@@ 5
Pinker 5
Plan@@ 5
Playboy 5
Police 5
Polisario 5
Politkovskaya 5
Porter 5
Post-@@ 5
Potter 5
Pr@@ 5
Presidency 5
Price 5
Princeton 5
Process 5
Promis@@ 5
Protec@@ 5
Provi@@ 5
Prussian 5
Pudong 5
Put@@ 5
QE3 5
Qing 5
Qutb 5
RC@@ 5
RO@@ 5
Rad@@ 5
Rahul 5
Raj@@ 5
Rakhine 5
Ram@@ 5
Ramallah 5
Rat@@ 5
RePEc 5
Real 5
Really 5
Realpolitik 5
Renaissance 5
Republi@@ 5
Republican-controlled 5
Rho@@ 5
Rob@@ 5
Roh 5
Rose 5
Rousseau 5
Ruhollah 5
Rule 5
Rwand@@ 5
Ryan 5
SC@@ 5
SDF 5
SE@@ 5
SL@@ 5
SP@@ 5
SR 5
SS 5
SS@@ 5
STEM 5
SU@@ 5
SWIFT 5
Sah@@ 5
Sahel 5
Salv@@ 5
Sam@@ 5
Samuel 5
Sat@@ 5
Saturday 5
Sav@@ 5
Sci@@ 5
Sechin 5
Sector 5
Sheikh 5
Shu@@ 5
Sik@@ 5
Sikorski 5
Sinhalese 5
Sino-US 5
Sino-centric 5
Six-@@ 5
Sixth 5
Smoot-Hawley 5
Société 5
Sof@@ 5
Somali@@ 5
Sor@@ 5
Soviet-@@ 5
Speaker 5
Spec@@ 5
Spence 5
Stor@@ 5
Stra@@ 5
Stran@@ 5
Stuart 5
Study 5
Su-@@ 5
Super 5
Survi@@ 5
Swe@@ 5
Swensen 5
Sydney 5
TA 5
TC 5
Taipei 5
Tajikistan 5
Taksim 5
Tariffs 5
Teach 5
Teheran 5
Ter@@ 5
Test 5
Thani 5
Thatcherism 5
Thein 5
They 5
Thirty 5
Tim@@ 5
Tobacco 5
Tr@@ 5
Trans@@ 5
Trap 5
Tre@@ 5
Tru@@ 5
Trumpian 5
UK-based 5
UNCLOS 5
UNEP 5
UNF@@ 5
US-Russia 5
USA 5
Ug@@ 5
Under@@ 5
Uttar 5
Valls 5
Vel@@ 5
Vermont 5
Victorian 5
Vie@@ 5
Wahhabism 5
Wales 5
Warming 5
Weber 5
Weinstein 5
Well 5
Williams 5
Wolfensohn 5
XVI 5
Xi@@ 5
Xiaochuan 5
Yang@@ 5
Yasser 5
Yingluck 5
You@@ 5
Zar@@ 5
Zuckerberg 5
a.@@ 5
ab 5
abate 5
abated 5
abdic@@ 5
abdication 5
abducted 5
aberrant 5
abhor 5
abhors 5
abides 5
abo@@ 5
above-average 5
abs@@ 5
absor@@ 5
abstain 5
absurdity 5
acceded 5
accentuated 5
acclaim 5
ace 5
ace@@ 5
acha 5
acolytes 5
acquain@@ 5
acquiesce 5
acquiescing 5
acrimonious 5
activate 5
actress 5
adaptable 5
addi@@ 5
adjusts 5
advises 5
ae 5
aerospace 5
aes@@ 5
affiliation 5
affords 5
ag 5
age@@ 5
agenda-setting 5
aggregated 5
aggressor 5
aggrieved 5
agitation 5
agno@@ 5
agon@@ 5
agony 5
agrarian 5
aids 5
airplane 5
airplanes 5
akh 5
al- 5
al-N@@ 5
al-Shabaab 5
alchem@@ 5
aleg@@ 5
algorithmic 5
alienating 5
aligns 5
alis@@ 5
alist-@@ 5
allaying 5
allegiances 5
allo@@ 5
allow@@ 5
alls 5
aloof 5
altitude 5
amed 5
amelior@@ 5
amor@@ 5
amplifies 5
ance@@ 5
angrily 5
anguish 5
anian 5
animal-@@ 5
animate 5
animation 5
anization 5
anks 5
annoyance 5
annul@@ 5
answering 5
antagon@@ 5
antagonistic 5
antagonize 5
antagonizing 5
anthropo@@ 5
anti-gay 5
anti-government 5
anti-poverty 5
anti-terrorism 5
anti-terrorist 5
ap 5
apes 5
aping 5
apparat@@ 5
appointees 5
apprehension 5
appropriated 5
aquaculture 5
archae@@ 5
arche@@ 5
archi@@ 5
arenas 5
aria 5
arism 5
arist 5
aristocracy 5
arms-@@ 5
arrange 5
arresting 5
artist 5
as-yet-@@ 5
ascendant 5
ascribe 5
assassin@@ 5
assaulted 5
assemblies 5
assi@@ 5
assistant 5
assisted 5
associate 5
astray 5
astronomical 5
asts 5
asy@@ 5
asymmetries 5
atars 5
atavistic 5
atingly 5
ationally 5
atist 5
atives 5
atom@@ 5
attainable 5
attention-@@ 5
atters 5
attractions 5
attributing 5
auction 5
auctions 5
augur 5
auth@@ 5
authenticity 5
authoritative 5
authorize 5
avenue 5
avian 5
avow@@ 5
awards 5
awat@@ 5
awry 5
ayy@@ 5
backward-looking 5
bad-@@ 5
baggage 5
bail@@ 5
balk 5
balkanization 5
ballistic-missile 5
bank-@@ 5
banking-sector 5
barons 5
barric@@ 5
basi@@ 5
bath@@ 5
bathwater 5
bbled 5
be-@@ 5
bean 5
beans 5
bearish 5
beck@@ 5
beefing 5
beforehand 5
belligerence 5
bench 5
benevolence 5
ber-@@ 5
bes 5
bewildering 5
bitumen 5
blackma@@ 5
blackouts 5
blinkered 5
bloo@@ 5
blowback 5
blush 5
boardroom 5
bogeyman 5
bogged 5
boil 5
boom-and-bust 5
bore 5
bou@@ 5
boun@@ 5
brakes 5
bravely 5
bravery 5
break-@@ 5
break-up 5
break@@ 5
breakers 5
breathing 5
breeds 5
brick 5
brilli@@ 5
brisk 5
broadens 5
brokering 5
budgeting 5
bulge 5
butter 5
buy-@@ 5
byproduct 5
bystanders 5
cacophony 5
calamities 5
cam@@ 5
campuses 5
cancer@@ 5
capitalizing 5
carte 5
cashless 5
cassava 5
catalogue 5
catalyzing 5
categorize 5
categorized 5
cautioned 5
cease@@ 5
cel@@ 5
celebrities 5
cellphone 5
cereal 5
certified 5
chamber 5
charlat@@ 5
charts 5
chasm 5
chec@@ 5
cheering 5
chemotherapy 5
chenko 5
cherish 5
chiefs 5
child@@ 5
chord 5
chunk 5
circuit 5
ck 5
clans 5
clashed 5
cleaned 5
cleavages 5
cliché 5
click 5
cloning 5
clouded 5
clumsy 5
co-workers 5
coaching 5
coal@@ 5
coco@@ 5
coefficient 5
coinci@@ 5
coincides 5
coined 5
collaborations 5
collaborators 5
collectivi@@ 5
colon@@ 5
coloni@@ 5
comb@@ 5
comforts 5
command-and-control 5
commemoration 5
communic@@ 5
community-@@ 5
commute 5
competes 5
competitions 5
competitor 5
compla@@ 5
compli@@ 5
complication 5
complicity 5
composite 5
computational 5
computer-@@ 5
comrades 5
conceptu@@ 5
condemnations 5
condemns 5
condi@@ 5
condomini@@ 5
conduit 5
conduits 5
conferred 5
confess 5
confess@@ 5
confis@@ 5
conflicted 5
conforming 5
congratul@@ 5
conquer 5
conquest 5
consensus-@@ 5
consenting 5
consequent 5
consol@@ 5
consoli@@ 5
conspicuously 5
conspir@@ 5
conspiring 5
construed 5
consulate 5
consumption-tax 5
contaminating 5
contamination 5
conte@@ 5
contemp@@ 5
contender 5
contenders 5
contention 5
contextual 5
convertible 5
conveyed 5
conveys 5
convo@@ 5
coo@@ 5
copying 5
corpor@@ 5
correlations 5
correspondents 5
cosmic 5
cot@@ 5
countermeasures 5
courted 5
courting 5
courtroom 5
cousin 5
coven@@ 5
cow@@ 5
crashed 5
crashing 5
creditworthy 5
criticizes 5
crowd-@@ 5
crowdfunding 5
crunches 5
crusade 5
crystalli@@ 5
culmin@@ 5
cum@@ 5
cumulatively 5
curing 5
curiously 5
curtain 5
cushi@@ 5
cybersecurity 5
damned 5
dance 5
dancing 5
dared 5
day@@ 5
dding 5
ddling 5
deadliest 5
deafening 5
deal-making 5
dealers 5
debt-equity 5
debt-ridden 5
deceased 5
deceiving 5
dedication 5
dedly 5
deduct 5
deep-@@ 5
deep-rooted 5
defam@@ 5
defaulting 5
defender 5
defense-@@ 5
defensible 5
deferral 5
deferring 5
deficit-reduction 5
defined-benefit 5
deft 5
degrading 5
del 5
delinqu@@ 5
demagogue 5
demonstra@@ 5
demoralized 5
dence 5
dengue 5
deniers 5
denti@@ 5
departing 5
departs 5
depiction 5
deportations 5
depravity 5
deprivation 5
derision 5
descended 5
designers 5
despots 5
dest@@ 5
destitute 5
determin@@ 5
devastate 5
deviations 5
devol@@ 5
diamonds 5
dian 5
dians 5
dictating 5
did@@ 5
differentiation 5
digit 5
digitized 5
digits 5
dilute 5
diminution 5
dings 5
diplomatically 5
disagreed 5
disappears 5
discarded 5
discounted 5
discovering 5
discre@@ 5
discrete 5
disengage 5
disentang@@ 5
dishonest 5
disinflation 5
disliked 5
dism 5
dispas@@ 5
dispel 5
dispen@@ 5
dispense 5
dispiriting 5
displaying 5
disposed 5
dispossessed 5
disquieting 5
disrespect 5
disseminating 5
dissoci@@ 5
distanced 5
distracts 5
distributive 5
disturbance 5
dium 5
div@@ 5
diver@@ 5
diverting 5
divest 5
divi@@ 5
divorced 5
documentation 5
dom@@ 5
domestic-@@ 5
dominion 5
doom@@ 5
downgra@@ 5
downtown 5
downtrodden 5
drainage 5
drained 5
dram@@ 5
dramas 5
drier 5
drifting 5
drinks 5
dru@@ 5
drun@@ 5
duce 5
duped 5
durables 5
dwarfed 5
dwind@@ 5
dy@@ 5
dynastic 5
dystopian 5
eag@@ 5
eaten 5
eb@@ 5
ech 5
eclip@@ 5
economize 5
ection 5
edit 5
edit@@ 5
editing 5
eight-year 5
elan@@ 5
elasticity 5
electorally 5
elects 5
elevate 5
eleven@@ 5
eloqu@@ 5
eman@@ 5
embedding 5
emblematic 5
embryonic 5
emerging-country 5
emi@@ 5
emigrate 5
emir@@ 5
emis@@ 5
emissions-@@ 5
empowers 5
ences 5
endorsements 5
endowment 5
endures 5
ener@@ 5
energized 5
enhan@@ 5
eni@@ 5
enlar@@ 5
enlarged 5
enlarging 5
enmeshed 5
enshrine 5
ente@@ 5
enterprising 5
entertain 5
enthusiasts 5
entists 5
entive 5
entrench 5
epitome 5
equity-@@ 5
er-in-law 5
erased 5
erection 5
erie 5
erity 5
erred 5
erry-@@ 5
es-based 5
eschew 5
eschewed 5
ese 5
espouse 5
essay 5
esteem 5
esty 5
eter@@ 5
ets 5
euro-area 5
eus 5
euthanasia 5
evacuate 5
evacuated 5
evaded 5
evaluations 5
evange@@ 5
ever-closer 5
evic@@ 5
evidenced 5
evils 5
evoke 5
ex-Soviet 5
ex-communist 5
exac@@ 5
exaggerate 5
exaggerating 5
exalted 5
exam 5
excel 5
excess-@@ 5
execu@@ 5
exemplifies 5
exempting 5
exhibited 5
expan@@ 5
exped@@ 5
expires 5
explosions 5
explosives 5
export-driven 5
exposures 5
expropri@@ 5
extinct 5
extingu@@ 5
extractive 5
ey 5
face-@@ 5
[...]
