#version: 0.2
t h
i n
a n
th e</w>
e r
o s
an d</w>
a p
a t</w>
o u
in g</w>
t o</w>
a r
ap os
& apos
i s</w>
&apos ;
e n
o f</w>
r e
a l
t i
o n
th e
o r
i n</w>
th at</w>
e d</w>
o n</w>
i t</w>
w h
e s</w>
i t
s t
o u</w>
y ou</w>
e r</w>
w e</w>
l y</w>
a n</w>
v e</w>
o m
l i
a c
a s</w>
a t
r o
&apos; s</w>
n o
e c
l e</w>
er e</w>
o r</w>
th is</w>
s e</w>
i c
q u
o t
e n</w>
e l
h a
s t</w>
s o</w>
d i
a b
l o
a l</w>
i l
b u
s i
l e
qu ot
quot ;</w>
& quot;</w>
ou t</w>
v er
u r
l d</w>
m a
- -</w>
r i
the y</w>
b e
ti on</w>
ar e</w>
m e</w>
o p
d e
k e</w>
w as</w>
s h
a y</w>
en t</w>
al ly</w>
f or</w>
s e
n e
c h
g o
ha ve</w>
g h
no w</w>
wh at</w>
u n
on e</w>
bu t</w>
ou r</w>
r a
w it
al l</w>
wit h</w>
c om
c an</w>
w or
a s
o l
b e</w>
t s</w>
p e
&apos; t</w>
p ro
th ere</w>
ab out</w>
a u
th in
e x
g e
c e</w>
r e</w>
s a
gh t</w>
ou n
s om
ou ld</w>
the r</w>
a g
no t</w>
d o</w>
e s
v i
d o
c on
s u
t r
p l
t o
ver y</w>
t er
&apos; re</w>
th ing</w>
f i
d s</w>
p er
m e
m y</w>
s p
a r</w>
b ec
li ke</w>
u l
f ro
o w</w>
pe op
i f</w>
h e</w>
peop le</w>
fro m</w>
u st</w>
or e</w>
a m
c i
t u
u c
it y</w>
y e
t a
ti on
k ing</w>
the se</w>
j ust</w>
an t</w>
v er</w>
au se</w>
m o
f f
at e</w>
ur e</w>
bec ause</w>
d e</w>
t er</w>
g s</w>
b o
el l</w>
wh en</w>
i m
k now</w>
er s</w>
u p</w>
a tion</w>
go ing</w>
h ow</w>
b y</w>
h ere</w>
ar s</w>
p o
i r</w>
g e</w>
ic h</w>
t ed</w>
lo o
the m</w>
g i
u s</w>
a d
u m
f or
in d</w>
w ay</w>
wh ich</w>
m ore</w>
som e
se e</w>
e m
thin k</w>
p re
h e
p ar
ge t</w>
ha d</w>
o ther</w>
p u
i s
re ally</w>
w n</w>
t w
y our</w>
t h</w>
the n</w>
h i
i d</w>
o d</w>
wh o</w>
l a
w ould</w>
&apos; ve</w>
w ere</w>
g h</w>
the ir</w>
e v
oun d</w>
il l</w>
b i
t ing</w>
f e
wh ere</w>
u s
tu ally</w>
an y</w>
ti me</w>
in e</w>
en ce</w>
os e</w>
&apos; m</w>
som e</w>
y s</w>
t e
ou r
k s</w>
c re
d on</w>
wor ld</w>
ap p
tion s</w>
ac tually</w>
ti c
c o
h as</w>
f u
in to</w>
os t</w>
a d</w>
thin gs</w>
ab le</w>
st r
g o</w>
r ou
ac k</w>
ac e</w>
ye ars</w>
d er
w ill</w>
d ay</w>
s el
l l</w>
al l
l it
w ant</w>
en t
d ing</w>
h app
g u
t le</w>
ma ke</w>
c ould</w>
g re
d y</w>
ri ght</w>
n o</w>
c h</w>
st ar
sa id</w>
m i
en ts</w>
t al
com p
p or
s s</w>
di ff
be en</w>
k e
v es</w>
fi r
p h
ag e</w>
f e</w>
y ing</w>
some thing</w>
sh e</w>
m ost</w>
w ell</w>
w e
in ter
st e
s c
t ure</w>
v ing</w>
ar d</w>
fir st</w>
w a
on g</w>
lit tle</w>
ec t</w>
c l
st or
k ed</w>
tw o</w>
go t</w>
ou s</w>
s o
i es</w>
at ed</w>
ch an
h is</w>
wor k</w>
s y
ti ve</w>
th an</w>
loo k</w>
pro b
c a
t y</w>
diff er
th ose</w>
th ou
b ack</w>
p a
g y</w>
p os
i z
0 0</w>
es s</w>
g r
f o
p le</w>
w i
m uc
al so</w>
s ay</w>
m ent</w>
muc h</w>
it e</w>
li fe</w>
v e
en ti
o ver</w>
si on</w>
f ac
ne w</w>
en d</w>
st u
k ind</w>
i r
c e
d er</w>
b le</w>
an s</w>
re e</w>
bo dy</w>
g en
m on
si g
t ra
il li
on s</w>
f f</w>
d ed</w>
ic e</w>
e ver
t ri
fu l</w>
on ly</w>
lo t</w>
ta ke</w>
ev en</w>
ever y
d uc
t ec
m s</w>
d n</w>
h um
f a
bu il
i de
h er</w>
d re
t ur
com e</w>
it s</w>
di d</w>
ne ed</w>
ti c</w>
m any</w>
th rou
e t</w>
&apos; ll</w>
c oun
ch o
at er</w>
ar ound</w>
m ar
f r
ol l
n ing</w>
el l
s in
go od</w>
do wn</w>
f in
ic al</w>
ec on
ac h</w>
tr y</w>
w s</w>
m in
con t
throu gh</w>
wh y</w>
il l
differ ent</w>
b r
p r
un der
d u
pu t</w>
e very</w>
al s</w>
com m
s ti
le t</w>
m at
s or
an y
u se</w>
w er</w>
c all
an d
por t
s er
s ur
n i
si de</w>
sh o
a in</w>
be ing</w>
sa me</w>
re c
ec i
happ en
do ing</w>
prob le
ar y</w>
g ra
b er</w>
a f
s en
stor y</w>
r u
o k</w>
at ing</w>
om e</w>
ch il
v ed</w>
tec h
o b
s on</w>
e st
s ol
ma g
an ce</w>
s ci
e l</w>
a m</w>
an s
lo gy</w>
ti es</w>
sel f</w>
re d</w>
pl an
call ed</w>
u e</w>
si m
le ar
i c</w>
t e</w>
th ree</w>
wa ys</w>
ti m
ac h
v el
illi on</w>
I n
p i
&apos; d</w>
c ent</w>
ma de</w>
di s
at e
le a
o l</w>
tal k</w>
c ar
p ri
C h
t ly</w>
de sig
st s</w>
w r
re s</w>
b l
n ed</w>
h o
or s</w>
tech no
n a
ex per
f ore</w>
per cent</w>
w om
t ell</w>
b ra
g a
under st
af ter</w>
tion al</w>
li c
b as
t re
so ci
ye ar</w>
to day</w>
p ic
qu es
la st</w>
un i
in t</w>
g er</w>
chan ge</w>
s h</w>
an other</w>
fac t</w>
im port
at es</w>
c our
gre at</w>
hum an</w>
k es</w>
f ind</w>
ste m</w>
an c
h el
sh i
ide a</w>
di dn</w>
o wn</w>
es s
w ent</w>
k i
s m
t ter</w>
lo w</w>
f t</w>
0 00</w>
gi ve</w>
bi g</w>
wi th
vi r
w ing</w>
w an
t en
i l</w>
en c
o ff</w>
us ed</w>
thou ght</w>
g in
sh ould</w>
cour se</w>
ic ally</w>
be fore</w>
star ted</w>
m er
pre s
in gs</w>
p s</w>
b it</w>
be li
ne x
i mag
f l
t ting</w>
, 000</w>
ar t</w>
ag ain</w>
sh ow</w>
ex am
pl ace</w>
b ot
v en</w>
ic a</w>
g ro
k no
inter est
il ity</w>
import ant</w>
ag o</w>
m an</w>
ter s</w>
le ss</w>
o m</w>
ne ver</w>
e y</w>
e ach</w>
do es</w>
tim es</w>
ar i
star t</w>
proble m</w>
be tter</w>
nex t</w>
w ater</w>
c or
st a
sy stem</w>
in v
par t</w>
al iz
mi ght</w>
sor t</w>
d d
ca me</w>
c ol
d a
d ic
ge ther</w>
f am
to gether</w>
me an</w>
e en</w>
b re
&apos ;</w>
s es</w>
s cho
o le</w>
c ou
hi m</w>
com pu
li ght</w>
1 9
comp le
an k</w>
si ble</w>
e ver</w>
al i
n at
j o
c u
sti ll</w>
str uc
c er
e p</w>
an ds</w>
in s</w>
n um
o ld</w>
de vel
s econ
techno logy</w>
me m
r os
ex p
lo c
d at
pro duc
l es</w>
c ess</w>
j ect</w>
m an
c ul
to o</w>
bra in</w>
f ound</w>
l ong</w>
it ed</w>
fe w</w>
tw een</w>
re ad
loo king</w>
be tween</w>
e w</w>
in cre
a tions</w>
m u
po int</w>
dre n</w>
di a</w>
e st</w>
sp ec
g ing</w>
ma tion</w>
e ve</w>
w ar
ma y
e ff
ac t</w>
wh ole</w>
or g
chil dren</w>
t en</w>
d one</w>
n s</w>
s ing</w>
s k
pl a
A fr
f un
& #
&# 9
u m</w>
gen er
A mer
2 0
may be</w>
d eci
c ur
g le</w>
gr ap
ab ly</w>
es n</w>
do esn</w>
l ar
underst and</w>
ques tion</w>
r y</w>
ic i
e ar
ec ts</w>
exam ple</w>
lo ve</w>
th er
re al</w>
ce p
m illion</w>
1 0</w>
sel ves</w>
tic al</w>
s pe
re as
for mation</w>
su p
s ed</w>
wan ted</w>
ou gh</w>
c all</w>
f ul
f ri
n ec
f ace</w>
dat a</w>
tr ans
a way</w>
wor king</w>
us ing</w>
c ap
every thing</w>
d oll
per son</w>
fam i
or y</w>
wom en</w>
tr ying</w>
al ways</w>
er i
si c</w>
ou s
l ine</w>
u tion</w>
po wer</w>
f our</w>
ma y</w>
ell s</w>
he al
beli eve</w>
li ve</w>
fe el</w>
devel op
y p
l an
or i
e i
en er
desig n</w>
ne ss</w>
ul ar</w>
li m
in t
econ om
y s
h al
for m</w>
w al
comm un
z e</w>
mon ey</w>
scho ol</w>
ou t
o c
pl ay</w>
S t
fi ve</w>
g l
ar e
e p
sp ace</w>
ro om</w>
org an
al ity</w>
com es</w>
se ar
ki ds</w>
to ok</w>
a se</w>
w er
ot s</w>
secon d</w>
stu ff</w>
su b
fo od</w>
cre ate</w>
exper i
m en
h op
v al
thin king</w>
in formation</w>
m om
hel p</w>
re sp
coun try</w>
ma king</w>
el ec
sen se</w>
po li
ic s</w>
g es</w>
st er</w>
an im
ne e
par tic
l dn</w>
s it
s ec
se e
buil ding</w>
pu b
as k</w>
sa ys</w>
u t
ti v
y es</w>
en ough</w>
ge tting</w>
qu ite</w>
num ber</w>
ab ility</w>
on es</w>
d ri
for m
bre a
T E
al e</w>
uni ver
lo gi
re e
m or
w at
m y
em s</w>
d in
prob ably</w>
sm all</w>
me ans</w>
p at
g ed</w>
ener gy</w>
interest ing</w>
fu ture</w>
pre t
re ad</w>
th s</w>
s on
wh i
t or</w>
stu d
Afr ica</w>
o ff
lo b
g rou
d ge</w>
si ve</w>
c oll
f ol
ros s</w>
be au
w on
te ly</w>
happen ed</w>
bo ok</w>
qu i
pi ec
bec ome</w>
ve l</w>
pos sible</w>
h ar
ent ly</w>
wh e
h ard</w>
k en</w>
le ft</w>
l in
hi gh
read y</w>
h un
doll ars</w>
tal king</w>
be st</w>
tri es</w>
o p</w>
n er</w>
com ing</w>
bas ically</w>
pl ac
th ank</w>
su m
ch ar
cont ro
e t
pub li
tic s</w>
pret ty</w>
c r
in g
w ed</w>
any thing</w>
l and</w>
ev ol
c ra
with out</w>
w ard</w>
mo ve</w>
2 0</w>
hal f</w>
m is
se t</w>
b or
c ri
5 0</w>
we e
vir on
go ver
d ra
d ec
s ure</w>
p as
h ou
sim ple</w>
ca se</w>
ous ly</w>
h ome</w>
shi p</w>
bi o
c en
ta in</w>
se en</w>
sci ence</w>
v en
o f
b ro
it ing</w>
st ri
go es</w>
en viron
th ers</w>
p en
cl u
si ons</w>
r an
buil d</w>
soci al</w>
resp on
z ing</w>
ma kes</w>
u p
to p</w>
em ent</w>
ac ross</w>
o k
ke t</w>
v a
E ar
h u
su ch</w>
p op
di vi
c le
e duc
c an
el se</w>
he ad</w>
bu sin
b ac
a h</w>
su c
s our
sa w</w>
whi le</w>
ro p
imag ine</w>
happ en</w>
thou gh</w>
re la
m en</w>
ent al</w>
re aliz
ha ving</w>
c are</w>
wor ks</w>
O K</w>
ph ys
coun tries</w>
gover n
m ind</w>
vi de
lo g
ic an</w>
sci enti
li ves</w>
it al</w>
to ld</w>
g lob
pic ture</w>
li ving</w>
k in
h and</w>
m ach
on ce</w>
da ys</w>
compu ter</w>
i d
happen s</w>
Ch in
y oun
in ed</w>
c ent
lan gu
su l
ide as</w>
f il
b er
g er
Ear th</w>
p er</w>
i g
en e
chil d</w>
c am
mom ent</w>
ye t</w>
dis co
a ma
sear ch</w>
l ed</w>
el s</w>
be g
proble ms</w>
plan et</w>
b ad</w>
n or
m il
W h
tur n</w>
sh ar
el e
re mem
v o
every body</w>
experi ence</w>
con nec
fi c</w>
p ed</w>
en ds</w>
fr on
l on
im p
d es</w>
st re
sp eci
pro ject</w>
fami ly</w>
cont in
c ha
m ents</w>
ur al</w>
in side</w>
ic ul
A n
bot h</w>
fo re
b a
ol s</w>
gi r
. .
lear n</w>
c ar</w>
loo ks</w>
pa ti
l ater</w>
ch e
.. .</w>
tu res</w>
in ste
as ked</w>
ap s</w>
si on
ne t</w>
thou s
st er
ex pl
pro cess</w>
sa ying</w>
ph ot
o ver
al most</w>
at t
mu sic</w>
nat ure</w>
reas on</w>
incre di
c anc
0 ,000</w>
o t</w>
b illion</w>
with in</w>
h an
heal th</w>
at h</w>
ic es</w>
di rec
ic k</w>
hi story</w>
beau ti
v ol
hi gh</w>
sh ed</w>
ex c
si x</w>
no thing</w>
o grap
l ing</w>
spe a
gu y</w>
won der
is m</w>
c ells</w>
f ar</w>
c op
f er
whe ther</w>
sin gle</w>
ap e</w>
pro gra
ke ep</w>
wr ong</w>
mat eri
po wer
busin ess</w>
s ity</w>
loo ked</w>
ic k
br ing</w>
c es</w>
vide o</w>
sol u
pos i
ate ly</w>
ul ation</w>
tr ue</w>
tr u
our s</w>
en g
li gh
mat ter</w>
he ard</w>
piec e</w>
remem ber</w>
cl as
mo ther</w>
ge ts</w>
ar ti
wom an</w>
ta tion</w>
di se
b ly</w>
beauti ful</w>
an ding</w>
os p
In dia</w>
enc es</w>
youn g</w>
fi g
e ty</w>
e d
univer se</w>
or t</w>
hop e</w>
al ready</w>
i st
of ten</w>
h er
ge st</w>
ans wer</w>
w in
op er
do c
0 s</w>
is h</w>
th ir
N ew</w>
glob al</w>
canc er</w>
20 0
t yp
i a</w>
di es</w>
E n
per son
al lo
plac es</w>
t on</w>
sc ri
ur ing</w>
cou ple</w>
o ce
ur y</w>
h y
U n
ta king</w>
n am
f ra
a ff
t -
t in
langu age</w>
em p
c ity</w>
3 ;</w>
1 ;</w>
&#9 3;</w>
&#9 1;</w>
t un
pro f
ama zing</w>
un ti
ar ch
ag es</w>
G od</w>
w as
vi ew</w>
ut es</w>
o od</w>
In ter
ok ay</w>
buil t</w>
v ice</w>
f lo
T he</w>
grou p</w>
some body</w>
mon ths</w>
bi r
sin ce</w>
un der</w>
all en
t able</w>
be gin
b ri
stor ies</w>
op en</w>
unti l</w>
n er
ap pro
tiv ity</w>
p ly</w>
dd le</w>
3 0</w>
some one</w>
ch allen
wor ds</w>
f ic
ve ly</w>
spec ies</w>
some times</w>
le vel</w>
inste ad</w>
b ab
ec ted</w>
e ly</w>
TE D</w>
or der</w>
j ects</w>
f -
tur ns</w>
my self</w>
is n</w>
fo c
our selves</w>
organ iz
mo de
d ent</w>
U .
exper im
du ce</w>
o o
kin ds</w>
he art</w>
hun dre
ti ce</w>
publi c</w>
in ing</w>
hou se</w>
ful ly</w>
ac tion</w>
min utes</w>
li st
le ad
at or</w>
educ ation</w>
bu r
Un ited</w>
d r
it self</w>
ti s
g n
ac y</w>
in divi
happ y</w>
the m
indivi du
c lim
p ul
is su
ra ther</w>
p ing</w>
m ust</w>
commun ity</w>
gr ound</w>
en s</w>
d -
comple tely</w>
cep t</w>
ex ac
be ha
happen ing</w>
e -
c ess
st op</w>
deci ded</w>
wor d</w>
elec tr
a tive</w>
ru n</w>
do m</w>
re sul
ti ci
bi g
fron t</w>
ni ght</w>
hu ge</w>
contro l</w>
re search</w>
mode l</w>
ou th</w>
li es</w>
as es</w>
exac tly</w>
ch ing</w>
tu al</w>
t ot
l s</w>
was n</w>
in du
lit er
ap pe
jo b</w>
en gin
b ers</w>
o s</w>
st ems</w>
i st</w>
fig ure</w>
struc ture</w>
por t</w>
ap er</w>
a me</w>
n on
k er</w>
au di
every one</w>
beha vi
anim als</w>
he ar</w>
St ates</w>
s ound</w>
ma ge</w>
o il</w>
t ors</w>
re li
c au
O h</w>
1 00</w>
lar ge</w>
k ers</w>
a ir</w>
them selves</w>
ver ed</w>
re co
in es</w>
i gh
stud ents</w>
en ing</w>
w ar</w>
sti tu
mo ving</w>
me as
fi sh</w>
y ed</w>
sh are</w>
pat ter
govern ment</w>
c le</w>
w on</w>
am oun
pl es</w>
na me</w>
gu ys</w>
al ong</w>
a st</w>
pr in
an t
war ds</w>
at s</w>
l ots</w>
comp any</w>
ro w</w>
lear ned</w>
thir d</w>
ph one</w>
or din
op port
f el
Inter net</w>
Amer ica</w>
nat ural</w>
log ical</w>
h or
bec ame</w>
st ra
ear ly</w>
cou ldn</w>
sho ws</w>
sel f-
lea st</w>
i se</w>
environ ment</w>
ye ah</w>
y -
t om
st ate</w>
partic ular</w>
engin e
ta in
ci r
in no
cent ury</w>
cre ated</w>
str y</w>
in st
k new</w>
fi el
cl os
enti al</w>
r un
ga me</w>
Amer ican</w>
tr an
i ght</w>
h ours</w>
fin ally</w>
ne t
si ze</w>
kno wn</w>
er ing</w>
ques tions</w>
p ur
ne ws</w>
sp i
h aps</w>
d ro
per haps</w>
mach ine</w>
fe el
e se</w>
d ar
m ing</w>
lear ning</w>
wonder ful</w>
v ari
a in
differ ence</w>
re st</w>
out side</w>
ul es</w>
diff icul
o thers</w>
e mo
dise ase</w>
sy stems</w>
soci ety</w>
ob vi
fri ends</w>
de mo
ch em
ta kes</w>
phot ograp
v ation</w>
te ach
sh ing</w>
t ou
stu dy</w>
f ree</w>
f ar
ac c
sy m
bas ed</w>
ar ly</w>
ta ken</w>
om es</w>
are a</w>
wor ked</w>
tic ally</w>
sc ale</w>
d ence</w>
c ell</w>
at ure</w>
a w
se ven</w>
mar ket</w>
vi sion</w>
per f
oce an</w>
ga ve</w>
oun ds</w>
Chin a</w>
i ous</w>
e qu
m ul
tur ned</w>
e a
cul ture</w>
ate ver</w>
Y or
t em
d ly</w>
ch ed</w>
wh atever</w>
A r
ell ing</w>
di g
te st</w>
in de
con si
ain st</w>
ag ainst</w>
pro vi
pa st</w>
enti re</w>
arch it
ou ldn</w>
m ic
W ell</w>
A l
d uring</w>
c al
as y</w>
se qu
u es</w>
ter ms</w>
pop ulation</w>
ke y</w>
thous ands</w>
cur r
par ts</w>
begin ning</w>
th y</w>
or d</w>
o ks</w>
a ir
E u
see ing</w>
p ot
me di
in i
illi ons</w>
b ed</w>
ill s</w>
cl ose</w>
nee ds</w>
as tic</w>
an ts</w>
nor m
fa ther</w>
di st
I s
1 5</w>
y our
m ol
d en
power ful</w>
cer tain</w>
kno w
gro w</w>
na tional</w>
ei ght</w>
ar -
c ost</w>
rela tion
Y ou</w>
st ed</w>
sp end</w>
d ru
ma j
lea ve</w>
j u
h ol
your self</w>
pos ed</w>
b ility</w>
f ly</w>
u te</w>
amoun t</w>
re l
m ental</w>
ab solu
su g
re g
ad v
N or
di ed</w>
Yor k</w>
ver age</w>
us es</w>
s qu
s cre
o -
m es
de fin
can not</w>
ill ed</w>
difficul t</w>
qu ick
commun ic
audi ence</w>
mo v
li sh</w>
j our
for ce</w>
h ind</w>
fe et</w>
s ite</w>
ri s
in c
bu y</w>
T h
tr ac
comp as
bo oks</w>
er a</w>
e yes</w>
J o
wal k</w>
ex tre
b el
interest ed</w>
M a
b ar
tri ed</w>
to m</w>
st ing</w>
su al</w>
chan ged</w>
a ds</w>
un ity</w>
sur pri
pr ac
e vi
con ver
an ti
om e
mi ddle</w>
col le
N A</w>
inv ol
g one</w>
d en</w>
beg an</w>
be hind</w>
p t</w>
e asy</w>
comp an
c y
u res</w>
sur face</w>
per i
m er</w>
know le
gi ven</w>
p sy
in clu
enc y</w>
w ers</w>
pos si
a x
me dia</w>
de al</w>
f ur
char ac
par ents</w>
nee ded</w>
bl ack</w>
sit u
s li
iz e</w>
quick ly</w>
sur vi
lea se</w>
ti vely</w>
mol ec
W or
re sour
in ve
pre sen
gre en</w>
lon ger</w>
comm on</w>
wr it
i mage</w>
d ers</w>
b an
ec tive</w>
b loo
pres ent</w>
m us
l ab
in ess</w>
hum ans</w>
gro w
fri end</w>
vi ol
s il
gh ts</w>
z ed</w>
wee k</w>
pre dic
par t
on d</w>
f re
d am
sim ply</w>
li g
evol ution</w>
D NA</w>
ver sity</w>
me an
su dd
sp ent</w>
reli gi
p le
ful l</w>
fl u
bac k
realiz ed</w>
re si
h ands</w>
c os
hum an
g en</w>
cle ar</w>
ste p</w>
s s
rou ght</w>
o d
n ers</w>
e at</w>
tra di
incredi ble</w>
am es</w>
tur al</w>
for ward</w>
econom ic</w>
star ting</w>
ordin ary</w>
comple x</w>
sit ting</w>
ei ther</w>
de scri
st age</w>
s it</w>
ro bo
r en
po in
mo vi
e y
c at
ye ar-
po or</w>
p aper</w>
feel ing</w>
ci al</w>
mo d
loc al</w>
in f
for tun
fil m</w>
ex t</w>
ci vi
bor n</w>
at ten
u g
re gi
progra m</w>
fiel d</w>
opport unity</w>
l ost</w>
cu t</w>
ci ties</w>
Wh at</w>
knowle dge</w>
gro wing</w>
d om
s ha
in ation</w>
ho ld</w>
sol ution</w>
ro c
ne y</w>
fun c
ar ing</w>
pati ent</w>
k y</w>
behavi or</w>
lo w
inv en
gir l</w>
chan ges</w>
ch es</w>
wat ch</w>
me t</w>
4 0</w>
te am</w>
con di
an tly</w>
ro te</w>
con f
techno logi
mo der
grow th</w>
fu n</w>
w rote</w>
me d
d an
b rought</w>
En g
sp ir
n ice</w>
me t
au th
ce i
anim al</w>
su per
pre ci
non -
M ar
t elling</w>
mil es</w>
e f</w>
wr ite</w>
mes sa
il s</w>
fel t</w>
di e</w>
sim il
in ten
compan ies</w>
sh ort</w>
h on
clim ate</w>
v ill
n y</w>
f ree
de f
y er</w>
ra di
ri ed</w>
gi ving</w>
fol lo
cer tain
L e
ec tion</w>
b ene
o x
liter ally</w>
c li
wee ks</w>
w ouldn</w>
val ue</w>
imag es</w>
em er
de ath</w>
car e
a tional</w>
gi ves</w>
b al
al low</w>
s is</w>
p ose</w>
materi al</w>
con sum
qu e</w>
for ms</w>
a verage</w>
TE D
poli tical</w>
develop ed</w>
ab o
m ot
st e</w>
spea k</w>
in spi
the ma
person al</w>
bot tom</w>
R e
uni ties</w>
p tion</w>
ma s
fa v
fa st</w>
wh ite</w>
underst anding</w>
si a</w>
run ning</w>
c ro
re ality</w>
per form
no body</w>
n al</w>
l os
Eng lish</w>
th re
technologi es</w>
ill ing</w>
he ad
econom y</w>
disco vered</w>
s mar
pla ying</w>
li ke
bl ue</w>
pro duce</w>
ne ur
m os
es p
compas sion</w>
car b
a z
se a</w>
e ts</w>
compu ters</w>
any one</w>
S .</w>
absolu tely</w>
the ory</w>
sh ape</w>
n u
loc k</w>
enti ally</w>
em ents</w>
au gh
D e
rop e</w>
n uc
mor ning</w>
happ iness</w>
el lig
Wor ld</w>
gen e
gr and
di men
cen ter</w>
z er
va il
to ols</w>
scienti sts</w>
fer ence</w>
com pe
chan ging</w>
vi e
p ay</w>
me dic
fi ed</w>
anc es</w>
m ine</w>
bab y</w>
at ors</w>
any body</w>
S u
st ro
are as</w>
t op
ma thema
individu al</w>
h osp
di sc
D a
C on
ter ri
t ele
mar ke
fa il
develop ing</w>
bu n
bloo d</w>
al one</w>
reco gn
mul ti
foc us</w>
p oll
ing ly</w>
im pro
de li
challen ge</w>
bo ard</w>
ur ity</w>
mo ved</w>
kno ws</w>
g ar
an al
relation ship</w>
g al
B u
se ems</w>
obvi ously</w>
in stitu
i sts</w>
ex tra
com b
mov ement</w>
de ep</w>
N e
tal ked</w>
ne igh
incredi bly</w>
en ded</w>
cre ating</w>
ac hi
sol ve</w>
l ate</w>
int ellig
sm all
sa ve</w>
ma p</w>
U. S.</w>
1 2</w>
ou ght</w>
h and
fun dam
co ol</w>
b s</w>
pati ents</w>
m illions</w>
m a</w>
produc t</w>
mi c</w>
am s</w>
a vail
L a
phys ical</w>
d ou
ch i
bo x</w>
beg in</w>
ac cess</w>
s tic
rec ently</w>
nuc le
d ings</w>
atten tion</w>
situ ation</w>
norm al</w>
so on</w>
see m</w>
resul t</w>
re vol
gu ess</w>
G oo
mic ro
id enti
L i
uc k</w>
r .</w>
o ds</w>
experim ent</w>
desig ned</w>
col or</w>
v ices</w>
tin y</w>
realiz e</w>
r it
gener ation</w>
bene f
ac k
sho wed</w>
op en
om s</w>
indu stry</w>
con cer
any way</w>
C A</w>
r ules</w>
pre ss</w>
hundre ds</w>
ho od</w>
gir ls</w>
year- old</w>
st and
maj or</w>
6 0</w>
sup port</w>
str an
se ver
pr om
perf ect</w>
ha ven</w>
bec omes</w>
bac ter
all s</w>
th an
st and</w>
sion al</w>
s le
num bers</w>
develop ment</w>
dar k</w>
c ars</w>
as s</w>
archit ec
w ish</w>
t ro
pic tures</w>
me ly</w>
ma in</w>
r ate</w>
ori gin
ar en</w>
al es</w>
su ff
int ro
plan ts</w>
materi als</w>
m oun
con sci
su sta
p an
ea si
de vice</w>
re qui
d a</w>
ul arly</w>
patter n</w>
h y</w>
g ers</w>
avail able</w>
read ing</w>
pri v
on y</w>
Eu rope</w>
19 9
tri bu
to wards</w>
me et</w>
li z
big ger</w>
b lo
te ach</w>
suc cess
scho ols</w>
nec ess
m ed</w>
like ly</w>
li ved</w>
le g
h our</w>
U ni
z y</w>
typ e</w>
robo t</w>
la b</w>
ev en
eff ect</w>
b at
S outh</w>
ni fic
moder n</w>
so f
pl ant</w>
k id</w>
de pen
reas ons</w>
n ar
incre as
esp eci
especi ally</w>
en ter
as king</w>
min ute</w>
fav or
M o
Jo h
2 5</w>
vo ice</w>
pu tting</w>
pres sion</w>
imp act</w>
grou ps</w>
f y</w>
brea k</w>
pro tec
posi tion</w>
en ding</w>
e qui
dri ve</w>
ac i
ac e
y ond</w>
u se
t an
sy n
resour ces</w>
issu e</w>
in k</w>
f all</w>
be yond</w>
to wn</w>
t ells</w>
ag ed</w>
wr iting</w>
simil ar</w>
o re
invol ved</w>
ch ec
ab or
0 -
wor th</w>
r an</w>
i m</w>
de ad</w>
Chin ese</w>
t es</w>
p lease</w>
la w</w>
l and
con v
con struc
ar ed</w>
M i
G re
v ot
qu ality</w>
contin u
li ties</w>
do or</w>
connec ted</w>
clas s</w>
high -
expl ain</w>
de gre
tre at
sec urity</w>
ro ad</w>
at ures</w>
a k</w>
w ind</w>
w in</w>
ver s</w>
um ent</w>
s sed</w>
re ly</w>
r ing</w>
psy cho
le y</w>
ig n</w>
ic ans</w>
gu e</w>
speci al</w>
s un
net work</w>
certain ly</w>
sever al</w>
s ong</w>
on to</w>
ob ject</w>
exp en
ex ist
B i
f oun
chan ce</w>
ba sic</w>
sp read</w>
or ity</w>
eff ici
ac tive</w>
ther e
scienti fic</w>
ris k</w>
prin ci
posi tive</w>
pa in
messa ge</w>
bo y</w>
beli ev
8 0</w>
tru th</w>
sour ce</w>
sa tion</w>
peri od</w>
lin es</w>
i an</w>
ey e</w>
b an</w>
t on
med ical</w>
en ly</w>
appro ach</w>
ad ul
a de</w>
P ar
H I
wor l
sk in</w>
off ice</w>
h it</w>
spe ed</w>
sho wing</w>
r om
movi e</w>
exam ples</w>
Goo gle</w>
C ar
wan ts</w>
u al</w>
pro jects</w>
gi c</w>
list en</w>
iz ed</w>
ter m</w>
pro per
nucle ar</w>
b es</w>
ag ing</w>
sudd enly</w>
r is</w>
mis sion</w>
ec han
ta il</w>
sec re
sc en
r ap
pot ential</w>
or ies</w>
li fe
it ary</w>
extra ordinary</w>
com par
cho ice</w>
carb on</w>
vill age</w>
t ect</w>
t ar
su ally</w>
ser ve</w>
ro r</w>
pa in</w>
o w
li st</w>
issu es</w>
inno vation</w>
fur ther</w>
conf lic
wal king</w>
tran sp
star ts</w>
l un
fe ar</w>
devel op</w>
ur s</w>
suc cess</w>
str ong</w>
mon th</w>
ma ss</w>
ex tr
er y</w>
5 00</w>
tot ally</w>
partic ularly</w>
1 1</w>
pro te
meas ure</w>
in s
evi dence</w>
u str
ser ious</w>
se par
plan e</w>
hundre d</w>
exc iting</w>
con n
wa it</w>
smar t</w>
s ent</w>
per spec
g as</w>
every where</w>
ver sion</w>
tw are</w>
th ro
st op
osp here</w>
nam ed</w>
f le
dig ital</w>
c ause</w>
w all</w>
st ers</w>
p ol
no tice</w>
l ose</w>
inter est</w>
even tually</w>
e m</w>
demo cr
rec or
im medi
ex cept</w>
cam era</w>
ar m</w>
ac coun
we b
vi sual</w>
susta in
s ounds</w>
p lic
n ine</w>
di an</w>
de ep
cen tr
c in
ac her</w>
G e
sof tware</w>
s end</w>
pro gre
po ver
j um
fol low</w>
bun ch</w>
a v
C o
y ers</w>
stud ent</w>
i tion</w>
g ames</w>
f ant
do w
ti ves</w>
st ay</w>
sol ar</w>
ser ies</w>
pro cess
poin ts</w>
ob jects</w>
extre mely</w>
w ood</w>
po lic
m echan
inde ed</w>
gal ax
de m
J ap
o logy</w>
o h</w>
mor al</w>
la un
fo ot</w>
f er</w>
big gest</w>
H ar
tre es</w>
prof es
on line</w>
fortun ately</w>
er ed</w>
dan ger
comp lic
bu l
b om
b all</w>
A f
str on
sh ap
scre en</w>
cal cul
bio logy</w>
W e</w>
Ch ri
teach ers</w>
stre et</w>
st ore</w>
st at
re le
g ot
ate st</w>
1 8
vi d</w>
re ach</w>
r ich</w>
piec es</w>
ox y
or m
jour ney</w>
fi re</w>
ess entially</w>
co de</w>
t end</w>
sor ts</w>
sig nific
s l
re mar
ear li
d y
te acher</w>
pover ty</w>
lo wer</w>
le ad</w>
di ag
as se
ad d</w>
2 00</w>
some how</w>
Ch ris</w>
medic ine</w>
is tic</w>
indu stri
gre w</w>
democr acy</w>
buil dings</w>
S te
M ic
Af gh
st anding</w>
sp o
go al</w>
de ter
aliz ed</w>
y m
w il
vel s</w>
thous and</w>
t ree</w>
f em
am ong</w>
sk y</w>
ran ge</w>
p age</w>
fi gu
c lear
a sh
W i
sur ger
stri bu
ph il
m it
h im
gener al</w>
g ri
di stribu
de p
c ru
M on
tou ch</w>
tal ks</w>
is ms</w>
exp ect</w>
au ght</w>
architec ture</w>
R o
Afr ican</w>
pl an</w>
pic k</w>
min ds</w>
favor ite</w>
disc us
ar ds</w>
abo ve</w>
wat ching</w>
sup posed</w>
fo ot
en ter</w>
ac tivity</w>
vir us</w>
tici p
st ars</w>
s we
r ic
pr os
ob s</w>
ma in
gra du
f as
W est</w>
w ell
t aught</w>
sho t</w>
sh e
lead ers</w>
i al</w>
complic ated</w>
al ing</w>
E ast</w>
some where</w>
s ell</w>
resul ts</w>
pr ice</w>
high er</w>
wi fe</w>
tim ate</w>
th ree
su n</w>
perspec tive</w>
gen es</w>
bacter ia</w>
B ri
there fore</w>
li ar</w>
k able</w>
cre ative</w>
an g
H a
wi se</w>
us h</w>
sig n</w>
on e-
ari ly</w>
z z
u sually</w>
logi st</w>
hi c</w>
bot s</w>
ad dre
s w
ri se</w>
fac es</w>
e e</w>
d ance</w>
allo wed</w>
tem per
se x</w>
s al
produc ts</w>
im possible</w>
f ine</w>
contin ue</w>
coll abor
HI V</w>
1 8</w>
tr ou
three -
om ing</w>
ol der</w>
ne w
me ant</w>
jo y</w>
hosp ital</w>
f la
do w</w>
writ ten</w>
sh es</w>
n e</w>
mod els</w>
mil itary</w>
mat h</w>
mach ines</w>
l er</w>
fundam ental</w>
expen sive</w>
exc ited</w>
throu gh
shi ps</w>
revol ution</w>
ra is
lar gest</w>
in flu
ic ity</w>
doc tor</w>
ple as
ph en
mi r
lar ger</w>
ex pla
en orm
cont ent</w>
bra ins</w>
W e
1 0
viol ence</w>
success ful</w>
small er</w>
s ou
ro bots</w>
mean ing</w>
list ening</w>
sug ge
sho wn</w>
sa fe</w>
fin ding</w>
con cept</w>
beau ty</w>
ali ve</w>
P h
A I
tra ining</w>
to -
tion ary</w>
patter ns</w>
k illed</w>
form ed</w>
es ti
ar tic
P ro
tradi tional</w>
ti z
t a</w>
ro le</w>
r in
pe ace</w>
ou se</w>
in come</w>
heal thy</w>
cri sis</w>
cre a
condi tions</w>
cl es</w>
al though</w>
a st
l uc
inclu ding</w>
wa ste</w>
d on
cra zy</w>
be ings</w>
wor se</w>
tru ly</w>
tri c</w>
to ol</w>
re cei
produc tion</w>
op h
k ill</w>
ep ing</w>
ad es</w>
up on</w>
ni a</w>
fant astic</w>
e th
conn ect</w>
bab ies</w>
an g</w>
ad ap
Nor th</w>
Da vid</w>
t or
st y
solu tions</w>
sk ills</w>
re -
om en
dow n
d augh
contro l
allo ws</w>
secon ds</w>
respon se</w>
phen omen
in te
fam ous</w>
fa ster</w>
b it
ach ed</w>
T V</w>
tu m
stu dies</w>
s -
ra tion</w>
m ent
ec ting</w>
de mon
an i
treat ment</w>
m al
ke pt</w>
individu als</w>
for th</w>
f our
engine ering</w>
doll ar</w>
con tribu
compe ti
comm unities</w>
com for
colle ge</w>
ca tions</w>
c ases</w>
bo dies</w>
an ci
I t</w>
Ch ar
B o
ver se</w>
m ers</w>
ligh ts</w>
fas cin
est er
cri tical</w>
cont ext</w>
bi le</w>
b ing</w>
ar ri
J u
t y
pl astic</w>
ir s</w>
b le
any where</w>
pr ene
mi le</w>
le gs</w>
l ands</w>
ici al</w>
earli er</w>
con st
c ele
bri dge</w>
wh er
well -
str ate
inven ted</w>
in str
c ed</w>
a p</w>
C ol
ther n</w>
sequ ence</w>
recogn ize</w>
re fl
phys ics</w>
ho le</w>
gre ater</w>
ent re
dy nam
di sa
deci sions</w>
a id</w>
wi de</w>
t ory</w>
pul l</w>
ma tic</w>
logi sts</w>
in si
g -
entre prene
dru gs</w>
ti tu
si bility</w>
n ur
incre ase</w>
il ing</w>
i ly</w>
him self</w>
we a
organiz ation</w>
human ity</w>
b its</w>
n os
gene tic</w>
ex ist</w>
do g</w>
web site</w>
ta ins</w>
surger y</w>
m it</w>
l am
h ic
danger ous</w>
cop e</w>
con ven
clear ly</w>
ab les</w>
W ester
underst ood</w>
tr ust</w>
tele vision</w>
sub ject</w>
sta tis
n it
got ten</w>
g ent
e ting</w>
dre am</w>
comple x
ar t
S e
M ars</w>
G er
sli de</w>
rel ated</w>
phys ici
mi sta
j obs</w>
follo wing</w>
exp lo
ac tual</w>
tra in</w>
teach ing</w>
sig n
ser vice</w>
on ic</w>
n one</w>
ini ti
immedi ately</w>
de sp
colle ag
clas s
S a
R ic
N o</w>
Joh n</w>
C am
th i
ra ise</w>
ist an</w>
fl ying</w>
di versity</w>
de ser
d ation</w>
Uni versity</w>
D i
B ra
v al</w>
u r</w>
par a
mas sive</w>
man u
ho t</w>
free dom</w>
electr icity</w>
direc tion</w>
P e
y a</w>
won der</w>
through out</w>
sp ac
s mo
remar kable</w>
fami lies</w>
fami liar</w>
evol ved</w>
zer o</w>
wh ose</w>
vari ous</w>
tre at</w>
stran ge</w>
s low</w>
pr int</w>
man i
ge ment</w>
expl or
eng th</w>
dra w</w>
an istan</w>
af ter
Afgh anistan</w>
5 ,000</w>
rec ord</w>
photograp h
ou ra
conver sation</w>
connec tion</w>
cl in
civi liz
cho ose</w>
and a</w>
wer en</w>
wal ked</w>
vi sible</w>
ve hic
pla yed</w>
land sc
dri ving</w>
din os
b and</w>
Amer icans</w>
val ues</w>
un fortunately</w>
re presen
f low</w>
cle an</w>
au tom
any more</w>
ag r
V i
w is
for ces</w>
fin al</w>
fa ir
environ mental</w>
dru g</w>
app li
S i
tra vel</w>
t ex
stic k</w>
se em
provi de</w>
flo or</w>
enorm ous</w>
emp lo
der ed</w>
consi der</w>
arti st</w>
N o
pro tect</w>
polic y</w>
in a</w>
de si
d ness</w>
cul tural</w>
con ference</w>
comm er
aw are</w>
ac ks</w>
we ap
trans l
survi ve</w>
sum mer</w>
s y</w>
qu ar
ob ser
le vels</w>
le ss
he at</w>
func tion</w>
ear th</w>
curr ent</w>
cos ts</w>
typ es</w>
ther ap
speci fic</w>
spea king</w>
produc ed</w>
p e</w>
inter national</w>
direc tly</w>
de b
conflic t</w>
cep tion</w>
c ros
al ter
ac ci
F r
we ver</w>
su e</w>
st om
ph ones</w>
organ isms</w>
low -
l ap
it h</w>
gl ass</w>
fun ny</w>
e ties</w>
bu t
ac ity</w>
a th
B ro
AI D
su s</w>
sol di
men d
il ed</w>
ho wever</w>
enc ed</w>
c la
anc y</w>
L on
19 8
tw o-
tre mend
ru le</w>
origin al</w>
inst ance</w>
in fra
foc used</w>
en se</w>
complex ity</w>
bo ys</w>
ac tions</w>
M c
K en
terri ble</w>
regi on</w>
prac tice</w>
in j
g ni
crea tivity</w>
charac ter</w>
at ory</w>
ac ting</w>
Wester n</w>
D ar
ti vi
sustain able</w>
sh or
se x
ri ghts</w>
perform ance</w>
os y
ne u
ma gic</w>
it es</w>
inspi red</w>
i shed</w>
fa shi
doc tors</w>
ci tiz
bec oming</w>
use ful</w>
tech n
intellig ence</w>
hi stor
h ur
fore st</w>
chem ical</w>
b ought</w>
ar g
aliz ation</w>
neigh bor
mos tly</w>
de s
at m
an e</w>
we al
the tic</w>
temper ature</w>
shar ing</w>
s al</w>
re duc
p ped</w>
oxy gen</w>
in ging</w>
et c</w>
en d
eff ective</w>
e ma
deci sion</w>
co ld</w>
bir th</w>
atm osphere</w>
a head</w>
We b</w>
P au
19 7
wa iting</w>
u le</w>
religi on</w>
no tic
l a</w>
enc oura
dis appe
comple te</w>
co ver</w>
as h</w>
agr icul
W ar</w>
Lon don</w>
AID S</w>
w el
tech ni
progre ss</w>
o es</w>
fi ght</w>
ex ten
co ff
bel ow</w>
am a</w>
S A</w>
I ra
sor ry</w>
poli tics</w>
photograp h</w>
m el
leg al</w>
en ess</w>
disco ver</w>
con clu
comp on
B er
ur ban</w>
sa m
re al
op s</w>
no tion</w>
n a</w>
me eting</w>
ligh tly</w>
intro duc
inde pen
hy dro
gre atest</w>
ci es</w>
cau ses</w>
an cial</w>
S o
H e
An d</w>
tr ack</w>
stre am</w>
sle ep</w>
re por
possi bly</w>
par ticip
pa id</w>
obvi ous</w>
h ot
fe ed</w>
dec ade</w>
c lo
H ow</w>
1 0,000</w>
squ are</w>
secre t</w>
qu ick</w>
priv ate</w>
neur ons</w>
mo tiv
govern ments</w>
expl ore</w>
experim ents</w>
char ge</w>
cap ital</w>
bio logical</w>
anc ed</w>
ali st</w>
9 0</w>
we ight</w>
v ul
oc cu
ne ar</w>
molec ules</w>
met ap
me th
lo ved</w>
li c</w>
f it</w>
challen ges</w>
bal ance</w>
s at</w>
pre par
ou d</w>
me ters</w>
it ation</w>
gra de</w>
el low</w>
deci de</w>
de stro
cre atures</w>
car ry</w>
as sum
as p
ari a</w>
N ational</w>
C ity</w>
C an
we st</w>
uni que</w>
tw ice</w>
t ext</w>
re sear
fu el</w>
eri a</w>
e ding</w>
e ating</w>
bir ds</w>
D r.</w>
v acc
trou ble</w>
t ask</w>
st ation</w>
ra d
pres sed</w>
for get</w>
emo tional</w>
cap acity</w>
bro ken</w>
and -
a ster
tion ed</w>
st o
phil os
pas sion</w>
i de</w>
e th</w>
comm it
clos er</w>
br illi
bas is</w>
J e
x i
un e</w>
sur r
s wit
rec ent</w>
r ace</w>
le t
infra structure</w>
hop e
fl u</w>
f os
ev ent</w>
d rop
cele br
c um
C ali
1 6</w>
um ents</w>
ri c</w>
moun tain</w>
fin ancial</w>
dom in
di tion</w>
d ate</w>
communic ation</w>
tur ning</w>
shi ft</w>
r ay</w>
pur pose</w>
poli ce</w>
oun ded</w>
manu fac
inve st
institu tions</w>
e g
dro p</w>
c k</w>
br inging</w>
ac tivi
ab i
P o
Cali for
wor kers</w>
st oc
st ates</w>
st ance</w>
re pe
pres sure</w>
f ab
call s</w>
al ism</w>
In dian</w>
v ic
tremend ous</w>
than ks</w>
sor s</w>
signific ant</w>
scienti st</w>
re ma
pat h</w>
mo m</w>
de ta
cor rec
as soci
ar ts</w>
ap art</w>
a -
L o
3 00</w>
we b</w>
ti sh</w>
ta tions</w>
t al</w>
str ug
ous ness</w>
ne ga
me ter</w>
lon g-
li ber
le -
l u
cre ates</w>
anci ent</w>
ac ts</w>
M us
Califor nia</w>
wor k
sym me
sup ply</w>
stand ard</w>
progra ms</w>
pop ular</w>
pas s</w>
on -
o ther
mo bile</w>
extr a</w>
daugh ter</w>
ali ties</w>
Ric hard</w>
P a
I f</w>
wor st</w>
wor ry</w>
sim ul
s lightly</w>
s ent
net works</w>
he aring</w>
far mers</w>
desig ners</w>
con duc
cap it
addre ss</w>
vul ner
ter y</w>
surpri sing</w>
sta ur
sp ending</w>
shar ed</w>
sc ul
re staur
pu sh</w>
pa th
mem ory</w>
ha m
gen ome</w>
gen e</w>
fre qu
fi x</w>
cor ner</w>
coll ap
an ce
am bi
al le
achi eve</w>
2 ,000</w>
t ;</w>
ser vices</w>
pre si
p al
ha ir</w>
h om
er t</w>
eff ects</w>
bu d
bir d</w>
b one</w>
asse m
app ed</w>
ans wers</w>
T his</w>
soci eties</w>
roc k</w>
radi o</w>
r on
plan ets</w>
k il
in tu
imag ination</w>
grap h
coff ee</w>
chec k</w>
al g
H ey</w>
x ed</w>
tot al</w>
stor s</w>
pre v
g ate</w>
fi gh
R us
M e
us tice</w>
u sual</w>
st ree
st ar</w>
publi shed</w>
marke ts</w>
li e</w>
l ying</w>
ing ton</w>
effici ent</w>
dimen sional</w>
de st</w>
d ying</w>
cho ices</w>
care er</w>
bre ad</w>
an z
Ira q</w>
C O
ter ed</w>
p li
kno wing</w>
defin ition</w>
de tec
co o
c ot
achi ev
Mi ddle</w>
1 ,000</w>
- year-old</w>
struc tures</w>
stra ight</w>
sa ving</w>
s la
s at
rou gh
respon sibility</w>
pu zz
ot h</w>
organ ic</w>
min i
inte gr
ec tively</w>
e ar</w>
b loc
arti sts</w>
ach ing</w>
Wh y</w>
B ar
x es</w>
w illing</w>
ver ing</w>
tra vel
sty le</w>
st -
ou l
lo ad</w>
hel ped</w>
em br
dise ases</w>
degre es</w>
seem ed</w>
ro oms</w>
ro l
religi ous</w>
pri mar
p ping</w>
mis sing</w>
jo in</w>
hel ping</w>
f ying</w>
el ements</w>
easi ly</w>
differ ences</w>
d ad</w>
b oun
app ing</w>
M ex
ti mat
si des</w>
se s
pas sed</w>
partic les</w>
new sp
mo ves</w>
for d</w>
de vices</w>
dd en</w>
c ell
bo at</w>
1 4</w>
timat ely</w>
sion ate</w>
sequ ences</w>
re duce</w>
notic ed</w>
neigh b
n an
landsc ape</w>
l ack</w>
h us
g ly</w>
fe els</w>
fair ly</w>
ec h
cha ir</w>
centr al</w>
br ings</w>
att emp
as ks</w>
anal y
R ob
7 0</w>
vol un
v ity</w>
tra ined</w>
th row</w>
s low
possi bility</w>
pa ir</w>
mag az
fic ation</w>
cor por
communic ate</w>
cam pa
z o
win dow</w>
tu red</w>
ti l
prof it</w>
necess ary</w>
ne l</w>
j a
grap h</w>
ent ally</w>
ec h</w>
cra tic</w>
con ser
colleag ues</w>
chil d
stud ying</w>
so ld</w>
ser i
re turn</w>
re plic
progra m
op pos
mu se
mom ents</w>
jour n
inter act</w>
im es</w>
f s</w>
demon str
brea k
ap preci
ad y</w>
N A
M r.</w>
Ge or
A sia</w>
19 6
u t</w>
te en
su sp
su me</w>
ra id</w>
pl at
pen gu
n ation</w>
metap h
ma m
lead ing</w>
le s
la w
ke ts</w>
industri al</w>
go l
fashi on</w>
cro w
att ack</w>
ari an</w>
T u
I T</w>
vi sit</w>
t ent</w>
st one</w>
pres ents</w>
necess arily</w>
mo thers</w>
in ci
evol u
e dge</w>
b ase</w>
ach es</w>
ac cor
O r
N ig
F ren
vir tual</w>
tu m</w>
tran si
tec h</w>
str ic
stop ped</w>
spec tr
si x
ph o
oper ation</w>
j ec
high ly</w>
figu red</w>
fascin ating</w>
f light</w>
f all
er ci
bl ing</w>
R i
B e
yp e</w>
y l
y ellow</w>
ti n</w>
stree ts</w>
s ick</w>
re mot
na tive</w>
la ws</w>
engine er</w>
emo tions</w>
eff ort</w>
che ap</w>
car to
am i</w>
ac cep
Mus li
val ent</w>
slow ly</w>
r ying</w>
pe dia</w>
opport unities</w>
ne arly</w>
luc ky</w>
langu ages</w>
it ely</w>
elec tric</w>
ec osy
dist ance</w>
cy cle</w>
con fi
T i
M an
Jap an</w>
G u
C om
sup por
sa fe
resp ect</w>
resear ch
p ages</w>
molec ule</w>
competi tion</w>
bu b
af raid</w>
ad ver
ac ked</w>
a vo
Eu ro
titu de</w>
tis sue</w>
t ons</w>
suff ering</w>
sh el
scul p
nega tive</w>
ne s
it ch
int ell
ins ects</w>
he ads</w>
fore ver</w>
f lies</w>
ev ents</w>
eng ine</w>
desp ite</w>
desig ner</w>
dec ades</w>
con cep
cau ght</w>
bl ed</w>
benef it</w>
T he
Pau l</w>
z en</w>
war ming</w>
tra de</w>
tici ans</w>
t t
su it</w>
sol ved</w>
perf ec
ori th
ill u
hol ding</w>
comp os
back ground</w>
an a</w>
aliz e</w>
alg orith
wis dom</w>
w alls</w>
tur ing</w>
si an</w>
s pl
ra in</w>
oc cur
nu tri
mo on</w>
meas u
in dic
g in</w>
ess es</w>
differ ently</w>
c y</w>
bro ad
bl ind</w>
b illions</w>
ad op
Fren ch</w>
CO 2</w>
statis tics</w>
shar es</w>
re ve
open ed</w>
me at</w>
hope fully</w>
gu n</w>
fo ld</w>
fin ished</w>
el er
di sp
desi re</w>
c k
be at</w>
A t
val u
ul timately</w>
kil ome
hel d</w>
cop y</w>
cap able</w>
brea st</w>
arti f
F ran
4 00</w>
1 ,
v es
th -
sur ge
sudd en</w>
s ch
par ty</w>
le ts</w>
iz ation</w>
intellig ent</w>
gent le
ex tin
diag nos
da mage</w>
concer ned</w>
brilli ant</w>
be d
app ly</w>
ap ers</w>
adul ts</w>
a urs</w>
B rit
stitu te</w>
st uck</w>
pro found</w>
phenomen on</w>
other wise</w>
os s</w>
oper ating</w>
l ec
jum p</w>
inter vie
i on</w>
hel ps</w>
eng age</w>
en ted</w>
dri ven</w>
deter min
d ents</w>
cre ation</w>
cor ru
commer cial</w>
b la
ant age</w>
al o
S we
Bri tish</w>
ye ster
vir uses</w>
ul ous</w>
sen si
respon d</w>
organiz ations</w>
no te</w>
k a</w>
in -
f li
f ically</w>
ep ide
d um
cu stom
civiliz ation</w>
civi l</w>
W ash
Euro pe
Char les</w>
1 .
ys is</w>
wil d</w>
ste ps</w>
soldi ers</w>
or row</w>
norm ally</w>
mathema tics</w>
mat ters</w>
extre me</w>
exp ec
ex hi
ex erci
el lit
el ess</w>
descri be</w>
degre e</w>
cat ch</w>
c lic
benef its</w>
air plane</w>
S an</w>
H o
yester day</w>
wa ve</w>
v it
ten s</w>
se ly</w>
s m</w>
re port</w>
r ound</w>
predic t</w>
power ed</w>
plan ning</w>
p ha
oppos ite</w>
no ise</w>
maj ority</w>
los s</w>
ju d
h a</w>
gi ant</w>
fem ale</w>
every day</w>
disco very</w>
d ry</w>
c ore</w>
ag re
acc eler
S p
1 7</w>
vi su
trans form</w>
ti le</w>
thin ks</w>
separ ate</w>
sat ellit
s ac
quot e</w>
pu ts</w>
pri son</w>
perfec tly</w>
li br
impro ve</w>
import antly</w>
hor ri
f illed</w>
extin c
easi er</w>
consci ousness</w>
anc ing</w>
Wash ington</w>
Su n</w>
E inste
we ir
ver sus</w>
va tive</w>
va st</w>
typ ical</w>
tri al</w>
therap y</w>
sp on
s wi
relation ships</w>
ra m
pre vi
phot os</w>
mus cle</w>
m ouse</w>
m ale</w>
lea ds</w>
identi ty</w>
ge ly</w>
galax ies</w>
fore ign</w>
el es
der ing</w>
cri me</w>
compar ed</w>
ar ies</w>
ag ree</w>
- up</w>
wher e
weap ons</w>
we ar</w>
um in
te x</w>
t ac
su m</w>
stu died</w>
spir it</w>
so li
sit es</w>
sec tor</w>
muse um</w>
mag ne
ke e
galax y</w>
enti rely</w>
col ors</w>
charac ter
c ard</w>
bl es</w>
bi lities</w>
artic le</w>
an n
Einste in</w>
A d
struc tion</w>
seri ously</w>
pro tot
par k</w>
neighbor hood</w>
le tter</w>
influ ence</w>
he a
gl am
experi ences</w>
equi valent</w>
dra wing</w>
di o</w>
citiz ens</w>
aff ord</w>
accor ding</w>
ac cur
M IT</w>
2 4</w>
1 3</w>
ul ate</w>
sp ot</w>
sig nal</w>
si ster</w>
respon sible</w>
rais ed</w>
p rou
o logical</w>
gh t-
g lo
fail ed</w>
f fic</w>
ci ence</w>
P ri
Is ra
B ill</w>
tre ated</w>
tra ffic</w>
to ward</w>
the ater</w>
ter r
tal ity</w>
spac es</w>
sho es</w>
ri d</w>
qu es</w>
princi ples</w>
part ment</w>
ner v
m outh</w>
ke eping</w>
intell ec
ha el</w>
gener ate</w>
figh ting</w>
fiel ds</w>
fe ed
dre ams</w>
dinos aurs</w>
cre d
as ed</w>
aff ect</w>
ac king</w>
ve -
st un
so il</w>
rele v
ra tional</w>
r ural</w>
p ra
oce ans</w>
mar k</w>
magaz ine</w>
lea ving</w>
invest ment</w>
il e
fac tory</w>
ess or</w>
en ed</w>
coun t</w>
consci ous</w>
comfor table</w>
coll ective</w>
co gni
chem i
T imes</w>
worl d
wh en
when ever</w>
volun te
ve ge
un k</w>
to x
ri es</w>
philos op
off er</w>
o gen
mem bers</w>
k ly</w>
inve st</w>
i e</w>
fin ger</w>
engine ers</w>
en joy</w>
du e</w>
din ner</w>
deep ly</w>
construc tion</w>
cir cle</w>
br an
believ ed</w>
beli ef</w>
begin s</w>
b lock</w>
Mic hael</w>
Mex ic
tion ally</w>
sh oul
profes sional</w>
princi ple</w>
op tim
man aged</w>
ki st
it able</w>
inno v
i or</w>
h i</w>
gr y</w>
evolu tionary</w>
distribu tion</w>
def ine</w>
artif icial</w>
ar ms</w>
appro pri
ad a</w>
A c
5 0,000</w>
wor ried</w>
wh om</w>
we aring</w>
sym bo
rough ly</w>
r a</w>
prote in</w>
op ening</w>
o be
mo tion</w>
los ing</w>
les son</w>
la yer</w>
ki d
iz ing</w>
inter pre
in ce</w>
gra m</w>
gl ing</w>
f ted</w>
ema il</w>
do ws</w>
deser t</w>
cor tex</w>
child hood</w>
chemi stry</w>
al -
Th at</w>
Mexic o</w>
F i
E g
tum or</w>
tr act</w>
sho p</w>
s ke
ran dom</w>
qu a
p ment</w>
nam es</w>
lim ited</w>
fr u
fac ts</w>
f ill</w>
conv inc
bro ther</w>
an ese</w>
M al
x im
weal th</w>
u ary</w>
sup pose</w>
sh ouldn</w>
se at</w>
sa v
re sc
prev ent</w>
pleas ure</w>
pain ting</w>
p it
movi es</w>
mic ros
mal aria</w>
h ell</w>
gro wn</w>
gen cy</w>
four th</w>
em is
d el
cor al</w>
contin ent</w>
cont act</w>
comp are</w>
cir cu
av y</w>
ag s</w>
O k
N a
B os
univer sal</w>
tri p</w>
tom orrow</w>
t ough</w>
suc ce
sign als</w>
s sing</w>
plac ed</w>
l as
j ustice</w>
inv ited</w>
h ome
h ate</w>
gener ations</w>
fr an
fail ure</w>
dimen sions</w>
desig ning</w>
b ar</w>
arg ument</w>
ar gue</w>
abi lities</w>
a de
T ur
T al
A p
vot e</w>
ur ch</w>
shap es</w>
pl us</w>
op ini
metaph or</w>
lun ch</w>
is land</w>
hol es</w>
hi dden</w>
ex ists</w>
descri bed</w>
curr ently</w>
c lock</w>
be ar</w>
ad ed</w>
V al
P al
un less</w>
survi val</w>
sur ve
sp here</w>
si ght</w>
shar ks</w>
se as
s tic</w>
r ates</w>
prou d</w>
pho to</w>
organiz ed</w>
ne go
nego ti
loc ation</w>
it or</w>
indepen dent</w>
ici an</w>
ha m</w>
gl and</w>
er as</w>
econom ics</w>
der son</w>
de a
b on
al ed</w>
ag ers</w>
adv antage</w>
Wi ki
Pa kist
M y</w>
M il
Gre at</w>
B en
y wood</w>
te eth</w>
sw im
strate gy</w>
proper ty</w>
nerv ous</w>
mor tality</w>
inv esti
hus band</w>
high est</w>
fi f
feel ings</w>
f ell</w>
co vered</w>
cir cum
charac ters</w>
am p
agricul ture</w>
A l</w>
3 D</w>
wa ke</w>
vic ti
vehic le</w>
the sis</w>
spe ech</w>
ri ver</w>
re present</w>
p um
on i
le gi
l au
ic als</w>
har der</w>
g or
electr ical</w>
direc t</w>
di sci
dem and</w>
const antly</w>
con tra
co m</w>
co al</w>
busin esses</w>
bre ath</w>
be t</w>
adul t</w>
Jap anese</w>
Europe an</w>
weir d</w>
wea ther</w>
u b
surpri se</w>
sug ar</w>
ro ll</w>
produc ing</w>
pro p
po c
or ts</w>
multi ple</w>
men tioned</w>
let ters</w>
in fin
ha dn</w>
ge -
g all
fra me</w>
follo wed</w>
ex plan
er ship</w>
dynam ic</w>
chem icals</w>
b ank</w>
at ur
K ore
v ard</w>
thre at</w>
stu p
sel ling</w>
scen e</w>
prac tical</w>
p ounds</w>
mar ried</w>
ma tically</w>
lin k</w>
kilome ters</w>
ke ys</w>
in ner</w>
grand mother</w>
ga ther
fa ir</w>
f ts</w>
f al
exper ts</w>
equi pment</w>
deb ate</w>
clos ed</w>
Th om
C oun
z es</w>
um s</w>
ul l</w>
remot e</w>
presi dent</w>
na tions</w>
le g</w>
in visible</w>
import ance</w>
ha bit
g on
fin ish</w>
fac ing</w>
f ting</w>
f at</w>
evi l</w>
consum ption</w>
condi tion</w>
con sequences</w>
coll ect</w>
campa ign</w>
c ks</w>
accoun t</w>
Q u
I tal
En gland</w>
Brit ain</w>
B a
A ustr
A le
v ement</w>
ur ies</w>
tan e
spo ke</w>
spectr um</w>
se tting</w>
sc an
s oph
s and
pre gn
nat ur
mi d
lead ership</w>
j e
ic ken</w>
grap hic</w>
ex pression</w>
ent ary</w>
en tr
disci pl
deta ils</w>
deli ver</w>
cur ious</w>
cul tures</w>
cra ft</w>
cle an
c ate
ali a</w>
ad dition</w>
NA SA</w>
Li fe</w>
Eg yp
4 5</w>
where as</w>
w ings</w>
transp or
si vely</w>
sec tion</w>
restaur ant</w>
rec y
po e
pic ked</w>
pe t</w>
or al</w>
mat ch</w>
lead er</w>
is on</w>
increas ingly</w>
in d
im m
hydro gen</w>
gr an
gh t
form ing</w>
exist ence</w>
exerci se</w>
emo tion</w>
ar m
appe ar</w>
T wit
Geor ge</w>
D P</w>
Chri sti
Bra z
An derson</w>
20 th</w>
1 50</w>
tr ic
ter -
speci fically</w>
s and</w>
ro t
pla ys</w>
mat es</w>
ma ker</w>
m illi
laun ched</w>
it ting</w>
intellec tual</w>
hou ses</w>
ha s
fol ks</w>
emer ging</w>
dou ble</w>
cha in</w>
bi om
b right</w>
aw ful</w>
an gle</w>
ali sts</w>
absolu te</w>
T a
S cho
Ken ya</w>
J ames</w>
A u
9 9</w>
w oo
v an</w>
stra tion</w>
resour ce</w>
re gre
rap id
produc tive</w>
om y</w>
nar ra
molec ular</w>
lab or</w>
l ay</w>
inven tion</w>
inter face</w>
emp ty</w>
e ds</w>
di sor
de aling</w>
da ily</w>
cam eras</w>
avo id</w>
an o</w>
D an</w>
10 0,000</w>
war m</w>
wa ves</w>
vi a</w>
trans formation</w>
techn ical</w>
stup id</w>
sil k</w>
sa ved</w>
re ci
pro ve</w>
pl ate</w>
pa ying</w>
os ity</w>
on g
lea ves</w>
inter ven
increas ing</w>
g ation</w>
fos si
feed back</w>
emplo ye
dr ink</w>
de tail</w>
de -
control led</w>
cont em
compu ting</w>
bot tle</w>
bi a</w>
arri ved</w>
are ly</w>
ann oun
alter native</w>
adver ti
ab str
Y e
Thom as</w>
In stitute</w>
F or
6 00</w>
under ne
underne ath</w>
prom ot
process es</w>
photograph s</w>
n ose</w>
li ked</w>
lab or
la dies</w>
i ds</w>
gener ally</w>
dou b
cogni tive</w>
class room</w>
cau sed</w>
bu ying</w>
be es</w>
at en</w>
ap par
ag gre
ag er</w>
a stron
S ch
Har vard</w>
1 7
worl ds</w>
tain ment</w>
t les</w>
ste el</w>
soph is
sophis tic
se ts</w>
re ward</w>
pl om
pic ally</w>
per cei
o v
logi c</w>
la m</w>
introduc ed</w>
ici ans</w>
he avy</w>
har d
gradu ate</w>
for ced</w>
er -
em bar
doc um
disa ster</w>
compon ents</w>
cha m
ca st</w>
bud get</w>
b allo
T o
P aci
Nig eria</w>
E x
2 1
wi re</w>
univer sity</w>
stoc k</w>
sent ence</w>
ri de</w>
requi res</w>
primar y</w>
possi bilities</w>
person ally</w>
per s</w>
org ans</w>
mean ing
l ady</w>
intu i
hon est</w>
has n</w>
gra vity</w>
fac tor</w>
est ab
eff ectively</w>
archit ect</w>
am ing</w>
Wiki pedia</w>
Bi g</w>
u nex
ty pically</w>
transp ar
tion ing</w>
swi m</w>
stre ss</w>
stat us</w>
st able</w>
sp ring</w>
sp in
safe ty</w>
s au
relev ant</w>
re presents</w>
plan es</w>
p p
op e</w>
oc ca
newsp aper</w>
met al</w>
ma ster</w>
instr ument</w>
hosp it
di r
defin ed</w>
connec tions</w>
b ic
anti -
Y ou
S h
K .</w>
Dar win</w>
world wide</w>
viol ent</w>
sour ces</w>
shap ed</w>
reg ular</w>
re ven
re spec
re action</w>
per ception</w>
my ster
mo di
marke ting</w>
m as</w>
long- term</w>
le m
identi fy</w>
hy po
fre sh</w>
fi shing</w>
ess ential</w>
equ al</w>
entreprene urs</w>
en jo
care fully</w>
cam p</w>
associ ated</w>
ag en
aff ected</w>
Paci fic</w>
P er
Is lam</w>
Is lam
y r
v ac
un like</w>
ul f</w>
ul ations</w>
t ol
swit ch</w>
st ood</w>
sol ving</w>
s lo
rop y</w>
ri age</w>
rapid ly</w>
prepar ed</w>
pengu ins</w>
on ed</w>
oll ywood</w>
min im
mathema tical</w>
k itch
inter action</w>
i er</w>
g an
ex pres
en coun
emis sions</w>
el ed</w>
e u
dist inc
defin itely</w>
de st
d ots</w>
ci l</w>
call ing</w>
bl u
bir th
at oms</w>
ap es</w>
anal ysis</w>
ac tiv
Y es</w>
Twit ter</w>
S ha
v a</w>
sun light</w>
st y</w>
st ances</w>
shar k</w>
rela tively</w>
re fu
rad ical</w>
r are</w>
protec ted</w>
pro ce
pre -
pla yers</w>
mi x</w>
man a
m ate</w>
less ons</w>
fl at</w>
fel low</w>
epide mic</w>
effici ency</w>
dis play</w>
cred it</w>
conv ince</w>
au d
ac cept</w>
You Tu
W al
S tre
O l
K i
G al
A m
w ine</w>
vol u
un usual</w>
ul tra
tradi tion</w>
the me</w>
th r
t eles
sc o</w>
s outh</w>
s or</w>
r and
prote ins</w>
previ ous</w>
pos t-
pla yer</w>
part ner</w>
para dig
pa thy</w>
organ ism</w>
or d
mir ror</w>
medi um</w>
lic ation</w>
li ver</w>
inf ected</w>
hor se</w>
har ve
h os
gi es</w>
g ment</w>
fi sh
fa ith</w>
environ ments</w>
coo king</w>
autom a
an gi
a war
Fran ci
19 5
writ er</w>
vide os</w>
thou ghts</w>
te sting</w>
swim ming</w>
sk ill</w>
sin ging</w>
sh all</w>
sensi tive</w>
qu est</w>
protec tion</w>
pri son
pre ven
ph an
pa y
p ack
oper ate</w>
of -
o tic</w>
life time</w>
l augh
k illing</w>
in gre
ingre di
go ld</w>
ga p</w>
fra me
fossi l</w>
far m</w>
experi enced</w>
di et</w>
consi dered</w>
bro ke</w>
br and</w>
ar ity</w>
YouTu be</w>
R os
N i
F ace
B l
200 8</w>
0 0
vo ices</w>
valu able</w>
us er</w>
unex p
tra ge
three- dimensional</w>
techni ques</w>
surpri sed</w>
sug gest</w>
str ength</w>
s mile</w>
prof essor</w>
presen tation</w>
plat form</w>
or an
on ing</w>
mista kes</w>
intro duce</w>
h its</w>
g ence</w>
ex change</w>
enc ing</w>
e li
consum er</w>
co ast</w>
c el
ar gu
appropri ate</w>
ance stors</w>
Scho ol</w>
J an
I ran</w>
Franci sco</w>
C enter</w>
Bu t</w>
3 5</w>
3 ,000</w>
w o
us ers</w>
sti mul
sm ell</w>
satellit e</w>
rel ate</w>
pre dat
prac tic
por tion</w>
p in
in ev
h omes</w>
en e</w>
do gs</w>
demo cratic</w>
cu tting</w>
ch icken</w>
brea king</w>
an -
ad ded</w>
S er
J os
At lan
A ra
z one</w>
win ter</w>
un clear</w>
the -
str ing</w>
stor y
ses sion</w>
sel s</w>
se es</w>
sa d</w>
ro ads</w>
requi re</w>
radi ation</w>
ra in
poe try</w>
pas sionate</w>
no r</w>
neur os
mov ements</w>
meth od</w>
men ted</w>
man age</w>
inv ent</w>
in ary</w>
hou se
g el
expla ins</w>
exp ected</w>
discus sion</w>
dis h</w>
deep er</w>
cre ature</w>
comb ination</w>
cen ters</w>
car ds</w>
b y
ab sor
Ye ah</w>
N .</w>
L u
Face book</w>
wh el
vacc ine</w>
ul timate</w>
te sts</w>
sen ding</w>
se tt
s na
ris ks</w>
re less</w>
re lease</w>
qu an
pa int</w>
ox ide</w>
org an</w>
od d</w>
occur red</w>
no tes</w>
neighb ors</w>
n ic
men tion</w>
ma kers</w>
lap top</w>
kitch en</w>
it i</w>
il es</w>
i ve</w>
hy per
g ain</w>
fin gers</w>
fa il</w>
er al</w>
ent y</w>
ent ure</w>
depen ds</w>
de struction</w>
de pression</w>
d le</w>
bu s</w>
bor ing</w>
al y
V ir
K e
D en
Chri st
wonder ing</w>
vari ety</w>
tr ick</w>
spir it
sho ot</w>
ser ved</w>
sel ection</w>
ro ots</w>
recei ved</w>
r hy
priv ile
pres ence</w>
por ary</w>
poli o</w>
over whel
ol ds</w>
nor th</w>
m es</w>
m al</w>
libr ary</w>
hol ds</w>
hi li
gri d</w>
gre en
figu res</w>
ex press</w>
di plom
convinc ed</w>
cli p</w>
che str
car rying</w>
bom b</w>
an th
acci dent</w>
ac le</w>
a y
Ste ve</w>
S cot
Rob ert</w>
A ri
0 0,000</w>
vulner able</w>
v ag
t ch</w>
t ables</w>
sym p
sub -
sha me</w>
r at
r ac
qui et</w>
psycho logy</w>
pe ak</w>
p tions</w>
p ack</w>
natur ally</w>
li shed</w>
li cations</w>
jo ke</w>
her o</w>
gra in</w>
go ods</w>
direc tor</w>
de dic
clic k</w>
c ow</w>
as si
L in
G ulf</w>
E l
Can ada</w>
vi s
sophistic ated</w>
situ ations</w>
sig ned</w>
sho c
run s</w>
research ers</w>
ra ge</w>
quan tum</w>
proper ties</w>
pro of</w>
plic ity</w>
p un
moun tains</w>
m aps</w>
l -
interest s</w>
ill er</w>
fil ms</w>
fall ing</w>
es cap
er ror</w>
el ing</w>
ecosy stem</w>
d ol
cur ve</w>
bur n</w>
bloc ks</w>
auth or</w>
at trac
appli ed</w>
a ti
Pakist an</w>
M at
E ver
D on
Ch ic
. com</w>
zer o-
wat ched</w>
tem ber</w>
ta ste</w>
t ape</w>
sa tis
s co
rom an
resi li
poll ution</w>
poli ticians</w>
o rest</w>
neu ro
mista ke</w>
min ist
mar ine</w>
mana gement</w>
kee ps</w>
k i</w>
ill ustr
hop ing</w>
expl os
exhi bi
ep tember</w>
enter tainment</w>
el ine</w>
collap se</w>
ch rom
cap ture</w>
behavi oral</w>
as ses</w>
adv anced</w>
U. N.</w>
TED x
S eptember</w>
S atur
G ol
Chic ago</w>
C E
B ank</w>
y n</w>
w ars</w>
travel ing</w>
ti tle</w>
techno logical</w>
stu dio</w>
sig ns</w>
sh ir
ri dic
re verse</w>
re ti
qu id</w>
pul led</w>
prom ise</w>
mus ical</w>
l at
gi ft</w>
gentle men</w>
fran kly</w>
frame work</w>
fe wer</w>
el ement</w>
ec u
dri ver</w>
dr in
confi dence</w>
cate g
bur ning</w>
blo g</w>
be l</w>
bat tle</w>
ap art
anal o
amoun ts</w>
O b
G DP</w>
F e
A R
- like</w>
wal ks</w>
tar get</w>
strug gle</w>
recor ded</w>
re place</w>
re ference</w>
re ached</w>
ra m</w>
process ing</w>
p y
p en</w>
oun ding</w>
mot or</w>
mem ber</w>
l in</w>
l ength</w>
l en
increas ed</w>
imp le
ig n
graph ics</w>
fundam entally</w>
fe eding</w>
f alls</w>
er ad
encoura ge</w>
en z
employe es</w>
e ye
dep lo
corru ption</w>
correc t</w>
continu ed</w>
clim b</w>
circum stances</w>
bl in
ber g</w>
behavi ors</w>
b log
au l
ast oni
W ow</w>
Val ley</w>
Stre et</w>
O ne</w>
Lo ok</w>
L ar
J er
E m
Bu dd
7 5</w>
well- being</w>
volu me</w>
un it</w>
swe et</w>
sugge sts</w>
sam ple</w>
resi dent</w>
recy cl
re ver
psy ch
poll en</w>
po em</w>
pla y
pl ans</w>
or ing</w>
open -
no vel</w>
mani pul
laun ch</w>
lar gely</w>
insi ght</w>
in sur
in put</w>
fle xi
exp an
en ting</w>
el d</w>
eg gs</w>
drop ped</w>
dre w</w>
col on
bu m
bo xes</w>
bic y
ar re
S ec
B ab
21 st</w>
200 7</w>
2 000</w>
ves sels</w>
th al</w>
symme try</w>
surge on</w>
st eri
qu it
p apers</w>
ne i
mil k</w>
log ically</w>
lin ked</w>
li quid</w>
instr uments</w>
in her
i Ph
hon or</w>
gen i
foun dation</w>
fi ve-
explan ation</w>
erad ic
el et
el a</w>
con centr
c ents</w>
au ton
aster n</w>
activi ties</w>
U g
St an
Joh n
H er
Ger many</w>
wher ever</w>
w are</w>
tou ched</w>
te e</w>
soli d</w>
se l</w>
ru b
ro of</w>
requi red</w>
rela tive</w>
re min
par king</w>
om ic</w>
ne st</w>
mon keys</w>
messa ges</w>
manufac turing</w>
liter ature</w>
inclu de</w>
inc enti
hospit als</w>
ge ome
fortun ate</w>
fin ance</w>
explor ing</w>
explor ation</w>
exp on
es the
ele ph
dra matic</w>
dec line</w>
de vi
d ancing</w>
cop y
consi st
cir cul
c ing</w>
bu st</w>
birth day</w>
b ones</w>
b al</w>
awar eness</w>
attemp t</w>
asp ect</w>
ad dic
a do
H i
Braz il</w>
1 6
x ing</w>
wh ales</w>
up per</w>
u de</w>
sim plicity</w>
sen ses</w>
prom is
pro to
po p</w>
philosop hy</w>
opini on</w>
li um</w>
inno vative</w>
grap hy</w>
form er</w>
flo wers</w>
fac tors</w>
exist ing</w>
ev ening</w>
equ ation</w>
em ber</w>
desig ns</w>
den se</w>
corpor ate</w>
col um
co ordin
chrom os
bat tery</w>
Ne w
wat er
ti ous</w>
ti ll</w>
techni que</w>
spl it</w>
shoul der</w>
sex ual</w>
sa ge</w>
rema ins</w>
pro j
por tra
per cent
part ners</w>
out come</w>
op tions</w>
om o</w>
om in
o logist</w>
neu tr
ne ar
measu red</w>
mar riage</w>
institu tion</w>
inspi ration</w>
h all
for ma
fa ke</w>
evol ve</w>
es timate</w>
electr onic</w>
el ev
dri ves</w>
deter mine</w>
d ary</w>
connec ting</w>
concep ts</w>
collabor ation</w>
clos ely</w>
cle ver</w>
ch urch</w>
brea the</w>
ax is</w>
auth ority</w>
ad vice</w>
ac tor</w>
ac comp
abstr act</w>
Musli m</w>
M u
I I</w>
H u
G o
Ara b</w>
2 1</w>
- and-
y n
wi reless</w>
un known</w>
tol er
stron ger</w>
sta ff</w>
some what</w>
sa tions</w>
qu anti
pos es</w>
perform ing</w>
pat ent</w>
p ure</w>
o id</w>
mis s</w>
min al</w>
m im
l t;</w>
inst all
in struc
imp anz
hur t</w>
her oes</w>
gu ar
g t;</w>
fore sts</w>
expla ined</w>
exper t</w>
ex act</w>
embar ra
ear th
e ars</w>
de tect</w>
conclu sion</w>
cl oud</w>
certain ty</w>
c ross</w>
b en
att acks</w>
an ia</w>
acc es
Ug anda</w>
U. K.</w>
TED Tal
Pro ject</w>
B ush</w>
Austr alia</w>
Afr icans</w>
& lt;</w>
& gt;</w>
youn ger</w>
wi red</w>
vehic les</w>
un d
tis m</w>
th in</w>
ter nal</w>
te ams</w>
spir ing</w>
se ssed</w>
regi ons</w>
puzz le</w>
po x</w>
pi on
pi ano</w>
phys ically</w>
paradig m</w>
ot a</w>
ograp hic</w>
no on</w>
meaning ful</w>
loc ked</w>
le f
is ol
ici de</w>
i ed</w>
g ang</w>
f ed</w>
en a</w>
educ ational</w>
di gn
di a
des per
conven tional</w>
comb ine</w>
ch impanz
c as
am in</w>
algorith ms</w>
ac qui
ab led</w>
S o</w>
P resident</w>
Ok ay</w>
Ju li
D H</w>
Bos ton</w>
victi ms</w>
under water</w>
transi tion</w>
tr end</w>
tic a</w>
st ant</w>
spi der</w>
sou l</w>
sk elet
se y</w>
rhy th
re mind</w>
re main</w>
ra w</w>
ph ra
ner ship</w>
magne tic</w>
it an</w>
inv ent
gar den</w>
g un
fle w</w>
f loo
doub t</w>
di c</w>
crow d</w>
bu cks</w>
ba g</w>
b o</w>
accur ate</w>
Pri ze</w>
K ing</w>
Isra el</w>
F l
C hi
B ur
zo om</w>
vill ages</w>
son gs</w>
so ft</w>
se ed</w>
s tion</w>
s ses</w>
s can</w>
re solution</w>
ra p</w>
r ors</w>
r ator</w>
pregn ant</w>
poin ted</w>
per man
over all</w>
nei ther</w>
mu sh
meas uring</w>
m ur
lun g</w>
in ts</w>
in spiring</w>
in ations</w>
imp lications</w>
id en
i P
horri ble</w>
go s</w>
go als</w>
gener ated</w>
func tions</w>
fi re
econom ists</w>
e fs</w>
dol ph
cur i
const ant</w>
challen ging</w>
celebr ate</w>
bub ble</w>
automa tically</w>
appreci ate</w>
an der</w>
ad mit</w>
W illi
T here</w>
P i
P hili
P en
O x
N at
M arti
Fr ance</w>
D u
B F</w>
Ap ple</w>
200 5</w>
wonder ed</w>
we ak</w>
vir tu
use um</w>
tu be</w>
tr illion</w>
ti e</w>
thi op
te a</w>
ta ined</w>
symp tom
spea kers</w>
small pox</w>
se ven
s ons</w>
s ki
s an
ri st</w>
recor ds</w>
pr ices</w>
ma d</w>
l atest</w>
k ness</w>
inter view</w>
gre at
gr and</w>
fur nit
fri gh
fac ed</w>
f an</w>
en able</w>
em pathy</w>
ech no
divi ded</w>
conven i
cau sing</w>
bu sy</w>
appli cations</w>
ac tors</w>
ab s</w>
Sa har
M useum</w>
M R
Kore a</w>
G han
F oun
E thiop
D o</w>
Bi ble</w>
An gel
1 2
- to-
wh ale</w>
unexp ected</w>
ul a</w>
tri g
tre ating</w>
sk y
si ties</w>
ser ving</w>
se v
re move</w>
presen ted</w>
ph y
pa int
or ous</w>
or chestr
or bit</w>
mi d-
me et
jo ined</w>
inst inc
iPh one</w>
i um</w>
hot el</w>
hor iz
hand le</w>
ha i</w>
fal se</w>
ex tent</w>
eng aged</w>
em bed
elec tion</w>
econ d</w>
dom es
des k</w>
commit ment</w>
co -
clas sic</w>
care ful</w>
c tic</w>
bi ke</w>
ber t</w>
ballo on</w>
au r</w>
am i
acc um
Uni on</w>
Swe den</w>
F ri
B on
win dows</w>
trans formed</w>
top ic</w>
tici an</w>
te sted</w>
tane ously</w>
t our</w>
sum mar
spo ken</w>
so -
sil ence</w>
s che
ru p
remem ber
re ment</w>
ori ties</w>
na vi
multi -
lau gh</w>
inten se</w>
iden tical</w>
hun ger</w>
furnit ure</w>
fri en
fe atures</w>
f at
equ ally</w>
do zen</w>
distribu ted</w>
direc tions</w>
dep end</w>
dea ths</w>
consum ers</w>
compon ent</w>
cla im</w>
cl ou
char ity</w>
brea thing</w>
archit ects</w>
ar my</w>
an ger</w>
ac ted</w>
ac les</w>
a k
P or
O s</w>
Mic ros
Christ mas</w>
C .</w>
6 0s</w>
1 5
whe el</w>
we igh
wan ting</w>
vie ws</w>
un believ
tox ic</w>
ta g</w>
secon dly</w>
ri sing</w>
re pair</w>
re aching</w>
quar ter</w>
pri ze</w>
pol ar</w>
po orest</w>
pi le</w>
percent age</w>
per form</w>
particip ate</w>
out put</w>
no where</w>
ne ts</w>
min d
meet ings</w>
ligh ting</w>
lic on</w>
infin ite</w>
dign ity</w>
d ency</w>
com mon
com e
cent uries</w>
bro thers</w>
b low</w>
b age</w>
ap pl
ans wer
amp ;</w>
S un
S ou
R oc
Par is</w>
P A</w>
Ol ym
Ob ama</w>
C al
20 ,000</w>
1 4
& amp;</w>
u ne
trans late</w>
top s</w>
the s</w>
stand ards</w>
st ands</w>
sp ar
sha ke</w>
sh ut</w>
sen sors</w>
sculp ture</w>
scri pt</w>
sand w
resi stance</w>
rele ased</w>
re ser
prin ting</w>
pre ce
po wers</w>
pi re</w>
pas sing</w>
partic le</w>
par alle
paralle l</w>
pain ful</w>
nar rator</w>
mon key</w>
mi gra
mechan ism</w>
li ft</w>
las er</w>
ing -
in sul
i le</w>
glo be</w>
fun ding</w>
fe ature</w>
cor respon
comb ined</w>
clin ical</w>
chi p</w>
bri ef</w>
blu e
am ed</w>
after noon</w>
ad ly</w>
W om
S cience</w>
R w
R a
L os</w>
J es
H un
Ger man</w>
Foun dation</w>
E astern</w>
E D</w>
200 9</w>
year- olds</w>
vot ed</w>
ton ight</w>
ti les</w>
thre at
th u
ter ing</w>
tele phone</w>
sub jects</w>
seas on</w>
se ats</w>
sc ared</w>
ro ot</w>
re comm
rand om
qua ke</w>
pl enty</w>
pl as
physici st</w>
ph arm
ori g
organiz e</w>
op tion</w>
o ft</w>
myster y</w>
mechan ical</w>
lo vely</w>
le sc
labor atory</w>
l oud</w>
intui tive</w>
interest ingly</w>
im provi
il le</w>
heal th
h at
gen der</w>
fun d</w>
frien dly</w>
exist ed</w>
exhibi tion</w>
et ary</w>
ene my</w>
emp ha
ell o</w>
e k</w>
dynam ics</w>
dra matically</w>
do ors</w>
depen ding</w>
den sity</w>
dat ab
control ling</w>
ch ose</w>
c ure</w>
c at</w>
bar re
appe ars</w>
allo wing</w>
al d</w>
adverti sing</w>
St ate</w>
S y
S econd</w>
S ar
Micros oft</w>
M oun
M an</w>
Islam ic</w>
D on</w>
B ay</w>
y ard</w>
va st
v oc
tri als</w>
transpor tation</w>
ta ining</w>
t ag
sustain ability</w>
surr ounded</w>
sur faces</w>
stat ement</w>
sta yed</w>
st or</w>
spirit ual</w>
spec tac
sp reading</w>
sec ure</w>
sam ples</w>
roman tic</w>
resc ue</w>
provi des</w>
protot ype</w>
prob ability</w>
om ics</w>
ograp hy</w>
off ered</w>
ob sessed</w>
o y
mi gr
m ess</w>
loo p</w>
journ alist</w>
incenti ves</w>
in ch</w>
her self</w>
h all</w>
gra ss</w>
g ments</w>
frigh ten
fac ial</w>
exc ell
embed ded</w>
ell er</w>
e e
di oxide</w>
de gra
cra sh</w>
contro ver
clas ses</w>
brea ks</w>
as sume</w>
am in
am ent</w>
aff ord
ac ade
W il
T om</w>
S han
A B</w>
2 .
19 th</w>
whi st
tr uck</w>
to y</w>
terr or
tal s</w>
t all</w>
so- called</w>
sli des</w>
si zed</w>
sev ere</w>
s in</w>
roc ket</w>
revol u
rel ation</w>
recor ding</w>
r ice</w>
pur cha
proper ly</w>
produc tivity</w>
pot entially</w>
pos t
poc ket</w>
pi g</w>
orig ami</w>
on ics</w>
occu r</w>
ob st
neur on</w>
lim its</w>
l ens</w>
inf ec
in gu
gro ws</w>
gen u
func tional</w>
fu els</w>
frequ ency</w>
exp and</w>
econom ies</w>
di v
d ot
cre te</w>
cor n</w>
con tains</w>
co ck
c es
be have</w>
air craft</w>
acces sible</w>
a we
Wh en</w>
Vi et
M ini
C A
B r
B al
A b
7 0s</w>
vulner ability</w>
ul ated</w>
tr uc
than e</w>
ter ies</w>
t i</w>
symptom s</w>
symbo l</w>
see ds</w>
s now</w>
ri m
reas on
re fer
pe ace
over come</w>
ori al</w>
op posed</w>
ol ing</w>
o ci
me -
j un
inter active</w>
in fl
imm une</w>
hi de</w>
hel p
health care</w>
he ar
gr ay</w>
geni us</w>
ge ous</w>
fun ded</w>
flo ating</w>
f are</w>
eli min
ele g
el ly</w>
dinos aur</w>
dan ger</w>
copy right</w>
con trac
co ok</w>
ch ap
car ried</w>
bar ri
an thro
after wards</w>
La tin</w>
G ree
F a
tu s</w>
tion -
tex t
t at
sta tions</w>
sp ots</w>
she ep</w>
sav ings</w>
roc ks</w>
ram id</w>
r ene
pu shing</w>
pha se</w>
ot ing</w>
ol dest</w>
o logists</w>
mit ted</w>
la yers</w>
inspi re</w>
happ ier</w>
h att
grand father</w>
gra b</w>
enter ed</w>
en h
echno logy</w>
dra wn</w>
di ving</w>
di ver
depen dent</w>
demonstr ate</w>
d ding</w>
con stra
col li
cho col
bri e
att ached</w>
astoni shing</w>
asp ects</w>
architec tural</w>
appe ared</w>
ani mation</w>
adap t</w>
a side</w>
S W</w>
R B</w>
P ole</w>
Ox ford</w>
MR I</w>
Is land</w>
Ha iti</w>
Gre en
Ghan a</w>
G ore</w>
D el
An tar
9 5</w>
8 0s</w>
200 4</w>
1 9</w>
vir al</w>
the less</w>
sy ste
succe ed</w>
struc k</w>
sor y</w>
smo ke</w>
sk ull</w>
sh y</w>
sh ment</w>
sc ar
reg ar
rais ing</w>
qu e
psycho logical</w>
p es</w>
occu p
no w
narra tive</w>
n -
mus cles</w>
lef t-
la id</w>
it arian</w>
is tics</w>
inter nal</w>
incre ases</w>
hum or</w>
hon est
han g</w>
guar an
gre ss</w>
gol f</w>
gl asses</w>
ful l-
fil ter</w>
fif th</w>
ex posed</w>
embr ace</w>
ec k</w>
diag ram</w>
def ense</w>
de mic</w>
d less</w>
conflic ts</w>
concer n</w>
coll ected</w>
ch est</w>
ch art</w>
an gry</w>
ado lesc
U. S</w>
S tu
S k
R ed
P rin
P at
N G
M is
L et</w>
H ollywood</w>
D is
D ay</w>
C ha
B C</w>
y st
wi de
w l</w>
vir tually</w>
vac u
ur ation</w>
trac king</w>
terror ism</w>
su rely</w>
se where</w>
se m
sc ary</w>
religi ons</w>
reco very</w>
preci sely</w>
preci se</w>
posi tions</w>
pl er</w>
photograp hy</w>
obe sity</w>
main tain</w>
ma ster
m ice</w>
ir on</w>
hea ven</w>
hal f-
h ost</w>
h en
gran ted</w>
gl aci
fr ustr
four -
fi xed</w>
ex pe
elec tro
el sewhere</w>
drin king</w>
disappe ared</w>
dir ty</w>
dimen sion</w>
di ab
comfor t</w>
back wards</w>
agre ed</w>
Rus sia</w>
Pe ter</w>
Marti n</w>
Jan uary</w>
I s</w>
H y
H um
C or
B ang</w>
200 6</w>
200 3</w>
- of-
wh o
wel come</w>
tri bes</w>
t ack
su icide</w>
sto res</w>
ster n</w>
ster e
sho ck</w>
recogn ized</w>
re ads</w>
pul ling</w>
provi ded</w>
pre fer</w>
pol y
ph er
par ent</w>
ou ri
os en</w>
mon y</w>
micros cope</w>
micro -
ment ally</w>
m m</w>
m ess
lo red</w>
lo aded</w>
lin ear</w>
lic ense</w>
li zed</w>
li ze</w>
lan ded</w>
ingredi ents</w>
i re</w>
hatt an</w>
gu il
g la
fu sion</w>
fro zen</w>
fr ac
fol ding</w>
fi le</w>
extinc t</w>
equ ality</w>
divi de</w>
dist ant</w>
disappe ar</w>
destro yed</w>
destro y</w>
dedic ated</w>
d am</w>
coll ection</w>
c ry</w>
blo gs</w>
bicy cle</w>
b ow</w>
b ars</w>
at tribu
an ticip
Stan ford</w>
N ow</w>
Man hattan</w>
Ho ward</w>
G ener
Egyp t</w>
D ec
Ale x
3 0s</w>
3 .
200 1</w>
20 10</w>
wor ker</w>
volunte ers</w>
vol can
under lying</w>
tr ick
tr ends</w>
to il
til ity</w>
thro wn</w>
stric t</w>
shir t</w>
sc rat
refu ge
refl ect</w>
re plac
re moved</w>
py ramid</w>
pub lic
provi ding</w>
produc es</w>
pop ulations</w>
pl u
pe st</w>
p on
out comes</w>
on al</w>
min d-
met abo
main ly</w>
lim b</w>
l ot
industri es</w>
impro vement</w>
im pres
hou sing</w>
he ight</w>
green house</w>
govern ance</w>
glam orous</w>
g ent</w>
fir m</w>
fi ber</w>
fem in
extr act</w>
en ni
di ve</w>
di ans</w>
cri tici
coun ter
conver sations</w>
contra st</w>
construc ted</w>
con sume</w>
calcul ate</w>
but ton</w>
be e</w>
be ach</w>
b i</w>
b ags</w>
appar ently</w>
agricul tural</w>
S he
S al
Musli ms</w>
M os
M as
M and
M ac
J une</w>
G lob
Ethiop ia</w>
2 7</w>
y ours</w>
y o</w>
ug ly</w>
trage dy</w>
ti mi
th ick</w>
t ary</w>
t ar</w>
t ab
sin gly</w>
sh rim
sh op
repe at</w>
ree f</w>
reco gni
recogni tion</w>
real m</w>
re tin
ra ft</w>
pum p</w>
ow ned</w>
ori gin</w>
op y</w>
nur ses</w>
n els</w>
mem or
me al</w>
m and
lin ks</w>
le thal</w>
integr ated</w>
ic ked</w>
he arts</w>
hard ware</w>
foot print</w>
fil m
fic tion</w>
fe ars</w>
escap e</w>
en ga
educ ated</w>
dro ve</w>
dist ur
discus s</w>
de partment</w>
conser vation</w>
clo thes</w>
ch osen</w>
c enti
brie fly</w>
beli efs</w>
b y-
al u
achiev ed</w>
a stro
Rw anda</w>
Nor thern</w>
G r
Atlan tic</w>
Ar ab
3 2</w>
z ar
writ ers</w>
wh at
un g</w>
tun e</w>
tun a</w>
ti red</w>
t ancy</w>
syn thetic</w>
stic ks</w>
sp in</w>
sla very</w>
sc ales</w>
s ales</w>
resili ence</w>
regre t</w>
re r</w>
quar ters</w>
pion e
pi gs</w>
photograp her</w>
person ality</w>
per si
par aly
op ens</w>
oo h</w>
mon itor</w>
micro bes</w>
li on</w>
k iller</w>
ja il</w>
ide al</w>
hi r
her o
har m</w>
har dly</w>
fascin ated</w>
es is</w>
er ies</w>
en cies</w>
emer gency</w>
ell ed</w>
ei gh
earth quake</w>
dra g
disco ver
d ges</w>
cros sing</w>
contin ues</w>
contem porary</w>
con stitu
be er</w>
assem bly</w>
apart ment</w>
angi ogen
all -
ad minist
a to</w>
a i</w>
Wom en</w>
W ol
W at
T ony</w>
Par k</w>
He al
Glob al</w>
6 5</w>
2 2</w>
00 0-
whe el
sion ally</w>
sin g
shar p</w>
separ ated</w>
s er</w>
ri ght-
r ings</w>
r he
pi lot</w>
phra se</w>
paint ings</w>
p ound</w>
organiz ing</w>
on a
n in
mis sed</w>
mini ster</w>
me thane</w>
li kes</w>
ke y
initi al</w>
inclu des</w>
in tri
imag ined</w>
han ging</w>
fu r</w>
foot age</w>
dom s</w>
da mag
curi osity</w>
cu te</w>
cou rage</w>
contribu te</w>
con sequence</w>
comp rom
coll ecting</w>
circu it</w>
character istics</w>
chan nel</w>
can di
c us</w>
c ats</w>
br a</w>
ba se
as sign
arch y</w>
ar do</w>
app lication</w>
anti bio
anthro po
aliz ing</w>
a tic</w>
Satur n</w>
R ome</w>
No bel</w>
H i</w>
G ra
D o
Con gress</w>
A ma
3 0,000</w>
y fish</w>
v ital</w>
unbeliev able</w>
un its</w>
ti ze</w>
ti ed</w>
t emp
surve y</w>
sp ort</w>
smo oth</w>
se as</w>
scen ari
s n
ridic ulous</w>
ri f
represen ted</w>
prin ts</w>
pres sing</w>
po ol</w>
phil anth
phan tom</w>
p ost</w>
oun d
ong st</w>
nor thern</w>
neighb or</w>
ne ural</w>
mus icians</w>
mi xed</w>
mani fe
ma xim
loc ated</w>
lim it</w>
life -
li ve
ki lo
k ne
k ins</w>
ju g
j ell
inter acting</w>
ill ness</w>
il legal</w>
harve st</w>
glam our</w>
gen oci
enga gement</w>
dr ill</w>
doc ument</w>
d ust</w>
con tain</w>
cir cles</w>
boun dar
bel on
b and
aul t</w>
as m</w>
an der
am ongst</w>
Wh ite</w>
Th ank</w>
St even</w>
Pal est
M ag
M ad
I n</w>
H ouse</w>
Fr ank</w>
F in
D an
Angel es</w>
2 50</w>
zero- sum</w>
y ment</w>
win ning</w>
ver tical</w>
univer sities</w>
travel ed</w>
trans forma
tra jec
thu si
th um
ta x</w>
ta il
su bur
strate gies</w>
stor m</w>
sti ci
shrim p</w>
sh ell</w>
repor ts</w>
re son
r ab
privile ge</w>
pl ed</w>
pic king</w>
perman ent</w>
pan demic</w>
ol a</w>
obser vation</w>
meth ods</w>
mam mo
mam m
le tting</w>
l ers</w>
ins ect</w>
innov ations</w>
in y</w>
in ches</w>
i red</w>
hi re</w>
he lic
gra ss
ge l</w>
foc using</w>
flo wer</w>
fab ric</w>
et es</w>
encoun ter</w>
en thusi
emer ge</w>
e tr
e es</w>
do t</w>
dist ingu
discover ies</w>
di str
di lem
descri bes</w>
de pressed</w>
d ates</w>
cy ber
con cent
con cei
compu tation</w>
clin ic</w>
cli ents</w>
cat ast
catast rop
c o</w>
c in</w>
boundar ies</w>
bio logists</w>
artic les</w>
an esthe
afford able</w>
ad ding</w>
acci dents</w>
a the
T ex
Mo ore</w>
K or
Jes us</w>
G P
D emo
C l
Ama z
A s
19 4
z a</w>
y i
wi d
vis ited</w>
ve y</w>
u bi
tri be</w>
ti zed</w>
teles cope</w>
t asks</w>
super -
sh er</w>
sh a</w>
sau ce</w>
s sion</w>
ro bust</w>
recei ve</w>
re ments</w>
re f
r ats</w>
protot yp
pro pos
predic tions</w>
poli cies</w>
p il
on ym
off ers</w>
o red</w>
mem es</w>
life style</w>
k ni
ju dge</w>
invol ves</w>
insur ance</w>
h itting</w>
glob alization</w>
ga ther</w>
fun g
fli p</w>
fac ility</w>
fa thers</w>
exten ded</w>
eff orts</w>
ed ges</w>
dre ss</w>
domin ant</w>
dar kness</w>
curr icul
cros s-
cro ps</w>
cr ying</w>
construc t</w>
conclu de</w>
compas sionate</w>
com pla
col ony</w>
chocol ate</w>
capit a</w>
c ab
bu ried</w>
bo ld</w>
ate ful</w>
arti stic</w>
R evolution</w>
M or
K B</w>
Ital y</w>
H e</w>
G i
De partment</w>
Con go</w>
B en</w>
A ll</w>
2 6</w>
2 3</w>
yr us</w>
y o
vi br
vacu um</w>
un certainty</w>
umin es
tradi tions</w>
to ys</w>
tic ity</w>
ti p</w>
the ore
t ori
t led</w>
t ability</w>
spectac ular</w>
sle eping</w>
sim ulation</w>
sil ent</w>
sh ots</w>
secre ts</w>
sch ol
ro gen</w>
represen tation</w>
real -
ra ys</w>
r on</w>
qu alities</w>
program ming</w>
pl ain</w>
p lot</w>
p ace</w>
oran ge</w>
optim istic</w>
mor ality</w>
luc ki
leg acy</w>
ing dom</w>
illu sion</w>
ign ore</w>
hun gry</w>
head ed</w>
he y</w>
h il
geome try</w>
gener ating</w>
ge st
g as
fron tal</w>
fab ulous</w>
explos ion</w>
entreprene ur
enter ing</w>
elec tions</w>
di verse</w>
di g</w>
di alo
dep th</w>
de ar</w>
daugh ters</w>
cr ic
cr ack</w>
contro ls</w>
con crete</w>
clim bing</w>
che aper</w>
char ges</w>
cam p
bro wn</w>
bo ards</w>
bio logist</w>
bi zar
app le</w>
air planes</w>
agen da</w>
X -
V -
So vi
O ce
O c
M ur
F ord</w>
D ut
A li
7 00</w>
1 0-
, 000-
wee k
vi sit
vari ation</w>
under ground</w>
un likely</w>
tum ors</w>
truc ks</w>
transl ation</w>
trans mission</w>
to ber</w>
th ri
ta tive</w>
t ate</w>
syn the
sym b
symb ols</w>
surpri singly</w>
sto red</w>
st ages</w>
soldi er</w>
ske p
sil ly</w>
sen sory</w>
sear ching</w>
sc ore</w>
robo tic</w>
reven ue</w>
reduc tion</w>
re d
percei ve</w>
per su
or b
ne at</w>
m un
m ales</w>
lec ture</w>
k o</w>
k is
j ac
immedi ate</w>
imag ery</w>
ho ods</w>
ho li
histor ical</w>
helic op
habit at</w>
gu ide</w>
gl ed</w>
foot ball</w>
flu id</w>
fin ds</w>
fig uring</w>
far mer</w>
expla ining</w>
expec tancy</w>
excell ent</w>
ex clu
ev in</w>
eri an</w>
er o</w>
er o
engine ered</w>
eng aging</w>
emer ged</w>
em en</w>
domes tic</w>
diab etes</w>
determin ed</w>
der i
cy cles</w>
cr yst
cos mo
con tract</w>
communic ations</w>
com mod
col or
ca ve</w>
buil ds</w>
bo om</w>
b in
awe some</w>
announ ced</w>
ali en</w>
ace u
T ali
R ay</w>
Oc tober</w>
Ne ander
N ic
N ations</w>
J im</w>
Inter national</w>
Gener al</w>
Christi an</w>
Ch il
Car ol
9 0s</w>
8 00</w>
wor thy</w>
wil d
v y</w>
up set</w>
trans plant</w>
trans fer</w>
terr ori
t an</w>
spea ker</w>
sp orts</w>
shi fting</w>
s sive</w>
s its</w>
replic ate</w>
rene w
re tro
r ul
pu shed</w>
predic table</w>
por ts</w>
paraly zed</w>
p se</w>
ou ter</w>
origin ally</w>
nutri tion</w>
ni ght
mis er
lucki ly</w>
jell yfish</w>
iz es</w>
inv ite</w>
inv a
intri gu
hi p</w>
ha b
go d</w>
gi le</w>
gene tics</w>
g ur
f it
ex tend</w>
entreprene ur</w>
ent ropy</w>
en tation</w>
eleph ant</w>
ecosy stems</w>
da y
da tions</w>
d entally</w>
d ele
colleag ue</w>
co operation</w>
cap ability</w>
bizar re</w>
b or</w>
ath le
at tract</w>
astron om
ar ran
ag ent</w>
adv oc
W in
Tex as</w>
T re
Ste ph
M ay</w>
H omo</w>
E d
D A</w>
C he
weap on</w>
vag ina</w>
to w
ti fication</w>
thre w</w>
te ars</w>
tal ent</w>
t ank</w>
sup er</w>
sub tle</w>
stra igh
sho oting</w>
she et</w>
sha dow</w>
sh ine</w>
sen ior</w>
sandw ich</w>
sac red</w>
restaur ants</w>
repor ted</w>
re minds</w>
r arely</w>
pros per
pri mi
pre mi
phy si
photograph ed</w>
pharm aceu
p h</w>
ori da</w>
o ven</w>
nur se</w>
ner ve</w>
motiv ation</w>
mon it
ma il</w>
le verage</w>
ke t
j ective</w>
is es</w>
inter actions</w>
histor ic</w>
gra ms</w>
gla d</w>
g am
foun ded</w>
form al</w>
for gotten</w>
fi res</w>
fav or</w>
ey n
exp anding</w>
ex pos
em i
el em
disor der</w>
der al</w>
cy lin
consci ously</w>
cla im
chimpanz ees</w>
cha os</w>
ce iling</w>
c up</w>
bio diversity</w>
autom o
an ic</w>
ag ger
adop ted</w>
Tali ban</w>
S pan
R ed</w>
P re
M om</w>
M er
M S</w>
L ong</w>
J ac
G en
Fl orida</w>
C ra
C a
A bra
5 0s</w>
199 0s</w>
19 60</w>
wor ms</w>
wa shing</w>
v ille</w>
transl ated</w>
trac ks</w>
tra sh</w>
tr ical</w>
the ories</w>
ter rit
ta p</w>
success fully</w>
suc k</w>
sub si
stro ke</w>
st ine</w>
sim pli
si de
sh ops</w>
sh it</w>
see k</w>
sac rif
s a</w>
rol ling</w>
reco ver</w>
ra ti
puzz les</w>
promot e</w>
prin ted</w>
predic ted</w>
plu g</w>
physici an</w>
par ties</w>
off icial</w>
off ic
od ds</w>
oc curr
me l</w>
m ac
lin ed</w>
ligh ten
law yers</w>
la p</w>
l uck</w>
k le</w>
invent or</w>
im mer
im men
im it
ici ous</w>
i li
he art
har m
hall uc
gu t</w>
gi ble</w>
genoci de</w>
gather ing</w>
g mented</w>
g aps</w>
fru it</w>
fla v
fin ed</w>
f illing</w>
eyn man</w>
expon ential</w>
embr ac
econom ist</w>
disco vering</w>
disa gre
dic tionary</w>
con tr
con fron
commit ted</w>
ch ron
cer e
cep tions</w>
carto on</w>
bro w
bom b
bl ack
be ars</w>
bac ks</w>
b arely</w>
b alls</w>
at a</w>
ang les</w>
am ate
al titude</w>
al t</w>
ag ency</w>
adv ance</w>
acade mic</w>
W all</w>
T w
T or
S ir</w>
S ant
S S</w>
Mini ster</w>
M in
Le on
L ou
I ran
F re
F eynman</w>
Cam bridge</w>
Ad am</w>
4 ,000</w>
win ds</w>
wat ers</w>
vege tables</w>
un cle</w>
to cin</w>
ti ps</w>
ti an</w>
thir ds</w>
ten ds</w>
ten dency</w>
ta x
t sun
t ches</w>
t ap
surge ons</w>
sub way</w>
stop s</w>
steri ous</w>
st ain</w>
si sters</w>
shel f</w>
s p</w>
research er</w>
ree fs</w>
realiz ing</w>
re act</w>
rap id</w>
pu p
protec ting</w>
profes sion
pr ic
pl um
pic s</w>
par tly</w>
pain ted</w>
p ink</w>
oxy tocin</w>
ot echnology</w>
oper ations</w>
o de</w>
ni c</w>
mo de</w>
mem ories</w>
mamm als</w>
mag nific
m ill
m .</w>
law yer</w>
l ou
k ills</w>
intu ition</w>
instruc tions</w>
ic on</w>
i g</w>
gun s</w>
gu id
gradu ally</w>
gon na</w>
gol den</w>
g ical</w>
fr action</w>
fo ods</w>
f its</w>
e aten</w>
do z
di am
descri ption</w>
dec re
custom ers</w>
curricul um</w>
cop es</w>
continu ous</w>
conduc tor</w>
clou ds</w>
clos ing</w>
cap tured</w>
bul b</w>
bub bles</w>
bot tles</w>
bom bs</w>
bla me</w>
bi c</w>
bene ath</w>
be gun</w>
ban ks</w>
ba i</w>
assum ptions</w>
analy ze</w>
an i</w>
a ur
The y</w>
T im</w>
P an
N el
Ma y
John son</w>
H ello</w>
G and
Del hi</w>
D s</w>
C D</w>
Bl ue</w>
B ron
B ang
. m.</w>
. C.</w>
wan dering</w>
v able</w>
tro ops</w>
tric ks</w>
transpar ent</w>
to es</w>
ter ror</w>
t ories</w>
t one</w>
syn dr
susp ect</w>
suff er</w>
strug gling</w>
sta irs</w>
st ones</w>
st am
sou thern</w>
shop ping</w>
scri p
resi stant</w>
remember ed</w>
reli able</w>
regi me</w>
reduc ed</w>
qu een</w>
pro per</w>
primi tive</w>
preci ous</w>
plan ted</w>
pit ch</w>
para do
oper a</w>
occa sionally</w>
nu ts</w>
ner ves</w>
nar row</w>
na ked</w>
n am</w>
my th</w>
min ing</w>
m apping</w>
li sts</w>
la de
k in</w>
it er
inten ded</w>
inev itable</w>
il er</w>
ig no
i ans</w>
hu a</w>
home work</w>
heal thi
gr as</w>
gh et
gene tically</w>
g hai</w>
fra gile</w>
fail ing</w>
experim ental</w>
expec tations</w>
es sion</w>
electr onics</w>
ec tor</w>
disp os
diagnos ed</w>
di ble</w>
dd le-
d op
d i</w>
cru cial</w>
conv ic
con sul
collabor ative</w>
co vering</w>
class ical</w>
cl ay</w>
ci enti
chi ef</w>
capit alism</w>
can opy</w>
c er</w>
br u
bo ok
bi ol
b ound</w>
b a</w>
audi o</w>
assum ption</w>
accep ted</w>
ab y
a ster</w>
Viet nam</w>
U S
Sp ace</w>
Shan ghai</w>
Sahar an</w>
Pe ace</w>
P la
Oce an</w>
Lar ry</w>
Je wish</w>
D ani
Co ke</w>
C ap
Bang lade
B el
200 2</w>
, 500</w>
wi res</w>
wi der</w>
vi an</w>
v enti
ul ating</w>
trajec tory</w>
thro wing</w>
terri bly</w>
ter ey</w>
suppor ted</w>
sub st
sta tic</w>
st ability</w>
some day</w>
six -
simul taneously</w>
se a
rou te</w>
rela tions</w>
r ent</w>
qui to</w>
prin ter</w>
pret end</w>
pre serve</w>
po et</w>
pleas ant</w>
per mission</w>
p lies</w>
op timi
on a</w>
off ices</w>
o th
nee dle</w>
mos quito</w>
min es</w>
lab s</w>
l um
it er</w>
inj ury</w>
initi ally</w>
in tr
ic ks</w>
glob ally</w>
gl ori
gh tly</w>
gentle man</w>
fron ti
fortun e</w>
flexi ble</w>
fin ger
fer ti
fa ste
extinc tion</w>
ex trac
est s</w>
en de
elec ted</w>
ec ological</w>
e ded</w>
e ast</w>
discipl ine</w>
difficul ty</w>
detec tion</w>
deta iled</w>
deli vered</w>
dam n</w>
d ys
d ough</w>
cul ar</w>
cric ket</w>
comp elling</w>
comm and</w>
com ics</w>
chap ter</w>
car ing</w>
c tica</w>
c ence</w>
bur gh</w>
br ush</w>
br uary</w>
biol umines
bel ong</w>
az z</w>
auton om
at omic</w>
aster oid</w>
arri ve</w>
air port</w>
ag ue</w>
ad di
a- half</w>
Wh o</w>
U S</w>
Tur key</w>
T as
Steph en</w>
Sovi et</w>
Se a</w>
Sant a</w>
R u
P ol
Mon terey</w>
Kor an</w>
H ans</w>
Fe bruary</w>
Bro wn</w>
Ben j
Ar t</w>
Ar ctic</w>
Antar ctica</w>
Ac t</w>
A re</w>
3 0-
2 8</w>
. D
worl d-
win d
what so
whatso ever</w>
weal thy</w>
was h</w>
wa i
un -
transp ort</w>
tra its</w>
th us</w>
teen agers</w>
tal e</w>
ta tional</w>
syndr ome</w>
susp ended</w>
sugge sting</w>
sugge sted</w>
sp ill</w>
sm alle
smalle st</w>
shoc king</w>
sh ore</w>
see king</w>
s wa
s lic
ro ws</w>
ro of
ric her</w>
respon ses</w>
re turned</w>
re cep
r i</w>
qu ir
pur suit</w>
psy chi
psychi at
primar ily</w>
pri me</w>
pre scri
pre p
prep are</w>
pre fer
practic es</w>
poin ting</w>
plan etary</w>
philos oph
pengu in</w>
par ti
pa irs</w>
p uni
p m</w>
p lo
neuros cience</w>
mir acle</w>
mathema ticians</w>
mas ses</w>
m on</w>
li ament</w>
kin dness</w>
jum ped</w>
j ected</w>
it ations</w>
inve sting</w>
interpre tation</w>
in cen
impro ving</w>
imp acts</w>
il it
hy bri
hun ting</w>
human -
high way</w>
ha bit</w>
grand children</w>
g ated</w>
expe dition</w>
ex ternal</w>
eth ical</w>
estab lished</w>
entr al</w>
enter pri
em power
ed a</w>
ec ology</w>
dom ain</w>
dis ap
di al</w>
datab ase</w>
d or</w>
cour t</w>
cot ton</w>
controver si
contra dic
consist ent</w>
conn ects</w>
comm is
com ic</w>
cho os
chan ces</w>
cha irs</w>
ch er</w>
cam ps</w>
c ement</w>
c and
bo ats</w>
auth or
at tle</w>
ap or
ap a
answer ed</w>
an onym
an nu
ad vi
ad a
V en
T anz
Span ish</w>
S qu
S E
Le e</w>
J H</w>
Is lands</w>
I cel
Heal th</w>
Ha wai
H ong</w>
Gree k</w>
G ates</w>
Ever y
Dut ch</w>
Dani el</w>
C entral</w>
C an</w>
Bo b</w>
6 ,000</w>
4 0,000</w>
2 9</w>
197 0s</w>
1 20</w>
whe at</w>
vie wed</w>
u ed</w>
u ally</w>
tsun ami</w>
transpar ency</w>
thre sho
thresho ld</w>
subst anti
stri ke</w>
sta ir
st ot
squ ee
six th</w>
signific antly</w>
se -
ric h
rhyth m</w>
reve al</w>
remin ded</w>
reli ef</w>
reci pe</w>
re build</w>
r at</w>
qu ali
psych op
prof its</w>
pro por
prison ers</w>
pre hen
po le</w>
plas tics</w>
pl ates</w>
oun dly</w>
orchestr a</w>
occur s</w>
obst acles</w>
my sterious</w>
mer ely</w>
marke t
man ual</w>
mag ical</w>
lo go</w>
ligh t
lap tops</w>
ju ven
initi ative</w>
imp ul
hi red</w>
h ill</w>
gest ure</w>
gar age</w>
g a</w>
free ly</w>
form ula</w>
flo ws</w>
flo wing</w>
fla g</w>
fe a
f in</w>
exc use</w>
ex ecu
ev alu
ent -
en abled</w>
em powered</w>
eg g</w>
dre ssed</w>
dra wings</w>
dialo gue</w>
di stor
demon stration</w>
dec ep
de serve</w>
cos mic</w>
consi der
compe te</w>
compar ison</w>
co lored</w>
clu b</w>
clo thing</w>
categ ory</w>
cat ching</w>
ca ke</w>
c us
c ash</w>
c a</w>
bu re
bor der</w>
bo red</w>
be e
audi ences</w>
assem ble</w>
appro xim
ama z
aff ects</w>
ad ing</w>
ac id</w>
ab use</w>
W here</w>
V er
Rus sian</w>
Ri ver</w>
Re search</w>
Palest ini
P it
Mi ke</w>
M y
M ed
La b</w>
K evin</w>
K ar
J ack</w>
Ital ian</w>
Col um
Bri an</w>
B ru
B an
Ari stot
Amaz on</w>
A .</w>
8 5</w>
20 s</w>
0 .
y al</w>
wit ness</w>
war ning</w>
un prece
unprece den
ubi quit
ubiquit ous</w>
ub a</w>
u ti
tim acy</w>
tem por
str ands</w>
so c
smar ter</w>
scen es</w>
sc aff
ro t</w>
re stric
re store</w>
re con
pro posed</w>
pro portion</w>
pi e</w>
physici sts</w>
ph ony</w>
per pe
pe ts</w>
par as
par ach
p it</w>
ow ner</w>
newsp apers</w>
mo bility</w>
mit h</w>
m ou
m ill</w>
m all</w>
lo ws</w>
li f
l o</w>
l i</w>
l an</w>
ki e</w>
k -
is lands</w>
insi ghts</w>
inf ection</w>
in di
ig nor
i ties</w>
i est</w>
g lim
g al</w>
fol ds</w>
fl ouri
far ming</w>
expres sions</w>
ex ception</w>
ev el
eth nic</w>
ess ence</w>
doz ens</w>
domin ated</w>
dilem ma</w>
de vast
de sc
d anc
cu ts</w>
com ment</w>
co vers</w>
civiliz ations</w>
ci ous</w>
canc ers</w>
bu g</w>
b att
at titude</w>
ari ties</w>
appe ar
an ten
ambi gu
adv enture</w>
adap ted</w>
Z e
T ra
Sun day</w>
S mith</w>
Me dic
K u
Jos hua</w>
Isra el
H aw
H all</w>
F er
Benj amin</w>
Abra ham</w>
20 -
1 1
y outh</w>
w art</w>
ves sel</w>
unpreceden ted</w>
un happy</w>
tr ace</w>
toil et</w>
tim ated</w>
tic ket</w>
sy l
su stain</w>
sti l
sm iling</w>
sk i</w>
sion -
sin s</w>
shel ter</w>
she ets</w>
sco res</w>
reduc ing</w>
rap ed</w>
prof oundly</w>
pro vo
preven tion</w>
perform ed</w>
p per</w>
over -
os is</w>
ordin arily</w>
ne ver
n ings</w>
mus ician</w>
miser able</w>
men tation</w>
mechan ics</w>
meas ures</w>
main stream</w>
magnific ent</w>
mach in
lun gs</w>
lu x
left- hand</w>
le x
la tions</w>
influ enced</w>
inev it
imag ing</w>
im er</w>
illustr ate</w>
identi fied</w>
ho p</w>
hi er
heal ing</w>
han ded</w>
go od
gar bage</w>
faste st</w>
es timated</w>
es thetic</w>
en danger
electr on</w>
ei ght-
dum b</w>
demo graphic</w>
d ated</w>
cur ves</w>
contin ents</w>
cli ent</w>
chi ps</w>
chec k
ch r
cer ti
car t</w>
ca p</w>
bure au
be sides</w>
be ating</w>
b end</w>
as pi
algorith m</w>
ad mi
a ks</w>
a is
T er
Nel son</w>
Mc Don
H en
For ce</w>
Cam bo
woo ds</w>
w rap</w>
vi sions</w>
v enture</w>
v an
us ti
un comfortable</w>
treat ments</w>
ti se</w>
th west</w>
teach es</w>
t y-
sub stance</w>
su its</w>
stri al</w>
stre tch</w>
story telling</w>
sta ying</w>
spin ning</w>
sp her
sp an</w>
sp a
simil arly</w>
sig nature</w>
si zes</w>
scenari o</w>
rub ber</w>
recycl ing</w>
reason able</w>
real istic</w>
re form</w>
re fer</w>
re a
pur sue</w>
proce d
pro jec
pri l</w>
pos ter</w>
philanth ropy</w>
phenomen a</w>
peop les</w>
os h</w>
origin s</w>
open- source</w>
on ia</w>
on going</w>
o logi
nes ses</w>
ne ssed</w>
my th
mot or
mi x
mean while</w>
loc ks</w>
lo west</w>
less ly</w>
le ge</w>
lar ge-
landsc apes</w>
la ke</w>
k ick</w>
je wel
j azz</w>
inter ior</w>
in fr
impres sive</w>
im pression</w>
i di
hypo thesis</w>
ho o
hi p
h ac
guaran tee</w>
gir l
for got</w>
exper tise</w>
ex ha
er rors</w>
en ables</w>
elem entary</w>
eleg ant</w>
el ite</w>
doc uments</w>
dig it</w>
desp air</w>
deli ber
decre ase</w>
de fe
d us</w>
cylin der</w>
cr it
conveni ent</w>
confi dent</w>
conf used</w>
come dy</w>
collap sed</w>
cli ff</w>
che ese</w>
chan nels</w>
carto ons</w>
bur ned</w>
bur den</w>
bra in
blo wn</w>
beauti fully</w>
bat teries</w>
b ill</w>
aud it
au tism</w>
assign ment</w>
ar ray</w>
ar med</w>
appro aches</w>
an xi
al istic</w>
administ ration</w>
accoun ts</w>
W right</w>
W ar
T I</w>
Su d
St age</w>
S us
R om
Leon ardo</w>
La w</w>
L a</w>
L .
Dec ember</w>
D es
Coun cil</w>
Col lege</w>
C u
C our
Bron x</w>
Banglade sh</w>
Ar th
A pril</w>
20 0,000</w>
wild life</w>
wide ly</w>
visu alization</w>
v ations</w>
ur ge</w>
un able</w>
tu bes</w>
tr action</w>
tor ture</w>
to wer</w>
ti me-
ter ly</w>
ten sion</w>
te st
tack le</w>
ta st
t less</w>
sup plies</w>
suff ered</w>
sub mer
struc tural</w>
str eng
ste pped</w>
ste al</w>
st um
sim pler</w>
sho e</w>
sen sation</w>
rit u
rema ined</w>
re in
ra il
publi shing</w>
prop ag
pro pose</w>
ph a</w>
pas sive</w>
p ills</w>
on stage</w>
non profit</w>
nec k</w>
mi ddle-
mathema tician</w>
mat ure</w>
mar ks</w>
low- cost</w>
lin ing</w>
inten sity</w>
institu tional</w>
inst antly</w>
inst ant</w>
in formed</w>
igno red</w>
har mony</w>
har dest</w>
h in
gra sp</w>
gr ab
got ta</w>
frustr ated</w>
frighten ing</w>
fri end
foun dations</w>
fir st-
fe deral</w>
exten sion</w>
experi encing</w>
exp lic
enti c</w>
endanger ed</w>
e go</w>
down load</w>
do od
di gi
devi l</w>
defin ing</w>
def en
deb t</w>
d os
correc tly</w>
conver t</w>
contr ary</w>
concer t</w>
colum n</w>
col n</w>
cap abilities</w>
ca de
c tion</w>
bro ad</w>
bran ches</w>
bran ch</w>
bra tion</w>
auth entic</w>
ap p</w>
a h
Sha k
S wis
S en
Or gan
New ton</w>
Lin coln</w>
K os
Je ff</w>
In dus</w>
H im
G ar
E ric</w>
CE O</w>
Alex ander</w>
Ale x</w>
A cade
2 4
196 0s</w>
.D .</w>
&apos; clock</w>
z ones</w>
wor rying</w>
wid th</w>
volunte er</w>
ver sions</w>
vacc ines</w>
v is</w>
ur able</w>
up side</w>
tra ins</w>
tra gic</w>
toler ance</w>
t ched</w>
t ant</w>
suff ici
story t
sp reads</w>
sl ums</w>
si ans</w>
scan ning</w>
sa ke</w>
ro wing</w>
retin a</w>
reser ves</w>
rema ining</w>
reg ard</w>
re stor
re placed</w>
r ush</w>
pu t
profession als</w>
proced ure</w>
pro be</w>
predic tion</w>
po is
pen etr
pack age</w>
or a</w>
off ici
o ids</w>
nutri ents</w>
num er
nit ude</w>
narra tives</w>
na mely</w>
my ce
mes h</w>
mechan isms</w>
me als</w>
mag nitude</w>
lo an</w>
liber al</w>
legi sl
l it</w>
jud gment</w>
it ems</w>
it em</w>
it e
isol ated</w>
is y</w>
intervie wed</w>
inter net</w>
install ation</w>
inno cent</w>
incen tive</w>
house hold</w>
hon ey</w>
helicop ter</w>
healthi er</w>
he lium</w>
h an</w>
great -
gener ous</w>
gather ed</w>
g li
g les</w>
g ases</w>
fre sh
foun der</w>
fol ded</w>
fl ash</w>
fail ures</w>
f ought</w>
expan sion</w>
equ ations</w>
ec raft</w>
ear n</w>
dru m</w>
dri vers</w>
disor ders</w>
di ar
diar rhe
deli very</w>
dec or
de e
cro ws</w>
cri minal</w>
cour ses</w>
coun ting</w>
contribu ted</w>
com prehen
co ws</w>
co oper
co at</w>
chromos ome</w>
char ged</w>
categ ories</w>
car di
c able</w>
break through</w>
believ es</w>
bacter ial</w>
attrac tive</w>
appro aching</w>
annu al</w>
an ni
achiev ement</w>
Wor l
Vir gin
Tanz ania</w>
TEDTal k</w>
T itan</w>
T e
Ste wart</w>
St .</w>
Squ are</w>
Sou thern</w>
Sec urity</w>
S im
S am
NG Os</w>
Mand ela</w>
Li b
I .
Gre en</w>
F ar
E l</w>
Dar win
Afgh an</w>
Acade my</w>
A ir
5 5</w>
1 3
w ling</w>
w is</w>
w ill
val ley</w>
u ps</w>
tou gh
titu des</w>
tion ality</w>
terri fying</w>
teles copes</w>
syn ap
stre ams</w>
star ing</w>
st ly</w>
skelet al</w>
signific ance</w>
shor tly</w>
shor t
sal t</w>
sacrif ice</w>
rou gh</w>
rot ate</w>
re view</w>
ra tions</w>
pur poses</w>
pu tation</w>
psycho logists</w>
pros tate</w>
poc kets</w>
pli ed</w>
plan ting</w>
part nership</w>
pal m</w>
over head</w>
or g</w>
off -
non- zero-sum</w>
no -
ne o
mot ors</w>
measu rements</w>
me me</w>
mat ing</w>
market place</w>
manipul ate</w>
machin ery</w>
lo ves</w>
lo cations</w>
lin gu
kid ney</w>
kee pers</w>
ke -
it y-
inve sted</w>
intervie ws</w>
interven tions</w>
impro ved</w>
i lities</w>
hypo the
high- tech</w>
hi st</w>
he imer</w>
ha r</w>
ha bits</w>
gr ateful</w>
gor geous</w>
gi e</w>
gen omes</w>
ge stion</w>
gar d
g ged</w>
fo ie</w>
favor ites</w>
fac ilities</w>
f ancy</w>
en em
e pi
drop ping</w>
dolph ins</w>
distinc t</w>
differ enti
dest iny</w>
depen dence</w>
dea f</w>
damag ed</w>
d ential</w>
cro p</w>
cor als</w>
continu ing</w>
co inci
clean ing</w>
cl ue</w>
citiz en</w>
chromos omes</w>
che mo
car pet</w>
camp us</w>
ca sting</w>
break fast</w>
br is</w>
bot tom
bor ders</w>
b illi
appro ved</w>
al co
al a</w>
aff ecting</w>
adop tion</w>
Virgin ia</w>
T r
T es
St ar</w>
Si licon</w>
Sec re
S yl
P T
Nor den</w>
Mar k</w>
L ord</w>
J ane</w>
Ha ve</w>
Green land</w>
Ge ographic</w>
D ou
B G</w>
Arth ur</w>
wo ke</w>
vot ing</w>
vi al</w>
ug ust</w>
te en</w>
t z</w>
survi ved</w>
surger ies</w>
sur gical</w>
sul fi
stron gly</w>
stri p</w>
squ id</w>
some time</w>
sim ple
shor t-
sex y</w>
sen sor</w>
sec tions</w>
rit ual</w>
right- hand</w>
ri vers</w>
re land</w>
re actions</w>
r o</w>
qu it</w>
pur su
psycho logist</w>
prosper ity</w>
predat ors</w>
po ison</w>
pl ing</w>
pic ks</w>
peace ful</w>
pat ents</w>
p ir
overwhel med</w>
osy n
open ness</w>
occurr ing</w>
neutr al</w>
near by</w>
ne ys</w>
n is</w>
minim um</w>
lot tery</w>
loc ally</w>
lo ads</w>
list ened</w>
lif esp
li ons</w>
lea p</w>
laugh ing</w>
large- scale</w>
l en</w>
j et</w>
infec tions</w>
inevit ably</w>
ick ens</w>
honest ly</w>
head lines</w>
gra vit
go ds</w>
g y
fu se</w>
fl uc
fab ric
exc it
est ate</w>
es pe
ent y-
engin es</w>
enem ies</w>
encoura ging</w>
el abor
earli est</w>
dra gon
dist ances</w>
dia meter</w>
deci sion-
communic ating</w>
commer ci
campa ig
ca mel</w>
bri dges</w>
blo wing</w>
bl ank</w>
believ ing</w>
be an</w>
b inary</w>
auth ors</w>
auth en
ar i</w>
appl ying</w>
appear ance</w>
anxi ety</w>
angiogen esis</w>
an no
adv ances</w>
activi st</w>
ac tively</w>
ab s
a c</w>
TEDTal ks</w>
Swis s</w>
Shak espe
Red wood</w>
R I
P C</w>
J ones</w>
J A</w>
Hen ry</w>
G or
D V
Cl int
C yrus</w>
Aristot le</w>
A ugust</w>
A s</w>
A my</w>
4 8</w>
z heimer</w>
woo den</w>
wi shes</w>
we stern</w>
wat ts</w>
ver bal</w>
un t</w>
trans forming</w>
the ast</w>
territ ory</w>
techn ically</w>
t is</w>
surr ounding</w>
suppor ting</w>
stran gers</w>
straigh t
ster ed</w>
sou p</w>
so le
shoc ked</w>
shi fts</w>
sh -
scrat ch</w>
scan ner</w>
s ni
s i</w>
s ale</w>
ri x</w>
ri dge</w>
refl ection</w>
rec ession</w>
read ers</w>
re produce</w>
profes sion</w>
process or</w>
pro position</w>
prepar ing</w>
pas ses</w>
pan els</w>
p ap
p acked</w>
or n</w>
or -
op tical</w>
on er</w>
ograp h
oc top
now ada
nowada ys</w>
nit rogen</w>
near est</w>
navi gate</w>
mush rooms</w>
mu tation</w>
mind set</w>
me tic</w>
mar gin
lo ving</w>
liter acy</w>
le an
knowle d
k el
inven ting</w>
inve stors</w>
interpre t</w>
ill a</w>
ic king</w>
horiz on
hor ses</w>
head -
g ad
frequ ently</w>
ff s</w>
far ms</w>
fa i
f ence</w>
extra ordinarily</w>
evol ving</w>
en sure</w>
emer gence</w>
electr om
educ ate</w>
down town</w>
demo s</w>
dem o</w>
dem ands</w>
deli cious</w>
de pos
de als</w>
da wn</w>
concent ration</w>
con front</w>
con doms</w>
comprom ise</w>
comm it</w>
colon ies</w>
clos est</w>
che f</w>
che at</w>
cal ories</w>
bi e</w>
be aten</w>
barre l</w>
ban king</w>
ba th
automo bile</w>
at ar</w>
ar a</w>
analo gy</w>
amaz ingly</w>
am ine</w>
accep table</w>
ac ous
abs ence</w>
a im
a esthetic</w>
a er
Willi am</w>
Syl via</w>
SE TI</w>
S her
Qu een</w>
P ra
Mo z
Le wis</w>
K ong</w>
In dians</w>
I reland</w>
I M
H ere</w>
Gr and</w>
Gand hi</w>
Ever est</w>
De an</w>
D E
Co ast</w>
Clint on</w>
Chi le</w>
Ber lin</w>
B re
Arab ic</w>
An drew</w>
Al zheimer</w>
4 7</w>
3 3</w>
19 0
y ourselves</w>
we dding</w>
vi sually</w>
un d</w>
ultra sound</w>
trig ger</w>
tow ns</w>
threat ened</w>
thre ats</w>
them es</w>
tem ple</w>
tar gets</w>
symme tries</w>
sum mit</w>
sub- Saharan</w>
stun ning</w>
stor age</w>
stere ot
stair case</w>
sion ed</w>
sil ver</w>
sh u
sent ences</w>
sel fish</w>
sc aling</w>
s wal
s enti
s ary</w>
ritu als</w>
regar dless</w>
refuge e</w>
recomm end</w>
rec ur
re wards</w>
re sem
re fri
refri ger
re aches</w>
rad ically</w>
qu is
pul se</w>
pros thetic</w>
pr ay</w>
pos ted</w>
pharmaceu tical</w>
pa ys</w>
p our</w>
p ill</w>
p ad</w>
our ing</w>
or ders</w>
ol en</w>
off ering</w>
neighbor hoods</w>
myce lium</w>
multi ply</w>
mis sions</w>
mim ic</w>
mi xing</w>
metabo li
mel ting</w>
me ga
lux ury</w>
lon ge
live stock</w>
li fted</w>
le op
journ alists</w>
j unk</w>
inclu ded</w>
hop es</w>
histor ically</w>
hea vi
grand parents</w>
gl ue</w>
g an</w>
fluc tu
flav or</w>
fi es</w>
fall en</w>
expos ure</w>
eri al</w>
equ ity</w>
en i
electr ons</w>
dro ps</w>
don or</w>
divi sion</w>
di ves</w>
di um</w>
d al</w>
custom er</w>
cre w</w>
cop ic</w>
controversi al</w>
compar ing</w>
commod ity</w>
co ok
co des</w>
ci g
choos ing</w>
challen ged</w>
carto on
calcul ations</w>
bur st</w>
broad er</w>
barri er</w>
b adly</w>
at oes</w>
at ers</w>
as cular</w>
approxim ately</w>
antibio tics</w>
al arm</w>
al and</w>
aggre ssive</w>
ad dy</w>
aci ds</w>
ab and
Z ero</w>
Y emen</w>
Worl d
V ic
T ar
Shakespe are</w>
S ur
Phili p</w>
P E
Olym p
M um
M ol
L ea
Kos ov
J a
B ot
A sh
A ir</w>
A h
7 2</w>
3 7</w>
3 50</w>
195 0s</w>
y an</w>
wor e</w>
win ner</w>
wel fare</w>
w ound</w>
v ary</w>
ur i
ur ban
uc k
u sion</w>
two- thirds</w>
transl ator</w>
tran sc
tou ching</w>
ton gue</w>
tiv eness</w>
theore tical</w>
te l</w>
tar ge
t s
survi v
sur f
sulfi de</w>
str ings</w>
spin al</w>
sp ray</w>
sp are</w>
sh ining</w>
sen ds</w>
sel ected</w>
seem ingly</w>
scri min
sci ences</w>
sch iz
sc ans</w>
satellit es</w>
sa fer</w>
s si
reve als</w>
reti rement</w>
reg ul
rec k
rati o</w>
pro ven</w>
prison er</w>
pri or</w>
predat or</w>
pre y</w>
po int
po ems</w>
plat forms</w>
pe er</w>
p el
p ause</w>
ob jective</w>
o let</w>
motiv ated</w>
min us</w>
maxim um</w>
man agers</w>
lea f</w>
lab el</w>
l yn</w>
kni fe</w>
j o</w>
it age</w>
introduc tion</w>
inte gra
in tric
in k
in hi
im per
im pa
hon ored</w>
hom eless</w>
hal f
h emi
h at</w>
gu it
graph s</w>
glim pse</w>
g ating</w>
fish er
fir ing</w>
fem ales</w>
enjo yed</w>
ende av
en vel
electrom ag
duc k</w>
dop amine</w>
don e
dolph in</w>
diplom acy</w>
deplo yed</w>
demonstr ated</w>
dee pest</w>
de sk
de pri
d ose</w>
cul tiv
cop ies</w>
consum ed</w>
constra ints</w>
conser vative</w>
connec tivity</w>
concer ns</w>
con fig
compu tational</w>
compe ting</w>
com modi
co verage</w>
co ol
clu bs</w>
clo pedia</w>
clas si
chem ist</w>
cham ber</w>
ca ves</w>
ca ine</w>
but ter
bed room</w>
back yard</w>
b ell</w>
b ands</w>
autonom ous</w>
auth orities</w>
ash a</w>
ari ans</w>
ar es</w>
any on</w>
ans as</w>
am pli
ali ens</w>
agre ement</w>
agen cies</w>
ade qu
addi tional</w>
activ ated</w>
Ze aland</w>
U N
Tas man
Su per
Se attle</w>
Scot t</w>
S pain</w>
No v
N ature</w>
McDon ald</w>
Mar ch</w>
M ul
M e</w>
Li br
Le go</w>
La ke</w>
K am
Jo e</w>
J eff
In done
H am
GP S</w>
E s
Ch urch</w>
Cambo dia</w>
C i
C as
B ir
B ell</w>
A ge</w>
A K</w>
3 6</w>
199 0</w>
198 0s</w>
y ards</w>
work place</w>
wit nessed</w>
w re
vege table</w>
und ant</w>
un seen</w>
u ality</w>
trans mit</w>
trans mit
tran scen
tra ding</w>
temper atures</w>
t te</w>
syste matically</w>
symme trical</w>
swit ched</w>
super market</w>
succe eded</w>
straight forward</w>
ss ment</w>
spea ks</w>
spa ghet
sp ell</w>
sp ati
smo king</w>
sm an</w>
sing le-
simple st</w>
self- interest</w>
se t
se al</w>
rec ru
publi sh</w>
propos al</w>
pro li
portra it</w>
pi pe</w>
pi ge
person alized</w>
pas sen
parach ute</w>
pan el</w>
p ac
ow nership</w>
or ds</w>
open ha
openha gen</w>
ol ine</w>
ni k</w>
never theless</w>
mush room</w>
mu tations</w>
migra tion</w>
mel t</w>
mel o
med itation</w>
me tric</w>
may or</w>
mar row</w>
lon ely</w>
lim itations</w>
ligh ted</w>
li hood</w>
legi timate</w>
le st</w>
le an</w>
lan ding</w>
lam p</w>
k ton</w>
k ably</w>
it ors</w>
is ed</w>
ins ane</w>
inf ant</w>
indepen dence</w>
igh ts</w>
ic onic</w>
i shing</w>
hos tile</w>
home town</w>
ho ok</w>
head ing</w>
har bor</w>
hand -
guil ty</w>
gra des</w>
ge o
ge ar</w>
gas oline</w>
ga ined</w>
fun ds</w>
follo ws</w>
fi bers</w>
fac tories</w>
fac tion</w>
ev apor
esti mates</w>
eni x</w>
en lighten
em bo
e yed</w>
don ors</w>
di strict</w>
determin es</w>
dec lar
d ental</w>
cri min
cre ator</w>
cooper ative</w>
contribu tion</w>
cont amin
concentr ate</w>
con vey</w>
con tain
coll ectively</w>
col i</w>
co caine</w>
cap s</w>
c on</w>
by e</w>
bre eding</w>
bio -
b oss</w>
arre sted</w>
arg uments</w>
anesthe sia</w>
all y-
ali g
al ty</w>
accoun tability</w>
accomp lished</w>
ac he</w>
St ar
S ol
S ing
S an
Po int</w>
P lease</w>
P ho
Libr ary</w>
K le
K er
Ju ly</w>
J ill</w>
Icel and</w>
Hawai i</w>
H el
H A</w>
G o</w>
Fr anc
Demo cr
Cra ig</w>
Carol ina</w>
C openhagen</w>
B M</w>
6 0,000</w>
20 20</w>
20 11</w>
2 5
-of- the-
- based</w>
whe els</w>
wh is
vi olet</w>
ver i
venti l
ut terly</w>
us eless</w>
ultra violet</w>
u red</w>
tun nel</w>
tri vial</w>
transforma tive</w>
tra u
top -
ti ght</w>
thr illed</w>
th als</w>
text book</w>
tex ture</w>
te ar</w>
ta ils</w>
t ags</w>
ste am</w>
sta ys</w>
st on</w>
st olen</w>
st ack</w>
st abi
spir al</w>
spaghet ti</w>
spac ecraft</w>
sp rin
sp or
sp id
spid ers</w>
so oner</w>
sin k</w>
simul ate</w>
sh r
separ ation</w>
se als</w>
s lower</w>
rol led</w>
robo tics</w>
ri a</w>
reve aled</w>
repe ated</w>
re think</w>
random ly</w>
ra z
qu ad
program med</w>
pri de</w>
poll in
po w
physici ans</w>
philosop her</w>
phenomen al</w>
particip ation</w>
part ner
pa ste</w>
p al</w>
ot ed</w>
or phan
on to
obe se</w>
neuros cienti
n ap
mos quit
monit oring</w>
mom en
moder n
liter ate</w>
li der</w>
le ep</w>
lan es</w>
la y
l ad
k ings</w>
k ingdom</w>
j usti
invest ments</w>
inten sive</w>
in timacy</w>
illu sions</w>
iP od</w>
hor mon
help ful</w>
he al</w>
harm ful</w>
half way</w>
h ol</w>
girl friend</w>
ga e</w>
g ging</w>
form at</w>
for -
ferti liz
fe ver</w>
fam ine</w>
fa st-
explo it</w>
excit ement</w>
ex quis
ep h</w>
enc y
electromag ne
elabor ate</w>
detec tor</w>
destro ying</w>
desk top</w>
decision- making</w>
de voted</w>
d enti
curr ency</w>
cros sed</w>
cra p</w>
cr um
coun ts</w>
correspon ds</w>
corpor ations</w>
cor d</w>
cop ied</w>
continu ously</w>
concentr ated</w>
con gestion</w>
con fir
competi tive</w>
che ating</w>
ch im
cer em
cell ular</w>
ca the
c ked</w>
bur g</w>
boun dary</w>
bla h</w>
biom ass</w>
bi as</w>
bel t</w>
be half</w>
b ite</w>
b ills</w>
at r
as th
as ing</w>
appro ached</w>
ap ples</w>
al gae</w>
ag ents</w>
ad just</w>
ac compan
Z im
Wi de</w>
W a
U SA</w>
T ri
T en
Sy stem</w>
Ros ling</w>
R ick</w>
Ph .D.</w>
Nig erian</w>
Neander thals</w>
Mon tan
Mil o</w>
Me dia</w>
M ary</w>
L. A.</w>
L A</w>
Ken ne
Jos eph</w>
H ind
H an
Fri day</w>
E mi
Cour t</w>
C ape</w>
B P</w>
5 0
20 50</w>
17 th</w>
. org</w>
z zy</w>
z u
z i
yi eld</w>
ye ast</w>
wr apped</w>
work force</w>
wor m</w>
w rist</w>
w ning</w>
w age</w>
victi m</w>
val ence</w>
uni qu
un ve
un fortunate</w>
un es</w>
un dance</w>
tis su
therap ies</w>
ther mal</w>
ther lands</w>
the d</w>
text books</w>
tane ous</w>
tag ged</w>
t ome</w>
su spec
stu res</w>
str and</w>
stop ping</w>
st le</w>
speci alized</w>
sp ra
si licon</w>
shoul ders</w>
sen sus</w>
sec tors</w>
schiz oph
schizoph ren
sc aled</w>
sc al
roof s</w>
ri sts</w>
remar kably</w>
re per
r ape</w>
proto cell</w>
proj ection</w>
progre ssion</w>
produc ers</w>
pri orities</w>
portra its</w>
peri ods</w>
pe tro
parado x</w>
par ks</w>
p ecu
overwhel ming</w>
out break</w>
ou ts</w>
on ey</w>
ogen s</w>
octop us</w>
occa sion</w>
o do
mu d</w>
momen tum</w>
med it
mat ched</w>
ma inten
mainten ance</w>
m one</w>
longe vity</w>
lo wer
liz ab
kne e</w>
key board</w>
ju ice</w>
it -
intro ver
intrigu ing</w>
interven tion</w>
inten tion</w>
integr ate</w>
int act</w>
ingredi ent</w>
in o</w>
in e
imple ment</w>
immen se</w>
ic h
i gh</w>
i ded</w>
hybri d</w>
house holds</w>
hor mone</w>
hier archy</w>
he l</w>
ha med</w>
gr at
gall ery</w>
fro g</w>
fl at
fin dings</w>
ex pressed</w>
ex ec
et te</w>
er up
equ als</w>
entrepreneur ial</w>
enjo ying</w>
en ey</w>
docum entary</w>
dis rup
dis k</w>
dia c</w>
desper ately</w>
desper ate</w>
d les</w>
d ently</w>
cru de</w>
compu te</w>
clu es</w>
chemo therapy</w>
cat tle</w>
calcul ating</w>
cal m</w>
bud gets</w>
bu gs</w>
ble -
be ef</w>
bas king</w>
ban g</w>
b ad
aw k
auton omy</w>
authen ticity</w>
att acked</w>
ath o
ari um</w>
ari th
ance stor</w>
ama zed</w>
al pha
ag an</w>
ad mini
acceler ating</w>
absor b</w>
ab undance</w>
a im</w>
St one</w>
S wit
S put
R es
Pho enix</w>
P R</w>
P I
Olym pics</w>
N ami
Mum bai</w>
M id
Ke ith</w>
J up
Hun g
G ood</w>
E lizab
De sign</w>
Coun ty</w>
Char lie</w>
Can a
Budd ha</w>
B la
199 8</w>
zer land</w>
z ler</w>
wheel chair</w>
vit amin</w>
vie wing</w>
vari ations</w>
vari able</w>
trac es</w>
terri fic</w>
ter rain</w>
teen ager</w>
ta xes</w>
stra tions</w>
storyt eller</w>
stom ach</w>
soci ally</w>
ses sions</w>
scre am</w>
satis faction</w>
s ma
resc ued</w>
renew able</w>
realiz ation</w>
pul ls</w>
proj ected</w>
privile ged</w>
pres su
pre me</w>
pp y</w>
poli tician</w>
play ful</w>
plan ned</w>
percei ved</w>
par enting</w>
ol d-
ok yo</w>
offic er</w>
ob serve</w>
ni ghts</w>
na tion
mo od</w>
metaboli sm</w>
mess y</w>
medic ines</w>
me tals</w>
mar ry</w>
mar kers</w>
man kind</w>
mag ician</w>
m -
los es</w>
lifesp an</w>
leop ard</w>
kis s</w>
kin son</w>
kid ding</w>
k it</w>
jo int</w>
j an
is ing</w>
integra tion</w>
imple mented</w>
im plant</w>
ic e
i ons</w>
hor ror</w>
hope ful</w>
ham bur
halluc inations</w>
gradu ated</w>
gr oss</w>
glori ous</w>
gi a</w>
gener ic</w>
ge stures</w>
fung i</w>
func tioning</w>
frequ encies</w>
flo at</w>
expan ded</w>
exp ecting</w>
er ra</w>
er als</w>
ep is
en try</w>
em power</w>
el ds</w>
ei j
ear ning</w>
dragon flies</w>
dou bled</w>
dou ble-
disagre e</w>
dis gu
dig ging</w>
dic t
di shes</w>
di se</w>
devast ating</w>
demo cra
dem ics</w>
def end</w>
de man
da y-
d are</w>
cre am</w>
coun ted</w>
cop ying</w>
cont ex
connec tome</w>
conduc ted</w>
comple ted</w>
coll ec
co her
clu sters</w>
cli ps</w>
claim s</w>
civi li
circu its</w>
chr onic</w>
cell phone</w>
car ries</w>
calcul us</w>
bu m</w>
br ands</w>
bi al</w>
be ds</w>
b ol
at om</w>
assum ing</w>
argu es</w>
appreci ation</w>
apa gos</w>
an- American</w>
ambi tious</w>
al li
ag on</w>
ad ju
ac tic</w>
ac re</w>
aband oned</w>
ab sur
W ay</w>
Tes zler</w>
TED Global</w>
T y
T om
T okyo</w>
T eles
Swit zerland</w>
Sput nik</w>
Sar ah</w>
S pr
S O
Prin ce
P os
O ff
Nov ember</w>
Ne therlands</w>
Nat asha</w>
N et
N az
Mo on</w>
K elly</w>
Jup iter</w>
John ny</w>
Iran ian</w>
I m
Him al
H ea
Gal apagos</w>
D al
Christi ans</w>
C ome</w>
C atho
C T</w>
Budd hist</w>
Bro ok
B ul
B eij
B at
B J</w>
B I</w>
Atlan ta</w>
9 8</w>
199 9</w>
19 50</w>
z e
y nam
y e</w>
wor th
web sites</w>
war mer</w>
w a</w>
virtu e</w>
vi l</w>
ven ue</w>
un ting</w>
tru sted</w>
tri angle</w>
trans mitted</w>
tr a</w>
top ics</w>
tom ato</w>
to s</w>
tiz ation</w>
thum b</w>
tem porary</w>
tan gible</w>
stic king</w>
statis tical</w>
sol o</w>
sin gs</w>
ser vation</w>
scre ening</w>
s .</w>
rop ol
resi dents</w>
repor ting</w>
recogn izing</w>
re serve</w>
re quest</w>
re putation</w>
pur ple</w>
promot ing</w>
profes sors</w>
pro ces
pric ing</w>
previ ously</w>
premi se</w>
pra ying</w>
pos ing</w>
poll ut
pe an
pan ic</w>
p is
os c
opini ons</w>
non- lethal</w>
non e
none theless</w>
na sty</w>
mod eling</w>
mo bi
ment or</w>
medic ation</w>
ma r</w>
loc king</w>
lo be</w>
lin king</w>
le ar</w>
lab eled</w>
k s
jud gments</w>
ir rational</w>
inter rup
inj uries</w>
infr ared</w>
inci dent</w>
imag ining</w>
horizon tal</w>
horiz on</w>
he ating</w>
h ills</w>
gr ant</w>
gener ative</w>
gen ous</w>
ful ness</w>
fronti er</w>
friend ship</w>
fra m</w>
fr ic
fic ations</w>
estab lish</w>
er son</w>
enterpri se</w>
enorm ously</w>
encoura ged</w>
en s
ema ils</w>
em a</w>
elimin ate</w>
el u
dra g</w>
dr unk</w>
dis per
dis ability</w>
diarrhe a</w>
dest ination</w>
der ly</w>
decep tion</w>
de adly</w>
d ating</w>
cu b
cra shes</w>
coun ter-
cor ners</w>
conver ted</w>
contribu ting</w>
compos ition</w>
comm ents</w>
colum ns</w>
co in</w>
clu ster</w>
circul ar</w>
cho p</w>
ch ol
cat aly
car ed</w>
candi date</w>
cab in
bomb sight</w>
blog ging</w>
blin dness</w>
bel ly</w>
be am</w>
barri ers</w>
bacter ium</w>
author itarian</w>
asse ts</w>
an at
ali ke</w>
alco hol</w>
al ysis</w>
al right</w>
adolesc ence</w>
addre ssing</w>
adap tation</w>
activi sts</w>
acqui red</w>
acqui re</w>
ac knowledge</w>
a ver
Wol fram</w>
Vic tori
U. K</w>
Ti me</w>
S in
S el
S aud
S D</w>
Ro b</w>
Por tu
Pit ts
P ic
Nor way</w>
Montan a</w>
M ot
L yn
L ED</w>
Kosov o</w>
Juli a</w>
J ack
Indone sia</w>
Gol den</w>
G ene</w>
Dis ney</w>
D er
D ad</w>
D R</w>
Ch an
B lack</w>
B as
Ar gent
A poll
A h</w>
A -
9 7</w>
5 0-
1, 500</w>
z er</w>
wi ped</w>
who ever</w>
we igh</w>
war ri
w ins</w>
va tives</w>
under -
tun ed</w>
trick y</w>
tri ps</w>
tra vels</w>
tra it</w>
tou ches</w>
to oth</w>
tissu es</w>
ti tles</w>
thin kers</w>
ther ed</w>
than ol</w>
th ood</w>
th ful</w>
terri fied</w>
tempor al</w>
teen age</w>
tail -
t oss</w>
sub mit</w>
sty les</w>
stri kes</w>
stran ger</w>
spati al</w>
soc cer</w>
slo pe</w>
skelet on</w>
sin ger</w>
shi pping</w>
sex ually</w>
sen sing</w>
se gment</w>
safe ly</w>
s ang</w>
ru pt</w>
ric he
riche st</w>
ri sky</w>
reven ues</w>
reg ulation</w>
refl ected</w>
re solve</w>
puni shment</w>
prop he
process ed</w>
pro v
pro test</w>
pre valence</w>
prac tically</w>
pot ent</w>
poli tically</w>
pen cil</w>
pe stici
paras ite</w>
ori um</w>
ona than</w>
om ed</w>
ob li
net working</w>
na tives</w>
myster ies</w>
mos pher
mon soon</w>
mill en
man ner</w>
man ager</w>
ma ke
m ere</w>
lo ose</w>
ligh t-
legisl ation</w>
lec tures</w>
k icked</w>
jewel ry</w>
invol ve</w>
investi gation</w>
int angi
instinc t</w>
install ed</w>
ing ness</w>
in ser
in ity</w>
in equality</w>
hun t</w>
hum ility</w>
hormon es</w>
ho ly</w>
hi ding</w>
help less</w>
heavi ly</w>
har d-
h ob
gro cer
grab bed</w>
gr ounds</w>
fru stration</w>
fant asy</w>
f es
eth ics</w>
eradic ation</w>
er ec
ene zu
en ters</w>
en ab
empower ing</w>
eleph ants</w>
ed itor</w>
ec e</w>
e thanol</w>
e ternal</w>
dis plays</w>
dis abled</w>
diam on
diagnos is</w>
deri ved</w>
den ial</w>
dec reas
de pic
de fic
d it
cri tically</w>
cri mes</w>
cre dible</w>
cor relation</w>
comp ati
co ast
clim bed</w>
civi c</w>
check list</w>
chec ked</w>
character istic</w>
cha se</w>
catastrop hic</w>
can v
c coli</w>
bu sh</w>
bro ccoli</w>
bri be</w>
bo y
ble w</w>
bl ad
ber ry</w>
belon gs</w>
b ill
b id</w>
au to
att acking</w>
att ach</w>
ar ro
ar bit
anonym ous</w>
am ie</w>
addic tion</w>
ac res</w>
a ge-
a g</w>
V enezu
U C
Tra de</w>
Teles cope</w>
T ha
Swe eney</w>
Sing ap
S om
S il
S P</w>
R over</w>
Pitts burgh</w>
Organ ization</w>
Olymp ic</w>
O t
O E
Mon day</w>
Mil ky</w>
M other</w>
La k
L au
L G</w>
K o
J onathan</w>
J ay</w>
Israel i</w>
Har ry</w>
HI V-
H ill</w>
Elizab eth</w>
Egyp tian</w>
E G</w>
Da ve</w>
Colum bia</w>
C old</w>
Bru ce</w>
Bra d</w>
Bl ack
B il
B ec
Al an</w>
2 5,000</w>
2 ,
199 4</w>
1 2,000</w>
ye ar
we t</w>
wa sted</w>
w ow</w>
visit ing</w>
ver b</w>
ven ess</w>
v ements</w>
underst ands</w>
underst and
un ks</w>
um a</w>
tur ally</w>
tra ff
tr apped</w>
to ol
tim ing</w>
tic k</w>
there by</w>
tan ks</w>
tal ents</w>
tal ented</w>
t os
t ine</w>
syste matic</w>
symbo lic</w>
swe at</w>
survi ving</w>
surr ound</w>
su it
stre ssed</w>
strate gic</w>
spon taneous</w>
sm ells</w>
si tion</w>
shi eld</w>
seven th</w>
sett led</w>
sett le
ser ves</w>
self- assembly</w>
se min
scre aming</w>
sche me</w>
s ne
s anc
replac ement</w>
regre ts</w>
regi onal</w>
rec all</w>
re vi
re p
re hear
qui e
prof itable</w>
pro ved</w>
preven ting</w>
pow der</w>
port able</w>
poll u
pleas ed</w>
pecu liar</w>
pas sage</w>
p ill
p -
over night</w>
or ph
optim ism</w>
oper ates</w>
om a</w>
oc ity</w>
nur ture</w>
no vel
no isy</w>
mu t
milli on-
millen nia</w>
me g
mat rix</w>
mar vel
m apped</w>
lob by</w>
lo g</w>
lim bs</w>
libr aries</w>
li ps</w>
kel ey</w>
ir ony</w>
invol ving</w>
investi gate</w>
integr ity</w>
infec tious</w>
in timate</w>
in struction</w>
in er
impul se</w>
il and</w>
ic ry</w>
hu h</w>
her itage</w>
hel met</w>
head- tail-
he h</w>
h m
h ated</w>
gu ess
gu es</w>
gener osity</w>
g mentation</w>
g ay</w>
fra mes</w>
foun ding</w>
flexi bility</w>
fin ite</w>
film maker</w>
fe eds</w>
fat al</w>
far ther</w>
far -
f ate</w>
explo ded</w>
ex ter
ex am</w>
es cal
empha size</w>
embrac ing</w>
embarra ssing</w>
docum ented</w>
distur bing</w>
discipl ines</w>
dir t</w>
diagnos tic</w>
di ment</w>
deep -
dec k</w>
dec ent</w>
de struc
de pres
de lic
de bris</w>
d board</w>
cu be</w>
cru el</w>
coun tless</w>
cos t-
cop per</w>
coordin ation</w>
convic ted</w>
cont ag
con sensus</w>
comp ound</w>
color ful</w>
colli sion</w>
co oling</w>
co di
clim bers</w>
class rooms</w>
cig are
chol era</w>
chi e</w>
chec ks</w>
chec king</w>
ch ickens</w>
celebr ity</w>
car ri
ca -
br ick</w>
bottom -up</w>
blue fin</w>
bi osphere</w>
be hold</w>
base ball</w>
b ath</w>
ari b
arch i
ar cha
app lies</w>
anticip ate</w>
anni ver
al ties</w>
al i</w>
air line</w>
achiev ing</w>
accum ulate</w>
acceler ate</w>
ab ul
ab road</w>
a we</w>
a eda</w>
a .m.</w>
Y oun
Wil son</w>
Wh it
W ho
Th ree</w>
T it
So ci
Si erra</w>
Q aeda</w>
Palestini an</w>
P ur
P u
O n
Nic hol
Na than</w>
Moun t</w>
L es
L an
L E
Kenne dy</w>
K at
Jeff erson</w>
J ust</w>
Himal ay
H or
Gol d
F und</w>
F our</w>
F DA</w>
E con
E .
D evel
Col a</w>
Catho lic</w>
C ro
C ri
C lar
C anyon</w>
Bu il
Brook lyn</w>
Bro thers</w>
Ber keley</w>
B ol
Ali ce</w>
Al bert</w>
Al as
3 4</w>
11 th</w>
y le</w>
x ious</w>
w rec
w ells</w>
voc abul
vo y
visu alize</w>
vie wer</w>
vi sc
v ania</w>
ur a</w>
up ward</w>
u l</w>
u d</w>
ty pe
tw ist</w>
tur ers</w>
tru ths</w>
trans it</w>
ti zing</w>
than k
th or
terrori sts</w>
te dly</w>
tat too</w>
tal es</w>
t ling</w>
t esti
t arian</w>
t ably</w>
syl vania</w>
substanti al</w>
stun t</w>
stri king</w>
sti g
stereot yp
ste in</w>
star d</w>
sp ot
so lem
sion ary</w>
si r</w>
shor ter</w>
shi fted</w>
shel ves</w>
se mi
sculp tures</w>
sa dly</w>
rou tine</w>
ri ots</w>
ri gh
respon si
resear ching</w>
reg ularly</w>
rec la
re vel
re qu
re production</w>
re jected</w>
rais es</w>
r yp
qua tic</w>
purcha se</w>
public ans</w>
publi can</w>
promis ed</w>
pro file</w>
presen ting</w>
pre sum
pot atoes</w>
po t</w>
plan kton</w>
perspec tives</w>
persi st
path ways</w>
pal e
pack aging</w>
p y</w>
p ouring</w>
p ity</w>
p ants</w>
ou tw
ori ented</w>
op ing</w>
off spring</w>
obser ved</w>
obser vations</w>
ob sc
o lo
non sense</w>
net t</w>
mir rors</w>
milli meter</w>
mid st</w>
mi es</w>
mas k</w>
man eu
man aging</w>
mammo graphy</w>
lo ans</w>
lic en
le ans</w>
l y-
kin der
kinder gar
kindergar ten</w>
ke st</w>
jug gling</w>
ju red</w>
j i</w>
ir re
inva sive</w>
intervie wer</w>
indic ates</w>
indic ate</w>
indi genous</w>
inde x</w>
impro vements</w>
imp lic
imag in
ill umin
human kind</w>
high- speed</w>
high light</w>
hi a</w>
hemi sphere</w>
head quarters</w>
h h
gu ards</w>
gu ard</w>
grocer y</w>
glaci ers</w>
glaci er</w>
ga ins</w>
g ec
fro gs</w>
frighten ed</w>
fore station</w>
for give</w>
fil ters</w>
fi red</w>
fam ously</w>
f an
ev al</w>
emo tionally</w>
embarra ssed</w>
em pire</w>
em ia</w>
electromagne tic</w>
do or
discus sing</w>
dec om
de ple
de ad
d ul
d or
d dy</w>
crit eria</w>
crimin als</w>
cr acks</w>
coun ter</w>
consum ing</w>
confron ted</w>
concep tual</w>
con tained</w>
con qu
con fer
cl apping</w>
circu it
cha ins</w>
ch ess</w>
celebr ated</w>
car dboard</w>
calcul ation</w>
cal end
cal ci
ca- Cola</w>
but tons</w>
biolumines cence</w>
bio logically</w>
band width</w>
b ay</w>
aur us</w>
attrac ted</w>
attemp ts</w>
ate dly</w>
at titudes</w>
at ter</w>
astron omy</w>
assi stance</w>
arti facts</w>
arib bean</w>
argu ing</w>
ap i
anniver sary</w>
and- a-half</w>
analy zed</w>
analo g</w>
ambi tion</w>
alpha bet</w>
al umin
air s</w>
adap tive</w>
activ ate</w>
aci ties</w>
accompan ied</w>
ac ies</w>
ac a
ab undant</w>
a u</w>
a quatic</w>
Wat son</w>
Vir gin</w>
Tw o</w>
Tasman ian</w>
T hir
T -
Sim on</w>
Saud i</w>
S ho
Re publicans</w>
Re publican</w>
R ou
R oss</w>
Po wer
Ph il
Pen n
P ep
Nor man</w>
Ne il</w>
Nami bia</w>
L uc
K ur
K en</w>
K A</w>
Je ws</w>
I M</w>
I BM</w>
G a
Dan ny</w>
Co ca-Cola</w>
Chil d</w>
Car l</w>
C aribbean</w>
B A</w>
AR S</w>
A sian</w>
A S
9 6</w>
8 ,000</w>
5 8</w>
3 8</w>
3 1</w>
19 80</w>
1 50,000</w>
youn gest</w>
yl on</w>
x -
wonder fully</w>
win ners</w>
wi ring</w>
week end</w>
wa vel
ven s</w>
vel ocity</w>
ve ter
val ve</w>
us al
usal em</w>
up right</w>
une m
unem plo
transpor ted</w>
to oth
ti ble</w>
ti a</w>
th- century</w>
tex ts</w>
targe ted</w>
sy nes
sti m
stim ulation</w>
ster dam</w>
stat ements</w>
stam p</w>
spher es</w>
speci alist</w>
spe eds</w>
ske tch</w>
sk illed</w>
si es</w>
sha king</w>
sh m
ser v
ser en
sequ encing</w>
s en</w>
s ab
rou tin
roc kets</w>
respon ded</w>
represen ting</w>
refl ects</w>
recycl ed</w>
recogn izes</w>
real- time</w>
read er</w>
re war
re over</w>
rain forest</w>
ra ins</w>
r hin
pros titu
promis es</w>
pri ority</w>
prepar ation</w>
pollut ants</w>
pol es</w>
pl ug
physi ology</w>
pe de
pede stri
particip ants</w>
p ou
p an</w>
ot e</w>
org asm</w>
ore r</w>
off s</w>
obser ving</w>
ob jec
nur turing</w>
novel ty</w>
no tions</w>
nic ely</w>
neo cortex</w>
negoti ate</w>
n i</w>
mor tal</w>
mo reover</w>
mix ture</w>
micros copic</w>
metap hor
ma sters</w>
ma ss
los ses</w>
li zing</w>
le gen
juven ile</w>
jour nal</w>
jo kes</w>
ja w</w>
it tle</w>
it ly</w>
ir ri
inher ent</w>
in i</w>
im pressed</w>
il ep
il a</w>
hyper -
hy dr
hop ed</w>
happ iest</w>
ha irs</w>
h s</w>
h r
gra ins</w>
gr ace</w>
gover n</w>
go at</w>
genu ine</w>
gent le</w>
gener ates</w>
ge able</w>
gall on</w>
fric tion</w>
free -
for cing</w>
fisher men</w>
fac ilit
f uc
expon entially</w>
explo res</w>
explo red</w>
exhi bit</w>
ex otic</w>
eradic ate</w>
ep ilep
envel ope</w>
enthusi asm</w>
enni um</w>
endeav or</w>
ency clopedia</w>
en co
en -
em path
eigh th</w>
ec dot
easi est</w>
e Bay</w>
dra ws</w>
distingu ish</w>
distinc tion</w>
disappe ars</w>
diamon ds</w>
di ly</w>
demonstr ates</w>
deci ding</w>
d der</w>
cri p
cra b</w>
cou sin</w>
cou ch</w>
condi tioning</w>
con ce
comp ounds</w>
clin ics</w>
che e
cha sing</w>
ch al
cele bration</w>
catastrop he</w>
car diac</w>
candi dates</w>
bre ed</w>
bon us</w>
bo wl</w>
bo ther</w>
bo ar
bas eline</w>
bal anced</w>
b ent</w>
at mospher
at an</w>
assum ed</w>
associ ate</w>
assem bled</w>
as set</w>
appe al</w>
apart ments</w>
an ity</w>
an ecdot
an e
alumin um</w>
after ward</w>
accur acy</w>
accep ting</w>
ac ious</w>
a vian</w>
Zim bab
Z i
Y ves</w>
X- ray</w>
Venezu ela</w>
V e
Tha iland</w>
TED sters</w>
Sus an</w>
Soci ety</w>
Singap ore</w>
Re public</w>
R it
R ac
Prince ton</w>
Penn sylvania</w>
PT C
P C
OE CD</w>
O ri
Ne ws</w>
M el
M ama</w>
Jer usalem</w>
J obs</w>
In du
H ill
G all
F o
Emi ly</w>
E ve</w>
CA PTC
C re
C os
C I
Bro ad
Bar ry</w>
B M
Am sterdam</w>
Al pha</w>
A us
A i
A T
4 3</w>
. 5</w>
x y</w>
wit z</w>
well- known</w>
weigh s</w>
vot es</w>
vot ers</w>
volcan ic</w>
vi able</w>
vacc in
un conscious</w>
um es</w>
u n</w>
trans fer
tradi tionally</w>
tra uma</w>
tra de-
tr y
tou rist</w>
t es
t age</w>
syn chron
surf ing</w>
sur plus</w>
summar ize</w>
suit case</w>
sugge stion</w>
suc ks</w>
stra ins</w>
st en</w>
st are</w>
squ ares</w>
spon taneously</w>
so ap</w>
sl um</w>
sensi tivity</w>
semi -
secon dary</w>
sea water</w>
scienti fically</w>
rop ical</w>
ri ot</w>
ri ding</w>
respec ted</w>
resili ent</w>
represen tative</w>
replac ing</w>
repe atedly</w>
ren der</w>
rele ases</w>
rela tivity</w>
reg ulations</w>
refuge es</w>
recei ving</w>
reas oning</w>
re sur
re strial</w>
re solved</w>
re mix</w>
re generate</w>
radi us</w>
ra inf
rainf all</w>
r um
r ose</w>
pursu ing</w>
prototyp es</w>
propag anda</w>
princi pal</w>
predic ting</w>
pre served</w>
pre frontal</w>
practic ing</w>
pr on
post- conflict</w>
pl ot
per ceptions</w>
pe ers</w>
pe er-
pe di
partner ships</w>
par alysis</w>
pa ths</w>
p ulation</w>
p H</w>
os ex
or dered</w>
ol ly</w>
offici als</w>
occup y</w>
ob o</w>
o d-
nu t</w>
no des</w>
no de</w>
ne gl
nan otechnology</w>
n ate</w>
motiv ate</w>
mind- wandering</w>
micro bial</w>
mem br
mar ath
manufac ture</w>
mani pulation</w>
magaz ines</w>
ma id</w>
lou der</w>
lo y
lo s</w>
li me
li ed</w>
li a</w>
lea k</w>
laugh ed</w>
la sts</w>
l ately</w>
jum ps</w>
j an</w>
it ude</w>
investi ga
intangi ble</w>
instr um
inst all</w>
inher ently</w>
inci dentally</w>
in cub
imper ative</w>
imm un
ill ance</w>
hyper bo
honest y</w>
happ ily</w>
h ut
h int</w>
great ly</w>
gravit ational</w>
gra ve</w>
gr ound
gi g
ght ful</w>
ger ms</w>
ger -
gen omics</w>
ge e
gard ens</w>
gar et</w>
gal ore</w>
g ates</w>
fun dra
free zing</w>
fre a
flo ors</w>
fir ms</w>
fin ishing</w>
fer tility</w>
fe tus</w>
fa ils</w>
f lights</w>
f ault</w>
ex cep
ex ce
ex agger
es day</w>
erec tus</w>
environ mentally</w>
entr ance</w>
ell a</w>
el li
el ders</w>
ed -
econom ically</w>
e ats</w>
dre amed</w>
div or
dic tion
di scrimin
destruc tive</w>
deser tification</w>
del ay</w>
degra ded</w>
de pressing</w>
de light</w>
de fl
d ome</w>
d ged</w>
cu tt
coun cil</w>
cou sins</w>
corru pt</w>
convinc ing</w>
consi dering</w>
config uration</w>
conduc t</w>
con fined</w>
con dom</w>
compos ed</w>
common s</w>
commodi ties</w>
comb at</w>
cock ro
co ch
cho ir</w>
chimpanz ee</w>
che ap
ch ur
cerem ony</w>
car es</w>
can e</w>
can dy</w>
calci um</w>
bum ps</w>
bul bs</w>
bu ff
bra ve</w>
bor row</w>
bor ne</w>
bi an</w>
ber y</w>
base ment</w>
ban jo</w>
bal con
b ond</w>
b il
az e
att ach
as leep</w>
as hamed</w>
arre n</w>
ari se</w>
ar ena</w>
app y</w>
anim ate</w>
an as</w>
alter natives</w>
all as</w>
ali e</w>
ali an</w>
ag nos
adequ ate</w>
accomp lish</w>
a ward</w>
W ould</w>
W oo
W arren</w>
W K</w>
Tu esday</w>
Ti bet</w>
T ul
T o</w>
Sahar a</w>
Ro bo
Rac hel</w>
R s</w>
R ight</w>
P ub
P le
P as
N ep
Moz art</w>
Mos es</w>
Mar garet</w>
Mar cus</w>
Ma c</w>
M s</w>
M ach
Lou is</w>
L im
L ama</w>
Kore an</w>
K a
Jack son</w>
J on
H om
F ir
F ellow</w>
F al
F O
Em pire</w>
Darwin ian</w>
Dal ai</w>
DV D</w>
D ra
D AR
Chri st</w>
Cam p</w>
C oper
C ham
Bul g
Ban galore</w>
Ar m
Apoll o</w>
A gn
6 4</w>
4 2</w>
199 7</w>
18 th</w>
1 30</w>
yl an</w>
will ingness</w>
wat t</w>
wa ste
vocabul ary</w>
vi vid</w>
ver ei
ven tures</w>
univer s
uniqu ely</w>
uni on</w>
uni form</w>
un ited</w>
u a</w>
typ ing</w>
tw ins</w>
tw e
tri bal</w>
tra iler</w>
tic ul
tex tile</w>
terrori st</w>
tec ton
t t</w>
t elec
surve illance</w>
suppor tive</w>
su red</w>
stun ts</w>
stor ms</w>
stoc k
ste aling</w>
stand point</w>
stand ar
st em
st agger
st ag
spi ke</w>
solem n</w>
so verei
so red</w>
sna kes</w>
sli p</w>
sla ve</w>
sil s</w>
si le</w>
she er</w>
sh rin
sequ enced</w>
scrip ts</w>
scre ens</w>
scho ol
sc ent</w>
sc ar</w>
sal mon</w>
sal ary</w>
sa iling</w>
rou s</w>
ro les</w>
ro b
ric ane</w>
ri bat
ribat i</w>
revolu tions</w>
respon ding</w>
ref used</w>
reason ably</w>
re viewed</w>
re turns</w>
r y
pum ps</w>
prototyp ing</w>
prob able</w>
presi dential</w>
preci sion</w>
pr osp
pot ato</w>
plac e
pige on</w>
per va
path way</w>
pat ch</w>
pas sions</w>
p iles</w>
oun ce</w>
or th
optim al</w>
oper ational</w>
off en
occu pi
o we</w>
nor ms</w>
no te
nin e-
night m
nightm are</w>
nan ome
na ive</w>
n on</w>
n omin
n om
my ths</w>
mu stard</w>
mode st</w>
min erals</w>
migra ine</w>
micro phone</w>
mi st</w>
membr ane</w>
mar ked</w>
log ging</w>
list ed</w>
lear ns</w>
la ying</w>
la sting</w>
kno ck</w>
k ar
ir atory</w>
inven tions</w>
inv itation</w>
inter faces</w>
inter connected</w>
inj ustice</w>
in jured</w>
in form</w>
in expensive</w>
impa ired</w>
i tions</w>
i ster</w>
hu t</w>
hoo ked</w>
ho o</w>
hero ic</w>
head line</w>
har ness</w>
hand ful</w>
guit ar</w>
ge ography</w>
gall eries</w>
fo am</w>
fle sh</w>
fla sh
fi xing</w>
femin ist</w>
f itting</w>
f essor</w>
f ense</w>
exp ose</w>
ex ceptions</w>
ex -
eth oven</w>
estab li
eri als</w>
er otic</w>
epis ode</w>
enti ties</w>
enter taining</w>
enh ance</w>
elev ator</w>
el derly</w>
ear ned</w>
du ty</w>
du le</w>
dos es</w>
do -
distribu te</w>
discus sions</w>
di l
develop ers</w>
der ness</w>
declar ed</w>
de v
de al
danc ers</w>
cr an
coun try
cosmo s</w>
conven tion</w>
contradic tion</w>
con ception</w>
compos er</w>
compati ble</w>
compar able</w>
collabor ator</w>
co c
cle ver
circul ation</w>
circuit ry</w>
ch e</w>
ce -
cathe dr
cat alo
carb on
car rot</w>
canv as</w>
ca v
busin ess
bu ses</w>
broad cast</w>
bri gh
ben ch</w>
bel ts</w>
be side</w>
be a
bath room</w>
bas ket</w>
ban ned</w>
b yp
b at</w>
ax es</w>
awk ward</w>
at ro
asth ma</w>
arbit r
ar able</w>
appreci ated</w>
ap ologi
answer ing</w>
an don</w>
amate ur</w>
alter ed</w>
al tru
aggre gate</w>
addre ssed</w>
ac ute</w>
absur d</w>
a qu
a a
Zimbab we</w>
Willi ams</w>
U V</w>
Ta i
Ta h
T ran
T han
Sud an</w>
Secre tary</w>
Sch war
S A
R am
Pro fessor</w>
Nichol as</w>
N ick</w>
M A</w>
L ist
Ki ribati</w>
K ri
Juli an</w>
Hi gh</w>
Fir st</w>
F G</w>
E r
E d</w>
Devel op
De fense</w>
Dar fur</w>
D ylan</w>
D or
D id</w>
D et
D allas</w>
Coun try</w>
Cana dian</w>
Cal tech</w>
C ur
C o</w>
Braz ili
Beij ing</w>
Be ethoven</w>
Be at
B or
B hut
B L</w>
Arm strong</w>
Alas ka</w>
Al -
Agn es</w>
AI MS</w>
7 ,000</w>
3 -
199 5</w>
19 45</w>
19 30s</w>
1. 5</w>
1 5,000</w>
0 0s</w>
- year-olds</w>
y ota</w>
y el
wi ves</w>
war e
wa shed</w>
w w
vibr ating</w>
vari eties</w>
use t
uset ts</w>
u ts</w>
two- dimensional</w>
tu p</w>
trau matic</w>
tra p</w>
tis tic</w>
threat ening</w>
thir dly</w>
test os
testos ter
te dness</w>
tast es</w>
susta ined</w>
surviv ors</w>
sup ple
summar y</w>
suffici ent</w>
success es</w>
sub sequ
sub scri
star vation</w>
stagger ing</w>
sta ke</w>
spe ech
sp ills</w>
sol ar-
small -
slo wed</w>
sli ce</w>
skep tical</w>
ske tches</w>
sin i</w>
sh i</w>
self- organizing</w>
sel ect</w>
satis fied</w>
sa il</w>
s ance</w>
s ach
sach usetts</w>
rol ls</w>
roc ke
ro wed</w>
ro ad
ri gi
repor ter</w>
reper to
ren dered</w>
remember ing</w>
rela x</w>
rela tives</w>
refu se</w>
recy cle</w>
recon ci
reco vered</w>
re n</w>
re fined</w>
re d-
re alities</w>
ran ging</w>
rad ar</w>
ra il</w>
r ling</w>
quie tly</w>
quali fied</w>
promis ing</w>
program mers</w>
proce du
procedu res</w>
pro -
pri stine</w>
pri ori
pressu res</w>
pra yer</w>
photograph ers</w>
philosoph ical</w>
persu ade</w>
pati ence</w>
par liament</w>
par ked</w>
p in</w>
ow ners</w>
ori st</w>
oper ator</w>
op o
on ically</w>
ol ding</w>
od or</w>
o ved</w>
nucle us</w>
no tation</w>
ni e</w>
negoti ating</w>
n ell</w>
myth ology</w>
mur der</w>
mu til
mou ths</w>
mit es</w>
mil d</w>
melo dy</w>
mat ches</w>
mar t</w>
mar ker</w>
manufac turers</w>
man -
mal nutrition</w>
lon gest</w>
liter al</w>
lime stone</w>
like lihood</w>
ligh ter</w>
li fel
len ses</w>
le ver
laugh ter</w>
lab els</w>
l ure</w>
kid n
jum ping</w>
isol ation</w>
inter s</w>
institu te</w>
inst ances</w>
innov ate</w>
in sic</w>
in o
in duc
illu stration</w>
hun ters</w>
human itarian</w>
hum ble</w>
hu gely</w>
hol ders</w>
histor ian</w>
he ated</w>
hat red</w>
hambur ger</w>
hac kers</w>
ha z
h en</w>
h eck</w>
h ec
guil t</w>
grass roots</w>
gradu ates</w>
gr u
gl ory</w>
full- time</w>
fru its</w>
frac tal</w>
fos ter</w>
fos sils</w>
for- profit</w>
flouri sh</w>
fil med</w>
fil es</w>
fif ty</w>
fe ar
f t
f lic
expec tation</w>
exha u
execu tive</w>
exam ine</w>
ever -
est er</w>
er nal</w>
ep er</w>
ent able</w>
encoun tered</w>
enab ling</w>
electro des</w>
ed it</w>
ec ho
e po
dood ling</w>
docum enting</w>
do g
do do</w>
div ine</w>
diag nose</w>
di sin
develop mental</w>
detec ted</w>
deser ves</w>
deplo y</w>
dep ths</w>
defin es</w>
defic it</w>
de lighted</w>
dd led</w>
d uration</w>
d ity</w>
cru shed</w>
cro codi
cr acked</w>
cou ra
cont ents</w>
conduc ting</w>
con gre
compu ter-
common ly</w>
com a</w>
collabor ate</w>
cham pi
ch l
ch in</w>
ch -
cen tered</w>
cartoon ist</w>
cap su
c al</w>
bureau cr
bul let</w>
bu ry</w>
br al</w>
bon ds</w>
bo ost</w>
bo o
bloo dy</w>
bel oved</w>
b less</w>
attribu tes</w>
at traction</w>
at ories</w>
art work</w>
ar range</w>
ar ose</w>
ap h
amin o</w>
ali gn
al lies</w>
al ge
ais sance</w>
addic ted</w>
acous tic</w>
accoun ting</w>
accoun table</w>
ac u
a wake</w>
W it
The se</w>
T .
Su preme</w>
Si b
Satur day</w>
S ti
S har
S J</w>
S B</w>
S ARS</w>
Roc k
Ri o</w>
R ule</w>
R NA</w>
Pe op
Par liament</w>
Par kinson</w>
P y
P ot
P in
N ative</w>
Mas sachusetts</w>
M t</w>
Le one</w>
L oc
L ev
K in
K ay</w>
J as
I van</w>
H ir
Franc is</w>
F i</w>
E van</w>
Den mark</w>
Democr ats</w>
D un
D ick</w>
Con ference</w>
Com p
Cas sini</w>
Bab bage</w>
B .</w>
Ar my</w>
A ch
9 00</w>
4 0
3 00,000</w>
198 4</w>
z ona</w>
writ es</w>
won ders</w>
we l</w>
war fare</w>
wa ited</w>
voy age</w>
vi bra
un lea
ul arity</w>
u ter
u sage</w>
u h</w>
tu rer</w>
tri angles</w>
transi stors</w>
tox ins</w>
tion- state</w>
tic kets</w>
thi um</w>
the sia</w>
testoster one</w>
tag ging</w>
t ropical</w>
synap ses</w>
sy rin
stoc ks</w>
stimul ate</w>
stic ky</w>
steri le</w>
standar di
st ate
st a</w>
spac e-
sp r
sp ends</w>
sn ap
sla ves</w>
sl augh
si de-
short- term</w>
set tle</w>
sel ls</w>
se at
scho oling</w>
sa il
sa dness</w>
s wee
s log
s light</w>
s ants</w>
ru ins</w>
rot ating</w>
ropol itan</w>
rom ance</w>
rhyth ms</w>
revolu tionary</w>
responsi bilities</w>
reperto ire</w>
rel ates</w>
refl ective</w>
recep tor</w>
re treat</w>
re hab
re define</w>
raz ine</w>
random ness</w>
rain forests</w>
ques tioning</w>
proli fer
pri mates</w>
pregn ancy</w>
plan tation</w>
phot osyn
phot o
ph al
perva sive</w>
person alities</w>
par ag
pap er
oy ster</w>
ow l</w>
ous y</w>
osp ital</w>
orb ital</w>
oper ated</w>
op a
obst acle</w>
obser ver</w>
ob sole
notic ing</w>
negoti ations</w>
ne gie</w>
nan o-
mul tin
mot h</w>
mor t
mo ld</w>
mis ery</w>
minim al</w>
min ority</w>
min ded</w>
metaph ors</w>
ment ary</w>
me tr
marvel ous</w>
mag net</w>
ma tions</w>
m ys
loc au
locau st</w>
lic al</w>
li thium</w>
li fting</w>
le vel
laun dry</w>
lap se</w>
kne es</w>
kilome ter</w>
k ill
k er
justi fy</w>
jun gle</w>
jo y
jo ining</w>
j ar</w>
is a</w>
intric ate</w>
interrup ted</w>
inter section</w>
inten tions</w>
inst al
instal lations</w>
influ ences</w>
indepen dently</w>
in hab
in genu
in gen
ingen ious</w>
in as</w>
improvi se</w>
improvi sation</w>
ile o</w>
ic ons</w>
hum ili
hot ter</w>
hot els</w>
ham mer</w>
habit ats</w>
ha ir
h yp
h -
gri m</w>
gri ef</w>
gre e
gra titude</w>
govern mental</w>
go d
go ats</w>
gi o</w>
ge o-
ge ese</w>
gall ons</w>
ga ze</w>
g ate
ful filling</w>
fu zzy</w>
fre ak</w>
fra gments</w>
fo ol
floo d</w>
flo wn</w>
fertiliz er</w>
exquis ite</w>
expen se</w>
equi pped</w>
entrepreneur ship</w>
em an</w>
el bow</w>
eff ec
dre aming</w>
dr illing</w>
distor ted</w>
discus sed</w>
disappe aring</w>
diction aries</w>
develop s</w>
determin ation</w>
descri bing</w>
deli vering</w>
def ault</w>
de l</w>
day light</w>
d- up</w>
cu ps</w>
cr ank</w>
cor ri
cor related</w>
continu ally</w>
consist ently</w>
con science</w>
comp li
comm entary</w>
com pressed</w>
cl oth</w>
cl arity</w>
char coal</w>
ch y</w>
ch it
cere bral</w>
cel ad
celad us</w>
cate gor
carb on-
cap acities</w>
cand le</w>
c ali
bu c
break down</w>
br ut
boun ce</w>
bo ot</w>
bo o</w>
bloo d
blo ws</w>
ble ssed</w>
bl ur
bl ink</w>
biom at
bi otechnology</w>
bi ot
ber a</w>
bas sa
barre ls</w>
ballo ons</w>
b in</w>
b ble</w>
b am
b all
au gmented</w>
attach ment</w>
athe ist</w>
at razine</w>
astronom ers</w>
astron au
aster oids</w>
associ ation</w>
asse ssment</w>
ari al</w>
arch ive</w>
ar rest</w>
app s</w>
antibio tic</w>
anc er</w>
an xious</w>
amate urs</w>
al ert</w>
ag ile</w>
admini str
accur ately</w>
Y our</w>
W on
W al-
Tur k
The ater</w>
TED M
T s</w>
T em
T .</w>
Scot land</w>
S to
S ony</w>
S ci
S am</w>
Rus sians</w>
R en
R ec
R an
Pub lic</w>
Peop le</w>
O liver</w>
O f</w>
Ni ke</w>
N 1</w>
Mat t</w>
M o</w>
List en</w>
L ady</w>
Ki bera</w>
K im</w>
K h
Jer sey</w>
Jer ry</w>
I sa
I -
Haw king</w>
H ospital</w>
H ig
H ad
H C</w>
Gra ham</w>
Gor don</w>
Gal ileo</w>
G et</w>
Fran k
FO X
F ul
F ro
F or</w>
En viron
En celadus</w>
Develop ment</w>
Det ro
Des ert</w>
D ig
Col om
Car negie</w>
C N
Bon o</w>
B run
Au stri
Ari zona</w>
Arab ia</w>
A C
9 4</w>
7 6</w>
5 9</w>
5 2</w>
4 0s</w>
199 1</w>
197 0</w>
y me</w>
x on</w>
worth while</w>
world- class</w>
wor ship</w>
wide spread</w>
whist ling</w>
wat ches</w>
viol in</w>
vari ability</w>
vac ation</w>
v o</w>
up date</w>
un stable</w>
u pri
tw enty-
tun as</w>
tri um
tremend ously</w>
tre as
transl ating</w>
tor tured</w>
tion ist</w>
tic als</w>
ti ghtly</w>
through s</w>
thir d-
ther -
th ly</w>
th ic</w>
ten nis</w>
t ful</w>
t ching</w>
t ance</w>
synes thesia</w>
syn thesis</w>
sym phony</w>
susta ining</w>
suppor ts</w>
suc ces
submer sible</w>
su sc
su peri
stri ps</w>
ste ak</w>
state -of-the-
state-of-the- art</w>
st in
spec im
sp ite</w>
sol ves</w>
sna ke</w>
sm iles</w>
sl u
sk ir
shir ts</w>
shi pped</w>
shap ing</w>
sh ells</w>
sh at
scre w</w>
schol ar
scan ned</w>
scaff olding</w>
san itary</w>
s wing</w>
s ounded</w>
routin ely</w>
rop ic</w>
rop a</w>
rin a</w>
ri des</w>
revolu tion
reve aling</w>
reti re</w>
resur rec
replic ating</w>
reli ev
reg imes</w>
reduc es</w>
re forms</w>
re acting</w>
rac ing</w>
ra tion
r ick</w>
quanti ties</w>
public ly</w>
pu rely</w>
psychop ath</w>
proto cells</w>
produc er</w>
priv acy</w>
pri sons</w>
prev entable</w>
place bo</w>
plac ing</w>
pil ots</w>
pi res</w>
pi p
per forms</w>
particip ating</w>
p iz
p .m.</w>
ow ns</w>
over s</w>
ov ascular</w>
ou ting</w>
os cope</w>
ord an</w>
optimi ze</w>
op er</w>
one- third</w>
occupi ed</w>
obsole te</w>
ob session</w>
ob ses
o live</w>
numer ous</w>
na il</w>
mu tual</w>
moun ted</w>
mom s</w>
mom ent
mi gh
mi a</w>
medi ate</w>
me se</w>
me ets</w>
me a
mat ching</w>
master y</w>
manife station</w>
man tis</w>
mag in
m ly</w>
m its</w>
lo a
li p</w>
le ap
laun ching</w>
labor atories</w>
la ys</w>
k ery</w>
k ened</w>
j a</w>
issu ed</w>
irri gation</w>
invol vement</w>
inv ade</w>
intr ins
intrins ically</w>
inter n
inten tional</w>
innov ators</w>
inj ection</w>
ingenu ity</w>
inf ect</w>
ine a</w>
individu ally</w>
inc i</w>
in formal</w>
ill nesses</w>
ill age</w>
ide ology</w>
iP ad</w>
i ding</w>
he li
he ights</w>
he el</w>
harve sting</w>
han dy</w>
h ence</w>
h alls</w>
h acking</w>
good bye</w>
gi gan
gi fts</w>
gec ko</w>
gal actic</w>
ga ining</w>
g ently</w>
g age</w>
frequ ent</w>
fore ground</w>
fish eries</w>
fin anci
fi ghts</w>
fe at
fair y</w>
fa me</w>
f u</w>
f ill
explan ations</w>
ex por
ex cer
ev o
eradic ated</w>
er on</w>
epide mi
enz yme</w>
emplo y</w>
embr y
educ ating</w>
ed ly</w>
ea stern</w>
dro wning</w>
don ations</w>
divi ding</w>
disrup tive</w>
dis connected</w>
dig it
di tions</w>
develop ments</w>
desi res</w>
den y</w>
deci ph
dec entr
de alt</w>
d ors</w>
cul turally</w>
cu st
cru ci
coura geous</w>
country side</w>
coun sel
coordin ate</w>
controver sy</w>
constra ined</w>
con spir
commit tee</w>
coinci dence</w>
coher ent</w>
coast al</w>
co w
co operate</w>
co l</w>
co ined</w>
clean er</w>
cl ing</w>
char ter</w>
certi fied</w>
centi meter</w>
cardi ovascular</w>
car cin
calcul ated</w>
c age</w>
c ables</w>
bul l
bu le</w>
bloc ked</w>
bloc k
bla de</w>
bl an
bi kes</w>
benef icial</w>
begin nings</w>
ban i
bam boo</w>
bac ked</w>
b last</w>
b ind</w>
b are</w>
audit ory</w>
athle tes</w>
as sure</w>
as is</w>
argu ed</w>
are foot</w>
are -
ar ming</w>
appropri ately</w>
appe aling</w>
ant ages</w>
angiogen ic</w>
an ist</w>
ambigu ous</w>
al ter</w>
adop t</w>
acceler ated</w>
ac knowled
a vi
a or
a esthe
a erial</w>
Zi p
Y ear</w>
W ith</w>
Ven us</w>
V ol
V inci</w>
V illage</w>
V enter</w>
Tor onto</w>
TEDM ED</w>
Spr ing</w>
Sk y
Scot tish</w>
S um
S hir
S ad
Rom an</w>
Ro yal</w>
Ro y</w>
Re agan</w>
R ose</w>
R on
Portu gal</w>
Ph ot
P r
P l
Or leans</w>
O dys
Na i
NG O</w>
Mex ican</w>
Mal dives</w>
M art</w>
M ari
Lak ota</w>
L ap
K ir
K ingdom</w>
J ordan</w>
Ira q
I ce</w>
Hum an</w>
Himalay as</w>
Hig gs</w>
G l
Fal con</w>
F il
Eu ropa</w>
Ear th-
Di rec
Detro it</w>
De ad</w>
Comp any</w>
Chri stop
CE Os</w>
CAPTC HA</w>
C ancer</w>
Bro w
Bos nia</w>
Bo y</w>
B each</w>
Argent ina</w>
A V</w>
9 9
8 6</w>
4 4</w>
20 30</w>
196 8</w>
1 25</w>
yo to</w>
ym es</w>
wr ence</w>
world view</w>
week ends</w>
w ounded</w>
w an</w>
volun tary</w>
visu als</w>
ver te
v ar
uni magin
un fair</w>
ultra -
ul sion</w>
ul ative</w>
ty po
tw in</w>
tw enti
tw ea
tu ber
tro ver
transi stor</w>
transc end</w>
tr ay</w>
to wers</w>
tiv al</w>
tion ists</w>
tici sm</w>
thro ws</w>
thr ust</w>
th read</w>
ten ed</w>
tele phones</w>
ta ke-
t ours</w>
t ants</w>
t abo
tabo o</w>
synthe si
susp icious</w>
surve ys</w>
super massive</w>
sul fur</w>
sugge s
stum bled</w>
struc tured</w>
streng ths</w>
stre tched</w>
ste ady</w>
statis tically</w>
st ated</w>
st ap
squee ze</w>
sp ace
smar t
slo wing</w>
sig ning</w>
shr ink</w>
sh allow</w>
secon d-
sec ular</w>
sea food</w>
se iz
sc ope</w>
sc al</w>
san itation</w>
sa r</w>
s per
s no
s ch</w>
s api
ru pe
rigi d</w>
ri ses</w>
resp iratory</w>
resi st</w>
ren dering</w>
rele asing</w>
reg ulate</w>
reci pi
reci pes</w>
re y</w>
re turning</w>
re tr
re ject</w>
re construct</w>
ra ms</w>
qu o</w>
qu al</w>
pun ch</w>
proces sors</w>
pol l</w>
point ment</w>
pip eline</w>
peri o
per cep
per -
pe aks</w>
path ogens</w>
pat ri
parti al</w>
pa thetic</w>
p ond</w>
ou trage
ong side</w>
occup ation</w>
o iled</w>
o e</w>
num b</w>
neuroscienti st</w>
nes see</w>
negoti ation</w>
nee dles</w>
n an</w>
mor ph
mor ally</w>
minist ers</w>
mil it
migr ate</w>
ment ors</w>
mem orial</w>
meaning less</w>
me e</w>
mar in
mar i
magne ts</w>
lo wing</w>
lo ading</w>
lingu istic</w>
light ning</w>
ligh tw
liber ty</w>
less ness</w>
legen dary</w>
lan e</w>
k ling</w>
k it
k ering</w>
journ alism</w>
je ans</w>
inv iting</w>
intervie wing</w>
int ent</w>
insul in</w>
industri alized</w>
inclu sive</w>
in- law</w>
in ti
in er</w>
imag inary</w>
im posed</w>
im icry</w>
ignor ance</w>
id ity</w>
ice berg</w>
ic y</w>
i ors</w>
i ma
i k
hun g</w>
hum p
hop eless</w>
hol der</w>
he ars</w>
h o</w>
guid ance</w>
guaran te
glob alized</w>
glo wing</w>
gigan tic</w>
ger ed</w>
ge ograph
g low</w>
g le
frustr ating</w>
for bid</w>
fo g</w>
fluctu ations</w>
fin e-
film makers</w>
figh ters</w>
fi scal</w>
f ers</w>
exten sive</w>
exten ds</w>
exten ding</w>
ex trover
evalu ate</w>
ep y</w>
enz ymes</w>
environ ment
enti ty</w>
en vy</w>
en rich
emer ges</w>
embo died</w>
ed iting</w>
e u</w>
du ci
dri ft</w>
dou bling</w>
don ation</w>
don ated</w>
discipl inary</w>
disap pointed</w>
disa sters</w>
diplom at</w>
din ing</w>
din gly</w>
differ ential</w>
diff er</w>
diam ond</w>
develop er</w>
delic ate</w>
deli vers</w>
defe at</w>
deci des</w>
de forestation</w>
danc er</w>
d able</w>
cus sion</w>
cur ator</w>
cultiv ate</w>
crow ded</w>
cre ators</w>
conver gence</w>
control ler</w>
contrac ts</w>
continu um</w>
continu ity</w>
contem pl
contag ious</w>
construc ting</w>
consi sts</w>
conser vatives</w>
concei ve</w>
compe tent</w>
compas s</w>
collabor ators</w>
cli ffs</w>
cha otic</w>
ch at</w>
cell o</w>
car -
cam els</w>
ca tive</w>
but t</w>
bum p</w>
break throughs</w>
brea sts</w>
br on
bo ots</w>
blad der</w>
billi on-
be ans</w>
be aches</w>
ban anas</w>
b ending</w>
aze era</w>
avail ability</w>
au tistic</w>
attemp ted</w>
at us</w>
astro lab
ari ous</w>
ar ized</w>
appli ances</w>
any time</w>
anti bodies</w>
anthropo logist</w>
anten na</w>
analy zing</w>
ambigu ity</w>
al ongside</w>
al bum</w>
agnos tic</w>
aff airs</w>
advoc ate</w>
ad jac
ad ds</w>
acci dentally</w>
acceler ation</w>
ab andon</w>
ab ad</w>
a wa
a do</w>
Zip car</w>
Win dows</w>
Wal- Mart</w>
Wal ker</w>
V an</w>
V C</w>
Tit anic</w>
Ten nessee</w>
T ro
Swe dish</w>
St y
So bule</w>
Ro ger</w>
Re ed</w>
R omo</w>
R G</w>
R -
Q atar</w>
O L
Neander thal</w>
N ot</w>
Mur ray</w>
Moun tains</w>
Mc C
M P
M .</w>
Lu ther</w>
Le ban
Le ague</w>
Lap top</w>
La wrence</w>
L en
Kat rina</w>
K yoto</w>
K y
K -
Ju an</w>
J ur
J our
J azeera</w>
J amie</w>
In t
I Q</w>
I D</w>
Hi story</w>
He art</w>
Geor gia</w>
Ge h
G round</w>
G ro
G len
G il
F ort</w>
D ur
D .C.</w>
Cos ta</w>
Ch o
Cam eron</w>
C e
B e</w>
B S</w>
As soci
Amer ic
Ai mee</w>
Afr ic
Ab u</w>
5 7</w>
4 9</w>
4 50</w>
4 .
20 15</w>
2 50,000</w>
198 9</w>
197 5</w>
10 th</w>
1. 3</w>
1 80</w>
1 40</w>
1 -
-and- a-half</w>
- Fi</w>
wrec k</w>
wom b</w>
wi pe</w>
war ms</w>
war m
wan der</w>
wa sting</w>
w ing
w ages</w>
volcan oes</w>
vol umes</w>
voc al</w>
vari ables</w>
v in</w>
v ents</w>
v ent</w>
v ani
v ali
us s</w>
un intended</w>
un ic
un ch</w>
un acceptable</w>
um -
transcen dence</w>
tr unk</w>
top- down</w>
ti pping</w>
thou ghtful</w>
the irs</w>
thank fully</w>
th and</w>
th a</w>
te ap
te am
tan gle</w>
t am
t all
tall er</w>
synthe size</w>
syn c</w>
swa p</w>
surr oun
sur ge</w>
super conductor</w>
subsi di
sub mitted</w>
strug gled</w>
stric tly</w>
stere o</w>
stabi lize</w>
squ ared</w>
sp ine</w>
so le</w>
slog an</w>
sli p
sion ately</w>
sin gers</w>
shrin king</w>
she pher
seven -
seri ousness</w>
ser ver</w>
seas ons</w>
sear ches</w>
schol ars</w>
schizophren ia</w>
scar ce</w>
sc uba</w>
sav an
sandw ich
s ound
ro bi</w>
ri e</w>
reti red</w>
repe ti
relev ance</w>
regi stered</w>
refer red</w>
re generative</w>
re design</w>
re actor</w>
ran e</w>
r aci
quir ing</w>
pul ses</w>
publi sher</w>
pu shes</w>
propor tion
proble matic</w>
pri mal</w>
presum ably</w>
pre ten
pos ture</w>
pon te</w>
polic ing</w>
po orer</w>
po ets</w>
play ground</w>
pi pes</w>
philosoph ers</w>
peri ph
penetr ate</w>
pay ment</w>
path ology</w>
passen ger</w>
par all
p ies</w>
p acking</w>
outrage ous</w>
ou gh
op tics</w>
one- on-
one-on- one</w>
off shore</w>
ob lig
o zone</w>
o v</w>
o o</w>
no ises</w>
ni st</w>
new ly</w>
ner d</w>
nec tar</w>
ne ar-
na ils</w>
na h</w>
n ity</w>
n ish</w>
min or</w>
migr ant</w>
meth odo
metabo lic</w>
men ting</w>
medic ations</w>
mar ch</w>
manife st</w>
man ages</w>
mammo gram</w>
mam mal</w>
main taining</w>
ma tics</w>
low- income</w>
lo wed</w>
lo ops</w>
like wise</w>
lightw eight</w>
liber als</w>
li bri
libri um</w>
le is
kilo grams</w>
ke l</w>
jud ges</w>
jan itor</w>
jac ket</w>
j am</w>
invent ors</w>
introduc ing</w>
infin itely</w>
indic ation</w>
in organic</w>
in door</w>
imp lication</w>
im plants</w>
im planted</w>
ill es</w>
him a</w>
high ways</w>
head aches</w>
har sh</w>
hall way</w>
ha ble</w>
h h</w>
gro ponte</w>
ge ographic</w>
g ill</w>
g ang
fung us</w>
fundra ising</w>
fun eral</w>
foot prints</w>
fol k</w>
fo ol</w>
floo ding</w>
fle x</w>
financi ally</w>
ff ed</w>
femin ine</w>
fat ty</w>
fast- forward</w>
f lock</w>
explor ers</w>
explic itly</w>
exhau sted</w>
exec ution</w>
ex it</w>
ex cess</w>
er ty</w>
equi librium</w>
enthusi astic</w>
ent agon</w>
enlighten ed</w>
eng ths</w>
end less</w>
employe e</w>
emplo yed</w>
emp ir
emis sion</w>
em it
el ines</w>
effec tiveness</w>
ec tors</w>
e ing</w>
e ase</w>
dre ad
drag ged</w>
doc tr
distinc tive</w>
disa d
disad v
dis cre
dis connect</w>
direc ted</w>
diff usion</w>
di son</w>
di ous</w>
descri ptions</w>
den omin
deman ding</w>
dec ei
de vo
datab ases</w>
d unes</w>
d son</w>
d rought</w>
cy ber</w>
curr ents</w>
cum en</w>
cul osis</w>
critici zed</w>
cr abs</w>
coun ty</w>
coo kie</w>
coo ked</w>
conveni ence</w>
con sent</w>
commun al</w>
commis sioned</w>
cock tail</w>
co p</w>
cla ws</w>
cl ari
chal k</w>
ch ord</w>
certi fic
cere al</w>
carbon ate</w>
car pen
cap tain</w>
calend ar</w>
cabin et</w>
brow ser</w>
blue print</w>
ble eding</w>
bl ings</w>
biom imicry</w>
biolumines cent</w>
bill board</w>
bi op
bi ases</w>
ben ign</w>
bassa dor</w>
bani sha</w>
ban kers</w>
b ited</w>
b als</w>
attribu te</w>
attemp ting</w>
aspi rations</w>
as signed</w>
archa e
arbitr ary</w>
ar row</w>
ar ded</w>
appe aring</w>
anno ying</w>
ani mations</w>
ang els</w>
ance stry</w>
an n</w>
an ch
am p</w>
am bul
agre es</w>
ag a</w>
ad er</w>
ach s</w>
acci dental</w>
accep tance</w>
aca demics</w>
ac cent</w>
aby tes</w>
ab alone</w>
Youn g</w>
Yor ker</w>
Wi -Fi</w>
Who a</w>
W ars</w>
V o
U p</w>
U p
To wer</w>
Thir d</w>
Tal k</w>
T ype</w>
T ru
T ed</w>
T ami
T am
Stu dio</w>
So cial</w>
Sk ype</w>
S top</w>
S pi
S pe
S hi
Rou ge</w>
R SW</w>
Power Point</w>
Per u</w>
Pep si</w>
Pan banisha</w>
Off ice</w>
O oh</w>
O .
Nep al</w>
Ne groponte</w>
Nat alie</w>
Nai robi</w>
Moun tain</w>
Med ical</w>
Lo ve</w>
Lin u
Kam en</w>
K ansas</w>
J im
J ama
In di
I R
Hir os
Had ron</w>
H ou
Gree ks</w>
Goo d
Geh ry</w>
G ri
G rand
F ur
Em ma</w>
Di ana</w>
Dan ish</w>
D re
D omin
D G</w>
Col lider</w>
Christop her</w>
Chil dren</w>
C y
C uba</w>
C s</w>
C oll
C -
Brun o</w>
Brazili an</w>
Ber tie</w>
Bar ack</w>
B ren
An dy</w>
Al len</w>
A ges</w>
A gency</w>
A cumen</w>
8 3</w>
2. 0</w>
- hour</w>
- free</w>
- 2</w>
zi p</w>
youn g
wor ries</w>
visu alizing</w>
vir ul
vic tory</w>
vi sibility</w>
val id</w>
va e</w>
v on</w>
v ector</w>
ut op
une qual</w>
un- So
un-So ok</w>
un ite</w>
un folding</w>
u tter</w>
u it</w>
tw ist
tur bul
tuber culosis</w>
tre ss</w>
trac ked</w>
tr um
tol l</w>
to fu</w>
ti stici
three- year-old</w>
thou se</w>
th ick
ten th</w>
temp tation</w>
techn icians</w>
tat or
ta d
t apped</w>
sym pathy</w>
sy stem
susc ep
surroun dings</w>
sub marine</w>
su ms</w>
stro kes</w>
stran gely</w>
ste er</w>
stat ue</w>
star ving</w>
star tling</w>
stand -up</w>
sta tistici
spon sor</w>
sp er</w>
sp ades</w>
sour cing</w>
so ils</w>
sna p</w>
slic es</w>
sle pt</w>
ski p</w>
simul ated</w>
si blings</w>
sho wer</w>
sh ut
sen sible</w>
se am
se aled</w>
sche dule</w>
scaff old</w>
sc at
sc ape</w>
sapi ens</w>
s- on</w>
s ought</w>
s now
s late</w>
rol l
ro s</w>
ro d</w>
ris m</w>
ri pped</w>
ri ghtly</w>
retr osp
respon sive</w>
reson ance</w>
requ ests</w>
replic ation</w>
rela xed</w>
regi ster</w>
re tail</w>
re bel</w>
re b
rail road</w>
ra tive</w>
ra ff
r ank</w>
pun c
pul sion</w>
projec tions</w>
program m
pri mor
pri est</w>
presen tations</w>
pre serving</w>
pp ines</w>
pou red</w>
pos ts</w>
piz za</w>
pir ate</w>
pione er</w>
pic k
ph on
ph any</w>
pestici des</w>
person nel</w>
perman ently</w>
perio dic</w>
pe pper</w>
pe el</w>
pe dal</w>
para dise</w>
par an
out -of-
os si
os copy</w>
orb iting</w>
or i</w>
olo gues</w>
offic ers</w>
ob tained</w>
o logically</w>
nor m</w>
non- profit</w>
no ble</w>
na tionally</w>
na mese</w>
mur dered</w>
mosquit oes</w>
mon ster</w>
modi fied</w>
mo tions</w>
mer chan
ment ality</w>
men u</w>
mean time</w>
mass -
mari ju
mariju ana</w>
manipul ated</w>
man n</w>
m ite</w>
m in</w>
m at</w>
low- tech</w>
los er</w>
liter ary</w>
list en
liber ation</w>
li ation</w>
lea ther</w>
j er
it re
ir rever
ir relevant</w>
interven e</w>
int end</w>
instinc ts</w>
instinc tively</w>
inhab ited</w>
ing- edge</w>
infin ity</w>
in puts</w>
in efficient</w>
in ability</w>
immer sed</w>
immen sely</w>
imagin ative</w>
il literate</w>
hundre d-
hom osex
hi gan</w>
hi d</w>
hea vens</w>
hac ker</w>
gra m
gra ders</w>
gr ounded</w>
gor ous</w>
good ness</w>
gi raff
gi an</w>
gh ost</w>
fra med</w>
fore head</w>
foc uses</w>
flu ore
fla p</w>
fir mly</w>
fi x
fi dd
fashi oned</w>
f ills</w>
eye bro
eye -
expres sive</w>
excep tional</w>
ex port</w>
evol ves</w>
evi dent</w>
eth ic</w>
et al</w>
es say</w>
equ ator</w>
enni fer</w>
ener ge
emplo yment</w>
embrac ed</w>
ell -
el o
el ites</w>
ei gh</w>
e z</w>
dum ped</w>
dr on</w>
disgu sting</w>
dis semin
direc tors</w>
din burgh</w>
digi tize</w>
dig its</w>
deliber ately</w>
dele te</w>
del u
degra dation</w>
decentr alized</w>
dec lining</w>
de t
dan gers</w>
da zz
d une</w>
d econ
d af
cutt ing-edge</w>
crow ds</w>
cros s
critici sm</w>
cri tic</w>
cra wling</w>
correspon ding</w>
cor respond</w>
contribu tions</w>
contain er</w>
conspir acy</w>
consider ation</w>
connec tedness</w>
con ve
comprehen sive</w>
compla ined</w>
compe t
commer ce</w>
comb ining</w>
comb inations</w>
coll ar</w>
coch lear</w>
co ali
clos ure</w>
clean ed</w>
civili an</w>
chl or
character ized</w>
ch unk</w>
ch ers</w>
ch er
ch at
cer am
cent ric</w>
cell ul
cathedr al</w>
cas u
car ved</w>
campaig ns</w>
ca fe</w>
bu z
brut al</w>
broad ly</w>
brea th
bre w</w>
bre ad
boy friend</w>
bo s</w>
bo oms</w>
bo iling</w>
blog gers</w>
bas ics</w>
bar a</w>
az z
automa tic</w>
au top
athle te</w>
athe ists</w>
ath ic</w>
astronom ical</w>
as ym
as s
arran gement</w>
arith metic</w>
ar tery</w>
appl ause</w>
ap oc
ap ar
anim ated</w>
anc ement</w>
anat omy</w>
alo is</w>
alge bra</w>
air ports</w>
ag on
ag as
af fir
aesthe tics</w>
admi re</w>
adjac ent</w>
ad el
acc used</w>
ac cess
absor bed</w>
a tively</w>
a .
Y R</w>
W is
Viet namese</w>
U r
Tami flu</w>
T reas
Sti rling</w>
Star bucks</w>
Ser gio</w>
S up
S ta
S ri</w>
S ome
R ory</w>
R on</w>
R al
Pro te
Pri me</w>
Po li
Phot os
Phili ppines</w>
P lan
P ap
O ur</w>
O pen</w>
Nat ural</w>
N ollywood</w>
N in
Mis sion</w>
Mic higan</w>
Mar ine</w>
Ma thema
M r
M ola</w>
M iller</w>
M R</w>
Linu x</w>
LE Ds</w>
L ine</w>
L ang
L ad
Ke pler</w>
Jour nal</w>
Jon as</w>
Jac qu
J ennifer</w>
J C</w>
J .</w>
In tel</w>
I ri
Hy un-Sook</w>
Har ris</w>
H ub
H ol
H igh
H em
H ei
G alois</w>
FOX O</w>
Europe ans</w>
E dinburgh</w>
Dig ital</w>
DAR PA</w>
D imit
D aw
D L</w>
D I
Co ch
CN N</w>
CI A</w>
C at
C D
Bulg aria</w>
Bi osphere</w>
Bhut an</w>
Bec ause</w>
B us
B s</w>
Ar ts</w>
An th
A L
9 2</w>
8 7</w>
8 0,000</w>
7 0,000</w>
5 00,000</w>
4 00,000</w>
3 9</w>
199 6</w>
198 6</w>
198 5</w>
0- year-old</w>
y- based</w>
y ou
whi sper</w>
wee kly</w>
wea kness</w>
we t
warri or</w>
wa x</w>
vo ic
visit ors</w>
visc eral</w>
vi vi
vi sionary</w>
ver sa</w>
ver ge</w>
vel ing</w>
ve t</w>
valu ed</w>
vag ue</w>
ur ges</w>
univer ses</w>
um ber</w>
um ann</w>
u k
tw i
trou bled</w>
tribu te</w>
tri ple</w>
transl ates</w>
transfer red</w>
trans duc
tr en
toler ant</w>
to- day</w>
ti tion
ti ger</w>
thri ve</w>
the id</w>
th ou</w>
teen th</w>
techn ician</w>
t len
swit ches</w>
swe eping</w>
swe at
suscep tible</w>
superi or</w>
super no
super computer</w>
sup pli
sugges tions</w>
subur ban</w>
su ey</w>
stimul us</w>
stereotyp es</w>
sta dium</w>
st ling</w>
spo res</w>
speci alists</w>
sp aw
sou ls</w>
sk ies</w>
six -year-old</w>
simul ator</w>
simil arities</w>
si gh
si fied</w>
si e</w>
shi re</w>
sha hi
sh ers</w>
sett ings</w>
seren di
se us</w>
se duc
scholar ship</w>
sc ru
sc rap
sc are</w>
satis fy</w>
s sors</w>
s ands</w>
s ali
rul ed</w>
rough ness</w>
ro oted</w>
ro om
ri p
ri al</w>
replic ator</w>
ren ted</w>
remin der</w>
rehab il
rehabil itation</w>
reg on</w>
refer ences</w>
reci pro
re x</w>
re tri
re create</w>
re bel
que z</w>
pub lication</w>
protec ts</w>
primor dial</w>
pri zes</w>
prev ents</w>
prescri ption</w>
prefer red</w>
pre servation</w>
practic ed</w>
posi tively</w>
pos ters</w>
pop ulated</w>
pop s</w>
pop ped</w>
poly mer</w>
po or
pleas ures</w>
pl ying</w>
pione ering</w>
phra ses</w>
persi st</w>
perform ers</w>
pedestri an</w>
pean uts</w>
para meters</w>
pale onto
pa ds</w>
p hia</w>
p acks</w>
over lap</w>
ou tra
ot on
orchestr as</w>
or able</w>
od ynam
obsc ure</w>
o tion</w>
o ops</w>
o li
nur sing</w>
nit ric</w>
neuro logical</w>
ne sts</w>
n ick
muse ums</w>
multin ational</w>
mu ff
mod eled</w>
mo des</w>
mo ck
mis sile</w>
minim ize</w>
min gly</w>
migh ty</w>
micro wave</w>
metaphor ical</w>
memor able</w>
mel ted</w>
medi eval</w>
measu rement</w>
mat ernal</w>
mas sively</w>
mar shm
mar gin</w>
manufac turer</w>
lon g
lo ver</w>
life like</w>
leg ged</w>
le af
lam b</w>
la stly</w>
l ym
kilo gram</w>
ket t</w>
k r
j ury</w>
j uni
j elly</w>
j arg
jarg on</w>
j ack</w>
it a</w>
ir ing</w>
inv aded</w>
introver ts</w>
intrigu ed</w>
intr insic</w>
inter f
interf ere</w>
insi sted</w>
insi st</w>
inher ited</w>
incre mental</w>
in spec
in secure</w>
in hal
in ely</w>
in complete</w>
impro ves</w>
im press</w>
im mortal</w>
im balance</w>
illustr ates</w>
iP ods</w>
hyperbo lic</w>
hu g</w>
hor se
holi stic</w>
holi day</w>
hm oud</w>
hil arious</w>
high- resolution</w>
heli x</w>
heart beat</w>
hat ma</w>
hand ling</w>
guid elines</w>
ground breaking</w>
grand mothers</w>
gra zing</w>
gra tification</w>
gra sses</w>
gr abs</w>
gover ned</w>
go -
gi fted</w>
ger y</w>
geome tric</w>
gener ator</w>
ge ments</w>
gan gs</w>
gad gets</w>
g y-
g osh</w>
g gles</w>
fur ther
ful filled</w>
for um</w>
for bi
follo wers</w>
floo ds</w>
fl ags</w>
finger tips</w>
fil ing</w>
fi er
fe es</w>
fabric ation</w>
f i</w>
extinc tions</w>
explo de</w>
exist ential</w>
exclu sive</w>
ev a</w>
est rogen</w>
es -
er gy</w>
er ase</w>
epilep sy</w>
epi phany</w>
enti tled</w>
en vision</w>
empower ment</w>
empha sis</w>
em pires</w>
ell i</w>
el ope</w>
el ess
el -
ed itors</w>
ed ited</w>
ec o-
du g</w>
drin ks</w>
dr ank</w>
down stairs</w>
domes tic
do ve</w>
disc oun
digit ally</w>
dic tator
di ge
detec tors</w>
desi r
demo graphics</w>
del a
def ending</w>
de ath
day- to-day</w>
cust om</w>
cur ved</w>
cur sor</w>
cu es</w>
cra fted</w>
corpor ation</w>
cor tical</w>
cool er</w>
contex ts</w>
contamin ated</w>
cont acts</w>
confer ences</w>
conclu sions</w>
concei ved</w>
compla ining</w>
commerci als</w>
com plain</w>
com et</w>
collap ses</w>
clin ically</w>
cigare tte</w>
cho re
chim ps</w>
cap tures</w>
ca m</w>
bur ns</w>
bul k</w>
bu ll</w>
bu g
bron ze</w>
broad casting</w>
bra kes</w>
br ac
book store</w>
bo w
bloc king</w>
black -
bicy cles</w>
be st-
be dro
batt le
bal ances</w>
ba ker</w>
b lob
b b
b -
audit orium</w>
au g
atmospher ic</w>
at able</w>
assem bling</w>
arro g
arri ving</w>
ar teries</w>
apar theid</w>
ap ol
anti angiogenic</w>
anthropo logy</w>
anthropo logists</w>
ambi a</w>
altru ism</w>
ag ina</w>
aer odynam
adolesc ents</w>
adel phia</w>
ad vis
ad ventures</w>
accomp li
ac es</w>
aby te</w>
ab normal</w>
ab ama</w>
a wards</w>
a tives</w>
a than</w>
a ka</w>
Wi red</w>
Wa it</w>
W hole</w>
UC LA</w>
U shahi
T en</w>
T D</w>
Sto ck
Som alia</w>
Sib eria</w>
Si de</w>
Sho ots</w>
Ser vice</w>
S how</w>
S he</w>
RI SD</w>
R and
Qu e
Phil adelphia</w>
O regon</w>
O per
Mo der
Medic ine</w>
Man n</w>
Mag az
Ma j
Ma hmoud</w>
Ma hatma</w>
M itch
M es
M aria</w>
Lib ya</w>
Lar ge</w>
L ittle</w>
L am
L abs</w>
Kle in</w>
Kh mer</w>
K han</w>
Isa ac</w>
Int ellig
Indu strial</w>
I l
I DE
IDE O</w>
Hung arian</w>
Ho ly</w>
Hiros hima</w>
Hill is</w>
HIV- positive</w>
H op
H it
H al
Gre y</w>
Gre g</w>
F BI</w>
Ed ward</w>
Earth- like</w>
E cu
E aster</w>
Du bai</w>
Demo cratic</w>
D ol
D M
Com mand
Ci vil</w>
Che e
CA D</w>
C Ds</w>
Bus iness</w>
Bu d
Bri g
Ben ki</w>
Bar bara</w>
Associ ation</w>
Ar chit
Ar chie</w>
Antar ctic</w>
Al abama</w>
A ward</w>
A id</w>
A g
A A</w>
9 3</w>
8 4</w>
7 7</w>
4 6</w>
3 0
2 6
198 3</w>
15 th</w>
12 th</w>
1. 2</w>
1 10</w>
zo o</w>
zer os</w>
y land</w>
y able</w>
win -
wil derness</w>
whist le</w>
whi p</w>
wavel ength</w>
water fall</w>
ware house</w>
war d
wal let</w>
w ounds</w>
volcan o</w>
vol ts</w>
ver side</w>
ve il</w>
vast ly</w>
vari ed</w>
val ves</w>
v as
us able</w>
urban ization</w>
ur gency</w>
uni st</w>
uni fied</w>
under way</w>
under graduate</w>
un ted</w>
un healthy</w>
tur tles</w>
tur b
tu c
tru sting</w>
trade- offs</w>
tor n</w>
tor ing</w>
time- lapse</w>
tim ber</w>
ti tled</w>
ti gers</w>
thi eu</w>
ther mo
the ft</w>
tex ting</w>
ta h</w>
t- based</w>
t tes</w>
t ans</w>
swe ar</w>
swa m</w>
sup pos
suppos edly</w>
suc ked</w>
subur bia</w>
substanti ally</w>
subsi dies</w>
su ed</w>
stri pped</w>
stra in</w>
str ous</w>
str at
ste pping</w>
sta kes</w>
st ole</w>
squ are-
speech es</w>
spar k</w>
space- time</w>
space ship</w>
sp ins</w>
smar test</w>
small- scale</w>
sm ug
sli me</w>
simpli fy</w>
simil arity</w>
sha dows</w>
sh outing</w>
separ ating</w>
sel ler</w>
sc ram
sc ars</w>
sc and
sat ur
sandwich es</w>
sa ti
sa ges</w>
s ick
s ank</w>
rupe es</w>
ru in</w>
rin ging</w>
ri p</w>
ri g</w>
revel ation</w>
restric ted</w>
remot ely</w>
rel uc
regar ded</w>
recla im</w>
realiz es</w>
re tain</w>
re m
re inventing</w>
re discover</w>
re actors</w>
raci al</w>
rac ism</w>
rac es</w>
r ating</w>
quot es</w>
que ens</w>
quanti ty</w>
pup pet</w>
pub erty</w>
provo cative</w>
proto col</w>
pros the
projec tor</w>
proj ecting</w>
proble m-
pro ves</w>
pro hi
pres ent-
prefer ences</w>
prac tition
pra yers</w>
pra g
pop ping</w>
poor ly</w>
plot ted</w>
plac ement</w>
pit ches</w>
pi x
persu a
perpe tu
perpe tr
perform ances</w>
percep tual</w>
part ments</w>
parag rap
p raise</w>
p ine</w>
p he
p au
p ad
osc ale</w>
os ion</w>
os evel
osevel t</w>
org es</w>
oran gu
op position</w>
om ist</w>
offen sive</w>
ob iles</w>
o e
o ch
num ber
nucle i</w>
nin th</w>
nic us</w>
ni an</w>
ne west</w>
navi gation</w>
nan oscale</w>
n t</w>
n ouri
mun ic
motiv ates</w>
mos que</w>
mon thly</w>
mon th-
mon sters</w>
mon opo
mo ther
mir ac
min eral</w>
middle- class</w>
mid night</w>
mess ing</w>
meas urable</w>
me ta
mathema tically</w>
mar ri
mand ate</w>
man- made</w>
main tained</w>
mag g
magg ots</w>
ma ma</w>
lum p</w>
loc ate</w>
lin e
lim itation</w>
lifel ong</w>
lic k
lick r</w>
li qui
le vit
lau re
lar vae</w>
la zy</w>
la sted</w>
la kes</w>
la h</w>
know -
kno cked</w>
kni ves</w>
kill ers</w>
ket ball</w>
k ansas</w>
jun ction</w>
jug gl
j ection</w>
j e</w>
is ons</w>
ir onically</w>
ir onic</w>
inv ites</w>
introduc es</w>
inter galactic</w>
integr ating</w>
infl ation</w>
in ject</w>
in fer
in doors</w>
imp ose</w>
im por
im itation</w>
il ey</w>
il -
ide ological</w>
horri fic</w>
hol m</w>
hob by</w>
hi l</w>
her d</w>
ham mad</w>
ha ired</w>
h ull</w>
h ir</w>
h ack</w>
guarante ed</w>
gri p</w>
graph ical</w>
gra ding</w>
go od-
glo ves</w>
gl as</w>
gh arial</w>
ger m</w>
gene tici
ge ars</w>
g ossi
g ically</w>
free ze</w>
fra ming</w>
fool ed</w>
foc al</w>
fl ames</w>
fit ted</w>
fil ming</w>
fif teen</w>
femin ism</w>
fair ness</w>
fa int</w>
f ans</w>
f MRI</w>
expres sing</w>
explos ions</w>
explic it</w>
experim entation</w>
expe ditions</w>
exhibi tions</w>
excer pt</w>
exc es
evolu tion
escap ed</w>
emit ted</w>
elev ation</w>
effici ently</w>
ec ologist</w>
e ste
e ps</w>
dum ping</w>
dum p</w>
dread ful</w>
domin ate</w>
domin ance</w>
do s</w>
divi d
diver gence</w>
distur bed</w>
distr acted</w>
dis played</w>
dis placed</w>
dis c</w>
dis abilities</w>
diplom atic</w>
di vers</w>
di sh
desir able</w>
depri vation</w>
depres sants</w>
depen ded</w>
decon struc
de light
de er</w>
dan e</w>
d y-
cy matics</w>
cum ulative</w>
cu bic</w>
cryst al</w>
cro ch
cra wl</w>
cra m
cr ater</w>
corru p
cook ies</w>
contain ers</w>
compos ite</w>
competi tors</w>
compar isons</w>
comp ose</w>
comp act</w>
commis sion</w>
comm ute</w>
colli de</w>
co res</w>
co bra</w>
co ach</w>
cl oned</w>
che wing</w>
char ts</w>
char is
ch op
ch ester</w>
ch arities</w>
celebr ating</w>
casu alties</w>
care ers</w>
carb ons</w>
car riage</w>
capsu le</w>
capit alist</w>
cali br
calcul ators</w>
ca stle</w>
c ue</w>
bureau cratic</w>
bu ys</w>
brilli antly</w>
brilli ance</w>
br anding</w>
bo thered</w>
bo t</w>
bl end</w>
biot ech</w>
bio graphy</w>
bio energy</w>
bi b
bi ased</w>
belon ging</w>
bee keepers</w>
be ats</w>
be ast</w>
be ard</w>
bas ketball</w>
ban ker</w>
bal lot</w>
bal ancing</w>
ax e</w>
autom obiles</w>
au l</w>
ate -
at -
assign ments</w>
assi stant</w>
as so</w>
as ser
artic ulate</w>
arre tt</w>
arran gements</w>
arch et
ar dian</w>
appar ent</w>
appar atus</w>
apologi ze</w>
anz i</w>
anticip ated</w>
announ cement</w>
al yp
al together</w>
al arming</w>
adverti se
adv antages</w>
adul thood</w>
adolesc ent</w>
ad or</w>
ac tu
ac ker</w>
ac commod
ab used</w>
a unt</w>
Wal ter</w>
V s</w>
Ushahi di</w>
Turk ish</w>
Tre ating</w>
To yota</w>
TED ster</w>
T uni
T own</w>
T echnology</w>
T B</w>
Sud hir</w>
Stock holm</w>
Stan ley</w>
Schwar z
SO PA</w>
S ym
S ac
S MS</w>
Rus sell</w>
Ro osevelt</w>
Ri ft</w>
Res er
R ho
Prin ce</w>
Pol and</w>
Pakist ani</w>
PI SA</w>
P op
P entagon</w>
P .</w>
Or chestr
Nor thwest</w>
No ah</w>
N O
Mu hammad</w>
Mr s.</w>
Mol as</w>
Mo vement</w>
Mitch ell</w>
Mis s</w>
Mer maid</w>
Magaz ine</w>
Ma x</w>
Ma p</w>
M ore</w>
M it
M en</w>
M D</w>
Lu ke</w>
Lib eria</w>
Lang ley</w>
L ind
Ken yan</w>
K ab
K S</w>
Jo han
Jo el</w>
Jacqu eline</w>
J on</w>
IM F</w>
I g
I N
Hy per
Hu dson</w>
Ho locaust</w>
Hit ler</w>
H O</w>
Gu ardian</w>
G ran
G od
G ive</w>
G an
Fri ed
Fo x</w>
Fin land</w>
Fi ve</w>
F ra
F lickr</w>
En lighten
Egyp ti
E lec
E .</w>
Dol by</w>
Di am
Den nis</w>
Cu ban</w>
Coper nicus</w>
Con nec
Com pu
Chan nel</w>
C op
C lu
Bon obo</w>
Bo ok</w>
Ber n
Bal i</w>
Bab ylon</w>
B ond</w>
B eck</w>
Austri a</w>
Ar kansas</w>
Anth ony</w>
An n</w>
Afric an-American</w>
A x
A qu
A I</w>
A .
5 4</w>
2. 5</w>
2 ,500</w>
199 3</w>
199 2</w>
198 2</w>
197 6</w>
197 3</w>
194 9</w>
1, 200</w>
1 60</w>
wor n</w>
wind mill</w>
whis per
wer ing</w>
wea ving</w>
wan a</w>
w ob
w ned</w>
vir gin
viol ate</w>
vie wers</w>
vibr ant</w>
vi lion</w>
ver ted</w>
ventil ation</w>
v ascular</w>
v als</w>
ur gent</w>
unimagin able</w>
understand able</w>
un related</w>
un g
un fold</w>
un cles</w>
un aware</w>
um onia</w>
um ination</w>
u ph
typ ed</w>
ty ard</w>
tw enty</w>
tu b</w>
tru st
trium ph</w>
trig gers</w>
tre ats</w>
transmit ter</w>
transduc er</w>
tra tion</w>
tox in</w>
tough est</w>
tou rism</w>
tor na
tor al</w>
toler ate</w>
toil ets</w>
to- peer</w>
to- one</w>
to aster</w>
tic ut</w>
tic king</w>
thro wa
thro at</w>
three- quarters</w>
the on</w>
ter restrial</w>
ter minal</w>
tecton ic</w>
technologi sts</w>
teap ot</w>
tax pa
tap ed</w>
ta tives</w>
ta ke
syrin ge</w>
superno va</w>
super markets</w>
sup press</w>
sun ny</w>
suff ers</w>
subur bs</w>
sub stitute</w>
su mer
stra w</w>
stimul ated</w>
stig ma</w>
sti r
ste ering</w>
statis tic</w>
st ats</w>
st acks</w>
speci alization</w>
sp ouse</w>
sp ines</w>
sl am
sigh ted</w>
side ways</w>
side walk</w>
sho w
sho re
sho ots</w>
sh ments</w>
sever ely</w>
settle ments</w>
ser ial</w>
sel ective</w>
sel ecting</w>
secre tly</w>
seas onal</w>
se diment</w>
sci ssors</w>
scenari os</w>
scar city</w>
sau l
satur ated</w>
sab ba
s warm</w>
s tics</w>
s ari</w>
rul er</w>
ru shed</w>
ru ption</w>
ru ci
room mate</w>
ro w
ro ts</w>
ro de</w>
ridic ul
rich ness</w>
ri der</w>
rhin o
respec ts</w>
respec tive</w>
respec tful</w>
reson ate</w>
resi dential</w>
rela tional</w>
rel ying</w>
reg ain</w>
refl ecting</w>
recor dings</w>
reconci liation</w>
recei ver</w>
real- world</w>
re sort</w>
re productive</w>
re moves</w>
re invent</w>
re fin
re cl
re building</w>
re ar</w>
ran o</w>
radi o
r ant</w>
qui z</w>
ques tion
quanti tative</w>
pur se</w>
psychiat rists</w>
prov ince</w>
protec tive</w>
prosp ect</w>
pron oun
program mer</w>
proce ed</w>
pro of
prin ce</w>
predat ory</w>
preci pit
pre cau
pra h</w>
pr one</w>
por k</w>
pollu ted</w>
pl ywood</w>
pill ars</w>
pi gmentation</w>
pi anist</w>
physi ological</w>
photograph ing</w>
pho bic</w>
pharmaceu ticals</w>
persist ent</w>
perf ection</w>
peer- to-peer</w>
pe ar
pay off</w>
pay ments</w>
parti ally</w>
paradig ms</w>
par tis
p pe</w>
p ne
pne umonia</w>
over fishing</w>
ou x</w>
ou sed</w>
orphan age</w>
or ch
opa que</w>
op i
ona ire</w>
on set</w>
om at
ograp her</w>
ogen ic</w>
offici ally</w>
oce an
occu pa
oblig ation</w>
nutri tional</w>
note book</w>
nor theast</w>
no ve
neighbor ing</w>
nee ding</w>
mur der
munic ations</w>
multi- touch</w>
mu tually</w>
motor cycle</w>
mock ing
mis m</w>
min g
mim icking</w>
mess ed</w>
memor ize</w>
mega -
me tics</w>
mat s</w>
mas ks</w>
marshm allow</w>
marri ages</w>
manu el</w>
man gro
make up</w>
main frame</w>
ma x</w>
m ics</w>
lym ph</w>
lower ed</w>
loo m</w>
liz es</w>
lin o
lex icon</w>
leis ure</w>
leg ally</w>
la va</w>
l yr
l ousy</w>
l acking</w>
kin dly</w>
ke en</w>
je al
j i
is tically</w>
ir man</w>
investiga tive</w>
intui tively</w>
intui tions</w>
inter ro
inter nationally</w>
inter ference</w>
inter -
intell ect</w>
inte stine</w>
inj ected</w>
ind ul
in ner
in mates</w>
in directly</w>
in corporate</w>
in car
in adequate</w>
imag inations</w>
im port</w>
im a</w>
ill umination</w>
idi ot</w>
identi ties</w>
i or
hypothe ses</w>
hydro carbons</w>
hus bands</w>
hur ts</w>
hur ricane</w>
hum ara</w>
histor ians</w>
hi ke</w>
head ache</w>
he mo
he els</w>
he dron</w>
haz ard</w>
hand s-on</w>
hand ic
h ran</w>
h our
h ats</w>
gur u</w>
gu ided</w>
gre ed</w>
gra di
genu inely</w>
gen s</w>
gen esis</w>
gam ma</w>
g yrus</w>
g our
g gling</w>
further more</w>
func tionality</w>
ful fill
fulfill ment</w>
fu eled</w>
fronti ers</w>
fron t-
form ers</w>
fore cast</w>
fol der</w>
fo li
fli pping</w>
fla shing</w>
fil tered</w>
fi shes</w>
ff ing</w>
fac ul
fac e-
f uck</w>
f ty</w>
f red</w>
extre mism</w>
extrac ted</w>
explo rer</w>
experim enting</w>
expen dit
exc ruci
ever s</w>
eth n
este em</w>
establi shment</w>
enti als</w>
ent ine</w>
ener gi
en d-
en ched</w>
en berg</w>
empath ize</w>
emer gent</w>
ema iled</w>
em en
ell ers</w>
el le</w>
el der</w>
econ ds</w>
ech o</w>
e- up</w>
e tic</w>
dri ed</w>
dre sses</w>
dra ma</w>
don ate</w>
dispos al</w>
disp ar
dispar ate</w>
dis si
dis belief</w>
differenti ate</w>
diag rams</w>
di min
deter ior
deser ts</w>
den i
del usion</w>
de o</w>
dam s</w>
daf -2</w>
da unting</w>
d u</w>
d anced</w>
d addy</w>
cul t</w>
cu shi
croch et</w>
cra shing</w>
cour tyard</w>
cost- effective</w>
constitu tion</w>
confir med</w>
concer ts</w>
concep tions</w>
concent rations</w>
con sumer
con fusion</w>
con firm</w>
con den
compan ion</w>
commun ity-
comm unist</w>
collabor ating</w>
coll ector</w>
col m</w>
cock pit</w>
cli mat
classi fied</w>
citiz en
chem ists</w>
certific ate</w>
centi meters</w>
cen ium</w>
ce l</w>
cas ual</w>
carb s</w>
car ve</w>
calcul ator</w>
c row</w>
butter flies</w>
bor rowing</w>
bo om
blob s</w>
ble ssing</w>
bi o</w>
ber to</w>
beli ever</w>
be having</w>
bas sy</w>
ban ana</w>
ba o</w>
ba kery</w>
b ats</w>
avi ation</w>
aur a</w>
au ction</w>
att end</w>
at eral</w>
astronau ts</w>
assum es</w>
ar rows</w>
ar in</w>
apoc alyp
aor ta</w>
anti dot
announ cing</w>
announ ce</w>
ani um</w>
analy tical</w>
an gel</w>
amp hi
ambul ance</w>
all ing</w>
alig ned</w>
al pha</w>
air -
ad mit
accum ulation</w>
abstr action</w>
a humara</w>
Z K</w>
Y ale</w>
Wit ness</w>
War ner</w>
W ord</w>
W ed
W HO</w>
Victori an</w>
V agina</w>
US DA</w>
US C</w>
Tar ahumara</w>
Tai wan</w>
T um
T ric
T O</w>
Super man</w>
Si oux</w>
Ser ge
Sen ate</w>
Sad dam</w>
Sa int</w>
Sa fe
S wa
S op
S low</w>
S ene
S c
S av
S -
Ro ots</w>
R ush</w>
R um
R ot
R ag
Pi er
Palestini ans</w>
PI PA</w>
PE C</w>
P sy
P L</w>
Orchestr a</w>
O prah</w>
O PEC</w>
Ne umann</w>
Naz i</w>
N ev
N et</w>
N avy</w>
N I
Mul l
Mos cow</w>
Mini stry</w>
Mar shall</w>
Mal colm</w>
Mach ine</w>
M ill
M T
M BA</w>
Leban on</w>
Lad en</w>
L evi
L abor
K ap
K al
Ju da
Jas on</w>
Jan ine</w>
J ess
In no
I P</w>
I .</w>
Hub ble</w>
Hind u</w>
H us
H ur
H an</w>
H 5
H5 N1</w>
Gu inea</w>
Gre ece</w>
Gar den</w>
G ir
G ary</w>
Fi elds</w>
Every thing</w>
Every body</w>
Enlighten ment</w>
E mer
E le
E is
E ff
E ames</w>
E B</w>
Du ke</w>
Dou g</w>
Da vis</w>
D oc
D ic
D J</w>
D D</w>
Connec ticut</w>
Colom bia</w>
Col or
Coch rane</w>
Co oper</w>
Co hen</w>
Chi ef</w>
Ch ap
C lau
C .
Brow ne</w>
Bri dge</w>
Bil ly</w>
Bi har</w>
Ba gh
BM W</w>
B ollywood</w>
B est</w>
B and-
B BC</w>
Austr alian</w>
Al fred</w>
Ach illes</w>
A venue</w>
A BC</w>
8 .
7 1</w>
6 2</w>
50 th</w>
5 6</w>
5 -
4 0-
3 ,
197 4</w>
19 00</w>
. C</w>
y m</w>
y elling</w>
work shops</w>
won d
wond rous</w>
wi shed</w>
warm th</w>
war n</w>
vol a
vo res</w>
vivi dly</w>
virtu es</w>
vill agers</w>
vie w
ver tically</w>
ver bs</w>
vege tation</w>
ve ins</w>
vag inas</w>
v icious</w>
v age</w>
uri ti
ur man</w>
up loaded</w>
uni form
unbeliev ably</w>
un ra
un predictable</w>
un limited</w>
un ky</w>
um bre
umbre l
umbrel la</w>
ul ates</w>
u el</w>
u ber
ty ran
twenti eth</w>
tur tle</w>
tu toring</w>
tu tor</w>
tu re-
tu cked</w>
tu ary</w>
trou bling</w>
trick ster</w>
tri fied</w>
tre ad
trans national</w>
to wel</w>
til t</w>
ti tan
ti fying</w>
ti er</w>
ti de</w>
thri ving</w>
thre ads</w>
thou ght-
therap ist</w>
th en
testi mony</w>
ten se</w>
telec om
te se</w>
ta sted</w>
t apes</w>
symp tom</w>
swe pt</w>
swe ep</w>
suspec ted</w>
surpri ses</w>
super power</w>
sug ars</w>
sub jective</w>
sub conscious</w>
su shi</w>
stron gest</w>
strat osphere</w>
stor ing</w>
ster ing</w>
standardi zed</w>
ss ly</w>
squ irre
squ atter</w>
spon sored</w>
sper m</w>
specim ens</w>
speci alize</w>
sor ship</w>
soci etal</w>
sne ak</w>
sna ils</w>
ski ing</w>
sk ins</w>
sk in
sil ks</w>
si z
si ssi
sh red
sh out</w>
ser vers</w>
sequ el</w>
self- organization</w>
se minal</w>
sc roll</w>
sc r
sc or
sal ad</w>
sabba tical</w>
s sively</w>
s sim
s op
s ect</w>
s ane</w>
ru ined</w>
ru gu
rugu ay</w>
ru b</w>
ron ym</w>
ro le-
rhe tor
retro viral</w>
respec ting</w>
requi rements</w>
requi rement</w>
represen tatives</w>
rep tiles</w>
renew ables</w>
ren he
renhe it</w>
reliev ed</w>
rela x
reg ulated</w>
ref ers</w>
recomm en
recei ves</w>
rea dily</w>
re use</w>
re plied</w>
re moving</w>
re frame</w>
re a</w>
rat ings</w>
ran ges</w>
ran e
rane an</w>
ra tic</w>
ra ging</w>
r ated</w>
quir y</w>
quick er</w>
quar ks</w>
py ra
pup pets</w>
pu ppy</w>
prov in
prote omics</w>
pros cenium</w>
prophe t</w>
promot es</w>
programm able</w>
pro tons</w>
pro pulsion</w>
pro pri
pro ph
predic ts</w>
pre vail
pp ies</w>
pp i</w>
post cards</w>
pos it
por no
pop -up</w>
poll s</w>
pol ite</w>
po ols</w>
pl enti
plenti ful</w>
pl au
pi gmented</w>
photosyn thesis</w>
philanth ropic</w>
pha ses</w>
ph y</w>
person alization</w>
perform er</w>
per y</w>
pen ic
penic ill
penicill in</w>
pe tals</w>
pe ssim
pe ek</w>
passen gers</w>
pas sport</w>
pas sively</w>
pas sionately</w>
particip ated</w>
par tici
par t-
par o
pain ter</w>
pac kets</w>
pa ign</w>
p pers</w>
p ore</w>
p ins</w>
p at</w>
p ant</w>
p ace
oy sters</w>
over l
out si
out door</w>
ot er</w>
os aurus</w>
ori entation</w>
op ed</w>
on th</w>
on ion</w>
on es
ones el
onesel f</w>
on dri
om al
ol l</w>
o dd
nutri ent</w>
no t-
new s
nes ota</w>
nes day</w>
ner dy</w>
nanome ters</w>
na e</w>
n acle</w>
my ri
mun ici
mu st
modi fy</w>
modern ism</w>
mo or</w>
mo ons</w>
mo ist
mir acles</w>
mini atur
min i</w>
mim ics</w>
middle- aged</w>
mer ge</w>
mem bran
mea dow</w>
margin s</w>
mar ries</w>
manufac tured</w>
man ure</w>
ma dness</w>
m um
m ills</w>
loy alty</w>
low- up</w>
lon ging</w>
log ged</w>
loc k
lob es</w>
loa f</w>
liz ation</w>
li ti
lex ic
lean or</w>
lean ing</w>
le ys</w>
le ton</w>
le m</w>
la titude</w>
l wind</w>
l ings</w>
ks giving</w>
ke f
kef eller</w>
k n
k man</w>
k ite</w>
jud ging</w>
joy ful</w>
itre ya</w>
is er</w>
ir rit
investi gating</w>
inva sion</w>
inti mid
inten sely</w>
inspi rational</w>
inser t</w>
inf lic
indic ated</w>
inci dents</w>
imm unity</w>
im pe
illi ant</w>
illi an</w>
ide als</w>
i shes</w>
hy ena</w>
hur ry</w>
hump back</w>
hos tility</w>
hol low</w>
hi stories</w>
her tz</w>
he ter
he sive</w>
he im</w>
har mon
hand some</w>
han gs</w>
habit able</w>
ha ul</w>
h renheit</w>
h ill
h ex
h em
h ap
gu ts</w>
great- great-
grass lands</w>
grass land</w>
gra ff
graff iti</w>
gr in
gr ace
gl u
gen y</w>
gen omic</w>
ge ological</w>
fundam ent
ful fill</w>
free doms</w>
frac tals</w>
fra gmented</w>
fore most</w>
for gi
flu ids</w>
flouri shing</w>
fl our</w>
fl ed</w>
fl atten
fit ness</w>
fish ery</w>
fire men</w>
fin s</w>
fic tional</w>
fi ve
ff er</w>
fel lows</w>
fe e</w>
fashi on
fai ths</w>
fa x</w>
extrac ting</w>
extra -
expres ses</w>
exp ands</w>
exces sive</w>
exam ined</w>
evapor ate</w>
et y-
et ty</w>
er r
er osion</w>
er at
er ana</w>
ep it
enti ce</w>
enni al</w>
enjo yable</w>
energe tic</w>
ener gy-
ener gies</w>
encoun ters</w>
en during</w>
emp t</w>
em body</w>
elu sive</w>
ell ular</w>
ell ar</w>
elimin ating</w>
elev ated</w>
el and</w>
ed it
ec tom
e dible</w>
dynam ically</w>
du plic
dri p</w>
dre ssing</w>
dr ums</w>
down loaded</w>
divid end</w>
disper sed</w>
disc arded</w>
difficul ties</w>
diagnos tics</w>
di stil
di gest</w>
determin ing</w>
deplo yment</w>
denomin ator</w>
den ied</w>
den gue</w>
democr acies</w>
delight ful</w>
deep- sea</w>
de scen
dat a-
damag ing</w>
d war
d urable</w>
d ging</w>
cu tter</w>
cri ses</w>
cra shed</w>
cr ust</w>
cou ples</w>
cou pled</w>
cosmo logy</w>
cos tly</w>
cor ds</w>
cop s</w>
conv ul
contem plate</w>
con test</w>
con fuse</w>
compet ence</w>
comp ens
commun ism</w>
comm ands</w>
comm and
coll ects</w>
cogni tion</w>
cockro ach</w>
coali tion</w>
co ins</w>
co ated</w>
clos es</w>
clas h</w>
cla p</w>
cl one</w>
cin ema</w>
chi efs</w>
che ated</w>
char ming</w>
char ging</w>
chap ters</w>
chan n
cham bers</w>
ch unks</w>
centr alized</w>
cen ter
cell phones</w>
ce phal
cataly st</w>
catalo g</w>
campaig ning</w>
cab in</w>
ca fe
c one</w>
byp ass</w>
bur sts</w>
bur gl
bum ble
bu rial</w>
brow se</w>
breath taking</w>
br ute</w>
br icks</w>
bot tlen
bor g</w>
bom bing</w>
bom bar
bo ils</w>
blue prints</w>
blog osphere</w>
blog ger</w>
biomat erials</w>
bio tic</w>
big -
bi polar</w>
ber erana</w>
bedro ck</w>
be ams</w>
bal last</w>
back ward</w>
b os
b is
b ins</w>
automo tive</w>
autom ated</w>
at re</w>
at er
astrolab e</w>
ast ounding</w>
aspi ration</w>
as sign</w>
as saul
arri val</w>
ari ot</w>
argu ably</w>
ar che
appro val</w>
appl au
appe ti
ap min
ap e
antidot e</w>
anten nae</w>
and an</w>
an omal
an ag
all ed</w>
after math</w>
aff ection</w>
adop ting</w>
administ rative</w>
addre sses</w>
achiev ements</w>
ac ronym</w>
ab ri
a v</w>
a ties</w>
a b</w>
Y emen
Wed nesday</w>
Wal mart</w>
Vir tual</w>
Ven ice</w>
Ve gas</w>
V- Day</w>
V el
U ruguay</w>
Tum or</w>
Tro y</w>
Treas ure</w>
Th ula</w>
Te hran</w>
TED Women</w>
T so</w>
Sym phony</w>
Sy ria</w>
Sur vey</w>
Ste fan</w>
Sp ec
Sky car</w>
Si x
Se th</w>
S ug
S cienti
S atan</w>
S M</w>
S E</w>
Ron ald</w>
Roc kefeller</w>
Ri verside</w>
Ren aissance</w>
Re zero</w>
R and</w>
R O
Pot ter</w>
Poli ce</w>
Plan et</w>
Pau lo</w>
Pa ti
P ran
P S</w>
Nor se</w>
Nev ada</w>
N M</w>
Min nesota</w>
Mill ennium</w>
Mid west</w>
Mi ster</w>
May be</w>
Mathema tica</w>
Mas low</w>
Mal tese</w>
Ma ke</w>
Ma itreya</w>
M et
Le o</w>
La ur
L en</w>
L e</w>
K ath
K aren</w>
K anzi</w>
K ah
K T</w>
Juda ism</w>
Jim my</w>
J ustice</w>
J ab
In uit</w>
I V</w>
Hom er</w>
He brew</w>
Har lem</w>
HI N</w>
H oney</w>
H on
H mm</w>
H il
Gil bert</w>
Gen ome</w>
GP HIN</w>
G s</w>
G race</w>
G over
G ould</w>
G apmin
Fa ther</w>
Fa hrenheit</w>
F ree
F orest</w>
F ore
Ex xon</w>
Es ther</w>
E ri
E leanor</w>
E den</w>
E 8</w>
Dimit ri</w>
Den nett</w>
De pression</w>
Daw kins</w>
D od
D ev
D D
Command ments</w>
Color ado</w>
Clu b</w>
Ch icken</w>
Cam paign</w>
Ca sey</w>
C up</w>
C ross</w>
C ent
C P</w>
C P
C L</w>
Buil ding</w>
Bu ff
Broad moor</w>
Brig ades</w>
Br illiant</w>
Bat man</w>
B yr
B un
B ever
B -
Aus tin</w>
Am anda</w>
Al- Qaeda</w>
Al li
Al i</w>
99 .
8 9</w>
8 2</w>
5 3</w>
3 5,000</w>
20 12</w>
196 7</w>
196 2</w>
19 18</w>
1, 100</w>
z we
z ra</w>
young sters</w>
yo gur
yn th
ynth ia</w>
ym ers</w>
year ning</w>
y rin
y l</w>
xim ity</w>
x- ray</w>
x t
xt apos
wr on
wr ink
work shop</w>
woo d
wi de-
what not</w>
wh ite
ward ship</w>
w ol
w iz
w elling</w>
virtu ous</w>
viol ation</w>
vibra tions</w>
verte br
veri fy</w>
ven tion</w>
va o</w>
v ory</w>
v old</w>
v ine</w>
v aged</w>
uti lit
us -
ur ine</w>
ur anium</w>
up load</w>
unemplo yment</w>
under wear</w>
un thin
unthin kable</w>
un sustainable</w>
un cover</w>
un certain</w>
un a</w>
ul ture</w>
uc ose</w>
u no
typo graphy</w>
twist ed</w>
trig gered</w>
treat y</w>
tread mill</w>
transforma tions</w>
trage dies</w>
tra ded</w>
tr unks</w>
tr i</w>
tr ance</w>
tough er</w>
tou rists</w>
to ken</w>
tin kering</w>
tim eline</w>
thum b
throwa way</w>
thin ess</w>
ther- in-law</w>
ther land</w>
ther ine</w>
the st</w>
ter- gather
te gr
te ddy</w>
tax i</w>
tat to
tack ling</w>
ta kers</w>
t z
t ying</w>
t man</w>
t le
t asking</w>
t as
t ally</w>
swit ching</w>
sw ine</w>
surr ounds</w>
sub stitu
su b</w>
stun ned</w>
stric ts</w>
stri ve</w>
stre aming</w>
stat ues</w>
star ve</w>
st an
st acking</w>
spir its</w>
spi kes</w>
sou thwest</w>
soli di
so y</w>
so m</w>
snap shot</w>
sm en</w>
slic ed</w>
sky diving</w>
skir ts</w>
sissi ppi</w>
simpli stic</w>
si ghts</w>
shred ded</w>
short cut</w>
short age</w>
shore line</w>
shap e-
sha de</w>
sh alt</w>
settle ment</w>
ser oton
sen sations</w>
sen iors</w>
self- esteem</w>
sel ectively</w>
seat belts</w>
sear ched</w>
se wage</w>
se men</w>
se in</w>
se gre
sculp tor</w>
scre wed</w>
sche dul
satis fying</w>
sa ver</w>
sa tional</w>
s wana</w>
s ounding</w>
s have</w>
s child</w>
ru dder</w>
rot ten</w>
ridic ule</w>
ri sed</w>
ri gorous</w>
rewar ded</w>
reven ge</w>
retin al</w>
restor ing</w>
restor ative</w>
remem bers</w>
rehear sal</w>
ree k</w>
recep tors</w>
rec tangle</w>
rea u</w>
re views</w>
re posit
re ply</w>
re pa
re active</w>
ran g</w>
rain water</w>
rab bi</w>
r acy</w>
quot ed</w>
ques tioned</w>
que er
quar ter-
puzz ling</w>
pup pe
pum ping</w>
psychop athic</w>
prostitu tion</w>
propos ing</w>
prom otion</w>
prolifer ation</w>
progre ssive</w>
pro ximity</w>
pro ving</w>
priori tize</w>
preten ding</w>
presi dents</w>
pre jud
pre ach</w>
power fully</w>
por ation</w>
pollin ators</w>
poe tic</w>
po s</w>
plum bing</w>
ple a</w>
plas ticity</w>
plan k</w>
pla que</w>
pione ers</w>
per sons</w>
per me
pen is</w>
pen ding</w>
pean ut</w>
pe eling</w>
pay load</w>
pat ented</w>
partici pat
par able</w>
pal ms</w>
pal ette</w>
pack aged</w>
pa stor</w>
p ation</w>
p ag
pag ne</w>
oxy gen
overwhel mingly</w>
outra ge</w>
ous al</w>
ous a</w>
our se</w>
organiz ational</w>
oph ys
op -
oo ks</w>
on co
om i</w>
ologi es</w>
old- fashioned</w>
ol in
o ti
o gen</w>
o bos</w>
non violence</w>
no vels</w>
no tori
no ted</w>
nes sing</w>
na tion-state</w>
n ug
n ical</w>
n d</w>
n au
myri ad</w>
mun dane</w>
multi plied</w>
mul ticul
mort gage</w>
monopo ly</w>
mon k</w>
mon d</w>
moist ure</w>
mini ature</w>
milli meters</w>
methodo logy</w>
met ropolitan</w>
messa ging</w>
mer ging</w>
mean ings</w>
me tast
me ster</w>
me en</w>
marath on</w>
mar vel</w>
mar ines</w>
manipul ating</w>
ma ze</w>
ma il
m i</w>
long- distance</w>
log arith
logarith mic</w>
lim bic</w>
ligh test</w>
life- saving</w>
li vely</w>
li fts</w>
li d</w>
lever aging</w>
leg end</w>
left- handed</w>
lear ner</w>
le um</w>
land fill</w>
lad der</w>
lab yrin
la under
l ur
kis sing</w>
kid neys</w>
k ley</w>
k ans</w>
k a
ju xtapos
jour neys</w>
j ets</w>
j ams</w>
iter ranean</w>
iter ation</w>
ir t</w>
interpre ted</w>
inter tw
insur gency</w>
inst ability</w>
inj ecting</w>
iner tia</w>
indic ating</w>
incub ator</w>
inci dence</w>
in tra
in timately</w>
in son</w>
in quiry</w>
in ge</w>
in forma
in comes</w>
in cl
in appropriate</w>
immer sion</w>
im prison
im perfect</w>
ignor ant</w>
identi fication</w>
ide alism</w>
id al</w>
ici st</w>
ic acy</w>
hy gi
hy dra
hun ter-gather
hr vold</w>
hos ts</w>
horri fying</w>
ho c
hil ar
high- quality</w>
hi ve</w>
hi o</w>
hero in</w>
helicop ters</w>
head phones</w>
hard wired</w>
ha b</w>
h es</w>
h es
gra sp
gra d</w>
gover nor</w>
gl y
gl ucose</w>
gi ga
geograph ical</w>
geni uses</w>
gener ators</w>
gee ky</w>
ga it</w>
g aming</w>
fu tures</w>
fra ud</w>
fra gr
fra g
fr y</w>
forgi veness</w>
flash light</w>
fl yer</w>
fl y
fl apping</w>
fea thers</w>
fe tu
favor able</w>
fas c
fasc ination</w>
face- to-
fa de</w>
f on
extre mes</w>
exter n
explo itation</w>
explo ding</w>
experim ented</w>
excell ence</w>
exc uses</w>
exam s</w>
ex hilar
ex cav
ev es</w>
ev an
es y</w>
eri e</w>
erat ops</w>
epide mics</w>
ep ic</w>
end lessly</w>
enco ded</w>
en sla
en closure</w>
en as</w>
embry onic</w>
em its</w>
elimin ated</w>
eff icacy</w>
educ ators</w>
ec li
e ager</w>
e ag
dy e</w>
du ardo</w>
dri fting</w>
dri fted</w>
drag line</w>
doc k</w>
divi des</w>
dis proportion
dis man
di stress</w>
di os</w>
di ary</w>
di al
devast ated</w>
desper ation</w>
desi red</w>
des ks</w>
den ser</w>
den ed</w>
demonstr ating</w>
demon strations</w>
deliber ate</w>
dela yed</w>
defin itions</w>
defen ders</w>
decor ation</w>
dec lined</w>
de x</w>
d ung</w>
custom ized</w>
cu t
cu bic
cru el
crow d-
cros ses</w>
crocodi le</w>
cri tics</w>
cre epy</w>
cra z
cra fts</w>
corri dors</w>
coordin ated</w>
conver ting</w>
conven tions</w>
control lers</w>
contempl ating</w>
consider ably</w>
conf using</w>
con sequ
con cussion</w>
comprom ised</w>
comprehen sion</w>
comp ul
comp rised</w>
comp lications</w>
comfor tably</w>
come dian</w>
collec tions</w>
co ded</w>
co al
clou dy</w>
clos et</w>
clic king</w>
claim ed</w>
cl ed</w>
citizen ship</w>
ci ssi
ci a</w>
cheap ly</w>
cham pion
ch k</w>
cent ure</w>
cen sorship</w>
cat astro
catastro ph
cafe ter
c od</w>
buil der</w>
buc ket</w>
bu tter</w>
bu ck
broad band</w>
bri qu
br and-
brand- new</w>
bom bers</w>
bo oth</w>
bo il</w>
blo b</w>
bl ues</w>
bit ter</w>
bit ten</w>
bir d
bin ds</w>
ber ries</w>
ber ing</w>
bee tle</w>
be aring</w>
bas s</w>
balcon ies</w>
back pack</w>
back grounds</w>
ba king</w>
ba il
b our
b low
b ends</w>
b ell
b ag
attrac ting</w>
at i</w>
as sured</w>
as ph
as cen
ar sen
ar k</w>
ar ises</w>
ar ch</w>
ar c</w>
app er</w>
ap i</w>
anti depressants</w>
an gar
allo w
alle vi
aliz ations</w>
algorith mic</w>
air o</w>
agas car</w>
aff lu
aerodynam ic</w>
administr ators</w>
adap ting</w>
ad age</w>
activi sm</w>
a version</w>
a se-
a dic</w>
World Wide</w>
Wh ich</w>
W y
V on</w>
U K</w>
Tric eratops</w>
Tre k</w>
Tran sition</w>
Tom orrow</w>
Than ksgiving</w>
Th ings</w>
T uring</w>
T ab
Su therland</w>
Sou theast</w>
Sol ar</w>
Sene gal</w>
Se bas
Schwarz schild</w>
Sam uel</w>
Sa o</w>
S w
S ue</w>
S on
S him
S ense</w>
S ally</w>
Reser ve</w>
Ra dio</w>
R ica</w>
R N</w>
Q .</w>
Phili ppe</w>
P ink</w>
P age</w>
Ot tom
Odys seus</w>
O p
Nor we
No vo
Net work</w>
Na j
NA TO</w>
N u
My hrvold</w>
Mon ologues</w>
Mis sissippi</w>
Mi ami</w>
Med iterranean</w>
Mar k
Mad agascar</w>
Mac int
M BI</w>
Lan ka</w>
Labor atory</w>
La gos</w>
L isa</w>
Kur zwe
Ker ry</w>
K is
Jo ey</w>
Jess ica</w>
Je ep</w>
J o</w>
Israel is</w>
Iri sh</w>
Ig bo</w>
Hus sein</w>
Hop kins</w>
Her bie</w>
He x</w>
H amp
Geor ge
Gal vao</w>
G rou
G illian</w>
G az
Fried man</w>
Fa b</w>
F ull</w>
F ree</w>
F ood</w>
F ly</w>
Es sex</w>
En ri
En ergy</w>
Em manuel</w>
El len</w>
Ecu ador</w>
E vel
E duardo</w>
E EG</w>
Don nell</w>
Der ek</w>
De ep</w>
D y
D r
Cor poration</w>
Con servation</w>
Clar k</w>
Car ter</w>
CE RN</w>
C ynthia</w>
C airo</w>
Bra in</w>
Br and</w>
Bot swana</w>
Bon net</w>
Bo ard</w>
Bla ir</w>
Bar bie</w>
Bagh dad</w>
B uck
B ed
An dre
Americ as</w>
Al lan</w>
Ac centure</w>
AL S</w>
A ni
8 1</w>
7 th</w>
7 8</w>
7 4</w>
7 ,
6 8</w>
5 1</w>
4 1</w>
3. 7</w>
2 nd</w>
197 8</w>
196 9</w>
195 7</w>
18 -
16 th</w>
12 -
10 1</w>
1. 4</w>
. 7</w>
,000- dollar</w>
z oning</w>
yogur t</w>
y- D
y-D oh</w>
y ell</w>
y an
x en
world- changing</w>
wor thiness</w>
wo ven</w>
win- win</w>
wet lands</w>
we ars</w>
warri ors</w>
wa king</w>
w ick</w>
volunte ered</w>
vo s</w>
vir gin</w>
vi ous</w>
vi bration</w>
ventil ated</w>
vege tarian</w>
ve t
v re</w>
v ind</w>
v in
utilit arian</w>
up take</w>
up dated</w>
unve ils</w>
under estimate</w>
und ancy</w>
un to</w>
un s</w>
un c
un be
um p</w>
uk emia</w>
u tility</w>
tun nels</w>
tun ing</w>
tuc ky</w>
tro pics</w>
tri pled</w>
tri ang
tre m
tre aties</w>
transcen dent</w>
trans forms</w>
traff icking</w>
tra il</w>
tooth brush</w>
tool box</w>
titan ium</w>
til age</w>
tic k
ti so
tiso l</w>
the orist</w>
the astern</w>
th- graders</w>
ter min
ten ths</w>
ten ded</w>
temp ting</w>
tem plate</w>
technologi st</w>
tac tics</w>
tab le
ta wa</w>
t- in</w>
t u</w>
synthe sized</w>
synap se</w>
syn chr
synchr ony</w>
sy na
syna go
swe ating</w>
swal lowed</w>
susp en
suspen sion</w>
surviv or</w>
survi ves</w>
suppli ers</w>
super powers</w>
suffici ently</w>
subsequ ently</w>
sub str
sub marines</w>
su ite</w>
stu ffed</w>
stre sses</w>
stre ss
str o</w>
str apped</w>
sti ff</w>
ste wardship</w>
star ch</w>
sta in
st ence</w>
st ellar</w>
squ ea
spor ting</w>
spl en
spirit uality</w>
spe eding</w>
sp ells</w>
sp elled</w>
soverei gn
soverei g
sor ted</w>
sophistic ation</w>
sop rano</w>
some place</w>
sole ly</w>
sol itary</w>
sof tly</w>
soc ket</w>
sli de
slide show</w>
slaugh ter</w>
sl er</w>
sky rocke
sk -
sin c
sinc ere</w>
simul ating</w>
side- by-
side-by- side</w>
si bly</w>
shut tle</w>
shu ff
sho res</w>
sh are
sex uality</w>
self- expression</w>
seiz ure</w>
se ss</w>
se ize</w>
se di
scre en
scrat ching</w>
schol ar</w>
schedul ed</w>
scand al</w>
scal able</w>
sc ro
savan na</w>
s- Lee</w>
s warms</w>
s nor
s lot</w>
ru g</w>
rot ates</w>
rop es</w>
role- play</w>
rol lers</w>
ro tation</w>
ri sk-
resul ted</w>
restor ation</w>
resem ble</w>
regar ding</w>
red undancy</w>
recomm ended</w>
re t</w>
re stored</w>
re me
re ka</w>
re flex</w>
re arrange</w>
radi ologists</w>
rab bit</w>
ra tionality</w>
quad ru
pursu ed</w>
purcha sed</w>
publi shers</w>
psychiat rist</w>
psych e</w>
prop elled</w>
pronoun ced</w>
prom p
proli fic</w>
problem- solving</w>
pro ton</w>
pro files</w>
preven ted</w>
pres sive</w>
prejud ice</w>
pre sti
pre ference</w>
prag matic</w>
practition ers</w>
pos ting</w>
porno graphy</w>
por tions</w>
por a</w>
polic emen</w>
pois oning</w>
pois on
plom at</w>
play w
pla shy</w>
pin nacle</w>
pil low</w>
pi er
phot ore
percei ving</w>
pedi atr
peace keepers</w>
pe l</w>
partis an</w>
parado x
pan demics</w>
pa vilion</w>
pa sting</w>
out let</w>
other ness</w>
os ter</w>
os t
os ph
origin ated</w>
op tic</w>
op pon
op e
on ies</w>
on ian</w>
ol er
och ondri
obe y</w>
o witz</w>
non- violent</w>
non- verbal</w>
non- governmental</w>
non violent</w>
nex t-
ner s-Lee</w>
nega tives</w>
nee dless</w>
nar cissi
nap kin</w>
nan ot
n ant</w>
mutil ated</w>
multi tasking</w>
motiv ations</w>
mon s</w>
mon ks</w>
mon archy</w>
moder n-
moder ate</w>
mod ular</w>
mo on
mis understood</w>
mind- blowing</w>
mill ennium</w>
mi xes</w>
memor ized</w>
membran es</w>
mel ts</w>
medi an</w>
mechan ically</w>
me ts</w>
master pieces</w>
mar in</w>
man ned</w>
man ic</w>
mal le
magne tism</w>
mac ro
ma sh
ma ize</w>
ma fi
loc als</w>
lo vers</w>
lit er</w>
lino is</w>
life styles</w>
licen sed</w>
liber ated</w>
li min
li king</w>
lem on</w>
lea ther
lea ks</w>
le ukemia</w>
le ash</w>
lay ered</w>
law suits</w>
law ns</w>
la wn</w>
l bs</w>
l as</w>
know- how</w>
kno b</w>
kilo s</w>
k not</w>
k ick
k en
k ar</w>
jun k
journ als</w>
jo ints</w>
j ar
j am
inv o
inter state</w>
inter dependence</w>
inter connectedness</w>
inter acts</w>
int oler
insul t</w>
instruc tor</w>
institu tion
ino cul
inner -
inner- city</w>
initi atives</w>
influ enz
infl ate</w>
inf ants</w>
incenti vi
incar cer
in- the-
in trac
in qui
in ent</w>
in cur
in corpor
in ate</w>
impul ses</w>
immun ization</w>
imit ate</w>
im probable</w>
im i</w>
im al</w>
ill ary</w>
ide ally</w>
id es</w>
ici ally</w>
i res</w>
hyper text</w>
hyp no
hydro thermal</w>
hum idity</w>
hu b</w>
hoc key</w>
hill side</w>
hi ring</w>
hero ism</w>
head-tail- head</w>
hat ch</w>
hand led</w>
ham bra</w>
h ra
h ers</w>
gu est</w>
grat z</w>
grap es</w>
grap e</w>
gradu al</w>
gr ind</w>
gard ening</w>
g au
g ator</w>
g asses</w>
fu tur
fri ed</w>
free way</w>
fran ch
foun tain</w>
foun ders</w>
forbi dden</w>
for war
for mer
for mats</w>
for getting</w>
for cement</w>
for aging</w>
for agers</w>
flo p</w>
fli pped</w>
fle et</w>
fire man</w>
fin est</w>
fil tering</w>
fi shed</w>
fi ery</w>
fi able</w>
fetu ses</w>
fel d</w>
feat ured</w>
fear less</w>
fea sible</w>
fashion able</w>
fas ci
face-to- face</w>
fac ade</w>
extr ater
expos ing</w>
expendit ure</w>
exerci ses</w>
execu tives</w>
exclu sively</w>
exc ites</w>
ex ports</w>
evan ge
et tes</w>
esti mation</w>
esti al</w>
est y</w>
environment alists</w>
ent ries</w>
enlighten ment</w>
encoura gement</w>
en code</w>
embr yo</w>
embarra ssment</w>
em it</w>
em ala</w>
elo qu
ed ical</w>
ectom y</w>
echo es</w>
ec tions</w>
ea u</w>
e- pattern</w>
e go
du m</w>
drop let</w>
dr a</w>
down hill</w>
dow ns</w>
distr action</w>
distingu ished</w>
discus ses</w>
discoun t</w>
disc oura
disc los
dis son
dis solve</w>
dis crete</w>
dilem mas</w>
digi tized</w>
differenti ated</w>
diff use</w>
di p</w>
di m
di als</w>
devi se</w>
desc ent</w>
der ive</w>
der -
deman ded</w>
defe ated</w>
dedic ate</w>
decreas ed</w>
dec ode</w>
dec e
de vote</w>
de ss</w>
de grade</w>
dd in</w>
dazz ling</w>
d well</w>
d ney</w>
d lock</w>
d in</w>
d an</w>
cyber space</w>
cur y</w>
cur v
cryst als</w>
cru x</w>
critici ze</w>
cri ed</w>
cre ws</w>
cra ft
cra dle</w>
cr aters</w>
cour ts</w>
counsel ing</w>
cou marin</w>
cor tisol</w>
cor ros
cool ed</w>
conver ts</w>
contribu tors</w>
contribu tes</w>
contrac tor</w>
cont acted</w>
construc tive</w>
con sin</w>
compos ers</w>
comp ost</w>
comp lim
comm u
comm ander</w>
com bu
colon ial</w>
colle ges</w>
collap sing</w>
co aster</w>
clean ers</w>
civili ans</w>
cheap est</w>
char itable</w>
champi on</w>
cham pagne</w>
ch man</w>
ch icks</w>
ch ariot</w>
ch ant</w>
ceram ics</w>
cel estial</w>
ce t</w>
cartoon ists</w>
carri ers</w>
car- sharing</w>
car tilage</w>
car ic
cap turing</w>
cand les</w>
can ny</w>
can ni
cal ving</w>
cal f</w>
bureaucr acy</w>
bun k</w>
bud dy</w>
bu yer</w>
bu ck</w>
brea st
br ink</w>
bo oming</w>
bloo m</w>
bl ind
bl ance</w>
bl ades</w>
bio graphical</w>
ben ch
beha ves</w>
beha ved</w>
be tting</w>
batt les</w>
bas es</w>
ban k
balcon y</w>
bal let</w>
back up</w>
back stage</w>
bac king</w>
ba the</w>
b iting</w>
b ish</w>
autonom ously</w>
atten ding</w>
at emala</w>
as sic</w>
as pora</w>
arran ged</w>
apa thy</w>
analy st</w>
an emia</w>
an dic</w>
am y
am ents</w>
am bassador</w>
alli ance</w>
align ment</w>
alig n</w>
al th</w>
al tar</w>
al o</w>
al in</w>
al be
aim s</w>
ag en</w>
advi sed</w>
adverti se</w>
adju sted</w>
ad ore</w>
acqui sition</w>
accum ulating</w>
accommod ate</w>
access ing</w>
acade mia</w>
a. m</w>
a ven
a un
a ids</w>
a ic</w>
Z e</w>
Z ambia</w>
X- rays</w>
Wis consin</w>
Wi th
Wester ners</w>
Wat er
Vi en
V .</w>
Uni verse</w>
U .</w>
Tuni sia</w>
Tru th</w>
Ta ke</w>
T ol
T im
T R</w>
T BP</w>
Sy dney</w>
Sup er</w>
Sha h</w>
Serge y</w>
Sebas tian</w>
Sa ve</w>
S plashy</w>
S ousa</w>
S mi
S imp
S hu
S ee</w>
S ear
S crip
S aul</w>
S and
S ag
S F</w>
S C
Rob inson</w>
Ro ad</w>
Red woods</w>
R overs</w>
R ights</w>
R ab
R Hex</w>
Po ol</w>
Pla y-Doh</w>
Pit t</w>
Photos hop</w>
Palest ine</w>
P ope</w>
P ants</w>
Ottom an</w>
O n</w>
Novo gratz</w>
Norwe gian</w>
Net fli
Naz is</w>
Na omi</w>
N ation</w>
N ar
N ancy</w>
N Y
Mot or</w>
Mon go
Mo bile</w>
Me e
Mat thieu</w>
Mat the
Mar yland</w>
Mar c</w>
Mand arin</w>
Macint osh</w>
Ma o</w>
M ut
M ell
M ap
Lyn n</w>
Luc y</w>
Lu ci
Li ke</w>
L ot
L ight</w>
L as</w>
L OL
Ken tucky</w>
Kab ul</w>
Ju lie</w>
Jes se</w>
Jama ica</w>
Jac ques</w>
J us
J en
Iraq i</w>
Inter face</w>
In formation</w>
Il linois</w>
Icel andic</w>
I an</w>
Hor se</w>
H ot
H ome</w>
H az
H as
Gu atemala</w>
Gro ve</w>
Glen n</w>
Gaz a</w>
Gapmin der</w>
Gall ery</w>
G old</w>
Fre ud</w>
F u
F ine</w>
F -
Evel yn</w>
Ethiop ian</w>
Enri quez</w>
Eng li
Egypti ans</w>
Econ omist</w>
E zra</w>
E st
E li
E C
Dou glas</w>
Di plomat</w>
DD T</w>
Cri tic</w>
Christi anity</w>
Char lot
Ch en</w>
CP U</w>
C ul
C reek</w>
C ould</w>
C ir
Bur ma</w>
Bu y</w>
Bre ton</w>
Bil bao</w>
Ber ners-Lee</w>
Beat les</w>
Bal kans</w>
B owl</w>
B om
B arefoot</w>
B O
An ton
An n
Alex and
Al hambra</w>
A vi
A n</w>
A dri
A ar
9 0,000</w>
9 ,000</w>
8 8</w>
8 00,000</w>
7 50</w>
7 3</w>
4 6
198 8</w>
198 1</w>
196 5</w>
18 00s</w>
15 -
14 th</w>
1, 600</w>
zo oming</w>
z i</w>
yo ga</w>
ynam ics</w>
yi elds</w>
ww w
wrink les</w>
wr y</w>
with stand</w>
wis er</w>
wil dly</w>
who le-
whist les</w>
wh ol
whol eness</w>
wh ir
wh il
whil st</w>
well ness</w>
weigh ed</w>
we ep</w>
we bs</w>
we arable</w>
water front</w>
waste ful</w>
wan us</w>
wa ving</w>
vo red</w>
vo d
vit ality</w>
viol ated</w>
va il</w>
v or
v itation</w>
v atory</w>
utop ian</w>
uti lized</w>
us er-
ur ch
ur ations</w>
upri sing</w>
up stairs</w>
up grade</w>
unti e</w>
unic orn</w>
unexp lored</w>
unemplo yed</w>
under sea</w>
under lies</w>
un touched</w>
un necessary</w>
un lock</w>
un changed</w>
ug os
ugos la
u h-
tw ists</w>
tw el
tw ater</w>
tur n
tum n</w>
tro ll</w>
tre sp
tre ach</w>
transmit ters</w>
trans plants</w>
trans lations</w>
trans fers</w>
traff icked</w>
tra iner</w>
tra ils</w>
tra de
tom es</w>
tic kle</w>
ti fied</w>
thre aten</w>
thous and
thor ough
th y
th under</w>
th rit
thrit is</w>
th al
tes tic
telecom munications</w>
tec tion</w>
te aring</w>
tap est
tapest ries</w>
tal i
take off</w>
tad pole</w>
tab let</w>
ta sty</w>
t- shirt</w>
t ore</w>
t ari
t apping</w>
system ic</w>
synago gue</w>
sym bi
swe ater</w>
swal low</w>
sw oll
swoll en</w>
sw o
sw amp</w>
susp ici
suspici on</w>
sur render</w>
sun glasses</w>
sum med</w>
subsequ ent</w>
submer si
submersi bles</w>
sub stances</w>
sub set</w>
su perf
su ited</w>
su ici
stu dios</w>
stran ded</w>
stra p</w>
stra ined</w>
stom at
stimul i</w>
stimul ating</w>
stig ma
ste ep
stan bu
stanbu l</w>
stam ps</w>
st les</w>
st ent</w>
st asy</w>
spon ge</w>
spar kling</w>
spar ked</w>
sp y</w>
sp it</w>
sp en</w>
solu ble</w>
sol itude</w>
so lic
so bering</w>
sna il</w>
smart phone</w>
sma sh</w>
sm u
sm iley</w>
sky line</w>
ski er</w>
skep ticism</w>
simul ations</w>
side walks</w>
si form</w>
si er</w>
sho ok</w>
shepher d</w>
sh iny</w>
sett ling</w>
serv ant</w>
sequ est
sem ble</w>
sel fish
see ks</w>
secre tary</w>
se w</w>
se k</w>
scul pt</w>
scat tered</w>
sanc tuary</w>
sam pling</w>
sal vation</w>
sal twater</w>
sal es
sa d
s thand</w>
s qui
s chem
run way</w>
run ner</w>
rul ing</w>
rub bish</w>
ru t</w>
roc king</w>
ro yal</w>
ro foam</w>
righ te
ri st
ri r</w>
ri pe</w>
rhetor ic</w>
rewar ding</w>
revolution ize</w>
rever ber
resul ting</w>
respon ds</w>
resour ce
represen tations</w>
reposit ory</w>
repor ters</w>
ren ov
reluc tant</w>
rele ssly</w>
rel ent
rein force</w>
reg ulating</w>
refriger ator</w>
refer ring</w>
red- haired</w>
recycl able</w>
recipi ent</w>
rebel lion</w>
reb els</w>
real- life</w>
re tali
re tail
re sts</w>
re st
re served</w>
re program</w>
re mor
re medi
re lies</w>
re juven
re fre
re construction</w>
re connect</w>
random ized</w>
rain bow</w>
rail way</w>
radio active</w>
rab bits</w>
ra tionally</w>
r ound
r er
r entice</w>
quanti fy</w>
pyra mi
pyrami ds</w>
purcha sing</w>
purcha ses</w>
pur pos
puni shed</w>
punc tu
pun ish</w>
psycho -
psychiat ry</w>
provo ke</w>
provi ders</w>
proto col
protocol s</w>
propor tional</w>
proph ec
pro poses</w>
pro p</w>
pri va
pri mate</w>
predic tive</w>
pre view</w>
pre limin
prelimin ary</w>
pra i
power less</w>
pot tery</w>
post- traumatic</w>
port al</w>
por n</w>
pop ul
polic y
pol ar
poison ous</w>
po res</w>
po ke</w>
plug ged</w>
playw right</w>
plan ners</w>
pla ster</w>
pl ots</w>
pl ague</w>
pione ered</w>
pil gri
pic tured</w>
photograp hic</w>
phot o-
ph osph
pestici de</w>
perpe tual</w>
per sever
pe ac
parall els</w>
par ab
pan cre
pancre as</w>
pal ace</w>
pain ts</w>
pace maker</w>
pa sted</w>
pa ins</w>
p ots</w>
over seas</w>
over board</w>
out standing</w>
out lines</w>
out doors</w>
ou treach</w>
ore n</w>
op pression</w>
op ho
oo s</w>
one- to-one</w>
om od
om be</w>
oll s</w>
oll er</w>
oll and</w>
ob tain</w>
o cial</w>
nu anced</w>
ni fied</w>
neuroscienti sts</w>
negl ect</w>
ne phe
natur alist</w>
nanot u
na p</w>
mys tical</w>
multi media</w>
mu tant</w>
mu m</w>
mu ddin</w>
modi fication</w>
modern- day</w>
mobi lize</w>
mirac ulous</w>
mini stry</w>
mini -
min ster</w>
mil dness</w>
mid -</w>
micros econds</w>
mic ro</w>
mi str
metast ases</w>
mes sen
men op
me tal
me ister</w>
mas sage</w>
maneu ver
man tra</w>
man ia</w>
mail box</w>
m op
m o</w>
m mm</w>
m align
lu ci
lon ie</w>
live lihood</w>
lim it
lig ator</w>
li ability</w>
lex ic</w>
let tu
less er</w>
legi timacy</w>
le ver</w>
le ague</w>
law suit</w>
lat ter</w>
lat eral</w>
lat ent</w>
l acks</w>
kno ts</w>
kn it</w>
kidn apped</w>
ke eper</w>
k os</w>
k ler</w>
k h</w>
juni or</w>
ja ws</w>
j ur
it is</w>
it ated</w>
is hable</w>
ir respective</w>
intimid ating</w>
intertw ined</w>
inter rupt</w>
int elli
initi ated</w>
ini sts</w>
influ ential</w>
infl ection</w>
inf eri
induc ed</w>
indic ators</w>
indic ator</w>
in visibility</w>
in os</w>
in nate</w>
in habit</w>
in famous</w>
improvi sing</w>
impres sions</w>
impa ir
imp lies</w>
im peri
im mu
illumin ating</w>
illu strations</w>
il ers</w>
ignor ing</w>
identi fying</w>
ic sek</w>
i b</w>
hur dy-
hurdy- gur
hurdy-gur dy</w>
hun ter</w>
human oid</w>
human e</w>
hu bris</w>
hra ib</w>
horri bly</w>
hon ey
hom e-
hip po
hip pie</w>
hil i</w>
high- level</w>
hier arch
hi es</w>
hemo glob
hemoglob in</w>
head set</w>
he igh
harve sted</w>
ha y</w>
ha unting</w>
h r</w>
h ou</w>
gro wers</w>
gro om</w>
gri dlock</w>
gree ted</w>
gree dy</w>
gradu ation</w>
grab bing</w>
go of
gi st</w>
ger ing</w>
gen it
ge ology</w>
ge ant</w>
gate way</w>
ga de</w>
g ym
g ents</w>
fur n
fun ni
fuc king</w>
fu siform</w>
frea ked</w>
fragr ance</w>
fr acking</w>
former ly</w>
fol low-up</w>
floo ded</w>
flo wering</w>
flo ats</w>
fli ps</w>
flav ors</w>
fla kes</w>
five -year-old</w>
fir stly</w>
fir sthand</w>
finger print</w>
fin ity</w>
film making</w>
fi ddle</w>
fes to</w>
fer tile</w>
fami li
facul ty</w>
facilit ate</w>
fa vel
f uss</w>
f au
f ates</w>
eyebro ws</w>
extre mist</w>
extr action</w>
exquis itely</w>
explo ited</w>
experim enter</w>
exp o</w>
exec ute</w>
excruci ating</w>
ex ile</w>
ex hal
evolution arily</w>
evalu ation</w>
eu ros</w>
est -
eri ans</w>
er ic</w>
enti ous</w>
enterpri ses</w>
ent ur
enh ancing</w>
encoura ges</w>
enc ryp
en su
embo diment</w>
em itting</w>
em bro
em bed</w>
em an
eless ness</w>
eight- year-old</w>
ed ness</w>
echan ical</w>
ec stasy</w>
e ter
e h</w>
e er</w>
duci ve</w>
dre am
drag ging</w>
dr us</w>
dot com</w>
domin ating</w>
docum entation</w>
do l</w>
divor ce</w>
div inity</w>
disp ute</w>
disc ourse</w>
disagre ement</w>
disa strous</w>
dis ruption</w>
dis miss</w>
dis comfort</w>
diplom ats</w>
dimin ished</w>
dict ators</w>
dict ator</w>
di sen
di re</w>
di er</w>
detec ting</w>
det ached</w>
dest ined</w>
desc end</w>
der ick</w>
depri ved</w>
depos ited</w>
depen dency</w>
denti st</w>
degra ding</w>
degra dable</w>
dedic ation</w>
deciph er</w>
dead line</w>
de va
de partments</w>
de par
de em
day care</w>
dat a
da ds</w>
d- like</w>
d un
d ella</w>
d ances</w>
cur l</w>
cul pr
cubic le</w>
cu res</w>
cu bes</w>
cryst al
cruel ty</w>
cru tches</w>
cru shing</w>
cre di
cra y
cra w
cra ving</w>
cr ush</w>
cr appy</w>
cow boy</w>
coun sel</w>
cor n
coo lest</w>
convic tion</w>
conver sion</w>
conver ge</w>
consum es</w>
constitu tes</w>
consist ency</w>
consi st</w>
confron tation</w>
conflic ting</w>
conf ession</w>
conclu ded</w>
concep tu
concei vable</w>
con taining</w>
con serve</w>
con grat
con ducive</w>
con dem
complex ities</w>
compla int</w>
competi tions</w>
comp elled</w>
common place</w>
commit ments</w>
comfor ting</w>
combu stion</w>
com pression</w>
com press</w>
com ets</w>
cockro aches</w>
co t</w>
co co
clos e-up</w>
clim ber</w>
clic ks</w>
cli che</w>
cl ut
circum stance</w>
cigare ttes</w>
child birth</w>
che fs</w>
che er</w>
ch witz</w>
ch ick</w>
ch i</w>
cen sus</w>
cellul ose</w>
cau sal</w>
catastroph es</w>
cat ches</w>
carcin ogens</w>
car rots</w>
ca sts</w>
c asse
c ad
burgl ar</w>
bur nt</w>
bul lying</w>
buil t-in</w>
bu ster</w>
bu shes</w>
brigh test</w>
bri bes</w>
bri bery</w>
brea thed</w>
bre e
bran ching</w>
boun cing</w>
bor rowed</w>
bon uses</w>
boar ding</w>
blu e-
blan ket</w>
black- eyed</w>
bl ur</w>
biom edical</w>
ber gh</w>
benef ited</w>
beli evers</w>
bec ca</w>
be ts</w>
battle field</w>
batt ling</w>
bath tub</w>
bat ch</w>
bas in</w>
bar k</w>
b- Saharan</w>
b red</w>
b ounds</w>
awar ded</w>
aw i</w>
aw a</w>
avo iding</w>
aver t</w>
av atar</w>
autop sy</w>
auto biographical</w>
au to</w>
atten ded</w>
atro cities</w>
athle tic</w>
at orial</w>
assi st</w>
assaul t</w>
ass as
asph alt</w>
ash ville</w>
as sur
as sed</w>
arti fact</w>
arri ves</w>
arm or</w>
archi ves</w>
ar thritis</w>
ar oused</w>
ar ousal</w>
aqu arium</w>
app rentice</w>
anti retroviral</w>
anonym ity</w>
ani e</w>
anecdot es</w>
anci es</w>
anch or</w>
anat om
analo gies</w>
ampli fy</w>
am oe
alter nate</w>
aliz es</w>
albe it</w>
aim ed</w>
aggre ssion</w>
age- old</w>
ag u
ag ging</w>
aff ec
advoc ating</w>
advoc acy</w>
advi se</w>
adul ter
ad ren
activ ation</w>
activ ates</w>
acknowled ged</w>
aci di
ach ers</w>
acceler ator</w>
ac o</w>
ac kers</w>
a x</w>
a tion-
a ked</w>
a hedron</w>
Z oe</w>
Z E</w>
Yemen i</w>
Y ugosla
Y o</w>
Y a
Wom an</w>
With out</w>
Willi e</w>
W ag
W .</w>
Vo ice</w>
Vi vian</w>
Vi sual</w>
Vi king</w>
UN I
UN AIDS</w>
U. N</w>
Ty ran
Tw enty-
Tre at
Tr ust</w>
Ti be
Th en</w>
Tah rir</w>
T unes</w>
Swa hili</w>
Su sie</w>
Su b-Saharan</w>
Sty rofoam</w>
Stu art</w>
Shir ky</w>
Secre t</w>
Sci ences</w>
Sal man</w>
Sag meister</w>
S ul
S tation</w>
S tal
S or
S ist
S ang
S achs</w>
Roc kett</w>
Roc k</w>
Rob in</w>
Rob icsek</w>
Re dd
Re becca</w>
Rand i</w>
RI ZE</w>
R ut
Pos t-
Ple o</w>
Pla to</w>
Pin ker</w>
Pau la</w>
Pat ent</w>
Pas cal</w>
Par ty</w>
Pap ua</w>
Pan theon</w>
PC Bs</w>
P lan</w>
P ass</w>
P ack
P RIZE</w>
P O</w>
Ok api</w>
O. K.</w>
O ver</w>
O scar</w>
O L</w>
O .</w>
Nic ole</w>
Ni k
Netfli x</w>
Naj muddin</w>
N ight</w>
N ashville</w>
N ano</w>
N E
Mon key</w>
Moder n</w>
Mo del</w>
Mo MA</w>
Mic hel
Medic ines</w>
Mc Lu
May an</w>
Matthe w</w>
Mag ic</w>
MP 3</w>
M in</w>
M all</w>
M A
M .
Lind bergh</w>
Levi athan</w>
Laur ie</w>
LOL cats</w>
L I
L HC</w>
Kurzwe il</w>
Kis met</w>
Kin sey</w>
Ki va</w>
Kar l</w>
Kah n</w>
Juli et</w>
Ju dy</w>
Joh ns</w>
Jab bar</w>
J PL</w>
J .
Islam ist</w>
In finity</w>
In dependent</w>
I stanbul</w>
Hun ter</w>
Hind i</w>
Hi sp
Hi p
Hawai ian</w>
Har bor</w>
Ha y
H uck</w>
H ole</w>
H is</w>
Gu in
Gu ard</w>
Grou p</w>
Go wanus</w>
George town</w>
G hraib</w>
Fro m</w>
Free dom</w>
Fre derick</w>
Frank lin</w>
For tune</w>
Fil m</w>
F is
F es
Ex tre
Er nest</w>
Ed ith</w>
E ur
E duc
E b
E -
Doc tor</w>
Do c</w>
Di ego</w>
Den is
De ath</w>
Darwin ism</w>
D um
Compu ter</w>
Com mission</w>
Com m
Clau s</w>
Char ter</w>
Ch er
Ch allen
Carol yn</w>
Car son</w>
C ru
C rick</w>
C lonie</w>
C li
C en
C el
C au
Bu reau</w>
Bo yle</w>
Bever ly</w>
Band- Aid</w>
Bab y</w>
Bab y
B ut
B ou
B eau</w>
B ach</w>
Aus chwitz</w>
Archit ec
Ar chi
An na</w>
Alexand ria</w>
Al g
Ac tor</w>
A rea</w>
A m</w>
A gr
A M</w>
9 1</w>
7 9</w>
40 1</w>
4 5,000</w>
3. 3</w>
24 -hour</w>
2 D</w>
2 8
2 3
2 -
190 0s</w>
19 20s</w>
12 -year-old</w>
10 0-
10 0
1 70</w>
z ation</w>
yl or</w>
yi el
y x</w>
y ma</w>
y in</w>
y ce</w>
y ang</w>
www .
wre tched</w>
wr apping</w>
wo ol</w>
wing suit</w>
whi pped</w>
where by</w>
wh im
wh ack</w>
wel com
welcom ed</w>
weap on
wea ker</w>
we y</w>
we ed</w>
wavel engths</w>
water borne</w>
war heads</w>
wa kes</w>
w it</w>
w ac
vod ka</w>
vit ro</w>
vis its</w>
virul ence</w>
vibr ate</w>
veter an</w>
ver gence</w>
ver bals</w>
ve ts</w>
ve tica</w>
ve st</w>
ve iled</w>
vari ants</w>
v ener
us san
ussan i</w>
up wards</w>
up dates</w>
up beat</w>
up -
unve il</w>
under taking</w>
under mining</w>
under mine</w>
un pleasant</w>
un know
un folds</w>
un familiar</w>
un consciously</w>
ul ls</w>
u re
u k</w>
u dian</w>
tz mann</w>
two- way</w>
two- and-a-half</w>
turb ines</w>
tu bu
tro op</w>
tro l
transpor ting</w>
transl ators</w>
transforma tional</w>
tra ders</w>
tough ness</w>
tou ch
tos ses</w>
ton ian</w>
ton e-
to e</w>
to bac
tobac co</w>
tion ism</w>
tin iest</w>
ti um</w>
ti res</w>
ti me
three- digit</w>
threat ens</w>
thr illing</w>
thous and-
thermo -
thermo- bi
[...]
