#version: 0.2
我 们</w>
o t
q u
qu ot
quot ;</w>
& quot;</w>
一 个</w>
他 们</w>
这 个</w>
可 以</w>
这 些</w>
就 是</w>
什 么</w>
因 为</w>
如 果</w>
没 有</w>
所 以</w>
现 在</w>
知 道</w>
这 样</w>
但 是</w>
这 是</w>
问 题</w>
你 们</w>
不 是</w>
它 们</w>
- -</w>
自 己</w>
世 界</w>
一 些</w>
开 始</w>
看 到</w>
时 候</w>
需 要</w>
然 后</w>
非 常</w>
人 们</w>
东 西</w>
可 能</w>
一 种</w>
那 些</w>
已 经</w>
所 有</w>
这 里</w>
认 为</w>
很 多</w>
这 种</w>
发 现</w>
工 作</w>
事 情</w>
孩 子</w>
发 生</w>
笑 声</w>
时 间</w>
如 何</w>
或 者</w>
一 样</w>
不 同</w>
地 方</w>
国 家</w>
大 家</w>
那 么</w>
还 有</w>
生 活</w>
起 来</w>
0 0</w>
研 究</w>
重 要</w>
通 过</w>
而 且</w>
部 分</w>
告 诉</w>
其 他</w>
改 变</w>
以 及</w>
能 够</w>
关 于</w>
并 且</w>
方 式</w>
设 计</w>
美 国</w>
为 什么</w>
故 事</w>
人 类</w>
使 用</w>
只 是</w>
不 会</w>
因 此</w>
系 统</w>
应 该</w>
任 何</w>
得 到</w>
一 起</w>
进 行</w>
不 能</w>
技 术</w>
希 望</w>
一 下</w>
那 个</w>
必 须</w>
成 为</w>
觉 得</w>
一 次</w>
正 在</w>
真 的</w>
还 是</w>
. .
来 说</w>
方 法</w>
那 里</w>
其 中</w>
生 命</w>
每 个</w>
同 时</w>
怎 么</w>
数 据</w>
对 于</w>
当 然</w>
学 家</w>
今 天</w>
喜 欢</w>
实 际
出 来</w>
最 后</w>
信 息</w>
实际 上</w>
一 点</w>
这 么</w>
社 会</w>
真 正</w>
公 司</w>
存 在</w>
事 实
事实 上</w>
简 单</w>
发 展</w>
完 全</w>
来 自</w>
之 后</w>
了 解</w>
一 直</w>
作 为</w>
看 看</w>
创 造</w>
情 况</w>
下 来</w>
有 人</w>
整 个</w>
其 实</w>
两 个</w>
结 果</w>
帮 助</w>
决 定</w>
影 响</w>
也 许</w>
的 话</w>
想 法</w>
大 脑</w>
找 到</w>
甚 至</w>
想 要</w>
展 示</w>
为 了</w>
地 球</w>
项 目</w>
照 片</w>
于 是</w>
过 程</w>
过 去</w>
只 有</w>
有 些</w>
产 生</w>
组 织</w>
变 得</w>
相 信</w>
感 觉</w>
同 样</w>
当 时</w>
之 前</w>
如 此</w>
动 物</w>
环 境</w>
仅 仅</w>
拥 有</w>
一 切</w>
1 9
细 胞</w>
许 多</w>
不 过</w>
方 面</w>
2 0
生 物</w>
选 择</w>
未 来</w>
例 子</w>
原 因</w>
之 间</w>
1 0</w>
城 市</w>
意 识</w>
怎 样</w>
2 0</w>
出 现</w>
之 一</w>
理 解</w>
美 元</w>
科 学</w>
音 乐</w>
有 趣</w>
想 象</w>
非 洲</w>
变 成</w>
T E
解 决</w>
能 力</w>
变 化</w>
我 要</w>
政 府</w>
演 讲</w>
学 习</w>
而 是</w>
意 思</w>
提 供</w>
学 校</w>
经 济</w>
朋 友</w>
无 法</w>
一 位</w>
比 如</w>
教 育</w>
关 系</w>
成 功</w>
行 为</w>
电 脑</w>
自 然</w>
思 考</w>
空 间</w>
学 生</w>
是 否</w>
科 技</w>
a r
5 0</w>
意 义</w>
一 件</w>
印 度</w>
声 音</w>
网 络</w>
利 用</w>
那 样</w>
掌 声</w>
建 筑</w>
是 因为</w>
一 天</w>
我 会</w>
游 戏</w>
她 们</w>
文 化</w>
TE D</w>
复 杂</w>
带 来</w>
宇 宙</w>
制 造</w>
全 球</w>
特 别</w>
进 入</w>
建 立</w>
完 成</w>
尝 试</w>
大 概</w>
食 物</w>
历 史</w>
世 纪</w>
语 言</w>
一 定</w>
更 好</w>
医 生</w>
身 体</w>
运 动</w>
经 历</w>
几 个</w>
巨 大</w>
a n
第 一个</w>
机 会</w>
确 实</w>
另 外</w>
控 制</w>
女 性</w>
多 数</w>
0 00</w>
e r
作 用</w>
实 验</w>
基 因</w>
最 终</w>
小 时</w>
多 少</w>
中 心</w>
大 约</w>
治 疗</w>
才 能</w>
里 面</w>
联 系</w>
第 二
叫 做</w>
感 到</w>
分 钟</w>
他 人</w>
计 划</w>
解 释</w>
三 个</w>
回 到</w>
电 影</w>
做 到</w>
中 国</w>
地 区</w>
意 味
作 品</w>
一 部分</w>
意味 着</w>
艺 术</w>
看 起来</w>
健 康</w>
听 到</w>
不 到</w>
分 享</w>
继 续</w>
模 式</w>
更 加</w>
事 物</w>
大 学</w>
病 毒</w>
力 量</w>
总 是</w>
个 人</w>
i n
几 乎</w>
首 先</w>
病 人</w>
机 器</w>
活 动</w>
获 得</w>
工 具</w>
领 域</w>
e r</w>
想 到</w>
产 品</w>
安 全</w>
年 代</w>
疾 病</w>
将 会</w>
包 括</w>
计 算
视 频</w>
制 作</w>
各 种</w>
机 器
最 好</w>
20 0
答 案</w>
接 受</w>
关 注</w>
程 度</w>
市 场</w>
曾 经</w>
别 人</w>
大 多数</w>
谢 谢</w>
机器 人</w>
兴 趣</w>
3 0</w>
结 构</w>
目 标</w>
讨 论</w>
重 新</w>
汽 车</w>
主 义</w>
做 出</w>
家 庭</w>
观 察</w>
一 张</w>
实 现</w>
百 分
合 作</w>
参 与</w>
一 年</w>
模 型</w>
价 值</w>
发 明</w>
材 料</w>
即 使</w>
以 前</w>
自 我</w>
主 要</w>
身 上</w>
不 要</w>
上 面</w>
这 一</w>
资 源</w>
努 力</w>
准 备</w>
概 念</w>
像 是</w>
保 护</w>
明 白</w>
认 识</w>
么 样</w>
事 实</w>
每 天</w>
世 界
理 论</w>
大 量</w>
类 似</w>
比 较</w>
海 洋</w>
有 关</w>
容 易</w>
十 分</w>
最 大</w>
或 是</w>
显 示</w>
正 是</w>
然 而</w>
生 物
接 着</w>
战 争</w>
放 在</w>
分 子</w>
不 断</w>
时 代</w>
虽 然</w>
有 点</w>
接 下来</w>
处 理</w>
区 域</w>
基 本
唯 一</w>
很 大</w>
a n</w>
非 常
进 化</w>
代 表</w>
行 动</w>
观 点</w>
用 来</w>
母 亲</w>
数 字</w>
注 意</w>
物 质</w>
一 条</w>
其 它</w>
令 人</w>
反 应</w>
人 口</w>
科 学家</w>
办 法</w>
越 来
看 见</w>
不 仅仅</w>
或 许</w>
寻 找</w>
那 时</w>
到 底</w>
生 产</w>
形 成</w>
只 要</w>
o s
一 只</w>
一 步</w>
第 一次</w>
实 验
图 片</w>
清 楚</w>
来 到</w>
政 治</w>
哪 里</w>
观 众</w>
持 续</w>
年 前</w>
传 统</w>
基 本</w>
挑 战</w>
通 常</w>
直 到</w>
儿 童</w>
结 束</w>
计算 机</w>
等 等</w>
女 人</w>
最 近</w>
支 持</w>
大 部分</w>
电 话</w>
知 识</w>
达 到</w>
媒 体</w>
相 当</w>
1 5</w>
能 量</w>
后 来</w>
内 容</w>
离 开</w>
手 术</w>
这 张</w>
设 备</w>
一 名</w>
谈 论</w>
癌 症</w>
名 字</w>
越来 越</w>
现 实</w>
十 年</w>
这 儿</w>
坐 在</w>
速 度</w>
快 乐</w>
考 虑</w>
实验 室</w>
基本 上</w>
具 有</w>
不 再</w>
艺 术
超 过</w>
增 长</w>
错 误</w>
.. .</w>
自 由</w>
真 实</w>
尽 管</w>
测 试</w>
至 少</w>
有 着</w>
男 人</w>
社 区</w>
伟 大</w>
愿 意</w>
探 索</w>
看 着</w>
根 本</w>
女 孩</w>
i c
是 从</w>
服 务</w>
足 够</w>
正 确</w>
上 帝</w>
能 源</w>
样 子</w>
仍 然</w>
o r
飞 机</w>
神 经
a p
死 亡</w>
提 出</w>
a t
试 图</w>
证 明</w>
石 油</w>
使 得</w>
记 得</w>
下 面</w>
范 围</w>
几 年</w>
不 管</w>
o n
N A</w>
的 确</w>
数 量</w>
网 站</w>
回 答</w>
不 想</w>
o n</w>
记 录</w>
机 构</w>
导 致</w>
角 度</w>
移 动</w>
现 象</w>
以 后</w>
交 流</w>
植 物</w>
充 满</w>
上 去</w>
目 前</w>
英 国</w>
物 种</w>
应 用</w>
所 有人</w>
这 件</w>
计 算</w>
本 身</w>
形 式</w>
老 师</w>
e n
数 学</w>
感 受</w>
减 少</w>
好 像</w>
正 如</w>
在 于</w>
只 能</w>
不 得
父 亲</w>
D NA</w>
有 个</w>
增 加</w>
可 是</w>
过 来</w>
有 效</w>
方 向</w>
基 础</w>
建 造</w>
1 00</w>
突 然</w>
直 接</w>
那 种</w>
传 播</w>
面 对</w>
讲 述</w>
例 如</w>
不 可
规 模</w>
感 谢</w>
不 用</w>
英 里</w>
人 生</w>
每 年</w>
明 显</w>
联 网</w>
百 万</w>
失 去</w>
位 置</w>
造 成</w>
相 关</w>
阶 段</w>
要 求</w>
拍 摄</w>
不得 不</w>
全 世界</w>
4 0</w>
百分 之
创 新</w>
说 明</w>
周 围</w>
实 际</w>
很 快</w>
其 他人</w>
受 到</w>
互 联网</w>
一 项</w>
父 母</w>
幸 福</w>
一 场</w>
肯 定</w>
由 于</w>
事 件</w>
那 儿</w>
英 尺</w>
保 持</w>
这 项</w>
系 列</w>
根 据</w>
刚 刚</w>
不 仅</w>
6 0</w>
来 看</w>
本 书</w>
解 决
表 现</w>
某 些</w>
是 不是</w>
眼 睛</w>
状 态</w>
手 机</w>
投 资</w>
困 难</w>
妇 女</w>
令 人
道 德</w>
而 言</w>
功 能</w>
经 常</w>
地 图</w>
体 验</w>
经 济
相 同</w>
不 错</w>
消 息</w>
一 般</w>
i t
经 过</w>
生 存</w>
介 绍</w>
除 了</w>
第 一
永 远</w>
所 说</w>
似 乎</w>
l l
感 兴趣</w>
回 来</w>
精 神</w>
方 案</w>
担 心</w>
多 么</w>
1 2</w>
另 一
建 筑
真 是</w>
视 觉</w>
自 身</w>
纽 约</w>
收 入</w>
定 义</w>
妈 妈</w>
团 队</w>
下 去</w>
遇 到</w>
提 到</w>
人 员</w>
一 段</w>
设 计
民 主</w>
太 阳
加 入</w>
利 亚</w>
关 键</w>
细 菌</w>
斯 坦</w>
效 果</w>
宗 教</w>
危 险</w>
医 院</w>
行 星</w>
我 能</w>
从 来</w>
随 着</w>
医 疗</w>
聪 明</w>
假 如</w>
一 旦</w>
r i
称 为</w>
时 刻</w>
组 成</w>
房 间</w>
完 美</w>
信 号</w>
绿 色</w>
描 述</w>
年 轻</w>
专 家</w>
连 接</w>
星 球</w>
以 来</w>
程 序</w>
严 重</w>
o o
表 面</w>
药 物</w>
美 丽</w>
各 位</w>
用 于</w>
尼 亚</w>
os ;</w>
ap os;</w>
& apos;</w>
有 时</w>
面 临</w>
正 常</w>
欧 洲</w>
某 种</w>
研 究
智 慧</w>
分 析</w>
. .</w>
提 高</w>
小 孩</w>
土 地</w>
预 测</w>
确 定</w>
创 造
艺术 家</w>
开 发</w>
艾 滋
思 想</w>
1 1</w>
别 的</w>
还 要</w>
8 0</w>
会 议</w>
目 的</w>
图 像</w>
创 作</w>
这 次</w>
电 视</w>
参 加</w>
全 部</w>
& #
&# 9
颜 色</w>
时 期</w>
所 谓</w>
两 种</w>
2 5</w>
形 状</w>
先 生</w>
允 许</w>
任 务</w>
试 验</w>
绝 对</w>
打 开</w>
从 而</w>
奇 怪</w>
各 地</w>
共 同</w>
第 一</w>
当 地</w>
太 阳</w>
表 达</w>
婴 儿</w>
需 求</w>
神 奇</w>
一 个
兴 奋</w>
训 练</w>
如 说</w>
一 系列</w>
暴 力</w>
它 会</w>
质 量</w>
显 然</w>
到 达</w>
什 么样</w>
运 作</w>
r e
飞 行</w>
是 说</w>
一 家</w>
体 系</w>
软 件</w>
对 此</w>
去 年</w>
之 中</w>
工 程</w>
尤 其</w>
表 明</w>
工 程
梦 想</w>
就 是说</w>
多 年</w>
因 素</w>
危 机</w>
接 触</w>
四 个</w>
假 设</w>
运 用</w>
转 变</w>
装 置</w>
空 气</w>
水 平</w>
如 今</w>
一 半</w>
.. ..
调 查</w>
消 失</w>
某 种
家 伙</w>
一 群</w>
革 命</w>
比 如说</w>
收 集</w>
神 经</w>
商 业</w>
值 得</w>
花 费</w>
自 然
强 大</w>
建 议</w>
距 离</w>
结 合</w>
第 二</w>
房 子</w>
想 想</w>
以 为</w>
某 个</w>
a l
表 演</w>
中 间</w>
设计 师</w>
标 准</w>
工 作
动 作</w>
o u
西 方</w>
美 好</w>
成 本</w>
男 孩</w>
糟 糕</w>
新 闻</w>
当 中</w>
冲 突</w>
s t
a c
高 兴</w>
规 则</w>
有 意思</w>
第二 个</w>
看 上去</w>
管 理</w>
成 长</w>
处 于</w>
办 公
痛 苦</w>
不 起</w>
艾滋 病</w>
条 件</w>
恐 惧</w>
出 去</w>
不 多</w>
进 步</w>
现 代</w>
物 体</w>
政 策</w>
每 次</w>
无 论</w>
基 于</w>
怎 么样</w>
人 民</w>
降 低</w>
9 0</w>
经 验</w>
和 平</w>
5 00</w>
测 量</w>
见 到</w>
放 到</w>
惊 人</w>
大 小</w>
一 块</w>
行 业</w>
学 会</w>
之 为</w>
鼓 掌</w>
称 之为</w>
段 时间</w>
内 部</w>
感 染</w>
学 到</w>
失 败</w>
看 来</w>
生 态
.... ..</w>
晚 上</w>
能 性</w>
投 入</w>
快 速</w>
特 殊</w>
氧 化
有 时候</w>
将 要</w>
吸 引</w>
话 题</w>
状 况</w>
l e</w>
电 子
很 棒</w>
基 因
分 之一</w>
相 反</w>
动 力</w>
关 心</w>
屏 幕</w>
一 份</w>
独 立</w>
法 律</w>
所 在</w>
情 绪</w>
两 年</w>
生 长</w>
价 格</w>
风 险</w>
难 以
要 是</w>
文 明</w>
信 仰</w>
表 示</w>
在 座</w>
漂 亮</w>
之 外</w>
a m
1 8</w>
拯 救</w>
保 证</w>
武 器</w>
蚂 蚁</w>
普 通</w>
星 期</w>
早 期</w>
恐 龙</w>
学 院</w>
任 何
角 色</w>
听 说</w>
C h
文 章</w>
下 降</w>
e n</w>
阿 富
避 免</w>
杂 志</w>
差 不多</w>
属 于</w>
可 怕</w>
刚 才</w>
出 生</w>
肿 瘤</w>
家 里</w>
理 学</w>
星 系</w>
运 行</w>
常 常</w>
就 要</w>
办公 室</w>
再 次</w>
7 0</w>
这 位</w>
背 景</w>
相 似</w>
接 近</w>
总 统</w>
国 际</w>
世界 各地</w>
幸 运</w>
博 客</w>
停 止</w>
蓝 色</w>
演 奏</w>
儿 子</w>
e s</w>
气 候</w>
患 者</w>
塑 料</w>
可 能性</w>
人 物</w>
人 会</w>
第 三
免 费</w>
元 素</w>
一 生</w>
课 程</w>
教 授</w>
情 感</w>
万 美元</w>
e l
2 00</w>
里 斯</w>
爆 炸</w>
神经 元</w>
权 利</w>
食 品</w>
长 大</w>
本 质</w>
报 道</w>
彼 此</w>
援 助</w>
很 难</w>
广 告</w>
工程 师</w>
资 金</w>
看 待</w>
英 语</w>
引 起</w>
企 业</w>
一 台</w>
开 放</w>
阿富 汗</w>
相 互</w>
火 星</w>
昆 虫</w>
怎 么
并 非</w>
谈 谈</w>
理 由</w>
威 胁</w>
发 出</w>
红 色</w>
比 亚</w>
模 拟</w>
压 力</w>
主 题</w>
同 事</w>
疯 狂</w>
日 本</w>
不 够</w>
e t
马 上</w>
说 话</w>
森 林</w>
做 些</w>
互 动</w>
思 维</w>
全 球
伊 斯
领 导
邀 请</w>
逐 渐</w>
责 任</w>
相 对</w>
打 算</w>
思 议</w>
平 均</w>
对 话</w>
证 据</w>
社 会
平 衡</w>
左 边</w>
二 氧化
不可 思议</w>
上 升</w>
一 点
一 代</w>
19 9
银 行</w>
无 论
化 学</w>
负 责</w>
特 定</w>
太阳 能</w>
回 家</w>
原 始</w>
博 物
任何 人</w>
互 相</w>
一 部</w>
层 面</w>
器 官</w>
取 得</w>
博物 馆</w>
医 学</w>
不 幸</w>
蛋 白
鼓 励</w>
联 合
理 学家</w>
人 群</w>
亿 美元</w>
生物 学</w>
年 轻
阅 读</w>
贫 穷</w>
设 施</w>
血 管</w>
男 性</w>
害 怕</w>
包 含</w>
从 未</w>
二氧化 碳</w>
群 体</w>
结 论</w>
温 度</w>
复 制</w>
积 极</w>
发 展
也 就是说</w>
物 理</w>
放 弃</w>
太 空</w>
阻 止</w>
试 着</w>
蛋白 质</w>
节 目</w>
者 说</w>
秘 密</w>
破 坏</w>
理 念</w>
或 者说</w>
将 来</w>
左 右</w>
多 样
同 意</w>
二 十
置 信</w>
精 神
居 住</w>
到 处</w>
观 念</w>
粒 子</w>
熟 悉</w>
公 共</w>
这 点</w>
背 后</w>
承 认</w>
- --</w>
音 乐
阿 拉
比 赛</w>
文 字</w>
收 到</w>
发 表</w>
不 了</w>
集 中</w>
终 于</w>
看 法</w>
电 视
实 在</w>
女 儿</w>
各 样</w>
而 已</w>
监 狱</w>
飞 行
面 前</w>
至 于</w>
利 益</w>
享 受</w>
一 百
著 名</w>
英 雄</w>
操 作</w>
心 脏</w>
不 好</w>
u r
20 00</w>
面 包</w>
采 用</w>
玩 耍</w>
工 厂</w>
部 门</w>
记 住</w>
认 知</w>
美 国
污 染</w>
有 用</w>
有 没有</w>
惊 讶</w>
循 环</w>
年 龄</w>
团 体</w>
呼 吸</w>
前 面</w>
生 产
演 示</w>
报 告</w>
所 知</w>
很 小</w>
主 意</w>
难以 置信</w>
很 少</w>
建 设</w>
年轻 人</w>
右 边</w>
原 理</w>
卫 星</w>
适 应</w>
老 鼠</w>
给 予</w>
相 比</w>
留 下</w>
气 候
旅 行</w>
成 员</w>
妻 子</w>
h a
进 一步</w>
某种 程度</w>
找 出</w>
差 异</w>
o l
i s
改 善</w>
拉 克</w>
中 有</w>
身 边</w>
细 节</w>
究 竟</w>
最 初</w>
感 知</w>
事 业</w>
电 子</w>
检 测</w>
报 纸</w>
诊 断</w>
后 面</w>
各 个</w>
一 段时间</w>
追 求</w>
趋 势</w>
富 有</w>
区 别</w>
制 度</w>
农 业</w>
TE D
S t
非常 感谢</w>
约 翰</w>
燃 料</w>
气候 变化</w>
恢 复</w>
工 业</w>
寿 命</w>
哪 些</w>
各 种
原 则</w>
全 新</w>
克 斯</w>
仔 细</w>
针 对</w>
走 进</w>
贡 献</w>
谈 到</w>
科 学
疫 苗</w>
往 往</w>
一 片</w>
稳 定</w>
成 果</w>
女 士</w>
作 者</w>
体 内</w>
一 边</w>
1 8
限 制</w>
附 近</w>
消 费
之 所以</w>
i n</w>
1 6</w>
进 去</w>
必 要</w>
大 型</w>
基因 组</w>
垃 圾</w>
信 任</w>
位 于</w>
进 来</w>
猩 猩</w>
灭 绝</w>
好 处</w>
个 体</w>
比 例</w>
并 不
企 鹅</w>
r a
重 复</w>
死 亡
核 心</w>
智 能</w>
如 同</w>
墨 西
创造 力</w>
领 导</w>
重 大</w>
慢 慢</w>
带 到</w>
外 面</w>
资 料</w>
穿 过</w>
看 过</w>
权 力</w>
各种 各样</w>
扫 描</w>
得 以</w>
变 革</w>
记 者</w>
网 上</w>
电 池</w>
独 特</w>
奇 妙</w>
启 发</w>
创 意</w>
以 上</w>
五 年</w>
一 座</w>
长 期</w>
适 合</w>
皮 肤</w>
来 源</w>
更 大</w>
对 待</w>
伦 敦</w>
为 此</w>
看 不到</w>
有 点
家 人</w>
大 规模</w>
加 上</w>
农 民</w>
作 家</w>
习 惯</w>
l e
a s
走 向</w>
完 整</w>
安 全
财 富</w>
警 察</w>
脆 弱</w>
热 情</w>
满 足</w>
指 出</w>
恒 星</w>
剩 下</w>
今 年</w>
迅 速</w>
输 入</w>
激 励</w>
按 照</w>
大 自然</w>
图 表</w>
古 老</w>
化 学
万 年</w>
一 句</w>
R o
坚 持</w>
创 建</w>
内 心</w>
克 里斯</w>
h i
途 径</w>
美 妙</w>
纽 约
展 现</w>
原 来</w>
军 队</w>
以 下</w>
之 类</w>
e l</w>
释 放</w>
说 法</w>
记 忆</w>
爱 因
爱因 斯坦</w>
得 出</w>
处 在</w>
从 事</w>
高 度</w>
美 金</w>
早 上</w>
愿 望</w>
总 结</w>
影 片</w>
开 心</w>
小 小
发展 中
发展中 国家</w>
原 子</w>
印 度
具 体</w>
这 会</w>
谷 歌</w>
要 说</w>
灾 难</w>
技 巧</w>
很 长</w>
幻 灯
小小 的</w>
业 家</w>
不 见</w>
2 1</w>
那 天</w>
联合 国</w>
特 征</w>
物 品</w>
沟 通</w>
旅 程</w>
掌 握</w>
强 烈</w>
做 成</w>
e s
1 000</w>
类 型</w>
爸 爸</w>
播 放</w>
搜 索</w>
公 园</w>
长 时间</w>
组 合</w>
深 入</w>
机 制</w>
效 率</w>
技 能</w>
幻灯 片</w>
一 套</w>
重 点</w>
部 落</w>
道 路</w>
购 买</w>
衣 服</w>
自 行
维 持</w>
斯 林</w>
改 造</w>
怀 疑</w>
便 宜</w>
从 中</w>
获 取</w>
第 三个</w>
社 交</w>
死亡 率</w>
标 记</w>
态 度</w>
广 泛</w>
合 适</w>
却 是</w>
传 递</w>
人 体</w>
专 业</w>
a v
顺 便</w>
沙 漠</w>
典 型</w>
1 ;</w>
&#9 1;</w>
解决 问题</w>
欢 迎</w>
我 用</w>
培 养</w>
刺 激</w>
分 布</w>
伊 拉克</w>
上 万</w>
一点 点</w>
超 越</w>
设 想</w>
翻 译</w>
等 待</w>
源 于</w>
旁 边</w>
大 卫</w>
图 书
可 行</w>
为 何</w>
s on</w>
3 ;</w>
19 8
&#9 3;</w>
达 尔
转 移</w>
确 保</w>
相 机</w>
猴 子</w>
消 耗</w>
期 望</w>
一 刻</w>
1 4</w>
摄 像
提 醒</w>
我 来</w>
成 千
心 理</w>
平 台</w>
哪 儿</w>
哪 个</w>
企 业家</w>
一 本</w>
金 钱</w>
贫 困</w>
理 想</w>
消费 者</w>
没 什么</w>
气 体</w>
死 去</w>
建筑 师</w>
伤 害</w>
舞 台</w>
手 段</w>
基 金
员 工</w>
合 成</w>
3 00</w>
行 走</w>
旋 转</w>
拿 到</w>
太 多</w>
图书 馆</w>
反 对</w>
公 开</w>
严 肃</w>
不 停</w>
in g</w>
c h
麻 烦</w>
超 级</w>
竞 争</w>
消 费</w>
好 消息</w>
回 去</w>
动 机</w>
公 众</w>
为 止</w>
1 7</w>
黑 洞</w>
想 像</w>
恐 怖
带 给</w>
即 将</w>
关 联</w>
保 护
会 儿</w>
障 碍</w>
轨 道</w>
职 业</w>
种 族</w>
相 当
用 户</w>
玩 具</w>
版 本</w>
成千 上万</w>
成 就</w>
多样 性</w>
判 断</w>
1 9</w>
邮 件</w>
注 意
交 谈</w>
一 辆</w>
i l
这 场</w>
现 场</w>
环 保</w>
渴 望</w>
法 国</w>
作 出</w>
他 会</w>
了 不起</w>
不 久</w>
三 年</w>
oo g
案 例</w>
奖 励</w>
同 一个</w>
千 年</w>
件 事</w>
专 利</w>
一 大
t er</w>
非常 简单</w>
除 非</w>
选 举</w>
说 服</w>
简 直</w>
种 类</w>
特 性</w>
浪 费</w>
流 感</w>
注意 力</w>
检 查</w>
曲 线</w>
忘 记</w>
基 础
启 动</w>
t h
解决 方案</w>
画 面</w>
生态 系统</w>
漫 画</w>
深 刻</w>
期 间</w>
发 光</w>
做 过</w>
C A</w>
身 份</w>
祖 先</w>
涉 及</w>
流 行</w>
标 志</w>
有 所</w>
攻 击</w>
后 果</w>
依 靠</w>
不 可</w>
远 镜</w>
运 动
自行 车</w>
聚 集</w>
缺 乏</w>
望 远镜</w>
效 应</w>
形 态</w>
应 对</w>
平 等</w>
寻 常</w>
博 士</w>
前 进</w>
i P
面 积</w>
调 整</w>
自 动</w>
瞬 间</w>
相当 于</w>
玻 璃</w>
年 里</w>
回 事</w>
做 法</w>
交 易</w>
u n
视 角</w>
肌 肉</w>
灵 感</w>
怎么 办</w>
录 像</w>
公 共
众 人</w>
G oog
电 力</w>
理 性</w>
整 体</w>
政 治
发 挥</w>
准 确</w>
依 赖</w>
诞 生</w>
要 么</w>
自 由
穆 斯林</w>
构 成</w>
惊 奇</w>
强 调</w>
尼 日
历 史
化 石</w>
便 是</w>
优 秀</w>
u b
A n
道 理</w>
致 命</w>
统 计</w>
演 员</w>
极 其</w>
大 众</w>
地 位</w>
同 情</w>
估 计</w>
d i
A l
2 4</w>
金 属</w>
真 相</w>
提 升</w>
排 放</w>
呈 现</w>
共 享</w>
公 民</w>
非 洲
期 待</w>
摄 影
手 指</w>
情 心</w>
展 开</w>
士 兵</w>
同 情心</w>
南 非</w>
两 者</w>
o m
驾 驶</w>
有 力</w>
最 高</w>
当 作</w>
展 览</w>
商 品</w>
印 象</w>
千 万</w>
公 里</w>
倾 听</w>
依 然</w>
一 面</w>
难 以</w>
逻 辑</w>
送 到</w>
穿 着</w>
海 岸</w>
椅 子</w>
摆 脱</w>
心 脏
德 国</w>
平 面</w>
大 会</w>
图 案</w>
几 天</w>
倾 向</w>
交 通
专 注</w>
一 致</w>
i k
Goog le</w>
1 3</w>
黑 暗</w>
采 访</w>
点 子</w>
村 庄</w>
本 来</w>
就 算</w>
基金 会</w>
名 为</w>
北 部</w>
付 出</w>
人 心</w>
随 后</w>
费 用</w>
衡 量</w>
穷 人</w>
疑 问</w>
激 情</w>
活 跃</w>
毫 无
有点 像</w>
情 形</w>
彻 底</w>
开 车</w>
应 当</w>
尊 重</w>
好 奇</w>
合 物</w>
保 存</w>
伊 朗</w>
五 个</w>
J o
这 时</w>
这 方面</w>
赢 得</w>
普 遍</w>
打 电话</w>
大 陆</w>
可 见</w>
丰 富</w>
采 取</w>
观 看</w>
精 确</w>
极 端</w>
来 讲</w>
成 立</w>
带 有</w>
小 说</w>
咖 啡</w>
吃 惊</w>
兄 弟</w>
这 部</w>
说 道</w>
能 否</w>
罗 斯</w>
管 理
相 互
生 意</w>
激 动</w>
没 法</w>
模 仿</w>
构 建</w>
教 堂</w>
执 行</w>
尔 斯</w>
安 德
基础 设施</w>
培 训</w>
变 暖</w>
加 拿
修 复</w>
亿 年</w>
一 篇</w>
a g
魅 力</w>
阳 光</w>
边 缘</w>
直 觉</w>
杀 死</w>
探 讨</w>
头 脑</w>
夏 天</w>
地 点</w>
围 绕</w>
合 理</w>
不 知</w>
震 惊</w>
路 上</w>
谈 话</w>
称 作</w>
混 合</w>
标 签</w>
懂 得</w>
意 见</w>
工 人</w>
仪 器</w>
一 幅</w>
e v
重 建</w>
致 力
致力 于</w>
紧 张</w>
笔 记
现 状</w>
改 进</w>
对 方</w>
地 面</w>
名 叫</w>
医 疗
冒 险</w>
全球 化</w>
饮 食</w>
这 条</w>
还 会</w>
象 征</w>
要 性</w>
肯 尼亚</w>
经济 学家</w>
盒 子</w>
火 箭</w>
没 错</w>
昨 天</w>
无论 是</w>
放 大</w>
意 大
想 起</w>
层 次</w>
密 度</w>
客 户</w>
固 定</w>
体 现</w>
人 性</w>
举 个</w>
4 00</w>
飞行 器</w>
预 防</w>
舞 蹈</w>
生物 学家</w>
片 段</w>
人 数</w>
一 遍</w>
黑 猩猩</w>
驱 动</w>
领 袖</w>
邻 居</w>
秒 钟</w>
此 类</w>
根 本
样 本</w>
数 据
教 师</w>
平 均
干 细胞</w>
取 决
取决 于</w>
华 盛
做 好</w>
伙 伴</w>
人 士</w>
之 内</w>
一 无
5 000</w>
良 好</w>
症 状</w>
更 为</w>
推 动</w>
手 臂</w>
引 发</w>
崩 溃</w>
尽 可能</w>
尼日 利亚</w>
少 年</w>
可 爱</w>
以 色
上 学</w>
o m</w>
l i
融 合</w>
精 彩</w>
着 手</w>
氧 气</w>
措 施</w>
指 数</w>
抓 住</w>
性 化</w>
引 擎</w>
发 布</w>
价 值
重 要性</w>
赋 予</w>
认 真</w>
矛 盾</w>
慈 善</w>
律 师</w>
常 见</w>
差 别</w>
小 组</w>
天 空</w>
信 念</w>
保 留</w>
以 至于</w>
交 通</w>
一 颗</w>
4 5</w>
预 算</w>
评 论</w>
表 情</w>
稍 微</w>
种 植</w>
犯 罪</w>
混 乱</w>
正 好</w>
推 广</w>
影 像</w>
年 人</w>
小 型</w>
实 践</w>
噪 音</w>
不 少</w>
进 展</w>
达尔 文</w>
达 成</w>
算 法</w>
机 械</w>
损 失</w>
扩 大</w>
愤 怒</w>
感 情</w>
引 力</w>
全 国</w>
以色 列</w>
难 道</w>
链 接</w>
血 液</w>
疟 疾</w>
照 顾</w>
潜 力</w>
查 德</w>
拒 绝</w>
字 母</w>
娱 乐</w>
保 罗</w>
之 下</w>
丈 夫</w>
频 率</w>
隐 藏</w>
统 计
空 中</w>
移 植</w>
看 出</w>
洛 杉
成 分</w>
心脏 病</w>
寻 求</w>
对 象</w>
子 里</w>
吸 收</w>
光 线</w>
书 籍</w>
a l</w>
雕 塑</w>
蚊 子</w>
苹 果</w>
种 子</w>
界 面</w>
物 理学家</w>
法 则</w>
极 大</w>
改 革</w>
摄 影</w>
承 诺</w>
意 外</w>
巴 基
多 种</w>
埃 及</w>
加拿 大</w>
一 小
i ll
高 尔
集 体</w>
难 题</w>
识 别</w>
袭 击</w>
而 来</w>
沿 着</w>
教 学</w>
巴基 斯坦</w>
坐 下</w>
加 州</w>
几 百
代 价</w>
人 工</w>
三 维</w>
高 中</w>
这 边</w>
蜜 蜂</w>
私 人</w>
生 态</w>
无 限</w>
奇 迹</w>
商 店</w>
农 场</w>
众 多</w>
伊斯 兰
仪 式</w>
一 层</w>
额 外</w>
策 略</w>
活 着</w>
沮 丧</w>
忽 略</w>
发 射</w>
单 词</w>
十 亿</w>
制 定</w>
保 健</w>
伊斯兰 教</w>
亚 洲</w>
之 处</w>
e b
饥 饿</w>
销 售</w>
这 类</w>
覆 盖</w>
街 道</w>
艰 难</w>
至 今</w>
练 习</w>
百分 之</w>
潜 在</w>
清 晰</w>
气 球</w>
桌 子</w>
查 看</w>
放 进</w>
微 小</w>
影 响
形 象</w>
庞 大</w>
宣 传</w>
土 壤</w>
十 年代</w>
伯 特</w>
主 义
与 此
不 同
7 5</w>
黄 色</w>
那 边</w>
设 置</w>
角 落</w>
自 从</w>
神 秘</w>
理 查德</w>
珊 瑚
流 动</w>
影响 力</w>
度 过</w>
实 施</w>
场 景</w>
喜 爱</w>
分 离</w>
主义 者</w>
上 来</w>
r o
e c
. 5</w>
首 歌</w>
阿拉 伯</w>
镜 头</w>
辩 论</w>
起 源</w>
规 律</w>
药 品</w>
穿 越</w>
着 迷</w>
皮 层</w>
现 有</w>
爱 情</w>
有 机</w>
斯 特</w>
换 句
巴 西</w>
定 律</w>
学 者</w>
存 活</w>
回 收</w>
出 版</w>
公 平</w>
以 外</w>
一 首</w>
on e</w>
M ar
这 有</w>
象 力</w>
美 洲</w>
繁 殖</w>
白 色</w>
热 爱</w>
文 件</w>
感 官</w>
想 象力</w>
微 笑</w>
布 鲁
工 业
圣 经</w>
史 蒂
价值 观</w>
争 论</w>
不 行</w>
万 个</w>
一 组</w>
i p
a b
靠 近</w>
适 用</w>
这 幅</w>
走 出</w>
话 说</w>
看 不见</w>
有 限</w>
折 叠</w>
开 展</w>
干 什么</w>
好 事</w>
回 应</w>
再 也</w>
不 必</w>
编 辑</w>
符 合</w>
玩 笑</w>
爆 发</w>
激 发</w>
景 象</w>
日 子</w>
护 士</w>
愿 者</w>
延 伸</w>
乐 观</w>
一个 月</w>
一 千
a u
D av
随 机</w>
给 出</w>
礼 物</w>
珊瑚 礁</w>
现 代
每 当</w>
构 造</w>
最 佳</w>
明 确</w>
支 付</w>
换句 话说</w>
底 部</w>
家 长</w>
只 不过</w>
另一 方面</w>
反 映</w>
分 裂</w>
专 门</w>
三 分之一</w>
Ch ri
6 00</w>
1 50</w>
黑 人</w>
棒 了</w>
提 取</w>
意大 利</w>
心 灵</w>
年 级</w>
小 心</w>
对 称</w>
太 棒了</w>
墙 上</w>
区 分</w>
产 业</w>
一 根</w>
S h
鲨 鱼</w>
运 转</w>
过 度</w>
规 划</w>
葡 萄
祖 母</w>
物 理学</w>
测 器</w>
洛杉 矶</w>
欣 赏</w>
染 色
投 票</w>
志 愿者</w>
头 发</w>
大 楼</w>
哲 学</w>
卫 生
决 策</w>
关 键
促 进</w>
优 势</w>
以 此</w>
中 学</w>
中 东</w>
万 人</w>
S A</w>
腺 癌</w>
组 装</w>
纤 维</w>
第 三</w>
打 破</w>
微 生物</w>
太 平
复 杂
商 业
去 世</w>
加 利
共 同
体 会</w>
交 换</w>
乐 器</w>
i d</w>
a y</w>
风 格</w>
防 止</w>
这 样
这 份</w>
资 本</w>
符 号</w>
由 此</w>
民 族</w>
染色 体</w>
日 常
斯 蒂
敌 人</w>
携 带</w>
技 术
当 今</w>
对 比</w>
在 我
加 速</w>
分 配</w>
使 用
代 码</w>
ub e</w>
1 0
领导 者</w>
西 班
研 发</w>
石 头</w>
犹 太
最 新</w>
显 得</w>
明 天</w>
指 导</w>
感 器</w>
愚 蠢</w>
患 有</w>
庆 祝</w>
差 距</w>
屋 顶</w>
在 乎</w>
命 名</w>
单 位</w>
传 感器</w>
人 类
争 议</w>
乐 趣</w>
个 月</w>
三 种</w>
T h
鸟 类</w>
重 视</w>
遗 传
连 接
这 块</w>
规 定</w>
自然 界</w>
算 是</w>
疼 痛</w>
疗 法</w>
新 型</w>
探 测</w>
市 场
地 说</w>
同 一</w>
原 本</w>
9 9</w>
19 6
食 用</w>
部 队</w>
老 人</w>
立 刻</w>
珊 瑚</w>
毕 业</w>
无 线
斯 特
安 排</w>
塑 造</w>
回 顾</w>
反 馈</w>
厨 房</w>
单 一</w>
储 存</w>
停 下来</w>
人 口
与此 同时</w>
一 把</w>
面 部</w>
那 位</w>
跟 着</w>
莱 坞</w>
生 命
格 兰</w>
极 了</w>
昂 贵</w>
时 报</w>
斗 争</w>
拿 出</w>
年 间</w>
小 孩子</w>
反 而</w>
动 画</w>
供 应</w>
作 业</w>
两 次</w>
一 周</w>
一 会儿</w>
a d
Y ou
骨 头</w>
青 少年</w>
进 程</w>
论 文</w>
讨 厌</w>
紧 密</w>
碰 到</w>
扮 演</w>
心 理学</w>
引 用</w>
序 列</w>
太平 洋</w>
地 下</w>
地 上</w>
听 众</w>
公 路</w>
先 进</w>
传 达</w>
众 笑</w>
不 像</w>
一 间</w>
一 所</w>
r y</w>
餐 厅</w>
顺 利</w>
这 句</w>
认 同</w>
精 力</w>
灵 魂</w>
步 骤</w>
数 学家</w>
放 入</w>
定 性</w>
在我 看来</w>
可 不是</w>
去 过</w>
华盛 顿</w>
六 个</w>
保护 区</w>
亿 人</w>
世 上</w>
一 方面</w>
高 级</w>
飞 船</w>
非洲 人</w>
追 踪</w>
转 换</w>
赚 钱</w>
禁 止</w>
电 脑
活 力</w>
水 下</w>
查 尔斯</w>
擅 长</w>
引 导</w>
居 民</w>
宣 布</w>
好 玩</w>
大 气</w>
墨西 哥</w>
回 报</w>
h a</w>
e m
足 以</w>
见 过</w>
花 粉</w>
斯 坦
摄像 机</w>
探 测器</w>
所 未
忽 视</w>
得 知</w>
干 净</w>
好 好</w>
大 气
国 人</w>
发 明
冰 川</w>
再 生</w>
关 闭</w>
以 便</w>
下 一代</w>
一 堆</w>
w it
远 远</w>
讲 故事</w>
解 答</w>
续 性</w>
经济 学</w>
瑞 典</w>
演 化</w>
游 泳</w>
海 水</w>
正 义</w>
模 糊</w>
最 为</w>
旧 金
安德 森</w>
品 牌</w>
含 量</w>
受 伤</w>
发 起</w>
南 部</w>
促 使</w>
人 人</w>
个 人
陷 入</w>
这 片</w>
突 破</w>
科 医生</w>
演 讲
液 体</w>
毫 无</w>
比 起</w>
服 务
描 绘</w>
承 受</w>
四 年</w>
协 议</w>
u s
a r</w>
3 5</w>
200 8</w>
预 期</w>
部 长</w>
运动 员</w>
粮 食</w>
生 成</w>
现 今</w>
特 点</w>
此 外</w>
扩 张</w>
心 中</w>
奴 隶</w>
天 堂</w>
在 场</w>
含 义</w>
协 调</w>
制 造
分 开</w>
伊斯 兰</w>
今 日</w>
e d</w>
b er
非 凡</w>
钢 琴</w>
透 明</w>
运 输</w>
转 向</w>
讲 话</w>
虚 拟</w>
第二 天</w>
深 处</w>
治 愈</w>
比 尔</w>
枪 鱼</w>
显 著</w>
无 聊</w>
敏 感</w>
控 制
心 里</w>
天 气</w>
天 才</w>
大气 层</w>
在 一起</w>
取 代</w>
出 发</w>
信 心</w>
伴 随</w>
两 倍</w>
i e</w>
阿 尔
金 枪鱼</w>
蚊 帐</w>
腐 败</w>
群 岛</w>
纪 录</w>
神 话</w>
点 击</w>
沃 尔
树 木</w>
整 合</w>
屠 杀</w>
多 久</w>
增 强</w>
国 际
受 害
充 分</w>
俄 罗斯</w>
人 造</w>
wit ter</w>
19 7
远 离</w>
这 才</w>
诊 所</w>
脂 肪</w>
耳 朵</w>
竟 然</w>
留 在</w>
用 到</w>
生 活
烹 饪</w>
演 出</w>
清 洁</w>
教 室</w>
教 会</w>
打 印</w>
所 能</w>
尾 巴</w>
学 科</w>
基 督
地 震</w>
图 形</w>
员 会</w>
全球 性</w>
乐 队</w>
不 去</w>
Chri s</w>
走 路</w>
贫 民
般 的</w>
满 意</w>
深 海</w>
海 豚</w>
最 早</w>
旧金 山</w>
日常 生活</w>
摄影 师</w>
掌 控</w>
成 绩</w>
成 像</w>
布 朗</w>
委 员会</w>
坚 信</w>
否 则</w>
及 其</w>
即 兴</w>
午 餐</w>
加利 福
全 都</w>
一 切
e y</w>
a k
高 效</w>
金 融
跳 舞</w>
芯 片</w>
芝 加
翅 膀</w>
笔记 本
笔记本 电脑</w>
笑 话</w>
生 素</w>
炸 弹</w>
澳 大
渐 渐</w>
海 底</w>
概 率</w>
某 人</w>
文 学</w>
悲 剧</w>
平 方
安 静</w>
反 射</w>
即 便</w>
前 所未
写 作</w>
克 服</w>
事 儿</w>
转 化</w>
谢 谢
脑 袋</w>
联 合</w>
网 页</w>
研究 所</w>
真 实
相 连</w>
目 睹</w>
民 主
某种 意义</w>
无 线</w>
所 处</w>
我 花</w>
悲 伤</w>
德 里</w>
巴 马</w>
小 行星</w>
墨西 哥
四 处</w>
可 乐</w>
只 会</w>
内 在</w>
具 备</w>
信 息
万 年前</w>
i s</w>
a s</w>
N A
Dav id</w>
那 一刻</w>
贸 易</w>
贷 款</w>
课 堂</w>
论 者</w>
至 关
胜 利</w>
结 婚</w>
纳 米
极 度</w>
方 便</w>
推 进</w>
心 理学家</w>
异 常</w>
座 椅</w>
已 有</w>
工作 室</w>
字 典</w>
多 次</w>
外 部</w>
地 理</w>
在 线</w>
变 异</w>
卫 生</w>
出 色</w>
200 7</w>
采 集</w>
部 件</w>
辐 射</w>
诗 人</w>
评 估</w>
至关 重要</w>
编 程</w>
确 信</w>
燃 烧</w>
消 除</w>
机 场</w>
无 数</w>
扩 展</w>
想 着</w>
幻 觉</w>
宝 宝</w>
处 理
困 境</w>
变 为</w>
剧 院</w>
几 分钟</w>
共 和
体 制</w>
传 染
众 不同</w>
与 众不同</w>
不 论</w>
不 让</w>
一 小</w>
黄 金</w>
鱼 类</w>
韩 国</w>
重 量</w>
部 位</w>
跨 越</w>
荣 幸</w>
苍 蝇</w>
色 彩</w>
美 分</w>
祈 祷</w>
短 片</w>
毕 竟</w>
无论 如何</w>
当 成</w>
岩 石</w>
定 位</w>
安 装</w>
土 星</w>
国 会</w>
命 运</w>
北 极</w>
前 景</w>
共 振</w>
依 赖
一 分钟</w>
u s</w>
oo k</w>
ar d</w>
an d
餐 馆</w>
页 面</w>
长 度</w>
进 化
维 度</w>
本 地</w>
月 球</w>
数 以
成 人</w>
愉 快</w>
建筑 物</w>
密 码</w>
基 金</w>
场 所</w>
和 谐</w>
受害 者</w>
勇 气</w>
到 来</w>
人 工
之 心</w>
T witter</w>
H I
遭 受</w>
遥 远</w>
连 续</w>
这 段</w>
这 座</w>
资 助</w>
证 实</w>
绝 望</w>
绝 大多数</w>
绘 画</w>
相 应</w>
水 中</w>
拉 斯</w>
成 熟</w>
干 达</w>
带 领</w>
完 全
宇 宙
媒 介</w>
婚 姻</w>
好 比</w>
天 花</w>
士 们</w>
喜 剧</w>
动 态</w>
利 润</w>
代 人</w>
乌 干达</w>
不 足</w>
下 午</w>
m an</w>
h one</w>
a y
音乐 家</w>
试 试</w>
计算 机
解 放</w>
自 我
而 易
统 一</w>
窗 户</w>
画 家</w>
玩 家</w>
洞 穴</w>
水 母</w>
既 然</w>
接 到</w>
承 担</w>
失 望</w>
大 象</w>
制 成</w>
分 散</w>
人 才</w>
专 业
一 头</w>
o p
高尔 夫
马 斯</w>
阐 述</w>
都 是</w>
质 疑</w>
访 问</w>
解 读</w>
融 入</w>
蜘 蛛</w>
结 尾</w>
磁 共振</w>
眼 前</w>
牺 牲</w>
牙 齿</w>
流 行
注 入</w>
框 架</w>
替 代</w>
整 理</w>
房 屋</w>
广 场</w>
幻 想</w>
少 数</w>
实 时</w>
太阳 系</w>
大 多</w>
多 个</w>
国 内</w>
化 合物</w>
分 成</w>
农 村</w>
不 管
一 支</w>
i d
e ll
e d
c om</w>
X 光</w>
黑 色</w>
马 拉
随 便</w>
退 休</w>
过 于</w>
谢谢 你们</w>
营 销</w>
英 寸</w>
经 营</w>
立 即</w>
火 车</w>
温 室</w>
此 刻</w>
植 入</w>
月 份</w>
显 微
撞 击</w>
恐 怖</w>
开 来</w>
年 来</w>
帝 国</w>
尺 寸</w>
姐 妹</w>
外 交
地 表</w>
哺 乳
味 道</w>
告 知</w>
各 自</w>
前 提</w>
ic h
e t</w>
Jo h
An d
鼠 标</w>
领导 人</w>
这 台</w>
跟 踪</w>
读 者</w>
蘑 菇</w>
蔬 菜</w>
英 文</w>
节 奏</w>
自 豪</w>
聆 听</w>
罗 马</w>
统 治</w>
纽约 时报</w>
童 年</w>
睡 眠</w>
男 子</w>
生 涯</w>
照 明</w>
澳大 利亚</w>
机 遇</w>
摧 毁</w>
抽 象</w>
大 人</w>
复杂 性</w>
埃 塞
取 出</w>
例 外</w>
以 往</w>
人 能</w>
事 是</w>
乳 腺癌</w>
之 上</w>
一小 部分</w>
i r
鼻 子</w>
遵 循</w>
详 细</w>
诗 歌</w>
营 养</w>
网 络
缺 陷</w>
睡 觉</w>
眼 镜</w>
白 人</w>
灯 泡</w>
没 人</w>
歌 曲</w>
欲 望</w>
来 源于</w>
村 子</w>
更 新</w>
持 续性</w>
折 纸</w>
很 酷</w>
底 下</w>
平 常</w>
土 耳
偶 然</w>
保 障</w>
主 流</w>
一 看</w>
一 想</w>
200 5</w>
首 次</w>
陆 地</w>
镜 子</w>
遗 传</w>
身 处</w>
说 出</w>
虚 拟
舒 服</w>
编 码</w>
纳 米</w>
等 于</w>
第 四
神 圣</w>
潜 水</w>
波 士
法 案</w>
毫无 疑问</w>
抑 制</w>
就 让</w>
尔 特</w>
小 时候</w>
家 庭
家 具</w>
天 然</w>
咖 啡
单 独</w>
协 作</w>
制 品</w>
分 类</w>
公 正</w>
做 点</w>
代 替</w>
不 太
上 千</w>
一 同</w>
1 .
高 科技</w>
隔 离</w>
遗 憾</w>
过 滤</w>
资 本
讽 刺</w>
视 力</w>
芝加 哥</w>
自 信</w>
碎 片</w>
看 作</w>
监 控</w>
特 技</w>
灵 活</w>
核 能</w>
有 过</w>
曲 子</w>
星 期
无 比</w>
收 获</w>
拥 抱</w>
抛 弃</w>
干 预</w>
山 脉</w>
尼 亚
小 女孩</w>
审 视</w>
宗 教
女 士们</w>
大 笑</w>
周 期</w>
后 代</w>
双 手</w>
前所未 有</w>
交 给</w>
一 整
iP hone</w>
a m</w>
200 9</w>
集 团</w>
阿 瑟</w>
酒 店</w>
迷 人</w>
起 到</w>
诚 实</w>
设 立</w>
简 短</w>
第 一步</w>
种 种</w>
短 信</w>
激 素</w>
深 远</w>
正 式</w>
显微 镜</w>
旺 达</w>
教 徒</w>
政治 家</w>
屋 子</w>
尼 斯</w>
姆 斯</w>
头 上</w>
外 线</w>
外 界</w>
困 扰</w>
向 前</w>
反 复</w>
卢 旺达</w>
出 售</w>
其 次</w>
使 命</w>
似 的</w>
从 没</w>
乔 治</w>
不 安</w>
不 太</w>
三 十</w>
at h
an d</w>
3 000</w>
高尔夫 球</w>
随 时</w>
阴 道</w>
重 力</w>
超 市</w>
走 过</w>
联 盟</w>
缺 少</w>
缓 慢</w>
第 一件</w>
百 年</w>
注 射</w>
波士 顿</w>
正 面</w>
权 威</w>
暗 物质</w>
排 列</w>
损 伤</w>
指 挥</w>
抱 怨</w>
惩 罚</w>
惊 叹</w>
怀 孕</w>
当 下</w>
对 抗</w>
对 应</w>
奥 斯
圣 诞
出 于</w>
几 十年</w>
优 雅</w>
仿 佛</w>
人 脑</w>
亲 密</w>
交 道</w>
事 故</w>
不 止</w>
七 个</w>
i v
L e
3 D</w>
2 2</w>
魔 术</w>
顶 端</w>
雇 佣</w>
金 融</w>
重 新
遍 布</w>
通 讯</w>
这 部分</w>
运 算</w>
讲 座</w>
视 为</w>
苏 联</w>
自 主</w>
而易 见</w>
绘 制</w>
真 理</w>
生 日</w>
焦 虑</w>
海 地</w>
水 源</w>
板 球</w>
显 而易见</w>
早 晨</w>
换 成</w>
我 试</w>
我 刚</w>
戈 尔</w>
意 料</w>
微 软</w>
幸 福
带 上</w>
巴 黎</w>
封 面</w>
完 善</w>
天 然
大 街</w>
埃塞 俄
囚 犯</w>
十 万</w>
全 面</w>
停 车
做 个</w>
传 染</w>
下 载</w>
上 下</w>
l o
a d</w>
E D</w>
阻 碍</w>
队 伍</w>
错 觉</w>
轨 迹</w>
言 之</w>
街 区</w>
繁 荣</w>
福 利</w>
现 实
特 质</w>
每 周</w>
核 武器</w>
有 害</w>
无 关</w>
数据 库</w>
推 出</w>
挽 救</w>
挖 掘</w>
托 马斯</w>
性 质</w>
得 多</w>
录 片</w>
建 成</w>
并不 知道</w>
干 扰</w>
奥 巴马</w>
塑 料
含 有</w>
可 靠</w>
发 行</w>
化学 物质</w>
加 拉
公 寓</w>
克 力</w>
依赖 于</w>
何 时</w>
乳 房</w>
乐 意</w>
乐 团</w>
两 位</w>
不 然</w>
一 类</w>
i a</w>
eb ook</w>
ac ebook</w>
NA SA</w>
19 5
鲸 鱼</w>
食 物
金 字
金字 塔</w>
里 克</w>
讲 讲</w>
观 测</w>
西 部</w>
糖 尿
简 洁</w>
种 族
祖 父</w>
牛 奶</w>
潜 水
未 知</w>
有 种</w>
有 幸</w>
方 形</w>
提 琴</w>
挣 扎</w>
按 钮</w>
折 磨</w>
打 交道</w>
战 斗</w>
想 一想</w>
怎么 回事</w>
很 多
帮 忙</w>
将 近</w>
大 胆</w>
多 人</w>
基 地</w>
哥 伦
各 国</w>
只 用</w>
发 送</w>
印 机</w>
卡 车</w>
分 解</w>
决 心</w>
代 谢</w>
产 物</w>
三 角
一大 堆</w>
i m
麦 克
顾 客</w>
革 新</w>
调 节</w>
诺 贝
诸 如
诸如 此类</w>
词 汇</w>
角 度
病 菌</w>
生 气</w>
清 单</w>
深 度</w>
消 灭</w>
河 流</w>
毁 灭</w>
构 想</w>
来 不</w>
普 通
星 人</w>
新 鲜</w>
数 目</w>
数 字
探 险</w>
批 评</w>
手 中</w>
总 之</w>
形 容</w>
开 启</w>
巧 克力</w>
家 园</w>
家 乡</w>
姿 势</w>
埃塞俄 比亚</w>
参 与
原 料</w>
北 美</w>
加 纳</w>
力 学</w>
前 往</w>
创造 性</w>
作 物</w>
传 输</w>
会 想</w>
从 来不</w>
两 天</w>
M a
闭 症</w>
议 员</w>
融 化</w>
自 闭症</w>
脱 离</w>
耐 心</w>
糖尿 病</w>
管 道</w>
神经 系统</w>
看 成</w>
的 是</w>
百 科</w>
留 给</w>
用 途</w>
生 动物</w>
灯 光</w>
深 深</w>
比 喻</w>
每 秒</w>
标 题</w>
极 限</w>
杰 出</w>
服 用</w>
有 名</w>
晚 餐</w>
时 光</w>
提 议</w>
打 击</w>
所 见</w>
总 会</w>
很 感兴趣</w>
录 制</w>
当 前</w>
当 做</w>
家 族</w>
处理 器</w>
哈 佛</w>
分 之
出 版
几 周</w>
冬 天</w>
军 事</w>
任 意</w>
五 十</w>
乡 村</w>
I T</w>
高 速</w>
髓 灰
髓灰 质
髓灰质 炎</w>
随 意</w>
随 之</w>
走 上</w>
许 多
角度 看</w>
衰 老</w>
蛋 白</w>
脊 髓灰质炎</w>
百分之 九
电 线</w>
申 请</w>
生 育</w>
瑞 士</w>
玩 意
玩意 儿</w>
玉 米</w>
版 权</w>
爱 尔
溯 到</w>
欺 骗</w>
有 益</w>
最 快</w>
曼 哈
明 年</w>
整 整</w>
撒 哈
拿 走</w>
投 资
手 里</w>
感 应</w>
性 别</w>
康 复</w>
年 纪</w>
已 知</w>
居 然</w>
对 付</w>
实 体</w>
大 厅</w>
土耳 其</w>
台 上</w>
口 袋</w>
发 育</w>
写 道</w>
保 持
你 好</w>
今 晚</w>
亲 爱</w>
交 配</w>
一 来</w>
一 副</w>
F acebook</w>
C ar
200 6</w>
20 10</w>
2 6</w>
顺 序</w>
荷 兰</w>
自 杀</w>
职 业
缩 小</w>
竞 赛</w>
积 累</w>
相互 作用</w>
相 处</w>
百 万
浏 览</w>
景 观</w>
数 码</w>
教 训</w>
指 令</w>
抱 歉</w>
抑 郁</w>
成 年人</w>
很多 很多</w>
很 久
张 图</w>
引 入</w>
幽 默</w>
布 什</w>
尼 尔</w>
富 裕</w>
孤 独</w>
好 莱坞</w>
女 孩子</w>
大 海</w>
啤 酒</w>
哺乳 动物</w>
呼 吁</w>
听 过</w>
十 个</w>
创 伤</w>
六 个月</w>
传 到</w>
人 均</w>
不 如</w>
一 员</w>
一 共</w>
u m
u l
u d
th e</w>
o c
ic k
HI V</w>
B r
A r
19 60</w>
边 界</w>
身 为</w>
街 头</w>
航 空
膨 胀</w>
脑 部</w>
经 典</w>
竞 争
积 极
瓶 子</w>
温 暖</w>
清 理</w>
汽 车
有 史
有史 以来</w>
捐 赠</w>
手 上</w>
成 百
微 型</w>
底 层</w>
头 部</w>
天 赋</w>
大 西
地 带</w>
在 世界
在世界 上</w>
国 王</w>
向 上</w>
另一 边</w>
受 欢迎</w>
参 观</w>
占 据</w>
刚 好</w>
内 战</w>
共 鸣</w>
克 尔</w>
储 蓄</w>
依 据</w>
不 光</w>
一切 都是</w>
一 路</w>
o r</w>
di a</w>
an g
T ube</w>
D P</w>
200 4</w>
0 000</w>
高 速
面 包
适 应
车 祸</w>
资本 主义</w>
谈 判</w>
请 求</w>
设 定</w>
碰 撞</w>
界 限</w>
现 出</w>
环 绕</w>
激 活</w>
激 光</w>
根本 上</w>
样 才能</w>
时 尚</w>
新 闻
恰 恰</w>
怎 样才能</w>
德 拉</w>
当 初</w>
弯 曲</w>
开 关</w>
希 腊</w>
巨 型</w>
工作 者</w>
工 资</w>
崛 起</w>
孩 儿</w>
失 明</w>
天然 气</w>
城 市
回 忆</w>
可 怜</w>
原 型</w>
厉 害</w>
准 则</w>
全 是</w>
从 根本上</w>
中 央</w>
个 性化</w>
个 性</w>
不 通</w>
不 上</w>
上 网</w>
上 方</w>
i l</w>
I n
B o
6 5</w>
2 7</w>
麻 省
麻省 理
食物 链</w>
飞行 员</w>
非 政府</w>
青 蛙</w>
震 动</w>
遭 遇</w>
视 野</w>
西班 牙</w>
街 上</w>
艾 米</w>
脸 上</w>
老 板</w>
老 化</w>
维 护</w>
维 基
维基 百科</w>
系 统
确 认</w>
确 切</w>
特 网</w>
火 山</w>
汽 油</w>
检 验</w>
本 能</w>
有 利</w>
数 学
教 导</w>
接 收</w>
排 放
成百 上千</w>
成 年</w>
峡 谷</w>
尊 严</w>
对 不起</w>
奇 特</w>
外 星人</w>
垃 圾
合 法</w>
包 装</w>
分 别</w>
冰 层</w>
公 布</w>
免 疫
从 前</w>
乌 鸦</w>
举 办</w>
两 件事</w>
不 论
万 物</w>
一 代人</w>
i m</w>
200 1</w>
2 3</w>
马 丁</w>
食 者</w>
风 能</w>
进化 论</w>
输 出</w>
辆 车</w>
轻 松</w>
车 辆</w>
负 担</w>
罗 伯特</w>
综 合</w>
线 性</w>
研究 生</w>
着 陆</w>
电视 节目</w>
甲 烷</w>
激 烈</w>
演讲 者</w>
民 众</w>
曼哈 顿</w>
明 治</w>
时 间
日 常</w>
捕 捉</w>
扩 散</w>
惊 喜</w>
情 景</w>
恐怖 主义</w>
心 态</w>
强 迫</w>
开 采</w>
开 玩笑</w>
小 学</w>
对 称
学 位</w>
威 尔</w>
始 终</w>
墨西哥 湾</w>
哪 怕</w>
品 质</w>
古 怪</w>
原 子
写 下</w>
兰 经</w>
公 式</w>
免 疫</w>
假 装</w>
保 险</w>
休 息</w>
人 有</w>
交通 工具</w>
亚 历
二 战</w>
丧 失</w>
不 在</w>
三 明治</w>
一 道</w>
一 百万</w>
黑 客</w>
麦 克</w>
马 尔
陌 生
陌生 人</w>
量 子</w>
野 生动物</w>
遇 见</w>
负 面</w>
课 题</w>
试 想</w>
词 语</w>
触 摸</w>
视 网
被 称作</w>
苹 果
花 园</w>
脑 中</w>
聊 天</w>
而 后</w>
翻 译
磁 场</w>
直 升
目 前
目前 为止</w>
电子 邮件</w>
理 所
猜 想</w>
永 恒</w>
支 撑</w>
搜 寻</w>
拉 丁
当 地
尽 量</w>
安 德</w>
大西 洋</w>
多 德</w>
坏 消息</w>
国 民</w>
吸 引力</w>
司 机</w>
史蒂 夫</w>
叫 声</w>
句 子</w>
发 电
双 方</w>
协 会</w>
创 立</w>
八 个</w>
举 行</w>
中 来</w>
一 架</w>
e f
B ar
200 3</w>
鲁 士</w>
验 证</w>
飞 天</w>
顶 部</w>
这 首</w>
这 家</w>
转 动</w>
路 易
询 问</w>
议 题</w>
视网 膜</w>
肢 体</w>
精神 病</w>
知 觉</w>
直 线</w>
电 话
生物 体</w>
特 人</w>
涂 鸦</w>
智 力</w>
数 百
拜 访</w>
性 能</w>
实 质</w>
圆 形</w>
商 人</w>
听 见</w>
后 悔</w>
同 步</w>
可 持续性</w>
发 掘</w>
反 正</w>
友 好</w>
初 期</w>
充 满
停车 场</w>
令人 兴奋</w>
人 权</w>
二十 世纪</w>
二 十</w>
争 取</w>
主 动</w>
三 倍</w>
p p
in e</w>
a w
Joh n</w>
3 2</w>
骆 驼</w>
预 言</w>
震 撼</w>
遭 到</w>
达 国家</w>
解 释
菲 利
花 钱</w>
肝 脏</w>
纽约 市</w>
突 变</w>
硬 件</w>
短 暂</w>
登 上</w>
滑 雪</w>
海 中</w>
测 序</w>
沉 浸</w>
毒 品</w>
此 时</w>
桌 上</w>
有 所
早 就</w>
揭 示</w>
排 除</w>
担 忧</w>
扭 曲</w>
打 印机</w>
意 味</w>
很 多年</w>
弄 清楚</w>
开 发
巴 勒
尴 尬</w>
尔 德</w>
对称 性</w>
好 了</w>
大 声</w>
四 周</w>
哲 学家</w>
合 作
发 达国家</w>
发 生
动 脉</w>
出 自</w>
再 说</w>
公 斤</w>
依 旧</w>
供 给</w>
人 为</w>
产 出</w>
之 旅</w>
举 手</w>
主 人</w>
两 周</w>
三 天</w>
一 页</w>
o w
G e
7 00</w>
鼓 舞</w>
零 件</w>
雨 林</w>
那 条</w>
透 过</w>
跳 伞</w>
詹 姆斯</w>
解释 一下</w>
艺术 品</w>
能 源
罪 犯</w>
纯 粹</w>
精 英</w>
科 技
监 管</w>
琼 斯</w>
猜 测</w>
海 啸</w>
洗 衣
根 除</w>
有 机
最 小</w>
救 援</w>
放 松</w>
排 序</w>
感 染
性 欲</w>
怀 特</w>
当 代</w>
好 多</w>
夜 晚</w>
多样 化</w>
外 科医生</w>
声 明</w>
地 铁</w>
周 边</w>
千 个</w>
共 有</w>
使用 者</w>
与 其</w>
不可 避免</w>
u t
o d</w>
i g
You Tube</w>
D H</w>
A m
4 7</w>
2 50</w>
骄 傲</w>
非常 复杂</w>
降 落</w>
长 寿</w>
那 次</w>
追 溯到</w>
警 告</w>
装 饰</w>
脑 子</w>
肤 色</w>
聚 焦</w>
科学 研究</w>
理 智</w>
独 自</w>
消 极</w>
泄 漏</w>
气 味</w>
楼 梯</w>
无 神
方 块</w>
放 置</w>
推 测</w>
排放 量</w>
抗 生素</w>
找 寻</w>
所 用</w>
战 胜</w>
感 激</w>
恶 化</w>
彼 得</w>
延 长</w>
应 用
实 用</w>
姐 姐</w>
妹 妹</w>
太 好了</w>
地 板</w>
国 家
向 下</w>
加利福 尼亚</w>
列 表</w>
兰 克</w>
光 谱</w>
催 产
催产 素</w>
传染 病</w>
丢 失</w>
不 该</w>
r an
el l</w>
P A</w>
M IT</w>
G DP</w>
9 5</w>
2 8</w>
高速 公路</w>
集 中
限 于</w>
银 河
醒 来</w>
邪 恶</w>
通 道</w>
轻 易</w>
超 出</w>
见 面</w>
见 证</w>
西 亚</w>
被 动</w>
蛛 丝</w>
聚 会</w>
细 胞
简 化</w>
等 到</w>
电 影
环 境
犯 错</w>
点 儿</w>
演 变</w>
活 性</w>
歌 颂</w>
根 源</w>
栖 息
树 林</w>
条 线</w>
有 毒</w>
暂 时</w>
明 智</w>
无 所
教 育
放 下</w>
摄像 头</w>
拍 照</w>
拉 德</w>
意 愿</w>
心 智</w>
开 头</w>
床 上</w>
广 告
常 规</w>
对 面</w>
头 痛</w>
大 致</w>
大 脑
大 师</w>
在 家</w>
困 惑</w>
因 特网</w>
参与 者</w>
华 德</w>
医 师</w>
匹 配</w>
几 何</w>
凌 晨</w>
从 那
从 不</w>
人 来</w>
交 响
五 岁</w>
也 门</w>
世界 银行</w>
三 十
一 番</w>
一 款</w>
ber t</w>
ar t
9 11</w>
4 000</w>
麻 痹</w>
驱 使</w>
霍 华德</w>
银河 系</w>
重 塑</w>
资 产</w>
讯 息</w>
菲利 普</w>
航 行</w>
美 味</w>
结 局</w>
粗 糙</w>
箱 子</w>
立 场</w>
看 似</w>
瘫 痪</w>
用 水</w>
犹太 人</w>
牛 顿</w>
激 动
温 和</w>
海 滩</w>
海 洋
海 报</w>
法 院</w>
沉 默</w>
栖息 地</w>
最 高
替 换</w>
无 处
支 出</w>
操 作
想 不到</w>
年 内</w>
工作 人员</w>
屋 子里</w>
小 镇</w>
官 方</w>
宗教 信仰</w>
宇 航
好 奇
好奇 心</w>
天 生</w>
塔 利
塔利 班</w>
回 头</w>
听 听</w>
南 极</w>
劳 动</w>
几 率</w>
冥 想</w>
偏 见</w>
保 守</w>
供 应
严 格</w>
不管 怎样</w>
不 好
三 十年</w>
t o</w>
e dia</w>
B F</w>
麻 醉</w>
首 席</w>
频 道</w>
预 计</w>
鞋 子</w>
迹 象</w>
这 时候</w>
返 回</w>
迁 移</w>
经 理</w>
纪 录片</w>
第二 次</w>
确 定性</w>
真 空</w>
直 径</w>
白 天</w>
癌 细胞</w>
画 画</w>
男 士</w>
电 流</w>
然 不同</w>
流 程</w>
永 久</w>
模 一样</w>
棵 树</w>
棉 花</w>
本 人</w>
有 权</w>
最 有</w>
更 是</w>
无线 电</w>
收 益</w>
损 害</w>
恐 怕</w>
性 恋</w>
必 然</w>
开 源</w>
廉 价</w>
带 走</w>
大 战</w>
声 波</w>
垂 直</w>
单 纯</w>
助 于</w>
副 作用</w>
冲 击</w>
全 力</w>
党 人</w>
偶 尔</w>
作 弊</w>
人 性化</w>
不 住</w>
上 述</w>
一无 所知</w>
一 模一样</w>
一 万
o s</w>
E O</w>
驾 驶
饼 干</w>
青 春
雨 水</w>
集 合</w>
这样 的话</w>
这 栋</w>
费 曼</w>
认 可</w>
蔓 延</w>
眼 中</w>
真 菌</w>
目 的
盖 茨</w>
生产 力</w>
生 病</w>
生 于</w>
焦 点</w>
火 星
火星 车</w>
海 豹</w>
法 官</w>
汉 堡</w>
比 方
比方 说</w>
杀 害</w>
星 盘</w>
无 法
把 手</w>
手 工</w>
我 家</w>
总 体</w>
思 路</w>
心 理
幸福 感</w>
常 人</w>
崭 新</w>
尼 安德</w>
尸 体</w>
射 器</w>
射 击</w>
导 师</w>
实 话</w>
实 力</w>
处 境</w>
地 址</w>
回 复</w>
四 种</w>
命 令</w>
可 不</w>
发明 家</w>
厕 所</w>
印 刷</w>
卡 尔</w>
包 围</w>
分 辨</w>
六 年</w>
假 肢</w>
促 成</w>
位 数</w>
亚 马
二 十年</w>
义 肢</w>
主 体</w>
一 大</w>
一 体</w>
r ic
or g
er son</w>
an n
TED x
K B</w>
J am
B C</w>
8 00</w>
1 20</w>
问 道</w>
长 久</w>
通 信</w>
适 当</w>
过 时</w>
辈 子</w>
贝 尔</w>
读 书</w>
诸 位</w>
许 可</w>
虚拟 世界</w>
肥 胖</w>
继 续
精神 疾病</w>
第 一天</w>
硬 币</w>
知 识
理所 当然</w>
海 平面</w>
浓 度</w>
洗衣 机</w>
歌 手</w>
朝 着</w>
更 少</w>
星 星</w>
新 兴</w>
政 客</w>
护 理</w>
手 提
强 度</w>
带 回</w>
带 入</w>
市 中心</w>
属 性</w>
家 中</w>
季 节</w>
奶 奶</w>
女 孩儿</w>
太 大</w>
外 交</w>
善 于</w>
喂 养</w>
周 知</w>
动 性</w>
加 以</w>
刚 果</w>
做 事</w>
倾 斜</w>
借 助</w>
修 改</w>
价 钱</w>
亲 自</w>
五 分钟</w>
为 人
临 床</w>
专 辑</w>
不 怎么</w>
不 但</w>
一 英里</w>
一 对</w>
y m
m a</w>
il l</w>
青春 期</w>
雄 性</w>
阶 层</w>
长 远</w>
长 达</w>
里 士
采 取
遗 产</w>
选 择
这 能</w>
路 里</w>
跟 随</w>
越来 越
贫民 窟</w>
误 解</w>
营 养
荣 誉</w>
草 原</w>
英 格兰</w>
肩 膀</w>
综 合
线 索</w>
红 杉</w>
用 作</w>
爵 士</w>
灰 色</w>
演 唱</w>
漂 浮</w>
渠 道</w>
法 庭</w>
水 里</w>
步 行</w>
极 为</w>
来 临</w>
更 进一步</w>
晶 体
无处 不在</w>
数字 化</w>
政 权</w>
撒哈 拉</w>
搭 建</w>
搞 笑</w>
捕 捞</w>
所 周知</w>
战 略</w>
感 动</w>
患 上</w>
总 共</w>
引 人
应用 程序</w>
布 莱
尚 未</w>
小 提琴</w>
室 内</w>
宝 贵</w>
大脑 皮层</w>
在 意</w>
发 性</w>
厨 师</w>
卡 路里</w>
南 极
十 分
医疗 保健</w>
减 轻</w>
八 年</w>
八 十</w>
体 积</w>
低 于</w>
伴 侣</w>
众 所周知</w>
介 入</w>
亲 眼
五 千</w>
上 百万</w>
三角 形</w>
一 封</w>
一 人</w>
in g
e w
c h</w>
au l</w>
R ich
M ic
A R
0 .
黑 帮</w>
麦 当
骨 骼</w>
饥 荒</w>
非 暴力</w>
除 此
酒 吧</w>
这 笔</w>
辅 导</w>
起 初</w>
设 法</w>
让 人</w>
观 众
要 素</w>
表 格</w>
补 充</w>
舒 适</w>
自 私</w>
考 试</w>
美 的</w>
第 一位</w>
移 民</w>
玻 璃
爱尔 兰</w>
激 进</w>
漫 长</w>
消 防
歌 剧</w>
杰 明</w>
术 语</w>
本 杰明</w>
普通 人</w>
时 常</w>
拿 来</w>
慈 悲</w>
情 境</w>
悬 崖</w>
得 不到</w>
影 子</w>
广 阔</w>
干 嘛</w>
尺 度</w>
安全 套</w>
大 大
夏 威
城 镇</w>
坏 事</w>
图 书</w>
周 末</w>
可 惜</w>
受 过</w>
受 益</w>
发 现
反 抗</w>
半 个</w>
加 工</w>
剧 场</w>
创造 者</w>
分 割</w>
克 隆</w>
令人 惊叹</w>
令人 吃惊</w>
亚历 山
亚 当</w>
临 时</w>
一点 儿</w>
1 500</w>
顾 问</w>
银 行
里士 多德</w>
郁 症</w>
造 型</w>
逃 离</w>
这样 一来</w>
这 使</w>
迈 克尔</w>
路 线</w>
赛 鲁士</w>
诺贝 尔
诠 释</w>
评 价</w>
触 及</w>
解决 办法</w>
规 范</w>
行 不通</w>
自 动
膝 盖</w>
脑 海中</w>
经 费</w>
紫 外线</w>
程 序
秩 序</w>
痕 迹</w>
狮 子</w>
牧 师</w>
浪 漫</w>
桥 梁</w>
果 蝇</w>
杂 耍</w>
最 多</w>
最 低</w>
暗 示</w>
无 需</w>
教 科
放 射
操 纵</w>
搜 集</w>
推 荐</w>
挑 选</w>
指 标</w>
拉 罕</w>
抗 议</w>
手 法</w>
战 士</w>
工 学院</w>
将 军</w>
封 信</w>
奋 斗</w>
大 学
大 奖</w>
地 下
启 示</w>
吃 饭</w>
叔 叔</w>
发 电</w>
即 时</w>
危 害</w>
印度 人</w>
北 极
加 强</w>
分之 二</w>
出 口</w>
几 次</w>
共 识</w>
免疫 系统</w>
克 里
伯 拉罕</w>
以 为
亚 里士多德</w>
亚 伯拉罕</w>
互 相
临 床
不好 意思</w>
不 动</w>
一 艘</w>
一 倍</w>
o d
i on</w>
er s</w>
c e</w>
ar t</w>
W ik
200 2</w>
高 潮</w>
飞 过</w>
面 团</w>
通 往</w>
追 寻</w>
运 营</w>
转 变成</w>
起 飞</w>
财 政</w>
财 产</w>
要 花</w>
装 备</w>
被 迫</w>
蛋 糕</w>
艾滋 病毒</w>
航 天
脉 冲</w>
维 亚</w>
篇 文章</w>
科 研</w>
硅 谷</w>
研究 者</w>
真 主</w>
生 理</w>
甘 地</w>
没 关系</w>
暗 喻</w>
明 星</w>
新 生</w>
捕 鱼</w>
振 奋</w>
愉 悦</w>
恰 当</w>
总 值</w>
强 奸</w>
引 进</w>
开 端</w>
废 物</w>
巧 妙</w>
导 演</w>
对 手</w>
始 人</w>
妥 协</w>
多 巴
夏威 夷</w>
塔 尔</w>
咨 询</w>
否 认</w>
可 口
古 代</w>
化 成</w>
勇 敢</w>
光 明</w>
作 曲
体 重</w>
从 小</w>
九 个</w>
不同 于</w>
不 算</w>
不 变</w>
上 班</w>
上 海</w>
一 门</w>
一 处</w>
s h
in d
a b</w>
G P
E v
3 7</w>
1 7
马 克</w>
风 景</w>
这 比</w>
足 迹</w>
谎 言</w>
说 起</w>
认 出</w>
行 驶</w>
肥 胖
编 织</w>
看 一看</w>
目的 地</w>
画 出</w>
电视 台</w>
电 路</w>
现实 生活</w>
特 里</w>
牛 津</w>
海 拔</w>
最 棒</w>
更 糟</w>
文 献</w>
文 化
教 给</w>
手 术
慷 慨</w>
想 过</w>
性 感</w>
当地 人</w>
开 放
广 播</w>
岛 上</w>
屁 股</w>
容 忍</w>
孩 童</w>
始 于</w>
头 骨</w>
壁 虎</w>
场 合</w>
地 去</w>
在 此
四 分之一</w>
听 觉</w>
史蒂 芬</w>
发现 自己</w>
发 作</w>
参 考</w>
压 缩</w>
卧 室</w>
卡 罗
南极 洲</w>
千 万
十 岁</w>
加 热</w>
创 新
共同 点</w>
值 得
从 此</w>
交 互</w>
乳 腺</w>
主 张</w>
两 点</w>
三 次</w>
三 分之二</w>
万 美金</w>
七 年</w>
一百 年</w>
一 行</w>
y n
o g
i an</w>
en n
Th e</w>
Rich ard</w>
D an</w>
2 9</w>
风 暴</w>
音 符</w>
非 法</w>
雕 像</w>
难 度</w>
降 到</w>
阶 级</w>
载 荷</w>
路易 斯</w>
货 币</w>
要 点</w>
苦 难</w>
芬 尼</w>
职业 生涯</w>
统计 数据</w>
绝 不</w>
组 建</w>
称 呼</w>
礼 拜</w>
研 制</w>
痢 疾</w>
生产 总值</w>
珍 贵</w>
热 量</w>
海 里</w>
氏 度</w>
橄 榄
树 上</w>
束 缚</w>
晶体 管</w>
普 及</w>
时 机</w>
斯蒂 芬尼</w>
收 藏</w>
支 持
探 寻</w>
性 格</w>
微 妙</w>
开 创</w>
并不 需要</w>
市 长</w>
尼亚 州</w>
小 小</w>
官 员</w>
奇 异</w>
太 空
回 想</w>
四 岁</w>
哥 哥</w>
号 码</w>
及 时</w>
去 掉</w>
印 刷
单 元</w>
劳 动力</w>
利 于</w>
删 除</w>
几 种</w>
冰 岛</w>
全 书</w>
入 侵</w>
俱 乐
俱乐 部</w>
佛 罗
亿 个</w>
亚马 逊</w>
买 卖</w>
乔 纳
之 地</w>
举 例
主 角</w>
不论 是</w>
不 良</w>
不 知
不 已</w>
一 圈</w>
一 会</w>
一 下
r a</w>
iP od</w>
a h</w>
P aul</w>
E m
麦当 劳</w>
鸿 沟</w>
非 营
阿拉 伯
那 段</w>
那 会</w>
送 给</w>
车 里</w>
跑 步</w>
越 大</w>
起 点</w>
走 神</w>
责 任
谷 物</w>
诸 如</w>
说 谎</w>
议 会</w>
觅 食</w>
苏 格兰</w>
芬 奇</w>
船 上</w>
而 言之</w>
老 年人</w>
羞 耻</w>
维 尔</w>
竞 选</w>
空 白</w>
种 群</w>
石 油
盈 利</w>
熟 知</w>
演 说</w>
注 定</w>
没 能</w>
水 果</w>
歧 视</w>
榜 样</w>
核 磁共振</w>
柬 埔
架 构</w>
机 械
无神 论者</w>
无 疑</w>
教科 书</w>
效 益</w>
提 示</w>
把 握</w>
执 行
手 册</w>
截 然不同</w>
战 场</w>
戏 剧</w>
意 图</w>
思 想
忍 受</w>
当 年</w>
强 有力</w>
弗 兰克</w>
引 领</w>
帽 子</w>
工程 学</w>
尽 力</w>
就 此</w>
宣 称</w>
审 查</w>
子 宫</w>
天 文</w>
天 性</w>
大 厦</w>
外 国</w>
在 内</w>
图 画</w>
唱 片</w>
发 言</w>
发 给</w>
原 先</w>
印 第
十 二
化 学家</w>
加 仑</w>
分 支</w>
分 为</w>
兴 起</w>
六 岁</w>
侵 入</w>
作曲 家</w>
以 南</w>
人工 智能</w>
产 量</w>
书 中</w>
主 导</w>
为 例</w>
两 件</w>
东 部</w>
不 清</w>
u g
S c
M o
5 5</w>
4 8</w>
飓 风</w>
难 民</w>
除此 之外</w>
键 盘</w>
重 组</w>
通 用</w>
选 票</w>
迷 因</w>
连接 起来</w>
连接 体</w>
过 后</w>
资 讯</w>
许多 多</w>
许 许多多</w>
表 述</w>
蜻 蜓</w>
荒 谬</w>
脑 海</w>
胳 膊</w>
耶 稣</w>
罕 见</w>
终 极</w>
组 学</w>
累 积</w>
管 子</w>
积 分</w>
电 波</w>
用 品</w>
独 一无
独一无 二</w>
爱 人</w>
激动 人心</w>
没 用</w>
沙 丘</w>
毫 米</w>
概 括</w>
桑 尼亚</w>
桌 面</w>
校 园</w>
林 肯</w>
有 太多</w>
无 形</w>
操 控</w>
探 究</w>
挑 战
指 挥
投资 者</w>
找 个</w>
手 边</w>
手 势</w>
慈 善
恰 好</w>
恢 复
恐怖 分子</w>
心 想</w>
很 漂亮</w>
弹 性</w>
尼 克</w>
尊 敬</w>
宏 观</w>
学 术</w>
娜 塔
太 太</w>
天 线</w>
天 文
多巴 胺</w>
培 育</w>
坦 桑尼亚</w>
土 卫
品 种</w>
同 性恋</w>
另一 半</w>
反 应
历 程</w>
半 小时</w>
势 力</w>
创 始人</w>
内 向</w>
关 节</w>
全 身</w>
从 头
事 会</w>
举例 来说</w>
业 务</w>
业 余</w>
不 定</w>
不 在乎</w>
三 岁</w>
一 股</w>
or e</w>
en t
ac h
19 90</w>
颠 覆</w>
问 问</w>
那 年</w>
造 影</w>
这 太</w>
边 上</w>
超 级
账 户</w>
计 划
见 解</w>
葡 萄</w>
节 省</w>
耗 费</w>
美国 政府</w>
绳 子</w>
组 成
组成 部分</w>
约 翰
约 会</w>
等 级</w>
等 同
等同 于</w>
第一 批</w>
福 特</w>
看 得
电视 机</w>
玩 游戏</w>
照 射</w>
煤 炭</w>
流 感
污 染
水 面</w>
气 泡</w>
来 回</w>
杀 手</w>
有 意识</w>
最 先</w>
无 知</w>
旅 馆</w>
旅 途</w>
新 生
新 奇</w>
教 练</w>
捕 食者</w>
指 示</w>
持 久</w>
抵 抗</w>
抗 体</w>
所 作</w>
总 和</w>
帐 篷</w>
希 腊
工 艺</w>
尼 古
小 东西</w>
封 闭</w>
孟 买</w>
好 者</w>
好 几个</w>
夫 妇</w>
墙 壁</w>
地 毯</w>
同 行</w>
受 损</w>
加 快</w>
前 后</w>
创 办</w>
刚 开始</w>
刚 刚开始</w>
内 心
先 前</w>
修 建</w>
五 百</w>
中 文</w>
两 条</w>
两 分钟</w>
不 信</w>
上 角</w>
上 传</w>
y n</w>
le y</w>
ip edia</w>
ar d
Wik ipedia</w>
W or
R e
M c
- ---</w>
风 筝</w>
阿 姆
防 御</w>
锁 定</w>
铁 路</w>
逐 步</w>
迈 克</w>
赞 助</w>
螺 旋</w>
英 国
船 只</w>
航 空</w>
自然 选择</w>
肚 子</w>
聚 在一起</w>
缺 失</w>
纳 州</w>
禽 流感</w>
相 对
直 观</w>
盲 人</w>
监 测</w>
百 科
电 图</w>
狂 热</w>
爱 好者</w>
爱 好</w>
比 方</w>
残 酷</w>
柬埔 寨</w>
板 块</w>
条 约</w>
最 具</w>
曼 德拉</w>
暴 露</w>
春 天</w>
放 慢</w>
放 射</w>
扫 描
所 学</w>
总 的
心 情</w>
很久 以前</w>
幻 肢</w>
局 限</w>
尽 快</w>
安全 带</w>
天 使</w>
外 科</w>
地 狱</w>
名 词</w>
同 伴</w>
可口 可乐</w>
口 哨</w>
发 达</w>
厘 米</w>
前 额</w>
分 歧</w>
再 生
保 守
交 易
主 持
为人 知</w>
丹 麦</w>
不 着</w>
上 次</w>
it h</w>
a ll
D e
C D</w>
鸽 子</w>
音乐 厅</w>
面 孔</w>
非常 容易</w>
降 落
降落 伞</w>
阴 影</w>
问 到</w>
长 得</w>
轮 椅</w>
身 后</w>
越 过</w>
西班 牙
葡萄 酒</w>
荧 光</w>
英 亩</w>
艾 滋</w>
胚 胎</w>
肥胖 症</w>
而 成</w>
考 察</w>
老 年
翻译 成</w>
约 束</w>
第二 点</w>
笔记 本</w>
立 方
硫 化
破 解</w>
真 是
百科 全书</w>
电 梯</w>
环 节</w>
献 给</w>
独 裁
特 效</w>
灌 输</w>
残 忍</w>
歌 唱</w>
橡 皮
模 拟
档 案</w>
柏 林</w>
条 例</w>
术 师</w>
有点 儿</w>
有 者</w>
更 长</w>
显 示
无 助</w>
无 人
救 助</w>
收 缩</w>
支 架</w>
提 及</w>
投 影</w>
批 准</w>
我 读</w>
意 想不到</w>
延 续</w>
实 行</w>
奴 隶
夸 张</w>
大 片</w>
多 岁</w>
塞 尔
基督 徒</w>
回 归</w>
善 良</w>
商 场</w>
哈 佛
听 力</w>
后 期</w>
名 称</w>
合作 伙伴</w>
厌 恶</w>
卡 片</w>
博 士
协 助</w>
千 米</w>
化 疗</w>
前 沿</w>
利 性</w>
分 数</w>
克 林</w>
克 林
储 备</w>
传 承</w>
仅 如此</w>
亚历山 大</w>
乌 贼</w>
主 管</w>
中 部</w>
中 期</w>
中 央
不 确定性</w>
不 时</w>
不 出</w>
上 周</w>
一 瞬间</w>
t on</w>
st er</w>
f f
er n
St ev
J u
I D
C A
3 3</w>
2 .
鸡 蛋</w>
魔 术师</w>
高 于</w>
领导 力</w>
陌 生</w>
阿 特
采取 行动</w>
迫 使</w>
这 颗</w>
轮 子</w>
诺 顿</w>
说 实话</w>
论 点</w>
衷 于</w>
自 发</w>
脑 子里</w>
肉 眼</w>
耳 蜗</w>
终 结</w>
线 路</w>
线 条</w>
紫 色</w>
紧 急</w>
章 鱼</w>
禁 忌</w>
硫化 氢</w>
看 做</w>
画 像</w>
电子 游戏</w>
生态 圈</w>
生 动</w>
潜水 器</w>
潜 能</w>
演 奏
添 加</w>
淹 没</w>
派 对</w>
残 疾</w>
栅 栏</w>
林 匹
木 偶</w>
服 装</w>
有 钱</w>
星 体</w>
早 已</w>
旅 游</w>
支 配</w>
撰 写</w>
摆 在</w>
搞 清楚</w>
提 问</w>
振 动</w>
挪 威</w>
手 腕</w>
悲 惨</w>
弟 弟</w>
应 付</w>
小 男孩</w>
射 线</w>
寒 冷</w>
宣 言</w>
存 储</w>
好 人</w>
奥 林匹
天 体</w>
大 门</w>
多 元</w>
多 于</w>
复 兴</w>
培 养
圆 柱</w>
图 上</w>
因 而</w>
喜 悦</w>
哭 泣</w>
名 人</w>
吃 掉</w>
可 笑</w>
叫 作</w>
印度 河</w>
卓 越</w>
半 球</w>
十 字
前 列
冲 动</w>
冠 军</w>
关 掉</w>
克 拉
充 分
停 下</w>
佛罗 里
佛 教</w>
体 育
代 表
仍 旧</w>
介 意</w>
人 际
人 家</w>
些 时候</w>
买 下</w>
举 动</w>
主持 人</w>
个 世纪</w>
两 张</w>
不 愿</w>
不 仅如此</w>
三 角</w>
三 位</w>
一 杯</w>
一 方</w>
t a</w>
o v
ic k</w>
i c</w>
h e
B l
And erson</w>
4 9</w>
麦克 风</w>
鸟 儿</w>
骨 架</w>
音 机</w>
面 上</w>
隐 喻</w>
阿姆 斯特
问 过</w>
遗 忘</w>
造 就</w>
选 出</w>
这 套</w>
近 期</w>
过 多</w>
转 换成</w>
路 径</w>
足 球</w>
越 南</w>
贫民 区</w>
谨 慎</w>
说 真的</w>
说 唱</w>
讲 台</w>
表 达
行 程</w>
虐 待</w>
莎 士
莎士 比亚</w>
胎 儿</w>
背 上</w>
耳 机</w>
编 写</w>
管 如此</w>
第 一种</w>
研究 院</w>
研究 员</w>
短 期</w>
眼 光</w>
看 电视</w>
直升 机</w>
照 相机</w>
热 衷于</w>
潜 艇</w>
滑 稽</w>
沙 子</w>
汤 姆</w>
污染 物</w>
比 较
比 特</w>
每 月</w>
武 装</w>
横 跨</w>
模 样</w>
棘 手</w>
棕 色</w>
杯 子</w>
有 助于</w>
暂 停</w>
普 遍
恶 劣</w>
总的 来说</w>
总 部</w>
弹 奏</w>
平 方</w>
市 郊</w>
岛 屿</w>
尽 管如此</w>
安 置</w>
安 慰</w>
娜塔 莎</w>
夫 人</w>
基督 教</w>
场 地</w>
地 形</w>
唱 歌</w>
哈 根</w>
叶 子</w>
可 用</w>
受 体</w>
发 觉</w>
原 油</w>
十 五</w>
医 学
剥 夺</w>
剑 桥</w>
划 分</w>
出 错</w>
几 位</w>
停 留</w>
倡 导</w>
优 化</w>
令人 震惊</w>
人 造
产 权</w>
亚 人</w>
乐 高</w>
不 足
下 角</w>
下 次</w>
一 百</w>
y p
e p
Mic ha
J ac
I M
E n
C O
B ri
8 5</w>
3 6</w>
20 11</w>
19 50</w>
魔 力</w>
马 达</w>
香 港</w>
频 繁</w>
非常 高兴</w>
青 年</w>
门 口</w>
配 合</w>
道 德
选 人</w>
运 送</w>
踏 上</w>
跳 动</w>
贯 穿</w>
衰 退</w>
蚁 穴</w>
蒙 特
草 地</w>
英 国人</w>
老 实</w>
综合 症</w>
维 空间</w>
索 沃</w>
突 出</w>
程 式</w>
科 索沃</w>
社 交
相 似
目 光</w>
盘 子</w>
百分之九 十</w>
百 个</w>
病 例</w>
疫 情</w>
画 廊</w>
男 生</w>
生命 体</w>
球 场</w>
王 子</w>
犹太 教</w>
滥 用</w>
活 动
注 视</w>
注 册</w>
泡 泡</w>
水 资源</w>
氢 气</w>
比 率</w>
欧 盟</w>
次 数</w>
本 哈根</w>
月 亮</w>
智 利</w>
显 现</w>
无 穷
斯 科</w>
斯 加</w>
数 百万</w>
拉 里</w>
抚 养</w>
扔 掉</w>
所 在
悬 浮</w>
思 索</w>
录 音</w>
平均 寿命</w>
工业 革命</w>
局 面</w>
容 量</w>
容 器</w>
定 制</w>
姑 娘</w>
好 看</w>
头 盔</w>
大 洋</w>
大 大</w>
外 表</w>
地 球
在 生活
圣诞 节</w>
国 防
国 外</w>
团 结</w>
四 十</w>
哥伦 比亚</w>
哥 本哈根</w>
哈佛 大学</w>
同 一
吉 他</w>
各 个
古 典
口 气</w>
去 除</w>
半 岛</w>
动 手</w>
切 除</w>
养 活</w>
八 岁</w>
充 足</w>
兄 弟
元 件</w>
侵 蚀</w>
低 成本</w>
传 说</w>
会 用</w>
仁 爱</w>
人类 学家</w>
享 有</w>
举 例</w>
不 久
七 岁</w>
一整 天</w>
一下 子</w>
一 般
ik e</w>
S E
N e
H e
6 000</w>
麻省理 工</w>
鳄 鱼</w>
高 中
阿 波
间 接</w>
锻 炼</w>
银行 家</w>
针 头</w>
野 外</w>
遵 守</w>
选择 性</w>
车 子</w>
路 口</w>
视 化</w>
螺 旋
蜡 烛</w>
蓝 图</w>
落 后</w>
菌 丝</w>
英 镑</w>
苏 丹</w>
艰 苦</w>
胞 胎</w>
肉 类</w>
聚 变</w>
而 然</w>
考 验</w>
约 书
约书 亚</w>
精 细</w>
管理 局</w>
第二 种</w>
窗 口</w>
空 气
眼 球</w>
电 器</w>
现代 化</w>
物 件</w>
牡 蛎</w>
片 子</w>
渴 求</w>
清 醒</w>
消 化</w>
消 亡</w>
流感 病毒</w>
注 射器</w>
泥 土</w>
汉 斯</w>
毒 素</w>
殖 民
格 林</w>
样 式</w>
校 长</w>
林 冠</w>
有 效率</w>
更 快</w>
无 意</w>
无 可
新 西
斯 顿</w>
揭 开</w>
授 权</w>
持 有</w>
拥 堵</w>
拓 展</w>
打 造</w>
我 该</w>
我 敢</w>
愿 景</w>
患 病</w>
性 爱</w>
微 积分</w>
征 服</w>
彩 票</w>
彗 星</w>
废 弃</w>
废 墟</w>
布 尔</w>
巴勒 斯坦</w>
巴 布
工业 化</w>
屋 里</w>
少 量</w>
宠 物</w>
实 实
实实 在
实实在 在</w>
奥 尔
大 学生</w>
多 样</w>
壮 观</w>
增 生</w>
增 大</w>
地 理
在生活 中</w>
同 等</w>
可 视化</w>
只 好</w>
医 药</w>
动 词</w>
动 物
削 减</w>
制造 商</w>
军 事
具 体
关 爱</w>
兰 人</w>
克林 顿</w>
光 学</w>
停 车</w>
偏 远</w>
何 种</w>
低 估</w>
伯 格</w>
交 叉</w>
丛 林</w>
与 否</w>
不 起
一 是</w>
一 批</w>
一 对
t ube</w>
ra m</w>
p ha</w>
l d
am p
S p
Micha el</w>
L ED</w>
C EO</w>
B e
7 2</w>
龄 化</w>
马 路</w>
马 拉</w>
首 都</w>
雅 图</w>
陈 代谢</w>
量 子
野 生</w>
过 滤
辨 别</w>
车 鱼</w>
车 站</w>
身 体
贫 困
记 录
触 动</w>
西 雅图</w>
花 板</w>
自然 而然</w>
自 行</w>
肯 尼
翻 车鱼</w>
置 于</w>
终 点</w>
纪 念</w>
等 式</w>
突 触</w>
空 军</w>
秘 诀</w>
社 群</w>
直 至</w>
直 立</w>
监 督</w>
百分之 八十</w>
白 宫</w>
界 线</w>
电 极</w>
用 处</w>
用 以</w>
特 兹
潜 意识</w>
漫 画家</w>
源 自</w>
海 上</w>
浮 游
沃尔 玛</w>
水 域</w>
毕 业
格 斯</w>
标 识</w>
柱 子</w>
杰 克</w>
机 率</w>
木 星</w>
有机 体</w>
明 亮</w>
时 会</w>
早 餐</w>
日 益</w>
旋 律</w>
新 陈代谢</w>
文 本</w>
故 障</w>
摩 托
探 险
捕 获</w>
挑战 性</w>
打 败</w>
我 称</w>
成 效</w>
感 谢
感 冒</w>
想 出</w>
怪 异</w>
忽 然</w>
强 制</w>
带 动</w>
巧 合</w>
尖 叫</w>
导 向</w>
导 体</w>
富 人</w>
密 集</w>
孙 子</w>
好 象</w>
女 权
女 子</w>
头 条</w>
天 主
大 洲</w>
多 余</w>
声 称</w>
城市 化</w>
在 外</w>
圆 圈</w>
嘴 里</w>
嘲 笑</w>
呈 现出</w>
后 者</w>
名 单</w>
口 味</w>
反应 堆</w>
卡 通</w>
协 同</w>
医 学院</w>
匈 牙
分 形</w>
再生 能源</w>
养 分</w>
其 余</w>
关 怀</w>
党 派</w>
何 处</w>
传 送</w>
今 后</w>
人 格</w>
书 写</w>
之 道</w>
主 宰</w>
世界 级</w>
不 能
不 用
不 满</w>
三 件</w>
一 顿</w>
一 次
on y</w>
o t</w>
ic a</w>
R os
A le
A d
3 50</w>
高尔 夫</w>
题 目</w>
音乐 会</w>
音 频</w>
革 命
静 止</w>
难 性</w>
随 身
镜 片</w>
通 过
连 结</w>
远 程</w>
这 篇</w>
这 本</w>
还 好</w>
辅 助</w>
转 化成</w>
车 上</w>
起 床</w>
购 物</w>
货 物</w>
诺贝尔 奖</w>
语 言
视 线</w>
血 压</w>
范 例</w>
节 能</w>
脚 趾</w>
肾 脏</w>
联 邦
职 责</w>
而 出</w>
老 龄化</w>
结 核</w>
级 别</w>
管 用</w>
第 一条</w>
立 体</w>
空 调</w>
磁 铁</w>
破 碎</w>
眼 神</w>
真是 太</w>
玩 意</w>
状 物</w>
犯 罪
特兹 勒</w>
版 权
漠 化</w>
源 头</w>
海 湾</w>
流 量</w>
注 重</w>
法 语</w>
水 质</w>
每 隔</w>
棒 极了</w>
核 弹</w>
木 材</w>
智 商</w>
星 际</w>
无 家
无家 可
数以 千
数以千 计</w>
揭 露</w>
拉丁 美洲</w>
抗 争</w>
打 赌</w>
打 个
所 要</w>
我 妈</w>
戏 剧
意 志</w>
情 节</w>
恶 心</w>
总 量</w>
开 会</w>
废 料</w>
幼 儿
市场 营销</w>
岗 位</w>
山 顶</w>
展 望</w>
小 儿
孤 儿</w>
婚 礼</w>
头 顶</w>
天 花板</w>
大 国</w>
喜 好</w>
和 平
可 兰经</w>
另一 面</w>
取 消</w>
反 过来</w>
原 谅</w>
原 体</w>
印第 安
华 尔
升 级</w>
医 保</w>
北极 熊</w>
创 业</w>
切 割</w>
冷 却</w>
写 出</w>
共 用</w>
六 十</w>
克 萨
克 莱
健 康
伸 出</w>
优 先</w>
人 去</w>
事实 证明</w>
乘 客</w>
乘 以</w>
乔纳 森</w>
乐 谱</w>
中 是</w>
中 世纪</w>
下 方</w>
七 十</w>
一 棵</w>
一 口</w>
or g</w>
d e</w>
V D</w>
S e
P et
J ef
D VD</w>
Al pha</w>
4 6</w>
20 20</w>
19 70</w>
高 质量</w>
高 峰</w>
骨 髓</w>
马 里</w>
颠 倒</w>
非营 利</w>
雷 格</w>
难 民
隐 之心</w>
销 售
遗传 学</w>
通过 观察</w>
透 明
进 而</w>
过 渡</w>
辉 煌</w>
身 心</w>
走 廊</w>
责任 感</w>
负 责
诉 讼</w>
证 书</w>
论 坛</w>
虫 剂</w>
虔 诚</w>
获 得
艺术 作品</w>
脸 部</w>
肖 像</w>
联 想</w>
老 年</w>
统计 学</w>
纳米 比亚</w>
简 单
短 短</w>
真实 世界</w>
相 遇</w>
百分 之一</w>
畏 惧</w>
电 场</w>
电 击</w>
猎 物</w>
特 兰
照 亮</w>
火 灾</w>
潮 流</w>
深 层</w>
涵 盖</w>
海 面</w>
浮 现</w>
测 验</w>
活动 家</w>
歌 声</w>
模 块</w>
棍 子</w>
案 子</w>
格 伦</w>
核 聚变</w>
树 枝</w>
标 注</w>
标 本</w>
果 说</w>
是 非</w>
时 代
无家可 归</w>
方 程</w>
数 千</w>
教 学
故 意</w>
收 音机</w>
收 费</w>
摩托 车</w>
搞 定</w>
推 移</w>
指 责</w>
指 望</w>
指 向</w>
抑 或</w>
成 型</w>
惊 异</w>
恻 隐之心</w>
总 理</w>
快 感</w>
必 需</w>
当 今
并 非
平 凡</w>
少 于</w>
小 伙
害 虫</w>
宝 贝</w>
如 果说</w>
如 下</w>
多 种
复 苏</w>
壮 大</w>
图 标</w>
喜 马拉
吸 入</w>
听 从</w>
否 定</w>
吓 人</w>
合 同</w>
合 作者</w>
古 巴</w>
变 量</w>
取 得
发生 变化</w>
双 胞胎</w>
友 善</w>
加 勒
列 举</w>
凯 文</w>
几百 年</w>
冰 箱</w>
公共 卫生</w>
传 统
令人 激动</w>
人际 关系</w>
亨 利</w>
为 重要</w>
两 岁</w>
两 只</w>
东 方</w>
世界 观</w>
不用 说</w>
不同 寻常</w>
不久 前</w>
不 敢</w>
不 及</w>
七 十年代</w>
一对 一</w>
一 笔</w>
一 日</w>
一 度</w>
一 声</w>
u ll
Ro bert</w>
M e
J os
B M</w>
3 4</w>
20 50</w>
199 9</w>
鸭 子</w>
骼 肌</w>
骨 骼肌</w>
饮 料</w>
面 纱</w>
非 同
露 出</w>
难民 营</w>
阿 根
阿 尔</w>
长 期
鉴 定</w>
配 方</w>
进 制</w>
这 群</w>
还 给</w>
迈 出</w>
转 型</w>
车 库</w>
超 声波</w>
走 到</w>
谈 及</w>
请 来</w>
讲 解</w>
装 满</w>
裂 缝</w>
行 道</w>
行 了</w>
虫 子</w>
著 作</w>
萨 拉</w>
胸 部</w>
肺 部</w>
肯尼 迪</w>
联 邦</w>
网 状</w>
绝 妙</w>
绝 大部分</w>
纸 张</w>
米 洛</w>
第三 种</w>
空 洞</w>
知 名</w>
瞄 准
瞄准 器</w>
真 诚</w>
登 陆</w>
病 症</w>
病 情</w>
疑 惑</w>
留 言</w>
电 磁
甚 么</w>
理 会</w>
现 存</w>
特兰 大</w>
特 权</w>
牛 肉</w>
灾 难性</w>
滚 动</w>
活 在</w>
波 斯
泡 沫</w>
水 流</w>
正 当</w>
欧 洲
欢 乐</w>
格 尔</w>
杀 掉</w>
更 具</w>
智 能
普 林
昨 晚</w>
时 空</w>
无 力</w>
无 前
无前 例</w>
新生 儿</w>
新 加
新加 坡</w>
料 到</w>
敌 意</w>
操作 系统</w>
摩 尔</w>
摩 尔
控 器</w>
损 坏</w>
拇 指</w>
技术 人员</w>
手 表</w>
想 看</w>
想 想看</w>
恰 相反</w>
恰 恰相反</w>
总 有</w>
怪 兽</w>
微 不足
微不足 道</w>
很 久</w>
当 天</w>
归 功
归功 于</w>
强 壮</w>
开放 式</w>
废 弃
幼儿 园</w>
年 长</w>
平方 英尺</w>
平 静</w>
平 时</w>
巴 克</w>
展 出</w>
就 行了</w>
小伙 子</w>
安 娜</w>
孤 立</w>
字 体</w>
子 女</w>
奥 秘</w>
奖 项</w>
大 于</w>
大 不
多 长时间</w>
基 督</w>
坚 定</w>
团 结
史 无前例</w>
召 集</w>
另 一只</w>
古典 音乐</w>
口 号</w>
发 音</w>
发 动</w>
华 丽</w>
加 油
加 州
副 本</w>
分 辨
分 子
出 乎
光 亮</w>
充 电</w>
充 斥</w>
借 口</w>
信 赖</w>
伤 口</w>
会 谈</w>
伙 计</w>
优 点</w>
代表 性</w>
付 诸
付 给</w>
从 未
人类 文明</w>
产 卵</w>
交 往</w>
亚 特兰大</w>
二 维</w>
义 务</w>
举 起</w>
丹 尼尔</w>
两 千</w>
东 京</w>
不 曾</w>
不 得</w>
一 辈子</w>
一 辆车</w>
一 秒钟</w>
s p
on n
m o</w>
d u
a h
W ol
M at
K e
Jam es</w>
In t
Ge org
CO 2</w>
A c
1 30</w>
高 达</w>
首 要</w>
饲 养</w>
飞 翔</w>
预 料</w>
面 对面</w>
靠 着</w>
问 题
钥 匙</w>
量子 力学</w>
郊 区</w>
迷 惑</w>
违 背</w>
进 口</w>
近 距离</w>
过 分</w>
辨 识</w>
输 送</w>
转 过</w>
路 程</w>
起 步</w>
走 动</w>
购 物
财 政
谋 杀</w>
访 谈</w>
认 定</w>
计算 器</w>
解 开</w>
观 察
表 演
萝 卜</w>
获 益</w>
草 图</w>
苏 珊</w>
花 生</w>
艾 伦</w>
背 面</w>
维 生素</w>
维 多
维多 利亚</w>
经济 体</w>
细 小</w>
组 织
纪 念
箭 头</w>
第二 件</w>
笔 记</w>
立 学校</w>
空 间
眼 里</w>
直 到
直到 现在</w>
益 于</w>
百 万美元</w>
登 山
癫 痫</w>
病 房</w>
电脑 游戏</w>
瑞 拉</w>
球 员</w>
玩 乐</w>
狩 猎</w>
片 断</w>
激 起</w>
游 客</w>
涌 现</w>
流行 病</w>
流 入</w>
泰 国</w>
每 人</w>
此 事</w>
正 方形</w>
正 常人</w>
橙 色</w>
案 件</w>
格 拉
标 准
构 思</w>
杀 虫剂</w>
本 性</w>
木 头</w>
服务 器</w>
最 让人</w>
是 否
是否 是</w>
斯坦 福</w>
数 年</w>
散 步</w>
教 义</w>
改 良</w>
提 前</w>
提 交</w>
抑 郁症</w>
把 戏</w>
扫描 仪</w>
托 邦</w>
打 扰</w>
手 掌</w>
戈 斯</w>
感 性</w>
息 相关</w>
息 息相关</w>
急 剧</w>
必 定</w>
彼 此
形 势</w>
开 普
废弃 物</w>
幻 象</w>
并非 如此</w>
并 未</w>
干 燥</w>
布鲁 斯</w>
山 羊</w>
山 上</w>
容 纳</w>
客 观</w>
审 判</w>
宝 石</w>
学 术
委 内
委内 瑞拉</w>
太 小</w>
天文 学家</w>
大 事</w>
多 大</w>
增 长
境 界</w>
坚 强</w>
地 被</w>
因 子</w>
双 眼</w>
原 有</w>
南 亚</w>
升 高</w>
匿 名</w>
加 拉</w>
列 出</w>
出 名</w>
减 速</w>
冷 战</w>
冷 冻</w>
再 也
养 育</w>
关 乎</w>
偏 头痛</w>
候 选人</w>
俱 来</w>
信息 技术</w>
信 用
保 险
依 照</w>
代 之</w>
付 钱</w>
仔 细
习 惯
九 岁</w>
主 席</w>
为 主</w>
临床 试验</w>
中 风</w>
中 东
两 样</w>
世 人</w>
不 远</w>
一 氧化
一 幕</w>
一 块
o b
in s</w>
ic e</w>
i z
ha m</w>
an t
a t</w>
T om</w>
S m
P I
4 3</w>
199 8</w>
199 4</w>
10 000</w>
魔 鬼</w>
魔 法</w>
高 温</w>
香 水</w>
领 养</w>
雌 性</w>
集中 营</w>
陈 述</w>
阿特 拉</w>
阿波 罗</w>
阿根 廷</w>
问题 所在</w>
错 过</w>
金融 危机</w>
那 有</w>
遥 控器</w>
途 中</w>
选 项</w>
适应 性</w>
退 出</w>
违 反</w>
这 间</w>
这 辆</w>
达 州</w>
负责 人</w>
谋 生</w>
说 服
说服 力</w>
语 音</w>
设计 者</w>
言 语</w>
装 有</w>
补 贴</w>
蒸 汽</w>
药 性</w>
花 朵</w>
自 愿</w>
职 位</w>
翻 转</w>
置 疑</w>
维 修</w>
繁 衍</w>
紧 紧</w>
粉 丝</w>
类 比</w>
签 署</w>
第 一年</w>
真实 性</w>
盖 瑞</w>
监 视</w>
登山 者</w>
电 台</w>
生 来</w>
生 俱来</w>
独裁 者</w>
爵 士
热 带
游 行</w>
清 洁
海 盗</w>
浮游 生物</w>
水 族
水 准</w>
正 要</w>
样 品</w>
树 立</w>
极 好</w>
服 从</w>
更 高</w>
暴 乱</w>
日 期</w>
新西 兰</w>
斯 科
斯 图
斯图 尔特</w>
数 码
摩 擦</w>
控制 器</w>
接 纳</w>
担 任</w>
报 导</w>
投 票
打个 比方</w>
慈 悲
感染 率</w>
想 像
忧 虑</w>
德 尔</w>
得 起</w>
开 支</w>
开 口</w>
布 斯</w>
岁 月</w>
尔 顿</w>
尔 逊</w>
导 弹</w>
密 斯</w>
好 了
女 生</w>
奥林匹 克</w>
失 败
天 文学</w>
大 屠杀</w>
大 城市</w>
外 观</w>
地 雷</w>
国 界</w>
固 有</w>
器 械</w>
商业 模式</w>
呼 吸
叙 述</w>
发 放</w>
反 思</w>
双 腿</w>
原 始
南 方</w>
加油 站</w>
制 片
切 尔</w>
分 析
函 数</w>
出乎 意料</w>
几 张</w>
冲 浪</w>
冰 盖</w>
其 为</w>
共和 党人</w>
克 利</w>
假 若</w>
信用 卡</w>
侵 犯</w>
供应 链</w>
传 媒</w>
亿 美金</w>
人造 卫星</w>
人 道
享 用</w>
五 十年</w>
事 先</w>
书 里</w>
为 生</w>
两 组</w>
两 百万</w>
东 欧</w>
与 生俱来</w>
不太 好</w>
不 堪</w>
下 雨</w>
一 棵树</w>
一 栋</w>
o f
l a
in a</w>
i f
h o
an a</w>
TED x</w>
Stev e</w>
S k
Ju li
G re
A g
1 6
1 .5</w>
鲍 勃</w>
顶 峰</w>
面 向</w>
霍 乱</w>
集 成</w>
除 去</w>
队 员</w>
闪 光</w>
金 斯</w>
重 叠</w>
里 头</w>
那 片</w>
通 向</w>
退 化</w>
追 溯</w>
远 处</w>
这 门</w>
这 么
迁 徙</w>
轻 微</w>
转 折
转折 点</w>
贪 婪</w>
质 子</w>
贤 淑</w>
观 主义</w>
西 藏</w>
虑 一下</w>
葡萄 牙</w>
萧 条</w>
耗 尽</w>
而 代之</w>
考 虑一下</w>
老 虎</w>
群 众</w>
罪 行</w>
罢 了</w>
缩 短</w>
结 果
绑 架</w>
细 微</w>
组 件</w>
约翰 逊</w>
红 利</w>
福 大学</w>
神经 细胞</w>
祖 父母</w>
社会 性</w>
看得 见</w>
看 清</w>
百分之 十</w>
百分之 二十</w>
痴 呆
痴呆 症</w>
留 下来</w>
男 孩子</w>
玩 儿</w>
特 例</w>
爆 炸
烦 恼</w>
灵 长
海洋 生物</w>
流 通</w>
泄 露</w>
没 想到</w>
没 人会</w>
水 管</w>
毫无 意义</w>
每 种</w>
每 件事</w>
毁 掉</w>
棒 球</w>
本 世纪</w>
最 难</w>
早 些时候</w>
旁 白</w>
斯坦 福大学</w>
斯 州</w>
斯 基</w>
整 天</w>
数 十
敬 畏</w>
攀 登</w>
摄 氏度</w>
推 特</w>
排 名</w>
授 予</w>
捕 食</w>
捐 助</w>
抵 达</w>
手提 电脑</w>
或 少</w>
或 多
或多 或少</w>
我 想</w>
慢 性</w>
慈悲 心</w>
感 到
意 粉</w>
想 得到</w>
总 能</w>
总 而言之</w>
性 交</w>
当今 世界</w>
开 办</w>
座 位</w>
年 龄
平均 值</w>
干 旱</w>
布鲁 克林</w>
巴 尔
工 具
嵌 入</w>
尽 全力</w>
察 觉</w>
宇航 员</w>
孤 儿
孤儿 院</w>
威 廉</w>
好了 吗</w>
奶 酪</w>
奇 怪
头 来</w>
墨 水</w>
塑料 瓶</w>
培养 皿</w>
坦 白</w>
地下 室</w>
在此 之前</w>
回 馈</w>
喇 嘛</w>
名 言</w>
同一 时间</w>
合 并</w>
各 类</w>
口 语</w>
叙 事</w>
变 换</w>
变 形</w>
取 而代之</w>
卡 塔尔</w>
午 饭</w>
切 开</w>
分辨 率</w>
几 千年</w>
几 十
再 有</w>
共 产
兰 花</w>
公 海</w>
光 灯</w>
光 滑</w>
光 年</w>
兄弟 姐妹</w>
做 爱</w>
俄 国</w>
便 会</w>
体 温</w>
体 型</w>
低 收入</w>
从那 以后</w>
人道 主义</w>
人 行道</w>
二 者</w>
丢 弃</w>
不 断
上 演</w>
上 市</w>
一千 个</w>
一个 个</w>
一 首歌</w>
一 眼</w>
一 瓶</w>
一 段
一 月</w>
一 双</w>
v e</w>
t h</w>
i t</w>
i r</w>
h er</w>
er o</w>
ec k</w>
b y</w>
ar e</w>
You tube</w>
W ill
R I
P re
P at
M B
J im</w>
H an
GP S</w>
4 2</w>
高 空</w>
骗 子</w>
香 蕉</w>
饮 用水</w>
颗 粒</w>
预 见</w>
顺 着</w>
顶 级</w>
非 零</w>
雕 刻</w>
随 之
随之 而来</w>
降 临</w>
附 加</w>
长 出</w>
铅 笔</w>
量 化</w>
那 场</w>
逮 捕</w>
速 率</w>
通 风</w>
迷 失</w>
较 大</w>
轮 廓</w>
路 撒
路撒 冷</w>
越 是</w>
起 诉</w>
赞 同</w>
贝 拉</w>
诸 多</w>
请 举手</w>
说 不定</w>
诱 惑</w>
讲 完</w>
触 觉</w>
见 识</w>
西班牙 语</w>
行 人</w>
螃 蟹</w>
蜗 牛</w>
蒸 发</w>
营 地</w>
获 利</w>
英 语
芥 末</w>
船 长</w>
脚 下</w>
耶 路撒冷</w>
维 基</w>
继续 下去</w>
线 虫</w>
素 材</w>
精 致</w>
管理 员</w>
第三 点</w>
穿 梭</w>
神经 科学</w>
破 坏
研 讨
砍 伐</w>
相对 论</w>
百分 比</w>
病 毒
病 患</w>
电 荷</w>
猜 猜</w>
独 裁</w>
特 尔</w>
漫 步</w>
游 戏
清 晨</w>
海 岸
浓 缩</w>
流 域</w>
津 巴布
津巴布 韦</w>
洛 克</w>
波 长</w>
没 事</w>
沙 滩</w>
沙 发</w>
水 泥</w>
每 日</w>
每 一件</w>
标 志
最 最</w>
最 坏</w>
更 能</w>
更 强</w>
时 起</w>
施 加</w>
敏 捷</w>
放 出来</w>
支持 者</w>
摩尔 定律</w>
握 手</w>
提 起</w>
接 种</w>
抵 消</w>
手 套</w>
感 应
思 考
强 力</w>
开 设</w>
建 起</w>
库 尔特</w>
幸 运
平 行</w>
帕 戈斯</w>
布 拉德</w>
巴 斯</w>
尽 头</w>
尼 西亚</w>
尼 克斯</w>
尔 曼</w>
导 航</w>
实 例</w>
孟 加拉</w>
孕 育</w>
奇怪 的是</w>
失 聪</w>
多 地</w>
外 壳</w>
外 出</w>
堆 积</w>
基 层</w>
坚 固</w>
地 质</w>
土 豆</w>
号 召</w>
另一 端</w>
句 话</w>
参 数</w>
压 制</w>
卡 因</w>
单 是</w>
华盛 顿
包 容</w>
加拉 帕戈斯</w>
前 行</w>
切 片</w>
出版 社</w>
出 新</w>
减 缓</w>
写 信</w>
体 育</w>
估 算</w>
伦 斯</w>
会 员</w>
亲 身</w>
亲 吻</w>
乙 醇</w>
乘 坐</w>
世 代</w>
不 难</w>
不 禁</w>
不 利</w>
不 介意</w>
上 个世纪</w>
三 条</w>
一氧化 氮</w>
一次 性</w>
一 滴</w>
一 步
一 惊</w>
一 千</w>
一 两个</w>
us an</w>
or y</w>
o f</w>
lo b
k e</w>
ic s</w>
h an</w>
g o</w>
c k
ac e</w>
Wol f
Th om
S hi
Ro mo</w>
N at
L in
L ar
F O
Ch ar
9 8</w>
4 4</w>
3 8</w>
3 1</w>
2 .5</w>
飞 到</w>
风 力</w>
领 先</w>
顶 尖</w>
非洲 大陆</w>
雏 形</w>
雇 员</w>
隐 私</w>
随 者</w>
陨 石</w>
降 解</w>
阿拉伯 语</w>
里 兰
酋 长</w>
避 孕
遍 及</w>
递 给</w>
这 要</w>
迎 接</w>
迈 向</w>
达 赖
达赖 喇嘛</w>
赤 道</w>
调 研</w>
记 载</w>
议 程</w>
言 论</w>
观 止</w>
西 斯</w>
裤 子</w>
衰 竭</w>
蟑 螂</w>
营养 不良</w>
莎 白</w>
药 片</w>
艰 巨</w>
舞 者</w>
舌 头</w>
脊 椎</w>
胡 子</w>
聚 合物</w>
而 生</w>
而 上</w>
美 学</w>
美 军</w>
绳 索</w>
经 验
纳 粹</w>
筹 集</w>
竞争 者</w>
突 破
稍 后</w>
程序 员</w>
研讨 会</w>
矿 物</w>
盲 目</w>
益 处</w>
皇 家</w>
病 学</w>
病 原体</w>
电子 设备</w>
电 路
电 网</w>
用 户
用 力</w>
瓦 特</w>
理 想
班 加
珍 惜</w>
现 金</w>
环 形</w>
特 色</w>
热 门</w>
烤 箱</w>
点 燃</w>
灵长 类</w>
渔 业</w>
淡 水</w>
海 藻</w>
海 军</w>
测 试
法 规</w>
水 泵</w>
水 分</w>
毫 不</w>
比 伦</w>
每 分钟</w>
次 序</w>
模 因</w>
植 物
格 子</w>
极 端
村 落</w>
杂 音</w>
朱 丽
有 生
替 代
晚 期</w>
无 意识</w>
无 尽</w>
新 鲜
收 养</w>
摇 滚</w>
推 翻</w>
推 断</w>
接 口</w>
据 说</w>
换 个</w>
拥 挤</w>
抬 头</w>
扼 杀</w>
手术 室</w>
感应 器</w>
意 识
得 通</w>
很 强</w>
彻 底
引人 入
引人入 胜</w>
引 出</w>
异 性</w>
开 拓</w>
建筑 学</w>
平 线</w>
常 识</w>
市 区</w>
巴 比伦</w>
巨 大
崇 拜</w>
尼古 拉斯</w>
就 象</w>
少 数
小 规模</w>
密 切</w>
寄 给</w>
寄 生
客 人</w>
宏 伟</w>
学 金</w>
学 习
子 弹</w>
奶 牛</w>
女 王</w>
奖 学金</w>
奉 献</w>
头 疼</w>
失败 者</w>
太 过</w>
大 地</w>
多 得多</w>
外 星</w>
境 地</w>
填 充</w>
在 读</w>
四 天</w>
喷 发</w>
唤 起</w>
响 应</w>
吻 合</w>
吸 烟</w>
君 子</w>
名 声</w>
叹 为
叹为 观止</w>
史 上</w>
可 卡因</w>
古 希腊</w>
古 兰经</w>
厌 倦</w>
压 迫</w>
历史 学家</w>
占 领</w>
单 个</w>
华尔 街</w>
半 径</w>
千 万美元</w>
十 足</w>
匈牙 利</w>
剂 量</w>
制片 人</w>
别 处</w>
切 实</w>
分 校</w>
出 行</w>
决 定性</w>
写 成</w>
再 用</w>
内 存</w>
共 性</w>
公 交
兔 子</w>
克 逊</w>
光 照</w>
先 锋</w>
做 饭</w>
做 手术</w>
假 想</w>
借 用</w>
修 补</w>
信 件</w>
便 利</w>
佛罗里 达</w>
优 美</w>
伊 丽
令人 振奋</w>
人 种</w>
人 力</w>
人 中</w>
交响 乐</w>
乌 尔</w>
之 年</w>
丢 掉</w>
不 妨</w>
一 团</w>
u st
s k
it y</w>
i on
et t
Thom as</w>
S usan</w>
Ro b
I BM</w>
G lob
F l
C o
9 6</w>
9 4</w>
19 80</w>
麻省理 工学院</w>
高 压</w>
飞 跃</w>
飞 越</w>
预 先</w>
革命 性</w>
难 过</w>
难 忘</w>
间 断</w>
长 的</w>
钢 铁</w>
金 星</w>
重 心</w>
那 样
避 开</w>
遥 控</w>
造 出来</w>
造 出</w>
选 民</w>
逃 跑</w>
逃 脱</w>
追 逐</w>
进 攻</w>
这 事</w>
过滤 器</w>
转 录</w>
躲 避</w>
身 于</w>
路 边</w>
超 导体</w>
赞 美</w>
象 征
谈 起</w>
请 问</w>
评 论
记录 下来</w>
记 忆
观众 们</w>
行 政</w>
虚 构</w>
蓝 鳍</w>
葬 礼</w>
荒 唐</w>
茶 壶</w>
自动 化</w>
自 问</w>
胡 萝卜</w>
联 结</w>
美 德</w>
红 酒</w>
紧 要</w>
系统 性</w>
类 别</w>
米 特里</w>
筹 款</w>
等 教育</w>
笼 子</w>
第三 方</w>
稀 有</w>
种族 灭绝</w>
秋 天</w>
破 产</w>
研究 成果</w>
看 不
监 禁</w>
百分之 百</w>
白 尼</w>
用 过</w>
生态 学</w>
理 论
球 体</w>
爵士 乐</w>
爱 上</w>
爪 子</w>
热 带</w>
灭 亡</w>
溪 流</w>
游 世界</w>
浏 览
流 向</w>
洪 水</w>
洛 伊
波 动</w>
此 时
格 陵
根本 无法</w>
某 处</w>
极 具</w>
杰 克逊</w>
机 能</w>
木 炭</w>
有 意</w>
有 天</w>
有 利于</w>
时 速</w>
旨 在</w>
无 趣</w>
无 所谓</w>
斯科 特</w>
数 个</w>
散 布</w>
教 书</w>
撒 谎</w>
摄 入</w>
插 座</w>
捕 杀</w>
指 着</w>
才 华</w>
所 指</w>
户 外</w>
我 先</w>
怪 人</w>
快 要</w>
彩 色</w>
录 像
弹 簧</w>
应 有</w>
年 底</w>
带 宽</w>
布 满</w>
市 民</w>
左 上角</w>
尔 蒙</w>
少 女</w>
对 照</w>
审 美</w>
宇宙 空间</w>
孢 子</w>
娱 乐
好 笑</w>
女 朋友</w>
大 麻</w>
大 道</w>
大 幅</w>
大 吃
多 一点</w>
基因 组学</w>
基 里
地 里</w>
地 质
土卫 六</w>
圈 子</w>
国 度</w>
国 务
围 着</w>
哥 白尼</w>
吸 取</w>
后 院</w>
后 退</w>
吉 尔</w>
吉 姆</w>
发 短信</w>
双 向</w>
原子 弹</w>
原始 数据</w>
压 抑</w>
千 人</w>
十 分之一</w>
劳 工</w>
助 手</w>
剪 辑</w>
制 药</w>
切 断</w>
击 中</w>
出 门</w>
出 路</w>
几 秒钟</w>
几 百万</w>
农 作物</w>
共和 国</w>
光 纤</w>
先 知</w>
充分 利用</w>
偏 好</w>
信 奉</w>
侧 面</w>
你 家</w>
作 出
体 化</w>
住 宅</w>
会 面</w>
会 场</w>
伊丽 莎白</w>
人 力
五 万</w>
二 进制</w>
乡 下</w>
习惯 于</w>
也 好</w>
乏 味</w>
乃 至</w>
中 等</w>
不 足以</w>
不 相
不 来</w>
下 而上</w>
上 课</w>
上 空</w>
上 下
一 阵
一 致
v er</w>
ur e</w>
s e</w>
r os
on g</w>
o w</w>
i b
es t</w>
en t</w>
an is
amp ;</w>
Wolf ram</w>
W al
T I</w>
O K</w>
J A</w>
I P
Georg e</w>
9 7</w>
199 7</w>
199 5</w>
198 4</w>
19 45</w>
19 0
& amp;</w>
默 斯</w>
麻 痹
麻痹 症</w>
马拉 松</w>
风 车</w>
非常 低</w>
雇 用</w>
隧 道</w>
隔 绝</w>
限 度</w>
阐 释</w>
钻 石</w>
重 生</w>
重 现</w>
配 偶</w>
那样 的话</w>
那 才</w>
那 座</w>
远 见</w>
轻 轻</w>
软 件
转 身</w>
转 基因</w>
车 道</w>
超级 计算机</w>
资 格</w>
谜 团</w>
调 查
读 过</w>
说 些</w>
证 人</w>
解 剖</w>
西 蒙</w>
西 尼</w>
衰 落</w>
行 得通</w>
萎 缩</w>
荷 尔蒙</w>
荣 耀</w>
范 畴</w>
节 约</w>
脑 细胞</w>
能 为</w>
老年 痴呆症</w>
群 落</w>
罪 恶</w>
罗 德
罗 尔</w>
纳 德</w>
红 外线</w>
纠 结</w>
精 美</w>
笑 脸</w>
立方 体</w>
突破 性</w>
税 收</w>
积 木</w>
科学 界</w>
科学 技术</w>
碰 巧</w>
目 录</w>
皮 质</w>
登 录</w>
略 性</w>
电 源</w>
生产 者</w>
瑟 夫</w>
琢 磨</w>
班加 罗尔</w>
瀑 布</w>
濒 危</w>
演 绎</w>
游 泳
游 动</w>
消防 员</w>
流 失</w>
流 传</w>
波斯 尼亚</w>
治 理</w>
汇 聚</w>
永 不</w>
气 温</w>
标志 性</w>
柔 软</w>
村 里</w>
权 衡</w>
未 曾</w>
有 创造力</w>
暴 力
显示 器</w>
时 不时</w>
无 能
族 群</w>
族 人</w>
旅 行
新 颖</w>
新 世界</w>
文 档</w>
文 主义</w>
散 发</w>
放 进去</w>
摆 动</w>
提 炼</w>
提 倡</w>
推 销</w>
探 索
抬 起</w>
报 酬</w>
抗 药性</w>
打 动</w>
我 以</w>
戏 法</w>
慈 悯</w>
情 报
恐怖 袭击</w>
忠 诚</w>
心 跳</w>
心 率</w>
得 主</w>
当 局</w>
弗 吉
建 了</w>
并 用</w>
年 度</w>
巴 士</w>
就 业</w>
尖 端</w>
小儿 麻痹症</w>
小 麦</w>
小 事</w>
导 员</w>
安全 感</w>
学 过</w>
孟 加拉
存 者</w>
嫉 妒</w>
威 力</w>
好 得多</w>
好 友</w>
奴隶 制</w>
奥斯 卡</w>
奥 地
夺 走</w>
失 控</w>
大 选</w>
夜 里</w>
多 尔</w>
外交 家</w>
境 内</w>
均 收入</w>
地 步</w>
地 平线</w>
国防 部</w>
四 十
喇 叭</w>
咖啡 馆</w>
周 刊</w>
启 迪</w>
吞 噬</w>
同 学</w>
各个 方面</w>
右 手</w>
发电 机</w>
发 动机</w>
原子 核</w>
原 住
原住 民</w>
卡 门</w>
十 月</w>
十 五年</w>
加勒 比
功 夫</w>
前 线</w>
制造 业</w>
利 比亚</w>
初 级</w>
分 泌</w>
分 布
减 弱</w>
农 业
再 来</w>
全 美</w>
入 口</w>
克 兰</w>
充满 活力</w>
假 死</w>
倡 议</w>
信 徒</w>
保 佑</w>
传 粉</w>
会 为</w>
会 上</w>
从那 时起</w>
仁 慈</w>
人 用</w>
人 均收入</w>
交易 所</w>
五 种</w>
事 务</w>
事 例</w>
书 店</w>
之 大</w>
主 持</w>
东 非</w>
业 者</w>
世界 大战</w>
专 用</w>
不 敢
万 能</w>
一 阵</w>
一 谈</w>
一 口气</w>
u r</w>
l er</w>
i st
er ry</w>
er l
d i</w>
d er</w>
c ym
a st
SE TI</w>
S ch
R a
P M</w>
J on
B G</w>
A l</w>
5 8</w>
3 .
.. ..</w>
默 德</w>
鸡 肉</w>
首 相</w>
馅 饼</w>
食 谱</w>
预 示</w>
障 碍
障碍 物</w>
陷 阱</w>
阿姆斯特 丹</w>
阿 奇</w>
阳 性</w>
闻 到</w>
长 长的</w>
长 话
长话 短
长话短 说</w>
钢 琴
重 大
那 张</w>
速 器</w>
选 手</w>
适 宜</w>
这 组</w>
运 气</w>
路 德</w>
起 源于</w>
贿 赂</w>
贝 多
贝多 芬</w>
说 来</w>
该 死</w>
譬 如</w>
警 察
解 析</w>
视 觉
规 矩</w>
被 捕</w>
衍 生</w>
行 为
螳 螂</w>
蒙 特</w>
董 事会</w>
菲 律
菲律 宾</w>
菲 尼克斯</w>
菜 单</w>
莫 扎
莫扎 特</w>
自由 主义</w>
自 足</w>
脚 步</w>
肺 结核</w>
股 票</w>
联合 国
耕 种</w>
者 之间</w>
罗 斯
绝 佳</w>
纷 纷</w>
红 线</w>
纠 正</w>
精 准</w>
粪 便</w>
简 易</w>
策 划</w>
第 四</w>
第 五</w>
科 勒</w>
社会 学家</w>
知识 产权</w>
着 眼
真 心</w>
相似 之处</w>
百分之 三十</w>
瘾 君子</w>
痴 迷</w>
番 茄
生 生</w>
班 卓
班卓 琴</w>
珠 宝</w>
玛 丽</w>
玉 米
牲 畜</w>
煤 矿</w>
点 亮</w>
渡 渡</w>
混 合
深 渊</w>
浪 漫
波 兰</w>
没 见</w>
汇 集</w>
气 氛</w>
毛 发</w>
比 亚
毁 灭
此时 此刻</w>
此 处</w>
检 视</w>
树 脂</w>
树 叶</w>
构 架</w>
条 款</w>
村 民</w>
最高 法院</w>
最 长</w>
最 差</w>
更 深</w>
更 换</w>
时 装</w>
无能 为
无能为 力</w>
方 程式</w>
新 一代</w>
数 十年</w>
政 府
放 映</w>
攀 岩</w>
摩 西</w>
摇 晃</w>
提 供
捐 赠
捐 款</w>
捉 到</w>
挤 压</w>
拜 托</w>
抱 负</w>
承 载</w>
打 猎</w>
所在 地</w>
情 愿</w>
性 生活</w>
怀 着</w>
忘 了</w>
志 愿</w>
微 弱</w>
弗 朗
开 销</w>
开 着</w>
广 播
幸 存者</w>
幅 度</w>
席 卷</w>
帝 国
布 兰
峰 值</w>
局 限于</w>
小 狗</w>
富 翁</w>
密 切
寄生 虫</w>
宽 容</w>
宣 扬</w>
定 期</w>
安 东
季 候
季候 风</w>
妇 人</w>
奥地 利</w>
奔 跑</w>
太阳 光</w>
多 点</w>
外 向</w>
复 发</w>
填 满</w>
基里 巴斯</w>
基 酸</w>
城 里</w>
坏 人</w>
地 域</w>
图 景</w>
图 中</w>
嘈 杂</w>
哈 里</w>
品 尝</w>
咱 们</w>
吹 口哨</w>
右 侧</w>
史 密斯</w>
可 视</w>
发明 者</w>
参 照</w>
卡 通
升 华</w>
十 倍</w>
化学 反应</w>
努 力
加 剧</w>
力 气</w>
前列 腺癌</w>
前 方</w>
别 忘了</w>
利 安</w>
分 工</w>
冷 静</w>
冷 漠</w>
内心 深处</w>
内 疚</w>
养 老
兹 堡</w>
共和 党</w>
六 种</w>
全 职</w>
偶 像</w>
做 生意</w>
修 正</w>
信 不信</w>
但 愿</w>
伸 展</w>
伦 理</w>
传 授</w>
会 议
他 来</w>
仇 恨</w>
人类 学</w>
亲 近</w>
交 互
五 十万</w>
买 来</w>
习 俗</w>
九 年</w>
乌 托邦</w>
两 边</w>
世 纪
三 点</w>
一整 套</w>
一 提</w>
w e
l es</w>
in t</w>
in k</w>
e g
ar y</w>
an i
ag e</w>
Will i
S u
Ro b</w>
N et
M y
M or
M A</w>
IM S</w>
H ar
F ran
A IMS</w>
6 4</w>
1 80</w>
黄 蜂</w>
驾 车</w>
首 领</w>
食 品
预 知</w>
音 量</w>
音 调</w>
震 荡</w>
零 下</w>
院 子</w>
阻 力</w>
闲 置</w>
链 条</w>
里 根</w>
里 亚</w>
都 市</w>
部 署</w>
道 具</w>
通 知</w>
透 露</w>
迷 宫</w>
连 线</w>
远 古</w>
这 头</w>
运 到</w>
迄 今
迄今 为止</w>
达 芬奇</w>
载 体</w>
轰 炸</w>
跨 过</w>
跑 道</w>
越来越 少</w>
超 人</w>
质 性</w>
财 务</w>
贝 索</w>
貌 似</w>
谈 一谈</w>
诗 班</w>
诊 室</w>
角 落
角落 里</w>
西 方
裸 露</w>
被 困</w>
表 皮</w>
行 贿</w>
蝴 蝶</w>
蚁 后</w>
薄 膜</w>
蓝 光</w>
蒂 县</w>
英 雄
航 班</w>
致 死</w>
致 敬</w>
自我 意识</w>
股 票
羽 毛</w>
羞 愧</w>
罗 斯林</w>
维 系</w>
维 斯</w>
结 构
细 致</w>
纸 质</w>
索 马里</w>
粉 色</w>
米 尔</w>
算 术</w>
签 名</w>
第 四个</w>
第 一张</w>
笨 蛋</w>
立 马</w>
立 法</w>
穆 朗
祷 告</w>
神 父</w>
碳 水
碳水 化合物</w>
矿 井</w>
着眼 于</w>
眨 眼</w>
看 吧</w>
相 关
百 万年</w>
登 革
留 意</w>
生产 商</w>
生 机</w>
瓦 解</w>
瓣 膜</w>
珠 穆朗
猿 类</w>
狗 狗</w>
特 有</w>
特 律</w>
牛 津
牛津 大学</w>
燃 料
灵 活性</w>
深 层次</w>
深 奥</w>
浏览 器</w>
测 出</w>
流 逝</w>
活 到</w>
沉 迷
汽车 座椅</w>
水 池</w>
氨 基酸</w>
民主 党人</w>
毕业 生</w>
毁灭 性</w>
橡皮 泥</w>
横 渡</w>
模拟 器</w>
概 念
梅 隆</w>
杰 夫</w>
朵 花</w>
有生 之年</w>
有 的是</w>
智能 手机</w>
景 色</w>
普 拉</w>
晓 得</w>
时 钟</w>
日 语</w>
无 关
数 值</w>
撕 开</w>
摔 倒</w>
搞 砸</w>
描 写</w>
推 理</w>
排 队</w>
排 斥</w>
授 粉</w>
换 言之</w>
捕 捉到</w>
护 照</w>
投 射</w>
所 为</w>
战 后</w>
成 器</w>
感 人</w>
意识 形态</w>
意 志
惯 例</w>
怪 物</w>
性 激素</w>
微 观</w>
得 来</w>
张 力</w>
弄 清</w>
开 阔</w>
底 特律</w>
布 拉</w>
峰 顶</w>
屏 气</w>
尔 森</w>
富 尔</w>
寄 生</w>
宿 主</w>
害 羞</w>
实 用
宇航 局</w>
孤 单</w>
孟加拉 国</w>
字 符</w>
夸 克</w>
失 落</w>
天 真</w>
夜 间</w>
外 科
增长 率</w>
塞 尔</w>
堵 塞</w>
埃 里克</w>
坦 白
块 钱</w>
地 产</w>
土 著</w>
固 体</w>
喜马拉 雅
唱 诗班</w>
周 年</w>
各 处</w>
可 言</w>
可 行
召 开</w>
变 小</w>
变 动</w>
发 酵</w>
发 誓</w>
发 点</w>
发 挥
印第安 人</w>
卡 西尼</w>
占 用</w>
卖 掉</w>
单 单</w>
十 二</w>
匹 兹堡</w>
刻 意</w>
刹 车</w>
制造 者</w>
刊 登</w>
出 发点</w>
几 点</w>
几 何
冰 块</w>
关 上</w>
共产 主义</w>
六 十年代</w>
全 身心</w>
全 国
先 是</w>
偏 差</w>
保守 派</w>
使 人</w>
伯 蒂县</w>
伯 克利</w>
伪 造</w>
传 给</w>
传 奇</w>
以 防</w>
他 用</w>
之 际</w>
之 路</w>
之 多</w>
主 权</w>
中 立</w>
个人 电脑</w>
两 项</w>
不 许</w>
不 易</w>
不 感兴趣</w>
不 及
上 涨</w>
上 台</w>
三 维空间</w>
一阵 子</w>
一 试</w>
一 角</w>
一 侧</w>
一 串</w>
yp e</w>
st r
ot t</w>
n e</w>
et t</w>
d a
at a</w>
a z
Z ip
W h
S ou
S a
S O
P r
P ar
G u
FO X
D A</w>
C T</w>
B ill</w>
A t
A S
9 00</w>
9 .
5 2</w>
2 500</w>
黑 板</w>
鲜 花</w>
骑 行</w>
马尔 代
马尔代 夫</w>
马 车</w>
香 味</w>
飞 去</w>
顶 上</w>
音 响</w>
非同 寻常</w>
随 处
随处 可见</w>
钱 包</w>
野 蛮</w>
酸 盐</w>
都 行</w>
邮 箱</w>
那 州</w>
造 福</w>
透 镜</w>
逆 转</w>
逆 向</w>
追 随者</w>
违 法</w>
这 根</w>
达尔 富尔</w>
达 拉斯</w>
边 境</w>
轿 车</w>
转 折</w>
车 轮</w>
超 大</w>
超 声</w>
赶 上</w>
走 近</w>
贝 壳</w>
谈 过</w>
读 出</w>
误 导</w>
话 语</w>
觉 醒</w>
观 者</w>
裂 症</w>
衬 衫</w>
蛛 网</w>
薪 水</w>
蒂 姆</w>
色 情</w>
自 觉</w>
自 给
自给 自足</w>
能 用</w>
肮 脏</w>
罗 德</w>
罗 伊</w>
网 格</w>
继续 前进</w>
继 而</w>
继 承</w>
经济 危机</w>
经 受</w>
纺 织
纳 入</w>
约 瑟夫</w>
精 通</w>
精 巧</w>
粉 末</w>
简 要</w>
等 等等</w>
等 等等等</w>
第 一点</w>
章 节</w>
稍 稍</w>
移 除</w>
积极 情绪</w>
磅 重</w>
睾 丸</w>
睡 着</w>
真 寺</w>
相 结合</w>
直升 飞机</w>
百分之 五十</w>
百分之 二</w>
登革 热</w>
疯 子</w>
番茄 酱</w>
画 书</w>
男 女</w>
电 邮</w>
电 动</w>
瓷 砖</w>
现代 人</w>
猫 咪</w>
独 处</w>
犹 太</w>
特 殊
特 意</w>
牛 排</w>
牛 仔</w>
牙 医</w>
爬 行</w>
燃料 电池</w>
热 点</w>
烟 雾</w>
点 钟</w>
火 腿</w>
溶 解</w>
渔 民</w>
清 除</w>
清 真寺</w>
混 合物</w>
深 入
淋 巴
海 域</w>
浪 费
活 生生</w>
洗 澡</w>
没 人能</w>
沉迷 于</w>
沃 德</w>
永 久
水 道</w>
氛 围</w>
毒 性</w>
毁 坏</w>
步 伐</w>
歌 词</w>
检 查
核 反应堆</w>
标 语</w>
查 找</w>
枯 燥</w>
杂 烩</w>
杀 戮</w>
本 土</w>
末 日</w>
有 位</w>
最 能</w>
最 少</w>
无人 驾驶</w>
无 害</w>
数 十亿</w>
散 播</w>
教 条</w>
救 济</w>
效 力</w>
摄 取</w>
摄 像</w>
接 管</w>
拷 贝</w>
拉 比</w>
拆 除</w>
抵 抗
抵 制</w>
护 者</w>
抓 取</w>
打 断</w>
所 得</w>
所 作
所作 所为</w>
截 肢</w>
成 品</w>
感 恩</w>
意志 力</w>
恐 慌</w>
总 数</w>
急 需</w>
快 餐</w>
忙 碌</w>
心 血管</w>
德 克萨
循 环
当 选</w>
当 有</w>
归 类</w>
弥 补</w>
建筑 业</w>
建 构</w>
广 大</w>
并不 认为</w>
平 和</w>
常 用</w>
布莱 恩</w>
巴 厘
巴厘 岛</w>
左 侧</w>
局 部</w>
宪 法</w>
定 理</w>
定 居</w>
官 司</w>
官 僚</w>
完全 相同</w>
宁 愿</w>
字 节</w>
好 极了</w>
奖 赏</w>
奏 效</w>
头 衔</w>
大吃 一惊</w>
大 都</w>
大 家庭</w>
大 使</w>
大 众
外科 手术</w>
外 语</w>
外 形</w>
复 活</w>
塔 拉</w>
塑 性</w>
场 面</w>
地 貌</w>
地 向</w>
图 象</w>
国 旗</w>
回 忆
四 十年</w>
哮 喘</w>
哥伦 比亚
和 解</w>
周 遭</w>
周 日</w>
周 围
向 着</w>
同 胞</w>
右 手边</w>
只 花</w>
发挥 作用</w>
发 言
原 则
卷 入</w>
卫生 巾</w>
卡罗 来
卡 拉</w>
占 有</w>
千 五百</w>
十 九
医疗 系统</w>
北 方</w>
北 京</w>
加勒比 海</w>
加利福 尼亚州</w>
加 斯</w>
前 来</w>
利 略</w>
分 裂症</w>
分 化</w>
出 生
凯 利</w>
几 条</w>
准 确
冒 出来</w>
其 一</w>
关键 在于</w>
共 生</w>
共 事</w>
兰 德</w>
公 平
克 莱</w>
克 利
光 源</w>
停 滞</w>
偏 离</w>
假 说</w>
借 鉴</w>
信 条</w>
作出 反应</w>
体 上</w>
低 廉</w>
伽 利略</w>
伤 心</w>
传 遍</w>
会 长</w>
休 假</w>
仓 库</w>
亲 眼</w>
乐 园</w>
中 心
中 产
东 海岸</w>
不 大
不 吃</w>
上 层</w>
上 会</w>
三 周</w>
三 分钟</w>
万 英尺</w>
一大 群</w>
一 轮</w>
一 条线</w>
一 封信</w>
一 团
一 丝</w>
t ;</w>
re w</w>
o u</w>
iv e</w>
i g</w>
er s
d a</w>
cym at
as s
ap p
am s</w>
U s
TED M
TED Glob
T ony</w>
S er
R NA</w>
P o
P h
O r
N or
I M</w>
C N
Bri an</w>
B ur
5 9</w>
5 6</w>
20 30</w>
199 1</w>
196 8</w>
1 40</w>
齿 轮</w>
鲍 鱼</w>
面 具</w>
雷 达</w>
集 会</w>
降 雨</w>
阿拉 斯加</w>
问 世</w>
闪 烁</w>
酵 母</w>
那 好</w>
逆 转录</w>
连 串</w>
运 河</w>
过 世</w>
辛 苦</w>
较 为</w>
身 受</w>
跳 进</w>
跳 跃</w>
跨 国</w>
越 高</w>
起 义</w>
赞 助
谦 虚</w>
读 到</w>
该 国</w>
讨 论
认 证</w>
计划 生育</w>
触 角</w>
视 图</w>
西 海岸</w>
西 伯
西伯 利亚</w>
表 现
行 事</w>
蠕 虫</w>
螺旋 桨</w>
蜂 人</w>
薯 条</w>
萨 里</w>
荒 漠化</w>
苹果 公司</w>
花 掉</w>
芬 兰</w>
航 天</w>
自由 派</w>
腐 烂</w>
脖 子</w>
脑 震荡</w>
能 比</w>
胶 带</w>
胰 岛
聪 明
联邦 政府</w>
聊 聊</w>
考 古
美 食</w>
美 人
美人 鱼</w>
缘 故</w>
缓 解</w>
结 晶</w>
紧 接着</w>
紧 密
精神 分裂症</w>
第三 世界</w>
第一 代</w>
笛 子</w>
空 闲</w>
移 植
科 生</w>
科 幻
神 庙</w>
祈 求</w>
示 范</w>
碰 上</w>
瞄 准</w>
真 想</w>
盖 尔</w>
盈 余</w>
的 确
百 五十</w>
画 作</w>
电 能</w>
田 纳
用 药</w>
用 不着</w>
生态 环境</w>
生命 周期</w>
生 学</w>
生 存
环境 保护</w>
猎 人</w>
片 状</w>
灰 尘</w>
火 柴</w>
澳 洲</w>
漏 洞</w>
源 泉</w>
温 柔</w>
深 信</w>
液 态</w>
浴 室</w>
流 体</w>
活 率</w>
活 得</w>
洋 葱</w>
池 塘</w>
气 象</w>
气 流</w>
毕 生</w>
毒 害</w>
每 晚</w>
武 力</w>
橡 胶</w>
橄榄 球</w>
格 雷</w>
标 示</w>
架 子</w>
板 子</w>
杰 作</w>
条 纹</w>
杆 菌</w>
杀 伤
杀 人</w>
朱 利安</w>
期 刊</w>
有 一天</w>
最 深</w>
暴 龙</w>
晶 体</w>
映 射</w>
时 段</w>
日 记</w>
既 有</w>
无关 紧要</w>
无 穷</w>
方 方
方 向
新 书</w>
敞 开</w>
效 仿</w>
攀 爬</w>
播 放
撇 子</w>
描 绘
推 行</w>
捐 献</w>
指 控</w>
指 引</w>
指 尖</w>
拍 打</w>
抽 象
投 弹</w>
执行 官</w>
手 斧</w>
戴 安娜</w>
我 见</w>
憎 恨</w>
意大 利
愈 合</w>
悬 挂</w>
总 有一天</w>
性 行为</w>
忙 于</w>
忘 掉</w>
心 电图</w>
很 糟</w>
很 想</w>
往 后</w>
归 根
强 子</w>
弗朗 西斯</w>
开发 商</w>
庸 置疑</w>
度 假</w>
店 里</w>
幸运 地</w>
幸 存</w>
幸 好</w>
并不 一定</w>
年 老</w>
幅 照片</w>
带 回家</w>
布 置</w>
左 手</w>
层 楼</w>
尼 莱坞</w>
对 折</w>
寂 静</w>
宾 夕
宾夕 法
宗 旨</w>
安德 鲁</w>
宇宙 飞船</w>
娃 娃</w>
失 业</w>
太 快</w>
多 重</w>
多 伦
多 亏</w>
外 来</w>
基 石</w>
坠 落</w>
坟 墓</w>
场 上</w>
地 是</w>
地 想</w>
圆 点</w>
图 里</w>
回 过</w>
四 倍</w>
器 时代</w>
喷 出</w>
哨 声</w>
周围 环境</w>
名 义</w>
司 法</w>
可 观</w>
可 塑性</w>
另一 组</w>
印度 教</w>
卡 内
协 力</w>
十九 世纪</w>
十 分钟</w>
十 七
包 裹</w>
募 集</w>
加 利亚</w>
功 能性</w>
利 亚人</w>
切 换</w>
出 人
几百 个</w>
几 岁</w>
冰 面</w>
再 见</w>
关 联
八 十年代</w>
充 实</w>
做 起</w>
做 不了</w>
债 务</w>
修 理</w>
保 卫</w>
保 加利亚</w>
侵 略</w>
侮 辱</w>
何 而来</w>
何 方</w>
传 递
会议 室</w>
休 闲</w>
仿 真</w>
代 币</w>
仔细 观察</w>
从未 见过</w>
从 何而来</w>
亲眼 目睹</w>
亲 手</w>
交 汇</w>
些 许</w>
五 天</w>
书 本</w>
九 月</w>
乐 曲</w>
乐 于</w>
之 快</w>
之 力</w>
主 任</w>
丹 尼</w>
中 观</w>
严 峻</w>
世纪 末</w>
专业 人士</w>
专 栏</w>
丑 陋</w>
不管 怎么</w>
不敢 相信</w>
不 自
不 受</w>
不 丹</w>
上 个月</w>
一致 性</w>
一 连串</w>
一 流</w>
一 到</w>
u x</w>
u e</w>
n e
m er</w>
in d</w>
e B
d y</w>
ann y</w>
al l</w>
W K</w>
TEDM ED</w>
Sk ype</w>
S J</w>
S D</w>
P C</w>
N 1</w>
H er
C O</w>
Al ice</w>
A pp
7 6</w>
198 9</w>
198 2</w>
19 75</w>
0 0
鼓 舞
鼓舞 人心</w>
麦 片</w>
鲜 明</w>
高 密度</w>
高 出</w>
马 克
韧 性</w>
霍 金</w>
零 售
难 所</w>
隐 形</w>
随 处</w>
陈 旧</w>
附 着</w>
阐 明</w>
长 久
镜 像</w>
钓 鱼</w>
酒 精</w>
避 难所</w>
遗传 信息</w>
透 了</w>
追 随</w>
过 得</w>
达 菲</w>
达 到
跨 度</w>
走 来</w>
赤 脚</w>
赞 扬</w>
赞 成</w>
赖 以
赖以 生存</w>
购物 中心</w>
谦 卑</w>
谢 丽
谢丽 尔</w>
课 本</w>
读 写</w>
诱 饵</w>
试 看</w>
许 可
警察 局</w>
视 频
西方 人</w>
西 州</w>
蜂 鸟</w>
蜂 群</w>
藻 类</w>
蕴 含</w>
蒙特 雷</w>
营 造</w>
莱 特</w>
莫 斯科</w>
花 上</w>
航天 局</w>
自然 环境</w>
自 传</w>
膀 胱</w>
脑 电图</w>
能 活</w>
胰岛 素</w>
胜 过</w>
肥 料</w>
群 人</w>
维 珍</w>
绝 不会</w>
线 上</w>
类 动物</w>
简 称</w>
第二 条</w>
第三 次</w>
笔 钱</w>
穿 透</w>
租 车</w>
秘 鲁</w>
科 塔</w>
破 裂</w>
石 灰
知识 分子</w>
相 片</w>
相 像</w>
直 播</w>
百分 点</w>
界 定</w>
电 站</w>
用 法</w>
用 心</w>
生物 科技</w>
理 人</w>
现 如今</w>
王 蛇</w>
王 国</w>
牢 固</w>
牛 仔
热 气球</w>
灾 害</w>
灌 溉</w>
漆 黑</w>
渺 小</w>
港 口</w>
渗 透</w>
消 融</w>
海岸 线</w>
海 浪</w>
海 峡</w>
洛伊 德</w>
洛 克
泰 坦
法 国人</w>
泊 尔</w>
沉 重</w>
气 囊</w>
残 疾
死 刑</w>
此 项</w>
此 次</w>
正 规</w>
欧洲 人</w>
楼 房</w>
棕 榈
梅 尔</w>
核 战争</w>
机 翼</w>
末 期</w>
未 经</w>
有所 作为</w>
最 大
替 身</w>
晚 饭</w>
时 所</w>
无线 电波</w>
无 视</w>
无 声</w>
无 人</w>
无 一
旗 帜</w>
新 泽
斯坦 人</w>
斯 洛</w>
教 材</w>
放 心</w>
收 回</w>
摇 篮</w>
摇 滚
摆 弄</w>
摄影 机</w>
搜 索
捷 径</w>
振 奋
振奋 人心</w>
指 南</w>
拼 命</w>
招 募</w>
抽 搐</w>
投 放</w>
抉 择</w>
托 尼</w>
才 智</w>
所 想</w>
慰 剂</w>
感 同
感同 身受</w>
急 诊室</w>
怜 悯</w>
忍 不住</w>
心 愿</w>
得 好</w>
得 上</w>
很 近</w>
往 前</w>
彻底 改变</w>
弹 拨</w>
张 贴</w>
弗 洛伊德</w>
广 义</w>
幻 灯</w>
幕 后</w>
帕 金
布 局</w>
巴勒 斯坦人</w>
巨 额</w>
巨 人</w>
工 艺
层 层</w>
尼 特</w>
尼 克
尖 锐</w>
小 屋</w>
对 立</w>
家庭 成员</w>
客 厅</w>
实 实</w>
实 地</w>
宏 大</w>
安 慰剂</w>
安 妮</w>
孙 女</w>
存 活率</w>
姿 态</w>
好 似</w>
女 神</w>
大 家伙</w>
夜 空</w>
多伦 多</w>
多 钱</w>
多 彩</w>
多 元
外 太空</w>
壁 垒</w>
坚 硬</w>
地 外</w>
在 历史
在历史 上</w>
圣诞 老人</w>
圣 母</w>
圣 保罗</w>
图 拉</w>
园 艺</w>
团结 起来</w>
噩 梦</w>
嘴 巴</w>
商 务</w>
唤 醒</w>
周 期
周 五</w>
听 闻</w>
吓 坏</w>
后 方</w>
后 排</w>
合 作用</w>
台 阶</w>
召 唤</w>
反 复
反 向</w>
原则 上</w>
原 材料</w>
历史 性</w>
即 时
印 记</w>
南 美洲</w>
半 年</w>
升 起</w>
动 画
功 率</w>
力 度</w>
剧 本</w>
制 性</w>
利 桑
初 始</w>
分 流</w>
出版 商</w>
出 乎</w>
决 策
再也 不会</w>
内 涵</w>
养 蜂人</w>
典 范</w>
共 处</w>
公 立学校</w>
入 手</w>
克里 斯
克 雷格</w>
光 合作用</w>
先 驱</w>
先 天</w>
元 前</w>
儿 童
假 体</w>
保持 平衡</w>
保 留
侦 测</w>
作 坊</w>
余 生</w>
住 所</w>
传递 信息</w>
以为 常</w>
代 数</w>
付 费</w>
今 年
仅 只是</w>
仅 仅只是</w>
人 生
人 想</w>
京 都</w>
产 生
交通 拥堵</w>
亚 利桑
五 次</w>
五 月</w>
五 分之一</w>
习 以为常</w>
九 十年代</w>
之 手</w>
主 观</w>
为 一体</w>
中产 阶级</w>
中东 地区</w>
个 案</w>
个 头</w>
严 谨</w>
世界 纪录</w>
世 间</w>
世 贸
不同 之处</w>
不 带</w>
不 准</w>
下 落</w>
下 班</w>
下 滑</w>
下 个</w>
一步 步</w>
一小 块</w>
一 枚</w>
一 一</w>
y r
u m</w>
om en</w>
id e</w>
ew art</w>
en a</w>
ell y</w>
d e
ath an</w>
ar re
an i</w>
W i
T ed</w>
S ud
R ed
R ag
R G</w>
P l
P an
Mar t
M on
M ike</w>
Lin ux</w>
L ab</w>
Jef f</w>
Em ma</w>
D i
D anny</w>
Br on
B u
B P</w>
8 000</w>
3 9</w>
20 15</w>
198 6</w>
1 60</w>
1 10</w>
黑 手
黑手 党</w>
黎 明</w>
黎 巴
高中 生</w>
高 音</w>
高 昂</w>
高 尚</w>
高 地</w>
验 证
验证 码</w>
马 萨
马 桶</w>
馆 长</w>
颇 具</w>
领 悟
领 地</w>
预 料到</w>
韵 律</w>
面 面</w>
霉 素</w>
雷 德</w>
雇 主</w>
集 器</w>
难 得</w>
隔 热</w>
隔 开</w>
阵 营</w>
闭 上
长 者</w>
错 综
错综 复杂</w>
锋 利</w>
银 行业</w>
钻 探</w>
钢 丝</w>
钞 票</w>
量 级</w>
配 对</w>
部 份</w>
郊 外</w>
那 幅</w>
遗 弃</w>
道 菜</w>
逼 供</w>
迫 切</w>
迪 士
迪士 尼</w>
还 原</w>
过 往</w>
边 缘
边 形</w>
转 而</w>
转 到</w>
躯 体</w>
越来越 快</w>
起 码</w>
赛 车</w>
货 币
贝 奇</w>
谈 判
读 取</w>
试 验
试 试看</w>
评 判</w>
许可 证</w>
记 下</w>
议 院</w>
计 数</w>
警 示</w>
解 放出来</w>
观众 席</w>
要 花费</w>
西 欧</w>
被 判</w>
蝙 蝠</w>
蝌 蚪</w>
虚 假</w>
落 到</w>
萨 斯</w>
菲 尔</w>
获 胜</w>
获 奖</w>
莎 拉</w>
草 坪</w>
色 素</w>
航空 公司</w>
自然 资源</w>
脊 髓</w>
而 下</w>
老 爸</w>
翻 倍</w>
羞 辱</w>
羞 耻
缩 写</w>
给 与</w>
经济 衰退</w>
纹 身</w>
纸 片</w>
纳 斯</w>
纳 多</w>
纤 维
红 色
紧 凑</w>
糟 透了</w>
精 髓</w>
精 华</w>
粉 笔</w>
类 人</w>
管 制</w>
筛 选</w>
第二 年</w>
窗 外</w>
穿 行</w>
移植 手术</w>
种族 隔离</w>
私 营</w>
离 子</w>
神经 学家</w>
神 殿</w>
祝 福</w>
社会 化</w>
碱 基</w>
石 膏</w>
短 时间</w>
真 人</w>
百分之 七十</w>
百 姓</w>
病 率</w>
电路 板</w>
用户 界面</w>
生物 量</w>
生 殖
生 死</w>
瓶 盖</w>
瓦 尔</w>
琐 碎</w>
珍 妮</w>
玛 丽
狭 窄</w>
独 立
独 白</w>
特 勒</w>
版权 保护</w>
照 组</w>
濒 临
演 唱
游泳 池</w>
混 凝
混凝 土</w>
深 深
涨 落</w>
消 逝</w>
泰 勒</w>
沃尔 夫</w>
汲 取</w>
永久 性</w>
水 生</w>
气 管</w>
毫 不
毛 病</w>
每 时
每时 每
每时每 刻</w>
母 牛</w>
毋 庸置疑</w>
残疾 人</w>
死 于</w>
标准 化</w>
查 询</w>
杜 克</w>
本 齐</w>
本 领</w>
本 科生</w>
朝 鲜</w>
有 效
替代 品</w>
暴 风
易 懂</w>
昏 迷</w>
时 态</w>
日 光</w>
无线 网络</w>
无 止
旅 游
方方 面面</w>
新 德里</w>
新 建</w>
斯 卡</w>
改 成</w>
收 拾</w>
摩 托</w>
搭 配</w>
握 住</w>
插 图</w>
捕 猎</w>
挫 折</w>
抬 高</w>
抛 开</w>
投 影
承 担
批 评
扭 转</w>
托 德</w>
托 克</w>
打 着</w>
戴 着</w>
战 火</w>
或 缺</w>
我 画</w>
我 去</w>
感 触</w>
感 觉
惠 特
恰 巧</w>
总 监</w>
思 绪</w>
心 思</w>
微 博</w>
往 下</w>
形 体</w>
强 暴</w>
强 化</w>
弦 琴</w>
式 各样</w>
开 到</w>
底 线</w>
应 急</w>
广告 牌</w>
广 泛
平均 水平</w>
平 民</w>
干 涸</w>
干 涉</w>
带 我去</w>
希 尔</w>
布鲁 诺</w>
巴 贝奇</w>
差 点</w>
左 下角</w>
岸 边</w>
山 谷</w>
尼 泊尔</w>
对 照组</w>
实 物</w>
安全 性</w>
安东 尼</w>
宇宙 学</w>
宁 静</w>
学 徒</w>
孕 妇</w>
子 孙</w>
妓 女</w>
好 运</w>
好 吃</w>
奥 运
夸 大</w>
太 高</w>
天 晚上</w>
大 叫</w>
大 不了</w>
外 套</w>
塞尔 吉
塞尔吉 奥</w>
基金 组织</w>
坦白 说</w>
坐 标</w>
围 栏</w>
回 避</w>
回 路</w>
器 材</w>
商业 化</w>
哪 种</w>
哪 来</w>
呼 叫</w>
向 往</w>
同 性</w>
吉 米</w>
合 唱
各 式各样</w>
右 下角</w>
可行 性</w>
可 口</w>
可 信</w>
只 想</w>
口 音</w>
叙 利亚</w>
双 臂</w>
友 谊</w>
历 经</w>
却 说</w>
印度 语</w>
卫生 组织</w>
卡罗来 纳州</w>
单 细胞</w>
协 定</w>
升 温</w>
千万 别</w>
十七 世纪</w>
匹 马</w>
北 美洲</w>
动 员</w>
动 人</w>
加 速器</w>
功 课</w>
剩 余</w>
剧 团</w>
制 服</w>
判 决</w>
分之 三</w>
击 败</w>
击 者</w>
决 不</w>
军 方</w>
写 给</w>
再 现</w>
兴 奋
关联 性</w>
六 月</w>
公 元前</w>
克 鲁
光 速</w>
健康 状况</w>
健 全</w>
停 顿</w>
假 定</w>
值得 注意</w>
债 券</w>
借 此</w>
倒 塌</w>
修 饰</w>
信 贷</w>
信 服</w>
供应 商</w>
作 曲</w>
伪 装</w>
伊 朗
价 格
仰 望</w>
从头 开始</w>
介 于</w>
人工 合成</w>
亲 戚</w>
交响 乐团</w>
事 务
书 名</w>
乔 治
之 久</w>
中 餐馆</w>
两 面</w>
两 者之间</w>
两 大</w>
两 人</w>
世界 卫生组织</w>
世 俗</w>
丑 闻</w>
不起 作用</w>
不可 或缺</w>
不 经
不 朽</w>
不 必要</w>
不 开</w>
不 小</w>
不 复
不 堪
上 而下</w>
上 百</w>
三 者</w>
三 百万</w>
三 号</w>
万 倍</w>
一个 男孩</w>
一个 点</w>
一 课</w>
一 端</w>
一 秒</w>
一 亿</w>
一 九
一 万</w>
p er
ou n
or d</w>
l ing</w>
k er</w>
is a</w>
iP ad</w>
eB ay</w>
ber g</w>
b ie</w>
art h</w>
an z
an t</w>
Wor ld
T 恤</w>
T re
T S</w>
St ewart</w>
S B</w>
R I</w>
Pan b
P al
M it
M ac
M O</w>
Juli an</w>
H A</w>
G l
FOX O</w>
Ev an</w>
E arth</w>
CN N</w>
C l
Bar ry</w>
B en
Ale x</w>
A T
8 3</w>
5 4</w>
199 6</w>
1 25</w>
黎巴 嫩</w>
麻 木</w>
鹅 肝</w>
魁 祸
魁祸 首</w>
高 层</w>
驾驶 员</w>
驱 动力</w>
饮 用</w>
风 向</w>
颤 抖</w>
颞 叶</w>
颈 鹿</w>
领 带</w>
面包 机</w>
面 试</w>
面 世</w>
非常 少</w>
非 盈利</w>
静 态</w>
震 撼
雨 量</w>
难 看</w>
随身 带</w>
阿富 汗
阿富汗 人</w>
阿 姨</w>
阴 谋</w>
长期 以来</w>
长久 以来</w>
长 颈鹿</w>
长 于</w>
铭 记</w>
金 色</w>
重 重</w>
重 申</w>
重 拾</w>
邻 里</w>
避孕 套</w>
逃 避</w>
迷 你</w>
迪 斯
迪 拜</w>
连 在一起</w>
进 到</w>
这 条线</w>
这 下</w>
运 输
辞 职</w>
轻 重</w>
踏 入</w>
路 标</w>
跨 国
跌 倒</w>
趋 向
趋向 于</w>
越 南
起 伏</w>
走 开</w>
贴 近</w>
贫困 线</w>
责 备</w>
象 棋</w>
谚 语</w>
调 控</w>
调 动</w>
诺 伊
诱 因</w>
诱 人</w>
识 字</w>
访 者</w>
许 多年</w>
讲 个</w>
训 练
认 真
警 卫</w>
解 脱</w>
解 剖
规 划
装 在</w>
表 征</w>
行 者</w>
融 资</w>
营 利性</w>
菲 尔德</w>
花 蜜</w>
艾 凡</w>
舞 会</w>
自 下而上</w>
脱 落</w>
脱 口
脚 手
脚手 架</w>
能源 消耗</w>
胶 片</w>
胶 囊</w>
联 络</w>
耶 稣
老 式</w>
老 婆</w>
老 兵</w>
翻 开</w>
羞耻 感</w>
美 观</w>
罪 魁祸首</w>
编 制</w>
绿 色
绷 带</w>
维 奇</w>
绕 着</w>
织 物</w>
纳米 级</w>
纳米 技术</w>
紧 急
索 尼</w>
系 团</w>
答 应</w>
第二 步</w>
第一 台</w>
第 六
竭 尽全力</w>
竞争 力</w>
突 尼斯</w>
空 地</w>
移 动
称 赞</w>
科 研
离 婚</w>
神 秘
祖 国</w>
碳 氢
碳氢 化合物</w>
硬 化
知 论</w>
瞧 瞧</w>
着 火</w>
真 得</w>
直 面</w>
益 虫</w>
白 痴</w>
白 板</w>
病 院</w>
疲 力
畅 销</w>
电子 化</w>
电 灯</w>
电 报</w>
生命 力</w>
生产 线</w>
生 计</w>
球 队</w>
班 级</w>
环 球</w>
献 者</w>
犯 人</w>
特 阿拉伯</w>
特 区</w>
特 别
物 理
牌 子</w>
片 刻</w>
爱 心</w>
爱 德
爱 国
爱 丁
熟 练</w>
焚 烧</w>
热带 雨林</w>
热 水</w>
演 进</w>
演 变成</w>
渲 染</w>
清 晰
混 淆</w>
淋巴 结</w>
浪费 时间</w>
油 污</w>
油 价</w>
沙 特阿拉伯</w>
沉 积
水族 馆</w>
比 尔
比尔 盖茨</w>
欧 元</w>
横 向</w>
植 被</w>
格 里
格 莱
栖 息</w>
查 阅</w>
林 斯</w>
杠 杆</w>
末 端</w>
木 板</w>
最大 化</w>
最 底层</w>
普林 斯顿</w>
星 系团</w>
星 巴克</w>
新 奥尔
新奥尔 良</w>
斜 坡</w>
文 艺
文 件
数以 万
数以万 计</w>
数 千
教 士</w>
救 赎</w>
效 能</w>
政 党</w>
放射 性</w>
改 建</w>
改 变
支 票</w>
支 柱</w>
搬 到</w>
插 入</w>
据 我
据我 所知</w>
指 定</w>
挂 毯</w>
拉 圭</w>
抵 御</w>
抗 抑郁</w>
打 扮</w>
手 机
所 有者</w>
房 车</w>
我 举</w>
戏剧 性</w>
慈善 机构</w>
慈善 事业</w>
感谢 上帝</w>
感 受
悲 观</w>
恶 魔</w>
总 裁</w>
思考 者</w>
念 头</w>
心 协力</w>
德 斯</w>
征 兆</w>
往 返</w>
彼此 之间</w>
弥 勒</w>
张 开</w>
开普 勒</w>
建筑 设计</w>
康 恩</w>
度 量</w>
庆 幸</w>
庄 稼</w>
幼 年</w>
年 时</w>
平 滑</w>
干 脆</w>
差 事</w>
左 撇子</w>
工艺 品</w>
工作 岗位</w>
崇 高</w>
居 住
就 够</w>
小 心
小 姐</w>
对 外</w>
家庭 作业</w>
室 外</w>
室 内
宣 传
实 质性</w>
完全 全</w>
完 完全全</w>
完 好</w>
学 说</w>
学 业</w>
存 放</w>
威 利</w>
姓 名</w>
奴 役</w>
女 友</w>
奖 金</w>
失 效</w>
天 敌</w>
天 地</w>
大 猩猩</w>
大 峡谷</w>
多 米
外交 官</w>
夏 季</w>
复 原</w>
复 制品</w>
壁 画</w>
增 多</w>
境 况</w>
塞 拉
基本 粒子</w>
坦 克</w>
坚 持
图 纸</w>
国务 卿</w>
回 顾
喷 射</w>
喝 酒</w>
喜马拉雅 山</w>
商 机</w>
品 味</w>
命 题</w>
吸 管</w>
启 发性</w>
向 外</w>
合唱 团</w>
可 悲</w>
发 声</w>
危 险
单 身</w>
半 钟</w>
十 八</w>
勃 勃</w>
动物 园</w>
加 油</w>
办 到</w>
办 公</w>
前 途</w>
别 无
初 步</w>
刚 果
列 颠</w>
出 身</w>
凯 西</w>
凯 特</w>
减 肥</w>
净 化</w>
冷 藏</w>
冰 冷</w>
农 夫</w>
内心 世界</w>
典 礼</w>
关 注
兰 岛</w>
公 顷</w>
公 认</w>
八 千</w>
全 麦</w>
全 体</w>
克 森</w>
光 芒</w>
充 气</w>
僧 侣</w>
偷 偷</w>
信 片</w>
余 下</w>
体 外</w>
住 房</w>
伽 罗
传染 性</w>
仿 生学</w>
仿 生</w>
代 言</w>
亿 元</w>
人口 数量</w>
人 际</w>
亲 切</w>
亲 人</w>
产 品
交 织</w>
云 层</w>
二十 五</w>
二 月</w>
事 上</w>
争 辩</w>
争 端</w>
争 夺</w>
乐 观主义</w>
久 远</w>
丰 田</w>
中 西部</w>
个人 化</w>
两 到</w>
东 亚</w>
不可 知论</w>
不 适</w>
不 计
不 至于</w>
不 应</w>
不 为人知</w>
下 车</w>
下 沉</w>
下 周</w>
上 边</w>
三 千</w>
三 到</w>
万 一</w>
一般 来说</w>
一大 笔钱</w>
一块 儿</w>
一团 糟</w>
一千 亿</w>
一个 半</w>
一 米</w>
一 束</w>
一 朵花</w>
一 堵</w>
一 堂</w>
一 例</w>
u t</w>
t s</w>
s s
re y</w>
pp m</w>
ow s</w>
ot h
or d
l d</w>
it a</w>
in i</w>
ha hi
ev in</w>
et h</w>
en e</w>
e z</w>
e m</w>
cymat ics</w>
c ar</w>
a k</w>
W ind
V er
Us hahi
TEDGlob al</w>
S ar
R ay</w>
Pet er</w>
Panb anis
N an
Le e</w>
Lar ry</w>
J H</w>
Fl ick
D J</w>
D AR
Chri st
C ra
Bron x</w>
A v
A p
A ll
A b
A V</w>
9 2</w>
5 7</w>
4 50</w>
198 5</w>
198 3</w>
黎 加</w>
麻 醉
麦 哈
麦哈 麦</w>
鱼 儿</w>
高 棉</w>
高 山</w>
饱 受</w>
饭 店</w>
飞 往</w>
颜 料</w>
领 悟</w>
顺 从</w>
面 粉</w>
静 下来</w>
雪 橇</w>
雕 塑
难 受</w>
随 机
随 地</w>
陪 审
陪 伴</w>
阿 曼</w>
闻 名</w>
间 隙</w>
闪 电</w>
门 槛</w>
长 滩</w>
错 误
钟 爱</w>
重 返</w>
重 复
采 纳</w>
那 本书</w>
遗 迹</w>
道 歉</w>
遇 上</w>
通 用
退 回</w>
述 者</w>
迫 不及
迫不及 待</w>
远 远
这 棵树</w>
这 层</w>
这 就是说</w>
过 身</w>
轴 上</w>
身 高</w>
跨国 公司</w>
赶 紧</w>
走 遍</w>
资 深</w>
贸 易
货 店</w>
负 面
豆 腐</w>
读 完</w>
说 到底</w>
语 法</w>
评论 家</w>
许多 许多</w>
讲 课</w>
讲 到</w>
记 录片</w>
计算机 科学</w>
计 时</w>
解 密</w>
视 作</w>
覆 盖
西 边</w>
西 西
蝠 侠</w>
蝙 蝠侠</w>
蓝 鲸</w>
葛 瑞
落 实</w>
萨 克斯</w>
获得 者</w>
药 剂</w>
草 根</w>
苦 苦</w>
良 知</w>
舞 蹈
致 癌
至 今日</w>
自 如</w>
脸 谱</w>
脊 椎
背 部</w>
背 包</w>
肺 炎</w>
肥 鹅肝</w>
聚 到</w>
聘 请</w>
老 太太</w>
罗 宾</w>
网 民</w>
罐 子</w>
维 网</w>
终 身</w>
终 生</w>
纬 度</w>
纪念 碑</w>
红色 高棉</w>
糖 果</w>
精神 病院</w>
粮 食
算 出</w>
算 不上</w>
离 奇</w>
社 团</w>
破坏 性</w>
石 器时代</w>
知 晓</w>
眼 泪</w>
真 有</w>
相关 性</w>
目 击者</w>
盖 住</w>
百万 分之一</w>
画 笔</w>
电话 号码</w>
甲 壳
用 手</w>
用 尽</w>
生物 圈</w>
生态 学家</w>
生 日
珠穆朗 玛
珠穆朗玛 峰</w>
现代 主义</w>
现 成</w>
猎 豹</w>
犯 下</w>
牵 涉
牵涉 到</w>
牛仔 裤</w>
爷 爷</w>
熟 练
照 着</w>
照 相</w>
照 料</w>
然 大
热 能</w>
灵 光</w>
火 花</w>
澄 清</w>
漫 画书</w>
滑 板</w>
湿 地</w>
游 说</w>
涡 轮</w>
消 退</w>
海 边</w>
浪 潮</w>
注 目</w>
波 斯</w>
沼 泽</w>
沙 粒</w>
沃 伦</w>
氮 气</w>
民 间</w>
每 条</w>
每 位</w>
殖 民</w>
死 者</w>
死 后</w>
步 调</w>
模 式
核 酸</w>
树 干</w>
树 冠</w>
标 出</w>
某 事</w>
枯 竭</w>
极 高</w>
杂 货店</w>
机 体</w>
本 该</w>
未 必</w>
有 多
更 难</w>
易 于</w>
明 信片</w>
时 髦</w>
时 至今日</w>
日 历</w>
新闻 报道</w>
新 星</w>
斯 里兰
斯 达
文艺 复兴</w>
文 盲</w>
数十 亿年</w>
数 千年</w>
敏 锐</w>
收 取</w>
播放 器</w>
摸 索</w>
摒 弃</w>
搜索 引擎</w>
掩 盖</w>
推 迟</w>
推 崇</w>
推 向</w>
掠 夺</w>
排 练</w>
排 出</w>
掉 下来</w>
捐赠 者</w>
指挥 家</w>
持 续
拿 掉</w>
拖 丝</w>
拍 手</w>
拍 卖
拉 姆</w>
报 复</w>
承 包
扮 演
扔 进</w>
打 游戏</w>
手 写</w>
所 有权</w>
战 役</w>
我 选</w>
我 本</w>
我 出</w>
想 来</w>
悠 久</w>
总 算</w>
德 州</w>
徘 徊</w>
录 取</w>
弱 点</w>
建 模</w>
应 得</w>
广 岛</w>
幽 默
年 初</w>
平 衡
带 进</w>
希 特勒</w>
布 雷
巴 顿</w>
巴 尔</w>
山 丘</w>
尼 诺</w>
就 业
就业 机会</w>
尔 巴
尔 尼诺</w>
小 岛</w>
小 家伙</w>
小 孔</w>
小 于</w>
对 策</w>
察 觉
室 友</w>
审 核</w>
学 着</w>
学 区</w>
存 钱</w>
存 款</w>
字 面</w>
字 幕</w>
媲 美</w>
好 听</w>
好 几
女权 主义者</w>
奢 望</w>
奢 侈</w>
头 版</w>
太 难</w>
太 久</w>
大大 的</w>
大 提琴</w>
增 进</w>
埃 尔
垫 子</w>
垄 断</w>
地 盘</w>
圣 人</w>
图 谱</w>
国 防</w>
国 会
国会 议员</w>
四 次</w>
四 月</w>
噪 声</w>
嘴 唇</w>
商 品
哈 马</w>
和 弦</w>
呵 呵</w>
周期 表</w>
后 续</w>
同 理</w>
同 感</w>
台 湾</w>
台 下</w>
可 知</w>
另 类</w>
古 典</w>
口 罩</w>
口 中</w>
变 老</w>
变 性</w>
发电 站</w>
发 了</w>
反 击</w>
双 重</w>
双 赢</w>
厌 烦</w>
厄 尔尼诺</w>
印度 尼西亚</w>
印 尼</w>
博士 学位</w>
协 商</w>
十 九</w>
北 半球</w>
化 妆</w>
勉 强</w>
加 深</w>
加 尔</w>
削 弱</w>
制 止</w>
利 昂</w>
利 斯</w>
划 船</w>
切 成</w>
分 钱</w>
分 发</w>
出人 意料</w>
几 千</w>
几 十亿</w>
几 内
减 排</w>
农 产品</w>
军 人</w>
兽 医</w>
关 系
共 存</w>
公交 车</w>
全 心
全 人类</w>
免 受</w>
克 罗
光 盘</w>
光 是</w>
傻 瓜</w>
催 眠</w>
催 化
偷 窃</w>
假 期</w>
倒 退</w>
修 剪</w>
便 携</w>
伽罗 瓦</w>
会 花</w>
众 生</w>
休 息
伊朗 人</w>
伊 利
企 图</w>
任何 事物</w>
人 要</w>
人 手</w>
产生 共鸣</w>
买 得起</w>
买 单</w>
买 不起</w>
丰 富
中 间
中 年</w>
中 国
世贸 中心</w>
世界 末日</w>
不起 眼</w>
不经 意</w>
不复 存在</w>
不 谈</w>
不 解</w>
不 见
不 前</w>
下 颚</w>
下 潜</w>
上 将</w>
上 午</w>
万 维网</w>
万 事
一 趟</w>
一 词</w>
一 排</w>
一 幢</w>
一 岁</w>
一 夜</w>
一 号</w>
一 千年</w>
一 万年</w>
一 万个</w>
w ell</w>
un d</w>
ri s</w>
op e</w>
ol a</w>
k ins</w>
k a</w>
is h</w>
hi r</w>
h t</w>
h en</w>
es s
e in</w>
ard o</w>
an e</w>
W omen</w>
W il
W e
Ushahi di</w>
Sud hir</w>
Sm ith</w>
Sh e
S ha
S A
Q u
PI SA</w>
M T
K ath
K ar
ID EO</w>
H ill
G ra
G r
G ill
Flick r</w>
F ar
E d
D I
Char les</w>
B ab
Am y</w>
8 7</w>
7 7</w>
7 000</w>
6 8</w>
5 1</w>
2. 0</w>
199 3</w>
199 2</w>
黑 点</w>
高 管</w>
高 等</w>
高 架</w>
高 明</w>
高 峰
高 处</w>
髋 骨</w>
驾 驭</w>
马萨 诸
马 斯洛</w>
马 修</w>
风 扇</w>
预 想</w>
预 兆</w>
颁 布</w>
面 貌</w>
非常 明显</w>
非 理性</w>
露 营</w>
集中 精力</w>
难以 想象</w>
难 懂</w>
陪审 团</w>
阿 里</w>
阻 塞</w>
问 及</w>
闭 上</w>
长 到</w>
里 昂</w>
里 德</w>
采 购</w>
都 会</w>
郑 重</w>
郁 闷</w>
邻 近</w>
邮 票</w>
那 辆</w>
那 头</w>
那 块</w>
通 货
透 彻</w>
迷 恋</w>
迪 米特里</w>
迪 恩</w>
远 景</w>
迎 来</w>
迎 合</w>
过 量</w>
辞 去</w>
辍 学</w>
轮 胎</w>
转 过身</w>
超 新星</w>
超 前</w>
起 始</w>
费 城</w>
购 买
质 感</w>
货 车</w>
谴 责</w>
调 子</w>
说 过</w>
试 一试</w>
论 证</w>
论 据</w>
记 号</w>
讨论 一下</w>
解 除</w>
观察 者</w>
装 上</w>
裂 谷</w>
表演 者</w>
行 政
葛瑞 丝</w>
葛 洛
落 下</w>
菲 勒</w>
荷 兰人</w>
苹果 电脑</w>
英国 政府</w>
苔 藓</w>
节 性</w>
航天 器</w>
航 线</w>
舍 尔</w>
自 家</w>
自 学</w>
自 制</w>
脑 干</w>
脊椎 动物</w>
肺 癌</w>
肝 酱</w>
耕 作</w>
老 是</w>
老 天</w>
羚 羊</w>
置 换</w>
罗 素</w>
罕 默德</w>
缺 点</w>
缅 甸</w>
维 京</w>
统 治
结果 表明</w>
纹 理</w>
纸 板</w>
纳 税
纳税 人</w>
纯 洁</w>
红 外</w>
精 简</w>
精 确
精 密</w>
精 子</w>
粘 合</w>
粗 略</w>
篮 子</w>
篇 章</w>
管理 费</w>
管 弦
第四 种</w>
第二 阶段</w>
童 话</w>
竞争 对手</w>
立 大学</w>
空间 站</w>
空 虚</w>
穆 罕默德</w>
稀 释</w>
科幻 小说</w>
神经 学</w>
社交 圈</w>
礼 貌</w>
磁 性</w>
磁 带</w>
硬化 症</w>
石 块</w>
石 器</w>
矩 阵</w>
着 陆
着 想</w>
真 空
看 病</w>
相 符</w>
盟 友</w>
白 血
瘟 疫</w>
病毒 感染</w>
疗 程</w>
留 着</w>
男 友</w>
电视 剧</w>
电磁 力</w>
电 量</w>
用 光</w>
生物 进化</w>
生物 性</w>
瓷 器</w>
瓶 颈</w>
理 工学院</w>
环 绕着</w>
玛 雅</w>
玛 利亚</w>
独 角
狠 狠</w>
犹 豫</w>
牧 羊
爱丁 堡</w>
燃 油</w>
烧 伤</w>
烤 面包机</w>
点 点</w>
火 焰</w>
潜水 艇</w>
漫 游</w>
源 源
游 荡</w>
温 室
温室 效应</w>
渔 夫</w>
清洁 工</w>
清 洗</w>
淀 粉</w>
海 龟</w>
海 马</w>
海 外</w>
流行 病学</w>
派 遣</w>
派 出</w>
活 下去</w>
洞 察
洞察 力</w>
油 井</w>
河 里</w>
河 边</w>
民主 党</w>
毛 衣</w>
比 里亚</w>
比 克</w>
残 骸</w>
正 确
欢 呼</w>
次 方</w>
橄榄 油</w>
模 范</w>
模 板</w>
染 上</w>
极端 主义</w>
极 小</w>
极 地</w>
极 为重要</w>
望 未来</w>
有 钱
有 益于</w>
有 次</w>
有 条</w>
最 酷</w>
最 贵</w>
最 美</w>
最 强</w>
更 让人</w>
普 查</w>
日 志</w>
无止 境</w>
方 框</w>
方 位</w>
斯里兰 卡</w>
斯蒂 夫</w>
斯 德
斯 堡</w>
敢 于</w>
救 护
放 飞</w>
放 出</w>
改变 现状</w>
改 革
收 藏
播 出</w>
撕 裂</w>
撒哈 拉
撒哈拉 沙漠</w>
提 名</w>
推 进
推 车</w>
接 受
探险 家</w>
据 此</w>
挡 住</w>
拨 款</w>
招 呼</w>
担 当</w>
抽 烟</w>
抽 出</w>
投 身</w>
投 给</w>
找 回</w>
执行 者</w>
扇 门</w>
所 欲</w>
我 爸</w>
戏剧 化</w>
感 悟</w>
意 象</w>
恶 性
急 救</w>
急 性</w>
忧 郁</w>
德 国人</w>
循环 系统</w>
得 出
得出 结论</w>
很久 很久</w>
录像 机</w>
归 属
归属 感</w>
强 烈
强 健</w>
弗 斯</w>
引 爆</w>
引 向</w>
开 门</w>
开 着
建 设
延 迟</w>
库 里</w>
年 复
年复 一年</w>
平方 英里</w>
平方 米</w>
平 面
平 板</w>
干 过</w>
干 吗</w>
希腊 人</w>
希 伯
布 什
左 手边</w>
工具 箱</w>
展 望未来</w>
尼 尔森</w>
就 行</w>
尤 为</w>
尔 沃德</w>
小 鼠</w>
射 杀</w>
寿 司</w>
对 性</w>
密 歇
宪 章</w>
实验 性</w>
定 时</w>
季 节性</w>
字 母
嬉 戏</w>
妨 碍</w>
好 多年</w>
奥运 会</w>
头 人</w>
天主 教</w>
天 天</w>
天 上</w>
大 赛</w>
大 米</w>
大 意</w>
大 体上</w>
外交 政策</w>
复 活
复 合</w>
备 受</w>
处 方</w>
处 女</w>
声 学</w>
塞拉 利昂</w>
坐 落</w>
圣 诞</w>
固 醇</w>
四 肢</w>
四 点</w>
四 条</w>
四 分之三</w>
喂 食</w>
啊 哈</w>
哈 里斯</w>
咀 嚼</w>
吸 毒</w>
同 类</w>
合 法
各 行
吃 药</w>
史 瓦
叛 乱</w>
变 大</w>
取 舍</w>
发 自
发 疯</w>
发 型</w>
发 出
反 之</w>
原 创</w>
历史 博物馆</w>
即 可</w>
印 在</w>
卡 拉
博 雅</w>
华 氏度</w>
午 夜</w>
十 年间</w>
医 治</w>
北 冰
北冰 洋</w>
化 身</w>
劳 伦斯</w>
助 者</w>
动 者</w>
动 摇</w>
动 力学</w>
加州 大学</w>
剪 刀</w>
剧 烈</w>
前 走</w>
前 排</w>
利 比里亚</w>
利 他
初 衷</w>
创新 者</w>
创新 性</w>
创 性</w>
列 车</w>
分 叉</w>
出 租车</w>
凶 手</w>
几 句</w>
农 田</w>
写 字</w>
冒 犯</w>
内 森</w>
共同 之处</w>
共 感</w>
兰 语</w>
六 分之一</w>
公共 服务</w>
公 约</w>
八 百万</w>
全 部
光 束</w>
先 后</w>
催化 剂</w>
做 梦</w>
偏 僻</w>
倘 若</w>
倒 下</w>
俯 瞰</w>
修 斯</w>
修 女</w>
信 封</w>
侵 略性</w>
传 教士</w>
份 额</w>
人力 资源</w>
人 文</w>
人 体
亲 身
亦 然</w>
亚利桑 那州</w>
之 情</w>
临 界</w>
严 重
两 段</w>
两 国</w>
丝 毫</w>
不大 可能</w>
不 知道</w>
不 由
不 爽</w>
不 平</w>
下 巴</w>
上 瘾</w>
上 画</w>
上 爬</w>
上 天</w>
万 名</w>
万 亿</w>
万 五千</w>
一百 万年</w>
一 队</w>
一 线</w>
一 扇</w>
一 则</w>
一 分</w>
um en</w>
t er
r yn</w>
p er</w>
ol d</w>
of f</w>
o y</w>
o le</w>
o k
m e
k s</w>
is s
ill er</w>
i o</w>
i er</w>
h i</w>
es s</w>
en ce</w>
em a</w>
b e</w>
at ion</w>
ani el</w>
am b
Z K</w>
Wind ows</w>
V i
Sou th</w>
SO PA</w>
Panbanis ha</w>
P hi
N I
M ad
M RI</w>
L im
Jos ep
J C</w>
I N
F ab</w>
D onn
D L</w>
B i
B ern
B eck</w>
B BC</w>
And rew</w>
Ac umen</w>
8 6</w>
8 4</w>
6 2</w>
5 0
4 1</w>
4 0
4 .
19 49</w>
18 00</w>
黑 桃</w>
鸡 尾
鲜 为人知</w>
鱼 群</w>
高峰 期</w>
高 等教育</w>
骚 扰</w>
马 耳
马 特</w>
马 戏
香 烟</w>
风 险
领悟 到</w>
预 防
预 见到</w>
鞋 带</w>
青 春</w>
随 时
降 温</w>
阿 肯
阿 布</w>
阶 梯</w>
阳 台</w>
长 距离</w>
长 河</w>
长 成</w>
铁 轨</w>
金 子</w>
野 心</w>
重 症</w>
里 程</w>
酝 酿</w>
配 置</w>
那 颗</w>
那 件事</w>
道 义</w>
通货 膨胀</w>
迪 伦</w>
连 续性</w>
进 度</w>
进 出</w>
这 辈子</w>
这 艘</w>
这 天</w>
近 乎</w>
迈 进</w>
达尔 文主义</w>
达 姆</w>
输 家</w>
身 材</w>
路 过</w>
跟 上</w>
足 轻重</w>
超 自然</w>
赶 快</w>
走 运</w>
走 走</w>
走 访</w>
赛 局</w>
负 荷</w>
谢 天
谢天 谢
谢天谢 地</w>
读 懂</w>
诺贝 尔</w>
诺 曼</w>
说 完</w>
诱 发</w>
该 是</w>
话 筒</w>
诗 意</w>
试 管</w>
试 一下</w>
译 者</w>
词 是</w>
诉 说</w>
讲 述者</w>
讲 过</w>
让 你
订 阅</w>
警 方</w>
触 发</w>
解决 之道</w>
要 紧</w>
西 非</w>
被 忽视</w>
袜 子</w>
袋 子</w>
补 助</w>
街 角</w>
行 进</w>
藉 由</w>
薄 片</w>
萨 达姆</w>
获 取
莱 斯</w>
草 甸</w>
若 干</w>
芭 蕾
芝 士</w>
节 拍</w>
自 大</w>
脱 节</w>
脑 电波</w>
胜 任</w>
背 叛</w>
肥 皂</w>
肥 皂
肠 胃</w>
肆 虐</w>
耻 辱</w>
耶稣 基督</w>
考古 学家</w>
老 朋友</w>
翼 服</w>
美 满</w>
罢 工</w>
罗 毕</w>
罗 宾
缪 尔</w>
统计 学家</w>
绘 图</w>
结 实</w>
经 由</w>
终 将</w>
线 圈</w>
纽约 州</w>
约 定</w>
系统 地</w>
糊 涂</w>
粉 碎</w>
简 短
简短 地</w>
签 订</w>
第一 阶段</w>
笨 重</w>
竞 技
竞技 场</w>
站 立</w>
突 起</w>
移动 电话</w>
租 赁</w>
科学 知识</w>
神 灵</w>
神 力</w>
确 确
确确 实实</w>
石 化</w>
矫 正</w>
睡 衣</w>
着 实</w>
真 地</w>
相 邻</w>
相 等</w>
相 比
相 传</w>
直 视</w>
盖 子</w>
盆 地</w>
皮 肤
皇 后</w>
百分之 六十</w>
百分之 五</w>
白 鲨</w>
痛 恨</w>
疏 远</w>
画 布</w>
电子 产品</w>
电 缆</w>
由 此
用 场</w>
生 理学</w>
瓜 多尔</w>
瑟 琳</w>
瑞 士
球 赛</w>
球 菌</w>
珠 峰</w>
珍 视</w>
现 出来</w>
环 状</w>
猪 肉</w>
狂 喜</w>
物 资</w>
牧羊 人</w>
牙 买
爱德 华</w>
烧 掉</w>
烟 囱</w>
炼 出</w>
火 车站</w>
激 进
激 增</w>
激 励
潜 入</w>
游戏 机</w>
深深 地</w>
深 受</w>
海 绵</w>
海 狸</w>
浮 动</w>
流 层</w>
泪 水</w>
波 特</w>
法 律
油 轮</w>
油 砂</w>
沥 青</w>
没 听
没听 说过</w>
沙 拉</w>
沉积 物</w>
永 生</w>
民主 化</w>
民 权</w>
比 重</w>
比 利</w>
每 天晚上</w>
殴 打</w>
殖民 地</w>
殆 尽</w>
正 因
正因 如此</w>
正 值</w>
歇 尔</w>
次 世界大战</w>
模 棱
模棱 两
模棱两 可</w>
椰 菜</w>
棒 子</w>
格 言</w>
根 基</w>
根 与
根与 芽</w>
查 理</w>
极 管</w>
极 少</w>
来 试</w>
权 益</w>
杀伤 性</w>
机械 化</w>
朝 向</w>
有钱 人</w>
有机 物</w>
有 何</w>
最 令</w>
暴 风</w>
普遍 性</w>
显 现出来</w>
星期 天</w>
旺 盛</w>
无 辜</w>
无 著</w>
无 情</w>
新 英格兰</w>
新 式</w>
整 齐</w>
数百 万年</w>
数 量级</w>
救护 车</w>
放 眼</w>
放 开</w>
改 动</w>
改 写</w>
收 割</w>
摄影 者</w>
携 手</w>
搬 进</w>
探 访</w>
授 课</w>
捐 给</w>
挨 着</w>
指 针</w>
拥 有者</w>
拉 登</w>
承包 商</w>
批评 家</w>
批 判</w>
执 政</w>
打 死</w>
打 仗</w>
打 个</w>
房 里</w>
戒 指</w>
我 成</w>
感染 力</w>
感受 一下</w>
想 念</w>
惧 怕</w>
悲 痛</w>
悲 哀</w>
恶 行</w>
恒 温
恍 惚</w>
恋 爱</w>
性 病</w>
思想 家</w>
怀 有</w>
快 点</w>
快 到</w>
德 鲁</w>
德 语</w>
微 波</w>
得 益于</w>
徒 步</w>
很 深</w>
很 慢</w>
待 遇</w>
往 下
影 带</w>
弗吉 尼亚州</w>
弗 莱
引人 注目</w>
式 样</w>
异 议</w>
开着 车</w>
开发 者</w>
开 辟</w>
开 枪</w>
开 个</w>
广播 公司</w>
幼 虫</w>
幼 稚</w>
并 肩</w>
年龄 段</w>
平 流层</w>
干 得</w>
常 说</w>
帕金 森
布鲁 克斯</w>
布 拉
市场 化</w>
巴 赫</w>
巴 特</w>
巨 星</w>
巨 头</w>
左 宗
左宗 棠</w>
州 立大学</w>
山 峰</w>
山 姆</w>
山 坡</w>
履 行</w>
展 现出</w>
少 许</w>
小 房间</w>
小 子</w>
射 出</w>
导 电</w>
察觉 到</w>
宽 恕</w>
家 用</w>
实 习</w>
定 者</w>
定 向</w>
安 理会</w>
学 费</w>
学 得</w>
存 储
威 廉
威 尔逊</w>
好 转</w>
女权 主义</w>
奢 华</w>
失 调</w>
失 误</w>
夫 斯</w>
夫 妻</w>
太空 服</w>
太 近</w>
大不 相同</w>
大 都会</w>
大 桥</w>
大 批</w>
多元 化</w>
多 达</w>
多 少
多 出</w>
多 一些</w>
外 国人</w>
外 人</w>
声 誉</w>
墨西哥 人</w>
墙 面</w>
填 补</w>
基本 定律</w>
垃圾 桶</w>
坦 诚</w>
坚 决</w>
国 土</w>
回 溯</w>
嗅 觉</w>
喷 洒</w>
商 学院</w>
哥 尔
哈 哈</w>
和 蕾</w>
周 二</w>
后 台</w>
合 约</w>
合 成器</w>
各行 各
各行各 业</w>
右 脑</w>
右 上角</w>
口 头</w>
变 态</w>
变 形
取 自</w>
取 悦</w>
发明 创造</w>
发展 趋势</w>
反 驳</w>
反 响</w>
双 脚</w>
参 议员</w>
去 向</w>
厄 瓜多尔</w>
卫 星
卢 比</w>
卡内 基</w>
卡 特</w>
博 拉</w>
单 单是</w>
十 天</w>
医疗 保障</w>
医 药
北 爱尔兰</w>
化学 元素</w>
加 尔
剥 削</w>
前列 腺</w>
制 定者</w>
到 位</w>
别 说</w>
创造 财富</w>
分布 图</w>
分 隔</w>
分 散
出 席</w>
出 口
凸 显</w>
几内 亚</w>
减 小</w>
冰 山</w>
写 过</w>
再 度</w>
内 罗毕</w>
养老 院</w>
兰 迪</w>
六 周</w>
公共 政策</w>
免 于</w>
克 拉克</w>
光 辉</w>
光 谱
充 沛</w>
儿 时</w>
傲 慢</w>
做 得好</w>
假 使</w>
保持 联系</w>
便 于</w>
侵 权</w>
侵 害</w>
供 电</w>
作 画</w>
作 用力</w>
低 温</w>
传 来</w>
会 试</w>
会 计</w>
会 见</w>
会 有</w>
会 变</w>
优 质</w>
伏 特</w>
付 款</w>
人 节</w>
亲身 经历</w>
交互 式</w>
交 叉
亚 里</w>
五 倍</w>
互 联</w>
互 助</w>
二 零
二 极管</w>
二 号</w>
事 后</w>
事 关</w>
事 事</w>
争 吵</w>
乙 烯</w>
乔 布斯</w>
举 出</w>
主 导
丹 尼斯</w>
中 海</w>
中 子</w>
中 奖</w>
个 星期</w>
两 名</w>
专 心</w>
不 间断</w>
不 道德</w>
不 觉</w>
不 着
下 手</w>
上 诉</w>
三 样</w>
万 吨</w>
七 千</w>
一无 所有</w>
一个 三维</w>
一 粒</w>
一 章</w>
一 曲</w>
一 时</w>
一 旁</w>
一 回</w>
一 再</w>
一 两年</w>
y a</w>
w at
ri c</w>
ra in</w>
ha t</w>
h u
h r
en ter</w>
em at
ec t
da f</w>
ch ang
c k</w>
anz i</w>
al ie</w>
ak e</w>
ac h</w>
a u</w>
Zip car</w>
Y R</w>
S al
R O
O L
Mart in</w>
MB A</w>
L yn
Ke ith</w>
Kath ryn</w>
K evin</w>
K elly</w>
K S</w>
Josep h</w>
J ay</w>
H 5
H5 N1</w>
Gill ian</w>
G er
F ur
F re
E du
E B</w>
E 8</w>
DI Y</w>
D aniel</w>
B on
A BC</w>
A A</w>
9 3</w>
6 7</w>
5 0000</w>
5 .
20 12</w>
197 6</w>
197 4</w>
19 18</w>
1 70</w>
龙 卷
龙卷 风</w>
龄 人</w>
黑 白</w>
黑 兰</w>
黏 液</w>
黄 金
黄 油</w>
鸡尾 酒</w>
高 效率</w>
骨 折</w>
骚 乱</w>
骑 车</w>
驱 逐</w>
马耳 他</w>
马戏 团</w>
马 达
马达 加
马达加 斯加</w>
马 尾
香 豆
香豆 素</w>
香 肠</w>
香 料</w>
饮 水</w>
飞 速</w>
非 得</w>
静 脉</w>
露 西</w>
霍 普
需 品</w>
零售 商</w>
零 部件</w>
随时 随地</w>
随 心
随心 所欲</w>
陶 瓷</w>
除 掉</w>
降 雨量</w>
阿姆斯特 朗</w>
阿 兰</w>
阻 挡</w>
闪 亮</w>
门 外</w>
长 着</w>
长 相</w>
长 官</w>
镇 压</w>
锤 子</w>
钻 头</w>
钢琴 家</w>
钉 子</w>
金 热</w>
金 属
重新 组合</w>
醒 过来</w>
酸 钙</w>
酗 酒</w>
那 晚</w>
那 台</w>
遗传 基因</w>
道德 观</w>
逼 迫</w>
造 物
通 电</w>
透明 度</w>
追 赶</w>
迪斯 尼</w>
连 锁</w>
远 方</w>
远 地区</w>
进化 史</w>
这 话</w>
这 行</w>
过 剩</w>
轴 心</w>
轮 回</w>
转 为</w>
跳 过</w>
跳 出</w>
路 途</w>
越 好</w>
超 乎</w>
起 居
起居 室</w>
起 因</w>
赶 到</w>
走 势</w>
赫 兹</w>
赢 家</w>
贫 富
货币 基金组织</w>
货 机</w>
贝 蒂</w>
谣 言</w>
误 会</w>
试 纸</w>
试 用</w>
词 组</w>
识 别
评 分</w>
讲 得</w>
计算机 程序</w>
解剖 学</w>
解 码</w>
要 来</w>
西 娅</w>
西 北部</w>
裙 子</w>
装 修</w>
表达 出来</w>
表 层</w>
表 上</w>
血 腥</w>
薄 薄
蕴 藏</w>
蓄 率</w>
蒙 大</w>
葛洛 庞</w>
萨 尔</w>
莫 尔</w>
苦 恼</w>
苦 差事</w>
若 然</w>
苛 刻</w>
花 豹</w>
花 椰菜</w>
节 点</w>
节 日</w>
艾 米
舅 舅</w>
自 负</w>
自 相
自 杀
自 上而下</w>
脚 印</w>
脑 筋</w>
能源 危机</w>
能 动</w>
股票 市场</w>
股 市</w>
肠 道</w>
联 赛</w>
耳 边</w>
而 知</w>
考 量</w>
老 妇人</w>
翼 翼</w>
羡 慕</w>
美 女</w>
置 身于</w>
罗斯 福</w>
罗 马
罗 西</w>
网 路</w>
缝 隙</w>
缝 合</w>
维 和</w>
结 识</w>
终 止</w>
纠 缠</w>
紧密 联系</w>
索 取</w>
素 质</w>
紊 乱</w>
精 妙</w>
粘 土</w>
粉 红色</w>
米 拉</w>
简 陋</w>
竞 技</w>
立 联系</w>
立 体
突 发</w>
稀 少</w>
移 居</w>
科学 实验</w>
私 有</w>
福 特
确 诊</w>
矿 物质</w>
石油 价格</w>
短 缺</w>
眼 界</w>
眼 下</w>
相 近</w>
相 差</w>
相 关联</w>
盛 行</w>
的确 如此</w>
百万 计</w>
百 计</w>
百 事</w>
白血 病</w>
痛 楚</w>
男 女
电 气</w>
电 力
电 信</w>
申 请
用 餐</w>
用 性</w>
生 育
甚 至于</w>
理想 主义</w>
球 大战</w>
现 时</w>
现 场
环 顾</w>
猛 烈</w>
猎 杀</w>
独角 兽</w>
狂 笑</w>
特 洛
特 兰</w>
牢 房</w>
牙买 加</w>
烧 烤</w>
烘 培</w>
点 头</w>
炸 药</w>
灿 烂</w>
激励 机制</w>
演讲 时</w>
滑 行</w>
溺 水</w>
游 过</w>
游 历</w>
深 陷</w>
深 省</w>
深 思</w>
深 夜</w>
深 切</w>
淘 金热</w>
海 军
流 过</w>
流 血</w>
流 浪</w>
活 泼</w>
泰坦 尼克
泰坦尼克 号</w>
治 疗
油 画</w>
油 漆</w>
沸 腾</w>
沉 没</w>
水 力</w>
氢 原子</w>
武 装
此 地</w>
正 试图</w>
正 直</w>
正 向</w>
正 以</w>
模 子</w>
格陵 兰岛</w>
格 林
格 式</w>
柏 拉
柏拉 图</w>
架 上</w>
果 然</w>
极 其
材 质</w>
杂 乱</w>
机 关</w>
本 科</w>
期 内</w>
服 饰</w>
服 役</w>
有效 性</w>
有所 不同</w>
有 如</w>
有 件事</w>
更 近</w>
更 改</w>
暴力 事件</w>
普 尔</w>
星 球大战</w>
明 尼
明尼 苏
无穷 的</w>
无 非</w>
无 能</w>
无 罪</w>
无 数
旁 观</w>
方向 盘</w>
方 舟</w>
新 娘</w>
斯达 黎加</w>
斯蒂 芬</w>
斯德 哥尔
斯德哥尔 摩</w>
斯 丁</w>
文 学
整 年</w>
整 套</w>
整 体
数以 百万计</w>
敦 促</w>
政府 部门</w>
收 购</w>
收 容
收容 所</w>
撒 旦</w>
摩 天
摇滚 乐</w>
摇 动</w>
搏 斗</w>
提 炼出</w>
提 姆</w>
掩 饰</w>
接 收
掌 权</w>
换 取</w>
捍 卫</w>
捆 绑</w>
挨 饿</w>
挣 钱</w>
按 时</w>
指 纹</w>
拼 写</w>
拥 护者</w>
拍 下</w>
拉 斯
拉 开</w>
抽 取</w>
抗 拒</w>
投影 仪</w>
技 艺</w>
技 因</w>
批 改</w>
扮演 着</w>
打 扫</w>
打 包</w>
才 行</w>
才 刚</w>
手 肘</w>
手 头</w>
戴 维</w>
我 爱
我 所能</w>
我 想
成 群</w>
成 堆</w>
成 名</w>
感到 恐惧</w>
想 必</w>
情 人节</w>
总 人口</w>
性 命</w>
性 关系</w>
怎么 着</w>
怀 疑
忧 郁症</w>
忠 于</w>
必 需品</w>
心 怀</w>
德 黑兰</w>
微 子</w>
微 处理器</w>
律 法</w>
待 会儿</w>
往 事</w>
当 代
张 纸</w>
引 诱</w>
开 明</w>
开 场</w>
建 立联系</w>
废 水</w>
庇 护</w>
幽默 感</w>
并 发
并发 症</w>
年 期</w>
年 份</w>
平均 年龄</w>
平 庸</w>
常 态</w>
帮 派</w>
布雷 顿</w>
巨 变</w>
工 匠</w>
巡 演</w>
岁 时</w>
山 一角</w>
屏 蔽</w>
尽 我所能</w>
尼 葛洛庞</w>
小心 翼翼</w>
小 额</w>
小 船</w>
小 型
小 人</w>
寺 庙</w>
对 劲</w>
对 准</w>
密切 相关</w>
密 西西
宽 广</w>
家 门</w>
宝 马</w>
完全 正确</w>
完 整
安 定</w>
孵 化</w>
学 期</w>
婆 罗</w>
如 生</w>
如 此
好 用</w>
奥 妙</w>
天 呐</w>
大 豆</w>
大 腿</w>
大 相
大 帝</w>
大 到</w>
大 使
大使 馆</w>
多 功能</w>
多 万</w>
声 响</w>
塔 楼</w>
塑料 袋</w>
埋 葬</w>
坚 果</w>
坐 标
地球 表面</w>
地 中海</w>
在 世</w>
图 解</w>
国际 货币基金组织</w>
团 聚</w>
回 声</w>
四 位</w>
四 万</w>
喝 咖啡</w>
喜 剧
善 款</w>
商 标</w>
哥 斯达黎加</w>
响 声</w>
哈 尔</w>
哈 勃</w>
咳 嗽</w>
呼 唤</w>
员 国</w>
同 龄人</w>
同 种</w>
吉 普
各 项</w>
各 不
各不 相同</w>
史瓦 西</w>
台 灯</w>
可 谓</w>
叫 喊</w>
取 笑</w>
发 光
发 人
发人 深省</w>
双 金属</w>
又 会有</w>
参 议院</w>
去 往</w>
原 生</w>
压 缩
卫 报</w>
博 弈</w>
华盛顿 州</w>
华 纳</w>
半 夜</w>
千 种</w>
十 几岁</w>
北 边</w>
化学 成分</w>
勾 勒</w>
勒 斯</w>
勇 士</w>
动 荡</w>
动 症</w>
动 感</w>
动 不动</w>
加拿 大人</w>
加 速度</w>
副 产品</w>
前 者</w>
前 卫</w>
刷 牙</w>
制 衡</w>
到 时候</w>
到 场</w>
利他 主义</w>
利 益
分 量</w>
分 离
分 之</w>
出 海</w>
凭 借</w>
几 百</w>
凝 聚</w>
准 时</w>
冻 结</w>
冰 山一角</w>
冰 上</w>
冬 季</w>
农业 部</w>
农 药</w>
军 团</w>
内 华
内 加尔</w>
养 殖</w>
其 后</w>
六 年级</w>
六 千</w>
全国 性</w>
全 程</w>
全 局</w>
入 睡</w>
克里 斯蒂
光 环</w>
光 子</w>
充满 热情</w>
充满 希望</w>
充 当</w>
像 素</w>
储 蓄率</w>
偷 偷
做 广告</w>
倾 倒</w>
值 钱</w>
修 炼</w>
信 誉</w>
信 号
保险 公司</w>
俄 勒
便 捷</w>
使用 量</w>
佩 戴</w>
低 音</w>
低 价</w>
伦 比</w>
付诸 行动</w>
仅 此
人 听闻</w>
人 世</w>
交 集</w>
交 替</w>
些 年来</w>
五 十
于 心</w>
事务 所</w>
书 上</w>
乌 拉圭</w>
义 词</w>
主 旨</w>
临 近</w>
中 毒</w>
中 微子</w>
严 酷</w>
两 难</w>
两 百</w>
两 层</w>
两 块</w>
两 侧</w>
丝 雀</w>
丝 绸</w>
业 余
世界 性</w>
世 贸</w>
不知 情</w>
不 在意</w>
不 合
不 单</w>
下 水道</w>
下 水</w>
下 台</w>
上 部</w>
上 映</w>
上 放</w>
上 千年</w>
万 维</w>
万 种</w>
万 分</w>
万 亿美元</w>
七 种</w>
七 八
一大 批</w>
一 说</w>
一 株</w>
t r
r y
ou r
or a</w>
o ll
n et</w>
iv a</w>
ion s</w>
ik i</w>
ha i</w>
g h</w>
g er</w>
en s</w>
en s
emat ica</w>
di t</w>
d s</w>
d er
chang ing</w>
c y</w>
ath ematica</w>
ap m
and er</w>
al a</w>
World changing</w>
Wh it
T ur
Sh er
RI SD</w>
P er
P en
P C
O k
Nat alie</w>
Mar k</w>
Ma c</w>
MB I</w>
M athematica</w>
M al
L ov
K ur
K han</w>
K at
K anzi</w>
Joh n
Jef f
J as
I s
I D</w>
HI N</w>
H aw
GP HIN</w>
Fur by</w>
Edu ardo</w>
E S</w>
Dav e</w>
D u
D ou
C a
C P
C L</w>
B ev
B er
A K</w>
8 1</w>
7 4</w>
5 3</w>
197 3</w>
196 5</w>
195 7</w>
19 30</w>
19 00</w>
1. 2</w>
1 600</w>
1 200</w>
鼻 孔</w>
黑 线</w>
黑 眼睛</w>
鬣 狗</w>
高 清</w>
高 大</w>
骗 局</w>
骑 士</w>
驾驶 舱</w>
驾 照</w>
驱 者</w>
马尾 藻</w>
马 赛</w>
马 上会</w>
饿 死</w>
食 堂</w>
飞 车</w>
飞 碟</w>
飞 来
飞来 飞去</w>
风 趣</w>
额 叶</w>
颅 骨</w>
预 感</w>
顽 固</w>
顶 层</w>
音 速</w>
面 朝</w>
非 比
非比 寻常</w>
非 典</w>
青 霉素</w>
震撼 人心</w>
雨 季</w>
雌 性激素</w>
集 市</w>
难 关</w>
限 定</w>
附 带</w>
阿 凡</w>
防 水</w>
长 城</w>
销 量</w>
金 丝雀</w>
重 达</w>
里 约
里约 热
里约热 内
里约热内 卢</w>
里 会</w>
那 会儿</w>
道 而
遇 难</w>
造 访</w>
造 价</w>
逝 去</w>
通 话</w>
透明 化</w>
选 中</w>
适应 环境</w>
送 往</w>
送 上</w>
退 学</w>
远远 不够</w>
这么 久</w>
这 群人</w>
这 架</w>
近 来</w>
过 头来</w>
辛 西娅</w>
车 库里</w>
踪 迹</w>
路 面</w>
路 克</w>
跋 涉</w>
起 草</w>
起 舞</w>
赞 比亚</w>
费 解</w>
费 力</w>
贫 瘠</w>
贩 卖</w>
质 问</w>
质 地</w>
象征 性</w>
象 是</w>
读 读</w>
说 家</w>
说 回来</w>
误 差</w>
详 尽</w>
诡 异</w>
话 说回来</w>
试 者</w>
论 述</w>
论 自由</w>
许 诺</w>
认 清</w>
认 得</w>
言 论自由</w>
解 说</w>
解 构</w>
角 大楼</w>
视 而
视而 不见</w>
规 章</w>
覆 地</w>
西 南</w>
西 兰花</w>
装 配</w>
表 示
补 偿</w>
衣 架</w>
衔 接</w>
血 统</w>
血 红
蚁 群</w>
虽 说</w>
薄薄 的</w>
蒸 汽
蒙 大
萤 火
萤火 虫</w>
菩 提</w>
获取 信息</w>
莱 姆</w>
莉 诺</w>
荒 野</w>
荒 废</w>
英雄 主义</w>
花 销</w>
花 儿</w>
芝加 哥
芝加哥 大学</w>
艘 船</w>
航 海</w>
臭 氧
臭氧 层</w>
自由 式</w>
自 称</w>
自 尊</w>
腹 部</w>
脱口 秀</w>
脚 踏
脑 后</w>
脂 肪
肾 上
聪明 人</w>
聚 光灯</w>
耗 时</w>
翻 天
翻天 覆地</w>
美国 国会</w>
美国 农业部</w>
罗德 尼</w>
罗 拉
罗 巴</w>
网 球</w>
缺 乏
编 译
编 剧</w>
统 一
绕 过</w>
结果 显示</w>
结 点</w>
结 核
结核 病</w>
组织 者</w>
线 粒
线粒 体</w>
纸 上</w>
纳米 管</w>
纳 尔逊</w>
纤维 素</w>
红 树林</w>
红 头发</w>
红 十字
红十字 会</w>
繁 荣
索 尔</w>
精 液</w>
篱 笆</w>
简单 化</w>
简 而言之</w>
答 道</w>
答 复</w>
第三 阶段</w>
第一 份</w>
笛 卡尔</w>
立 人</w>
窗 子</w>
穿 戴</w>
穹 顶</w>
穷 国</w>
稳 固</w>
科技 领域</w>
科技 进步</w>
科 罗拉
离 去</w>
福 音</w>
社会 学</w>
礼 服</w>
砖 块</w>
码 头</w>
矿 工</w>
睿 智</w>
眼 科</w>
真实 情况</w>
真 切</w>
眉 毛</w>
相比 之下</w>
相似 性</w>
相 伴</w>
直 立人</w>
盗 版</w>
盎 司</w>
皱 纹</w>
百分之 四十</w>
百分 百</w>
白 纸</w>
病 理</w>
画 图</w>
甸 园</w>
男 朋友</w>
电影 院</w>
电 信号</w>
用 具</w>
生 殖</w>
瑞 克</w>
瑜 伽</w>
环 游世界</w>
猝 死</w>
猎 户
猎户 座</w>
特洛 伊</w>
牛 粪</w>
牙 刷</w>
版权 法</w>
熄 灭</w>
照 看</w>
然大 物</w>
然 无
热 衷</w>
灵 性</w>
灌 木</w>
濒临 灭绝</w>
濒 临</w>
漩 涡</w>
演奏 者</w>
演奏 家</w>
演唱 会</w>
滑 翔
湖 泊</w>
渔 网</w>
混 杂</w>
深 知</w>
淡 化</w>
涌 入</w>
消 防</w>
消 化
海 胆</w>
测 绘</w>
活 儿</w>
津 贴</w>
洞 里</w>
洛杉 矶
洛克 菲勒</w>
泽 东</w>
没 准</w>
沙 漠化</w>
沃 森</w>
汽 水</w>
汇 报</w>
水 层</w>
氨 酸</w>
气 质</w>
气 压</w>
毫 秒</w>
毛 泽东</w>
比较 简单</w>
母 语</w>
步 入</w>
正 轨</w>
欧 罗巴</w>
横 穿</w>
栽 种</w>
格 纳</w>
格 局</w>
根本 性</w>
栩 栩
栩栩 如生</w>
标 杆</w>
查 兹</w>
某种 原因</w>
某 物</w>
枪 支</w>
构 筑</w>
极 富</w>
来 过</w>
来 时</w>
机 动
朱 莉</w>
未 能</w>
服 药</w>
服 刑</w>
有 远见</w>
有 序</w>
最 远</w>
最 受</w>
曾 祖父</w>
更 多地</w>
暴风 雨</w>
暴 动</w>
景 点</w>
晒 太阳</w>
星期 五</w>
星 空</w>
易 斯</w>
时代 广场</w>
无穷 无尽</w>
无 须</w>
无 缝</w>
无 畏</w>
无 国界</w>
无 与
无与 伦比</w>
新 发明</w>
斯特 灵</w>
斯 山</w>
斯 塔
断 裂</w>
斐 逊</w>
文化 背景</w>
文 凭</w>
数码 相机</w>
数 月</w>
救 生
敏 感
故 乡</w>
放 着</w>
放 大
放 回</w>
攻 击
攀 升</w>
撞 机</w>
搞 不
提 琴
接受 者</w>
接 通</w>
探险 者</w>
掏 出</w>
掌 管</w>
掀 起</w>
捉 摸</w>
挑 出</w>
指 导员</w>
拐 杖</w>
拍 卖</w>
拉 近</w>
担 负</w>
抵 押</w>
报 社</w>
报 名</w>
抛 物
投 入
投入 使用</w>
承担 责任</w>
执 照</w>
打 磨</w>
打 碎</w>
打 字</w>
打 勾</w>
打 倒</w>
手 下</w>
所 述</w>
戴 上</w>
截 止</w>
戒 律</w>
我 错</w>
我 带</w>
我 国</w>
成 真</w>
成 就
成就 感</w>
成 天</w>
成 员国</w>
戈 登</w>
感谢 您</w>
感 恩
感恩 节</w>
感 叹</w>
愚 弄</w>
意 料
情 绪
情 报</w>
恤 衫</w>
恐 惧
性 主义</w>
急 速</w>
怎 能</w>
心 扉</w>
心 底</w>
德 勒</w>
微 粒</w>
得 意</w>
得 分</w>
很 差</w>
很 傻</w>
径 庭</w>
往 常</w>
往 回</w>
彼此 间</w>
录 影带</w>
当地 政府</w>
归 结
弹 钢琴</w>
弧 菌</w>
开 灯</w>
开 业</w>
建筑 材料</w>
庞 然大物</w>
店 铺</w>
库 珀</w>
年 收入</w>
常 数</w>
帝国 大厦</w>
帆 船</w>
布 里</w>
布 里
巴 格
工作 组</w>
工 序</w>
州 长</w>
展 性</w>
局 势</w>
尼 龙</w>
就 会
小 鱼</w>
小 马</w>
小 脑</w>
小 巷</w>
小 巧</w>
封 锁</w>
对 数</w>
富 饶</w>
富 含</w>
密 特</w>
密 修
密修 者</w>
家 属</w>
家 务</w>
宴 会</w>
宫 殿</w>
审 讯</w>
宝 莱坞</w>
定 罪</w>
定 决心</w>
官 移植</w>
完 蛋</w>
完 毕</w>
守 则</w>
它 用</w>
学术 界</w>
字母 表</w>
威 特</w>
威 斯
威 尼斯</w>
好 几年</w>
女 高音</w>
奇 观</w>
奇 点</w>
头 绪</w>
太 少</w>
大相 径庭</w>
大学 毕业</w>
大学 教授</w>
大 拇指</w>
大 山</w>
大 喊</w>
大 体</w>
多种 多样</w>
多种 不同</w>
多少 少</w>
多 活</w>
多 媒体</w>
多 多少少</w>
多 动症</w>
外 婆</w>
外 号</w>
外 力</w>
士 学位</w>
塞尔 维亚</w>
塞 内加尔</w>
基 特</w>
城市 规划</w>
城 堡</w>
埋 藏</w>
埃 莉诺</w>
埃 克森</w>
坐 飞机</w>
坍 塌</w>
场 主</w>
地质 学</w>
围 墙</w>
回 合</w>
器 官移植</w>
善 意</w>
啤 酒
售 价</w>
哺 育</w>
响 起</w>
哈 拉</w>
和 华</w>
呼 喊</w>
周 游世界</w>
周 六</w>
告 别</w>
君 主
名 片</w>
吉普 车</w>
右 翼</w>
史 前</w>
可 控</w>
可 及</w>
古 生物学家</w>
古 尔德</w>
叠 加</w>
变 戏法</w>
变 好</w>
受 邀</w>
受 试者</w>
取得 成功</w>
取 名</w>
发自 内心</w>
发 邮件</w>
反复 复</w>
反 反复复</w>
原 版</w>
原 地</w>
压 根</w>
印度 洋</w>
卫生 保健</w>
博士 生</w>
南 美</w>
南 加州</w>
卖 出</w>
半 前</w>
十分 相似</w>
十 诫</w>
医疗 保险</w>
北 欧</w>
北 卡罗来纳州</w>
化 为</w>
势 利</w>
动 植物</w>
动 手术</w>
动 态
加 索</w>
功 能
功 劳</w>
剧 作家</w>
剥 离</w>
剔 除</w>
前 端</w>
到 头来</w>
别无 选择</w>
初 次</w>
创 作者</w>
创 业者</w>
凯 瑟琳</w>
凭 着</w>
凡 响</w>
几 千个</w>
减 低</w>
决策 者</w>
写 诗</w>
写 信
写信 给</w>
内 置</w>
兼 容</w>
其 间</w>
关键 时刻</w>
关 进</w>
兰 特</w>
公 益</w>
全 然</w>
全 家</w>
光 荣</w>
先 驱者</w>
储 藏</w>
做 错</w>
做 好事</w>
偏 远地区</w>
例 证</w>
使 劲</w>
作 战</w>
佛 祖</w>
低 调</w>
伤 痛</w>
传 记</w>
伟 人</w>
会 以</w>
伍 德</w>
伊 甸园</w>
份 量</w>
以 致
代 理人</w>
从头 到
介 质</w>
人 间</w>
亲眼 看到</w>
亨 特</w>
交 警</w>
亚 瑟</w>
五 角大楼</w>
五 百万</w>
二零 零
二十 一</w>
事 迹</w>
事 要</w>
了 个</w>
乳 酪</w>
乳 癌</w>
买 到</w>
之 美</w>
之 战</w>
之 声</w>
主 动脉</w>
中 止</w>
严 厉</w>
两 幅</w>
两 千万</w>
东 南亚</w>
世界 地图</w>
专 长</w>
专 制</w>
不见 得</w>
不 难
不 规则</w>
不 比</w>
不 便</w>
下 定决心</w>
下 半
下 个月</w>
上 门</w>
三 项</w>
三 百</w>
三 大</w>
一小 片</w>
一 身</w>
一 节</w>
一 艘船</w>
一 桩</w>
一 期</w>
一 新</w>
一 手</w>
一 国</w>
一 动</w>
一 加仑</w>
v a
us s
ro w
ro f
ri g
ot a</w>
o p</w>
n er</w>
m et</w>
k o</w>
k ie</w>
k i</w>
is e</w>
ill e</w>
i le</w>
i el
ho p</w>
erl y</w>
an j
all y</w>
ag a</w>
ac k</w>
ac k
Z ero</w>
W at
T r
T im</w>
T e
St r
Sc ott</w>
R He
RHe x</w>
Po int</w>
Ph ot
PI PA</w>
P ri
P ran
P ow
P ink</w>
P 3</w>
O li
N G
M P3</w>
K is
Jo el</w>
Jac k</w>
G ore</w>
F or
F DA</w>
Cra ig</w>
CP U</w>
CA D</w>
C P</w>
C B
Bo y
Ale x
AR S</w>
A sh
9 9.
8 9</w>
8 .
7 1</w>
7 .
198 1</w>
196 7</w>
196 2</w>
1 300</w>
0 .5</w>
鼓 棒</w>
鼓 动</w>
默 默
黑 莓</w>
鸦 片</w>
鸡 块</w>
鲍 林</w>
魔 兽</w>
高 雅</w>
高 血压</w>
高 端</w>
高 校</w>
高 性能</w>
高 度
马 州</w>
马 可</w>
马 力</w>
首 脑</w>
首 个</w>
饲 料</w>
餐 桌</w>
飞 过来</w>
额 贷款</w>
频 谱</w>
领 土</w>
领 会</w>
预 测出</w>
预 定</w>
顿 悟</w>
顶 点</w>
音 高</w>
面 罩</w>
面 板</w>
非 官方</w>
青 人</w>
霍 尔</w>
零 零</w>
雪 花</w>
集 体
难 为
隐 秘</w>
随身 携带</w>
陷 入
陶 醉</w>
陆 军</w>
附 属</w>
阿肯 色
阿肯色 州</w>
阿 密</w>
阴 蒂</w>
阴 暗</w>
防 治</w>
闹 钟</w>
闭上 眼睛</w>
闭 嘴</w>
门 人</w>
长 短</w>
错 特
错特 错</w>
销售 额</w>
销 员</w>
铃 声</w>
鉴 于</w>
重 获</w>
重 构</w>
重 击</w>
采 样</w>
酸 奶</w>
酸 化</w>
配 件</w>
那 首歌</w>
遗传 物质</w>
遗 体</w>
逻 辑
透 视</w>
选 定</w>
送 入</w>
退 缩</w>
迷 茫</w>
迷 信</w>
远 比</w>
远 去</w>
远 不止</w>
进 食</w>
这 股</w>
这 真</w>
这 回</w>
这 些年来</w>
这 为</w>
近 几年</w>
迈 阿密</w>
过 山
过山 车</w>
过 头</w>
辨 认</w>
轴 线</w>
转 播</w>
身体 健康</w>
身 旁</w>
身 处
身处 地</w>
越 战</w>
超 常</w>
起 搏
起搏 器</w>
赞 叹</w>
费 劲</w>
贮 存</w>
贫富 差距</w>
货 架</w>
贝 卡</w>
语 气</w>
试 飞</w>
设 身处地</w>
讲 演</w>
让 步</w>
认 知
认 出来</w>
订 购</w>
譬 如说</w>
警 官</w>
角 色
角色 扮演</w>
觉 得
观 世界</w>
要 用</w>
装 进</w>
衣 物</w>
行 动物</w>
血 样</w>
蜂 蜜</w>
葡萄 糖</w>
获 奖
芭 蕾</w>
节 约
节 岛</w>
艾 格
艾格 尼
航空 航天局</w>
舞蹈 家</w>
致癌 物</w>
至 此</w>
自相 矛盾</w>
自 来
自 恋</w>
臀 部</w>
能 行</w>
背 着</w>
肯 塔
耶 和华</w>
耐 克</w>
老 奶奶</w>
耀 斑</w>
翻 过来</w>
翻 版</w>
美国 国防部</w>
羊 毛</w>
罗 里</w>
罗 杰</w>
缠 绕</w>
编 纂</w>
绿 灯</w>
维 加斯</w>
维 也
维也 纳</w>
续 集</w>
结 底</w>
经 文</w>
经 上</w>
绅 士</w>
线 型</w>
纸 巾</w>
纵 轴</w>
纵 向</w>
纳 吉
约 旦</w>
繁 复</w>
系 数</w>
糊 口</w>
精 湛</w>
精 心
粉 红</w>
算 了</w>
算 上</w>
第 十
第 六</w>
第 一场</w>
符 合
童 子
童子 军</w>
站 点</w>
窗 帘</w>
窃 取</w>
突 击</w>
空气 污染</w>
空 隙</w>
空 前</w>
穷 困</w>
稳 定
稍 作</w>
稀 奇</w>
称 奇</w>
科 恩</w>
离 不开</w>
社会 科学</w>
碳 酸钙</w>
碳 原子</w>
硕 士</w>
砍 掉</w>
石灰 石</w>
石 板</w>
短 短
短短 的</w>
知 之
眩 晕</w>
真 棒</w>
真 人
真 万
真万 确</w>
看不 懂</w>
看 重</w>
看 透</w>
看 得出</w>
看 不出</w>
相 撞</w>
监 护
皮 带</w>
百分之九 十五</w>
百分之九 十九</w>
百分之 四</w>
电子 书</w>
田纳 西州</w>
田 地</w>
用 语</w>
生 机
生 化</w>
瓣 体</w>
瑞 德</w>
理 应</w>
玛 格
王 星</w>
狡 猾</w>
狄 克</w>
爱国 者</w>
爬 行动物</w>
爬 树</w>
爬 墙</w>
热 烈</w>
热 液</w>
灌 木
激 光
滥 调</w>
满 足
滞 不前</w>
滑翔 机</w>
滑 翔</w>
滋 生</w>
源源 不断</w>
渔 船</w>
渔 场</w>
淘 汰</w>
消 沉</w>
涅 狄
海 量</w>
海 味</w>
浴 缸</w>
测 定</w>
流 经</w>
流 动性</w>
流 产</w>
洞 察</w>
洛杉矶 分校</w>
洛 特</w>
洛 哥</w>
洗 钱</w>
洗 衣服</w>
泛 滥</w>
法 子</w>
泄 物</w>
没 想</w>
没 人
沐 浴</w>
沉 积</w>
沉 思</w>
汇 总</w>
水族 箱</w>
水 滴</w>
水 是</w>
水 手</w>
气 象
气 式</w>
毛 里
毕 尔巴
毕尔巴 鄂</w>
毒 药</w>
每 张</w>
段 话</w>
段 落</w>
残 障</w>
残 留</w>
死 板</w>
此 种</w>
模 特</w>
楼 下</w>
植 入
森 哲</w>
棕榈 树</w>
梯 子</w>
桌 边</w>
格陵 兰</w>
格 雷格</w>
格 外</w>
根本 就是</w>
根 植</w>
核 电站</w>
核 弹
核弹 头</w>
树 种</w>
柠 檬
染 色</w>
某 天</w>
某 件事</w>
枪 声</w>
枕 头</w>
极其 重要</w>
松 鼠</w>
杰 斐逊</w>
来 得</w>
机 票</w>
机 理</w>
机 智</w>
机 密</w>
朱丽 叶</w>
本 源</w>
本 拉登</w>
木 工</w>
望 去</w>
有 意义</w>
有 形</w>
最 穷</w>
最 低
更 有意义</w>
更 多人</w>
更 为重要</w>
曲 目</w>
曲 折</w>
暖 化</w>
普遍 存在</w>
普 森</w>
晚 会</w>
显示 屏</w>
时间 机器</w>
时 性</w>
无神 论</w>
无法 控制</w>
无 用</w>
无 机</w>
无 常</w>
无 几</w>
旁 观者</w>
方 设法</w>
新泽 西</w>
新 种</w>
新 增</w>
新 几内亚</w>
斯 马
斯 拉
斯拉 夫</w>
斯 尔</w>
斯 大
断 层</w>
斗 士</w>
文件 夹</w>
敲 门</w>
数 以</w>
敬 意</w>
救 生</w>
政 体</w>
放 牧</w>
放 上</w>
攻 克</w>
收 集器</w>
收 录</w>
收 入
操 纵
播 种</w>
摩 洛哥</w>
搞 错</w>
插 头</w>
接 手</w>
排 泄物</w>
换 气</w>
捕 鲸</w>
挫 败</w>
挪 动</w>
按 键</w>
按 摩</w>
指 甲</w>
指 头</w>
拍 电影</w>
拍 照片</w>
拉丁 语</w>
拉丁 文</w>
拉 各
拉各 斯</w>
拉 克
拆 开</w>
担 保</w>
护 所</w>
抢 劫</w>
抗 病毒</w>
抗 击</w>
抓 狂</w>
托 尔
打 来</w>
打 斗</w>
打 下</w>
扎 克</w>
手提 箱</w>
手 脚</w>
扁 豆</w>
所 示</w>
所 思</w>
所 属</w>
房 顶</w>
战 术</w>
战 斗
我 教</w>
我 心</w>
我 常</w>
想 方设法</w>
想 成</w>
惊 恐</w>
情 结</w>
悖 论</w>
悄 悄</w>
恰 到
恰到 好处</w>
恐 吓</w>
总 在</w>
怪 胎</w>
性 工作者</w>
忠 实</w>
忘 却</w>
心理 医生</w>
心 血</w>
心 碎</w>
心 力
心力 衰竭</w>
德克萨 斯州</w>
德 兰</w>
得 克萨
很 远</w>
很 早</w>
征 求</w>
往 来</w>
往 外</w>
当代 艺术</w>
当 场</w>
归根 结底</w>
归 于</w>
强 迫
弱 势
弱势 群体</w>
弥 漫</w>
弄 错</w>
开普 敦</w>
建设 性</w>
康 涅狄
应 激</w>
库 斯</w>
庇 护所</w>
庄 园</w>
并 排</w>
并 不多</w>
年 青人</w>
年 头</w>
平 稳</w>
平 原</w>
常 理</w>
带 子</w>
帕 斯卡</w>
希腊 神话</w>
市 政
巴格 达</w>
巴 西
巴 拉克</w>
工作 量</w>
工 地</w>
巅 峰</w>
山 脊</w>
山 地</w>
展 品</w>
屈 服</w>
居住 地</w>
尽 情</w>
尘 土</w>
尘 器</w>
尔 罕</w>
小 额贷款</w>
小 球</w>
小 点</w>
小 到</w>
小 刀</w>
对 撞机</w>
宾 州</w>
宽 带</w>
容 许</w>
家 谱</w>
家 们</w>
宣 告</w>
定 价</w>
安 迪</w>
学 问</w>
嫁 给</w>
姆 士</w>
好 些</w>
契 机</w>
奏 曲</w>
奈 特</w>
头 巾</w>
头 像</w>
太 晚</w>
天 后</w>
大学 洛杉矶分校</w>
大 革命</w>
大 面积</w>
大 错特错</w>
大 英
大 程度</w>
大 火</w>
大 屏幕</w>
大 块</w>
大 力
多米 尼
多 难</w>
多 方面</w>
多 变</w>
外 层</w>
复活 节岛</w>
备 用</w>
备 份</w>
处 跑</w>
墓 地</w>
填 写</w>
塔 斯马
堆 肥</w>
基 斯</w>
埃 森哲</w>
垮 台</w>
垃圾 堆</w>
地理 位置</w>
地 马拉</w>
地 铁
地 车</w>
地 用</w>
圣 殿</w>
土卫 二</w>
图 示</w>
国际 性</w>
国家 航空航天局</w>
国 民
因 果</w>
因 果
回忆 起</w>
回 过头来</w>
回 望</w>
四 千</w>
四 十亿</w>
喷 水</w>
喷 气</w>
喜剧 演员</w>
喉 咙</w>
喀 布尔</w>
商 量</w>
商 界</w>
商 家</w>
售 货机</w>
售 出</w>
哈 莱姆</w>
咨 询
咖啡 厅</w>
呆 子</w>
启 蒙</w>
启 蒙
后 部</w>
后 座</w>
后 天</w>
吉 尼亚</w>
合 体</w>
可 可</w>
只 手</w>
另一 方</w>
句 号</w>
古 人</w>
变形 虫</w>
变 迁</w>
受 苦</w>
受 益
受 到
发 财</w>
发 射器</w>
发 事件</w>
反 面</w>
反 感</w>
反 之
反之 亦然</w>
双 螺旋</w>
参 考
厂 商</w>
危险 性</w>
印刷 机</w>
印 地
卡 梅隆</w>
博 茨
单 子</w>
半 数</w>
千 真万确</w>
十字 路口</w>
十字 架</w>
化 肥</w>
包 涵</w>
勇 于</w>
加 沙</w>
加 密</w>
加 大</w>
办 事</w>
力 所
力 场</w>
割 礼</w>
前 一天</w>
到 此
到 处跑</w>
别 墅</w>
利 尔</w>
刘 易斯</w>
列 入</w>
分析 师</w>
分 给</w>
分 枝</w>
分 心</w>
出 狱</w>
凯 恩</w>
几十 亿年</w>
凝 结</w>
减 慢</w>
冲 破</w>
冰 激
内 裤</w>
内 科医生</w>
养 院</w>
养 成</w>
其 数</w>
关键 问题</w>
公共 交通</w>
公 元</w>
公 交</w>
八 年级</w>
全心 全
全心全 意</w>
入 狱</w>
克 里</w>
克 罗</w>
克 拉</w>
克 伦</w>
先 入
傻 子</w>
停车 位</w>
停 滞不前</w>
偏 爱</w>
偏 向</w>
俯 视</w>
信息 源</w>
信息 处理</w>
保留 地</w>
保持 沉默</w>
保 加利
保 住</w>
依 存</w>
你 会</w>
作 风</w>
作 证</w>
作 法</w>
佛罗里 达州</w>
何 在</w>
体育 馆</w>
伦 理
伤 疤</w>
伤 员</w>
传 回</w>
会 到</w>
伊 恩</w>
以 免</w>
代 相传</w>
他 命</w>
从头到 尾</w>
人 选</w>
人 死于</w>
人 机</w>
人 机
人 太多</w>
亲 属</w>
产 能</w>
五 千年</w>
五 十年代</w>
五 到</w>
云 彩</w>
事 项</w>
争 执</w>
书 呆子</w>
乘 着</w>
乐 章</w>
之 鹰</w>
举 措</w>
丽 丝</w>
主导 地位</w>
主 页</w>
主 妇</w>
为 的是</w>
为 本</w>
中国 政府</w>
中 断</w>
中 午</w>
中 会</w>
丧 生</w>
两 英里</w>
两 条
两 半</w>
两 三年</w>
两 万</w>
专业 知识</w>
不计 其数</w>
不得 了</w>
不太 可能</w>
不 说</w>
不 胜
不 大</w>
不 合理</w>
下 游</w>
下 山</w>
下 层</w>
上 车</w>
上 游</w>
上 时</w>
三角 洲</w>
七八 糟</w>
七 分</w>
一百 个</w>
一段 话</w>
一个 多</w>
一 班</w>
一 月份</w>
一 家人</w>
一 向</w>
一 千万</w>
一 匹</w>
一 动不动</w>
一 分钱</w>
一 书</w>
一 丁
z y</w>
v es</w>
un e</w>
t re
str ong</w>
st on</w>
st ein</w>
sk y</w>
op her</w>
m strong</w>
it ha</w>
ind er</w>
ic h</w>
h m
h h
f or</w>
ec t</w>
e st
e k</w>
e e</w>
d o</w>
c ol
c o</w>
c hi
as h</w>
apm inder</w>
al e</w>
a il</w>
Willi am</w>
TED Women</w>
T a
T BP</w>
T B</w>
St e
St an
Shi m
S w
S un
Ro ck
R u
PC B</w>
P e
P T
P E
N o
N ic
N athan</w>
N M</w>
M iller</w>
L ay
L G</w>
K iva</w>
K en</w>
J erry</w>
Hill is</w>
Han s</w>
H ay
H a
G apminder</w>
F er
F B
FB I</w>
E G</w>
De an</w>
D enn
D E
Christ opher</w>
C on
B as
B L</w>
B J</w>
Ar mstrong</w>
An g
Ag n
A M</w>
8 8</w>
7 8</w>
6 6</w>
3 .5</w>
198 8</w>
197 9</w>
195 3</w>
齐 心协力</w>
黑 暗
麦 隆</w>
鳕 鱼</w>
鲜 艳</w>
鲜 活</w>
鱿 鱼</w>
鬼 魂</w>
高 跟
高跟 鞋</w>
高 水平</w>
高 手</w>
高 低</w>
马萨诸 塞
马萨诸塞 州</w>
马克 思</w>
食 性</w>
飞 快</w>
风险 投资</w>
额 头</w>
题 材</w>
领 略</w>
预防 措施</w>
预 估</w>
顿 饭</w>
页 岩</w>
音 响
面 体</w>
非营 利性</w>
非 线性</w>
露 脊</w>
雾 气</w>
雷 切尔</w>
零 碎</w>
雅 克</w>
雄 甘地</w>
难为 情</w>
隐 患</w>
随 即</w>
限 性</w>
限 制性</w>
阿尔 卑
阿 联
阿联 酋</w>
阿 什</w>
阻 断</w>
防 蚊</w>
阁 楼</w>
问 起</w>
门 前</w>
长 途
长 椅</w>
长 尾</w>
镇 上</w>
银 色</w>
钻 研</w>
钩 子</w>
鉴 别</w>
金 刚</w>
量 标准</w>
重复 使用</w>
重 演</w>
重 温</w>
酵 母
酵母 菌</w>
那 就是说</w>
那 人</w>
遗 址</w>
遍 地</w>
逼 真</w>
造物 主</w>
逃 走</w>
适应 能力</w>
退 役</w>
退 后</w>
退 休
连 环</w>
远 距离</w>
这 所</w>
这 周</w>
这 令</w>
运 营
过 敏</w>
迄 今</w>
达到 目标</w>
边 际</w>
辩 护</w>
辛 格</w>
输 掉</w>
较 长</w>
轻 蔑</w>
软 骨</w>
软 弱</w>
转 盘</w>
转 弯</w>
车 程</w>
跨 学科</w>
走 私</w>
赤 字</w>
赞助 商</w>
赞 颂</w>
赌 博</w>
贾 巴尔</w>
责 怪</w>
负面 影响</w>
负 担
负担 得起</w>
贝 斯</w>
象征 意义</w>
调 试</w>
诺伊 曼</w>
诺 亚</w>
访 问
讯 逼供</w>
詹 姆士</w>
触 控</w>
解 面</w>
解 药</w>
解 体</w>
视觉 艺术</w>
观 赏</w>
西 装</w>
褶 皱</w>
褐 色</w>
裸 体</w>
装 载</w>
裁 决</w>
袖 手
袖手 旁观</w>
衰 败</w>
表达 方式</w>
行 列</w>
血 清
血清 素</w>
血 流</w>
融 为一体</w>
蜘 蛛
蚜 虫</w>
虚拟 现实</w>
虚 幻</w>
蓝 点</w>
蒙大 拿</w>
蒙 古</w>
著 称</w>
落 入</w>
萦 绕</w>
菜 园</w>
获得 成功</w>
莫 桑
莫桑 比克</w>
荷 兰语</w>
英 文
苏 萨</w>
苏 茜</w>
花 样</w>
花 些</w>
芭 比</w>
节 省
艾格尼 丝</w>
艾 尔</w>
艺术 展</w>
色 情
艰 辛</w>
船 员</w>
至 上</w>
自由 选择</w>
自由 度</w>
自 画像</w>
腐 败
脊 柱</w>
能 带</w>
能 及</w>
胸 针</w>
胡 椒</w>
肌 萎缩</w>
肉 体</w>
聚 合</w>
职 员</w>
耗 资</w>
美国 宇航局</w>
美 术
美 感</w>
美 式</w>
美 好
美 化</w>
罗宾 斯</w>
网络 攻击</w>
缺 氧</w>
绿 茶</w>
统治 者</w>
绝 种</w>
绝 好</w>
结 冰</w>
经济 效益</w>
经 商</w>
细胞 膜</w>
线 电视</w>
纷 争</w>
纵 观</w>
纳吉 木
纳吉木 丁</w>
纪 元</w>
红 点</w>
繁 多</w>
紧急 情况</w>
糙 度</w>
糖 分</w>
精神 分裂</w>
精 炼</w>
精 灵</w>
精 心</w>
粗 糙度</w>
粉 刷</w>
类 推</w>
米 勒</w>
篮 球</w>
管理 者</w>
策 展</w>
第四 次</w>
第一 本</w>
第 五
第 七</w>
笨 拙</w>
笔 画</w>
立体 声</w>
立 面</w>
稳 定性</w>
稀 缺</w>
移 开</w>
称 其为</w>
科 威特</w>
科 动物</w>
私 立学校</w>
离 家</w>
离 失
离失 所</w>
神秘 感</w>
神 像</w>
社会 关系</w>
社会 保障</w>
礼 堂</w>
示 牌</w>
磁 力</w>
硅 片</w>
破 烂</w>
破 损</w>
短 跑</w>
短 期内</w>
短 小</w>
知 情</w>
知 名
着 重</w>
真空 管</w>
真 真
看 望</w>
看 得</w>
白 蚁</w>
疲 惫</w>
电 灯泡</w>
电 源
电 压</w>
电 信
甲 虫</w>
生育 率</w>
生物 界</w>
生机 勃勃</w>
生命 危险</w>
生 还</w>
生 死
生 植物</w>
甜 蜜</w>
甜 美</w>
理想 化</w>
理 查</w>
环 保
玩 转</w>
玛格 丽
玛格丽 特</w>
猿 人</w>
猫 科动物</w>
猖 獗</w>
狭 隘</w>
独 木
特 雷
特 写</w>
特 兄弟</w>
牛 角</w>
版 图</w>
燃 机</w>
熔 岩</w>
热 潮</w>
灰 质</w>
火 山
潜 质</w>
漏 掉</w>
漂 移</w>
滴 滴
滴 水</w>
满足 感</w>
满 是</w>
源 代码</w>
游 走</w>
深 情</w>
消 耗
浸 泡</w>
海洋 学</w>
海 洛
海洛 因</w>
浪漫 爱情</w>
浩 瀚</w>
浑 身</w>
测 谎</w>
测 仪</w>
流 离失所</w>
流 浪
洗 脑</w>
洗 手
洁 净</w>
泰 迪
波 音</w>
法 式</w>
法 学院</w>
沿 岸</w>
油 门</w>
沃尔 沃</w>
污 水</w>
污 垢</w>
求 助</w>
水 位</w>
水 上</w>
气 概</w>
民 权
民权 运动</w>
民 族
毯 子</w>
毛 细
比 分</w>
比 作</w>
毅 力</w>
死 神</w>
此 前</w>
正 反</w>
欢 笑</w>
橙 子</w>
模式 识别</w>
模 具</w>
椭 圆形</w>
检查 表</w>
梭 状</w>
梅 花</w>
档 案
桌 布</w>
栽 培</w>
格 拉斯</w>
格 州</w>
根 深
核 废料</w>
标 明</w>
查 莉</w>
查 理
某 项</w>
林 登</w>
林 木</w>
极 点</w>
极 力</w>
来 来
来 往</w>
来 信</w>
条 带</w>
杜 尔
权 威
杂 交</w>
本 应</w>
木 薯</w>
木 卫
有 线电视</w>
有 水</w>
最 佳
曼 帝国</w>
暗 中</w>
智 者</w>
普通 话</w>
普 罗
是 如此</w>
昭 著</w>
星期 一</w>
时间 段</w>
时 装
旱 季</w>
日 程</w>
日 本
日 复
日复 一日</w>
日 后</w>
无 损</w>
方 言</w>
方 圆</w>
新 药</w>
新 月
斯 多德</w>
斐 济</w>
文学 作品</w>
敲 打</w>
数百 个</w>
数据 资料</w>
数学 模型</w>
教 派</w>
敏 感性</w>
效 用</w>
故 我
故我 在</w>
政 界</w>
改 编</w>
改 为</w>
收藏 家</w>
收入 水平</w>
擅 长于</w>
摸 摸</w>
摔 跤</w>
携 带
携带 者</w>
搬 运</w>
搬 迁</w>
提 过</w>
提 案</w>
描绘 出</w>
推 论</w>
接收 器</w>
换 来</w>
捐 献者</w>
指挥 官</w>
指 明</w>
拖 网</w>
拖 拉
拖拉 机</w>
拖 延</w>
拍 下来</w>
拉斯 维加斯</w>
拉 伸</w>
抽象 化</w>
抵抗 力</w>
披 露</w>
抨 击</w>
抛物 线</w>
折 腾</w>
折 扣</w>
投资 人</w>
投 身于</w>
投 球</w>
投 掷</w>
把 头</w>
扪 心
扪心 自问</w>
打 工</w>
打 出</w>
扎 根</w>
所 称</w>
所 受</w>
房 租</w>
房 地产</w>
戴 尔</w>
我 照</w>
成 功率</w>
慢 活</w>
慢 下来</w>
感觉 良好</w>
感 光</w>
意大利 人</w>
意 念</w>
愈 来
想 当然</w>
想 些</w>
情报 局</w>
悄 悄
恩 斯</w>
恢复 过来</w>
恢复 性</w>
怪 诞</w>
性 高潮</w>
性 价
性价 比</w>
怀 特兄弟</w>
快 餐
心 爱</w>
徽 章</w>
德 曼</w>
德 堡</w>
微 米</w>
徒 劳</w>
影 院</w>
彩 虹</w>
录 音
强 行</w>
强 劲</w>
弗莱 舍</w>
引 导员</w>
开 罗</w>
建 于</w>
延 缓</w>
康涅狄 格州</w>
废 话</w>
幽 灵</w>
并 存</w>
年 时期</w>
年 华</w>
平 行
平 坦</w>
干 道</w>
干 活</w>
帕 拉</w>
希 利</w>
布莱 尔</w>
布 道</w>
布 赖
市政 厅</w>
市场 份额</w>
市 政府</w>
已 久</w>
巨 浪</w>
左 脑</w>
工业 界</w>
崇 尚</w>
峰 会</w>
山 地车</w>
层 出
层出 不
层出不 穷</w>
尼日 利亚人</w>
尸 检</w>
尔 兹
小 车</w>
小 猫</w>
小 步</w>
小 敏</w>
小 提琴
导 者</w>
对 错</w>
对 撞</w>
对 人</w>
富 于</w>
宽 度</w>
实 事</w>
宝 贝
宝 藏</w>
定 做</w>
完 工</w>
完 后</w>
安 瑞
安 然</w>
安 放</w>
学 童</w>
学 了</w>
字 游戏</w>
婆 罗
威斯 康
委 托</w>
奥斯 曼帝国</w>
奥 古
奥 利
奢 侈
奢侈 品</w>
头 颅</w>
头 牛</w>
失 踪</w>
失 业
夭 折</w>
天 里</w>
大众 化</w>
大 黄蜂</w>
大 灾难</w>
大 幅度</w>
大 卫
大卫 王</w>
大 力</w>
够 了</w>
多 远</w>
多 名</w>
外 衣</w>
外 围</w>
夏 洛特</w>
复 合
壮 丽</w>
增 加
塑 造成</w>
基 线</w>
培 植</w>
垂 直
块 头</w>
坏 主意</w>
地质 学家</w>
地 面积</w>
地 方
圣 雄甘地</w>
圣 地
圈 子里</w>
圈 圈</w>
圆 顶</w>
图 样</w>
图 形
国际 象棋</w>
国 立</w>
四 百</w>
四 年级</w>
喷 雾</w>
喷 泉</w>
善 待</w>
喂 饱</w>
喀 麦隆</w>
商 讨</w>
唯 有</w>
哺乳 类</w>
哥伦比亚 大学</w>
哎 呀</w>
咖啡 杯</w>
咒 语</w>
周 一</w>
呐 喊</w>
吸 尘器</w>
听 器</w>
吞 食</w>
向 导</w>
后 背</w>
同 道
吉 尔
吉 儿</w>
合 剂</w>
各 大</w>
可 编程</w>
可 疑</w>
另一 头</w>
另一 回事</w>
变 化
受 访者</w>
受 够了</w>
受 众</w>
受 不了</w>
发电 厂</w>
发 病</w>
反 常</w>
反 对
友 情</w>
及 利亚</w>
原 件</w>
压 裂</w>
历史 记录</w>
即时 通讯</w>
即 逝</w>
即 便
即便 如此</w>
卡 住</w>
博 弈
南 斯拉夫</w>
协 调
华 里</w>
半 边</w>
升 降</w>
千 分之一</w>
十 字</w>
十 四</w>
十 亿美元</w>
医学 界</w>
医 务
匮 乏</w>
北 朝鲜</w>
化 工厂</w>
包 装
勘 探</w>
劫 持</w>
动 用</w>
加尔 各
加 利</w>
加 倍</w>
功 效</w>
办公 桌</w>
力所 能及</w>
剑 桥
制 作者</w>
别 提</w>
利 息</w>
利 兹</w>
刚 毛</w>
刑 讯逼供</w>
切 需要</w>
分 销</w>
分 组</w>
分 娩</w>
击 力</w>
出 院</w>
出 汗</w>
出 代价</w>
出 个</w>
出 世</w>
凤 凰</w>
几 小时</w>
几 只</w>
几 件事</w>
冰 雪</w>
农 场主</w>
再也 不能</w>
再 造</w>
冈 州</w>
内 陆</w>
内 脏</w>
内 燃机</w>
内 有</w>
内 尔</w>
兴奋 不已</w>
关 门</w>
共同 努力</w>
公 车</w>
公 主</w>
入 门</w>
兆 瓦</w>
偷 看</w>
停 止
停 战</w>
倾 注</w>
借 给</w>
倒 霉</w>
信 用</w>
俄 亥
便 携
侄 子</w>
佩 斯</w>
何 以</w>
体 检</w>
佐 料</w>
低 下</w>
伴 奏</w>
伤 感</w>
会 计
会 得</w>
会 带</w>
优 越</w>
伐 木</w>
伏 特
伊 博
任 务
以致 于</w>
以 求</w>
代 代相传</w>
付诸 实践</w>
付 出代价</w>
他 家</w>
从未 有过</w>
从 头</w>
介 子</w>
仆 人</w>
仅此 而已</w>
仅 用</w>
仅 为</w>
亿 英镑</w>
亿 吨</w>
人口 统计</w>
人口 数</w>
人 道</w>
人 称</w>
人 形</w>
人 到</w>
人 住</w>
亲 密
产 业
亚历 克斯</w>
五 点</w>
于 世</w>
争 斗</w>
乱 七八糟</w>
书 桌</w>
乔纳 斯</w>
乔 伊</w>
乐 手</w>
乐 土</w>
之 谜</w>
之 源</w>
之 母</w>
之 作</w>
主 人
临 终</w>
中 用</w>
中 性</w>
两 类</w>
两 百年</w>
两 极</w>
东 北</w>
不自 禁</w>
不能 不</w>
不知 所
不知 不觉</w>
不由 自主</w>
不 顾</w>
不 绝</w>
不 怕</w>
不 怎么样</w>
不 对劲</w>
不 休</w>
上 级</w>
上 百年</w>
三 人</w>
万事 万物</w>
万 次</w>
万 到</w>
一百 万个</w>
一大 块</w>
一 级</w>
一 笑</w>
一 桶</w>
一 招</w>
一 年级</w>
一 帮</w>
一 体化</w>
w or
v an</w>
un es</w>
u k
t hi
ri a</w>
r e</w>
os hop</w>
or n</w>
om p
oc k</w>
o x</w>
n ey</w>
m i</w>
m ent</w>
li x</w>
le o</w>
l t;</w>
l a</w>
it t</w>
g t;</w>
en b
ell i</w>
el yn</w>
el ine</w>
at e</w>
as e</w>
ab ad</w>
a v</w>
Wor d</w>
Willi ams</w>
W in
W I
U V
St u
Sh ar
Ser g
S y
Ros e</w>
R am
P ra
P os
P leo</w>
O M
Nor man</w>
Ne il</w>
Nan o</w>
N y
N ew
Mar k
M ich
M D</w>
Kis met</w>
K ri
K le
K ir
K im</w>
K h
Jo e</w>
Jeff erson</w>
Jam ie</w>
Int er
Int el</w>
I I</w>
Her bie</w>
H T
G ol
G o</w>
G en
G al
F e
E x
E ric</w>
E d</w>
DAR PA</w>
D un
D er
Bev erly</w>
B yr
Ar th
A ut
A ID
7 9</w>
6 9</w>
6 500</w>
3 60</w>
3 5000</w>
3 0
20 000</w>
2 20</w>
198 7</w>
197 8</w>
19 47</w>
18 50</w>
1 4
& lt;</w>
& gt;</w>
龙 虾</w>
默 默</w>
默 认</w>
鲑 鱼</w>
高 层次</w>
驻 扎</w>
驶 过</w>
马尔 科</w>
马 里兰
香 槟</w>
首 页</w>
饱 和</w>
饭 碗</w>
饭 桌</w>
餐 桌上</w>
餐 时间</w>
飞 速
飞 得</w>
飞 利
风 琴</w>
颖 而出</w>
预 约</w>
预 备</w>
颁 发</w>
顾 虑</w>
顾 四周</w>
音 阶</w>
音 效</w>
面包 师</w>
面 容</w>
非常 适合</w>
静 静
霍 恩</w>
雷 特</w>
雷 斯</w>
零 食</w>
集 装
难以 捉摸</w>
难 堪</w>
难 免</w>
隐 蔽</w>
随 手</w>
陷入 困境</w>
陨 石
陨石 坑</w>
陛 下</w>
降 下来</w>
阿拉伯 人</w>
阿拉 巴马</w>
阿 斯
阿 拉</w>
阴 囊</w>
问 卷</w>
锈 钢</w>
银 河</w>
铃 铛</w>
钻 进</w>
钓 鱼
针 管</w>
金融 服务</w>
量 产</w>
野 兽</w>
重新 认识</w>
重 造</w>
重 性</w>
重 于</w>
里 长</w>
里 人</w>
配 有</w>
配 备</w>
部 手机</w>
邻 座</w>
邻 国</w>
邦 德</w>
那 根</w>
那 层</w>
遵 从</w>
遗传 学家</w>
遗 失</w>
道而 驰</w>
道 义
造 者</w>
通 行</w>
选 用</w>
逃 出</w>
适 于</w>
退休 金</w>
退 一步</w>
迫 害</w>
迟 到</w>
连 锁
连 贯</w>
远 影响</w>
进 午餐</w>
这 段话</w>
这 棵</w>
这 成</w>
这 帮</w>
这 全</w>
这 仅</w>
近 十年</w>
运营 商</w>
运动 神经</w>
达 罗</w>
达 佩斯</w>
边缘 系统</w>
辐 射
轻 型</w>
轰 动</w>
身 在</w>
身 临
身临 其
身临其 境</w>
跳 下去</w>
趣 味</w>
趣 事</w>
趋 于</w>
越 远</w>
越 深</w>
超级 大国</w>
超 棒</w>
超 强</w>
起 身</w>
赐 予</w>
赌 注</w>
资 金
资 源
贴 切</w>
贯 注</w>
贮 水池</w>
贫 血
贫血 症</w>
财政 部长</w>
财 力</w>
豪 华</w>
谱 子</w>
谬 论</w>
调 配</w>
诺 拉</w>
诺 德</w>
诱 导</w>
诚 然</w>
诗 篇</w>
试 过</w>
试 图
试图 用</w>
诅 咒</w>
设计 方案</w>
设计 图</w>
议 案</w>
训练 有
训练有 素</w>
计划 署</w>
警 惕</w>
触 目
触目 惊
触目惊 心</w>
解 成</w>
规 格</w>
要 条件</w>
要 学</w>
要 不然</w>
西 弗吉尼亚州</w>
西 岸</w>
西 尔</w>
被 遗弃</w>
衬 衣</w>
表演 艺术</w>
表 面积</w>
表 面
行 车</w>
行 榜</w>
行 李</w>
血 鬼</w>
蜷 缩</w>
蜥 蜴</w>
蜘蛛 侠</w>
蜂 房</w>
蜂 巢</w>
蛞 蝓</w>
蚱 蜢</w>
蓬 松</w>
蓝 线</w>
蒸汽 机</w>
蒂 固</w>
落 地</w>
菲 特</w>
菩 萨</w>
菌 者</w>
莉 森</w>
药 丸</w>
荒 芜</w>
范 式</w>
花 粉
芭 芭
芭芭 拉</w>
芒 果</w>
节约 能源</w>
节 炎</w>
艾 莉森</w>
良 性</w>
航 道</w>
舍 基</w>
舆 论</w>
臭 名
自由 市场</w>
自然 科学</w>
自然 灾害</w>
自然 法则</w>
自来 水</w>
自我 感觉</w>
自 发性</w>
自 助
自 一人</w>
腺 素</w>
腐 蚀</w>
腌 制</w>
脾 气</w>
脸 孔</w>
脱 颖而出</w>
脚 趾
脑 组织</w>
脑 损伤</w>
能源 需求</w>
能 干</w>
胸 腔</w>
胸 前</w>
胰 腺</w>
胡 安</w>
背 道而驰</w>
肾上 腺素</w>
肩 上</w>
股 东</w>
肠 子</w>
肖 恩</w>
肋 骨</w>
聚 量</w>
联合 会</w>
职业 道德</w>
职 能</w>
耕 地</w>
而 行</w>
而 至</w>
考 古</w>
老 百姓</w>
翻 阅</w>
群 组</w>
群 居</w>
群 中</w>
美 洲
美 术</w>
美 景</w>
美 是</w>
罗 迪</w>
罗 纪</w>
罐 头</w>
编译 器</w>
绿 洲</w>
绿 巨人</w>
绵 羊</w>
维 拉</w>
维 吉尼亚</w>
绝 非</w>
终 端</w>
终 极
纳 什
纳什 维尔</w>
纯 净</w>
纪 律</w>
红 细胞</w>
紧 缩</w>
精 良</w>
精 疲力
精 度</w>
类 地
类地 行星</w>
米 尔
米 兰</w>
管 它</w>
简 明</w>
筹 到</w>
第六 感</w>
第二 层</w>
第三 代</w>
竹 子</w>
窒 息</w>
窍 门</w>
空气 质量</w>
空 中
穷 苦</w>
移 到</w>
称 得上</w>
积极 参与</w>
积 雪</w>
科学 杂志</w>
科 菲</w>
科 目</w>
科 幻</w>
种族 歧视</w>
秋 季</w>
私 营
私 有
私 人
离 谱</w>
离 破碎</w>
福 德</w>
神 贯注</w>
神 性</w>
祝 愿</w>
社会 主义</w>
示 意</w>
磨 损</w>
碎 石</w>
睁 开
真人 秀</w>
真 谛</w>
看 时</w>
相互 影响</w>
相 通</w>
相 貌</w>
相 识</w>
相 匹配</w>
盗 取</w>
监 护</w>
监 察</w>
盏 灯</w>
的 松</w>
百 思
登 顶</w>
症 候
症候 群</w>
疟 原
疟原 虫</w>
电脑 前</w>
电影 节</w>
电 费</w>
电 脉冲</w>
电 磁</w>
电 机</w>
电 厂</w>
由此 可见</w>
田 园</w>
用 纸</w>
生物 医学</w>
生活 习惯</w>
生 而
生 出</w>
甜 甜</w>
甚 远</w>
瓦 纳</w>
瑞 斯</w>
理 工</w>
理 工
玻 尔兹
玻尔兹 曼</w>
现场 表演</w>
现 行</w>
现 目标</w>
现 在
现在 起</w>
环 顾四周</w>
环 流</w>
玩 偶</w>
玉米 片</w>
率 地</w>
猫 头
猫头 鹰</w>
猎 食</w>
猎 者</w>
独木 舟</w>
独 自一人</w>
独 特性</w>
独 有</w>
狂 欢</w>
犯罪 率</w>
犀 牛</w>
特 工</w>
牧 场</w>
爱 着</w>
热 气</w>
烦 人</w>
烤 鸡</w>
点 水</w>
炫 耀</w>
火 鸡</w>
激动 不已</w>
潮 湿</w>
演讲 人</w>
漏 油</w>
滴滴 涕</w>
满 脑子</w>
滑 动</w>
滋 味</w>
滋 养</w>
游 览</w>
游 牧
渗 入</w>
混 沌</w>
混 在</w>
深 远影响</w>
深 水</w>
淇 淋</w>
液 态
液态 水</w>
涉 足</w>
消 毒</w>
涂 层</w>
海 鲜</w>
海 湾
海 尔</w>
浮 出</w>
测 量
测 压</w>
流行 起来</w>
流 淌</w>
派 上
派上 用场</w>
活 过来</w>
洛 普</w>
洗手 间</w>
洗 衣</w>
泰迪 熊</w>
泰 晤
波 尔
法 制</w>
治 安</w>
治 好</w>
沦 为</w>
没 收</w>
汉 娜</w>
汉 堡
汉堡 包</w>
求 斯</w>
水 肺</w>
水 桶</w>
气 息</w>
民 间
民 意
民意 调查</w>
毛里 求斯</w>
毛 骨
比 利
毒 气</w>
每 天花</w>
殖民 主义</w>
此 类推</w>
正 统</w>
正 经</w>
欺 诈</w>
欧 美</w>
欣 慰</w>
橱 窗</w>
横 轴</w>
楼 上</w>
森 堡</w>
棕 榈</w>
梦 想
梦 幻</w>
梦 境</w>
桅 杆</w>
根深 蒂固</w>
根 系</w>
核 糖
核 爆炸</w>
核 心
核 实</w>
染 料</w>
某 位</w>
某 一</w>
架 飞机</w>
枝 条</w>
果 断</w>
果 实</w>
构 式</w>
极端 分子</w>
极 少数</w>
杰 西</w>
条 新闻</w>
杜尔 迦</w>
杂 物</w>
机动 车</w>
机 动</w>
朱丽 婭
朱丽婭 秀</w>
本 意</w>
未 知
木卫 二</w>
木 马</w>
木 匠</w>
服务 生</w>
有 引力</w>
有 句</w>
有 不同</w>
最 爱</w>
暴 行</w>
普 斯</w>
普 拉
晦 涩</w>
星 座</w>
星 光</w>
明 暗</w>
明 明</w>
时 才</w>
早 上
早上 好</w>
日 趋</w>
日 益
日 托</w>
无法 忍受</w>
无所 畏惧</w>
无 误</w>
无 极</w>
无 动
无动 于
无动于 衷</w>
旗 子</w>
旅 客</w>
施 压</w>
施 加
新闻 记者</w>
新 人</w>
斯大 林</w>
斯 瓦
斯 泰</w>
斯 密</w>
文 物</w>
敲 击</w>
数 位</w>
数 万</w>
教 皇</w>
救 活</w>
救 世
救世 主</w>
故 事
放 映
放 手</w>
放 学</w>
放 上去</w>
攻 读</w>
支 离破碎</w>
摩天 大楼</w>
摇 摆</w>
摆 放</w>
摄 相机</w>
搭 档</w>
搭 便
搭便 车</w>
接 下去</w>
排 行榜</w>
排 成</w>
授 给</w>
换 位</w>
捡 起来</w>
捐 助者</w>
挥 舞</w>
挚 爱</w>
挑 剔</w>
按 下</w>
指 认</w>
拍 到</w>
拉 动</w>
报 废</w>
折 痕</w>
投 向</w>
技术 性</w>
托尔 斯泰</w>
打 孔</w>
才 干</w>
才 华
手提 包</w>
手 来</w>
手 工艺</w>
所 言</w>
所 著</w>
所 写</w>
战 略
战 时</w>
我 常
我 学</w>
我 同</w>
成 见</w>
成 瘾</w>
成 形</w>
懒 惰</w>
憧 憬</w>
慢 速</w>
愧 疚</w>
愤 世
愤世 嫉
愤世嫉 俗</w>
愈 发</w>
想像 成</w>
想像 力</w>
想 天
想天 开</w>
惯 性</w>
情 人</w>
情 不自禁</w>
悲 观主义</w>
悉 尼</w>
恶 作
恶作 剧</w>
恒温 箱</w>
性 侧</w>
急 切</w>
思考 问题</w>
怀疑 论者</w>
怀 念</w>
快 递</w>
忧 心
忧心 忡
忧心忡 忡</w>
志 同道
志同道 合</w>
必 要条件</w>
必 将</w>
心 痛</w>
心 机</w>
心 存</w>
心 头</w>
心 声</w>
德克萨 斯</w>
德 米特里</w>
德 尼
德尼 柔</w>
德 修斯</w>
德 伯格</w>
得 病</w>
很 难
征 收</w>
彼 得
形 文字</w>
录 影</w>
归 还</w>
归 来</w>
强 国</w>
强 加</w>
弹 射</w>
弗吉 尼亚</w>
弗 雷</w>
异 教徒</w>
异 想天开</w>
开 花</w>
开 拓
开 幕
开 创性</w>
开 出</w>
建筑 工人</w>
建 材</w>
延 展</w>
康 奈
店 员</w>
底 座</w>
床 边</w>
庆 典</w>
年轻 一代</w>
年 幼</w>
平面 设计</w>
常 有</w>
带 菌者</w>
帐 户</w>
帐 号</w>
希伯 来</w>
希 里</w>
希 拉里</w>
布什 总统</w>
布 达佩斯</w>
布 罗德</w>
布 料</w>
布 利</w>
布 伦
市场 经济</w>
巴 里</w>
巴 拉</w>
已 故</w>
差 异性</w>
差 劲</w>
左 转</w>
工 头</w>
巡 逻</w>
崩 塌</w>
岩 浆</w>
山 洞</w>
展 厅</w>
屏 障</w>
屏 住</w>
局 限性</w>
尿 布</w>
尾 部</w>
尼古 拉</w>
尼亚 大学</w>
尺 子</w>
就 职</w>
就 会</w>
尝 尝</w>
尖 峰</w>
小 鸡</w>
小 鸟</w>
小 说家</w>
小 玩意儿</w>
小 家庭</w>
小 姑娘</w>
小 区</w>
小 便</w>
封 闭
察 看</w>
富 足</w>
密歇 根
容 性</w>
实 证</w>
实 现目标</w>
实 不然</w>
定 量</w>
安瑞 科</w>
安全 局</w>
安 静下来</w>
季 度</w>
嫌 疑
威 尔
威 士
妮 弗</w>
妈 的</w>
好 玩儿</w>
女 座</w>
奥利 弗</w>
奥 普拉</w>
奥 多</w>
套 装</w>
奔 走</w>
奔 波</w>
夷 所思</w>
头 条新闻</w>
太阳 镜</w>
太空 飞行</w>
太空 船</w>
太 酷</w>
太 远</w>
太 贵</w>
天 下</w>
大 钱</w>
大 部份</w>
大 笔</w>
大 得多</w>
大 得</w>
大 坝</w>
大 些</w>
多米尼 加</w>
多 谢</w>
多 得</w>
多 哈</w>
外 边</w>
复杂 度</w>
复 印机</w>
壮 举</w>
墙 体</w>
堪 萨
基督 教徒</w>
基因 学</w>
基因 图谱</w>
基 准</w>
培 训
埃 尔</w>
型 机</w>
坦 布尔</w>
坡 度</w>
坚 韧</w>
坚 实</w>
地铁 站</w>
地理 杂志</w>
地 站</w>
地 看</w>
地 来</w>
地 心
地 层</w>
地 为</w>
在此 期间</w>
在 其中</w>
圣地 亚
圣地亚 哥</w>
圣 经上</w>
圣 杯</w>
土耳 其
土 著
图 斯</w>
国际 化</w>
国防 部长</w>
国 籍</w>
固 然</w>
固 化</w>
团结 一致</w>
因果 关系</w>
回顾 历史</w>
回忆 录</w>
回 首</w>
回 溯到</w>
囊 括</w>
喝 茶</w>
喜马拉 雅</w>
喘 病</w>
善 恶</w>
售 卖</w>
哮 喘病</w>
哪 些
哥伦 布</w>
响 亮</w>
哈 利
哈 克</w>
和 尚</w>
呼 应</w>
呼 声</w>
吹 嘘</w>
吸 血鬼</w>
启蒙 运动</w>
启 程</w>
吐 丝</w>
后 腿</w>
后 备</w>
同 龄</w>
同 盟</w>
同 位
同位 素</w>
同 仁</w>
同 一天</w>
合 格</w>
合 伙
合伙 人</w>
各 方</w>
各 异</w>
史 诗</w>
可 食用</w>
可 靠
可 贴</w>
只 管</w>
古 董</w>
口 吻</w>
变 色</w>
变 更</w>
变 得
变 冷</w>
取得 胜利</w>
发言 权</w>
发出 声音</w>
发 行
发 掘
发 抖</w>
发 射
反 弹</w>
原 话</w>
厚 度</w>
历史 长河</w>
历 时</w>
卷 起</w>
危 地马拉</w>
印第 安</w>
卫生 间</w>
卫 队</w>
卡罗 琳</w>
卡 雷
卡 克伦</w>
卡 什</w>
占 星
博 爱</w>
南 边</w>
南 半球</w>
卖 出去</w>
半 月</w>
半 个世纪</w>
千 里</w>
千 次</w>
千 万年</w>
十分 困难</w>
十二 月</w>
医务 人员</w>
区 区</w>
匪 夷所思</w>
化 解</w>
化 物</w>
匆 忙</w>
包 厢</w>
势 头</w>
劳 作</w>
劲 儿</w>
助 理</w>
动 力
加尔各 答</w>
加 进来</w>
剥 开</w>
剑桥 大学</w>
前 去</w>
前 任</w>
前 世</w>
刺 绣</w>
制 表</w>
制 约</w>
利 用
创 始</w>
创 可贴</w>
创 办
划 算</w>
切 口</w>
切 割
分 解成</w>
分 界线</w>
出生 地</w>
出 资</w>
出 炉</w>
出 手</w>
出 场</w>
几何 学</w>
几 项</w>
几 英里</w>
几 秒</w>
几 句话</w>
减 半</w>
凉 爽</w>
准 许</w>
净 水</w>
冷 水</w>
决 赛</w>
决 议</w>
冰激 凌</w>
冰 解面</w>
冰 淇淋</w>
冰 冻</w>
军事 行动</w>
军事 力量</w>
写 实</w>
写 书</w>
再 次
册 子</w>
内 阁</w>
其 实不然</w>
其 妙</w>
兴 盛</w>
关系 网</w>
关 节炎</w>
共 通</w>
共 进午餐</w>
六 百</w>
公 告</w>
公 司
全部 都是</w>
全 神贯注</w>
全 年</w>
先 说</w>
先 看</w>
僧 伽</w>
停止 使用</w>
假 象</w>
倾 诉</w>
借 着</w>
借 助于</w>
修 订</w>
保护 环境</w>
保 密</w>
保 安</w>
保 姆</w>
俄勒 冈州</w>
侵 袭</w>
侵 扰</w>
侵 占</w>
依赖 性</w>
侏 罗纪</w>
佳 肴</w>
作 响</w>
何 等</w>
何 时
何 为</w>
何 不</w>
体 面</w>
体 细胞</w>
体 力</w>
住 院</w>
伸 手</w>
伦理 道德</w>
伤 亡</w>
传统 意义</w>
传 播
传 授给</w>
传 导</w>
传 奇
传 出</w>
会 犯</w>
会 令</w>
优 先
伊斯 坦布尔</w>
伊 拉克
份 子</w>
以 待</w>
以 内</w>
他 妈的</w>
从 现在起</w>
今 天
亿 颗</w>
亿 万
人机 界面</w>
人 格
人 时</w>
亲 缘</w>
亮 点</w>
亮 光</w>
产品 设计</w>
交通 系统</w>
交叉 路口</w>
交 到</w>
亚 州</w>
亚 伯特</w>
五 位</w>
互相 帮助</w>
互 利</w>
二十 万</w>
了 吧</w>
书 架上</w>
之 神</w>
之 初</w>
义 工</w>
为 食</w>
丰富 多彩</w>
中 所</w>
个 儿</w>
丧 命</w>
严 格
两 栖
两 台</w>
两 党</w>
丝 腺</w>
东 北部</w>
业 绩</w>
业 界</w>
专业 训练</w>
不能 容忍</w>
不知所 措</w>
不相 干</w>
不 顾
不 需</w>
不 锈钢</w>
不 成</w>
不 懈</w>
不 息</w>
不 尽
不 入</w>
不 值</w>
下 雪</w>
下 跌</w>
下 会</w>
上 用</w>
上 取</w>
上 半
上 加
上 任</w>
三 年级</w>
万 有引力</w>
万 元</w>
七 天</w>
一般 而言</w>
一 顶</w>
一 罐</w>
一 盘</w>
一 朵</w>
一 层层</w>
一 夜
一 味</w>
一 吨</w>
一 些
一 两
一 世</w>
y c
w a</w>
v in</w>
um p</w>
ul l</w>
u p</w>
u ff
u c
t t</w>
s c
ros of
rosof t</w>
ric k</w>
ri n</w>
ou r</w>
ou ld</w>
oo d</w>
ol ing
oling o</w>
og r
oc k
n or
n a</w>
m y</w>
li e</w>
l and</w>
k y</w>
j i</w>
it t
ing er</w>
il y</w>
i es</w>
i T
ha r</w>
f lix</w>
ep hen</w>
ed y</w>
at h</w>
arre tt</w>
ar ch</w>
ar a</w>
ak i</w>
Y ves</w>
X 射线</w>
Wil son</w>
Wal ker</w>
V enter</w>
Th e
Te ch
T al
T P</w>
St ephen</w>
S ur
S in
Rob in
Red dit</w>
Re ed</w>
Rag u</w>
RI AA</w>
R on</w>
R iv
R S</w>
R D
Pre go</w>
Phot oshop</w>
Oli ver</w>
Net flix</w>
NG O</w>
N a
N O
Mo b
Mic rosoft</w>
M ull
M os
M in
M er
M L</w>
Le g
L u
L os</w>
L au
L I
K iki</w>
Jac qu
J a
I n</w>
I P</w>
Gre y</w>
G h
G ary</w>
Fran k</w>
F ide</w>
Ev elyn</w>
E l</w>
E S
Du olingo</w>
Donn ell</w>
D ick
Ch in
Ch a
Car ol
C or
C al
C E</w>
C C</w>
Bur n
Bo b</w>
Bl ack
Bar ric
B en</w>
B al
Al an</w>
Agn es</w>
A ri
A hm
A L
8 2</w>
40 1</w>
4 0000</w>
2 5000</w>
2 4
196 9</w>
196 6</w>
190 8</w>
19 40</w>
19 0</w>
10 0000</w>
1 5000</w>
1 5
1 37</w>
0 8</w>
黑 白
黑 岗</w>
黏 土</w>
麻 省</w>
麦 迪
麦迪 逊</w>
鲁 米</w>
鲁 扎</w>
鱼 肝
鱼肝 油</w>
高中 毕业</w>
高 盛</w>
高 强度</w>
骨 髓
骨 子里</w>
驾驶 者</w>
驶 向</w>
马里兰 州</w>
马拉 维</w>
马 铃
马铃 薯</w>
马 歇尔</w>
香 草</w>
饮 食
餐 巾
餐巾 纸</w>
飞利 浦</w>
飞 扬</w>
飙 升</w>
风 速</w>
风 景
颇 为</w>
预 设</w>
顿 大学</w>
顺 应</w>
顺 利
音 译</w>
音 节</w>
音 盲</w>
音 器</w>
静 音</w>
青 铜</w>
青 睐</w>
霸 王
霸王 龙</w>
露 天</w>
雷 诺</w>
雷 曼</w>
雷 克</w>
零 开始</w>
集 结</w>
集 权</w>
雄 性激素</w>
难 怪</w>
院 里</w>
陈 词
陈词 滥调</w>
陆 战
陆战 队</w>
阿尔 茨
阿尔茨 海
阿尔 及利亚</w>
阵 列</w>
阳 光
防 暴</w>
防 晒
防晒 霜</w>
队 友</w>
间 隔</w>
间 歇
闲 逛</w>
问 候</w>
闪 耀</w>
长 方形</w>
长 岛</w>
长 存</w>
销 毁</w>
销 书</w>
铺 设</w>
铁 杉</w>
钻 油</w>
钓鱼 者</w>
金融 学</w>
重大 突破</w>
重大 意义</w>
重 重
重 负</w>
重 来</w>
重 担</w>
里 程
释 放出来</w>
采 摘</w>
酷 刑</w>
邻 居
那 份</w>
那 件</w>
避孕 药</w>
遮 住</w>
遗 漏</w>
道义 上</w>
造 物</w>
逝 世</w>
通用 汽车</w>
通 路</w>
递 质</w>
选 取</w>
逃 生</w>
适应 力</w>
适 量</w>
送 回</w>
追 捕</w>
迷 路</w>
迷 住</w>
迫 在
迫在 眉
迫在眉 睫</w>
迪 生</w>
迪 克</w>
连 同</w>
远 征</w>
远 大</w>
进 军</w>
这 来</w>
这 支</w>
这 名</w>
运动 会</w>
过 热</w>
辅 助
轻 而易
轻而易 举</w>
轶 事</w>
轮 车</w>
身体 语言</w>
身 着</w>
身 子</w>
跳 入</w>
路易 斯
路 西</w>
路 易</w>
距 今</w>
足 足</w>
足 有</w>
越 发</w>
超 重</w>
超 速</w>
超 文本</w>
起 先</w>
赶 走</w>
走 入</w>
赛 跑</w>
赛 因</w>
赔 偿</w>
资 料
贴 纸</w>
贫 民</w>
账 单</w>
贝 叶
贝叶 斯</w>
象 牙</w>
豆 子</w>
谱 写</w>
谦 逊</w>
调 质</w>
读 物</w>
说 点</w>
语言 文字</w>
语言 学家</w>
语 调</w>
语 境</w>
详 细
诗 作</w>
词 来</w>
词 典</w>
证 词</w>
证 件</w>
论 断</w>
论 战</w>
许 多种</w>
让你 在</w>
订 定</w>
订 单</w>
计算 能力</w>
警 报</w>
警 戒</w>
言 自
触 摸
触 控
解 析
解析 度</w>
览 室</w>
视 错觉</w>
观 景
观景 台</w>
见 鬼</w>
见 见</w>
要 长</w>
要 死</w>
西 红
西红 柿</w>
装 成</w>
袖 子</w>
袋 鼠</w>
衰 弱</w>
表 象</w>
表 扬</w>
表 弟</w>
表 亲</w>
补 给</w>
街 小巷</w>
血 糖</w>
蜿 蜒</w>
蜡 笔</w>
蜜 多</w>
薇 薇
薇薇 安</w>
蓓 卡</w>
葛 兰
葛兰 丁</w>
落 于</w>
萨 克</w>
菌 株</w>
获奖 者</w>
莫 名
莫名 其妙</w>
草 莓</w>
苹果 派</w>
若 干
苏 斯</w>
芳 香
花 瓶</w>
花 园
芭蕾 舞</w>
芭 比
芭比 娃娃</w>
节 拍
节拍 器</w>
艺术 馆</w>
艺 人</w>
色 调</w>
航 拍</w>
致 命
致 力</w>
致 使</w>
至 终</w>
臭名 昭著</w>
臭 氧</w>
自行 车道</w>
自我 实现</w>
自我 介绍</w>
自动 售货机</w>
自 转</w>
自 责</w>
自 此</w>
自 古
自古 以来</w>
自 助</w>
自 以为
自以为 是</w>
自 主
腹 腔
腹腔 镜</w>
腰 部</w>
腐 朽</w>
脸 庞</w>
脸 书</w>
脑 内</w>
脏 水</w>
脂肪 酸</w>
能 量
能 耗</w>
能 以</w>
胸 口</w>
胶 质</w>
胶 水</w>
胜 利
胜 出</w>
胎 盘</w>
胆 固醇</w>
肩 并肩</w>
肥皂 剧</w>
肤 浅</w>
肉 食</w>
职 场</w>
聊 天
耐 药</w>
而 降</w>
而 过</w>
而 起</w>
而 复
而复 始</w>
耀 眼</w>
美国 空军</w>
美 联
罚 款</w>
罚 单</w>
编 号</w>
缔 造</w>
绿 化</w>
维 护
维 克</w>
维 他命</w>
续 下去</w>
经 纪
经纪 人</w>
经 合
经合 组织</w>
终 究</w>
细胞 核</w>
细胞 分裂</w>
线 图</w>
纽约 大学</w>
纺织 品</w>
纳 闷</w>
纳 粹
纳 特</w>
红 灯</w>
红 光</w>
繁 盛</w>
繁 忙</w>
紧 迫</w>
索 托</w>
精确 度</w>
精 明</w>
精 力
箴 言</w>
管 辖</w>
管 治</w>
算 算</w>
简 约</w>
简 历</w>
答 对</w>
等 候</w>
第一 组</w>
第一 眼</w>
第一 座</w>
第一 句</w>
第 一名</w>
笑 容</w>
端 的</w>
窥 探</w>
穆 提</w>
移 动性</w>
积极 分子</w>
秘 方</w>
种 植
种 人</w>
私有 化</w>
私 下</w>
福 克斯</w>
神经 递质</w>
神经 病</w>
社会 活动</w>
社 区
示 着</w>
示 威</w>
碳 纳米管</w>
碳 纤维</w>
碧 翠
硫 磺</w>
破 译</w>
研究 课题</w>
短 语</w>
知之 甚
知之甚 少</w>
着 装</w>
真 伪</w>
看 清楚</w>
省 钱</w>
相互 连接</w>
相 隔</w>
相 较</w>
目 以待</w>
目 了
目了 然</w>
盛 大</w>
盘 旋</w>
盈 利性</w>
皮 特</w>
皆 知</w>
百思 买</w>
百分之 三</w>
白 脱</w>
登 月</w>
痛 心</w>
痊 愈</w>
症 结</w>
病 床</w>
疲 劳</w>
畸 形</w>
番 茄</w>
略 微</w>
畅 销书</w>
畅 游</w>
画 成</w>
电话 线</w>
电话 簿</w>
电脑 屏幕</w>
电磁 波</w>
电子 元件</w>
电 动
田 野</w>
用 电量</w>
用 电器</w>
生殖 器</w>
生 效</w>
甜 点</w>
甘 愿</w>
瓦 格纳</w>
瓦 斯</w>
瑕 疵</w>
理论 家</w>
理所 应当</w>
理工 大学</w>
理 解
球 形</w>
班 上</w>
珍 珠</w>
玻璃 窗</w>
现 阶段</w>
环 形
环形 山</w>
猎 鹰</w>
狭 小</w>
状 动脉</w>
犯罪 现场</w>
犯 错误</w>
特 立
牧 草</w>
牙 线</w>
爱 迪生</w>
爱 是</w>
然无 恙</w>
焦 距</w>
焦 油</w>
热 身</w>
热 狗</w>
烦 躁</w>
烟 草</w>
点 到</w>
点 击
炎 症</w>
炎 热</w>
灵 敏</w>
火 热</w>
灌木 丛</w>
潮 汐</w>
潜水 员</w>
潜 到</w>
演 化
滴 灌</w>
滨 海</w>
满 满
滑 雪
游 牧</w>
游 乐
游乐 场</w>
港 湾</w>
温 床</w>
清洁 剂</w>
清晰 度</w>
深入 研究</w>
深入 人心</w>
涵 义</w>
消防 车</w>
消 息
涂 料</w>
海军 陆战队</w>
海 床</w>
浮 冰</w>
浓 厚</w>
浑 然
浑 浊</w>
测 算</w>
流 线型</w>
流 畅</w>
流 水</w>
流 利</w>
流 出</w>
洋 流</w>
波 浪</w>
法 老</w>
法 拉
河 岸</w>
没 完</w>
沙 特</w>
沉 迷</w>
沉 溺
汽车 行业</w>
汽车 公司</w>
池 子</w>
汉 姆</w>
永 续</w>
水 温</w>
水 来</w>
气 罐</w>
毛骨 悚
毛骨悚 然</w>
毛细 血管</w>
毕 加索</w>
比利 时</w>
比 不上</w>
毒 瘾</w>
每 桶</w>
每 星期</w>
每 加仑</w>
每 件</w>
每 人
母 猪</w>
毁 容</w>
残 害</w>
死 因</w>
歪 曲</w>
此 举</w>
正 正</w>
欺 负</w>
欢 喜</w>
横 溢</w>
模 糊
概念 化</w>
楼 里</w>
楷 模</w>
梦 魇</w>
梅 尔沃德</w>
格 鲁
格 雷
格 拉</w>
格 勒</w>
校 区</w>
柯 罗迪</w>
林 地</w>
林 中</w>
构 件</w>
极 有</w>
杰 米</w>
来来 回
来来回 回</w>
李 奥
杀 人
木 屋</w>
朝 一日</w>
服务 提供
朋 克</w>
有 罪</w>
有 线</w>
有 朝一日</w>
最高 点</w>
最高 峰</w>
最 深处</w>
最 想</w>
最 小
最 合适</w>
最 出色</w>
最 优</w>
曝 光</w>
曙 光</w>
暴 发</w>
暗 示着</w>
暑 假</w>
晚 宴</w>
晚 些时候</w>
昵 称</w>
昭 示</w>
星期 四</w>
星期 六</w>
星期 二</w>
昏 暗</w>
时间 跨度</w>
时间 表</w>
时间 推移</w>
时代 周刊</w>
时 炸弹</w>
早 年</w>
早 前</w>
日常 用品</w>
日 照</w>
日 内
日内 瓦</w>
无法 解释</w>
无数 次</w>
无所 事事</w>
无所 不在</w>
无一 例外</w>
无 霸</w>
无 限
无 菌</w>
无 私</w>
无 效</w>
无 故</w>
无 奈</w>
无 名</w>
无 可</w>
旅行 家</w>
施加 压力</w>
施 舍</w>
新鲜 空气</w>
新 车</w>
斯 洛
斯 托克</w>
斯 塔</w>
斯 利</w>
断 言</w>
文化 大革命</w>
整 洁</w>
整 形</w>
数据 流</w>
数以 百计</w>
数 额</w>
数 百年</w>
敌 对</w>
政治 上</w>
放大 镜</w>
放 任</w>
改 装</w>
收 起</w>
支 援</w>
撕 掉</w>
摩 擦
搭 桥</w>
搁 置</w>
插 进</w>
推进 器</w>
推 导</w>
推 倒</w>
接 待</w>
接 入</w>
排 版</w>
挽 回</w>
挨 户</w>
挨 家
挨家 挨户</w>
挣 得</w>
挖 出来</w>
按 住</w>
指 南
指南 针</w>
拿 下</w>
拳 头</w>
拭 目以待</w>
拦 截</w>
拍卖 会</w>
拉 玛</w>
拉 尼</w>
拉 勒
抵 触</w>
折 射</w>
抗 原</w>
投 诉</w>
抄 袭</w>
技术 含量</w>
扶 持</w>
扰 乱</w>
打 头</w>
打 住</w>
打 人</w>
才华 横溢</w>
手术 台上</w>
手 无
手 推车</w>
手 持</w>
手 做</w>
所 获</w>
所 花</w>
戴 维斯</w>
截 图</w>
战 线</w>
战 地</w>
我爱 你</w>
我 进</w>
我 开</w>
我 发</w>
我 作</w>
成 倍</w>
慷 慨
感到 高兴</w>
愚 昧</w>
惰 性</w>
惯 用</w>
惨 剧</w>
惠特 克</w>
情 局</w>
悬 殊</w>
悬 念</w>
恶 意</w>
恶 性</w>
恩 惠</w>
恒 定</w>
总 计</w>
总 得</w>
怪 的</w>
怪 怪的</w>
怨 恨</w>
性 别
性 伴侣</w>
忠 告</w>
志 向</w>
忍 耐</w>
心 流</w>
德 雷克</w>
微 观世界</w>
微 秒</w>
很难 说</w>
影 星</w>
彩 色
形 态
录像 带</w>
归结 为</w>
归 纳</w>
归 咎
归咎 于</w>
强迫 性</w>
强 韧</w>
强 加
弱 力</w>
弯 折</w>
弗 里
引 言</w>
开发 新</w>
开 张</w>
开 动</w>
延 续下去</w>
康 复
座 头</w>
庙 宇</w>
应 是</w>
应 变</w>
幼 仔</w>
幸福 生活</w>
并不 大</w>
平衡 点</w>
平 常人</w>
帝 保佑</w>
希 波</w>
巴西 人</w>
巴尔 干
巴 德</w>
巴 哈马</w>
已 婚</w>
差 错</w>
巨大 成功</w>
巨 石</w>
巨 无霸</w>
州 立</w>
岩 层</w>
居 所</w>
尿 液</w>
尽 所能</w>
尽 其
尘 埃</w>
尖 端
尔 迪</w>
少数 派</w>
少数 几个</w>
少 见</w>
小 群</w>
小 盒子</w>
小 溪</w>
小 朋友</w>
小 布什</w>
小 团体</w>
小 册子</w>
射 到</w>
寓 言</w>
密西西 比</w>
宿 舍</w>
宾夕法 尼亚</w>
家庭 暴力</w>
家庭 主妇</w>
家 糊口</w>
家 畜</w>
客 户
实际 行动</w>
实 惠</w>
实 习
宝贝 儿</w>
定 论</w>
定 时炸弹</w>
定 位
定 下</w>
完 好
安 逸</w>
安 然无恙</w>
安 心</w>
安 哥
安哥 拉</w>
学 识</w>
学 生
字 眼</w>
子 孙
嬉 皮</w>
媒 体
婴 儿
威廉 斯</w>
始 终
始 祖</w>
姆 雷特</w>
好 评</w>
好 多
好 不好</w>
奶 油</w>
奴隶 制度</w>
女 性主义</w>
奥古 斯丁</w>
奥 布里</w>
奥 克兰</w>
契 合</w>
奎 琳</w>
奎 因</w>
头 号</w>
失 灵</w>
夫 斯基</w>
夫 德</w>
夫 兰</w>
太 长</w>
太 迟</w>
太 美</w>
太 慢</w>
天主 教徒</w>
天 而降</w>
大不 列颠</w>
大 街小巷</w>
大 略</w>
大 法官</w>
大 开
大 头
大 图书馆</w>
多 长</w>
夏 日</w>
夏 令
夏令 营</w>
复 制
处 置</w>
处 处</w>
增 添</w>
填 字游戏</w>
塞 进</w>
塞 缪尔</w>
塞 满</w>
塑料 制品</w>
堵 车</w>
堪 称</w>
基本 概念</w>
基因 工程</w>
基 座</w>
基 准
域 名</w>
型 号</w>
垃圾 邮件</w>
垃圾 场</w>
坦 率</w>
坡 路</w>
均 匀</w>
地下 水</w>
地 基</w>
在 政治上</w>
图 鲁</w>
园 区</w>
回 收
四 号</w>
四 分钟</w>
囚 徒</w>
器 具</w>
嘻 哈</w>
嘲 弄</w>
喷 口</w>
喷 剂</w>
啊 啊</w>
啊 啊啊</w>
商品 化</w>
唐 纳</w>
哈 德
咚 咚</w>
咖啡 机</w>
呼 气</w>
周 边
周 而复始</w>
周 三</w>
告 诫</w>
启 动
听 懂</w>
含 着</w>
否 决</w>
君主 制</w>
后 裔</w>
同 卵</w>
同 僚</w>
吉 斯</w>
吉 拉</w>
合 板</w>
各个 领域</w>
吃 晚饭</w>
右 转</w>
右 倾</w>
可靠 性</w>
可 贵</w>
可 见
可 用性</w>
叫 醒</w>
叫 法</w>
另一 侧</w>
口 服</w>
变 种</w>
变 体</w>
受 精</w>
受 孕</w>
取 样</w>
取 向</w>
发言 人</w>
发 送到</w>
发 芽</w>
发 病率</w>
发 来</w>
发 散</w>
发 扬</w>
发 布
发 到</w>
反 省</w>
双 曲</w>
双 层</w>
参与 度</w>
参 赛</w>
压缩 成</w>
卵 子</w>
印刷 品</w>
卫 士</w>
卡雷 贝</w>
卡通 画</w>
卡通 人物</w>
卡罗 尔</w>
卡 鲁扎</w>
卡 洛
卡 斯特</w>
卡 斯</w>
占 地面积</w>
占 地</w>
占 卜</w>
博茨 瓦纳</w>
博弈 论</w>
博 诺</w>
博 林</w>
南 希</w>
单 车</w>
单 向</w>
半 透明</w>
半 导体</w>
千 美元</w>
千 瓦</w>
千 名</w>
十二 个</w>
十 多年</w>
十 几年</w>
北 非</w>
助 听器</w>
动 器</w>
加 里</w>
加 糖</w>
加 在一起</w>
办公 大楼</w>
力 求</w>
剪 纸</w>
剧 情</w>
前所未 见</w>
前 瞻
前 期</w>
刻 起</w>
刻 苦</w>
刻 板</w>
刺 眼</w>
刺 激
制 药
利益 冲突</w>
利 店</w>
初 中</w>
创新 能力</w>
列 为</w>
划 过</w>
分子 生物学</w>
分 区</w>
击 打</w>
击 垮</w>
出生 率</w>
出 钱</w>
出 租</w>
凯 尔</w>
凭 空</w>
几 分</w>
几 件</w>
几 代人</w>
减 退</w>
况 且</w>
冠 状动脉</w>
军 备</w>
再 举</w>
养老 金</w>
养 家糊口</w>
具体 来说</w>
其 所</w>
其 二</w>
关注 点</w>
关注 度</w>
共 和</w>
兰 利</w>
六 百万</w>
六 天</w>
六 到</w>
公共 场所</w>
公 关</w>
八 月</w>
八 万</w>
全 能</w>
全 方位</w>
全 息</w>
全 场</w>
全 力
入 学</w>
党 员</w>
克里斯蒂 娜</w>
克拉 底</w>
克利 夫兰</w>
克 里克</w>
克 曼</w>
克 斯坦</w>
光 顾</w>
先入 为主</w>
儿 女</w>
僵 硬</w>
储 藏
偷 盗</w>
偷 猎者</w>
偷 猎</w>
偶 然
健 身</w>
健 将</w>
偏 偏</w>
借 来</w>
候 选</w>
倒 数</w>
倒 入</w>
修 整</w>
修 好</w>
信号 灯</w>
保守 党</w>
保 育</w>
保 有</w>
俄 克拉
便 利店</w>
侯 赛因</w>
供 养</w>
使用 暴力</w>
使 者</w>
你 们
你们 好</w>
佛 教徒</w>
何 用</w>
何 地</w>
何 从</w>
体育 场</w>
体 征</w>
住 脚</w>
住 在一起</w>
低 效</w>
低 头</w>
伴 着</w>
伯 里</w>
传 输
会 堂</w>
会 动</w>
优 待</w>
优 于</w>
休息 时间</w>
伍 夫德</w>
伊拉克 人</w>
伊 迪
伊 娃</w>
任 期</w>
任 命</w>
以 继
令人 难忘</w>
令人 称奇</w>
令人 厌恶</w>
令人 信服</w>
代 代</w>
仙 子</w>
仙 人
从 零开始</w>
从 天而降</w>
亿万 富翁</w>
亿 分</w>
人口 众多</w>
人 质</w>
人 脸</w>
人 民
人 写</w>
亮 度</w>
产 妇</w>
交 际</w>
些 小</w>
亚历山 大图书馆</w>
亚 拉</w>
五 百年</w>
五 年级</w>
五 千万</w>
互 惠</w>
二十 多岁</w>
二十 亿</w>
二十 个</w>
二 是</w>
二 分之一</w>
二 世</w>
书 页</w>
九 十</w>
乔治 敦</w>
乐 子</w>
乐 在其中</w>
乎 寻常</w>
乌 龟</w>
之 王</w>
之 歌</w>
之 星</w>
之 意</w>
之 急</w>
举 足轻重</w>
丽 蓓卡</w>
主人 公</w>
主 题
主 演</w>
主 教</w>
为人 所知</w>
为 期</w>
临 终
丰 厚</w>
中间 人</w>
中东 问题</w>
中 非</w>
中 说</w>
中 情局</w>
中 将</w>
中 产</w>
个 州</w>
个 例</w>
两 股</w>
两 端</w>
两 方</w>
两 千五百</w>
丢 脸</w>
世 卫</w>
专业 化</w>
专 利
不 靠</w>
不 计</w>
不 算
不 看</w>
不 拔</w>
不 当</w>
不 容
不 如
不 列颠</w>
不 公</w>
下 坡路</w>
上 路</w>
上 床</w>
上 帝保佑</w>
三 維</w>
三 百
三 张</w>
万 辆</w>
万 分之一</w>
万 分之</w>
一夜 之间</w>
一切 顺利</w>
一万 两千</w>
一丁 点</w>
一 路上</w>
一 目了然</w>
一 现</w>
一 整</w>
一 打</w>
一 扇门</w>
一 战</w>
一 心
一 律</w>
一 带</w>
一 大部分</w>
一 包</w>
一 击</w>
一 具</w>
z we
y ou</w>
wat er</w>
va o</w>
v ia</w>
un g</w>
u re
u p
t a
s s</w>
ro ve</w>
rig ht</w>
ri e</w>
ot o</w>
oo p</w>
ol by</w>
n g</w>
m on
l y</w>
k ut</w>
iz on</w>
it o</w>
iss ion</w>
is t</w>
i x</w>
i er
i al</w>
hu a</w>
hi r
he ad</w>
g l
g en
f ord</w>
f or
ett e</w>
es h</w>
em ail</w>
el son</w>
e x</w>
di e</w>
ch ell</w>
c os
c la
b er</w>
at ur
at t
ar i</w>
ann a</w>
and a</w>
am a</w>
ad y</w>
a a
You ng</w>
U E</w>
T im
T ar
T K</w>
T 20</w>
Stan ley</w>
S t</w>
S im
S ev
S eth</w>
S ec
S ak
S K</w>
S E</w>
S ARS</w>
R ory</w>
R it
R ick</w>
R i
R h
R ach
Pran av</w>
P ro
P or
Or kut</w>
O p
O E
Nic ole</w>
N ov
N ick</w>
N elson</w>
N D
Mit chell</w>
M ur
M A
Lyn n</w>
Lay ma</w>
L ot
L ev
L a</w>
K r
Ju an</w>
Jos hua</w>
J on</w>
J ill</w>
I Q</w>
H yp
H y
H om
H en
Gra ham</w>
Ge o
Gal vao</w>
G ri
G il
G at
F r
Ed w
E ll
E li
E le
D olby</w>
CA T</w>
C r
C onn
C li
C am
C R
C I
Br un
Boy le</w>
Bon o</w>
B re
B M
Av el
Arth ur</w>
And y</w>
Alex ander</w>
Al t
Al isa</w>
A L</w>
9 9
6 3</w>
4 500</w>
197 1</w>
195 8</w>
18 58</w>
1. 3</w>
1 3
1 100</w>
0. 2</w>
鼻 祖</w>
鼓 掌声</w>
麦 金
麦 子</w>
鹿 特
鹿特 丹</w>
鹦 鹉</w>
鲍 威尔</w>
鲁 莽</w>
鲁 克</w>
鱼 业</w>
魔 幻</w>
高 超</w>
高 智商</w>
高 得</w>
高 危</w>
高 分辨率</w>
骗 人</w>
骑 着</w>
验 尸</w>
驾驶 座</w>
马尔 萨斯</w>
马 蒂</w>
马 蒂
马 来
马 德
马 哈</w>
马 丁
马丁 路德</w>
首 选</w>
首 当
首当 其
首当其 冲</w>
食 肉
食肉 动物</w>
食 人
食人 族</w>
食 主义者</w>
飞速 发展</w>
颈 部</w>
领 队</w>
颂 扬</w>
顾 及</w>
顽 强</w>
顺 带</w>
顶 障</w>
音乐 创作</w>
面包 皮</w>
面包 店</w>
面 条</w>
非洲 地区</w>
非 裔</w>
青 年人</w>
霍普 金斯</w>
霍 布斯</w>
霍 夫
零 售</w>
雪 茄</w>
雪 佛
雕塑 家</w>
雕 刻
雕刻 家</w>
雏 菊</w>
集装 箱</w>
集 资</w>
集 聚</w>
雅 虎</w>
隔 壁</w>
隐 含</w>
陡 峭</w>
陆 上</w>
陀 罗</w>
阿特 金</w>
阿 巴</w>
阴 茎</w>
防 空洞</w>
防 盗</w>
防 御
阅 读
阀 门</w>
间歇 泉</w>
闯 入</w>
问 责
问责 制</w>
闭 合</w>
闪 闪
门 琴</w>
门 托</w>
门 厅</w>
门 上</w>
长 袍</w>
长 吻</w>
错 失</w>
销售 员</w>
销 商</w>
钱 德勒</w>
钦 佩</w>
金融 业</w>
金 额</w>
金 牌</w>
重新 排列</w>
重 金属</w>
重 奏</w>
重 回</w>
重 任</w>
里程 碑</w>
里 边</w>
里 得</w>
醒 悟</w>
酒 鬼</w>
酒 神</w>
配 乐</w>
邮 报</w>
邮 寄</w>
那 首</w>
那 间</w>
那 类</w>
那 本</w>
那 双</w>
邓 小
邓小 平</w>
道 来</w>
道 奇</w>
道 夫</w>
逾 越</w>
造 林</w>
造 假</w>
通 讯
通 感</w>
递 送</w>
透 顶</w>
逃 过</w>
适 中</w>
送 出去</w>
追 求
迸 发</w>
迷 上</w>
述 说</w>
迥 异</w>
连 成</w>
进 进
进进 出
进进出 出</w>
这么 回事</w>
这 款</w>
这 会儿</w>
这 代人</w>
这 人</w>
这 两项</w>
这 两点</w>
还 行</w>
近 在
近 代</w>
近 亲</w>
运输 系统</w>
迎 面</w>
过 日子</w>
迅 猛</w>
辨 认出</w>
辛 普森</w>
输 出
较 少</w>
轻 声</w>
轻 便</w>
软 盘</w>
轮 流</w>
车 间</w>
车 臣</w>
身 影</w>
身 形</w>
踢 足球</w>
跟 前</w>
跑 步
跑步 机</w>
趴 在</w>
足 球
越南 战争</w>
越 长</w>
越 加</w>
越 久</w>
超 凡</w>
起 家</w>
赶 出</w>
赫 尔
资本 家</w>
贾 德</w>
购买 力</w>
财政 部</w>
负 着</w>
负 债</w>
贝 尔
象 牙
谢谢 您</w>
谢 尔曼</w>
谜 题</w>
谈判 桌上</w>
谈判 桌</w>
谈 论
谈论 着</w>
调 料</w>
课 上</w>
诺 依
诺依 曼</w>
请 教</w>
说 错</w>
说 成</w>
诡 计</w>
话 故事</w>
诚 恳</w>
诙 谐</w>
试验 者</w>
试 镜</w>
诊 器</w>
评论 员</w>
设 在</w>
记 起</w>
认真 思考</w>
詹 妮弗</w>
言 以
触摸 屏</w>
触 手
触手 可及</w>
触 即
触即 发</w>
觉得 很
觉 察</w>
觉 察
觉察 到</w>
观 测
覆盖 率</w>
覆 辙</w>
要 命</w>
西班牙 人</w>
褪 色</w>
装 到</w>
装 作</w>
裁 判</w>
被 告</w>
表现 形式</w>
补 救</w>
补 品</w>
衡 量标准</w>
街 边</w>
衍 生
行政 区</w>
行 径</w>
血 液
蜘 蛛网</w>
蜂 类</w>
蜂 窝</w>
蜂 拥
蜂 后</w>
虚 无</w>
虚 弱</w>
虐 囚</w>
蓬 勃
蓝 调</w>
蓝 区</w>
蓄 意</w>
蒂 沃</w>
葡萄 干</w>
落 体</w>
萨 利
萨 克拉
萨克拉 门托</w>
萦 绕
萦绕 在</w>
营 利</w>
菲 亚</w>
菌 种</w>
菌 丝
菌丝 体</w>
获 知</w>
莱 尔</w>
莫 大</w>
莉 娅</w>
荷 马</w>
药 方</w>
荣 格</w>
苗 条</w>
苏 黎
苏 格
苏格 兰人</w>
花园 里</w>
花 缭
花缭 乱</w>
花 点</w>
芝 麻
节省 下来</w>
艾 达</w>
色 色</w>
船 身</w>
船 舵</w>
舱 物</w>
舒 适
致 癌</w>
致 病</w>
致 富</w>
至 极</w>
自由 发挥</w>
自然 通风</w>
自主 性</w>
自 控</w>
膳 食</w>
脸 颊</w>
脱 掉</w>
能量 消耗</w>
能 造</w>
胡 言</w>
胡 扯</w>
胡 克</w>
背 负</w>
肿 块</w>
育 儿</w>
肯塔 基
肯塔基 州</w>
肯 尼斯</w>
肩 部</w>
聘 用</w>
职 务</w>
聊 过</w>
耸 人听闻</w>
耶 鲁</w>
耗 能</w>
耐 力</w>
而 战</w>
而 不
考 博林</w>
老 歌</w>
老 旧</w>
美国 士兵</w>
美 利
羊 群</w>
羊 毛
羊毛 衫</w>
署 名</w>
罗 森</w>
罗 列</w>
网 址</w>
缺 口</w>
缘 无故</w>
编 码
缓 急</w>
维 茨</w>
维 娅</w>
维 夫</w>
统计 数字</w>
统 统</w>
绝 伦</w>
结 婚
经验 教训</w>
经济 上</w>
终极 目标</w>
细胞 组织</w>
线 段</w>
纺 织</w>
纸 牌</w>
纲 领</w>
红 毛</w>
纠 纷</w>
紧 迫
索 菲亚</w>
索 引</w>
素 食主义者</w>
精神 病学</w>
粘 贴</w>
米 长</w>
米 老鼠</w>
米 特</w>
篝 火</w>
算 得</w>
简 便</w>
签 字</w>
筹 钱</w>
筹 资</w>
筑 起</w>
筏 子</w>
筋 疲力
等 会儿</w>
第四 天</w>
第二 次世界大战</w>
第三 步</w>
第三 条</w>
第三 幕</w>
第三 天</w>
第一 首</w>
第一 部</w>
第一 架</w>
第一 手</w>
第一 家</w>
第一 块</w>
第 五个</w>
第 九
笔 下</w>
竭 尽所能</w>
竣 工</w>
穆 雷</w>
穆 尔</w>
稳定 下来</w>
程序 化</w>
积 聚</w>
秘 书</w>
科罗拉 多
科罗拉多 州</w>
科 学院</w>
种 树</w>
私 密</w>
禁 锢</w>
祭 司</w>
神经 外科</w>
祝 贺</w>
社会 变革</w>
社交 活动</w>
示 意图</w>
磁 片</w>
碾 碎</w>
碳 化物</w>
碱 基
碱基 对</w>
确 立</w>
确 凿</w>
硕 大</w>
硕 士学位</w>
破坏 力</w>
破 除</w>
石灰 岩</w>
石 斑
石斑 鱼</w>
知 不知道</w>
瞩 目</w>
睡 不着</w>
睁 睁</w>
睁 开</w>
着 眼</w>
眼 花缭乱</w>
眼 科医生</w>
眼 睁睁</w>
眼 看</w>
真 能</w>
真 不知道</w>
看得 出来</w>
看 护</w>
看 台</w>
看 书</w>
省 下</w>
相 见</w>
相 聚</w>
相 提
相提 并
相提并 论</w>
相 同
相 交</w>
目 击</w>
盗 窃</w>
盖 洛普</w>
盔 甲</w>
益 智</w>
皮 龟</w>
皮 士</w>
百分之 二十五</w>
百万 富翁</w>
百 忧
百忧 解</w>
百 元</w>
百 事
登 记</w>
痒 痒</w>
病 痛</w>
病 态</w>
病 因</w>
病 变</w>
疤 痕</w>
疗 效</w>
疗 养院</w>
留 心</w>
留 住</w>
画 上</w>
电源 插座</w>
电子 计算机</w>
电 阻</w>
电 钻</w>
申请 专利</w>
田纳 西</w>
用 电</w>
用 意</w>
用 地</w>
生物 钟</w>
生产 量</w>
生产 方式</w>
生 成器</w>
生 意
瑞 特</w>
瑞 典
珍 藏</w>
玻璃 片</w>
现 已</w>
现 任</w>
环境 因素</w>
环 视</w>
玫 瑰</w>
玩 过</w>
玩 得</w>
玛丽 亚</w>
献 身</w>
献 上</w>
猜 看</w>
猜 猜看</w>
狱 友</w>
狱 中</w>
狭 义</w>
独 身</w>
狂 人</w>
犹 如</w>
特雷 门琴</w>
特别 之处</w>
特 鲁
特 蕾
特 曼</w>
特 拉
特拉 维夫</w>
牵 扯</w>
物 力</w>
牙 膏</w>
牙 科</w>
版 块</w>
父 辈</w>
父 母亲</w>
爱 滋</w>
爱 护</w>
照 耀</w>
照 明
照 射到</w>
烹 调</w>
热 空气</w>
热 忱</w>
热 心</w>
热 力学</w>
烧 毁</w>
烘 烤</w>
点 线</w>
灵 巧</w>
灰 烬</w>
火 机</w>
潜 伏</w>
满 意
满 怀
溶 液</w>
源 地</w>
湿 度</w>
游牧 民族</w>
游 击
温 馨</w>
添 加
添加 剂</w>
混合 体</w>
混 蛋</w>
深 感</w>
深 圳</w>
淀 物</w>
涌 出</w>
消防 栓</w>
消费 主义</w>
消 音</w>
涂 成</w>
海湾 地区</w>
海岸 边</w>
海 特</w>
海 星</w>
海 伦</w>
浩 大</w>
浇 水</w>
流行 音乐</w>
流 泪</w>
流 动
派 胡言</w>
活 塞</w>
活 体</w>
洞 口</w>
洛 夫</w>
洗 掉</w>
洋 溢</w>
泰晤 士
法 令</w>
治疗 仪</w>
治 病</w>
治 疗法</w>
油 炸</w>
没 有
沉溺 于</w>
沉 淀物</w>
沉 淀</w>
沃 斯</w>
沃 土</w>
沃 克</w>
汽 油
汗 水</w>
水 瓶</w>
水 媒</w>
水 分子</w>
气 孔</w>
毫 克</w>
比较 复杂</w>
比 哈
比哈 尔
比哈尔 邦</w>
每 页</w>
每 一</w>
母 子</w>
母 婴</w>
母 体</w>
残 杀</w>
死亡 数</w>
死 地</w>
死 囚</w>
武 断</w>
此 人</w>
正确 性</w>
正 比</w>
正 想</w>
正 像</w>
正 为</w>
歌 唱
款 项</w>
款 机</w>
欧 语</w>
欧 拉</w>
欧 几
欧几 里得</w>
欣 喜</w>
次 要</w>
次 于</w>
橡皮 筋</w>
植入 物</w>
棕榈 油</w>
检 测器</w>
梳 理</w>
梅 洛</w>
档案 馆</w>
格拉 姆</w>
根本 原因</w>
根 部</w>
根 端</w>
根 于</w>
核糖 核酸</w>
样 貌</w>
样 板</w>
标 牌</w>
查 克</w>
柔 和</w>
染 成</w>
枯 萎</w>
枪 击</w>
果 汁</w>
林 德伯格</w>
极 致</w>
松 散</w>
松 开</w>
杰 奎琳</w>
来 电</w>
来 得
来 举</w>
来 个</w>
束 手无
束手无 策</w>
杜 邦</w>
杉 树</w>
机器 翻译</w>
术 后</w>
本 次</w>
本 国</w>
朗 读</w>
朗 诵</w>
有 条
有 件</w>
有 事</w>
曼 彻
更 远</w>
更 生</w>
更 正</w>
更 会</w>
更 久</w>
曲 柄</w>
暴力 行为</w>
暖 气</w>
暂 且</w>
晾 衣架</w>
智 人</w>
景 致</w>
晚 年</w>
星 级</w>
易 行</w>
易 用</w>
明尼苏 达</w>
明 日</w>
明 了</w>
昆 士
时 时</w>
旱 灾</w>
日 报</w>
日 夜</w>
日 出</w>
日 光
日光 浴</w>
日 俱
既 定</w>
无论 怎样</w>
无所 不知</w>
无 花
无 缺</w>
无 缘无故</w>
无 数个</w>
旅游 业</w>
施 行</w>
新泽 西州</w>
新 视角</w>
新 能源</w>
新 罕
斯 曼</w>
斯 主义</w>
整 条</w>
整 晚</w>
数学 公式</w>
数 不清</w>
敬 佩</w>
敢 肯定</w>
教 程</w>
教 养</w>
敏感 度</w>
政 变</w>
攻击 性</w>
改革 者</w>
改 了</w>
攸 关</w>
收 银
收 成</w>
收 容</w>
攫 取</w>
撕 碎</w>
撒 切尔</w>
撒 丁
撒丁 岛</w>
摸 不着
摸不着 头脑</w>
摊 开</w>
摇 头</w>
摄像 师</w>
摄 于</w>
搭 载</w>
搭 乘</w>
援 救</w>
措 手
措手 不及</w>
推 销员</w>
推 动者</w>
推 动力</w>
推 到</w>
控制 系统</w>
控 性</w>
接 踵
接 线
接 上</w>
探索 频道</w>
探索 者</w>
探 求</w>
掉 下去</w>
据 估计</w>
换 种</w>
捡 起</w>
挣 脱</w>
指 示牌</w>
拥 护</w>
招 牌</w>
招 来</w>
拐 卖</w>
拉 萨</w>
抽 出来</w>
报 警</w>
抚 摸</w>
抚 慰</w>
抗 癌</w>
抒 发</w>
批 判
扶 手</w>
扔 下</w>
打 通</w>
打 火机</w>
打 广告</w>
手 稿</w>
手 柄</w>
手 握</w>
手 提</w>
所 及</w>
所 剩
所剩 无几</w>
戴 森</w>
战 俘</w>
我 过</w>
我 生</w>
我 查</w>
我 应</w>
我 俩</w>
我 于</w>
成 问题</w>
成 虫</w>
成 倍
愤 恨</w>
感染 者</w>
意料 之外</w>
想 通</w>
想 谈</w>
想 而知</w>
惯 常</w>
惭 愧</w>
惨 重</w>
惠特 尼</w>
惊 慌</w>
惊 吓</w>
恼 火</w>
恶性 肿瘤</w>
恶 臭</w>
恳 请</w>
恐怖 组织</w>
恋 人</w>
总 要</w>
性 冲动</w>
怀 旧</w>
快餐 店</w>
快 进</w>
快 克</w>
忧 伤</w>
必 不可
必不可 少</w>
心 肌
心 算</w>
心 目</w>
心 意</w>
心 得</w>
心 境</w>
德 里克</w>
微 薄</w>
微 创</w>
得 失</w>
很 会</w>
待 会</w>
征 程</w>
往 前走</w>
彩 画</w>
形 象
形 色色</w>
形 形色色</w>
当 量</w>
当 务
当务 之急</w>
当 人</w>
当 上</w>
归根 到底</w>
归 零</w>
强烈 建议</w>
强 生</w>
强 悍</w>
强 制性</w>
弗 雷德</w>
弗 里</w>
弗 罗</w>
弗 尔</w>
引 来</w>
弄 乱</w>
异 性恋</w>
异 国</w>
异 乎寻常</w>
开 篇</w>
开 火</w>
开 怀
建筑 工地</w>
康 德</w>
庭 院</w>
废 除</w>
底 端</w>
应 为</w>
应 不
应不 应该</w>
广 为人知</w>
幸福 快乐</w>
并 行</w>
年龄 层</w>
年 青</w>
年 会</w>
平方 公里</w>
平 日</w>
平 地</w>
帮 人</w>
带 头人</w>
带 去</w>
帝国 主义</w>
帕金森 症</w>
帕 尔
布鲁 克</w>
布莱 克</w>
布拉 格</w>
布伦 特</w>
市 面上</w>
市 政</w>
巴 斯
巩 固</w>
巨 轮</w>
左 腿</w>
左 翼</w>
工作 日</w>
巢 癌</w>
岛 国</w>
山 寨</w>
山 区</w>
居 民
局 长</w>
尾 气</w>
尽 量
尼亚 岛</w>
尼 日</w>
尼 加拉
尼加拉 瓜</w>
少 有</w>
小提琴 家</w>
小 虫</w>
小 而</w>
小 偷</w>
导 航
对 着</w>
寓 意</w>
富 兰
富兰 克林</w>
密 封</w>
宾夕法 尼亚州</w>
害 死</w>
室内 空气</w>
宣 誓</w>
实验 者</w>
实用 主义</w>
官 方
完整 性</w>
完 美
安 萨里</w>
安 稳</w>
安 南</w>
守 旧</w>
守 护者</w>
学习 外语</w>
学 来</w>
学 年</w>
学 员</w>
存 亡</w>
存 于</w>
字 面上</w>
字 格</w>
孔 雀</w>
子孙 后代</w>
子 民</w>
嬉 皮士</w>
威斯康 辛</w>
威士 忌</w>
始 至终</w>
妄 想</w>
好 点</w>
奶 瓶</w>
女 神像</w>
奥 米</w>
奥 德
奥 会</w>
奖 品</w>
奇 想</w>
奇 古怪</w>
夺 去</w>
夹 克</w>
头 等
头 皮</w>
头 头</w>
太 多
天 际</w>
天 窗</w>
天 大</w>
天 呀</w>
天 内</w>
天 上
大开 眼界</w>
大大 降低</w>
大大 增加</w>
大 臣</w>
大 纲</w>
大 时</w>
大 忙</w>
大 妈</w>
大 堆</w>
大 军</w>
大 会堂</w>
多 过</w>
多 层</w>
外 皮</w>
复合 材料</w>
声 带</w>
壮 年</w>
士 奇</w>
增 肥</w>
填 饱</w>
塔斯马 尼亚岛</w>
堵 住</w>
堕 落</w>
堆 满</w>
堂 课</w>
基 尔</w>
培训 中心</w>
城 区</w>
埃 拉</w>
垮 掉</w>
坦 率地</w>
坦 人</w>
坚持 下去</w>
坐标 轴</w>
坐 姿</w>
坏 话</w>
地球 村</w>
地方 性</w>
地心 引力</w>
地 理学</w>
地 名</w>
地 区
地区 性</w>
地 亚</w>
在 职</w>
在 经济上</w>
在 校</w>
圣 路易斯</w>
圣 坛</w>
土 机</w>
圆 满</w>
图 像
国民 收入</w>
国家 元
国家元 首</w>
国务 院</w>
国 情
因 纽</w>
回 放</w>
嘉 吉</w>
嗓 音</w>
喷 气式</w>
喝 水</w>
喝 彩</w>
喇 叭
唾 液</w>
哪 位</w>
哈 特</w>
哈 姆雷特</w>
哈 士奇</w>
品 牌
品 店</w>
和平 奖</w>
命 中</w>
命 中
命中 注定</w>
呼吸 系统</w>
呻 吟</w>
吵 闹</w>
启动 资金</w>
听 诊器</w>
听 不见</w>
吨 级</w>
吞 没</w>
向 前走</w>
后 会</w>
名 誉</w>
吉尔 伯特</w>
合法 化</w>
合 理
合 成
合 在一起</w>
合 力</w>
合 众
合众 国</w>
合 一</w>
叹 不已</w>
司 法
右 腿</w>
台 词</w>
可 的松</w>
可 想而知</w>
可 夫</w>
可 回收</w>
可 以
另一 家</w>
口 感</w>
口 哨声</w>
变得 复杂</w>
变 坏</w>
受益 匪
受益匪 浅</w>
受害 人</w>
受 难</w>
受 限于</w>
受 控</w>
受 人</w>
取得 联系</w>
发布 会</w>
发光 体</w>
发 问</w>
发 起
发 丝</w>
反 叛</w>
反 光</w>
双 语</w>
双 倍</w>
去 何从</w>
原 位</w>
压 舱物</w>
历史 悠久</w>
厄 运</w>
厂 房</w>
卸 下</w>
卷 曲</w>
卷 尺</w>
卵 巢癌</w>
印 欧语</w>
卡拉 扬</w>
卡 恩</w>
博 会</w>
南 面</w>
南 北</w>
卖 淫</w>
卖 力</w>
单 靠</w>
单 调</w>
单 曲</w>
卑 鄙</w>
华盛顿 大学</w>
华 氏</w>
升 降
千 千万
十 五分钟</w>
十 万人</w>
医疗 卫生</w>
匈牙 利
劳 伦</w>
动 量</w>
动 手做</w>
加州 理工学院</w>
加州 大学洛杉矶分校</w>
加 班</w>
加 德
功 绩</w>
功 用</w>
办公 楼</w>
劝 说</w>
剪 过</w>
前瞻 性</w>
前 脑</w>
刻 画</w>
制 图</w>
利 率</w>
创办 人</w>
创 世</w>
刚 出生</w>
切 斯特</w>
分离 出来</w>
分子 结构</w>
分子 生物学家</w>
刀 刃</w>
出 血</w>
出 没</w>
出 奇</w>
出 头</w>
出 台</w>
出 卖</w>
出 产</w>
凯 斯</w>
凭 直觉</w>
凡 是</w>
几百 万年</w>
凝 胶</w>
凝 聚
冷 酷</w>
冷 却
冲 洗</w>
冲 向</w>
冰 球</w>
冥 河</w>
冠 军
军 火</w>
写 作
写 些</w>
再次 发生</w>
再 过</w>
再 循环</w>
内华 达州</w>
内 核</w>
内 含</w>
兼 职</w>
关键 词</w>
关键 点</w>
关键 期</w>
关 切</w>
六 十年</w>
六 万</w>
公平 正义</w>
公平 性</w>
公共 利益</w>
公 益
公 民
公 开
公 务
公 会</w>
公 事</w>
八 百</w>
八 点</w>
八 次</w>
八 分</w>
全 食</w>
全 景</w>
入 院</w>
入 侵
入侵 者</w>
克利 夫</w>
克 尔
光谱 学</w>
先 例</w>
充分 发挥</w>
催 生</w>
催 化</w>
傀 儡</w>
偷偷 地</w>
停 住</w>
做 时</w>
做 会</w>
做 主</w>
偏 执</w>
假 臂</w>
假 人</w>
倒 钩</w>
信息 量</w>
信 教</w>
信 任
信 中</w>
信 不
信不 疑</w>
保加利 亚人</w>
俄亥 俄
俄亥俄 州</w>
侥 幸</w>
侄 女</w>
作 个</w>
何 故</w>
何 去何从</w>
何 况</w>
体育 运动</w>
体 重
体 液</w>
体 力
体 中</w>
住 户</w>
住 处</w>
低 频</w>
位 子</w>
伽 马</w>
估 测</w>
伪 科学</w>
伤 痕</w>
伤 心
传 入</w>
会 响</w>
休息 室</w>
休 止</w>
伏特 加</w>
价 位</w>
以 此类推</w>
他 州</w>
从头 再来</w>
仍 会</w>
今年 年底</w>
今年 夏天</w>
今天 下午</w>
仅 次于</w>
仅 存</w>
亿 桶</w>
亿 多</w>
亿 到</w>
亿 光年</w>
人口 普查</w>
人口 总数</w>
人 站</w>
人 猿</w>
人 文
人 情</w>
亲密 关系</w>
亲 友</w>
享 乐</w>
交通 运输</w>
交 流
交 朋友</w>
五 百
五 号</w>
五 亿</w>
互相 联系</w>
互相 合作</w>
互 动性</w>
云 端</w>
二十 分钟</w>
二 次</w>
二 手</w>
事实 真相</w>
事 来</w>
事 态</w>
予 以</w>
买 家</w>
买 个</w>
买 不到</w>
乡 间</w>
九 点</w>
九 成</w>
乘 飞机</w>
乐 公司</w>
之 巅</w>
之 分</w>
之 光</w>
之 以
之 不
举 着</w>
举 止</w>
主 播</w>
主 宰
主 修</w>
为 难</w>
为 数
为 所
临 到</w>
中央 政府</w>
中 生
中 意</w>
个人 经历</w>
个 子</w>
严 肃
严 密</w>
两条 腿</w>
两 部</w>
两 足</w>
两 篇</w>
两 用</w>
两 性</w>
两 家</w>
两 只手</w>
丢 人</w>
丙 氨酸</w>
世界 贸易
世界 杯</w>
世 博会</w>
专 为</w>
不自 在</w>
不算 什么</w>
不 问</w>
不 肯</w>
不 明</w>
不 常</w>
不 容</w>
不 单是</w>
不 佳</w>
不 以为
下 棋</w>
上下 颠倒</w>
上下 文</w>
上 读</w>
上 花</w>
上 船</w>
上 能</w>
上 岸</w>
上 个星期</w>
三十 秒</w>
三十 岁</w>
三 月</w>
三 层</w>
万 象</w>
万 头</w>
万 台</w>
七 百万</w>
一百 四十</w>
一段 路</w>
一些 则</w>
一 通</w>
一 触即发</w>
一 环</w>
一 派胡言</w>
一 摸</w>
一 届</w>
一 半
一 出</w>
一 亿人</w>
一 二</w>
一 举
z ero</w>
z e</w>
y e</w>
w h
w e</w>
v et
v a</w>
ust y</w>
u h
tre e</w>
t witter</w>
s t</w>
s h</w>
s en</w>
s ch
ri qu
re d
red di
reddi es</w>
r an</w>
ou se</w>
os e</w>
oo m</w>
on ia</w>
on ey</w>
om be</w>
o v</w>
o g</w>
o ch
m e</w>
m at
m an
li der</w>
l via</w>
l l</w>
ir e</w>
ill a</w>
iel d</w>
ick lider</w>
iT unes</w>
i z</w>
i eg
i ant</w>
g in
g e</w>
g e
f us</w>
es e</w>
er man</w>
er ica</w>
er e</w>
enn y</w>
ell ow</w>
ell e</w>
ec h</w>
e u</w>
di s</w>
col m</w>
at s</w>
art y</w>
ap h
ak er</w>
ah y</w>
a i</w>
Zip C
ZipC ar</w>
Y ou</w>
Y e
Wi i</w>
W est</w>
U n
T ri
T oo
T er
T en
T ata</w>
Sy lvia</w>
Stev en</w>
St ef
Sin cla
Sh reddies</w>
Serg ey</w>
Sa f
S eb
S av
S U
S T</w>
Ros s</w>
Ro ger</w>
Re zero</w>
R ita</w>
R CA</w>
Pl an
P L</w>
OE CD</w>
N E
Mo h
Mc C
Mal colm</w>
Ma x</w>
M org
M as
Lim b</w>
Le ahy</w>
L icklider</w>
L aw
L H
LH C</w>
Kur zwe
K am
K al
Jon athan</w>
Jas on</w>
J ur
J O</w>
In st
IP CC</w>
I t</w>
HT TP</w>
H ard
H AL</w>
G ab
G B</w>
Fer mi</w>
F und</w>
F ull</w>
Em ily</w>
E st
E r
E l
D eb
Char lie</w>
Car ter</w>
Byr ne</w>
Br and</w>
Barric elli</w>
BM I</w>
B ou
B a
B PA</w>
Avel ing</w>
App le</w>
Al i</w>
AS HA</w>
A MD</w>
99. 9</w>
9 1</w>
7 47</w>
7 .5</w>
6 50</w>
6 1</w>
50 ppm</w>
4 6
3 30</w>
3 0000</w>
2 600</w>
196 4</w>
195 6</w>
195 4</w>
19 39</w>
19 28</w>
19 12</w>
18 90</w>
10 5</w>
10 2</w>
1 2000</w>
0. 1</w>
.... ....</w>
.... ........</w>
- ----</w>
龙 王</w>
黛 安</w>
默 里</w>
黑暗 时代</w>
黄 鳍</w>
黄 线</w>
黄 昏</w>
麦克 斯
麦克斯 韦</w>
麦 哲
麦哲 伦</w>
鹰 嘴
鹰嘴 豆</w>
鳗 鱼</w>
鲁 宾</w>
鲁 大学</w>
高尔夫 球场</w>
高 高
高 过</w>
高 楼</w>
高 无
高无 上</w>
高 原</w>
高 估</w>
骗 者</w>
骇 人</w>
驯 化</w>
驯 养</w>
马来 西亚</w>
马 杜克</w>
马 斯特</w>
马 库斯</w>
香 糖</w>
香 气</w>
首 例</w>
食品 行业</w>
飞 逝</w>
飞 过去</w>
飞 舞</w>
飞 来</w>
飞 入</w>
飞 人</w>
风 玻璃</w>
风 洞</w>
风 声</w>
风 味</w>
题 为</w>
颗 牙</w>
频 度</w>
领 头人</w>
领 取</w>
预 览</w>
预 报</w>
顺 道</w>
顺 畅</w>
音乐 学院</w>
音 质</w>
韧 不拔</w>
韦 德</w>
面 对
面对 现实</w>
非 盈利性</w>
非 正式</w>
非 对称</w>
非 人类</w>
露 头
露头 角</w>
霍夫 曼</w>
霍 夫</w>
零 花钱</w>
雌 激素</w>
雄 心
难 重重</w>
难 熬</w>
难 点</w>
隐 身</w>
隐 瞒</w>
隐 居</w>
隐 匿</w>
随机 性</w>
陨 坑</w>
除 术</w>
降 临到</w>
陈 规</w>
陈 腐</w>
附 肢</w>
附 生植物</w>
附 件</w>
阿 布
阴 阳</w>
阴 性</w>
防 卫</w>
防 万一</w>
阅 览室</w>
闹 剧</w>
问 答</w>
问 得</w>
闪闪 发光</w>
闪 现</w>
闪 光灯</w>
长 链</w>
长 辈</w>
长 老</w>
长 矛</w>
长 满</w>
镇 定</w>
销售 量</w>
铸 造</w>
铝 制</w>
铁 矿</w>
铁 杆</w>
钢 笔</w>
钢 材</w>
钟 摆</w>
钟 情</w>
钟 形</w>
针 对性</w>
金 赛</w>
金 森</w>
金 斯
量 身
量身 定做</w>
野 牛</w>
重新 考虑</w>
重 病</w>
重 度</w>
重 型</w>
重 力场</w>
里 尔</w>
里 娜</w>
里 奥</w>
采 集器</w>
采 矿</w>
采 石
采石 场</w>
采 伐</w>
酿 造</w>
酿 成</w>
酸 性</w>
都 柏林</w>
都 在</w>
部 就
部就 班</w>
邪 恶
邪恶 轴心</w>
那 组</w>
那 家</w>
那 句</w>
遗 症</w>
遗 留下来</w>
遗 留</w>
遗 嘱</w>
道德 感</w>
道 格拉斯</w>
遏 制</w>
速 度
通 风
透 社</w>
选择 权</w>
选 举
逆 境</w>
适 者
适者 生存</w>
追求 幸福</w>
追 问</w>
追 根
迷 航</w>
迫 切需要</w>
迟 钝</w>
迟 早</w>
连锁 店</w>
连 通</w>
违 规</w>
这 般</w>
这 挺</w>
这 则</w>
这 一
近 年来</w>
运动 鞋</w>
运动 场</w>
运 往</w>
迈 德</w>
过 难关</w>
过 大</w>
过 上</w>
达 成
达成 协议</w>
达 尔</w>
达 克</w>
辽 阔</w>
轻 轻
软件 开发</w>
轮 到</w>
转 转</w>
转 头</w>
转 圈</w>
转 发</w>
车 身</w>
车 型</w>
车 司机</w>
身体 状况</w>
身 而出</w>
身 手</w>
身 亡</w>
践 踏</w>
跳 来
跳来 跳
跳来跳 去</w>
跳 到</w>
路 透社</w>
跨 文化</w>
跟 踪
跑 过来</w>
跑 来
跑来 跑
跑来跑 去</w>
趋 向</w>
趋 化
趋化 因子</w>
越 多</w>
越 多
超 链接</w>
超 导</w>
起 火</w>
赶 来</w>
走 时</w>
赫 斯</w>
赚 大钱</w>
资料 库</w>
贵 族</w>
贫困 地区</w>
贫 乏</w>
贪 污</w>
货 真
货真 价
货真价 实</w>
责任 心</w>
负 责任</w>
贝 多</w>
象 形文字</w>
谷 地</w>
调查 结果</w>
调 音</w>
调 谐</w>
调 节
诽 谤</w>
诺贝尔 和平奖</w>
诺 沃</w>
诺 夫</w>
请 原谅</w>
说 教</w>
说 好</w>
误 认为</w>
该 病</w>
诞 辰</w>
诚 挚</w>
诗 是</w>
识别 系统</w>
评 级</w>
评 审</w>
诀 窍</w>
访 客</w>
论 派</w>
讲 究</w>
讲 演
讲演 者</w>
讲 授</w>
记忆 犹
记忆犹 新</w>
记忆 力</w>
记 着</w>
讯 号</w>
议 性</w>
订 出</w>
计划 局</w>
计 量</w>
计 量
警 钟</w>
警 卫队</w>
詹 宁</w>
言 归
言归 正
言归正 传</w>
触 碰</w>
解 题</w>
解 放
觉 悟</w>
视 着</w>
规 模
观 望</w>
要 少</w>
西 里</w>
西 斯科</w>
西 斯主义</w>
西 奥多</w>
西 卡</w>
西 南部</w>
西 北</w>
装 运</w>
装 潢</w>
裂 变</w>
裁 剪</w>
被 访者</w>
被 触</w>
被 子</w>
衰 减</w>
衣 无缝</w>
血红 素</w>
血 清</w>
血 淋
血淋 淋</w>
蠢 事</w>
蠕 动</w>
融 洽</w>
蝎 子</w>
蜜 莉</w>
蜕 皮</w>
蜂 拥</w>
虎 鲸</w>
藩 市</w>
薯 片</w>
薛 定
薛定 谔</w>
蕴 含着</w>
蔓 延
蔓延 到</w>
蔑 视</w>
蓬勃 发展</w>
蓄 水</w>
落 差</w>
落 下来</w>
萨 瑟
萨瑟 兰</w>
营 业</w>
菜 肴</w>
莱 纳</w>
莱 索托</w>
莫 过于</w>
莉 斯</w>
药 店</w>
荧 屏</w>
茉 莉</w>
茁 壮
茁壮 成长</w>
英 特网</w>
英 特尔</w>
若 想</w>
苏黎 世</w>
苏 人</w>
节 选</w>
节 制</w>
艾 萨克</w>
艾 森
艾 哈
艾哈 迈德</w>
船 运</w>
航空 线</w>
舍 弃</w>
至 高无上</w>
自由 落体</w>
自然 力</w>
自然 光</w>
自助 餐</w>
自 省</w>
自 满</w>
自 治</w>
自 拔</w>
自 已</w>
自 始至终</w>
自 力
自力 更生</w>
自 于</w>
自 主权</w>
腾 飞</w>
腹 腔</w>
腹 侧</w>
脱 离
脚趾 头</w>
脚 跟</w>
脚 本</w>
脑 神经</w>
脊 梁</w>
能 省</w>
胜利 者</w>
背 光</w>
胃 里</w>
胃 口</w>
肾 癌</w>
肯 尼</w>
肌 肤</w>
聪明 才智</w>
聚 集
联邦 快递</w>
联合国 安理会</w>
联 觉</w>
联 系
耶 鲁大学</w>
耶 罗</w>
耳 闻</w>
耳 环</w>
耐 用</w>
而 定</w>
而 会</w>
老 手</w>
老 家</w>
老 妈</w>
老 大</w>
老 公</w>
老 兄</w>
翼 展</w>
翻译 器</w>
翻 过</w>
美术 馆</w>
美国 国家航空航天局</w>
美 籍</w>
置 身</w>
置 身
罚 金</w>
罗 纳德</w>
罗 布</w>
罗 夫</w>
罗 万象</w>
网络 空间</w>
网 吧</w>
缸 体</w>
缴 纳</w>
缩 铀</w>
缩 略
缩 影</w>
缩 减</w>
编码 器</w>
编 造</w>
缓 缓</w>
缓 冲
绿色 革命</w>
绿 地</w>
综合 征</w>
维 和
维和 部队</w>
维 利</w>
续 续</w>
绩 效</w>
统计 分析</w>
统 领</w>
绝 迹</w>
结 肠
结 束
结束 语</w>
经验 丰富</w>
经 销商</w>
经 过
经 营
经 理人</w>
终 点线</w>
织 成</w>
纽 带</w>
纸 条</w>
纸 币</w>
纳 税</w>
纪 实</w>
约 旦
约旦 河
约旦河 西岸</w>
紧迫 感</w>
紧 缺</w>
素 食者</w>
系统 化</w>
系 列
糟 糟</w>
精神 上</w>
精确 性</w>
粗 鲁</w>
类 固醇</w>
类 人猿</w>
米 饭</w>
米 堡</w>
米 切尔</w>
篇 一律</w>
管理 人员</w>
管 状</w>
算 了吧</w>
简单 易行</w>
简单 明了</w>
简 略</w>
筹 备</w>
等 同</w>
第四 点</w>
第二 部</w>
第二 轮</w>
第二 代</w>
第三 件</w>
第一 幅</w>
第 八</w>
笑 笑</w>
竹 制</w>
童 工</w>
童 军</w>
立 交
立交 桥</w>
突 发事件</w>
空 无一
空无一 物</w>
稠 密</w>
稀 奇古怪</w>
移 走</w>
称 做</w>
积极 性</w>
积 攒</w>
科 斯</w>
种族 问题</w>
秃 鹰</w>
离 析</w>
离 得</w>
离 岸</w>
离 子
福特 汽车公司</w>
福 地</w>
祭 祀</w>
票 数</w>
社会 科学家</w>
示 录</w>
示 例</w>
磷 脂</w>
碳 酸盐</w>
破 灭</w>
砖 墙</w>
砂 岩</w>
码 子</w>
矿 产</w>
石油 输出</w>
石 碑</w>
知名 度</w>
知 欲</w>
睡 醒</w>
睁开 眼睛</w>
着 瞧</w>
着 手
着手 于</w>
着 急</w>
眼 部</w>
真真 切
真真切 切</w>
真 真</w>
真 不错</w>
看不 清楚</w>
看 守</w>
看 好</w>
眉 头</w>
省 油</w>
省 去</w>
省 份</w>
相对 来说</w>
相互 依存</w>
相 爱</w>
相 乘</w>
直 达</w>
盛 开</w>
盛 宴</w>
盖 头</w>
盖 亚</w>
皮肤 科</w>
皮 革</w>
皮 耶罗</w>
皮 毛</w>
皮 埃尔</w>
皇 后
皇后 区</w>
的确 确</w>
的 的确确</w>
的 士</w>
百分之 七
百 慕
百 岁</w>
百 倍</w>
白 种人</w>
白 内
白内 障</w>
登 堡</w>
痛 哭</w>
病 理学家</w>
病 理学</w>
病 史</w>
病 历</w>
疾 病
疲 倦</w>
疏 忽</w>
畜 牧
畜牧 业</w>
留 声
留声 机</w>
畅 谈</w>
畅 想</w>
男 士们</w>
电视 频道</w>
电视 新闻</w>
电脑 系统</w>
电 池
电池 板</w>
电 气
甲 醛</w>
用 钱</w>
生死 攸关</w>
生存 环境</w>
生 菜</w>
生 畏</w>
生 灵</w>
生 前</w>
甘 情愿</w>
瓦 西里</w>
瓦 克</w>
瓦 伦
瑞士 人</w>
瑞 秋</w>
琴 键</w>
琐 事</w>
理解 力</w>
理 石</w>
理 疗</w>
理 清</w>
球 车</w>
球 场上</w>
珍 珠
珍 宝</w>
现代 科技</w>
玩 玩</w>
玛 姬</w>
王 五</w>
猛 然</w>
独裁 统治</w>
独 眼</w>
狐 狸</w>
犹太 教徒</w>
状 图</w>
特殊 教育</w>
特殊 性</w>
特 里娜</w>
特 斯</w>
特 地</w>
牵 连</w>
牵 涉</w>
物 质
牢 骚</w>
牢 牢</w>
牛 群</w>
牛 羊</w>
爱尔 兰人</w>
爱 荷
爱 滋
爱滋 病</w>
爱 沙
爱沙 尼亚</w>
爱 情
爱 之心</w>
爱 丽丝</w>
爆炸 性</w>
燃 煤</w>
熊 猫</w>
照 样</w>
煎 熬</w>
然 的话</w>
热带 地区</w>
热 闹</w>
热 源</w>
热 泉</w>
热 恋</w>
烧 焦</w>
烧 录</w>
炽 热</w>
点 火</w>
点 心</w>
点 上</w>
炸 毁</w>
灾 后</w>
灾 区</w>
灰 暗</w>
灭 蚊</w>
火 药</w>
火 爆</w>
激 昂</w>
澳大 利亚人</w>
演 算法</w>
满怀 希望</w>
满 怀</w>
滚 轮</w>
滔 滔
滔滔 不绝</w>
滑雪 者</w>
源 码</w>
湖 边</w>
游戏 规则</w>
温 顺</w>
温 带</w>
温 哥
温哥 华</w>
渥 太
渥太 华</w>
渗 透
渔 获</w>
清晰 可见</w>
清 空</w>
清 澈</w>
清 新</w>
清 教徒</w>
淹 死</w>
深 蓝</w>
深 刻
深 信不疑</w>
淡 无
涌 现出</w>
消息 来源</w>
涂 上</w>
浸 透</w>
海 鸥</w>
海 绵
海 狮</w>
海 姆</w>
浮 标</w>
浪漫 主义</w>
浓 郁</w>
浓 缩铀</w>
浓 烟</w>
测试 者</w>
浇 铸</w>
浇 灌</w>
流浪 汉</w>
流 放</w>
流 亡</w>
活 跃
洞 悉</w>
洗 礼</w>
洗 手</w>
泽 地</w>
泰 米尔
波 顿</w>
波 洛克</w>
波 利
法 西斯主义</w>
法 王</w>
法 治</w>
法 尔</w>
沼 泽地</w>
油 脂</w>
河 豚</w>
河 水</w>
河 床</w>
没 多久</w>
没 到</w>
没 事儿</w>
沟 通
沉 船</w>
沃尔 特</w>
污 辱</w>
求 知欲</w>
汁 原
汁原 味</w>
水 性</w>
水 底</w>
水 库</w>
水 壶</w>
水 力
水力 发电</w>
水 会</w>
氦 气</w>
民族 主义</w>
民主 主义</w>
氏 症</w>
毗 荼</w>
比 诺</w>
毒 气体</w>
每 每</w>
每 根</w>
每 样</w>
每 户</w>
每 平方米</w>
每 场</w>
每 公斤</w>
殖民 者</w>
武装 力量</w>
步 态</w>
步 兵</w>
此 基础</w>
此 图</w>
正 门</w>
正 视</w>
正 是如此</w>
正 方</w>
正 中间</w>
止 一次</w>
歌 名</w>
欢 庆</w>
欠 下</w>
橄 榄</w>
概 述</w>
椰 子</w>
植物 园</w>
植 根于</w>
棚 子</w>
检 索</w>
检 核</w>
梵 高</w>
梅 根</w>
梅 斯</w>
格拉 茨</w>
格 曼</w>
格 兰德</w>
核 对</w>
校 准</w>
树 顶</w>
柴 油</w>
柯 密特</w>
柠 檬</w>
某 样</w>
柏 林
架 设</w>
枝 干</w>
枚 举</w>
林 克</w>
极 快</w>
极 佳</w>
松 岭</w>
杰 里</w>
杰 西卡</w>
杰 伊</w>
来得 及</w>
条 码</w>
条 河</w>
权 国家</w>
机 动性</w>
术 士</w>
本 营</w>
本 真</w>
本 地
本 事</w>
未知 数</w>
未 决</w>
木 质</w>
木 琴</w>
木 棍</w>
木 制</w>
期 盼</w>
望 而
服务提供 商</w>
服务 员</w>
服务 业</w>
有 色
有 毒气体</w>
有 数</w>
有 利
最 糟</w>
最 富</w>
最 多
曲 线图</w>
曲 率</w>
暗 藏</w>
晶 片</w>
景 气</w>
普林 斯
普林斯 顿大学</w>
晚 礼服</w>
明 胶</w>
昆士 兰
昆士兰 州</w>
时 针</w>
时 而</w>
时 有</w>
时 无
时无 刻</w>
早 先</w>
早 产
早产 儿</w>
日本 政府</w>
日俱 增</w>
日 落</w>
日 渐</w>
日 式</w>
无法 形容</w>
无所 不能</w>
无 条件</w>
无 时无刻</w>
无 政府</w>
无 偿</w>
无 从</w>
施 肥</w>
施 暴</w>
施 展</w>
方 程
新鲜 事</w>
新闻 自由</w>
新闻 媒体</w>
新 词</w>
新 纪元</w>
新 大陆</w>
斯特 里</w>
斯 通</w>
断 续续</w>
断 断续续</w>
断 定</w>
断 力</w>
断 出</w>
斜 率</w>
整体 性</w>
整 栋</w>
整 本</w>
整 座</w>
整 容</w>
数据 量</w>
数学 课</w>
数 百</w>
数 是</w>
数 周</w>
数 千个</w>
散 文</w>
教育 领域</w>
教育 界</w>
教 过</w>
教 课</w>
救 药</w>
政治 犯</w>
政治 体制</w>
放 过</w>
放 疗</w>
放 电</w>
放 个</w>
收银 员</w>
收 尾</w>
支持 性</w>
操 场</w>
撤 退</w>
撤 离</w>
撤 出</w>
撞 车</w>
摩擦 力</w>
摩 斯</w>
摧 残</w>
搬 走</w>
搬 回</w>
搞不 懂</w>
搞 怪</w>
搅 拌</w>
援 手</w>
提供 者</w>
提 早</w>
提 前
描绘 出来</w>
推 断出</w>
控制 组</w>
控制 权</w>
控制 室</w>
接 电话</w>
探索 之旅</w>
排 行</w>
掏 空</w>
掉 头</w>
掀 开</w>
换 掉</w>
捕 鱼业</w>
捐赠 人</w>
挺 不错</w>
振 作
振作 起来</w>
挪 到</w>
挡 风玻璃</w>
挑 衅</w>
按 部就班</w>
指 甲
指 导
持续 增长</w>
拼 图</w>
拼 凑</w>
拨 号
拖 鞋</w>
拍 拍</w>
拍 出</w>
拉勒 米堡</w>
拉 美</w>
拉 拉
拉 尔
拆 解</w>
拆 下来</w>
押 韵</w>
抹 掉</w>
披 头
抢 救</w>
抢 先</w>
投票 者</w>
投 降</w>
投 机</w>
投 下</w>
抓 到</w>
把 门</w>
把 握住</w>
技术 手段</w>
技术 上</w>
批判 性</w>
扳 机</w>
扩 展性</w>
扩 充</w>
扔 出去</w>
打 结</w>
打 招呼</w>
打 字
打字 机</w>
打 入</w>
打 中</w>
手 绘</w>
手 枪</w>
手 心</w>
手 头上</w>
所 闻</w>
房 门</w>
房 东</w>
戴 曼
戴 夫</w>
截 然</w>
战斗 机</w>
战 略性</w>
我 谈</w>
我 活</w>
我 得</w>
成 正比</w>
成 功
成 不变</w>
成 一团</w>
戏 弄</w>
懊 悔</w>
慢 跑</w>
慢 来</w>
慢 慢来</w>
慈善 家</w>
愤 慨</w>
意大利 语</w>
惹 麻烦</w>
想 见</w>
惠 普</w>
悼 念</w>
您 们</w>
患 病率</w>
悄 然</w>
恶性 循环</w>
恶 搞</w>
恶 意
恳 求</w>
息 日</w>
恢复 健康</w>
恕 道</w>
恐惧 感</w>
恋 者</w>
总 署</w>
总 督</w>
总 指挥</w>
性 格
性 恋者</w>
急 于</w>
怀 抱</w>
念 书</w>
忘 症</w>
必 备</w>
心理 变态</w>
心 甘情愿</w>
心 房</w>
心 律</w>
心 动
德 罗</w>
微 量</w>
微 生物学</w>
微 微</w>
微 博
微 分
微分 方程</w>
微 乎
微乎 其
微乎其 微</w>
得克萨 斯州</w>
得 森</w>
得 体</w>
徒 步
很 重</w>
很 穷</w>
很 烂</w>
很 广</w>
很 受</w>
待 发</w>
径 直</w>
征 集</w>
往 复</w>
往 上爬</w>
彻 尾</w>
彻 头
彻头 彻尾</w>
形象 化</w>
当 说</w>
当 斯</w>
当 事
当事 人</w>
归 属</w>
强 尼</w>
强 制
弹 道</w>
弹 琴</w>
弹 出</w>
弱 者</w>
弱 小</w>
张 白纸</w>
弗里 德曼</w>
引 申</w>
式 化</w>
异 见</w>
开幕 式</w>
开 除</w>
开 工</w>
开 外</w>
建 在</w>
建 个</w>
康复 中心</w>
应 邀</w>
床 单</w>
广泛 性</w>
广泛 传播</w>
广告 人</w>
广 袤</w>
幼 小</w>
并 试</w>
并 列</w>
年 展</w>
平行 线</w>
平均 数</w>
平 板
常 见
席 位</w>
带 你
带你 去</w>
帕 米拉</w>
帕 特里</w>
帕 特
帕 克</w>
布赖 恩</w>
布 劳
市 里</w>
市 内</w>
巴布 亚
巴布亚 新几内亚</w>
巴 菲特</w>
巴 拿
巴 拉
巴 托克</w>
巴 塞
巴塞 罗
巫 师</w>
巨大 变化</w>
巧 是</w>
左 脚</w>
左 眼</w>
左 到
左到 右</w>
左 倾</w>
工程 设计</w>
工 钱</w>
工 蚁</w>
崩 离析</w>
屠 宰</w>
届 时</w>
屈 从</w>
屁 屁</w>
局 外人</w>
尾 声</w>
尽 早</w>
就 读</w>
就 此
就 学</w>
尖 叫声</w>
尔 蒂</w>
尔 茨</w>
小型 化</w>
小 肠</w>
小 汽车</w>
小 木屋</w>
小 方块</w>
小 把戏</w>
小 号</w>
小 企业</w>
封闭 式</w>
寿 命
导航 系统</w>
寻 觅</w>
寻 思</w>
对 视</w>
富 勒</w>
密歇根 州</w>
密 集
密 密
寄 托</w>
宾 馆</w>
宾 语</w>
宽 阔</w>
宽 泛</w>
家 门口</w>
家 禽</w>
宣 讲</w>
宣 判</w>
客 观
客 气</w>
实验 组</w>
实用 性</w>
实 践
实 体化</w>
定 式</w>
官 僚
宗教 仪式</w>
完全 一致</w>
完 备</w>
安全 气囊</w>
安 息日</w>
安 得森</w>
安 宁</w>
安 乐
宇宙 观</w>
它 闻</w>
它 花</w>
宁 可</w>
学生 会</w>
学术 研究</w>
学 界</w>
学 时</w>
孕 期</w>
嫌疑 人</w>
媒体 报道</w>
婚 姻
娱乐 性</w>
威 尔斯</w>
姿 多彩</w>
委 婉</w>
姑 且</w>
如 是</w>
如 图
如图 所示</w>
好 胜</w>
好 坏</w>
好 几</w>
女 童</w>
奥斯 汀</w>
奥斯 威
奥 托</w>
奥 兹</w>
奖 杯</w>
奇 数</w>
奇 思
失业 率</w>
失 措</w>
太 冷</w>
天 衣无缝</w>
天 翁</w>
大头 针</w>
大 陆
大 都市</w>
大 肠
大 理石</w>
大 树</w>
大 本营</w>
大 有</w>
大 方</w>
大 宝</w>
大 夫</w>
大 块头</w>
大 哥</w>
大 动脉</w>
大 为</w>
多 项</w>
多 花</w>
多 用</w>
多 斯</w>
多 尔蒂</w>
多 姿多彩</w>
外交 部长</w>
外 行星</w>
夏 菲</w>
复杂 程度</w>
复杂 化</w>
复 印</w>
复 仇</w>
处理 厂</w>
声 器</w>
增长 速度</w>
增加 一倍</w>
增 量</w>
增 殖</w>
墙 板</w>
墙 中
墙中 洞</w>
墓 碑</w>
填 充
塞 萨尔</w>
塞 罗</w>
塔 利</w>
堪萨 斯州</w>
堤 坝</w>
堡 垒</w>
堆 起来</w>
堆 积
基准 线</w>
基 恩</w>
城 邦</w>
城 外</w>
城 墙</w>
埋 场</w>
埃 伯特</w>
型 车</w>
型 态</w>
垃圾 箱</w>
坚 韧不拔</w>
块 状</w>
块 冰</w>
块 儿</w>
均 衡</w>
地 道</w>
地 要</w>
地 段</w>
地 有</w>
地 壳</w>
在此 之后</w>
在 精神上</w>
在 案</w>
在 建</w>
圣诞 树</w>
圣 战</w>
土耳其 人</w>
土 重来</w>
土 层</w>
圆 环</w>
图 片
图 林</w>
图 是</w>
国家 级</w>
固 执</w>
围 住</w>
困 难重重</w>
园 地</w>
回 信</w>
四 散</w>
四 射</w>
四 处
囚 禁</w>
器 件</w>
噗 鲁</w>
嘉 年华</w>
善 用</w>
善 举</w>
商业 活动</w>
唱 起</w>
唯 物
唠 叨</w>
哭 喊</w>
哪 张</w>
哪 去</w>
哥 大</w>
哥 们</w>
哈德 逊</w>
哈利 波</w>
哈 桑</w>
哈 利</w>
咏 叹
咏叹 调</w>
和 蔼</w>
和 睦</w>
命 感</w>
呼 出</w>
味 蕾</w>
周 游</w>
呜 噜</w>
告 终</w>
告 示</w>
吸 气</w>
启 用</w>
听 取</w>
听 信</w>
吩 咐</w>
君 王</w>
吓 倒</w>
吐 温</w>
后 遗症</w>
后 边</w>
名 气</w>
名 望</w>
名 将</w>
同一 性</w>
同 源</w>
同 性恋者</w>
同 志</w>
同 心协力</w>
吉 祥</w>
吉 普</w>
合理 化</w>
合法 性</w>
合 理性</w>
合 奏</w>
各 有不同</w>
各 有</w>
司 令</w>
叶 绿
可 达</w>
可 说</w>
可 真</w>
可 图</w>
可 变性</w>
可 取</w>
可 信赖</w>
可 不
只 为</w>
口 香糖</w>
叛 逆</w>
变 黑</w>
变 慢</w>
受 限制</w>
受 限</w>
受 训</w>
受 挫</w>
取 款机</w>
取 回</w>
取 名为</w>
取 决</w>
发行 量</w>
发展 史</w>
发 送
发 表
发 烧</w>
反 面
反 恐</w>
反 射
反 义词</w>
双 相</w>
双 年展</w>
双 人</w>
及 早</w>
原 点</w>
原 汁原味</w>
厚 重</w>
厄 尔</w>
卷 土重来</w>
卵 石</w>
印地 语</w>
印刷 术</w>
印 着</w>
卢 森堡</w>
卢 布</w>
卢 卡斯</w>
卢 克</w>
卡 车司机</w>
卡 罗</w>
卡 特里娜</w>
占 有
卖 得</w>
单 在</w>
卑 微</w>
协 奏曲</w>
半 张</w>
半 天</w>
午 餐时间</w>
千千万 万</w>
千 篇一律</w>
千 亿</w>
十二 年</w>
十 秒钟</w>
十 六
十 位</w>
十 五
区 域
北 约</w>
化学 合成</w>
包 罗万象</w>
包 容性</w>
勤 劳</w>
勒 曼</w>
勒 姆</w>
助 长</w>
助 推</w>
助 人</w>
动画 片</w>
动物 界</w>
动 能</w>
动 作
办 不到</w>
力 图</w>
力 争</w>
剧 目</w>
剧 毒</w>
剖 析</w>
前 身</w>
前 有</w>
前 台</w>
前 不久</w>
刻 度</w>
制 裁</w>
制 度
到此 为止</w>
判 定</w>
判 刑</w>
初 始
划 出</w>
刑 犯</w>
刊 物</w>
切 面</w>
切 除术</w>
切 掉</w>
切 实际</w>
切 入</w>
分 明</w>
分 崩离析</w>
刀 片</w>
出版 物</w>
出口 国</w>
出 走</w>
出 让</w>
出 水</w>
几百 美元</w>
几何 图形</w>
几 十个</w>
凝聚 力</w>
减 压</w>
冲 撞</w>
冲 到</w>
冲 击力</w>
冰 河</w>
冰 河
冰 原</w>
冥 王星</w>
冠军 赛</w>
冗 长</w>
再 长</w>
内 部
内 外</w>
兼 具</w>
养 料</w>
具体 情况</w>
兴 致</w>
关键 所在</w>
关 押</w>
六 十
公务 员</w>
公共 汽车</w>
公共 关系</w>
公 民权</w>
公 有</w>
八 成</w>
八 卦</w>
八 倍</w>
全力 以
全力以 赴</w>
全 自动</w>
全 班</w>
入 点</w>
兜 售</w>
克里斯 蒂</w>
克莱 恩</w>
克罗 地亚</w>
克尔 白</w>
光 来</w>
光 在</w>
光 临</w>
先 来</w>
儿 科医生</w>
僵 局</w>
傻 事</w>
储 量</w>
储 水</w>
傍 晚</w>
健康 长寿</w>
健 忘症</w>
停 电</w>
停 放</w>
做 菜</w>
做 做</w>
假 发</w>
倡 导者</w>
借 钱</w>
倒 闭</w>
倍 感</w>
信 托</w>
信 天翁</w>
保护 者</w>
保护 措施</w>
保护 性</w>
保 龄
保 拉</w>
保 养</w>
促 销</w>
侦 查</w>
侦 探</w>
依 次</w>
依 托</w>
使用 率</w>
使 命感</w>
佣 金</w>
你 试</w>
你 够</w>
你 会
何时 何地</w>
体 能</w>
佐 治
住 手</w>
低 谷</w>
低 语</w>
低 级</w>
低 沉</w>
估 量</w>
伯 纳斯</w>
伯 特兰</w>
伯 克</w>
伪 装成</w>
传染 给</w>
传 道</w>
传 真</w>
传 感</w>
伟 哥</w>
会 飞</w>
会 诊</w>
会 先</w>
伙 伴
优先 权</w>
优 越
伊利 诺伊
伊 迪</w>
伊 始</w>
仿 制</w>
任 天堂</w>
件 物品</w>
仰 慕</w>
以 防万一</w>
以 致</w>
以 至</w>
以 使</w>
令人 满意</w>
令人 不安</w>
代 步</w>
付 不起</w>
他 花</w>
从 左到右</w>
从 上
今 生</w>
今 夜</w>
仁 爱之心</w>
人口 密度</w>
人 里</w>
人 身</w>
人 物
人 比</w>
人 正</w>
人 头</w>
人 声</w>
人 则</w>
亲眼 看见</w>
亨 廷
产 地</w>
产 下</w>
交通 堵塞</w>
交通 事故</w>
交 换
亚 当斯</w>
五 十岁</w>
五 六个</w>
亏 损</w>
于 众</w>
二十 五万</w>
二 百
二 年级</w>
二 三十年</w>
事 时</w>
争 议性</w>
乳 液</w>
乱 语</w>
乱 糟糟</w>
书 面</w>
乡 镇</w>
乡 村
习 性</w>
习 得
乔 恩</w>
乒 乓
之 遥</w>
之 计</w>
之 夜</w>
义 诊</w>
丽 莎</w>
主 干道</w>
主 动
为数 不多</w>
临终 前</w>
临床 实验</w>
临 死</w>
串 联</w>
中央 公园</w>
中 途</w>
中 起</w>
中 要</w>
中 线</w>
中 空</w>
中 枢</w>
中 亚</w>
个 别</w>
两 辆</w>
两 米</w>
两 百五十</w>
两 座</w>
两 三天</w>
两 万
丢 下</w>
业余 爱好</w>
世 隔绝</w>
专 案</w>
丑 化</w>
与此 相关</w>
与 日俱增</w>
与 世隔绝</w>
不论 如何</w>
不堪 设想</w>
不同 凡响</w>
不可 及</w>
不 赖</w>
不 负责任</w>
不 良
不 育</w>
不 符</w>
不 离</w>
不 爱</w>
不 然的话</w>
不 止一次</w>
不 明智</w>
不 明
不 择
不 单单是</w>
不 利于</w>
不 切实际</w>
不 下</w>
下 部</w>
下 身</w>
下 意识</w>
下 个星期</w>
上 要</w>
上 浮</w>
上 山</w>
上 学时</w>
上 头</w>
上 前</w>
三 藩市</w>
三 组</w>
三 秒</w>
三 百五十</w>
三 步</w>
三 家</w>
三 四个</w>
三 名</w>
三 十个</w>
万 桶</w>
万 条</w>
一百 万美元</w>
一次 次</w>
一大 笔</w>
一块 钱</w>
一切 都在</w>
一切 正常</w>
一举 一动</w>
一个 零</w>
一 顿饭</w>
一 集</w>
一 闪</w>
一 连</w>
一 辈</w>
一 跳</w>
一 英寸</w>
一 等</w>
一 空</w>
一 票</w>
一 盏</w>
一 片
一 条
一 晚</w>
一 成不变</w>
一 心</w>
一 张白纸</w>
一 并</w>
一 堂课</w>
一 地</w>
一 叠</w>
一 发</w>
一 升</w>
一 刻起</w>
z os</w>
yr one</w>
y ou
you tube</w>
x ic
w ick</w>
w In</w>
v ille</w>
ur g</w>
ug o</w>
u n</w>
u k</w>
u ck
t y</w>
s i</w>
s ha</w>
row n</w>
ro p
re d</w>
r ma</w>
r ina</w>
p le</w>
ow ard</w>
ou ll
oull i</w>
ot ta</w>
ord on</w>
or ah</w>
oo g</w>
oo d
on a</w>
ol o</w>
o y
o l</w>
n i</w>
li p</w>
l w
l ton</w>
l ike</w>
k ing</w>
j ect</w>
iz zy</w>
it e</w>
ist ry</w>
ip per</w>
in er</w>
ik rma</w>
ig n</w>
ic al</w>
i ster</w>
i k</w>
i e
hir lw
h t
h en
g ar
f ield</w>
f f</w>
es k</w>
er t</w>
er n</w>
er ing</w>
en berg</w>
el y</w>
el a</w>
e arch</w>
e an</w>
cos ia</w>
c on
c el</w>
c ats</w>
b i</w>
b au
at z</w>
at i</w>
at an</w>
ast ian</w>
as t</w>
arre n</w>
ap tree</w>
ap i</w>
ann ah</w>
ang e</w>
an ce</w>
ad ema</w>
a f</w>
Z in
Z app
Ye ah</w>
W hirlw
W arren</w>
Ver izon</w>
U r
U SB</w>
TED 2006</w>
T 恤衫</w>
T yrone</w>
T ipper</w>
T ab
Sw aptree</w>
Sincla ir</w>
Shim on</w>
Sher mer</w>
Seb astian</w>
Sar ah</w>
SE X</w>
S an</w>
S M</w>
Ros ling</w>
Rock well</w>
Robin son</w>
RO D</w>
R es
R T
R A
Pow er
Pos t
Pet e</w>
Pal m</w>
P og
P at</w>
P all
P SA</w>
P S
P H
Ok api</w>
OL cats</w>
OL PC</w>
O n
O ld
O ff
O O
Net ra</w>
N BC</w>
Mull is</w>
Morg an</w>
Mo MA</w>
MT V</w>
M ul
M i
M an
M CA</w>
L OLcats</w>
L C</w>
K ing</w>
Jon es</w>
J ay
J arrett</w>
J ane</w>
J PL</w>
Int ern
I p
I m
I G
Hyp er
Hay es</w>
H un
H oward</w>
H ob
H all</w>
G ordon</w>
G o
G ene</w>
G ar
F ri
F ellow</w>
Est her</w>
Er n
En riqu
ES SEX</w>
E cosia</w>
E C
EC X</w>
Dou g</w>
Der eck</w>
Deb orah</w>
DAR wIn</w>
D or
D MCA</w>
D M</w>
D D
Co ach</w>
Cl ar
Chin oy</w>
Carol yn</w>
CB S</w>
C ur
C op
C ap
Bern oulli</w>
Be zos</w>
B un
B ra
B or
B lo
B an
B A</w>
An il</w>
Alt os</w>
All an</w>
Ad ams</w>
Ac t
AR ES</w>
AID S</w>
A Y</w>
A R</w>
A C</w>
A C
9. 11</w>
9 000</w>
7 8
5 50</w>
3 9
3 65</w>
3 500</w>
20 25</w>
2 700</w>
2 6
2 40</w>
2 4000</w>
197 2</w>
195 2</w>
19 32</w>
1 400</w>
.. ...</w>
龙 头</w>
龙 去
龙去 脉</w>
齐 尔</w>
齐 全</w>
鼓 起
鼓起 勇气</w>
鼓 捣</w>
鼓 手</w>
鼓 吹</w>
默 氏症</w>
黑 盒子</w>
黎 各</w>
黄金 分割</w>
麻醉 师</w>
麻 麻</w>
麦克 默</w>
麦 肯
麦肯 锡</w>
麦 秆</w>
麦 凯恩</w>
麦 凯</w>
麦 乐</w>
鹅 卵石</w>
鸭 嘴
鸟 瞰</w>
鲸 船</w>
鲁 斯</w>
鱼 鳍</w>
鱼 缸</w>
鱼 油</w>
高 风险</w>
高 贵</w>
高 点</w>
高 清晰</w>
高 档</w>
高 效能</w>
高 价</w>
高 产</w>
髋 关节</w>
骰 子</w>
骨 盆</w>
骇 人听闻</w>
驾 于</w>
驱 赶</w>
马蒂 厄</w>
马尔 克斯</w>
马 茨</w>
马 累</w>
马 扎
马 其
香 蕉
首 映</w>
首 批</w>
首 尔</w>
首 字母</w>
饱 含</w>
食 指</w>
食 动物</w>
飞 奔</w>
飞 回来</w>
风 顺</w>
风 潮</w>
风 光</w>
颠 覆
颠覆 性</w>
频 文件</w>
颌 骨</w>
预 订</w>
预 警</w>
预 案</w>
顺 理
顺理 成
顺理成 章</w>
项 链</w>
音响 系统</w>
音乐 剧</w>
音 频文件</w>
韧 带</w>
韦 尔</w>
鞭 策</w>
鞍 状物</w>
靶 细胞</w>
靴 子</w>
面 而来</w>
面 筋</w>
面 墙</w>
非同 凡响</w>
非 但</w>
静静 地</w>
静 电</w>
静 止
露 出来</w>
霍 加</w>
雷 声</w>
雷 利</w>
零 年</w>
零 分</w>
雪 球</w>
雪 层</w>
集体 行动</w>
集 资金</w>
集 成
集成 电路</w>
集 合
雅 各
雅各 布</w>
雅 人</w>
雄 辩</w>
雄 狮</w>
难以 忍受</w>
难 闻</w>
难 于</w>
隔 间</w>
隆 隆</w>
隆 重</w>
除 草
除草 剂</w>
院 校</w>
降 至</w>
降 低成本</w>
陆 空</w>
阿波 菲</w>
阿尔茨海 默氏症</w>
阿尔 戈</w>
阿尔 弗雷</w>
阿尔 巴
阿 诺德</w>
阿 比</w>
阿 帕
阿 塞
阿塞 拜
阿塞拜 疆</w>
阿 克</w>
阿 伯
阴 郁</w>
防 线</w>
防 盗
防 火
防火 墙</w>
防 毒
防毒 面具</w>
队 长</w>
阈 值</w>
闻 所未
闻所未 闻</w>
间 谍</w>
间 内</w>
闯 进</w>
问 卷
问卷 调查</w>
闭上 眼</w>
闪 闪</w>
闪 烁
闪烁 着</w>
门 话题</w>
门 廊</w>
门 别
门别 类</w>
长 篇</w>
长 假</w>
镭 射</w>
锥 体</w>
锡 克</w>
错 事</w>
锐 减</w>
锋 面</w>
链 子</w>
铲 除</w>
钻 机</w>
钻 井</w>
钱 来</w>
钩 针</w>
钢 缆</w>
量 分析</w>
野 营</w>
野 猪</w>
重新 启动</w>
重新 分配</w>
重复 性</w>
重 述</w>
重 置</w>
重 物</w>
重 机</w>
重 建
重建 家园</w>
里 蒂
里蒂 巴</w>
里 卡
里卡 多</w>
里 亚
释 义</w>
醉 酒</w>
酷 似</w>
酬 劳</w>
酒 杯</w>
酒 后</w>
酌 情
酌情 处理</w>
都 灵</w>
都 市
那 部</w>
那 群</w>
那 点</w>
那 当</w>
那 句话</w>
邂 逅</w>
遮 眼</w>
遨 游</w>
遗传 性</w>
遗 骸</w>
遗 落</w>
遗 留
道 院</w>
遍 布
造 福
逝 者</w>
通 融</w>
通 俗</w>
递 进</w>
逐 一</w>
透 视图</w>
透 彩</w>
选 拔</w>
追 忆</w>
迪 斯科</w>
远 超</w>
远 胜</w>
进 餐</w>
进 行
进 发</w>
这 车</w>
这 批</w>
这 得</w>
这 匹马</w>
这 书</w>
还 击</w>
还 价</w>
运 而生</w>
迎 头
迎头 赶上</w>
过 瘾</w>
过 学</w>
过 失</w>
达 米
达 拉</w>
边缘 化</w>
边 远</w>
边 角</w>
辣 椒</w>
辛 劳</w>
输 送到</w>
辐 条</w>
较 量</w>
较 差</w>
载 人</w>
轻轻 地</w>
轻 度</w>
轻 巧</w>
转 换
转 手</w>
转 入</w>
车 票</w>
躲 到</w>
身 陷</w>
身 衣</w>
躁 狂</w>
蹩 脚</w>
踩 扁</w>
跳 跳</w>
跳 下</w>
路 灯</w>
路 可
跨 越
跃 进</w>
足 类</w>
越来越 近</w>
越多 越好</w>
越南 人</w>
越 快
越快 越好</w>
越 强</w>
超级 市场</w>
超 负荷</w>
超 能力</w>
超 弦</w>
超 低</w>
起 重机</w>
起 着</w>
起 物</w>
赶 超</w>
赶 出去</w>
走 来
走来 走
走来走 去</w>
走 下坡路</w>
赞助 人</w>
赞 歌</w>
赖 斯</w>
赎 罪
赎罪 券</w>
赌 场</w>
资 质</w>
贾 科
贾科 梅</w>
贺 卡</w>
贴 着</w>
购买 者</w>
贬 值</w>
贬 低</w>
贫困 人口</w>
货 船</w>
贡 献者</w>
负 重</w>
贝 利</w>
豪 威尔</w>
象 限</w>
谢 加</w>
谈 不上</w>
调节 器</w>
调查 局</w>
调 皮</w>
谁 会
谁会 想到</w>
课 程
课 时</w>
课 室</w>
课 外</w>
诺 姆</w>
诺 基
诺基 亚</w>
诸 神</w>
诵 读</w>
说 明
说 八
说八 道</w>
语言 学</w>
语 义</w>
该 用</w>
诚 如</w>
试验 性</w>
试 一次</w>
词 儿</w>
识 破</w>
设计 界</w>
论 调</w>
许 多次</w>
讲 些</w>
讲 义</w>
记 在
记在 心</w>
议 定
议定 书</w>
训练 营</w>
让你 能</w>
认真 对待</w>
计算机 行业</w>
计 数
计数 器</w>
警 醒</w>
警 觉</w>
言自 语</w>
言 行</w>
触控 板</w>
解决 不了</w>
解 法</w>
解 救</w>
解 救
解救 出来</w>
角 线</w>
觉得很 有</w>
觉 性</w>
览 会</w>
视频 会议</w>
视觉 效果</w>
规 避</w>
见 所闻</w>
见 惯</w>
要 慢</w>
要 不是</w>
西 瓜</w>
西 德</w>
装 疯</w>
装 扮</w>
被 装</w>
袍 子</w>
表示 感谢</w>
表 面上</w>
表 盘</w>
表 决</w>
补 液</w>
行为 习惯</w>
行 李
行 公事</w>
血红 蛋白</w>
血液 循环</w>
血 块</w>
螺 丝</w>
蝗 虫</w>
蜂拥 而至</w>
蛔 虫</w>
蛋 壳</w>
蚯 蚓</w>
蚕 丝</w>
虚 线</w>
藏 有</w>
薪 阶层</w>
薄 板</w>
蕾 丝</w>
蓝 草</w>
蒙特 利尔</w>
蒙 住</w>
葫 芦</w>
董 事</w>
葡萄 牙
萨利 纳斯</w>
萨 瑞</w>
萨 拉姆</w>
萨 拉
营 救</w>
萌 芽</w>
萌 生</w>
菲 兹</w>
菠 菜</w>
菜 谱</w>
菌 落</w>
菌 类</w>
获 救</w>
获 准</w>
莱 西</w>
莱 昂
莱 文</w>
莫 妮
莫妮 卡</w>
莫 奈</w>
莫 利</w>
莉 亚</w>
药 房</w>
荒 诞</w>
荒 凉</w>
苹果 机</w>
英 勇</w>
若干 年</w>
若 狂</w>
苟 同</w>
苏 族</w>
苍 白</w>
芳香 化</w>
花 生
花 太多</w>
节 课</w>
节 育</w>
艾米 莉</w>
艾米 丽</w>
艾森 豪威尔</w>
艾 里克</w>
艾 莎</w>
艾 瑞克</w>
艾 尔沃德</w>
艺术 性</w>
良 机</w>
舱 门</w>
舰 队</w>
般 地</w>
航 向</w>
舞 步</w>
舞 厅</w>
舒 缓</w>
致命 性</w>
自杀 式</w>
自 言自语</w>
自 慰</w>
自 带</w>
自 小</w>
自 利</w>
膝 河</w>
腿 部</w>
腹 泻</w>
腰 包</w>
腐败 现象</w>
腐 肉</w>
脱 脂
脱脂 剂</w>
脱 下</w>
脑 瘫</w>
脑 力</w>
脉 搏</w>
脆 弱
脆弱 性</w>
能 效</w>
胡 须</w>
胡 闹</w>
胡 说八道</w>
胡 说</w>
胡 同</w>
背 负着</w>
背 景
背 心</w>
胆 量</w>
胆 囊</w>
肿 瘤
肯 德尔</w>
肥 沃</w>
肌 肉
聚集 地</w>
联邦 调查局</w>
联合 体</w>
联 网
聊天 室</w>
耶 林克</w>
耐 克
而 用</w>
而 活</w>
而 未决</w>
而 应</w>
而 变</w>
考古 学</w>
考 察
老 汇</w>
翻译 员</w>
翻 页</w>
翻 越</w>
翻 一番</w>
群 集</w>
群 结
美国 陆军</w>
美国 中央
美国中央 情报局</w>
美 餐</w>
美 尔</w>
置 入</w>
罗斯 海</w>
罗德 里
罗德 岛</w>
罗 萨</w>
罗 兹</w>
罗 兰</w>
网络 服务</w>
网络 安全</w>
网 渔船</w>
缠 身</w>
缝 纫</w>
缜 密</w>
缘 于</w>
编 程
编 排</w>
缅 因
缅因 州</w>
维 艰</w>
维 修
绝 缘
绝 对
给 我发</w>
给 力</w>
绕 圈</w>
结构 性</w>
结 舌</w>
绒 布</w>
绑 匪</w>
经验 主义</w>
经济 模型</w>
经 常
细 微
组织 培养</w>
组 别</w>
组 人</w>
线 管</w>
纽 尔</w>
纸 箱</w>
纳 塔
纯 真</w>
纯 正</w>
纪念 馆</w>
约 组织</w>
红 杉树</w>
繁 殖
繁 杂</w>
累 计</w>
索 要</w>
索 伦</w>
系 鞋带</w>
糟 蹋</w>
糖 类</w>
糖 丸</w>
糕 点</w>
糊 糊</w>
精神 状态</w>
精疲力 竭</w>
精心 制作</w>
精 彩
粗 暴</w>
米 歇尔</w>
米 格</w>
篷 车</w>
篡 改</w>
篇 幅</w>
管理 机构</w>
管弦 乐队</w>
管弦 乐团</w>
管 理学</w>
算 盘</w>
简 报</w>
简 介</w>
签 下</w>
筹 集资金</w>
筹 划</w>
筑 巢</w>
等 级
等 着瞧</w>
等 生</w>
等 不及</w>
第二 项</w>
第二 类</w>
第二 位</w>
第一 站</w>
第一 段</w>
第一 排</w>
第一 所</w>
第一 例</w>
第 十</w>
第 九</w>
第 七个</w>
童 年时期</w>
站 不
窘 境</w>
突 起物</w>
穿 刺</w>
空 谈</w>
穴 居
穴居 人</w>
穆 巴拉克</w>
税 收
移 出</w>
移 入</w>
称 道</w>
租 用</w>
科技 含量</w>
科学 论文</w>
科 普</w>
科 尔</w>
种族 主义</w>
离 心机</w>
福 斯特</w>
福 布斯</w>
票 房</w>
神 话故事</w>
神 权</w>
神 明</w>
神 情</w>
社会 阶层</w>
社会 群体</w>
社会 福利</w>
社会 活动家</w>
社会 底层</w>
社会 工作</w>
社 工</w>
礼 拜
示 警</w>
礁 石</w>
磨 难</w>
磨 灭</w>
磋 商</w>
碰 触</w>
确 有</w>
确 切
确切 的
确切的 说</w>
硬 盘</w>
硫 酸</w>
硝 酸盐</w>
硅 藻</w>
破 纪录</w>
破 旧</w>
砖 头</w>
砍 倒</w>
矿 石</w>
石 灰</w>
石 斧</w>
石 墨</w>
矮 人</w>
矗 立</w>
瞬 即逝</w>
瞧 不起</w>
瞠 目
瞠目 结舌</w>
瞌 睡</w>
督 促</w>
着陆 时</w>
着陆 器</w>
真是 假</w>
真实 感</w>
真 迹</w>
真 机</w>
真 挚</w>
真 品</w>
真 假</w>
看 管</w>
看 些</w>
看 个</w>
看 一遍</w>
相关 者</w>
相互 合作</w>
相 间</w>
相 距</w>
相 斥</w>
直 白</w>
直 截
直截 了
直截了 当</w>
直 奔</w>
直 入</w>
目的 性</w>
盖 里</w>
盖 尔曼</w>
监护 室</w>
盐 水</w>
皮肤 癌</w>
皮 尔
皮 夹</w>
百慕 大</w>
百 货
百 老汇</w>
百 威</w>
百 人</w>
白 日
白日 梦</w>
白 垩
白垩 纪</w>
登 山</w>
登 场</w>
癌 症
痉 挛</w>
病 得</w>
疙 瘩</w>
略 带</w>
畜 牧</w>
界 处</w>
画 板</w>
画 得</w>
画 展</w>
画 室</w>
画 中</w>
男 孩儿</w>
电话 公司</w>
电话 亭</w>
电视 广告</w>
电脑 软件</w>
电影 明星</w>
电子 白板</w>
电 筒</w>
电 冰箱</w>
申 明</w>
由 衷</w>
由 下而上</w>
用 量</w>
用 谷歌</w>
用 笔</w>
用 图表</w>
用 做</w>
用 个</w>
生物 工程</w>
生物 化学</w>
生活 态度</w>
生日 蛋糕</w>
生日 快乐</w>
生 长
生 锈</w>
生 理
生 小孩</w>
生 子</w>
甜 度</w>
甜 味</w>
瓦 达</w>
瓦 片</w>
瓜 分</w>
瑞典 人</w>
理 睬</w>
理 发</w>
球 拍</w>
班 里</w>
珠穆朗 玛</w>
珠 宝
珠 子</w>
玻 利
现实 主义</w>
现 身</w>
现 正</w>
环 礁</w>
玩 火</w>
玛 雅人</w>
玛 萨瑞</w>
玛 氏</w>
猫 猫</w>
猜 到</w>
猎 犬</w>
猎 手</w>
独 行</w>
独 奏</w>
狗 屎</w>
狂 躁</w>
犹 他州</w>
犯罪 分子</w>
特 纳</w>
特 森</w>
特 拉</w>
特 技
特 式</w>
特 异</w>
特 制</w>
物 流</w>
牢 记</w>
牙 签</w>
牌 照</w>
版 面</w>
爸 爸
爸爸 妈妈</w>
爱情 故事</w>
爱 达
燃 起</w>
熟练 工人</w>
熔 化</w>
照 镜子</w>
照 搬</w>
热 门话题</w>
热 端</w>
烧 瓶</w>
烦 扰</w>
烈 地</w>
点击 率</w>
点 滴</w>
点 对
点对 点</w>
炸 掉</w>
炭 疽</w>
炙 热</w>
炒 作</w>
灼 伤</w>
火 星人</w>
濒 死</w>
激进 分子</w>
激 怒</w>
激 奋</w>
潘 多
潘多 拉</w>
漫 漫</w>
漠 视</w>
漠 不
漠不 关心</w>
演 播
演播 室</w>
演 习</w>
漏 水</w>
漏 斗</w>
漂 白</w>
漂 流</w>
满 面</w>
满 分</w>
滑 过</w>
滑 落</w>
溯 源</w>
溢 出</w>
溃 疡</w>
游击 队</w>
游 艇</w>
渡 过</w>
渐 进
混 音</w>
深 色</w>
深 呼吸</w>
深 受
淡无 奇</w>
淘 金</w>
淋 浴</w>
涡 流</w>
消费 市场</w>
消耗 掉</w>
涂 尔
涂尔 干</w>
海绵 状</w>
海洋 学家</w>
浮 夸</w>
流行 歌曲</w>
流感 疫苗</w>
流 汗</w>
流 下</w>
派 克</w>
洞 中</w>
洗 牌</w>
泰晤士 河</w>
泰坦 尼克</w>
泰 特</w>
波 诺</w>
波 多
波多 黎各</w>
波 哥大</w>
波 及</w>
法 文</w>
法 兰克</w>
法 兰
泊 车</w>
沿 用</w>
沿 海</w>
沿 海
油 田</w>
油 滴</w>
油 墨</w>
沸 水</w>
河 道</w>
河 谷</w>
河 沿</w>
沦 丧</w>
没 门</w>
没 读</w>
没 劲</w>
沟通 交流</w>
沙 沙
沙沙 声</w>
沙 地</w>
沙 克</w>
沉 闷</w>
沉 寂</w>
沃 尔</w>
汉 字</w>
汇 合</w>
求 知</w>
求 生</w>
求 得</w>
求 婚</w>
求 偶</w>
水 龙头</w>
水 缸</w>
水 渠</w>
水 污染</w>
水 垢</w>
水 体</w>
水 份</w>
氢 弹</w>
民间 组织</w>
民主 共和国</w>
毫无 关系</w>
毛 虫</w>
毛 孔</w>
每人 每年</w>
每 间</w>
每 片</w>
每 家</w>
每 一处</w>
殿 堂</w>
殷 歌
殷歌 丽</w>
残 渣</w>
死亡 威胁</w>
死 率</w>
死 刑犯</w>
死 人</w>
武 纪</w>
此 以后</w>
正 性</w>
正 弦
止 步</w>
歌 星</w>
歌 剧院</w>
欲 强</w>
欧 文</w>
欣 喜
欣喜 若狂</w>
欠 缺</w>
橱 柜</w>
橡皮 艇</w>
橡 树</w>
横 扫</w>
樊 建
樊建 川</w>
概念 车</w>
概念 性</w>
楼 层</w>
植物 学家</w>
森 德</w>
梦想 成真</w>
梅 尔
桥 牌</w>
桑 迪</w>
桑 德斯</w>
桑 德</w>
桌 面上</w>
桌 旁</w>
桌 前</w>
框 框</w>
格里 尔</w>
格莱 布</w>
格拉 斯
格拉斯 哥</w>
格 里</w>
格 森</w>
核 子</w>
校 友</w>
栏 作家</w>
标准 差</w>
柯 林斯</w>
查理 二世</w>
查 出</w>
柠檬 汁</w>
柜 台</w>
枢 神经</w>
果 园</w>
极 强</w>
松 饼</w>
松 弛</w>
杰 森</w>
杯 赛</w>
来 龙去脉</w>
来 造</w>
来 者</w>
条 目</w>
条 件
权 限</w>
权 者</w>
权 势</w>
权 主义</w>
杂 着</w>
杀伤 力</w>
杀 菌</w>
机械 设备</w>
机 舱</w>
机 电</w>
机 尾</w>
机 关
机关 枪</w>
朱 蒂</w>
本 着</w>
木 料</w>
朗 哥</w>
服务 器
服 装
服 者</w>
有条 理</w>
有 车</w>
有 能</w>
有 病</w>
有 把握</w>
有 待</w>
月 光</w>
最小 化</w>
最低 点</w>
最 终
最 烂</w>
最 弱</w>
曾 一度</w>
曼彻 斯特</w>
曼 纽尔</w>
更 酷</w>
更 贵</w>
更 新
更 斯</w>
更 坏</w>
曲 面</w>
曲 调</w>
暴风 雪</w>
暴 躁</w>
暗 箱</w>
暗 淡</w>
暗 杀</w>
暗 指</w>
暖 和</w>
景 喜剧</w>
景 仰</w>
普遍 现象</w>
普 顿</w>
普 罗</w>
普 兰</w>
普 世</w>
晚 接</w>
晚 安</w>
晋 升</w>
显 微</w>
是 指</w>
是 处</w>
是 乎</w>
星 云</w>
明尼苏 达州</w>
明 翰</w>
明 智
明 晰</w>
明 州</w>
时 要</w>
时 时
时时 刻
时时刻 刻</w>
时 日</w>
时 宜</w>
旧金 山
旧 有</w>
日 日</w>
日 以继
日以继 夜</w>
无花 果</w>
无人 居住</w>
无 足轻重</w>
无 色</w>
无 性
无性 繁殖</w>
无 形
无 序</w>
无 妨</w>
无 声
无 休止</w>
无 事</w>
旋 风</w>
旋 钮</w>
旅行 者</w>
施 瓦
施 德
施德 明</w>
施 以</w>
方程 组</w>
方 夜
方夜 谭</w>
方 便
新闻 周刊</w>
新罕 布什
新生 代</w>
新 潮</w>
新 墨西哥
新墨西哥 州</w>
新 兴
新 体验</w>
斯蒂 安</w>
斯瓦 希里</w>
斯特 拉
斯坦 利</w>
斯 马</w>
斯 莫尔</w>
斯 皮</w>
斯 瓦尔</w>
斯 拉</w>
斯 托</w>
斯 帕
斯 塔尔</w>
斯 卡
断 电</w>
断 开</w>
斧 头</w>
文化 遗产</w>
整 间</w>
整 片</w>
整 件事</w>
敲 响</w>
数码 技术</w>
数学 课程</w>
数学 方法</w>
数以 亿
数以亿 计</w>
数 数</w>
数 十</w>
数 亿</w>
敬 仰</w>
散 落</w>
散 居</w>
散 射</w>
散 发出</w>
教育 家</w>
教学 方式</w>
教 案</w>
教 我
教我 如何</w>
教 于
教于 乐</w>
救 灾</w>
救 济
故 土</w>
故 去</w>
政治 学</w>
放 走</w>
放 缓</w>
放 市场</w>
放 些</w>
改 用</w>
收 视</w>
收 据</w>
收 听到</w>
支持 系统</w>
操作 员</w>
操 心</w>
播 报</w>
撤 掉</w>
摩 诃</w>
摇滚 音乐</w>
摄影 家</w>
摄 制</w>
搭 讪</w>
搞不 清楚</w>
搞 清</w>
揭 密</w>
揭 发</w>
插 曲</w>
掩 埋</w>
推 选</w>
推 器</w>
控制 中心</w>
控 告</w>
接踵 而来</w>
接 连</w>
接 代</w>
探险 队</w>
探 望</w>
探 头</w>
换 算</w>
换 上</w>
损 毁</w>
捕 到</w>
捐 钱</w>
捐 出</w>
捉 住</w>
挺 身而出</w>
振 兴</w>
振 作</w>
挪 威
挥 霍</w>
挥 手</w>
挥 发性</w>
挤 满</w>
挣 点</w>
挖 洞</w>
挑 选出</w>
指挥 棒</w>
持续 时间</w>
持 有者</w>
拼 车</w>
拼 接</w>
招 致</w>
招 聘</w>
拖 网渔船</w>
拖 拽</w>
拖 动</w>
拍 摄
拍 击</w>
拉尔 夫</w>
拉 诺</w>
抽 样</w>
抹 布</w>
抵抗 运动</w>
披头 士</w>
披 萨</w>
报 仇</w>
报 上</w>
护 人员</w>
抚 育</w>
折 断</w>
抗 议
抖 动</w>
投票 站</w>
投 放市场</w>
投 手</w>
技术 支持</w>
技 工</w>
承 载
扶 梯</w>
扫描 器</w>
执 迷</w>
执 着</w>
托 管</w>
托 拉</w>
扔 下去</w>
打 滑</w>
打 嗝</w>
打 分</w>
打 乱</w>
扑 灭</w>
才 多
才多 艺</w>
手 风琴</w>
手 语</w>
手 工艺品</w>
手 动</w>
所在 位置</w>
所 起</w>
所 赐</w>
所 读</w>
所 见所闻</w>
所 致</w>
所 幸</w>
所 含</w>
所 到
所到 之处</w>
房 间内</w>
房 屋里</w>
戴曼 君</w>
戴 维
截 面</w>
截 取</w>
战 马</w>
战 舰</w>
战 时期</w>
战 区</w>
战 乱</w>
或 非</w>
我 病</w>
我 游</w>
我 放</w>
我 建</w>
我 付</w>
我 仅</w>
我 下</w>
成千 上百</w>
成倍 增长</w>
成 群结
成 年期</w>
成 千</w>
成 人
戈 林</w>
憎 恶</w>
慰 藉</w>
慢 动作</w>
慌 失措</w>
愿 违</w>
感 言</w>
感 想</w>
意 在</w>
愈来 愈
愈来愈 多</w>
想 起来</w>
想 做到</w>
惨 淡</w>
惠 更斯</w>
惋 惜</w>
惊 醒</w>
惊 慌失措</w>
惊 悚</w>
惊 呆</w>
情绪 反应</w>
情 景喜剧</w>
情 书</w>
悬 而未决</w>
恶 毒</w>
恭 喜</w>
恋 尸
恋尸 癖</w>
总 额</w>
总 收入</w>
总 体
性 交易</w>
急 救
思想 上</w>
怀 俄
怀俄 明州</w>
忽 略
快 速
快 照</w>
快 得多</w>
快 地</w>
忧 心</w>
忘 怀</w>
忏 悔</w>
必 胜</w>
心脏 起搏器</w>
心理 疾病</w>
心理 健康</w>
心 肺</w>
心 病</w>
心 室</w>
心 于</w>
微 风</w>
微 调</w>
微 缩</w>
得 快</w>
律 性</w>
很久 没</w>
很 惨</w>
征 途</w>
征 服者</w>
往 上
往上 走</w>
彼得 堡</w>
形 图</w>
当 着</w>
当 真</w>
当 权</w>
当 晚</w>
当 众</w>
归 宿</w>
强加 于</w>
强 硬</w>
强 好胜</w>
张 表</w>
张 牌</w>
引 到</w>
引 以为
弊 端</w>
弄 湿</w>
开放 性</w>
开 讨论</w>
开 拍</w>
开 心
建 得</w>
延 展性</w>
廉 洁</w>
康奈 尔
康奈尔 大学</w>
座 右
座右 铭</w>
度 过难关</w>
废 气</w>
底 盘</w>
应 运而生</w>
库 里蒂巴</w>
床 垫</w>
广告 商</w>
广告 公司</w>
广 为</w>
幼 鸟</w>
幼 蚁</w>
幼 崽</w>
幸 免</w>
并不 比</w>
并 立</w>
年 少</w>
平 缓</w>
平 生</w>
平 淡无奇</w>
平 淡</w>
平 民
平 息</w>
干 枯</w>
干 尽</w>
常 年</w>
带 点</w>
带 头</w>
帝 王</w>
帕 蒂</w>
希腊 语</w>
希 德</w>
帆 风顺</w>
布兰 森</w>
布 雷</w>
布 朗
布 景</w>
布 吕
布吕 尔</w>
市 镇</w>
巴塞罗 那</w>
巴 斯蒂安</w>
巴 巴拉</w>
已 然</w>
己 见</w>
差 一点</w>
左 方</w>
工作 效率</w>
工作 坊</w>
工 薪阶层</w>
工 种</w>
工 会</w>
巢 穴</w>
崇 敬</w>
岸 上</w>
岌 岌
岌岌 可
岌岌可 危</w>
山 中</w>
履 历</w>
屠 宰
屠宰 场</w>
展 开讨论</w>
层 级</w>
层 建筑</w>
尿 道</w>
尽 美</w>
尽 善
尽善 尽美</w>
尼日 尔</w>
尼克 松</w>
尼 罗
尼 姑</w>
尺 高</w>
就 是指</w>
尖 牙</w>
尖 刺</w>
少数 民族</w>
少 不了</w>
小型 企业</w>
小 队</w>
小 节</w>
小 玩意</w>
小 王子</w>
小 儿子</w>
小 丑</w>
小 三角</w>
将 来临</w>
将 会用</w>
导 入</w>
对 话
对 角线</w>
对 立面</w>
对 光</w>
寡 妇</w>
寓 教于乐</w>
寒 武纪</w>
富 集</w>
富 国</w>
密歇 根</w>
密密 麻麻</w>
密 闭</w>
密 谋</w>
密 码子</w>
寄 来</w>
寂 寞</w>
容 积</w>
家 后</w>
宰 杀</w>
宠 物
实 地
实 可行</w>
实 况</w>
定位 系统</w>
定 格</w>
定 权</w>
定 居
官方 语言</w>
宗 接代</w>
完好 无损</w>
完 事</w>
安 睡</w>
它 长</w>
它 成</w>
学习 者</w>
学 龄
学 前
学 分</w>
存储 器</w>
存 量</w>
存 档</w>
存 入</w>
婆罗 门</w>
娓 道来</w>
娓 娓道来</w>
威 茨</w>
妥 当</w>
妙 语</w>
妊 娠</w>
妇 女
如此 一来</w>
如 是说</w>
如 其
好 斗</w>
好 使</w>
奴隶 主</w>
女 声</w>
奥 运</w>
奥 纳多</w>
奠 定</w>
奖 得主</w>
奔 驰</w>
契 约</w>
奋 力</w>
奈 德</w>
奇 普</w>
奇 幻</w>
夹 板</w>
头 儿</w>
失 掉</w>
天 方夜谭</w>
天 前</w>
大英 百科全书</w>
大学 校园</w>
大大 小小</w>
大众 传媒</w>
大不 一样</w>
大 白鲨</w>
大 有
大 展</w>
大 姐</w>
大 堡
大堡 礁</w>
大 哭</w>
大 伙</w>
大 个</w>
大 一</w>
多 边形</w>
多 维</w>
多 疑</w>
多 有</w>
多 月</w>
多 才多艺</w>
多 快</w>
多 张</w>
多 巴</w>
多 层次</w>
多 到</w>
多 产</w>
外 部
外 包</w>
外 加</w>
复 用</w>
处 罚</w>
处 女
声 望</w>
声 名
壮 志</w>
墓 穴</w>
境 遇</w>
填充 物</w>
填 埋场</w>
塞 斯</w>
塞 巴斯蒂安</w>
堆 叠</w>
基本 原理</w>
基因 库</w>
基 音乐厅</w>
基 站</w>
基 加利</w>
培养 基</w>
埋 头</w>
埃塞 克斯</w>
埃 德</w>
埃 德
垂直 轴</w>
坠 入</w>
坚 守</w>
坑 里</w>
坐 落于</w>
均 匀
均匀 分布</w>
地球 日</w>
地 问</w>
地 衣</w>
地 游</w>
地 标</w>
地 底</w>
地 块</w>
地 图
地 使</w>
地 会</w>
地 以</w>
在我 心中</w>
在 表面上</w>
在 线
在 短期内</w>
在 所
在 思想上</w>
圣 徒</w>
圣 彼得堡</w>
圣 巴巴拉</w>
土 狼</w>
圈 里</w>
圈 养</w>
圆 的</w>
圆 圆的</w>
图 灵</w>
国际 舞台</w>
国家 卫生
国 与
国与 国</w>
围 起来</w>
围 成</w>
困 住</w>
因 陀罗</w>
因 于</w>
回顾 过去</w>
回收 率</w>
回 落</w>
回 教</w>
回 想起来</w>
回 国</w>
回 升</w>
四 维空间</w>
四 维</w>
四 类</w>
四 百年</w>
四 百万</w>
四 到</w>
噱 头</w>
嘴 边</w>
嘲 鸟</w>
嘲 讽</w>
嘌 呤</w>
嘀 咕</w>
喷 涌</w>
喝 一杯</w>
喘 息</w>
啤酒 厂</w>
商 谈</w>
唧 筒</w>
哥 特式</w>
哑 剧</w>
哈 马斯</w>
哈 萨
哈 得
哀 悼</w>
咖啡 因</w>
和平 共处</w>
呼吸 道</w>
味 觉</w>
味 儿</w>
周 长</w>
呕 吐</w>
呆 板</w>
吹 牛</w>
吸 食</w>
吮 吸</w>
吓 唬</w>
后 现代</w>
后 人</w>
名 画</w>
名 流</w>
同 步
同 工作</w>
合作 项目</w>
合 意</w>
合 唱</w>
各 州</w>
吃 些</w>
吃 不
叶 片</w>
右 臂</w>
史 学家</w>
史 努
史努 比</w>
可见 光</w>
可口 可
可口可 乐公司</w>
可不 可以</w>
可 恶</w>
可 喜</w>
可 变</w>
可 再生</w>
可 供</w>
叮 咬</w>
叫 绝</w>
古 道</w>
古 罗马</w>
口 足</w>
口 腔</w>
叠 纪</w>
叛 军</w>
变 热</w>
变 暗</w>
变 万
变万 化</w>
受 约束</w>
受 此</w>
受 害</w>
受 审</w>
受 制
受制 于</w>
取 胜</w>
取 水</w>
取 其
发生 器</w>
发掘 出</w>
发光 管</w>
发 送给</w>
发 育
发 狂</w>
发 动
发动 战争</w>
发 亮</w>
反应 器</w>
反 转</w>
反 倒</w>
双 曲线</w>
双 关
双关 语</w>
去 处</w>
厨 艺</w>
原 貌</w>
原 意</w>
原 以为</w>
厚 的</w>
厚 厚的</w>
压 器</w>
压 倒</w>
压 倒
压倒 性</w>
历史 进程</w>
即 将来临</w>
危 及</w>
印度 政府</w>
卫星 电话</w>
卡内 基音乐厅</w>
卡 森</w>
卡 德</w>
卡 利亚</w>
占星 术</w>
博士 后</w>
博 主</w>
南 端</w>
南 太平洋</w>
南 卡罗来纳州</w>
卖 点</w>
单 股</w>
单 功能</w>
协 同工作</w>
华盛顿 邮报</w>
华 雷斯</w>
半 英里</w>
半 空</w>
升降 机</w>
千 张</w>
千 变万化</w>
千 兆</w>
十分 复杂</w>
十 六岁</w>
十 八岁</w>
十 亿分</w>
十 三</w>
十 万美元</w>
十 一月</w>
医学 杂志</w>
医 护人员</w>
区 块</w>
区 别
区别 对待</w>
匹 斯堡</w>
北 大西洋</w>
化学 性质</w>
化 妆
化 为
匆 匆</w>
匀 称</w>
勺 子</w>
劳 拉</w>
劳 动
劳 力</w>
助 推器</w>
动画 人物</w>
动态 变化</w>
动 容</w>
动 乱</w>
劣 质</w>
加利福 尼亚大学</w>
加 重</w>
加 点</w>
加 水</w>
加 压</w>
加 个</w>
加 一点</w>
割 下来</w>
副 武装</w>
剪 掉</w>
剪 下来</w>
前 部</w>
前 辈</w>
前 天</w>
前 列</w>
刻 薄</w>
刺激 器</w>
刺 青</w>
刺 穿</w>
刹 那</w>
到 访</w>
到 老</w>
到 手</w>
到 哪去</w>
到 下</w>
别 致</w>
别 国</w>
别 动</w>
别 克</w>
初始 状态</w>
初 等教育</w>
创 业家</w>
刚果 河</w>
刚果 民主共和国</w>
划 线</w>
刑 事</w>
切割 机</w>
切 身</w>
切 斯</w>
切 实可行</w>
切 入点</w>
分析 仪</w>
分散 化</w>
分布 式</w>
分 门别类</w>
分 配
分 级</w>
分 类
分 母</w>
分 文</w>
分 手</w>
击 掌</w>
击 到</w>
出 窍</w>
出 处</w>
出 入</w>
出 事</w>
出 书</w>
凶 杀</w>
凯 拉</w>
凯 伦</w>
几 部</w>
几 段</w>
几 步</w>
几 样</w>
几 号</w>
几 下</w>
凝 视着</w>
凝 固</w>
减 掉</w>
凌 驾于</w>
准确 率</w>
准确 性</w>
决 定权</w>
决 不会</w>
冲 进</w>
冲 绳</w>
冲 着</w>
冲 浪
冰 水</w>
冰 柱</w>
军 用</w>
军 官</w>
军 士</w>
写 入</w>
冒 险
再 试一次</w>
再 落</w>
再 者</w>
再 下</w>
内华 达</w>
内 建</w>
内 嵌</w>
内 在
兼 顾</w>
其 事</w>
兴奋 剂</w>
兴 建</w>
关键 性</w>
关键 因素</w>
关 税</w>
关 头</w>
关 在</w>
共同 完成</w>
共 度</w>
六 条</w>
六 十岁</w>
公平 竞争</w>
公共 场合</w>
公 诸
公 私</w>
公 爵</w>
公 众
公众 形象</w>
八 条</w>
全球 定位系统</w>
全国 上下</w>
全 貌</w>
全 套</w>
全 副武装</w>
克鲁 斯</w>
克里斯 托
克莱 因</w>
光 鲜</w>
光 闪闪</w>
光 镜</w>
光 片</w>
光 泽</w>
光 晕</w>
光 影</w>
先 谈</w>
储藏 室</w>
储 备
偿 还</w>
偷偷 摸摸</w>
偷 走</w>
偶 数</w>
做 礼拜</w>
做 点
做 工</w>
值得 称赞</w>
候 机
倒 计时</w>
倍 增</w>
俯 身</w>
修 道院</w>
信 箱</w>
保龄 球</w>
保 暖</w>
保 丽
保丽 龙</w>
俘 虏</w>
便携 式</w>
依 我
供 氧</w>
例 行公事</w>
使 唤</w>
佩 奇</w>
佛罗 伦
佛罗伦 萨</w>
佛 朗哥</w>
余 地</w>
何 谓</w>
体力 劳动</w>
体 验
佐 证</w>
住 院
住 进</w>
住 宅
低 脂</w>
低 端</w>
低 碳</w>
但 用</w>
伴 有</w>
伯 顿</w>
伯 恩</w>
伦 敦
传输 数据</w>
传统 观念</w>
传统 媒体</w>
传 言</w>
传 真机</w>
传 宗接代</w>
会计 师</w>
会 要</w>
会 来</w>
会 出</w>
伙伴 关系</w>
伙 儿</w>
伎 俩</w>
伊迪 丝</w>
伊斯 梅尔</w>
伊博 语</w>
伊 特</w>
伊 曼纽尔</w>
伊 尔</w>
企 业
仿 照</w>
任 由</w>
价格 下降</w>
价值 体系</w>
们 儿</w>
以 北</w>
令人 高兴</w>
令人 担忧</w>
令人 困惑</w>
代表 团</w>
代 名词</w>
仙 女座</w>
付 诸</w>
他 读</w>
他 时</w>
他 手</w>
从上 到下</w>
从 这
从 此以后</w>
仅 凭</w>
亿 磅</w>
亿 倍</w>
亿 万</w>
人类 基因</w>
人力 物力</w>
人体 炸弹</w>
人 马</w>
人 见</w>
人 活</w>
人 气</w>
人 死</w>
人 命</w>
人 员
人 作</w>
人 以</w>
人 买</w>
亵 渎</w>
亨廷 顿</w>
交 融</w>
交 界处</w>
交 出</w>
亚 特</w>
亚 原子</w>
五 月
五 大</w>
互相 学习</w>
互 联网
互 信</w>
云 集</w>
于 是乎</w>
于 人</w>
二十 四</w>
二十 位</w>
二十 五年</w>
二 烯</w>
二 次
二 极</w>
二 月份</w>
二 战时期</w>
二 年</w>
事 与
事与 愿违</w>
争 强好胜</w>
乳 齿</w>
乱 画</w>
买 回来</w>
买 下来</w>
书 评</w>
书 房</w>
习 得</w>
乞 求</w>
乘 法</w>
乐 透彩</w>
之 物</w>
之 爱</w>
之 名</w>
之 事</w>
之 书</w>
举 些</w>
丽 娜</w>
主宰 者</w>
主 权国家</w>
为 一</w>
丹 娜</w>
临 界
丰富 性</w>
丰 盛</w>
中 画</w>
中 枢神经</w>
中 年
中 介</w>
个人 身份</w>
个人 利益</w>
个人 主义</w>
个 面</w>
两栖 动物</w>
两 颗</w>
两 腿</w>
两 秒钟</w>
两 片</w>
两 根</w>
两 架</w>
两 条线</w>
两 本书</w>
两 处</w>
两 句话</w>
两 千
两 代</w>
两 亿</w>
两 三个</w>
两 万五千</w>
东 边</w>
东 河</w>
丛 林中</w>
丘 吉尔</w>
专业 分工</w>
专业 人才</w>
专 栏作家</w>
专 政</w>
与 其
不顾 一切</w>
不胜 枚举</w>
不断 进步</w>
不得 而知</w>
不堪 重负</w>
不合 逻辑</w>
不可 逆转</w>
不可 收拾</w>
不以为 然</w>
不 配</w>
不 要紧</w>
不 成
不 惜</w>
不 快</w>
不 干</w>
不 均</w>
不 动
不 分
不 出来</w>
不 凡</w>
不 具</w>
不 全是</w>
不 乏</w>
下半 叶</w>
下 调</w>
下 场</w>
下 列</w>
上下 下</w>
上 风</w>
上 限</w>
上 铺</w>
上 线</w>
上 移</w>
上 楼</w>
上 校</w>
上 司</w>
上 加</w>
上 作</w>
上 上下下</w>
三 英里</w>
三 文
三 岁时</w>
三 圈</w>
三 万</w>
万 亿个</w>
七 百</w>
七 次</w>
七 月</w>
七 年级</w>
七 万</w>
一百 多</w>
一百 三十</w>
一百 万倍</w>
一点 一点</w>
一条 街</w>
一无 是处</w>
一无 所获</w>
一块 块</w>
一个 系列</w>
一个 圈</w>
一万 亿</w>
一 见</w>
一 聊</w>
一 站</w>
一 窥</w>
一 磅</w>
一 死</w>
一 捆</w>
一 拳</w>
一 年
一 帆风顺</w>
一 家
一 字
一 命</w>
一 列</w>
一 任</w>
一 两次</w>
一 两件</w>
一 两</w>
z o</w>
ym b
y th
y son</w>
y f
y d</w>
y b
x e</w>
vet son</w>
v al</w>
ust in</w>
us h</w>
us h
up rof
uprof en</w>
um p
ull y</w>
ull inger</w>
ug a</w>
ud s</w>
ub rey</w>
ub a</w>
th erl
therl and</w>
t w
t on
st en</w>
st al</w>
sp ace</w>
s ey</w>
s ch</w>
s a</w>
ry stal</w>
ry B
ro w</w>
re t</w>
re f
re c
r ing</w>
p ta</w>
p oo
p l
ou gh</w>
ou ch
ot h</w>
ord an</w>
oog le</w>
oo r</w>
om b
ol l</w>
od esk</w>
ock en</w>
oc hai</w>
o o</w>
nor ati</w>
n ish</w>
me en</w>
m ouse</w>
m oth
m art</w>
lo r</w>
ll iant</w>
k ler</w>
k ind</w>
k ar</w>
k ar
it ria</w>
it h
is on</w>
ir a</w>
ing ton</w>
ing s</w>
ik a</w>
ig ht</w>
if er</w>
ic ally</w>
ib uprofen</w>
i us</w>
h el
h e</w>
g uga</w>
g aga</w>
ff rey</w>
f re
f ission</w>
ess ica</w>
es c
er on</w>
er em
er d
enn ifer</w>
enb urg</w>
en se</w>
el ope</w>
ect ions</w>
eb er</w>
e i</w>
e e
e c</w>
du m</w>
der abad</w>
de o</w>
da i</w>
chi e</w>
ch an</w>
c oo
b ro
b or</w>
b le</w>
b ab</w>
b a</w>
az on</w>
ay an</w>
ay a</w>
aw ton</w>
av a</w>
au l
as ure</w>
as s</w>
ang a</w>
am an
al d</w>
ab le</w>
a f
Zin ta</w>
Zapp os</w>
Z ullinger</w>
Y ochai</w>
Y 2
Y2 K</w>
X ML</w>
X D</w>
Wor ld</w>
Win ky</w>
Wik i</w>
Whirlw ind</w>
V ir
V ent
V an</w>
U S
Tre asure</w>
Ten dai</w>
Tech norati</w>
TED 2011</w>
T op</w>
T od
T O
Sur f
Su therland</w>
She ik
Sh bab</w>
Sh are</w>
Sev a</w>
Sec ret</w>
Sch ocken</w>
S ug
S il
S am</w>
S ag
S P
S C
Ru fus</w>
Rach el</w>
R y
R uss
R atan</w>
R E
Pre ity</w>
Post Secret</w>
Pog ue</w>
Phi ll
Phi lip</w>
Pat rick</w>
Par ikrma</w>
Pall otta</w>
PH 值</w>
PE T</w>
P ur
P art
P a
P S</w>
P O</w>
P MT
PMT CT</w>
P J</w>
Old enburg</w>
O S</w>
Ny ota</w>
N BA</w>
Mob ile</w>
Mit ra</w>
Mat t</w>
Mar y</w>
Mar c</w>
Mac Ma
MacMa ster</w>
Ma p</w>
Ma ll
M us
M oog</w>
M istry</w>
M il
M id
M et
M ena</w>
M and
M ag
Lov ins</w>
Leg adema</w>
L ou
L e</w>
L ang
Kurzwe il</w>
Kat rina</w>
K n
K in
K ary</w>
Jur vetson</w>
Juli us</w>
John son</w>
Jo y
J ordan</w>
J essica</w>
J ennifer</w>
J ab
Intern et</w>
Inter val</w>
IG F</w>
Hy derabad</w>
Hen ry</w>
Hard y</w>
Har ry</w>
Har ris</w>
Han sen</w>
H ol
H annah</w>
H 1
H1 N1</w>
Gu pta</w>
Gre en</w>
Gil bert</w>
Geo ffrey</w>
G ive</w>
G i
G an
G aga</w>
G G
G 20</w>
Fran kie</w>
F i</w>
F E
Ev e</w>
Enriqu ez</w>
En o</w>
Ell en</w>
E ar
Dou gl
DD T</w>
D yson</w>
D ryB
D ra
D on
D o
D izzy</w>
D ink</w>
D ev
D ata</w>
Conn ections</w>
Ch i
Ch ev
Car lton</w>
Cam eron</w>
Ca itria</w>
C re
C as
C ard</w>
C amp
Brun el</w>
Bri lliant</w>
Br u
Bo one</w>
Black awton</w>
Bl ak
Ber k
Ben kler</w>
Be au</w>
B rown</w>
B rain</w>
Aut odesk</w>
Am ory</w>
Am azon</w>
All en</w>
Ag ar
A ustin</w>
A ubrey</w>
A ss
A X</w>
A T</w>
A P
A G</w>
7 3</w>
5 8
46 6
4 chan</w>
4 Shbab</w>
3. 8</w>
3 8
2 50000</w>
2 30</w>
2 100</w>
196 3</w>
195 9</w>
19 33</w>
19 10</w>
17 000</w>
10 8</w>
10 1</w>
1. 8</w>
1 75</w>
1 2
1 15</w>
齐 聚
齐聚 一堂</w>
鼓 起</w>
鼓 声</w>
黯 淡</w>
黛 德
黛德 丽</w>
默默 无
默默无 闻</w>
默默 地</w>
黑 色素</w>
黑 比诺</w>
黑 客
黑 夜</w>
黑 一片</w>
黄 石
黄石 公园</w>
黄 疸</w>
黄 瓜</w>
麦当 娜</w>
麦克 阿瑟</w>
麦 利
麦利 肯</w>
麦 克斯</w>
麋 鹿</w>
鹦 嘴</w>
鸭嘴 龙</w>
鸡 皮
鸡皮 疙瘩</w>
鸟 鸣</w>
鸟 群</w>
鲜 血</w>
鲍 里斯</w>
鲍 尔</w>
鲁 尔</w>
鲁 坦</w>
鱼 翅</w>
鱼 线</w>
魔 方</w>
魔 戒</w>
鬼 脸</w>
高 龄</w>
高 频</w>
高 脂肪</w>
高 能量</w>
高 级
高 清晰度</w>
高 深</w>
高 浓度</w>
高 架
高 时</w>
高 帝</w>
高 官</w>
高 声</w>
高 品质</w>
骨髓 移植</w>
骨 铭
骨铭 心</w>
骨 质</w>
骡 子</w>
骚 动</w>
骑 马</w>
骑 过</w>
骇 客</w>
驼 峰</w>
驻 民</w>
驱 车</w>
驱 动器</w>
驯 服</w>
马萨诸 塞</w>
马拉 松
马拉松 赛</w>
马扎 罗
马扎罗 山</w>
马尔 切</w>
马 金</w>
马 行
马行 空</w>
马 恩
马恩 岛</w>
马 培
马培 德</w>
香蕉 叶</w>
首 位</w>
饰 品</w>
饮 酒</w>
饭 后</w>
饥 渴</w>
餐 盘</w>
食物 残渣</w>
食 用
食 材</w>
飞行 高度</w>
飞 镖</w>
飞 走</w>
飞 涨</w>
飞 机场</w>
飞 机
飞 向</w>
飘 浮</w>
风景 画</w>
风 干</w>
额 度</w>
颚 骨</w>
颈 动脉</w>
领 着</w>
领 头</w>
领 到</w>
预 热</w>
预 告
预告 片</w>
顿 岛</w>
顽 皮</w>
须 鲸</w>
须 要</w>
顺利 进行</w>
顺 风</w>
顺 手</w>
顺 序
顺序 排列</w>
音乐 演奏</w>
音 素</w>
韩 语</w>
韩 文</w>
韦 恩</w>
韦 尔
韦 伯</w>
鞭 子</w>
鞠 躬</w>
鞍 形</w>
鞋 店</w>
面包 车</w>
面包 树</w>
面 设计</w>
面 目</w>
面 性</w>
面 图</w>
非常 灵活</w>
非 生物</w>
非 派</w>
非 正规</w>
非 国家</w>
非 主流</w>
静止 不动</w>
静 默</w>
静 坐</w>
静 修</w>
青 草</w>
青 年
霸 占</w>
霸 主</w>
霓 虹
霓虹 灯</w>
霍 奇</w>
霍 利</w>
震撼 力</w>
雷 区</w>
零 星</w>
零 散</w>
零 排放</w>
雪佛 兰</w>
雪 崩</w>
雕塑 品</w>
集合 起来</w>
雅 普</w>
雄 蚁</w>
雄 心</w>
雄 伟</w>
雀 跃</w>
难 产</w>
隔 阂</w>
隔 膜</w>
隐 性</w>
隐 形
随 风</w>
随 意
随意 性</w>
随 便
陶 器</w>
陪 伴着</w>
险 记</w>
险 恶</w>
除此 以外</w>
除 以</w>
降 级</w>
降 生</w>
降 水</w>
降 幅</w>
陈 列</w>
际 线</w>
附 在</w>
附 体</w>
附 上</w>
陀 螺
陀螺 仪</w>
阿拉 巴
阿拉巴 马州</w>
阿尔巴 尼亚</w>
阿尔卑 斯山</w>
阿尔 法</w>
阿尔 伯特</w>
阿 沙
阿沙 宁
阿沙宁 卡</w>
阿 巴拉
阿巴拉 契
阿巴拉契 亚</w>
阿 喀
阿喀 琉
阿喀琉 斯</w>
阿 伦</w>
阴 极
阴极 射
阴极射 线管</w>
阳 伞</w>
防 护
阉 割</w>
问 责</w>
问 下</w>
闭 路</w>
闭 幕</w>
闭 关</w>
门 户</w>
门 店</w>
门 子</w>
长途 旅行</w>
长 途</w>
长 远
长 足</w>
长 线</w>
长 生
长生 不
长 廊</w>
长 处</w>
镶 嵌</w>
镜 框</w>
键 入</w>
锦 标
锦标 赛</w>
锐 斯</w>
锅 炉</w>
锁 上</w>
铺 天
铺天 盖
铺天盖 地</w>
铺 垫</w>
铸 成</w>
铁 路
铁 塔</w>
钱 花</w>
钱 会</w>
钢 筋</w>
钟 上</w>
针 织</w>
金融 风暴</w>
金融 时报</w>
金融 市场</w>
金 鱼</w>
金 香</w>
金 矿</w>
金 器</w>
量 身</w>
量 体</w>
野 车</w>
野 性</w>
野 味</w>
重重 的</w>
重新 学习</w>
重 蹈</w>
重 整</w>
重 启</w>
重 其事</w>
里 装</w>
里 奇</w>
采取 措施</w>
采取 任何</w>
醒 醒</w>
醐 灌
醐灌 顶</w>
醍 醐灌顶</w>
酸 钾</w>
酱 菜</w>
酒 馆</w>
酒 店
配 得</w>
配 上</w>
部 非洲</w>
部 族</w>
郑 重其事</w>
郁 金香</w>
邻居 家</w>
邮 政
那 辆车</w>
那 能</w>
那 群人</w>
那 真</w>
那 栋</w>
那 提</w>
那 家伙</w>
那 套</w>
那 一</w>
遵 照</w>
遮 盖</w>
遮 挡</w>
遥 不可及</w>
道 森</w>
道 尔</w>
道 别</w>
遍布 整个</w>
遇 害</w>
造福 人类</w>
速度 慢</w>
通 通</w>
通 晓</w>
通 宵</w>
通 勤</w>
通 俗
通俗 易懂</w>
递 交</w>
逐 年</w>
逐 个</w>
透明 性</w>
选举 权</w>
选 者</w>
选 活动</w>
选 修</w>
逆 风</w>
逆 时针</w>
逃 难</w>
逃 亡</w>
适 度</w>
退 步</w>
追根 溯源</w>
迭 代</w>
迪 尔</w>
迥 然不同</w>
迟 早
迟早 会</w>
连 系</w>
违 反
远 超过</w>
远 亲</w>
进 水</w>
进 晚餐</w>
进 修</w>
这 道</w>
这 节</w>
这 离</w>
这 瓶</w>
这 牌</w>
这 比
这 株</w>
这 新</w>
这 店</w>
这 同</w>
这 出</w>
这 倒</w>
这 中</w>
这 不像</w>
还 长</w>
近 似</w>
近 似
运 载</w>
运 费</w>
运 行
迎 刃
迎刃 而
迎刃而 解</w>
迈 尔</w>
过 用</w>
过 海</w>
过 活</w>
过 期</w>
过 早</w>
过 多久</w>
过 会</w>
过 于
迅 猛
迅猛 发展</w>
达到 高潮</w>
达 沃斯</w>
达 尼</w>
达 兰</w>
边 界线</w>
辨 别
辟 蹊
辟蹊 径</w>
辞 掉</w>
辛 那提</w>
辛 辛那提</w>
输出 国
输出国 组织</w>
输 给</w>
辐射 状</w>
载 重</w>
轻 视</w>
轴 承</w>
软 糖</w>
软 管</w>
软 体</w>
轮 机</w>
轮 候</w>
转换 器</w>
转 速</w>
转 给</w>
转 瞬即逝</w>
车 门</w>
车 赛</w>
车 窗</w>
车 灯</w>
车 手</w>
躲 起来</w>
躲 猫猫</w>
躲 开</w>
躯 干</w>
身 患</w>
身 分</w>
蹊 跷</w>
蹈 矩</w>
踢 腿</w>
踢 球</w>
踏 出</w>
跳 板</w>
路易斯 维尔</w>
路易 十四</w>
路 牙</w>
路 段</w>
路 器</w>
路 况</w>
路 亚</w>
跪 下</w>
跨 部门</w>
跨 出</w>
跟 随者</w>
距 仪</w>
跑 遍</w>
跑 车</w>
跌 落</w>
跌 入</w>
足球 比赛</w>
足 部</w>
足 足有</w>
足 球赛</w>
足 球场</w>
越 野车</w>
超 长</w>
超 群</w>
超 现实</w>
超 然</w>
超 时</w>
趁 机</w>
起 效</w>
走 远</w>
走 捷径</w>
赫 克
赫克 托</w>
赤 裸</w>
赞 美
赞美 诗</w>
赖 以</w>
费 钱</w>
费 舍尔</w>
费 站</w>
费 氏</w>
贸 市场</w>
贴 图</w>
贫 苦</w>
贩 毒</w>
贩 子</w>
账 号</w>
责 骂</w>
负 载</w>
负 有</w>
负 有
负有 责任</w>
贝 辛</w>
贝 特森</w>
贝 格</w>
贝 斯
贝斯 手</w>
豪 斯</w>
象牙 海岸</w>
豆 类</w>
谢 拉</w>
谋 面</w>
谊 舞</w>
调 用</w>
调 换</w>
调 大</w>
调 和</w>
读 一
读一 读</w>
诺贝 利</w>
诺 言</w>
诺 斯</w>
请 愿</w>
请 勿</w>
请 举</w>
说 来
说来 话
说来话 长</w>
说 得好</w>
说 得
说 员</w>
误 诊</w>
误 区</w>
语 汇</w>
语 句</w>
诧 异</w>
诚 度</w>
诚 信</w>
试 点</w>
诈 骗</w>
识 一下</w>
评 为</w>
诃 夫</w>
证 者</w>
访问 量</w>
许 愿</w>
记录 在案</w>
记 谱</w>
让 给</w>
讨论 会</w>
讨 价
讨价 还价</w>
讨 人
认知 科学</w>
认知 失调</w>
认 字</w>
认 同感</w>
认 不出来</w>
讣 告</w>
订 制</w>
计算机 系统</w>
计算 方法</w>
计算 出来</w>
计 较</w>
警 车</w>
警 笛</w>
警 报
警报 器</w>
警 力</w>
言 辞</w>
言 表</w>
言 外
言外 之意</w>
言 乱语</w>
触 犯</w>
触 感</w>
解 雇</w>
解 说员</w>
解 散</w>
觉 着</w>
视频 剪辑</w>
视 率</w>
视 点</w>
视 器</w>
规模 化</w>
规划 者</w>
规划 师</w>
规 蹈矩</w>
观 音</w>
观 赏
见 证者</w>
见 效</w>
要 钱</w>
要 教</w>
要 往</w>
要 强</w>
要 害</w>
要 地</w>
要 价</w>
西 服</w>
西 扎</w>
西 塞罗</w>
装 着</w>
裂 变
裂变 物质</w>
被 叫</w>
表面 温度</w>
表达 形式</w>
表 哥</w>
表 兄</w>
补 充
补 丁</w>
衣 橱</w>
街 景</w>
街 坊
衍生 品</w>
行李 箱</w>
行 当</w>
行 动
行 使</w>
血 缘
血缘 关系</w>
血 汗</w>
螺旋 状</w>
螺旋 形</w>
螺 丝
蛤 蜊</w>
蛋白 组学</w>
蛇 形</w>
虫 乐队</w>
虚拟 空间</w>
藏 身</w>
藏 着</w>
藏 书</w>
薪 资</w>
蔚 蓝</w>
蔗 渣</w>
蓝 领</w>
蓝 绿色</w>
蒸 馏</w>
蒙特 利</w>
蒙 蔽</w>
蒙 混</w>
蒙 德</w>
著 述</w>
落 成</w>
落 叶</w>
萨拉 热
萨拉热 窝</w>
萨 饼</w>
萨 特</w>
萨 根</w>
萨 尼</w>
营 中</w>
营 业
萝 卜
萃 取</w>
菲 尔
菜 花</w>
菌 体</w>
莲 梦</w>
莱 布
莱布 尼
莫 里斯</w>
莫 里</w>
莫 登</w>
莫 比</w>
药 水</w>
荧 幕</w>
荧 光灯</w>
荒 者</w>
荒 漠</w>
荒 岛</w>
草 稿</w>
茶 具</w>
茴 香</w>
茱 蒂</w>
茱 莉亚</w>
茫 茫</w>
茫 然</w>
茅 屋</w>
英 格尔</w>
英 式</w>
英 吉
英吉 利
英吉利 海峡</w>
苯 乙烯</w>
苏 非派</w>
苏 里
苏 珊
苏珊 娜</w>
苍 老</w>
花 边</w>
花 花
花花 公
花花公 子</w>
花 皮</w>
花 旗
花旗 银行</w>
花 招</w>
花 卉</w>
花 光</w>
芝麻 街</w>
节 律</w>
艾 略
艾略 特</w>
艾 琳</w>
艾 利
艾利 克</w>
艾 克斯</w>
艾 丽
艺术 史</w>
艺术 创作</w>
色情 电影</w>
良 药</w>
船 头</w>
船 体</w>
航空 局</w>
航 船</w>
航 海
航 机</w>
舞 曲</w>
舞 台
舞台 剧</w>
舒 尔茨</w>
致癌 物质</w>
致 死率</w>
致 密</w>
致 以</w>
自由 化</w>
自我 调节</w>
自 称为</w>
自 私
自私 自利</w>
自 欺
自欺 欺
自欺欺 人</w>
自 旋</w>
自 律</w>
自 尊
膜 炎</w>
腾 出</w>
腺 丝</w>
腹 产</w>
腕 表</w>
腐败 问题</w>
脱口 而出</w>
脱 钩</w>
脱 贫</w>
脱 氧
脚踏 车</w>
脚 上</w>
脑 里</w>
脑 癌</w>
脑 死亡</w>
脉 络</w>
脂 红</w>
能 靠</w>
能 长</w>
能 起</w>
能 助</w>
胸 肌</w>
胶 状物</w>
胶 状</w>
胶 布</w>
胶 原
胶原 蛋白</w>
胭 脂红</w>
胡 言乱语</w>
胡 萝卜
胡 乱</w>
胜 者</w>
背 诵</w>
背 盖
背盖 区</w>
肺 里</w>
肚 皮</w>
肖 邦</w>
肌肉 组织</w>
肉 瘤</w>
聚 居
聚居 地</w>
聚 乙烯</w>
联合 利
联合利 华</w>
联 通</w>
联 手</w>
职 工作</w>
职 人员</w>
耸 肩</w>
耶 维奇</w>
耳 膜</w>
耐 烦</w>
而不 实</w>
而 外</w>
而 今</w>
而 为</w>
考 得</w>
考 尔</w>
老年 学</w>
老 龄</w>
老 鹰</w>
老 虎
老 照片</w>
老 掉
老掉 牙</w>
老 套</w>
老 大哥</w>
老 去</w>
翻 身</w>
翻 新</w>
翱 翔</w>
群 体
美联 储</w>
美好 未来</w>
美国 麻省理工学院</w>
美国 电影
美国 大使馆</w>
美国 佬</w>
美利 坚
美利坚 合众国</w>
美 酒</w>
美 极了</w>
罪 过</w>
罪 恶
罪 名</w>
罗马 帝国</w>
罗 莎</w>
罗 摩</w>
罗 尼</w>
罗 密
罗密 欧</w>
罗 切</w>
罗 伦</w>
网络 游戏</w>
网络 工具</w>
网络 化</w>
网 关</w>
网 上
缺 水</w>
缩略 语</w>
编 写
缔 组织</w>
缆 线</w>
绿 线</w>
绿 化
绽 放</w>
绷 紧</w>
维护 和平</w>
维修 队</w>
维 达</w>
维 辛</w>
维 特</w>
维 埃拉</w>
统一 性</w>
绝 境</w>
给 你</w>
给 你
给你 个</w>
绘 制
绘制 地图</w>
结肠 镜</w>
结 缔组织</w>
结 石</w>
结 成</w>
绒 毛</w>
经过 培训</w>
经济 收益</w>
经济 损失</w>
经济 合作
经济合作 与
经济合作与 发展
经济合作与发展 组织</w>
终 日</w>
细 长</w>
细 腻</w>
细 细</w>
细 看</w>
细 心</w>
组 里</w>
组 员</w>
纽约 港</w>
纺织 厂</w>
纹 岩</w>
纸 板
纸板 盒</w>
纳 河</w>
纳 巴</w>
纯 氧</w>
约 克</w>
纤 细</w>
红 薯</w>
红 心</w>
纠 错</w>
繁 琐</w>
紧 跟</w>
索 罗斯</w>
索 求</w>
素 食</w>
素 季</w>
糟 糕
糟糕 透顶</w>
糖 衣</w>
糅 合</w>
精神 科</w>
精力 充沛</w>
精 打
精打 采</w>
粪 池</w>
粘 附</w>
粘 结</w>
粘 液</w>
粘 合剂</w>
粉 酱</w>
米 扬</w>
簧 管</w>
管理 制度</w>
管 家</w>
简单 单</w>
简 要地</w>
简 简单单</w>
简 森</w>
简 易
简易 房</w>
筷 子</w>
筋疲力 尽</w>
等 价</w>
笼 罩</w>
笼 统</w>
第二 段</w>
第三 类</w>
第三 层</w>
第一 颗</w>
第一 页</w>
第一 辆</w>
第一 节</w>
第一 篇</w>
第一 章</w>
第一 款</w>
第一 次世界大战</w>
第一 届</w>
第一 印象</w>
第 五次</w>
符 号
符号 化</w>
符 其实</w>
笔 直</w>
竭 力</w>
竟 是</w>
竞 选活动</w>
竞 相</w>
竞 天
竞天 择</w>
站不 住脚</w>
站 台</w>
竖 起</w>
竖 立</w>
立方 英尺</w>
立 足
立 法
立 志</w>
窟 窿</w>
穿 插
空 见惯</w>
空 空</w>
空 想</w>
穷 孩子</w>
稿 子</w>
稿 人</w>
稻 草</w>
稚 嫩</w>
税 局</w>
稍 加</w>
稍 候</w>
稀 松</w>
称 此</w>
称 号</w>
积 蓄</w>
秤 座</w>
秘 密
科罗拉 多</w>
科研 机构</w>
科研 人员</w>
科 迪</w>
科 特
科 斯塔</w>
科 德</w>
科 尔曼</w>
科 姆</w>
秃 秃</w>
私营 部门</w>
私营 企业</w>
秀 丽</w>
离子 通道</w>
离 异</w>
离 家
福 祉</w>
福 勒</w>
福 克
禅 修</w>
禁 令</w>
禁 不住</w>
票 价</w>
神经 质</w>
神经 网络</w>
神经 纤维</w>
神经 科</w>
神经 性</w>
神 来</w>
神 是</w>
神 户</w>
神 学院</w>
神 创
神创 论</w>
神 仙</w>
祖 鸟</w>
社 论</w>
礼 品店</w>
礼 品</w>
磁 盘</w>
磁 悬浮</w>
碰 见</w>
碰 壁</w>
碎 玻璃</w>
硼 烷</w>
硫 酸盐</w>
硅 质</w>
破 败</w>
砰 砰</w>
研究 家</w>
研究 室</w>
矿 场</w>
石油 输出国组织</w>
矮 小</w>
短 篇</w>
短 浅</w>
矫 形</w>
睡 袋</w>
睡 眠
睡眠 不足</w>
睡 个</w>
着 重于</w>
着 色</w>
眼 罩</w>
眼 皮
眷 顾</w>
眠 药</w>
真 该</w>
真 心
看 穿</w>
看 中</w>
看 不清</w>
相对 而言</w>
相互 理解</w>
相 连接</w>
相 符合</w>
相 看</w>
相 吻合</w>
相 加</w>
盲 目
目 鱼</w>
盗 号</w>
监护 人</w>
监 视器</w>
监 听</w>
盐 湖
盐湖 城</w>
皱 眉</w>
皮尔 伯格</w>
皮 质
皮 亚</w>
皇 帝</w>
皆 大
皆大 欢喜</w>
的 摩</w>
的 开始</w>
的 事</w>
百货 公司</w>
百分之九 十八</w>
百分之七 十五</w>
百分之 十
百分之 六</w>
百分之 七</w>
百事 可乐</w>
百万 吨</w>
百 次</w>
百 条</w>
百 叶
百叶 窗</w>
百 出</w>
白 点</w>
白 化</w>
白 光</w>
登 记
登 台</w>
癫 痫
癫痫 病</w>
癌症 病人</w>
痛 不
病毒 传播</w>
病 患者</w>
疑 虑</w>
疏 水</w>
疏 散</w>
留 情</w>
留 存</w>
畏 缩</w>
畅 通</w>
男 同性恋</w>
电路 系统</w>
电话 会议</w>
电脑 病毒</w>
电脑 桌面</w>
电脑 公司</w>
电磁 脉冲</w>
电子 显微镜</w>
电子 扫描</w>
电子 器件</w>
电动 汽车</w>
电力 供应</w>
电信 业</w>
电 粒子</w>
电 动机</w>
甲壳 虫乐队</w>
甲壳 虫</w>
甲壳 类</w>
甲 板</w>
由 水</w>
甫 洛夫</w>
甩 开</w>
用 脚</w>
用 此</w>
用 乐高</w>
生而 平等</w>
生物 课</w>
生活 费</w>
生活 水准</w>
生 精力</w>
生 母</w>
生 平</w>
生 与
生与 死</w>
甜 椒</w>
甘 蔗渣</w>
甘 蓝</w>
瓦伦 西亚</w>
瓦 萨里</w>
瓦 尔迪</w>
瓜 尔</w>
瑟 曼</w>
理论 化</w>
理 查兹</w>
理 发
球 具</w>
班 图</w>
珠宝 店</w>
珍 爱</w>
珍 妮
玻利 维亚</w>
玲 珑</w>
现实 主义者</w>
现代 科学</w>
环境 影响</w>
环 上</w>
玫 瑰
玩 具
玛丽 莲梦</w>
玛 目</w>
王 者</w>
猴 面包树</w>
猴 仔</w>
猛 地</w>
狱 长</w>
狒 狒</w>
犯 法</w>
犯 有</w>
犀 利</w>
特蕾 莎</w>
特立 尼
特技 表演</w>
特 许</w>
特 许
特 大</w>
特 化</w>
特 上</w>
物 竞天择</w>
物 价</w>
牟 利</w>
片 面</w>
片 中</w>
爸 妈</w>
父 女</w>
爱尔 兰语</w>
爱 斯
爱斯 基
爱斯基 摩</w>
爱 戴</w>
爱 国</w>
爬 升</w>
爆炸 声</w>
燕 麦</w>
熬 夜</w>
熟练 掌握</w>
熟 能
熔 炉</w>
煽 动</w>
照 应</w>
照 常</w>
然 接受</w>
然 如此</w>
焦 虑
热 点
热 浪</w>
热 度</w>
热 岛</w>
热 切
热切 地</w>
烧 饭</w>
烤 面包</w>
烤 炉</w>
烟 尘</w>
烈 火</w>
炼 金
点 着</w>
点 半</w>
炉 子</w>
灶 台</w>
灵 气</w>
灵 媒</w>
灰 熊</w>
灯 具</w>
火 种</w>
火 如
火如 荼</w>
火 器</w>
濒临 绝种</w>
激进 主义</w>
激光 测
激光测 距仪</w>
澎 湃</w>
潜 藏着</w>
潜 得</w>
漫 无
漫无 目的</w>
演奏 台</w>
演唱 者</w>
演化 出</w>
演 练</w>
漆 黑一片</w>
滴 血</w>
滴 水
滥 伐</w>
滤 镜</w>
满意 度</w>
满 满</w>
滚 开</w>
滑 轮</w>
滑 梯</w>
源 性</w>
湖 底</w>
湖 区</w>
游 遍</w>
游 弋</w>
游 去</w>
游 到</w>
游 乐园</w>
渠 成</w>
渗透 到</w>
渗 水</w>
渔 人</w>
清 扫</w>
清 二
清二 楚</w>
混 响</w>
深刻 印象</w>
深 邃</w>
深 藏</w>
深 潜</w>
深 思
深 厚</w>
涨 潮</w>
涉 猎</w>
涉 水</w>
消费 量</w>
消耗 量</w>
消化 道</w>
消 遣</w>
消 磨</w>
涂 地</w>
浸 入</w>
海 蒂</w>
海 盗号</w>
海 登</w>
海 滨</w>
海 港</w>
海 明
海明 威</w>
浮 宫</w>
浮 力</w>
浑然 天
浑然天 成</w>
浑 身
济 慈</w>
流行 性</w>
流 露出</w>
流 纹岩</w>
流 水
流水 线</w>
派 驻</w>
派 发</w>
派 别</w>
活 多久</w>
活 命</w>
活 人</w>
洛克 希德</w>
洛 尔</w>
洛 基</w>
洗 店</w>
洋 洋</w>
泽 佛</w>
泰 诺</w>
泰 格</w>
泰 塔</w>
泥 巴</w>
波斯 湾</w>
波尔 布</w>
波 黑</w>
波 角</w>
波 特兰</w>
波 炉</w>
波 波</w>
波 段</w>
波 拉</w>
波 尔</w>
波 器</w>
波 函数</w>
泡 沫
法拉 利</w>
法兰 西</w>
法 论</w>
法 拉</w>
沿海 地区</w>
沿 路</w>
沾 满</w>
治疗 师</w>
油 腻</w>
油 箱</w>
河 马</w>
沧 桑</w>
没 过多久</w>
没 落</w>
没 法
没 意思</w>
没 准
没准 儿</w>
沙 龙</w>
沙 文主义</w>
沉 默
沉 降</w>
沉 入</w>
汹 涌</w>
汉 森</w>
汉 伯特</w>
求 是</w>
汁 液</w>
永 远
永 恒
永恒 不变</w>
永 存</w>
水 量</w>
水 珠</w>
水 牛</w>
水 汽</w>
水 枪</w>
水 平面</w>
水 处理</w>
水 在</w>
水 到
水到 渠成</w>
氧 量</w>
氧 化</w>
气象 站</w>
气象 局</w>
气 馁</w>
气 愤</w>
毛 巾</w>
毕业 典礼</w>
毕 生精力</w>
比 萨饼</w>
比 萨</w>
比 目鱼</w>
比 拟</w>
比 夫</w>
比 上</w>
毒 蛇</w>
毒 液</w>
每 秒钟</w>
每 家
每家 每户</w>
每 克</w>
每 一刻</w>
母 爱</w>
母 乳
母乳 喂养</w>
残 暴</w>
残 余</w>
死 胡同</w>
死 海</w>
死 定
死定 了</w>
歧 途</w>
歧 义</w>
步 维艰</w>
此 间</w>
此 案</w>
此 机会</w>
此 后</w>
此 不
此不 疲</w>
正确 率</w>
正 常
正 中</w>
歉 意</w>
款 待</w>
款 人</w>
欲 绝</w>
欲 为</w>
欧 内
欧内 斯特</w>
欣 然接受</w>
欢 快</w>
橡 皮</w>
橘 红色</w>
模糊 不清</w>
模拟 出</w>
模式 化</w>
模 块
模块 化</w>
榴 弹</w>
榨 取</w>
楚 楚</w>
椰 子
椭 圆</w>
椎 骨</w>
植 株</w>
棚 户
棚户 区</w>
棒 球场</w>
棋 盘</w>
棋 子</w>
检 测仪</w>
检 察
检察 官</w>
梯 度</w>
桑 蚕</w>
桑 德尔</w>
桑 尼</w>
格鲁 吉
格林 斯
格林斯 潘</w>
格 罗
格 米</w>
格 格</w>
格 格
格格 不入</w>
根 茎</w>
核 电</w>
核 查</w>
树 皮</w>
树 丛</w>
树 下</w>
标 榜</w>
标 尺</w>
标 价</w>
柴 火</w>
柱 状图</w>
柯 南</w>
柯 克</w>
柯 伊
柯伊 伯</w>
查 查</w>
查 斯丁</w>
柠檬 水</w>
柜 子</w>
柏林 墙</w>
架 起</w>
枪 匹马</w>
果 松</w>
果 效</w>
果 图</w>
极 短</w>
极 权主义</w>
极 尽</w>
极 低</w>
板 上</w>
松 露</w>
松 树</w>
松 子
松子 酒</w>
杰 拉德</w>
杰 尔</w>
来 算</w>
来 种</w>
来 画</w>
来 点</w>
来 不及</w>
条件 反射</w>
条 框框</w>
条 条框框</w>
杜 松子酒</w>
杜 威</w>
杜 伊</w>
村 里人</w>
材 料
材料 科学</w>
材 于</w>
杏 仁
杏仁 核</w>
李奥 纳特</w>
杆 子</w>
权 行为</w>
杂 技</w>
杂 交
杂交 种</w>
杀人 犯</w>
机械 工程</w>
机 身</w>
机 坪</w>
机 会
朱丽 娅</w>
本地 人</w>
本 职工作</w>
本 植物</w>
本 宁
本宁 顿</w>
本 体</w>
本 上</w>
未 成年</w>
木 棒</w>
朦 胧</w>
朝 圣</w>
朝 下</w>
朝 上</w>
服务器 软件</w>
服务 体系</w>
服 于</w>
朋 友
有色 人种</w>
有多 强</w>
有利 可图</w>
有 望</w>
有 成效</w>
有 家</w>
有 别
有别 于</w>
有 余</w>
月 经</w>
月 板</w>
月 底</w>
最终 目标</w>
最佳 人选</w>
最 起码</w>
最 前沿</w>
替 品</w>
曼哈 顿岛</w>
曼 语</w>
更 广</w>
更 差</w>
更 令</w>
曲 解</w>
暴 雨</w>
暴 跌</w>
暴 徒</w>
暴 君</w>
暗 暗</w>
暂 缓</w>
普林 斯</w>
普拉 特</w>
普 鲁士</w>
普 锐斯</w>
普 特</w>
晚 间</w>
晒 干</w>
显微 照片</w>
显 露出来</w>
显 眼</w>
显 现出</w>
显 出</w>
昼 夜</w>
是 谁</w>
春 季</w>
星 尘</w>
昔 日</w>
易 事</w>
昂 山</w>
旺 加</w>
时 限</w>
时 说</w>
时 用</w>
时 光
时 侯</w>
时 事</w>
时 下</w>
早 饭</w>
早 起</w>
早 日</w>
早 些</w>
早 于</w>
旨 意</w>
旧金山 湾</w>
旧 石器时代</w>
旧 式</w>
日 间</w>
日 葵</w>
日 程
日 上</w>
既 然如此</w>
无限 大</w>
无穷 尽</w>
无法 回答</w>
无可 避免</w>
无 阻</w>
无 赖</w>
无 精打采</w>
无 礼</w>
无 敌</w>
无 处</w>
无 到
无到 有</w>
旗 下</w>
旁 听</w>
施 工</w>
施 于人</w>
方便 使用</w>
方 百计</w>
方 法论</w>
方 格</w>
新鲜 感</w>
新罕布什 尔</w>
新 途径</w>
新 篇章</w>
新 版</w>
新 来</w>
新 技能</w>
新 品</w>
斯特 罗</w>
斯塔 夫</w>
斯 麦</w>
斯 隆</w>
斯 皮尔伯格</w>
斯 河</w>
斯 沃</w>
斯 汀</w>
斯 敦</w>
斯 尼克</w>
斯 克</w>
断 路器</w>
斧 子</w>
料 想到</w>
斑 点</w>
文件 系统</w>
整 日</w>
整 形
整 容
整 夜</w>
整 场</w>
整 修</w>
数据 处理</w>
数据 传输</w>
数千 名</w>
数 十个</w>
数 到</w>
教育 部门</w>
教育 者</w>
教育 经费</w>
教 父</w>
教 员</w>
教 养
教养 所</w>
救 火
救 命</w>
救 人</w>
敏 度</w>
效 果图</w>
效 忠</w>
故事 书</w>
故 事会</w>
放映 机</w>
放射 科</w>
放射 性
放 眼
放 生</w>
攻 打</w>
改革 家</w>
改 掉</w>
收 费站</w>
收 视率</w>
收 看</w>
收 敛</w>
收 支</w>
收 支
收支 平衡</w>
收 听</w>
支 撑
擦 拭</w>
操纵 者</w>
操纵 杆</w>
撞 坏</w>
撞 击到</w>
撕 毁</w>
撇 开</w>
摩 登</w>
摘 除</w>
摘 录</w>
摈 弃</w>
摇 摇</w>
摇 摇
摆 布</w>
摄 氏</w>
搬 家</w>
搞 懂</w>
搜 罗</w>
搅 拌
搅拌 机</w>
搅 动</w>
握 紧</w>
插 画</w>
提供 援助</w>
提 着</w>
提 包</w>
推 特上</w>
推 土机</w>
推 力</w>
推 入</w>
控 诉</w>
接 触
接 见</w>
接 生</w>
探 视</w>
掠 夺
掠夺 者</w>
排放 物</w>
排 骨</w>
排 量</w>
排 泄</w>
排 水
排 挤</w>
排 入</w>
掌 果</w>
掌 上
掌上 电脑</w>
掉 落</w>
捣 毁</w>
损 失
捕 鲸船</w>
捏 造</w>
挖 开</w>
挖 出</w>
挑 出来</w>
按 计划</w>
按 着</w>
按 压</w>
指甲 油</w>
指 点</w>
指 派</w>
持 枪</w>
持 久
拼 贴</w>
拱 形</w>
拨号 音</w>
拥 有权</w>
拟 人
拟人 化</w>
招 待</w>
拖 走</w>
拐 角</w>
拍卖 行</w>
拉拉 邦</w>
拉 长</w>
拉 贾
拉 着</w>
拉 特</w>
拉 巴</w>
拉 上</w>
拈 来</w>
拆 分</w>
报 以</w>
抢 劫
折 服</w>
抗议 者</w>
抗 衡</w>
抗 菌</w>
投资 商</w>
投票 权</w>
投影 机</w>
投 钱</w>
投 在</w>
投 了</w>
抑 制
技术 革新</w>
技 法</w>
找 人</w>
扶 贫</w>
扬 声器</w>
扫 射</w>
扫 兴</w>
扩 大
执 拗</w>
托 尼
托 尔</w>
打 量</w>
打 赢</w>
打 瞌睡</w>
打 滚</w>
打 架</w>
打 开门</w>
打 到</w>
打 击
打 了个</w>
扑 克</w>
手机 短信</w>
手机 用户</w>
手 镯</w>
手 部</w>
手 笔</w>
手 电筒</w>
手 榴弹</w>
手 摇</w>
手 拿
手 感</w>
手 们</w>
扁 平</w>
所 罗
所 愿</w>
战 车</w>
战 败</w>
战 警</w>
战 死</w>
战 壕</w>
我常 想</w>
我 长</w>
我 造</w>
我 越</w>
我 脑</w>
我 管</w>
我 算</w>
我 时</w>
我 思</w>
我 动</w>
成群结 队</w>
成 败</w>
成 份</w>
成 不了</w>
憋 气</w>
慧 眼</w>
慢 性病</w>
慌 张</w>
愿 不
愿不 愿意</w>
感觉 得到</w>
意 即</w>
意 会</w>
愈来 愈</w>
愈 加</w>
惶 恐</w>
想像 到</w>
想 干什么</w>
想 尽
想尽 办法</w>
想 学</w>
想 不出</w>
惬 意</w>
惨 烈</w>
惨 案</w>
惨 不
惨不 忍
惨不忍 睹</w>
惠 券</w>
惊 艳</w>
惊 愕</w>
惊 叹不已</w>
情 理</w>
情 操</w>
情 侣</w>
悲 剧
悲剧 性</w>
[...]
