, 166104
. 143050
the 117191
and 83593
to 68555
of 64891
a 59507
that 52243
I 45602
in 43893
it 43235
you 40084
is 36878
we 36727
&apos;s 32593
this 28625
so 20942
&quot; 20108
-- 18684
they 18277
was 16882
for 16172
have 15209
on 15120
are 15064
what 14629
but 14272
with 13643
can 13376
&apos;t 12325
? 12261
there 12186
about 12020
be 11114
at 10887
as 10799
all 10714
do 10213
not 9917
one 9758
&apos;re 9655
my 8867
if 8830
people 8826
from 8765
like 8698
: 8206
he 8164
an 7974
now 7964
these 7844
just 7731
or 7481
very 7177
because 7164
our 7133
when 6958
out 6900
know 6881
going 6694
by 6508
how 6438
up 6424
them 6324
me 6164
here 6086
which 6085
see 5898
think 5856
more 5818
had 5805
really 5616
get 5475
then 5475
your 5472
who 5361
would 5327
were 5215
their 5203
&apos;ve 5182
&apos;m 4931
some 4873
world 4779
time 4766
us 4749
actually 4724
has 4655
don 4600
into 4588
things 4477
way 4439
where 4279
years 4242
will 4191
go 4125
other 4089
want 4071
make 3840
could 3838
no 3779
said 3745
been 3713
something 3609
right 3563
she 3556
well 3463
first 3438
little 3355
thing 3344
two 3331
got 3245
look 3197
than 3167
those 3147
his 3098
also 3057
much 3047
back 3017
say 2999
life 2932
over 2928
kind 2873
most 2854
work 2792
only 2725
take 2699
even 2677
; 2668
lot 2597
need 2596
did 2594
&apos;ll 2530
many 2522
around 2501
new 2455
good 2452
down 2430
why 2372
different 2359
through 2338
every 2321
her 2279
come 2217
same 2186
doing 2183
put 2180
let 2142
use 2131
being 2108
three 1942
called 1920
any 1915
&apos;d 1863
talk 1859
made 1843
day 1828
percent 1755
after 1745
tell 1741
today 1712
another 1684
fact 1676
human 1667
its 1659
last 1655
great 1649
find 1648
year 1645
didn 1620
idea 1610
went 1610
own 1606
change 1581
big 1578
give 1567
thought 1541
course 1537
should 1537
before 1531
started 1531
off 1514
again 1499
able 1486
show 1478
important 1458
does 1438
story 1436
never 1425
each 1418
next 1418
start 1411
problem 1410
better 1397
system 1386
part 1378
might 1377
ago 1357
mean 1356
♫ 1356
sort 1355
came 1353
together 1342
bit 1338
&apos; 1328
him 1328
technology 1318
still 1301
place 1298
brain 1281
water 1262
between 1259
used 1259
few 1256
long 1244
too 1232
whole 1230
done 1228
looking 1215
end 1197
point 1196
maybe 1181
children 1169
doesn 1167
question 1157
example 1142
understand 1142
real 1134
try 1128
million 1127
found 1125
data 1114
wanted 1110
call 1103
love 1097
person 1089
everything 1087
away 1083
women 1083
always 1082
trying 1078
working 1072
may 1071
four 1058
feel 1056
10 1047
believe 1040
live 1031
design 1030
money 1030
ever 1020
school 1012
using 1008
man 1002
five 1000
kids 998
space 987
took 981
power 976
stuff 976
second 970
information 967
light 967
create 962
thinking 957
! 955
food 949
country 945
enough 943
help 943
building 942
number 940
getting 938
says 937
quite 931
sense 927
small 922
comes 921
means 921
probably 913
Africa 907
interesting 906
future 902
old 902
making 897
happened 894
become 892
less 889
energy 881
left 876
play 876
best 868
dollars 865
talking 861
basically 858
pretty 856
without 854
coming 853
thank 850
anything 840
times 837
am 819
simple 819
body 817
home 809
science 808
side 799
such 799
makes 796
across 792
goes 792
ask 790
ways 785
room 783
happen 781
social 779
else 778
half 774
imagine 774
seen 774
case 773
move 773
saw 769
build 766
countries 761
OK 760
told 756
having 755
happens 750
20 748
living 747
once 747
picture 746
book 742
lives 742
days 739
moment 739
ideas 737
problems 736
bad 734
Earth 725
computer 722
planet 722
yet 722
experience 718
project 718
hard 714
child 710
while 708
everybody 707
family 707
both 705
learn 705
inside 699
later 699
saying 695
looks 694
almost 692
music 691
process 691
health 687
mind 687
care 686
asked 685
reason 684
billion 678
high 677
within 677
six 675
possible 671
nothing 668
guy 667
history 666
hand 664
set 663
car 657
far 655
single 655
true 655
wrong 655
video 653
whether 653
cells 652
... 648
bring 648
form 647
nature 646
keep 642
matter 642
looked 640
business 638
woman 631
hope 630
remember 630
answer 629
beautiful 629
already 627
global 625
heard 624
cancer 623
piece 619
top 619
India 618
line 618
young 618
couple 616
often 616
read 615
universe 615
New 611
sure 610
language 606
amazing 601
age 600
men 599
built 597
okay 595
group 592
places 592
months 590
since 590
somebody 590
God 588
works 588
open 587
turn 587
until 584
sometimes 581
under 580
someone 578
species 578
taking 576
instead 575
stories 575
isn 571
face 570
myself 570
The 568
level 566
minutes 566
education 565
city 564
though 562
TED 561
order 561
community 560
kinds 559
words 559
United 557
itself 557
heart 554
-@@ 553
research 553
art 552
decided 552
gets 552
re@@ 551
must 550
public 550
turns 549
completely 547
rather 547
wasn 545
head 544
happening 542
control 541
exactly 541
mother 540
model 537
run 537
huge 536
job 535
ourselves 535
everyone 534
30 532
word 531
50 529
stop 529
figure 528
ones 526
oil 524
States 523
&#91; 520
&#93; 520
un@@ 520
hear 517
themselves 517
animals 515
share 515
students 515
yes 515
happy 514
Oh 513
large 512
early 509
learned 509
along 508
guys 507
Internet 505
America 504
government 504
knew 504
environment 503
war 503
per 502
shows 501
company 500
couldn 499
moving 499
lots 498
100 497
became 496
particular 496
won 496
finally 495
least 495
front 492
created 491
news 491
name 489
learning 488
sound 487
questions 485
house 484
machine 484
natural 484
night 483
outside 483
perhaps 482
third 481
wonderful 480
hours 479
yeah 479
systems 478
area 477
others 474
takes 474
disease 471
game 470
seven 470
study 470
friends 466
taken 464
whatever 464
society 463
China 462
century 460
state 460
worked 460
air 459
culture 459
against 458
difference 457
American 456
gave 455
terms 453
Well 452
ocean 451
entire 450
ability 449
view 449
population 446
past 445
size 444
thousands 444
during 443
beginning 442
market 440
S@@ 439
seeing 439
close 436
needs 436
powerful 435
cell 433
parts 433
free 432
land 430
spend 428
amount 427
York 425
leave 425
turned 423
certain 422
yourself 421
audience 420
difficult 420
eight 419
interested 419
buy 418
cannot 416
grow 414
feet 412
15 411
began 410
fish 410
tried 409
scale 408
behind 407
You 406
middle 406
easy 405
based 402
cost 401
eyes 401
quickly 401
given 399
needed 398
walk 398
surface 397
black 395
gone 393
media 392
green 390
longer 389
hands 388
simply 388
deal 385
known 385
father 384
spent 384
humans 383
changed 382
image 382
common 380
week 379
books 378
realized 376
full 375
incredible 374
red 374
DNA 373
complex 373
rest 373
structure 373
starting 372
local 371
film 369
sitting 369
feeling 368
opportunity 368
either 367
eat 366
force 363
growing 363
economic 361
lost 361
paper 361
behavior 360
girl 360
poor 359
field 358
nice 358
parents 358
animal 357
brought 357
cities 357
watch 357
step 355
cut 354
phone 354
wrote 353
changes 352
miles 352
images 350
team 350
fun 349
literally 349
short 349
test 349
fly 348
ice 348
companies 346
weeks 346
A@@ 345
felt 345
wouldn 345
material 344
program 343
climate 342
average 341
patient 341
running 341
value 341
in@@ 339
write 339
growth 338
political 338
born 336
death 336
gives 336
speak 336
evolution 335
die 334
friend 334
What 333
ground 333
knowledge 333
English 332
personal 332
technologies 330
developed 329
giving 329
bottom 328
understanding 327
World 326
anyone 326
blue 325
center 325
nobody 325
stage 325
40 324
absolutely 324
reality 324
white 324
anybody 323
computers 323
discovered 323
playing 323
compassion 321
morning 320
shape 320
theory 320
areas 319
focus 319
economy 317
developing 316
met 316
tools 316
pay 315
U.S. 314
forward 314
relationship 314
individual 313
scientists 313
incredibly 312
obviously 312
deep 311
happiness 311
map 311
challenge 310
seems 310
telling 309
millions 308
physical 308
allow 307
knows 307
blood 306
cool 306
son 306
attention 305
i 304
patients 304
recently 304
movement 303
save 303
situation 303
talked 303
creating 302
hold 302
access 300
result 300
seem 300
B@@ 299
G@@ 299
begin 299
experiment 299
fast 299
girls 299
hundreds 299
industry 299
o 299
anyway 298
guess 298
color 297
T@@ 294
key 294
sea 294
baby 293
cars 293
device 293
realize 293
rules 293
becomes 292
dark 292
showed 292
materials 291
produce 291
designed 290
major 290
product 290
numbers 289
bigger 288
pictures 288
solution 288
South 287
support 287
teach 287
tiny 287
12 286
development 286
/ 285
clear 284
lab 284
meet 284
schools 284
Europe 283
alone 283
available 283
effect 283
normal 283
perfect 283
changing 282
reasons 282
groups 281
rate 281
aren 280
generation 280
haven 280
kid 280
P@@ 279
modern 279
present 279
drive 278
robot 278
tells 278
impact 277
pattern 277
CA 276
ate 276
beyond 276
especially 276
soon 276
resources 275
Chinese 274
table 274
towards 274
died 272
issue 272
putting 272
type 272
C@@ 271
voice 271
act 270
dead 270
involved 270
asking 269
led 267
several 267
certainly 266
lived 266
M@@ 265
message 265
scientific 265
similar 265
solve 265
box 264
explain 264
network 264
truth 264
period 263
stand 263
writing 263
object 262
basic 261
medical 261
showing 261
special 261
R@@ 260
plants 259
please 259
projects 259
hit 258
quality 258
examples 257
moved 257
skin 257
suddenly 257
office 256
village 256
wants 256
Google 255
starts 255
eye 254
fear 254
nuclear 254
security 254
listen 253
month 253
particularly 253
risk 253
develop 252
movie 252
serious 252
approach 251
low 251
chance 250
follow 250
k@@ 250
measure 250
minute 250
innovation 249
success 249
carbon 248
choice 248
everywhere 248
extraordinary 248
fall 248
positive 248
eventually 247
exciting 247
further 247
potential 247
camera 246
digital 246
mass 246
totally 246
vision 246
wind 246
smart 245
wish 245
worth 245
F@@ 244
extremely 244
issues 244
software 244
action 243
evidence 243
25 242
online 242
send 242
bunch 241
except 241
notice 241
onto 241
walking 241
D@@ 240
games 240
hour 240
indeed 240
E@@ 239
hundred 239
solar 239
sounds 239
lead 238
named 238
objects 238
stay 238
student 238
L@@ 237
forms 237
break 236
moral 236
nine 236
sit 236
spread 236
visual 236
add 235
boy 235
door 235
teachers 235
points 234
poverty 234
biology 233
democracy 233
gas 233
law 233
biggest 232
buildings 232
essentially 232
journey 232
lose 232
series 232
Chris 231
es 231
likely 231
ready 231
trees 231
wall 231
class 230
medicine 230
street 230
teacher 230
favorite 229
goal 229
grew 229
speed 229
wait 229
architecture 228
er 228
reach 228
sorts 228
cause 227
ended 227
tree 227
leaders 226
pick 226
site 226
above 225
connected 225
mine 225
road 225
supposed 225
talks 225
African 224
ed 224
pieces 224
somehow 224
therefore 224
watching 224
wife 224
general 223
genes 223
thousand 223
among 222
ing 222
plan 222
screen 222
somewhere 222
creative 221
reading 221
self-@@ 221
11 220
60 220
K@@ 220
allowed 220
bacteria 220
expect 220
late 220
pain 220
position 220
strong 220
taught 220
H@@ 219
higher 219
interest 219
main 219
rich 219
West 218
stars 218
results 217
activity 216
HIV 215
beauty 215
continue 215
excited 215
uses 215
version 215
200 214
We 214
complicated 214
doctor 214
models 214
price 214
source 214
sun 214
usually 214
East 213
brains 213
fire 213
military 213
perspective 213
robots 213
A 212
although 212
listening 212
older 212
products 212
smaller 212
80 211
alive 211
hospital 211
impossible 211
including 211
largest 211
page 211
fundamental 210
machines 210
sent 210
truly 210
virus 210
written 210
concept 209
finding 209
list 209
meant 209
revolution 209
traditional 209
North 208
kill 208
killed 208
patterns 208
sell 208
successful 208
training 208
y@@ 208
N@@ 207
crazy 207
larger 207
touch 207
David 206
role 206
shown 206
song 206
ated 205
babies 205
code 205
content 205
waste 205
allows 204
d@@ 204
de@@ 204
fantastic 204
beings 203
college 203
crisis 203
meaning 203
plant 203
18 202
conditions 202
response 202
standing 202
worse 202
safe 201
shot 201
solutions 201
town 201
upon 201
arm 200
communities 200
context 200
fine 200
forth 200
lower 200
s 200
tool 200
faster 199
individuals 199
peace 199
a@@ 198
dangerous 198
decisions 198
math 198
rise 198
greater 197
kept 197
lines 197
critical 196
foot 196
legs 196
seconds 196
cases 195
earlier 195
national 195
studies 195
treatment 195
O@@ 194
TV 194
plastic 194
bed 193
genetic 193
pull 193
aid 192
drugs 192
humanity 192
increase 192
invented 192
physics 192
skills 192
engineering 191
following 191
sex 191
subject 191
Mars 190
himself 190
recognize 190
surgery 190
television 190
University 189
actual 189
draw 189
electricity 189
exist 189
healthy 189
trust 189
ar@@ 188
board 188
clearly 188
famous 188
jobs 188
none 188
range 188
slow 188
remarkable 187
service 187
slide 187
teaching 187
violence 187
expensive 186
sky 186
website 186
No 185
evolved 185
income 185
strange 185
weren 185
wonder 185
John 184
de 184
dream 184
ers 184
freedom 184
hot 184
tend 184
values 184
whose 184
anywhere 183
e@@ 183
various 183
walked 183
artist 182
choose 182
flying 182
immediately 182
production 182
Afghanistan 181
al 181
families 181
unfortunately 181
It 180
anymore 180
conversation 180
dog 180
floor 180
flow 180
heat 180
throughout 180
travel 180
clean 179
drug 179
en@@ 179
policy 179
Americans 178
ating 178
connection 178
record 178
at@@ 177
enormous 177
familiar 177
final 177
minds 177
protect 177
t 177
train 177
understood 177
bodies 176
consider 176
costs 176
direction 176
hole 176
levels 176
oh 176
organization 176
provide 176
Western 175
atmosphere 175
character 175
conference 175
current 175
driving 175
environmental 175
funny 175
o@@ 175
ation 174
complexity 174
connect 174
forces 174
however 174
instance 174
original 174
ran 174
stick 174
earth 173
focused 173
international 173
magic 173
mostly 173
survive 173
terrible 173
active 172
becoming 172
cultural 172
etc 172
inspired 172
rule 172
store 172
types 172
useful 172
dance 171
region 171
speaking 171
summer 171
al@@ 170
below 170
doctors 170
glass 170
intelligence 170
meeting 170
oxygen 170
played 170
zero 170
produced 169
religion 169
rights 169
self 169
specific 169
500 168
Web 168
function 168
bought 167
causes 167
creativity 167
explore 167
organisms 167
practice 167
press 167
progress 167
temperature 167
ahead 166
an@@ 166
decade 166
fuel 166
neurons 166
ts 166
waiting 166
cold 165
creatures 165
massive 165
p@@ 165
politics 165
raise 165
sign 165
War 164
capital 164
carry 164
obvious 164
photograph 164
possibly 164
t@@ 164
ting 164
urban 164
London 163
ant 163
biological 163
challenges 163
feed 163
sleep 163
- 162
boys 162
decision 162
experiments 162
fight 162
governments 162
loved 162
quick 162
unique 162
Dr. 161
closer 161
molecules 161
notion 161
secret 161
10,000 160
AIDS 160
eating 160
emotional 160
mental 160
task 160
aware 159
directly 159
greatest 159
paid 159
private 159
sat 159
square 159
treat 159
City 158
How 158
National 158
performance 158
s@@ 158
sorry 158
ted 158
twice 158
W@@ 157
decide 157
purpose 157
sharing 157
thanks 157
California 156
basis 156
capacity 156
chemical 156
forget 156
institutions 156
king 156
mountain 156
16 155
90 155
dollar 155
event 155
recent 155
trouble 155
calls 154
communication 154
creates 154
near 154
non-@@ 154
police 154
sustainable 154
track 154
tremendous 154
I@@ 153
financial 153
path 153
web 153
Indian 152
broken 152
designers 152
effects 152
networks 152
standard 152
supply 152
V@@ 151
achieve 151
address 151
ancient 151
ants 151
complete 151
li@@ 151
lights 151
mom 151
passion 151
programs 151
surprising 151
worst 151
apart 150
birds 150
birth 150
bringing 150
coffee 150
corner 150
discover 150
infrastructure 150
mobile 150
societies 150
states 150
total 150
$ 149
This 149
charge 149
choices 149
cover 149
extra 149
farmers 149
fit 149
forest 149
gene 149
over@@ 149
popular 149
radio 149
ac@@ 148
bread 148
career 148
conflict 148
g@@ 148
genome 148
pressure 148
scientist 148
services 148
Richard 147
fix 147
memory 147
planets 147
push 147
rock 147
search 147
shared 147
win 147
worry 147
ab@@ 146
boat 146
knowing 146
missing 146
pass 146
seemed 146
shift 146
slightly 146
text 146
weight 146
central 145
effective 145
elements 145
published 145
sh@@ 145
significant 145
spending 145
2 144
balance 144
drop 144
fairly 144
hearing 144
race 144
reduce 144
B 143
bridge 143
daughter 143
straight 143
18@@ 142
Iraq 142
Middle 142
Why 142
ates 142
degrees 142
devices 142
flu 142
helping 142
responsibility 142
willing 142
workers 142
300 141
Hey 141
check 141
dying 141
gotten 141
colleagues 140
diseases 140
fully 140
helped 140
i@@ 140
noticed 140
possibility 140
sequence 140
y 140
14 139
Asia 139
artists 139
bone 139
brings 139
hair 139
imagination 139
k 139
landscape 139
related 139
structures 139
co@@ 138
communicate 138
definition 138
e 138
particles 138
sick 138
trained 138
answers 137
diversity 137
moments 137
respect 137
studying 137
term 137
u@@ 137
cheap 136
differences 136
fascinating 136
highly 136
join 136
ship 136
stopped 136
easily 135
laws 135
passed 135
re-@@ 135
religious 135
slowly 135
streets 135
throw 135
effort 134
events 134
fashion 134
feels 134
markets 134
nearly 134
stem 134
turning 134
window 134
1,000 133
attack 133
base 133
despite 133
electric 133
flight 133
languages 133
return 133
sold 133
Paul 132
b@@ 132
designer 132
graph 132
moves 132
nation 132
pages 132
Mr. 131
competition 131
engine 131
engineer 131
industrial 131
insects 131
saving 131
statistics 131
J@@ 130
decades 130
figured 130
interact 130
necessarily 130
shares 130
sudden 130
tissue 130
walls 130
wisdom 130
yellow 130
billions 129
breast 129
concerned 129
emotions 129
la 129
leading 129
mission 129
necessary 129
star 129
suffering 129
virtual 129
CO2 128
French 128
Japan 128
aging 128
damage 128
holding 128
opened 128
trade 128
ultimately 128
warming 128
If 127
afraid 127
bird 127
blind 127
caught 127
differently 127
faces 127
forever 127
hopefully 127
meat 127
70 126
benefit 126
brilliant 126
capable 126
grade 126
jump 126
molecule 126
negative 126
noise 126
plane 126
visit 126
adults 125
airplane 125
ball 125
easier 125
heads 125
helps 125
moon 125
opportunities 125
organic 125
sing 125
400 124
E 124
San 124
civil 124
compared 124
en 124
giant 124
matters 124
normally 124
profound 124
soldiers 124
17 123
Charles 123
background 123
degree 123
desire 123
di@@ 123
everyday 123
leads 123
museum 123
otherwise 123
perfectly 123
ton 123
vast 123
wild 123
British 122
Washington 122
apply 122
benefits 122
civilization 122
distance 122
era 122
intelligent 122
lucky 122
separate 122
spirit 122
yesterday 122
Sun 121
am@@ 121
commercial 121
cycle 121
dis@@ 121
finished 121
galaxy 121
mathematics 121
mouse 121
park 121
phenomenon 121
planning 121
prison 121
relationships 121
trial 121
2,000 120
Einstein 120
collective 120
creation 120
dad 120
discovery 120
efficient 120
engage 120
experiences 120
female 120
foreign 120
importantly 120
opposite 120
predict 120
sector 120
stuck 120
ti@@ 120
as@@ 119
colors 119
core 119
driven 119
fighting 119
identity 119
invest 119
ly 119
net 119
note 119
phones 119
traffic 119
arms 118
citizens 118
describe 118
equivalent 118
er@@ 118
extreme 118
finger 118
improve 118
male 118
meters 118
neighborhood 118
operating 118
photos 118
report 118
sister 118
toward 118
typical 118
weapons 118
Bill 117
MIT 117
according 117
afford 117
agree 117
article 117
consciousness 117
dinosaurs 117
drawing 117
edge 117
engineers 117
loss 117
mothers 117
ordinary 117
rural 117
thinks 117
transform 117
viruses 117
dreams 116
layer 116
leaving 116
majority 116
members 116
muscle 116
organizations 116
seriously 116
24 115
C 115
Michael 115
Times 115
affect 115
be@@ 115
bits 115
con@@ 115
deeply 115
fields 115
letter 115
or@@ 115
party 115
roughly 115
shoes 115
spot 115
studied 115
theater 115
versus 115
artificial 114
believed 114
block 114
continent 114
count 114
entirely 114
failed 114
investment 114
managed 114
mouth 114
on@@ 114
principle 114
begins 113
card 113
dinner 113
f@@ 113
hell 113
im@@ 113
ma@@ 113
names 113
oceans 113
se@@ 113
seat 113
signal 113
soil 113
tens 113
universal 113
wealth 113
In@@ 112
ad@@ 112
ch@@ 112
circle 112
coral 112
it@@ 112
keeping 112
legal 112
protein 112
quote 112
ten 112
advantage 111
bo@@ 111
chair 111
compare 111
distribution 111
ends 111
enjoy 111
exists 111
losing 111
pleasure 111
professional 111
r@@ 111
raised 111
spaces 111
steps 111
suppose 111
tomorrow 111
u 111
wearing 111
whenever 111
13 110
argue 110
brother 110
businesses 110
contact 110
currently 110
described 110
evolutionary 110
factory 110
galaxies 110
lesson 110
mile 110
principles 110
shouldn 110
trip 110
whom 110
Al 109
Great 109
Mexico 109
That 109
breath 109
catch 109
economics 109
harder 109
highest 109
influence 109
lack 109
le@@ 109
magazine 109
motion 109
ous 109
responsible 109
ri@@ 109
signals 109
teeth 109
treated 109
vehicle 109
worried 109
argument 108
chemistry 108
childhood 108
crime 108
desert 108
email 108
failure 108
feelings 108
filled 108
fourth 108
holes 108
invited 108
respond 108
rid 108
ter 108
tumor 108
z@@ 108
ad 107
bank 107
debate 107
due 107
e-@@ 107
grown 107
independent 107
metaphor 107
multiple 107
nervous 107
offer 107
painting 107
prevent 107
property 107
surprise 107
survival 107
tough 107
unless 107
wear 107
weird 107
3D 106
Japanese 106
adult 106
c@@ 106
followed 106
hadn 106
hate 106
held 106
husband 106
island 106
malaria 106
organized 106
random 106
rates 106
shapes 106
sharks 106
station 106
strategy 106
tail 106
wave 106
9 105
addition 105
fell 105
generations 105
grandmother 105
justice 105
married 105
movies 105
nations 105
remote 105
river 105
ro@@ 105
sugar 105
2@@ 104
3@@ 104
And 104
Con@@ 104
George 104
agriculture 104
awful 104
bear 104
collect 104
constantly 104
construction 104
copy 104
date 104
dynamic 104
enter 104
ine 104
invisible 104
opening 104
photo 104
picked 104
represent 104
speech 104
Kenya 103
Life 103
U@@ 103
account 103
demand 103
facing 103
letters 103
mentioned 103
proud 103
shop 103
weather 103
Anderson 102
Britain 102
absolute 102
avoid 102
characters 102
closed 102
consequences 102
cultures 102
detail 102
dimensions 102
emotion 102
empty 102
hidden 102
importance 102
interface 102
invention 102
pounds 102
president 102
threat 102
150 101
England 101
condition 101
covered 101
curious 101
dealing 101
deliver 101
designing 101
dry 101
existence 101
finish 101
lies 101
mortality 101
producing 101
round 101
specifically 101
spectrum 101
technical 101
z 101
100,000 100
20th 100
NASA 100
Thomas 100
ah 100
campaign 100
classroom 100
daily 100
equipment 100
exercise 100
inner 100
intellectual 100
kilometers 100
le 100
link 100
m 100
scene 100
underneath 100
whereas 100
1 99
99 99
James 99
arrived 99
belief 99
cameras 99
computing 99
details 99
double 99
electrical 99
experts 99
fold 99
joy 99
launched 99
leadership 99
limited 99
lunch 99
molecular 99
n 99
pre@@ 99
processes 99
ra@@ 99
ride 99
European 98
Y@@ 98
beat 98
direct 98
ent 98
generally 98
increasingly 98
labor 98
m@@ 98
os@@ 98
photographs 98
reward 98
sand 98
selling 98
serve 98
sets 98
stupid 98
typically 98
vote 98
D 97
Dan 97
Institute 97
Mar@@ 97
Nigeria 97
architect 97
budget 97
chemicals 97
components 97
consumption 97
der 97
emerging 97
feedback 97
folks 97
hasn 97
ings 97
leaves 97
location 97
personally 97
practical 97
restaurant 97
saved 97
solved 97
university 97
Islam 96
R 96
alternative 96
chain 96
cognitive 96
disaster 96
effectively 96
evil 96
fat 96
generate 96
honest 96
hydrogen 96
increasing 96
leader 96
n@@ 96
paying 96
penguins 96
possibilities 96
represents 96
resource 96
safety 96
silk 96
worldwide 96
Pacific 95
appear 95
arts 95
bar 95
carefully 95
define 95
drink 95
gravity 95
instrument 95
introduced 95
ladies 95
leg 95
puts 95
sources 95
spoke 95
st@@ 95
Big 94
Harvard 94
bottle 94
buying 94
convince 94
factor 94
flat 94
gold 94
identify 94
liked 94
match 94
newspaper 94
p 94
pe@@ 94
rain 94
sentence 94
stream 94
swim 94
De@@ 93
analysis 93
bright 93
camp 93
caused 93
considered 93
definitely 93
emissions 93
environments 93
epidemic 93
l@@ 93
marketing 93
organs 93
primary 93
prove 93
rapidly 93
steel 93
stone 93
sunlight 93
surprised 93
switch 93
theme 93
transformation 93
w@@ 93
wood 93
worlds 93
Wikipedia 92
Z@@ 92
ag@@ 92
da 92
entrepreneurs 92
essential 92
fossil 92
g 92
lady 92
master 92
mathematical 92
proteins 92
rare 92
requires 92
shark 92
status 92
suggest 92
affected 91
als 91
anti-@@ 91
associated 91
coast 91
cooking 91
dots 91
fellow 91
heavy 91
killing 91
ks 91
lessons 91
long-term 91
mistakes 91
per@@ 91
player 91
print 91
protection 91
relatively 91
swimming 91
unlike 91
unusual 91
user 91
wine 91
3 90
Darwin 90
Francisco 90
accept 90
ar 90
atoms 90
calling 90
creature 90
dogs 90
equal 90
expression 90
high-@@ 90
lie 90
lifetime 90
perception 90
professor 90
protected 90
ring 90
sites 90
techniques 90
testing 90
thoughts 90
tons 90
v@@ 90
videos 90
ancestors 89
brand 89
connections 89
depression 89
display 89
faith 89
farm 89
interaction 89
medium 89
ness 89
one-@@ 89
operation 89
partner 89
poetry 89
reaction 89
regular 89
valuable 89
vi@@ 89
wire 89
4@@ 88
5,000 88
Twitter 88
YouTube 88
ans 88
bees 88
broke 88
combination 88
democratic 88
diet 88
exchange 88
forced 88
gap 88
hits 88
homes 88
houses 88
infected 88
j@@ 88
manage 88
previous 88
radical 88
sees 88
stood 88
tradition 88
wide 88
4 87
600 87
Facebook 87
Iran 87
Re@@ 87
accident 87
added 87
consumer 87
credit 87
deeper 87
efficiency 87
expected 87
experienced 87
horse 87
inter@@ 87
metal 87
mirror 87
platform 87
players 87
prepared 87
release 87
setting 87
skill 87
smell 87
ultimate 87
An@@ 86
Ar@@ 86
Ch@@ 86
Robert 86
School 86
Yes 86
ages 86
asks 86
centers 86
clip 86
cortex 86
discussion 86
facts 86
fail 86
grain 86
kitchen 86
presentation 86
require 86
risks 86
row 86
selection 86
sending 86
si@@ 86
th@@ 86
trick 86
users 86
vulnerable 86
wing 86
2008 85
advanced 85
coal 85
controlled 85
ecosystem 85
explains 85
films 85
fresh 85
ge@@ 85
ic 85
interests 85
lets 85
method 85
naturally 85
neighbors 85
occurred 85
plus 85
sad 85
sides 85
strength 85
th 85
three-dimensional 85
35 84
Al@@ 84
Bank 84
Center 84
Gulf 84
Steve 84
T 84
boring 84
carrying 84
depends 84
destruction 84
error 84
express 84
fair 84
falling 84
fingers 84
formed 84
graduate 84
h@@ 84
hoping 84
introduce 84
keeps 84
mention 84
movements 84
notes 84
pollution 84
productive 84
psychology 84
quantum 84
quiet 84
received 84
researchers 84
satellite 84
se 84
singing 84
situations 84
tape 84
tests 84
vaccine 84
warm 84
watched 84
waves 84
y-@@ 84
year-old 84
75 83
GDP 83
ap@@ 83
applied 83
battle 83
collapse 83
convinced 83
cutting 83
figures 83
fill 83
frankly 83
goods 83
lay 83
length 83
library 83
op@@ 83
organism 83
ought 83
out@@ 83
polio 83
shoot 83
unit 83
variety 83
voices 83
wars 83
Look 82
Ma@@ 82
U.N. 82
acting 82
chicken 82
director 82
ds 82
framework 82
ha@@ 82
he@@ 82
joke 82
la@@ 82
north 82
om@@ 82
peak 82
promise 82
radiation 82
recorded 82
reference 82
replace 82
shame 82
smile 82
sophisticated 82
traveling 82
winter 82
wondering 82
My 81
Pakistan 81
bi@@ 81
blog 81
bomb 81
corruption 81
entertainment 81
gentlemen 81
grid 81
hero 81
laptop 81
novel 81
passionate 81
poem 81
processing 81
signs 81
south 81
studio 81
style 81
tions 81
um 81
unclear 81
visible 81
well-being 81
&apos;@@ 80
2000 80
2007 80
21st 80
3,000 80
45 80
Canada 80
Chicago 80
September 80
Valley 80
attempt 80
author 80
behaviors 80
burning 80
ch 80
continued 80
curve 80
em 80
ex@@ 80
fewer 80
fishing 80
fundamentally 80
launch 80
linked 80
liquid 80
motor 80
musical 80
paint 80
pollen 80
properties 80
pulled 80
technological 80
volume 80
writer 80
Wow 79
aspect 79
behavioral 79
burn 79
bus 79
circumstances 79
click 79
dancing 79
defined 79
dropped 79
employees 79
explanation 79
falls 79
foundation 79
gift 79
input 79
insight 79
largely 79
management 79
mis@@ 79
mountains 79
parking 79
reached 79
runs 79
senses 79
solving 79
target 79
taste 79
ters 79
&gt; 78
&lt; 78
Brazil 78
activities 78
blocks 78
boxes 78
element 78
encourage 78
flies 78
honor 78
increased 78
messages 78
mistake 78
odd 78
outcome 78
politicians 78
relative 78
required 78
roof 78
sample 78
string 78
surgeon 78
vessels 78
x 78
21 77
6@@ 77
Arab 77
authority 77
climb 77
dramatic 77
eggs 77
frame 77
gain 77
hospitals 77
instruments 77
manufacturing 77
member 77
mo@@ 77
monkeys 77
partners 77
plans 77
relevant 77
roll 77
rooms 77
simplicity 77
solid 77
sphere 77
staff 77
struggle 77
symmetry 77
title 77
tive 77
wherever 77
Bush 76
Okay 76
abstract 76
advice 76
appropriate 76
b 76
capture 76
cards 76
clever 76
closely 76
decline 76
ded 76
designs 76
detect 76
driver 76
evening 76
evolve 76
hurt 76
il@@ 76
innovative 76
inspiration 76
institution 76
options 76
pop 76
presence 76
ps 76
reverse 76
roads 76
sensitive 76
sexual 76
shaped 76
stress 76
sweet 76
te@@ 76
Africans 75
But 75
Germany 75
Street 75
Yeah 75
acts 75
amounts 75
cents 75
cloud 75
comfortable 75
crowd 75
determine 75
drives 75
electronic 75
equation 75
es@@ 75
exploring 75
les 75
marriage 75
measured 75
organ 75
plays 75
pre-@@ 75
pro@@ 75
puzzle 75
sub@@ 75
suggests 75
technique 75
therapy 75
unknown 75
upper 75
wireless 75
Project 74
U.K. 74
birthday 74
bones 74
breathe 74
church 74
conclusion 74
correct 74
cross 74
ding 74
explained 74
factors 74
implications 74
include 74
literature 74
lo@@ 74
meaningful 74
nor 74
pair 74
papers 74
physically 74
plate 74
sa@@ 74
shall 74
songs 74
split 74
whales 74
5 73
Boston 73
DH 73
Prize 73
Sweden 73
Uganda 73
angle 73
concepts 73
exact 73
expert 73
flew 73
gang 73
grand 73
gun 73
ies 73
l 73
load 73
maps 73
nose 73
piano 73
records 73
regions 73
remain 73
remains 73
sc@@ 73
smallpox 73
thin 73
transition 73
up@@ 73
vehicles 73
younger 73
zoom 73
Apple 72
Israel 72
King 72
Korea 72
President 72
algorithms 72
automatically 72
balloon 72
battery 72
busy 72
collaboration 72
conventional 72
d-@@ 72
flowers 72
functions 72
garden 72
inspiring 72
liver 72
me@@ 72
ons 72
opinion 72
overall 72
patent 72
philosophy 72
presented 72
pure 72
raw 72
somewhat 72
sp@@ 72
speakers 72
stronger 72
tea 72
Australia 71
Bible 71
TEDx@@ 71
accurate 71
appreciate 71
architects 71
awareness 71
bubble 71
connecting 71
dense 71
economists 71
educational 71
el 71
go@@ 71
iPhone 71
identical 71
ked 71
logic 71
lung 71
lying 71
magnetic 71
measuring 71
ne@@ 71
neither 71
ol@@ 71
ours 71
relate 71
soft 71
spider 71
spoken 71
te 71
teams 71
tries 71
underwater 71
whale 71
Museum 70
One 70
X 70
ain 70
applications 70
attacks 70
causing 70
celebrate 70
challenging 70
conscious 70
constant 70
ears 70
el@@ 70
election 70
existing 70
exploration 70
fake 70
furniture 70
handle 70
horrible 70
hotel 70
painful 70
participate 70
remind 70
remove 70
tour 70
trend 70
unexpected 70
wake 70
weak 70
2005 69
6 69
BF 69
Christmas 69
Foundation 69
II 69
Paris 69
admit 69
ba@@ 69
brief 69
charity 69
classic 69
clinical 69
combined 69
commitment 69
dignity 69
features 69
feeding 69
former 69
infinite 69
intense 69
joined 69
laugh 69
mix 69
nets 69
paradigm 69
pi@@ 69
pregnant 69
quarter 69
till 69
trillion 69
victims 69
villages 69
windows 69
wise 69
&amp; 68
19@@ 68
60s 68
Car@@ 68
Do 68
Ro@@ 68
Science 68
Union 68
actions 68
afternoon 68
bike 68
breathing 68
chip 68
combine 68
d 68
deaths 68
depend 68
depending 68
dies 68
distributed 68
dozen 68
extent 68
faced 68
goals 68
heroes 68
invent 68
latest 68
lighting 68
lovely 68
mechanism 68
monkey 68
nowhere 68
operate 68
organize 68
par@@ 68
qu@@ 68
resistance 68
samples 68
scan 68
seed 68
sensors 68
shut 68
silence 68
soul 68
standards 68
suit 68
tion 68
topic 68
transformed 68
translate 68
violent 68
zone 68
8 67
Eastern 67
France 67
Muslim 67
Obama 67
allowing 67
ator 67
bag 67
brothers 67
centuries 67
classes 67
confidence 67
consumers 67
cure 67
doubt 67
empathy 67
engaged 67
exhibition 67
false 67
funding 67
globe 67
incentives 67
interview 67
laboratory 67
mark 67
output 67
passing 67
plenty 67
poorest 67
printing 67
prize 67
recording 67
root 67
sculpture 67
statement 67
toxic 67
tube 67
ur@@ 67
ver@@ 67
walks 67
well-@@ 67
70s 66
AB 66
army 66
blow 66
chose 66
claim 66
component 66
controlling 66
crash 66
equally 66
expand 66
herself 66
hunger 66
immune 66
interactive 66
milk 66
orbit 66
particle 66
percentage 66
physicist 66
pig 66
prices 66
proof 66
shoulder 66
stable 66
stands 66
sts 66
ter@@ 66
tu@@ 66
ul@@ 66
under@@ 66
2009 65
Don 65
German 65
Los 65
Man 65
Microsoft 65
Second 65
advertising 65
appears 65
au@@ 65
clock 65
density 65
des 65
dramatically 65
economies 65
enable 65
enemy 65
existed 65
facial 65
fed 65
floating 65
genius 65
interestingly 65
is@@ 65
ker 65
ley 65
marine 65
mechanical 65
meetings 65
meter 65
narrator 65
obsessed 65
occur 65
option 65
origami 65
pack 65
parallel 65
pocket 65
potentially 65
productivity 65
pushing 65
released 65
repair 65
scared 65
severe 65
spreading 65
surfaces 65
sustainability 65
tag 65
telephone 65
trials 65
ve 65
wondered 65
2004 64
7@@ 64
Haiti 64
Islamic 64
So 64
State 64
Tom 64
aircraft 64
aside 64
aspects 64
ations 64
attached 64
cat 64
contains 64
copyright 64
cow 64
dioxide 64
directions 64
dynamics 64
grab 64
grows 64
happier 64
ir@@ 64
laser 64
mate 64
mess 64
micro@@ 64
mystery 64
perform 64
prototype 64
provides 64
reaching 64
rocket 64
romantic 64
seats 64
secondly 64
slides 64
subjects 64
surrounded 64
symptoms 64
t-@@ 64
tall 64
three-@@ 64
tonight 64
transportation 64
vulnerability 64
wanting 64
19 63
50,000 63
80s 63
Di@@ 63
accessible 63
adapt 63
afterwards 63
ality 63
appeared 63
assume 63
behave 63
careful 63
chart 63
cook 63
diagram 63
du@@ 63
embrace 63
feature 63
fund 63
funded 63
ge 63
gender 63
graphic 63
graphics 63
hall 63
loop 63
miss 63
narrative 63
ob@@ 63
opposed 63
overcome 63
rescue 63
rising 63
rocks 63
roots 63
so-called 63
spiritual 63
spring 63
stayed 63
symbol 63
tic 63
wheel 63
19th 62
1@@ 62
20,000 62
2003 62
95 62
Ghana 62
Gore 62
Island 62
Le@@ 62
Pole 62
animation 62
architectural 62
ars 62
axis 62
backwards 62
band 62
danger 62
demonstrate 62
desk 62
dinosaur 62
disappeared 62
divided 62
embedded 62
entered 62
est 62
estimate 62
extinct 62
friendly 62
hang 62
healthcare 62
hide 62
layers 62
limits 62
ot@@ 62
psychological 62
rational 62
religions 62
savings 62
struck 62
terrorism 62
tested 62
toy 62
ves 62
January 61
Latin 61
Peter 61
When 61
agreed 61
ally 61
astonishing 61
car@@ 61
corporate 61
destroy 61
drinking 61
ec@@ 61
fixed 61
h 61
improvement 61
inch 61
iron 61
lens 61
muscles 61
ner 61
precise 61
properly 61
raising 61
session 61
shock 61
sight 61
spots 61
ster 61
suicide 61
sum 61
to@@ 61
touched 61
truck 61
-like 60
.@@ 60
5@@ 60
Bang 60
Hollywood 60
June 60
RB 60
actor 60
breaking 60
collection 60
conflicts 60
dirty 60
dive 60
divide 60
elsewhere 60
finance 60
footprint 60
golf 60
grass 60
greenhouse 60
height 60
increases 60
journalist 60
ke@@ 60
lift 60
maintain 60
mice 60
neuron 60
ously 60
outcomes 60
pile 60
precisely 60
profit 60
recovery 60
rely 60
script 60
smoke 60
succeed 60
two-@@ 60
wa@@ 60
Howard 59
Let 59
Manhattan 59
Martin 59
Russia 59
U.S 59
agricultural 59
anger 59
angry 59
ard 59
bicycle 59
carried 59
co-@@ 59
collected 59
defense 59
dimension 59
distant 59
drawn 59
em@@ 59
et 59
filter 59
ger 59
granted 59
gray 59
heaven 59
housing 59
humor 59
ically 59
inspire 59
laid 59
limb 59
maker 59
microscope 59
nest 59
nurses 59
offered 59
ors 59
pen 59
phase 59
prefer 59
probability 59
produces 59
provided 59
pulling 59
s-@@ 59
scary 59
section 59
seeds 59
skull 59
slavery 59
snow 59
surely 59
tracking 59
tribes 59
underlying 59
virtually 59
volunteers 59
welcome 59
wired 59
worker 59
Oxford 58
Rome 58
al-@@ 58
apparently 58
bars 58
beach 58
bet 58
button 58
channel 58
concern 58
continues 58
contrast 58
conversations 58
destroyed 58
disappear 58
dish 58
ear 58
earthquake 58
escape 58
exposed 58
fan 58
fascinated 58
functional 58
harm 58
hearts 58
host 58
ingredients 58
ky 58
landed 58
links 58
logical 58
mainly 58
meal 58
no@@ 58
obesity 58
oldest 58
performing 58
personality 58
providing 58
reef 58
reflect 58
sheep 58
ste@@ 58
super@@ 58
synthetic 58
thrown 58
trends 58
2001 57
7 57
Atlantic 57
Ba@@ 57
Egypt 57
Ethiopia 57
Is 57
Me@@ 57
Mo@@ 57
Northern 57
O 57
Rwanda 57
Tony 57
achieved 57
beer 57
bu@@ 57
bucks 57
chosen 57
clothes 57
consequence 57
drove 57
fifth 57
fortunately 57
frequency 57
frozen 57
fuels 57
glamorous 57
gu@@ 57
hardly 57
ideal 57
industries 57
initial 57
integrated 57
internal 57
license 57
locked 57
ment 57
positions 57
pump 57
quest 57
realm 57
recognition 57
recognized 57
repeat 57
resilience 57
sticks 57
thick 57
ties 57
tired 57
treating 57
ugly 57
usual 57
van 57
x@@ 57
yours 57
2006 56
Congress 56
Muslims 56
Park 56
Saturn 56
ble 56
breaks 56
briefly 56
c 56
chest 56
consume 56
corn 56
courage 56
cute 56
dedicated 56
department 56
discuss 56
dot 56
extract 56
fears 56
footage 56
governance 56
grandfather 56
ha 56
hardware 56
holds 56
ins 56
insect 56
ism 56
jail 56
ke 56
kers 56
killer 56
loud 56
microbes 56
minister 56
neighbor 56
origin 56
paintings 56
phantom 56
photography 56
pigs 56
placed 56
removed 56
sales 56
scales 56
shake 56
so@@ 56
stores 56
tax 56
tuna 56
ty 56
unbelievable 56
units 56
wings 56
writers 56
ys 56
.com 55
27 55
8@@ 55
Bo@@ 55
House 55
K 55
accidents 55
actors 55
affordable 55
apartment 55
application 55
bar@@ 55
beliefs 55
cast 55
chocolate 55
clients 55
collecting 55
computation 55
conservation 55
drill 55
emerge 55
ending 55
fi@@ 55
fiction 55
fl@@ 55
forests 55
generated 55
glamour 55
hire 55
methods 55
mid-@@ 55
mon@@ 55
parent 55
photographer 55
pyramid 55
represented 55
resolution 55
separated 55
smooth 55
survey 55
telescope 55
tragedy 55
um@@ 55
winning 55
17@@ 54
2010 54
22 54
250 54
30,000 54
9@@ 54
Congo 54
Frank 54
Har@@ 54
Hi 54
Moore 54
Nobel 54
Now 54
St@@ 54
There 54
adding 54
amongst 54
biologists 54
bold 54
boundaries 54
calculate 54
characteristics 54
circles 54
circuit 54
clinic 54
colony 54
conclude 54
contemporary 54
crossing 54
curiosity 54
discoveries 54
encounter 54
focusing 54
geometry 54
globalization 54
hanging 54
harvest 54
hitting 54
ic@@ 54
imagined 54
in-@@ 54
inches 54
interacting 54
letting 54
likes 54
ma 54
man@@ 54
memes 54
mixed 54
monitor 54
northern 54
observation 54
offers 54
opens 54
permanent 54
pool 54
post 54
powered 54
receive 54
regret 54
ridiculous 54
robust 54
season 54
shed 54
signed 54
ve@@ 54
visited 54
23 53
Angeles 53
Mc@@ 53
Ray 53
Revolution 53
Sa@@ 53
Steven 53
ads 53
bio@@ 53
biologist 53
blogs 53
buried 53
communications 53
contain 53
crops 53
cry 53
cu@@ 53
dig 53
diverse 53
dress 53
edges 53
ent@@ 53
entering 53
fabric 53
farmer 53
five-@@ 53
ga@@ 53
gather 53
imagery 53
innovations 53
judge 53
legacy 53
methane 53
neural 53
pace 53
phrase 53
pilot 53
populations 53
privilege 53
silent 53
stations 53
storm 53
toys 53
vacuum 53
90s 52
Be@@ 52
Jesus 52
KB 52
October 52
Stanford 52
White 52
agenda 52
compassionate 52
contribute 52
crack 52
depth 52
elections 52
emerged 52
emergency 52
engagement 52
expectancy 52
extend 52
football 52
gram 52
habitat 52
hi@@ 52
ho@@ 52
illegal 52
illness 52
includes 52
lifestyle 52
linear 52
neat 52
optimistic 52
orange 52
os 52
picking 52
policies 52
r 52
representation 52
robotic 52
sauce 52
spectacular 52
spin 52
stock 52
tie 52
tr@@ 52
traveled 52
tumors 52
universities 52
variation 52
26 51
32 51
Co@@ 51
General 51
Jim 51
Nations 51
Texas 51
adopted 51
airplanes 51
announced 51
bizarre 51
builds 51
charges 51
cheaper 51
climbing 51
colleague 51
concrete 51
controls 51
darkness 51
depressed 51
document 51
dominant 51
dust 51
educated 51
efforts 51
excellent 51
explosion 51
fabulous 51
fiber 51
flip 51
forming 51
ged 51
guide 51
ink 51
interactions 51
involves 51
limit 51
makers 51
males 51
musicians 51
paralyzed 51
predictions 51
qualities 51
reduction 51
reports 51
rice 51
senior 51
sensory 51
served 51
shooting 51
silly 51
simulation 51
subtle 51
tasks 51
tics 51
tied 51
tribe 51
trucks 51
uncertainty 51
vertical 51
west 51
wi@@ 51
65 50
Ford 50
G 50
International 50
Italy 50
Long 50
Mon@@ 50
Ne@@ 50
Pro@@ 50
Red 50
a-@@ 50
alien 50
artistic 50
awesome 50
brown 50
ca@@ 50
chaos 50
contract 50
cor@@ 50
cup 50
describes 50
engaging 50
engineered 50
et@@ 50
expanding 50
explaining 50
facility 50
figuring 50
finds 50
fluid 50
hungry 50
illusion 50
intuitive 50
ized 50
low-@@ 50
mad 50
mi@@ 50
owned 50
pa@@ 50
parties 50
perceive 50
photographed 50
plot 50
po@@ 50
polar 50
pushed 50
rarely 50
searching 50
secrets 50
secure 50
sharp 50
shrimp 50
soldier 50
stages 50
symbols 50
ten@@ 50
transfer 50
transmission 50
underground 50
unlikely 50
washing 50
50s 49
Adam 49
Christian 49
Li@@ 49
May 49
Mom 49
S 49
Sh@@ 49
Th@@ 49
agent 49
altitude 49
ators 49
bears 49
chimpanzees 49
constructed 49
dear 49
den@@ 49
do@@ 49
entrepreneur 49
entropy 49
extended 49
foods 49
for@@ 49
fraction 49
fruit 49
genetics 49
guns 49
hip 49
immediate 49
insurance 49
invite 49
lawyer 49
lecture 49
luckily 49
motivation 49
outer 49
oxytocin 49
pandemic 49
physician 49
pink 49
rats 49
recover 49
reminds 49
revenue 49
sandwich 49
seek 49
stroke 49
su@@ 49
super 49
tap 49
tech 49
theories 49
traditions 49
translation 49
tri@@ 49
views 49
vital 49
zing 49
-year-old 48
1960 48
700 48
Ben 48
Bi@@ 48
Day 48
Department 48
Homo 48
analyze 48
audio 48
blame 48
bombs 48
capability 48
cartoon 48
classical 48
comfort 48
cooperation 48
cre@@ 48
daughters 48
determined 48
disorder 48
domestic 48
ecosystems 48
failing 48
forgotten 48
founded 48
god 48
ics 48
id 48
jellyfish 48
kills 48
leverage 48
luck 48
mammals 48
nurse 48
odds 48
official 48
ooh 48
originally 48
predicted 48
printed 48
programming 48
promote 48
restaurants 48
ses 48
sits 48
sleeping 48
speaker 48
st 48
strategies 48
successfully 48
suffer 48
suspect 48
ta@@ 48
tank 48
tendency 48
threw 48
tiles 48
via 48
winds 48
1990s 47
Cambridge 47
Delhi 47
Gu@@ 47
MRI 47
Santa 47
Sir 47
Stephen 47
Tim 47
abilities 47
advance 47
articles 47
attract 47
banks 47
begun 47
bl@@ 47
boom 47
bottles 47
bulb 47
capita 47
captured 47
compelling 47
curriculum 47
customers 47
diabetes 47
dictionary 47
elephant 47
ence 47
experimental 47
exponential 47
favor 47
fires 47
flower 47
fortunate 47
four-@@ 47
gaps 47
generating 47
globally 47
il 47
ill 47
injury 47
lawyers 47
missed 47
mode 47
naked 47
nuts 47
opera 47
plug 47
precious 47
proper 47
re 47
reduced 47
replicate 47
reported 47
researcher 47
sacred 47
serving 47
shell 47
sports 47
stones 47
stops 47
struggling 47
surgeons 47
transparent 47
transplant 47
uncle 47
vagina 47
vegetables 47
ver 47
wires 47
worms 47
ze 47
120 46
16@@ 46
20@@ 46
6,000 46
All 46
Antarctica 46
Ex@@ 46
Feynman 46
Florida 46
Greek 46
He 46
Her@@ 46
Johnson 46
Minister 46
Taliban 46
Thank 46
accepted 46
airport 46
and@@ 46
asteroid 46
bags 46
barely 46
bee 46
canopy 46
closing 46
collaborative 46
court 46
crucial 46
crying 46
ders 46
description 46
diving 46
elected 46
electronics 46
ff 46
fore@@ 46
gate 46
genocide 46
gl@@ 46
glad 46
golden 46
gradually 46
half-@@ 46
ia 46
impacts 46
ina 46
inevitable 46
instructions 46
inventor 46
mapping 46
memories 46
morality 46
nerve 46
nerves 46
ou@@ 46
partly 46
ping 46
pitch 46
prepare 46
printer 46
protecting 46
react 46
realizing 46
regime 46
richer 46
seas 46
sha@@ 46
shadow 46
ships 46
shopping 46
simultaneously 46
smallest 46
surprisingly 46
syndrome 46
talent 46
the@@ 46
tip 46
trans@@ 46
tricks 46
troops 46
tune 46
upset 46
weapon 46
2002 45
800 45
Brown 45
Health 45
Kevin 45
Monterey 45
Ocean 45
P 45
SS 45
US 45
arrive 45
biodiversity 45
boats 45
bubbles 45
capitalism 45
caring 45
category 45
cats 45
ceiling 45
comic 45
comics 45
command 45
connects 45
continuous 45
da@@ 45
dec@@ 45
delivered 45
dependent 45
drew 45
dy 45
ecology 45
economist 45
ens 45
extinction 45
fortune 45
fragile 45
freely 45
gathering 45
genetically 45
gentleman 45
gut 45
hey 45
historical 45
homework 45
ignore 45
interpretation 45
intuition 45
kindness 45
labs 45
located 45
manual 45
masses 45
mosquito 45
needle 45
o-@@ 45
operations 45
orchestra 45
ot 45
painted 45
planetary 45
pm 45
portion 45
pretend 45
primitive 45
pursuit 45
queen 45
rapid 45
reefs 45
relief 45
remembered 45
shifting 45
significantly 45
sisters 45
sixth 45
sl@@ 45
southern 45
subway 45
suggested 45
suggesting 45
super-@@ 45
tears 45
teenagers 45
tent 45
throwing 45
tone 45
traits 45
translated 45
war@@ 45
wheat 45
1970s 44
85 44
Act 44
Bob 44
Central 44
Coke 44
Daniel 44
Hans 44
Hello 44
Hong 44
Islands 44
Italian 44
Koran 44
M 44
Research 44
River 44
Sea 44
Shanghai 44
Smith 44
Soviet 44
answered 44
apple 44
ary 44
assumptions 44
audiences 44
cash 44
cave 44
chapter 44
civilizations 44
clouds 44
committed 44
comparison 44
cotton 44
covers 44
cricket 44
detailed 44
difficulty 44
expedition 44
external 44
flexible 44
fusion 44
garage 44
glasses 44
highway 44
initially 44
investing 44
ity 44
mer 44
merely 44
ms 44
narrow 44
offices 44
permission 44
plastics 44
post-@@ 44
powers 44
pu@@ 44
puzzles 44
rat 44
reminded 44
restore 44
rhythm 44
shocking 44
sion 44
someday 44
spill 44
stability 44
terribly 44
terror 44
ths 44
to-@@ 44
toes 44
trajectory 44
transparency 44
trash 44
viral 44
wash 44
whatsoever 44
wider 44
Arctic 43
Art 43
February 43
Hall 43
Jewish 43
Lab 43
Per@@ 43
Russian 43
Sch@@ 43
Se@@ 43
Spanish 43
Vietnam 43
Wall 43
abuse 43
academic 43
adapted 43
adventure 43
ance 43
assumption 43
belong 43
beneath 43
camps 43
chief 43
clay 43
cycles 43
demonstration 43
detection 43
domain 43
drawings 43
eaten 43
ecological 43
electron 43
els 43
enabled 43
excuse 43
fathers 43
fits 43
flowing 43
flows 43
folding 43
gen@@ 43
hired 43
hunting 43
insights 43
ists 43
lands 43
ling 43
magical 43
measures 43
miracle 43
mobility 43
multi-@@ 43
mysterious 43
newspapers 43
penguin 43
planes 43
practices 43
presents 43
preserve 43
prisoners 43
ra 43
rebuild 43
rec@@ 43
recipe 43
responses 43
rings 43
route 43
strike 43
suspended 43
tracks 43
transport 43
tsunami 43
warning 43
wealthy 43
200,000 42
40,000 42
Amazon 42
Brian 42
In 42
Larry 42
Leonardo 42
Ra@@ 42
SW 42
Space 42
Su@@ 42
Sunday 42
Turkey 42
Y 42
acid 42
autism 42
batteries 42
besides 42
bored 42
bs 42
cap 42
cart 42
cartoons 42
ce@@ 42
chances 42
cheese 42
client 42
club 42
comedy 42
compete 42
curves 42
database 42
dialogue 42
discovering 42
dressed 42
dumb 42
elementary 42
exception 42
expressions 42
fastest 42
firm 42
gi@@ 42
ging 42
headed 42
healing 42
id@@ 42
impression 42
improving 42
islands 42
logo 42
mainstream 42
mat@@ 42
mathematicians 42
miserable 42
mor@@ 42
musician 42
myth 42
occasionally 42
ongoing 42
owner 42
ph@@ 42
physicists 42
pointed 42
pound 42
pr@@ 42
primarily 42
profoundly 42
proportion 42
returned 42
rolling 42
ry 42
scenes 42
score 42
seeking 42
sheet 42
shelter 42
shots 42
shy 42
signature 42
suck 42
sur@@ 42
sustain 42
tends 42
toilet 42
unprecedented 42
ven@@ 42
vessel 42
waters 42
ying 42
-to-@@ 41
Are 41
Au@@ 41
Bangladesh 41
Can 41
Dutch 41
F 41
Gates 41
Jack 41
La 41
Mike 41
Nelson 41
Par@@ 41
accounts 41
administration 41
anti@@ 41
array 41
ay 41
back@@ 41
bound 41
br@@ 41
burden 41
cake 41
can@@ 41
capabilities 41
channels 41
chips 41
collapsed 41
colored 41
comment 41
continents 41
cosmic 41
damn 41
deserve 41
diagnosed 41
dominated 41
doors 41
east 41
empowered 41
enables 41
essence 41
ethnic 41
expectations 41
expertise 41
flag 41
frightening 41
frustrated 41
garbage 41
gesture 41
ignored 41
imaging 41
impressive 41
infection 41
initiative 41
instant 41
jazz 41
jumped 41
kes 41
laptops 41
lungs 41
magnificent 41
over-@@ 41
poet 41
recycling 41
reveal 41
smarter 41
sta@@ 41
storytelling 41
strands 41
stretch 41
threshold 41
ubiquitous 41
venture 41
1960s 40
4,000 40
Abraham 40
Bar@@ 40
Bay 40
Force 40
Go@@ 40
JH 40
Joshua 40
Law 40
Newton 40
St. 40
U 40
Who 40
Wright 40
X@@ 40
air@@ 40
ances 40
app 40
assignment 40
attitude 40
balls 40
beating 40
bill 40
branch 40
branches 40
ched 40
chromosome 40
ci@@ 40
clothing 40
column 40
cylinder 40
decrease 40
den 40
despair 40
dilemma 40
discipline 40
documents 40
egg 40
elite 40
established 40
ethical 40
experiencing 40
farming 40
federal 40
formula 40
ful 40
grasp 40
gs 40
ham 40
hardest 40
historic 40
hypothesis 40
incentive 40
ing@@ 40
installation 40
isolated 40
items 40
izing 40
kick 40
lake 40
left-hand 40
lowest 40
mail 40
meanwhile 40
mechanics 40
mer@@ 40
mesh 40
mu@@ 40
na@@ 40
neck 40
ns 40
nutrients 40
obstacles 40
ology 40
open-source 40
origins 40
ory 40
pen@@ 40
performed 40
refer 40
reform 40
remained 40
resistant 40
rubber 40
scenario 40
shit 40
similarly 40
smiling 40
stored 40
tackle 40
tale 40
th-@@ 40
ticket 40
treatments 40
uncomfortable 40
wed 40
widely 40
zones 40
&apos;clock 39
20-@@ 39
55 39
April 39
Benjamin 39
College 39
Eric 39
Jane 39
Jeff 39
Lincoln 39
Mark 39
Mi@@ 39
Ros@@ 39
Southern 39
Stage 39
Vi@@ 39
affects 39
algorithm 39
an-@@ 39
annual 39
approaches 39
approaching 39
armed 39
ass 39
beautifully 39
believes 39
bend 39
breakfast 39
broad 39
bug 39
burned 39
cable 39
cancers 39
cliff 39
concert 39
confident 39
consciously 39
contributed 39
counting 39
covering 39
delivery 39
demographic 39
disorders 39
download 39
elegant 39
endangered 39
extension 39
ey 39
fancy 39
flash 39
foundations 39
gases 39
gathered 39
genomes 39
ges 39
harmony 39
head@@ 39
healthier 39
helicopter 39
identified 39
illustrate 39
influenced 39
institutional 39
intensity 39
interviews 39
ish 39
judgment 39
landscapes 39
ler 39
liberal 39
manipulate 39
mathematician 39
mechanisms 39
min@@ 39
nonprofit 39
occurs 39
overhead 39
package 39
palm 39
passive 39
peoples 39
phenomena 39
philanthropy 39
pills 39
prevention 39
proposed 39
pursue 39
relations 39
reserves 39
retina 39
sake 39
salt 39
shine 39
shoe 39
simpler 39
staying 39
stepped 39
substance 39
suffered 39
supplies 39
supported 39
teaches 39
tes 39
tolerance 39
trace 39
urge 39
vaccines 39
wrap 39
15@@ 38
Afghan 38
Alex 38
Alexander 38
Bronx 38
December 38
El 38
Green 38
Ha@@ 38
NGOs 38
Norden 38
Or@@ 38
Security 38
Stewart 38
agency 38
all-@@ 38
approved 38
atomic 38
attractive 38
boards 38
border 38
breakthrough 38
carpet 38
categories 38
confused 38
convert 38
courses 38
crop 38
crows 38
damaged 38
de-@@ 38
dough 38
dozens 38
drivers 38
earn 38
engines 38
equations 38
estate 38
expansion 38
facilities 38
fo@@ 38
forgot 38
fought 38
generous 38
gonna 38
gorgeous 38
gra@@ 38
grandchildren 38
habits 38
har@@ 38
headlines 38
honestly 38
interior 38
internet 38
invested 38
ist 38
le-@@ 38
leap 38
lions 38
locally 38
loves 38
magnitude 38
mining 38
namely 38
neuroscience 38
non-zero-sum 38
onstage 38
openness 38
pairs 38
partnership 38
poster 38
predictable 38
prediction 38
prime 38
probe 38
professionals 38
prostate 38
psychologists 38
publishing 38
purposes 38
reliable 38
remaining 38
replaced 38
review 38
rotate 38
rough 38
ru@@ 38
scanning 38
scores 38
sensation 38
sequences 38
shelf 38
shing 38
skeletal 38
sport 38
spreads 38
structural 38
surgeries 38
surgical 38
thus 38
tin 38
tubes 38
ture 38
unable 38
upside 38
valley 38
visualization 38
volunteer 38
wildlife 38
worrying 38
-and-@@ 37
10@@ 37
Academy 37
Aristotle 37
August 37
CEO 37
Clinton 37
Council 37
Everest 37
Gandhi 37
Henry 37
JA 37
Jones 37
Mandela 37
Q@@ 37
Redwood 37
Silicon 37
Square 37
Swiss 37
TEDTalk 37
Ti@@ 37
Titan 37
Virginia 37
Z 37
ably 37
absence 37
activist 37
advances 37
alize 37
appearance 37
bacterial 37
borders 37
bur@@ 37
camel 37
chairs 37
ching 37
chromosomes 37
colonies 37
communicating 37
condoms 37
contrary 37
corals 37
correctly 37
deals 37
debt 37
devil 37
distinct 37
downtown 37
educate 37
encouraging 37
enemies 37
failures 37
foie 37
formation 37
gras 37
grateful 37
helium 37
high-tech 37
honey 37
household 37
infections 37
innocent 37
instantly 37
interventions 37
ize 37
kidney 37
laughing 37
li 37
listened 37
machinery 37
marketplace 37
meals 37
meme 37
micro-@@ 37
motors 37
narratives 37
nearest 37
nowadays 37
occurring 37
on-@@ 37
ots 37
patents 37
pointing 37
poly@@ 37
predators 37
profession 37
propose 37
quit 37
reactions 37
reducing 37
relation 37
ritual 37
rope 37
sacrifice 37
shirt 37
shocked 37
shortly 37
six-@@ 37
slums 37
sons 37
spinning 37
staring 37
steal 37
telescopes 37
torture 37
unhappy 37
versions 37
voting 37
we@@ 37
youth 37
0@@ 36
48 36
Alzheimer 36
Amy 36
Andrew 36
Bu@@ 36
Chile 36
Cyrus 36
Indians 36
Indus 36
Kong 36
Star 36
affecting 36
aggressive 36
amazingly 36
angiogenesis 36
anxiety 36
applying 36
ative 36
authors 36
banking 36
barrel 36
beaten 36
blank 36
bridges 36
broader 36
catching 36
citizen 36
closest 36
clue 36
coat 36
comparing 36
consistent 36
continuing 36
cows 36
criminal 36
customer 36
delicious 36
destiny 36
distances 36
er-@@ 36
evolving 36
extraordinarily 36
favorites 36
gods 36
guarantee 36
improved 36
inevitably 36
informed 36
lifted 36
lists 36
livestock 36
marks 36
measurements 36
mimic 36
navigate 36
ni@@ 36
optical 36
orders 36
packed 36
panels 36
pockets 36
poison 36
preparing 36
procedure 36
proposition 36
prosperity 36
rituals 36
rush 36
sale 36
selves 36
sensor 36
sheets 36
shifts 36
ski 36
soup 36
staircase 36
strangers 36
symmetries 36
tables 36
territory 36
threats 36
tically 36
trains 36
us@@ 36
wishes 36
witness 36
wooden 36
14@@ 35
28 35
30s 35
33 35
350 35
36 35
BG 35
Blue 35
Dean 35
El@@ 35
Geographic 35
Greenland 35
Ireland 35
Jo@@ 35
L 35
Lego 35
Lewis 35
Na@@ 35
Qu@@ 35
TEDTalks 35
To@@ 35
William 35
Zero 35
achievement 35
acids 35
adoption 35
aesthetic 35
analogy 35
authentic 35
automobile 35
autonomous 35
badly 35
barrier 35
bedroom 35
burst 35
chef 35
ches 35
choosing 35
cur@@ 35
demo 35
demonstrated 35
demos 35
deployed 35
dly 35
dolphins 35
dr@@ 35
earliest 35
ensure 35
f 35
fallen 35
females 35
flavor 35
frequently 35
fy 35
glue 35
graphs 35
habit 35
homeless 35
hopes 35
horses 35
introduction 35
investors 35
large-scale 35
lin 35
loan 35
locations 35
lock 35
lottery 35
low-cost 35
maximum 35
melting 35
ming 35
native 35
nitrogen 35
offering 35
overwhelmed 35
picks 35
plates 35
posted 35
profits 35
prosthetic 35
proven 35
radically 35
reasonable 35
reproduce 35
reveals 35
right-hand 35
rivers 35
scaling 35
scanner 35
scratch 35
sentences 35
sexy 35
shops 35
sometime 35
squid 35
storage 35
streams 35
strongly 35
sub-Saharan 35
summit 35
supporting 35
survived 35
ta 35
technically 35
temple 35
terrifying 35
themes 35
threatened 35
tongue 35
tower 35
tragic 35
ut@@ 35
visually 35
wedding 35
winner 35
woke 35
worthy 35
wound 35
yourselves 35
-up 34
10-@@ 34
29 34
72 34
Air 34
Arabic 34
Berlin 34
Carolina 34
Cha@@ 34
Coast 34
Cor@@ 34
Craig 34
GPS 34
Go 34
H 34
Joe 34
Lake 34
Lord 34
Mor@@ 34
Peace 34
Pi@@ 34
SETI 34
Spain 34
Sylvia 34
Where 34
aliens 34
alism 34
authorities 34
believing 34
ber@@ 34
binary 34
blown 34
boss 34
breeding 34
calculations 34
calories 34
commit 34
competing 34
concentration 34
confront 34
construct 34
contribution 34
controversial 34
coverage 34
cuts 34
demands 34
diameter 34
dic@@ 34
division 34
donor 34
drum 34
emergence 34
enjoyed 34
errors 34
factories 34
farms 34
file 34
firing 34
folds 34
ft 34
glimpse 34
grandparents 34
harbor 34
hat 34
historically 34
honored 34
ical 34
iconic 34
ig@@ 34
included 34
interviewed 34
item 34
jo@@ 34
knife 34
label 34
loving 34
luxury 34
mall 34
med 34
mushroom 34
mushrooms 34
mutation 34
nearby 34
neutral 34
organizing 34
pan@@ 34
panel 34
pause 34
peaceful 34
pin@@ 34
pipe 34
plain 34
pleasant 34
poems 34
publish 34
raped 34
ratio 34
rays 34
reaches 34
readers 34
realistic 34
recession 34
satellites 34
scans 34
sciences 34
sen@@ 34
spinal 34
straightforward 34
stunning 34
supermarket 34
surrounding 34
theoretical 34
touching 34
transforming 34
trigger 34
uc@@ 34
ultrasound 34
unseen 34
va@@ 34
vary 34
ving 34
voted 34
ward 34
zed 34
1990 33
2020 33
2050 33
AK 33
Ad@@ 33
Age 33
Am@@ 33
Bell 33
Copenhagen 33
Court 33
Grand 33
Hawaii 33
L.A. 33
Library 33
Mary 33
McDonald 33
Ph.D. 33
Scott 33
Tanzania 33
Zealand 33
accomplished 33
ack 33
additional 33
agencies 33
agents 33
agreement 33
alized 33
antibiotics 33
approximately 33
arguments 33
assemble 33
ax@@ 33
bills 33
biomass 33
bite 33
blah 33
bra@@ 33
cha@@ 33
challenged 33
chamber 33
charged 33
cher 33
cl@@ 33
clubs 33
collectively 33
comp@@ 33
compromise 33
computational 33
concentrate 33
congestion 33
conservative 33
constraints 33
consumed 33
crap 33
crew 33
dawn 33
defining 33
district 33
dolphin 33
dropping 33
drops 33
duck 33
ear@@ 33
elaborate 33
electrons 33
equality 33
fence 33
fever 33
folded 33
follows 33
founder 33
funds 33
gasoline 33
gear 33
girlfriend 33
gr@@ 33
grades 33
guilty 33
halfway 33
heading 33
hu@@ 33
ick@@ 33
icon 33
ing-@@ 33
jet 33
junk 33
ki 33
leaf 33
managers 33
marrow 33
meditation 33
melt 33
ments 33
minus 33
monitoring 33
mycelium 33
neighborhoods 33
obese 33
objective 33
oc@@ 33
op 33
parachute 33
passes 33
pays 33
pers 33
pharmaceutical 33
pour 33
predator 33
prior 33
proposal 33
pulse 33
recommend 33
reflection 33
regardless 33
retirement 33
revealed 33
seal 33
sed 33
seemingly 33
selected 33
sends 33
separation 33
significance 33
silver 33
simplest 33
sink 33
sized 33
sizes 33
sooner 33
spacecraft 33
spare 33
speaks 33
spiders 33
squ@@ 33
systematically 33
targets 33
tical 33
tin@@ 33
translator 33
two-thirds 33
v 33
visions 33
win@@ 33
witnessed 33
workplace 33
ya 33
yards 33
17th 32
1950s 32
1980s 32
20s 32
37 32
60,000 32
Buddha 32
Charlie 32
Do@@ 32
Here 32
Jill 32
July 32
Man@@ 32
March 32
Milo 32
Nature 32
Nigerian 32
PR 32
Seattle 32
Shakespeare 32
They 32
USA 32
Un@@ 32
aged 32
ale 32
ali@@ 32
amazed 32
ancestor 32
anesthesia 32
apes 32
apples 32
attacked 32
backyard 32
caps 32
caves 32
cheat 32
cheating 32
cocaine 32
com@@ 32
competitive 32
concentrated 32
concerns 32
connectivity 32
continuously 32
convey 32
cooperative 32
cope 32
copied 32
copies 32
corresponds 32
cr@@ 32
creator 32
cross-@@ 32
crossed 32
desperately 32
disk 32
donors 32
dopamine 32
ed@@ 32
entrepreneurial 32
estimated 32
estimates 32
fa@@ 32
fied 32
gotta 32
helpful 32
hometown 32
iPod 32
independence 32
insane 32
integrate 32
intensive 32
intimacy 32
ite 32
journalists 32
kingdom 32
lit 32
mar@@ 32
motivated 32
multiply 32
nevertheless 32
paradox 32
pat@@ 32
pet 32
philosopher 32
pie 32
pill 32
pride 32
psychologist 32
safer 32
shining 32
shoulders 32
slower 32
smoking 32
spaghetti 32
spell 32
spray 32
static 32
stays 32
strings 32
strip 32
sub-@@ 32
succeeded 32
sulfide 32
switched 32
symmetrical 32
tags 32
temperatures 32
textbooks 32
texture 32
thrilled 32
tight 32
trading 32
tru@@ 32
tunnel 32
tures 32
unfortunate 32
utterly 32
vegetable 32
vice 32
welfare 32
wrist 32
Arthur 31
Bel@@ 31
Cal@@ 31
Cambodia 31
Cape 31
Church 31
Inter@@ 31
Iranian 31
La@@ 31
Neanderthals 31
Netherlands 31
PC 31
Philip 31
Phoenix 31
Please 31
Rick 31
Sha@@ 31
Stone 31
System 31
Teszler 31
Wal@@ 31
Yemen 31
absorb 31
accelerating 31
adjust 31
alarm 31
ana 31
approached 31
arrested 31
ash 31
assembly 31
beef 31
behalf 31
bias 31
calculus 31
circuits 31
claims 31
cleaning 31
clues 31
commodity 31
compute 31
conducted 31
connectome 31
copying 31
counted 31
counts 31
cream 31
crude 31
decision-making 31
deepest 31
destroying 31
determines 31
documentary 31
doubled 31
enjoying 31
ently 31
excitement 31
expecting 31
exploit 31
exposure 31
famine 31
fe@@ 31
fibers 31
flu@@ 31
functioning 31
fungi 31
gallery 31
gy 31
hand@@ 31
harmful 31
heal 31
hill 31
households 31
immense 31
ines 31
infant 31
ingredient 31
intention 31
interpret 31
intervention 31
investments 31
joint 31
k-@@ 31
keyboard 31
lamp 31
landing 31
lanes 31
loads 31
longevity 31
loses 31
mankind 31
matched 31
mayor 31
minimum 31
missions 31
mud 31
multi@@ 31
mutations 31
ne 31
ned 31
observe 31
octopus 31
officer 31
ownership 31
pad 31
perceived 31
physicians 31
pl@@ 31
platforms 31
pray 31
prey 31
prisoner 31
privileged 31
projected 31
pur@@ 31
randomly 31
rape 31
refugee 31
regard 31
rent 31
rethink 31
rewards 31
scaled 31
selfish 31
silicon 31
simulate 31
spiral 31
steam 31
stolen 31
storyteller 31
tagged 31
terrific 31
textbook 31
therapies 31
tic@@ 31
traces 31
trivial 31
ultraviolet 31
victim 31
w 31
wheels 31
wor@@ 31
wrapped 31
yeast 31
yield 31
.org 30
1,500 30
1998 30
1999 30
98 30
Ac@@ 30
As 30
Atlanta 30
Buddhist 30
County 30
For@@ 30
Galapagos 30
Gene 30
Iceland 30
Keith 30
Kelly 30
LED 30
Lee 30
Media 30
Montana 30
Olympics 30
Rosling 30
Ser@@ 30
Sp@@ 30
TED@@ 30
TEDGlobal 30
V 30
abundance 30
accountability 30
activated 30
adaptation 30
ak@@ 30
alcohol 30
algae 30
ang 30
appreciation 30
assuming 30
authenticity 30
ban@@ 30
basking 30
boundary 30
budgets 30
bugs 30
calm 30
cap@@ 30
carries 30
cattle 30
cellular 30
chop 30
clips 30
cluster 30
clusters 30
codes 30
completed 30
composition 30
cord 30
crashes 30
deaf 30
defend 30
der@@ 30
detector 30
devoted 30
diarrhea 30
diplomacy 30
disability 30
disagree 30
drag 30
empower 30
enormously 30
entry 30
ents 30
ery 30
expressed 30
gers 30
gestures 30
gh@@ 30
glorious 30
grant 30
hallucinations 30
hills 30
hopeful 30
hostile 30
hybrid 30
ian 30
ide@@ 30
implemented 30
incident 30
ingly 30
kidding 30
kin@@ 30
knee 30
labeled 30
leopard 30
limitations 30
lo 30
markers 30
mature 30
medication 30
metabolism 30
mindset 30
mines 30
momentum 30
mood 30
non-lethal 30
ny 30
od@@ 30
om 30
overwhelming 30
parks 30
participation 30
periods 30
personalized 30
phenomenal 30
planned 30
planting 30
playful 30
pole 30
portraits 30
premise 30
priorities 30
producers 30
projection 30
ran@@ 30
remarkably 30
repeated 30
reserve 30
robotics 30
roofs 30
sectors 30
ser@@ 30
specialized 30
stack 30
sting 30
stopping 30
str@@ 30
tangible 30
teenager 30
tering 30
thumb 30
tional 30
towns 30
transmit 30
ups 30
virtue 30
wh@@ 30
wheelchair 30
worm 30
97 29
Alan 29
Bruce 29
Bur@@ 29
Christians 29
Columbia 29
Dave 29
Design 29
Egyptian 29
Friday 29
Golden 29
Indonesia 29
Johnny 29
Jonathan 29
Joseph 29
Julia 29
Jupiter 29
Monday 29
Natasha 29
November 29
Rover 29
SP 29
Sarah 29
Si@@ 29
Sputnik 29
Ta@@ 29
U.K 29
acquire 29
actively 29
activists 29
aim 29
alization 29
alright 29
argues 29
ari@@ 29
aries 29
atom 29
attach 29
attacking 29
authoritarian 29
backs 29
bang 29
barriers 29
belongs 29
bio-@@ 29
bo 29
bombsight 29
brands 29
broccoli 29
campus 29
cellphone 29
chemotherapy 29
chronic 29
columns 29
comments 29
contributing 29
dating 29
desktop 29
desperate 29
dial 29
digging 29
dishes 29
dragonflies 29
ea@@ 29
ego 29
equals 29
equity 29
establish 29
fer@@ 29
findings 29
float 29
format 29
fr@@ 29
frequencies 29
friendship 29
frontier 29
frustration 29
graduated 29
gross 29
han@@ 29
hand-@@ 29
heating 29
her@@ 29
hi 29
hierarchy 29
horror 29
hy@@ 29
ill@@ 29
illusions 29
intact 29
intriguing 29
jewelry 29
juice 29
ko 29
legislation 29
legitimate 29
lifespan 29
lion 29
magician 29
marry 29
mating 29
messy 29
metals 29
na 29
nasty 29
ning 29
occasion 29
ok@@ 29
or-@@ 29
panic 29
politician 29
previously 29
progression 29
promoting 29
pulls 29
purple 29
que 29
realization 29
renewable 29
reporting 29
reputation 29
residents 29
ridge 29
sang 29
scream 29
screening 29
seals 29
segment 29
self-interest 29
shes 29
sions 29
sk@@ 29
slope 29
socially 29
statistical 29
sticking 29
tear 29
tension 29
terrain 29
tooth 29
toss 29
touches 29
transformative 29
transmitted 29
triangle 29
useless 29
variations 29
vers 29
weigh 29
year-olds 29
1950 28
34 28
BJ 28
Berkeley 28
Brothers 28
Cold 28
Com@@ 28
Dad 28
Disney 28
Elizabeth 28
Fi@@ 28
Ge@@ 28
Global 28
Good 28
Ho@@ 28
Jay 28
Mad@@ 28
Mumbai 28
No@@ 28
Nor@@ 28
Olympic 28
Pal@@ 28
Por@@ 28
Rob 28
Sierra 28
Telescope 28
Tri@@ 28
Way 28
Wilson 28
Wolfram 28
Women 28
abandoned 28
abroad 28
acknowledge 28
acquired 28
addiction 28
adolescence 28
ak 28
all@@ 28
ambitious 28
anonymous 28
applies 28
bacterium 28
bell 28
belly 28
blew 28
bottom-up 28
bow 28
bribe 28
calculating 28
candidate 28
ce 28
characteristic 28
checked 28
checks 28
chemist 28
collision 28
colorful 28
compound 28
conductor 28
coordination 28
copper 28
corners 28
corporations 28
cube 28
currency 28
dare 28
derived 28
destination 28
devastating 28
diagnosis 28
diagnostic 28
disabled 28
disturbing 28
editor 28
elephants 28
embarrassing 28
embracing 28
emphasize 28
empowering 28
enterprise 28
ethics 28
ev@@ 28
expanded 28
far@@ 28
farther 28
gained 28
grabbed 28
helmet 28
hiding 28
holy 28
hook 28
horizon 28
hormones 28
implant 28
implement 28
infectious 28
injuries 28
irrational 28
judgments 28
kicked 28
kin 28
lectures 28
lethal 28
lin@@ 28
linking 28
log 28
loose 28
maintenance 28
medicines 28
mere 28
my@@ 28
mysteries 28
networking 28
neuro@@ 28
optimism 28
outbreak 28
parenting 28
passage 28
ped 28
pencil 28
politically 28
portrait 28
potent 28
practically 28
praying 28
pricing 28
processed 28
processor 28
professors 28
punishment 28
regional 28
resolve 28
risky 28
satisfaction 28
scheme 28
sections 28
settled 28
seventh 28
singer 28
sive 28
sman 28
smells 28
soccer 28
solo 28
span 28
sters 28
stomach 28
strand 28
stranger 28
strikes 28
suits 28
teenage 28
temporal 28
tile 28
timing 28
tissues 28
tomato 28
topics 28
tra@@ 28
trait 28
tre@@ 28
ulation 28
understands 28
ur 28
val@@ 28
variable 28
verb 28
wet 28
wiped 28
workforce 28
wow 28
11th 27
1994 27
2011 27
50-@@ 27
8,000 27
Albert 27
Alice 27
Asian 27
Brad 27
DR 27
Danny 27
FDA 27
Far@@ 27
Four 27
Ger@@ 27
Hu@@ 27
Ju@@ 27
Ken 27
Mat@@ 27
Moon 27
Mother 27
Mu@@ 27
Norman 27
Norway 27
Organization 27
Pittsburgh 27
Po@@ 27
Queen 27
Ru@@ 27
Simon 27
So@@ 27
Three 27
Time 27
Trade 27
Virgin 27
We@@ 27
accelerate 27
achieving 27
adaptive 27
aquatic 27
assets 27
autonomy 27
baseball 27
beam 27
beds 27
behold 27
biologically 27
biosphere 27
bluefin 27
book@@ 27
brick 27
cal@@ 27
cardboard 27
cared 27
catastrophic 27
cent 27
chains 27
chase 27
checking 27
checklist 27
chickens 27
clapping 27
classrooms 27
cli@@ 27
climbers 27
coin 27
conceptual 27
consensus 27
contained 27
correlation 27
craft 27
crimes 27
critically 27
debris 27
deck 27
denial 27
dra@@ 27
drunk 27
electromagnetic 27
embarrassed 27
encouraged 27
enters 27
ese 27
ethanol 27
exploded 27
fac@@ 27
fate 27
founding 27
frog 27
fying 27
g-@@ 27
gay 27
gel 27
generosity 27
glaciers 27
guard 27
handed 27
hated 27
headquarters 27
heavily 27
hemisphere 27
horizontal 27
hormone 27
hot@@ 27
human-@@ 27
hunt 27
impulse 27
indicate 27
indicates 27
indigenous 27
infrared 27
installed 27
intimate 27
investigation 27
ites 27
kindergarten 27
lap 27
lers 27
libraries 27
loans 27
lobby 27
lonely 27
manager 27
manner 27
matrix 27
mentor 27
millennia 27
mixing 27
modeling 27
n-@@ 27
noisy 27
nonetheless 27
nurture 27
nutrition 27
observations 27
operates 27
ore 27
overnight 27
parasite 27
ple@@ 27
preventing 27
pri@@ 27
profile 27
programmed 27
protocell 27
raises 27
recognizing 27
reflected 27
regularly 27
replacement 27
res 27
researching 27
revenues 27
richest 27
riots 27
routine 27
safely 27
sal@@ 27
sculptures 27
self-assembly 27
sexually 27
shifted 27
spatial 27
spontaneous 27
star@@ 27
surround 27
surviving 27
sy 27
talented 27
tanks 27
tar 27
taxes 27
terrified 27
thereby 27
thinkers 27
tor@@ 27
trapped 27
tricky 27
trips 27
trusted 27
ty-@@ 27
upward 27
vitamin 27
whoever 27
wins 27
yard 27
zes 27
+ 26
12,000 26
12@@ 26
150,000 26
43 26
96 26
Ah 26
Brooklyn 26
Caribbean 26
Coca-Cola 26
Come 26
Du@@ 26
Fund 26
Ja@@ 26
Jefferson 26
KA 26
Ke@@ 26
Me 26
Mer@@ 26
Milky 26
Nathan 26
Neil 26
Ni@@ 26
OECD 26
Princeton 26
Susan 26
Tokyo 26
abundant 26
accumulate 26
acres 26
addressing 26
afterward 26
airline 26
alphabet 26
analog 26
analyzed 26
anniversary 26
artifacts 26
associate 26
attitudes 26
awe 26
ay@@ 26
bal@@ 26
baseline 26
belt 26
berg 26
blowing 26
bor@@ 26
calculation 26
celebrated 26
celebration 26
chess 26
convicted 26
cooling 26
couch 26
counter 26
counter@@ 26
countless 26
cra@@ 26
cruel 26
cy@@ 26
deception 26
dirt 26
disciplines 26
distinguish 26
double-@@ 26
draws 26
eBay 26
eighth 26
eliminate 26
encyclopedia 26
end@@ 26
eradication 26
exam 26
explored 26
famously 26
fantasy 26
filling 26
filmmaker 26
filters 26
forcing 26
forgive 26
formal 26
frames 26
friction 26
frogs 26
gains 26
gar@@ 26
generic 26
genuine 26
glacier 26
goat 26
guards 26
hal@@ 26
highlight 26
humility 26
hun@@ 26
impressed 26
improvements 26
index 26
ined 26
inequality 26
inherent 26
instinct 26
instruction 26
integrity 26
irony 26
ization 26
journal 26
juvenile 26
kit 26
literacy 26
losses 26
mammography 26
mask 26
mentally 26
microscopic 26
ney 26
nights 26
notions 26
novelty 26
observing 26
offspring 26
opinions 26
ore@@ 26
orgasm 26
pal@@ 26
pan 26
pants 26
pathways 26
peculiar 26
pleased 26
pose 26
priority 26
profitable 26
purchase 26
reader 26
real-time 26
recycled 26
reflects 26
regrets 26
regulation 26
rejected 26
request 26
rolled 26
sadly 26
sequencing 26
shaking 26
shore 26
sia 26
sings 26
skeleton 26
spheres 26
stra@@ 26
stunt 26
submit 26
symbolic 26
talents 26
tattoo 26
temporary 26
terrorists 26
texts 26
transit 26
truths 26
tw@@ 26
viewing 26
warmer 26
watts 26
websites 26
weekend 26
wells 26
western 26
ws 26
zz@@ 26
0-@@ 25
1.@@ 25
1980 25
1997 25
25,000 25
64 25
Ash@@ 25
Bre@@ 25
Canyon 25
Carl 25
Catholic 25
Child 25
Dalai 25
Darwinian 25
Emily 25
Fellow 25
Harry 25
Hill 25
IBM 25
Israeli 25
Jews 25
Kennedy 25
Korean 25
LG 25
Lama 25
Moses 25
Mount 25
Palestinian 25
Pennsylvania 25
Republic 25
Republicans 25
Right 25
Rs 25
Sweeney 25
Switzerland 25
TEDsters 25
Ter@@ 25
Two 25
W 25
X-ray 25
Yves 25
a.m. 25
accompanied 25
accuracy 25
ach@@ 25
activate 25
af@@ 25
alist 25
alizing 25
alternatives 25
aluminum 25
ambition 25
anc@@ 25
anticipate 25
apartments 25
arena 25
arguing 25
asset 25
assistance 25
astronomy 25
attempts 25
attracted 25
bandwidth 25
basement 25
bioluminescence 25
blindness 25
bother 25
breed 25
bush 25
buttons 25
by-@@ 25
catastrophe 25
chasing 25
circular 25
civic 25
commodities 25
composed 25
compounds 25
condom 25
confronted 25
convenient 25
converted 25
cousin 25
cracks 25
deadly 25
decent 25
deciding 25
degraded 25
demonstrates 25
desertification 25
di 25
diamonds 25
discussing 25
distinction 25
dose 25
down@@ 25
ene 25
enthusiasm 25
entrance 25
eradicate 25
ered 25
eternal 25
exponentially 25
fatal 25
feeds 25
flexibility 25
flights 25
frightened 25
gallon 25
gardens 25
generates 25
gentle 25
govern 25
grains 25
grave 25
grocery 25
hairs 25
happiest 25
happily 25
heritage 25
high-speed 25
hoped 25
imperative 25
inf@@ 25
integration 25
intended 25
interviewer 25
investigate 25
involve 25
ise 25
juggling 25
kings 25
lam@@ 25
land@@ 25
lately 25
limbs 25
loaded 25
louder 25
mal@@ 25
managing 25
manufacture 25
mapped 25
masters 25
mid@@ 25
midst 25
millimeter 25
monsoon 25
neocortex 25
nicely 25
node 25
nurturing 25
observed 25
officials 25
ok 25
ols 25
oriented 25
ose 25
packaging 25
participants 25
partnerships 25
paste 25
paths 25
perceptions 25
perspectives 25
plankton 25
pollutants 25
portable 25
post-conflict 25
potatoes 25
pouring 25
practicing 25
preparation 25
prevalence 25
principal 25
promised 25
proved 25
pursuing 25
rainforest 25
rains 25
recall 25
recognizes 25
releases 25
reproduction 25
rockets 25
rows 25
sensing 25
sensitivity 25
serves 25
sh 25
shelves 25
sir 25
sketch 25
specialist 25
speeds 25
spontaneously 25
stamp 25
statements 25
sted 25
stimulation 25
strains 25
strategic 25
striking 25
sty 25
suggestion 25
suitcase 25
summarize 25
sun@@ 25
surplus 25
sweat 25
systematic 25
tales 25
ther@@ 25
top@@ 25
tor 25
travels 25
tur@@ 25
upright 25
viable 25
visiting 25
visualize 25
weighs 25
well-known 25
wiring 25
wore 25
yed 25
youngest 25
,000-@@ 24
18th 24
30-@@ 24
38 24
47 24
Agnes 24
Alpha 24
Armstrong 24
Bangalore 24
Barry 24
Beijing 24
Ber@@ 24
Black 24
Camp 24
Canadian 24
Co 24
Col@@ 24
DVD 24
Did 24
Empire 24
En@@ 24
Eve 24
FG 24
First 24
IM 24
Jackson 24
Jerusalem 24
Jobs 24
Julian 24
Ku@@ 24
Mal@@ 24
Min@@ 24
Namibia 24
Nick 24
Pa@@ 24
Rachel 24
Ri@@ 24
Sal@@ 24
Saudi 24
Singapore 24
Tasmanian 24
The@@ 24
Tibet 24
Venezuela 24
Ver@@ 24
WK 24
Warren 24
Williams 24
Would 24
absurd 24
accomplish 24
ades 24
alists 24
ama@@ 24
answering 24
appeal 24
aps 24
ashamed 24
asleep 24
assumed 24
balanced 24
bas@@ 24
beside 24
blogging 24
bonus 24
borrow 24
brave 24
brush 24
bust 24
calcium 24
cardiac 24
ceremony 24
choir 24
cholera 24
climbed 24
clinics 24
combat 24
composer 24
conduct 24
configuration 24
confined 24
convincing 24
cop@@ 24
cousins 24
crab 24
criteria 24
depressing 24
disappears 24
documented 24
eats 24
economically 24
elderly 24
elders 24
elevator 24
emotionally 24
empire 24
enhance 24
entertaining 24
entities 24
envelope 24
erectus 24
est@@ 24
exotic 24
explores 24
expose 24
fault 24
fies 24
fin@@ 24
finishing 24
firms 24
fishermen 24
flesh 24
freezing 24
fu@@ 24
hint 24
ids 24
imagining 24
incidentally 24
injured 24
injustice 24
install 24
int 24
inventions 24
involving 24
ja@@ 24
ken 24
keys 24
knock 24
lean 24
learns 24
life-@@ 24
lined 24
lips 24
manipulation 24
marked 24
microphone 24
migration 24
mind-wandering 24
mirrors 24
modest 24
moreover 24
motivate 24
mustard 24
nanotechnology 24
nightmare 24
nonsense 24
occupy 24
operational 24
optimal 24
oven 24
paralysis 24
physiology 24
pic@@ 24
pla@@ 24
pot 24
potato 24
prefrontal 24
presenting 24
presidential 24
pressing 24
promises 24
radius 24
rainfall 24
regenerate 24
repeatedly 24
representative 24
representing 24
rescued 24
responded 24
riding 24
ros@@ 24
sa 24
salary 24
screaming 24
screens 24
semi-@@ 24
sequenced 24
sheer 24
shipping 24
shorter 24
sian 24
spike 24
squares 24
ss 24
stealing 24
ster@@ 24
substantial 24
surfing 24
tails 24
tar@@ 24
targeted 24
the-@@ 24
thers 24
thy 24
tly 24
tourist 24
traditionally 24
twist 24
unconscious 24
under-@@ 24
ung 24
uniquely 24
velocity 24
vocabulary 24
voters 24
wasted 24
wonderfully 24
-based 23
130 23
13@@ 23
15,000 23
1945 23
1995 23
300,000 23
42 23
AIMS 23
Ab@@ 23
Alaska 23
BC 23
Babbage 23
Bot@@ 23
Bri@@ 23
Caltech 23
Christ 23
Conference 23
Cu@@ 23
Dallas 23
Dick 23
Dylan 23
High 23
J 23
Ki@@ 23
Kiribati 23
Leone 23
Louis 23
Lu@@ 23
Margaret 23
Massachusetts 23
Mozart 23
Mt 23
Native 23
Parkinson 23
Parliament 23
Pe@@ 23
Pen@@ 23
Professor 23
Q 23
Republican 23
Rio 23
SB 23
SJ 23
Sahara 23
Thailand 23
Tuesday 23
Watson 23
Wi@@ 23
accepting 23
accountable 23
accounting 23
acute 23
acy 23
ag 23
aggregate 23
alike 23
altered 23
amateur 23
ane 23
ape 23
aring 23
arise 23
artwork 23
ash@@ 23
ats 23
award 23
banjo 23
banned 23
basket 23
bathroom 23
beloved 23
ber 23
bles 23
bond 23
bonds 23
bowl 23
bro@@ 23
bul@@ 23
bullet 23
buses 23
candidates 23
candy 23
canvas 23
cares 23
celebrity 23
certainty 23
char@@ 23
che@@ 23
chimpanzee 23
collaborator 23
commons 23
comparable 23
contents 23
contradiction 23
corrupt 23
counter-@@ 23
declared 23
delay 23
delight 23
delighted 23
depths 23
dge 23
diagnose 23
displays 23
divine 23
dreamed 23
duty 23
earned 23
easiest 23
edit 23
electrodes 23
enabling 23
environmentally 23
erotic 23
exceptions 23
executive 23
exhibit 23
fails 23
feminist 23
fetus 23
finite 23
first-@@ 23
fixing 23
fossils 23
fractal 23
free@@ 23
fruits 23
full-time 23
genomics 23
grassroots 23
gravitational 23
greatly 23
gue 23
guitar 23
handful 23
harness 23
hatred 23
heroic 23
huh 23
hunters 23
ie 23
iling 23
illustration 23
iness 23
inexpensive 23
inherently 23
institute 23
intangible 23
interfaces 23
jumps 23
ka 23
laughed 23
lic 23
lighter 23
likelihood 23
limestone 23
loc@@ 23
logging 23
longest 23
lu@@ 23
magazines 23
matches 23
mic 23
microbial 23
mixture 23
mythology 23
myths 23
negotiate 23
negotiating 23
notation 23
oma 23
ora 23
ordered 23
oring 23
owe 23
owners 23
parked 23
passions 23
patch 23
peers 23
philosophical 23
pin 23
ple 23
poses 23
precision 23
predicting 23
preserved 23
pressures 23
prints 23
procedures 23
propaganda 23
protest 23
radi@@ 23
rage 23
reasonably 23
reasoning 23
receiving 23
recycle 23
refined 23
refuse 23
regulations 23
relatives 23
relativity 23
remembering 23
remix 23
replacing 23
resilient 23
respected 23
responding 23
returns 23
ris@@ 23
rolls 23
rose 23
sailing 23
school@@ 23
scientifically 23
seawater 23
secondary 23
sel@@ 23
select 23
self-organizing 23
sessions 23
skeptical 23
slowed 23
slum 23
sm 23
snakes 23
soap 23
sol@@ 23
solemn 23
stare 23
sti@@ 23
storms 23
stu@@ 23
stunts 23
sucks 23
supportive 23
sustained 23
terrorist 23
textile 23
thesis 23
ti 23
tionally 23
tips 23
tized 23
trauma 23
tuned 23
two-dimensional 23
unity 23
valve 23
viewer 23
votes 23
wandering 23
willingness 23
winners 23
woods 23
yer 23
1,@@ 22
1.5 22
1930s 22
1970 22
1984 22
1991 22
24@@ 22
31 22
40s 22
7,000 22
900 22
Amsterdam 22
Ap@@ 22
Apollo 22
Army 22
Bab@@ 22
Ben@@ 22
CT 22
Cassini 22
Da@@ 22
Darfur 22
Denmark 22
Desert 22
Don@@ 22
Enceladus 22
Galileo 22
Gi@@ 22
Hawking 22
Just 22
Lo@@ 22
Mac 22
Mac@@ 22
Marcus 22
Matt 22
Oliver 22
Pur@@ 22
Ross 22
Sam 22
Secretary 22
Sil@@ 22
Society 22
To 22
UV 22
ace 22
acoustic 22
acre 22
addicted 22
agile 22
alities 22
amateurs 22
amino 22
ang@@ 22
angles 22
anim@@ 22
anxious 22
appreciated 22
apps 22
association 22
asthma 22
attraction 22
attributes 22
awake 22
awkward 22
axes 22
bat 22
bing 22
biotechnology 22
bon@@ 22
broadcast 22
bulbs 22
cerebral 22
chi@@ 22
circulation 22
clarity 22
cloth 22
commonly 22
compressed 22
considering 22
convention 22
correlated 22
cosmos 22
crushed 22
dancers 22
dd@@ 22
delivering 22
dent 22
developmental 22
develops 22
dimensional 22
distorted 22
dodo 22
dome 22
doodling 22
doses 22
dri@@ 22
dy@@ 22
eight-@@ 22
ell 22
encountered 22
endeavor 22
entrepreneurship 22
episode 22
equ@@ 22
examine 22
expectation 22
expense 22
exquisite 22
fertility 22
fication 22
filmed 22
floors 22
foster 22
fragments 22
galleries 22
geography 22
ger@@ 22
grace 22
grief 22
habitats 22
hackers 22
headline 22
heck 22
helpless 22
historian 22
honesty 22
humble 22
hut 22
iled 22
ils 22
improvisation 22
independently 22
influences 22
inform 22
installations 22
interconnected 22
intersection 22
intricate 22
invitation 22
jar 22
jaw 22
jokes 22
jumping 22
jungle 22
ki@@ 22
kiss 22
labels 22
lasts 22
laughter 22
laundry 22
laying 22
lenses 22
lobe 22
ls 22
lure 22
malnutrition 22
manufacturers 22
metaphors 22
migraine 22
mild 22
minerals 22
minimal 22
mm 22
mold 22
mouths 22
nodes 22
noticing 22
nucleus 22
odor 22
ol 22
ologist 22
ous@@ 22
pH 22
pathway 22
pit 22
pristine 22
pro-@@ 22
programmers 22
prototypes 22
prototyping 22
pumps 22
qualified 22
questioning 22
rail 22
rainforests 22
randomness 22
rap 22
realities 22
redefine 22
reflective 22
refugees 22
relax 22
ren@@ 22
repertoire 22
reporter 22
revolutionary 22
salmon 22
sch@@ 22
settle 22
sho@@ 22
sin@@ 22
single-@@ 22
sketches 22
skilled 22
slice 22
spills 22
st-@@ 22
standpoint 22
stri@@ 22
stro@@ 22
summary 22
tered 22
thirdly 22
tick 22
tives 22
toxins 22
trailer 22
transistors 22
transported 22
triangles 22
tribal 22
typing 22
uh 22
un-@@ 22
uniform 22
usage 22
va 22
vibrating 22
ville 22
volcanic 22
waited 22
wan@@ 22
0.@@ 21
1968 21
2,@@ 21
52 21
59 21
76 21
94 21
AV 21
Argentina 21
Arizona 21
BL 21
BP 21
Beach 21
Beethoven 21
Bono 21
Boy 21
Can@@ 21
Carnegie 21
Dead 21
Ed 21
Evan 21
Francis 21
Gordon 21
He@@ 21
Hospital 21
Human 21
IM@@ 21
Ivan 21
Kosovo 21
Lady 21
Listen 21
N 21
News 21
Nicholas 21
Nike 21
Of 21
People 21
Public 21
RNA 21
Reagan 21
Roy 21
Rule 21
San@@ 21
Saturday 21
Shar@@ 21
Sony 21
Sudan 21
Supreme 21
Ts 21
Tu@@ 21
Venter 21
Venus 21
Village 21
Year 21
Your 21
accurately 21
ach 21
addressed 21
aff@@ 21
alert 21
allies 21
ally-@@ 21
ards 21
are@@ 21
arose 21
assembled 21
assure 21
asteroids 21
atheist 21
athletes 21
atrazine 21
augmented 21
avian 21
backed 21
balloons 21
bamboo 21
bare 21
barrels 21
bath 21
blade 21
bled 21
bless 21
blessed 21
bling 21
blink 21
bloody 21
blows 21
boost 21
bounce 21
bun@@ 21
candle 21
capacities 21
cardiovascular 21
carrot 21
centimeter 21
charcoal 21
coined 21
collaborate 21
coma 21
commentary 21
committee 21
consistently 21
constrained 21
continually 21
controversy 21
council 21
cracked 21
crank 21
cru@@ 21
cups 21
daylight 21
default 21
deny 21
deploy 21
detected 21
developments 21
dictionaries 21
disappearing 21
discussed 21
documenting 21
dreaming 21
duration 21
earning 21
eastern 21
employ 21
enc@@ 21
enti@@ 21
equipped 21
eradicated 21
ess 21
explanations 21
ey@@ 21
fairy 21
fertilizer 21
fired 21
flood 21
flourish 21
fulfilling 21
gallons 21
gaze 21
gecko 21
geese 21
germs 21
gifts 21
glory 21
goats 21
goodbye 21
grand@@ 21
gri@@ 21
hamburger 21
heel 21
hence 21
hooked 21
hop 21
hor@@ 21
hotter 21
hugely 21
humanitarian 21
humankind 21
ial 21
ick 21
icons 21
ideology 21
illnesses 21
impaired 21
improvise 21
ingenious 21
ingenuity 21
innovate 21
intentional 21
intentions 21
irrigation 21
isolation 21
justify 21
knees 21
laboratories 21
literal 21
lithium 21
magnet 21
marker 21
marvelous 21
mastery 21
matching 21
melody 21
membrane 21
men@@ 21
metric 21
nail 21
naive 21
nit@@ 21
nu@@ 21
observer 21
ong 21
oo@@ 21
operated 21
operator 21
optimize 21
oxide 21
oyster 21
p.m. 21
patience 21
persuade 21
photographers 21
pigeon 21
pilots 21
planted 21
powder 21
pping 21
primates 21
producer 21
promising 21
publicly 21
pul@@ 21
quantities 21
qui@@ 21
quietly 21
radar 21
ram@@ 21
ranging 21
ray 21
reads 21
recovered 21
refused 21
regimes 21
resolved 21
responsibilities 21
revealing 21
rides 21
ries 21
romance 21
routinely 21
ruins 21
scaffolding 21
schooling 21
sells 21
sen 21
shaping 21
shells 21
sla@@ 21
slaves 21
sle@@ 21
slight 21
staggering 21
stake 21
starvation 21
state-of-the-art 21
sterile 21
sticky 21
stimulate 21
stressed 21
submersible 21
supports 21
surveillance 21
symphony 21
synesthesia 21
synthesis 21
tagging 21
tan@@ 21
tastes 21
tennis 21
tickets 21
tightly 21
tim@@ 21
tors 21
tortured 21
tremendously 21
tro@@ 21
tropical 21
tunas 21
tured 21
twins 21
ug@@ 21
unstable 21
vacation 21
viewed 21
vivid 21
voyage 21
warfare 21
washed 21
watches 21
with@@ 21
wives 21
work@@ 21
worship 21
worthwhile 21
writes 21
-year-olds 20
1.3 20
57 20
Abu 20
Ban@@ 20
Cameron 20
Costa 20
Country 20
D.C. 20
DP 20
Dec@@ 20
Democrats 20
Detroit 20
Em@@ 20
Europa 20
Falcon 20
Fer@@ 20
Get 20
Graham 20
Higgs 20
Himalayas 20
I.@@ 20
Jazeera 20
Jerry 20
Jersey 20
Jordan 20
Juan 20
Lakota 20
Maldives 20
Mel@@ 20
Mo 20
Mountains 20
Mur@@ 20
NGO 20
Neanderthal 20
Pat@@ 20
Portugal 20
Pre@@ 20
RG 20
Roman 20
Rose 20
Royal 20
SARS 20
Sar@@ 20
Sobule 20
Spring 20
T. 20
TEDMED 20
Tennessee 20
Theater 20
These 20
Titanic 20
Toronto 20
Tr@@ 20
Vinci 20
Wal-Mart 20
Walker 20
Zimbabwe 20
Zipcar 20
acted 20
adds 20
adopt 20
affairs 20
agnostic 20
ah@@ 20
alongside 20
alter 20
analyzing 20
ancy 20
ant@@ 20
antibiotic 20
appealing 20
archive 20
argued 20
assessment 20
ast@@ 20
astronomers 20
auditory 20
av@@ 20
beginnings 20
bent 20
bikes 20
bin 20
bind 20
blast 20
blocked 20
bly 20
breasts 20
bri@@ 20
bump 20
bumps 20
butt 20
by@@ 20
camels 20
cartoonist 20
cat@@ 20
certified 20
ces 20
chaotic 20
charter 20
chat 20
cleaner 20
coincidence 20
conceive 20
conscience 20
contagious 20
convergence 20
cooperate 20
coordinate 20
countryside 20
courageous 20
creators 20
crowded 20
culturally 20
dealt 20
decides 20
defeat 20
delicate 20
dependence 20
describing 20
deserves 20
desires 20
dest 20
destructive 20
determination 20
dged 20
differ 20
differential 20
disappointed 20
disconnected 20
disruptive 20
dividing 20
drilling 20
drowning 20
eg@@ 20
elbow 20
ell@@ 20
embodied 20
emerges 20
ent-@@ 20
envy 20
enzymes 20
ep@@ 20
ering 20
ets 20
ex-@@ 20
extensive 20
fifty 20
fiscal 20
flown 20
fog 20
forbid 20
foreground 20
free-@@ 20
frontal 20
fuzzy 20
gle 20
globalized 20
gratitude 20
guidance 20
hacking 20
hammer 20
handy 20
harvesting 20
heated 20
heights 20
hos@@ 20
hotels 20
hydro@@ 20
iPad 20
iceberg 20
individually 20
industrialized 20
infect 20
injection 20
instances 20
interviewing 20
intrinsically 20
invade 20
ion 20
jeans 20
journalism 20
kilometer 20
lane 20
lasting 20
lat@@ 20
launching 20
lays 20
liberty 20
locking 20
long-@@ 20
magnets 20
manifestation 20
memorial 20
mentors 20
million-@@ 20
misery 20
moms 20
mounted 20
murder 20
mutual 20
neuroscientist 20
no-@@ 20
norms 20
numerous 20
oiled 20
olive 20
one-third 20
parliament 20
partial 20
participating 20
pathogens 20
peer 20
pervasive 20
placebo 20
pond 20
port 20
posed 20
prayer 20
pregnancy 20
prisons 20
privacy 20
psychopath 20
purely 20
racing 20
rap@@ 20
reacting 20
reconstruct 20
regulate 20
releasing 20
revolutions 20
rhythms 20
rigid 20
rises 20
roles 20
rotating 20
rou@@ 20
sanitation 20
screw 20
seafood 20
shrink 20
signing 20
sively 20
slip 20
slowing 20
snake 20
soci@@ 20
spends 20
spite 20
stated 20
stocks 20
strengths 20
strips 20
stumbled 20
sulfur 20
suspicious 20
synapses 20
testosterone 20
thread 20
throws 20
tion-@@ 20
tioned 20
titles 20
tours 20
towers 20
transistor 20
translating 20
trap 20
twin 20
unfair 20
update 20
varieties 20
ved 20
verbal 20
violin 20
whistling 20
widespread 20
wonders 20
-free 19
00 19
10th 19
125 19
140 19
180 19
1975 19
1989 19
2030 19
250,000 19
44 19
450 19
49 19
86 19
Andy 19
Arabia 19
Barack 19
Bir@@ 19
Br@@ 19
Brazilian 19
CD 19
CEOs 19
Collider 19
Company 19
Cy@@ 19
Danish 19
Development 19
ED 19
For 19
Gar@@ 19
Gen@@ 19
Georgia 19
Hadron 19
Hum@@ 19
ID 19
IR@@ 19
Ice 19
Jamie 19
Kansas 19
Kar@@ 19
Katrina 19
Kibera 19
Kyoto 19
Lawrence 19
League 19
Luther 19
Medical 19
Mexican 19
Murray 19
Nepal 19
RSW 19
Reed 19
Roger 19
Romo 19
Russians 19
Sam@@ 19
Scotland 19
Scottish 19
Shi@@ 19
Stop 19
Super@@ 19
Sur@@ 19
Swedish 19
Talk 19
Te@@ 19
Tower 19
Up 19
Van 19
Wi-Fi 19
Wide 19
Wil@@ 19
Windows 19
acceleration 19
accent 19
accidentally 19
ancestry 19
antibodies 19
anytime 19
ap 19
app@@ 19
appliances 19
appropriately 19
arrest 19
ases 19
assigned 19
att@@ 19
attachment 19
attempted 19
attribute 19
bands 19
bay 19
beaches 19
beneficial 19
bert 19
billboard 19
bioluminescent 19
boots 19
breakdown 19
breakthroughs 19
cabinet 19
cables 19
cage 19
calculated 19
calendar 19
captain 19
chalk 19
chord 19
ck 19
claws 19
co 19
coastal 19
collaborators 19
commissioned 19
communal 19
conception 19
conditioning 19
conservatives 19
consists 19
continuity 19
continuum 19
cooked 19
cookie 19
county 19
criminals 19
criticized 19
curator 19
cyber 19
dancer 19
dates 19
deficit 19
deforestation 19
delivers 19
demanding 19
descriptions 19
developer 19
diamond 19
dining 19
diplomat 19
directed 19
disasters 19
discussions 19
dness 19
donated 19
drift 19
ease 19
editing 19
ee 19
effectiveness 19
eless 19
emails 19
entity 19
equilibrium 19
eri@@ 19
evaluate 19
excess 19
exhausted 19
explorers 19
extends 19
fame 19
fatty 19
feminine 19
fighters 19
fights 19
fisheries 19
fool 19
ford 19
freak 19
full-@@ 19
fundraising 19
funeral 19
fungus 19
ga 19
gaining 19
ge-@@ 19
geographic 19
gged 19
glow 19
glowing 19
grams 19
grim 19
guilt 19
gun@@ 19
hears 19
hh 19
hood 19
hopeless 19
hung 19
ignorance 19
ille 19
ills 19
imaginary 19
implants 19
inclusive 19
indication 19
infinitely 19
innovators 19
inorganic 19
inventing 19
inviting 19
ir 19
issued 19
it-@@ 19
iz@@ 19
jam 19
ju@@ 19
judges 19
lan@@ 19
legendary 19
lic@@ 19
lied 19
light-@@ 19
logy 19
mac@@ 19
mammal 19
mammogram 19
mantis 19
march 19
meets 19
migrate 19
minority 19
morally 19
mus@@ 19
needles 19
negotiation 19
negotiations 19
nerd 19
newly 19
obsolete 19
obstacle 19
occupation 19
off-@@ 19
ony 19
optics 19
ori@@ 19
outrageous 19
ov@@ 19
ow 19
owns 19
ozone 19
passenger 19
peaks 19
performs 19
pest 19
pets 19
philosophers 19
piles 19
pipeline 19
pipes 19
placing 19
poets 19
pped 19
publisher 19
punch 19
quo 19
rac@@ 19
recipes 19
reduces 19
reforms 19
regenerative 19
reject 19
relevance 19
rendering 19
respiratory 19
retire 19
sadness 19
sanitary 19
scarce 19
scope 19
scripts 19
seasons 19
secular 19
seriousness 19
shallow 19
shipped 19
short-term 19
shrinking 19
singers 19
sm@@ 19
son@@ 19
sounded 19
speci@@ 19
squared 19
stabilize 19
stairs 19
steak 19
sten 19
submitted 19
sufficient 19
superconductor 19
supermassive 19
surge 19
surveys 19
survivors 19
swap 19
swing 19
sync 19
telephones 19
th-century 19
thankfully 19
theirs 19
thin@@ 19
thrust 19
tion@@ 19
tively 19
top-down 19
unintended 19
variability 19
vents 19
verse 19
wasting 19
weekends 19
wo@@ 19
womb 19
world-class 19
worldview 19
wounded 19
ye@@ 19
,@@ 18
1985 18
2.0 18
500,000 18
50@@ 18
70,000 18
= 18
Acumen 18
Agency 18
Ages 18
Aimee 18
Be 18
Bertie 18
Bhutan 18
Bol@@ 18
Bosnia 18
Bruno 18
C. 18
CIA 18
Cam@@ 18
Cancer 18
Char@@ 18
Christopher 18
Ci@@ 18
DL 18
Defense 18
Edinburgh 18
Europeans 18
FOXO 18
Fort 18
Gehry 18
Greeks 18
Ground 18
Harris 18
Have 18
Heart 18
History 18
IT 18
Kingdom 18
Ko@@ 18
Kri@@ 18
LEDs 18
Laptop 18
Mas@@ 18
May@@ 18
Mil@@ 18
Natalie 18
Nollywood 18
Not 18
Office 18
Open 18
Orleans 18
Panbanisha 18
Pepsi 18
PowerPoint 18
Ron 18
Rory 18
Rouge 18
Sergio 18
Sin@@ 18
Skype 18
Social 18
Ste@@ 18
Studio 18
Ted 18
Third 18
Type 18
Ur@@ 18
Vietnamese 18
YR 18
Yorker 18
Young 18
abalone 18
abandon 18
absorbed 18
academics 18
acceptable 18
accidental 18
adjacent 18
advocate 18
aerial 18
agrees 18
airports 18
algebra 18
ambiguity 18
ami@@ 18
ams 18
angels 18
ani 18
ani@@ 18
annoying 18
anth@@ 18
anthropologist 18
appearing 18
applause 18
ari 18
arithmetic 18
arrow 18
ased 18
aspirations 18
ath 18
attempting 18
autistic 18
availability 18
bananas 18
bankers 18
bench 18
bending 18
blueprint 18
broadly 18
brutal 18
cafe 18
carved 18
cell@@ 18
cello 18
cement 18
circuitry 18
cliffs 18
cocktail 18
combining 18
compatible 18
conducting 18
consent 18
consideration 18
consuming 18
contracts 18
cop 18
cultivate 18
cutting-edge 18
declining 18
dered 18
digits 18
directors 18
disconnect 18
disgusting 18
distinctive 18
donation 18
doubling 18
dragged 18
dunes 18
eds 18
educating 18
ei@@ 18
eling 18
elites 18
emission 18
employee 18
employment 18
enzyme 18
essay 18
ever-@@ 18
exceptional 18
execution 18
exit 18
export 18
fast-forward 18
fe 18
filmmakers 18
financially 18
firmly 18
flap 18
fle@@ 18
flock 18
flooding 18
for-profit 18
framed 18
fur@@ 18
gates 18
gigantic 18
gro@@ 18
grounded 18
halls 18
ham@@ 18
harsh 18
highways 18
hom@@ 18
ier 18
illiterate 18
indoor 18
inefficient 18
informal 18
ini 18
ining 18
instincts 18
insulin 18
int@@ 18
involvement 18
joining 18
ket 18
liberals 18
lightning 18
lightweight 18
likewise 18
linguistic 18
lining 18
literary 18
loops 18
low-tech 18
lows 18
maintaining 18
manages 18
manifest 18
marijuana 18
mat 18
meaningless 18
meantime 18
met@@ 18
ministers 18
murdered 18
nano-@@ 18
noble 18
non@@ 18
numb 18
nut 18
obsession 18
ole 18
ologists 18
onic 18
ow@@ 18
pathology 18
penetrate 18
permanently 18
personalities 18
pesticides 18
pioneer 18
pity 18
playground 18
poles 18
poll 18
poorer 18
pop@@ 18
post@@ 18
posture 18
presentations 18
preventable 18
pros@@ 18
protocells 18
railroad 18
reactor 18
receptor 18
redesign 18
register 18
registered 18
relates 18
requests 18
resist 18
resonance 18
responsive 18
retreat 18
returning 18
rightly 18
rop@@ 18
sail 18
satisfied 18
scaffold 18
scanned 18
schizophrenia 18
scuba 18
sealed 18
server 18
shield 18
simulated 18
sin 18
slave 18
slogan 18
smiles 18
sof@@ 18
soils 18
sought 18
spi@@ 18
spine 18
spo@@ 18
statue 18
steady 18
steer 18
stereo 18
strict 18
successes 18
sums 18
sympathy 18
tan 18
technicians 18
ther 18
three-year-old 18
til@@ 18
time-@@ 18
tipping 18
tops 18
tracked 18
transcend 18
trunk 18
ty@@ 18
ular 18
unacceptable 18
unfolding 18
unite 18
variables 18
victory 18
visuals 18
vo@@ 18
volcanoes 18
volumes 18
voluntary 18
wage 18
wages 18
wander 18
wipe 18
worries 18
zip 18
zo@@ 18
,500 17
1986 17
1996 17
2015 17
77 17
80,000 17
84 17
87 17
92 17
93 17
Allen 17
Antarctic 17
Archie 17
Arts 17
At@@ 17
Bal@@ 17
Barbara 17
Because 17
Biosphere 17
Bra@@ 17
CAD 17
CNN 17
Cap@@ 17
Che@@ 17
Cre@@ 17
DARPA 17
DG 17
Den@@ 17
Diana 17
Dor@@ 17
Ed@@ 17
FBI 17
Fa@@ 17
Galois 17
Gra@@ 17
Gre@@ 17
Grey 17
Hillis 17
Hiroshima 17
Hyun-Sook 17
IDEO 17
IQ 17
Im@@ 17
Intel 17
Isaac 17
J. 17
Jennifer 17
Journal 17
Kamen 17
Kay 17
Kepler 17
Khmer 17
Klein 17
Large 17
Mahatma 17
Maria 17
Marine 17
Mis@@ 17
Mountain 17
Ms 17
My@@ 17
Nairobi 17
Negroponte 17
Our 17
Peru 17
Ph@@ 17
Philippines 17
Pra@@ 17
RISD 17
Ram@@ 17
Starbucks 17
Stirling 17
TD 17
Tamiflu 17
Whoa 17
Win@@ 17
abo@@ 17
accelerated 17
acceptance 17
accused 17
ack@@ 17
adolescents 17
adventures 17
aesthetics 17
album 17
ali 17
altruism 17
and-@@ 17
ank 17
antenna 17
arbitrary 17
arian 17
arrangement 17
artery 17
astronomical 17
ate@@ 17
athlete 17
atmospheric 17
atten@@ 17
ature 17
automatic 17
aw@@ 17
ba 17
baker 17
basics 17
bat@@ 17
bel@@ 17
bicycles 17
biomimicry 17
ble@@ 17
bleeding 17
blocking 17
bloggers 17
booms 17
brakes 17
bronze 17
browser 17
campaigns 17
cane 17
captures 17
carbonate 17
cathedral 17
cereal 17
characterized 17
chin 17
cleaned 17
clinically 17
comet 17
commercials 17
complaining 17
container 17
contexts 17
contributions 17
cooler 17
correspond 17
crabs 17
crawling 17
credible 17
cri@@ 17
critic 17
criticism 17
crowds 17
cues 17
currents 17
curved 17
dangers 17
decentralized 17
defines 17
demographics 17
developers 17
diffusion 17
digit 17
digitize 17
distribute 17
dity 17
donations 17
dove 17
downstairs 17
drank 17
drought 17
dumped 17
dune 17
edited 17
editors 17
ely 17
empires 17
employed 17
enthusiastic 17
erase 17
ethic 17
exclusive 17
existential 17
explicitly 17
explode 17
extending 17
fabrication 17
fer 17
ff@@ 17
fingertips 17
fire@@ 17
flat@@ 17
flo@@ 17
focuses 17
footprints 17
forehead 17
forum 17
frustrating 17
gadgets 17
gently 17
geometric 17
gli@@ 17
gosh 17
governed 17
grabs 17
grandmothers 17
groundbreaking 17
gy@@ 17
hair@@ 17
headaches 17
heavens 17
high-resolution 17
home@@ 17
hyper-@@ 17
hyperbolic 17
iPods 17
igh@@ 17
illa 17
imaginative 17
imbalance 17
immersed 17
implanted 17
improves 17
inability 17
inputs 17
insecure 17
insi@@ 17
insist 17
insisted 17
intent 17
intervene 17
intrigued 17
introducing 17
introverts 17
invaded 17
inventors 17
irrelevant 17
itable 17
ited 17
iting 17
jacket 17
jury 17
lastly 17
lay@@ 17
leather 17
listed 17
log@@ 17
logically 17
loser 17
manipulated 17
manufacturer 17
maternal 17
medications 17
metabolic 17
metaphorical 17
minimize 17
minor 17
missile 17
modeled 17
modes 17
modified 17
monster 17
mosquitoes 17
motions 17
nectar 17
neurological 17
new@@ 17
noises 17
non-profit 17
obtained 17
od 17
of-@@ 17
off@@ 17
offshore 17
oms 17
ona 17
one-on-one 17
oops 17
orbiting 17
ounce 17
outs 17
packing 17
pads 17
payment 17
peel 17
pepper 17
personnel 17
pies 17
pioneering 17
pirate 17
policing 17
polymer 17
pops 17
populated 17
positively 17
posters 17
posts 17
pot@@ 17
practiced 17
preferred 17
prescription 17
preserving 17
presumably 17
priest 17
prizes 17
problematic 17
projections 17
protects 17
rebel 17
referred 17
reminder 17
rendered 17
rented 17
replicator 17
retail 17
retired 17
riot 17
ripped 17
satisfy 17
scholars 17
sensible 17
sh-@@ 17
shower 17
si 17
sible 17
similarities 17
sky@@ 17
slate 17
slept 17
slices 17
souls 17
spl@@ 17
sponsor 17
squeeze 17
stadium 17
stand-up 17
startling 17
statistically 17
stimulus 17
sto@@ 17
strangely 17
stretched 17
strictly 17
strokes 17
struggled 17
styles 17
submarine 17
suey 17
supercomputer 17
surroundings 17
susceptible 17
switches 17
taboo 17
tal@@ 17
taller 17
tations 17
temptation 17
thermal 17
tiger 17
tism 17
tofu 17
tuberculosis 17
uck 17
ulating 17
uni@@ 17
united 17
universes 17
ures 17
utter 17
vague 17
valid 17
vector 17
ven 17
wa 17
wal@@ 17
wat@@ 17
wer 17
wr@@ 17
yn@@ 17
zer 17
00@@ 16
1.2 16
110 16
12th 16
1949 16
1976 16
2.5 16
400,000 16
Ah@@ 16
Air@@ 16
Alabama 16
Ann 16
Anthony 16
As@@ 16
Bali 16
Bond 16
Bonobo 16
Book 16
CAPTCHA 16
Ca@@ 16
Channel 16
Copernicus 16
Cuba 16
Digital 16
Dolby 16
Dubai 16
EG 16
Easter 16
Edward 16
Fin@@ 16
Flickr 16
Ga@@ 16
Greg 16
HIV-positive 16
Han@@ 16
Holy 16
Hudson 16
Hy@@ 16
IMF 16
IN@@ 16
Kenyan 16
Khan 16
Kim 16
Kir@@ 16
Labs 16
Liberia 16
Love 16
MR 16
Map 16
Max 16
Medicine 16
Men 16
Mermaid 16
Mes@@ 16
Mic@@ 16
Michigan 16
Mola 16
More 16
Movement 16
Mrs. 16
Natural 16
Noah 16
Northwest 16
Oregon 16
Pl@@ 16
Poland 16
Prime 16
Rift 16
Roosevelt 16
Russell 16
SOPA 16
Show 16
Siberia 16
Side 16
Somalia 16
Sta@@ 16
Star@@ 16
Stockholm 16
Stu@@ 16
Sudhir 16
Sum@@ 16
Tar@@ 16
Turkish 16
UCLA 16
Wait 16
Walter 16
War@@ 16
Wars 16
Wol@@ 16
abused 16
admire 16
adolescent 16
altogether 16
ambiguous 16
anatomy 16
anic 16
animated 16
animations 16
announcement 16
anthropology 16
antiangiogenic 16
anticipated 16
apartheid 16
apologize 16
apparent 16
ar-@@ 16
ara 16
arriving 16
art@@ 16
arteries 16
articulate 16
ase 16
asser@@ 16
atic 16
atory 16
auditorium 16
automobiles 16
awards 16
axe 16
balances 16
ballot 16
ban 16
beekeepers 16
biases 16
bla@@ 16
blend 16
blu@@ 16
boiling 16
bookstore 16
brilliance 16
brilliantly 16
bulk 16
bull 16
buys 16
celebrating 16
cer@@ 16
chimps 16
chunk 16
cigarette 16
civilian 16
cle@@ 16
cochlear 16
collapses 16
collar 16
combinations 16
commission 16
commute 16
compact 16
comparisons 16
complain 16
complained 16
conferences 16
conspiracy 16
contacts 16
containers 16
contaminated 16
cookies 16
corporation 16
corresponding 16
cour@@ 16
crawl 16
crystal 16
cubic 16
cue 16
cumulative 16
custom 16
cymatics 16
dan@@ 16
databases 16
day-to-day 16
deer 16
defending 16
degradation 16
delete 16
deliberately 16
depended 16
deprivation 16
detectors 16
digitally 16
disabilities 16
dom 16
dominate 16
dreadful 16
dug 16
dum@@ 16
dumping 16
ecologist 16
ect 16
efficiently 16
elling 16
embraced 16
emphasis 16
empowerment 16
en-@@ 16
ena 16
endless 16
entitled 16
envision 16
epilepsy 16
epiphany 16
equator 16
ero@@ 16
ess@@ 16
estrogen 16
evolves 16
exhibitions 16
expeditions 16
expressing 16
expressive 16
faint 16
fees 16
filming 16
flames 16
folk 16
framing 16
fre@@ 16
freeze 16
frequent 16
gener@@ 16
generator 16
gharial 16
ghost 16
gic 16
gifted 16
gled 16
gloves 16
goodness 16
grading 16
grasses 16
gre@@ 16
grip 16
guaranteed 16
hack 16
handling 16
hard-@@ 16
heartbeat 16
hilarious 16
holiday 16
holistic 16
horrific 16
hum@@ 16
hyper@@ 16
ians 16
ica 16
ich 16
ici@@ 16
illustrates 16
immensely 16
implication 16
incremental 16
infinity 16
inherited 16
inject 16
instinctively 16
integrating 16
intend 16
interfere 16
intergalactic 16
ire 16
ironically 16
jargon 16
jelly 16
kable 16
killers 16
kilogram 16
kilograms 16
knives 16
knocked 16
lazy 16
leak 16
lessly 16
liberation 16
life@@ 16
lifelike 16
lifelong 16
lize 16
lover 16
low-income 16
mandate 16
mathematically 16
measurable 16
medieval 16
meg@@ 16
melted 16
mentality 16
menu 16
middle-class 16
mill 16
mind-@@ 16
mineral 16
monsters 16
multinational 16
nanoscale 16
nar@@ 16
ner@@ 16
nests 16
ninth 16
nitric 16
norm 16
nursing 16
obscure 16
officers 16
oll@@ 16
ological 16
oned 16
open-@@ 16
ops 16
ound 16
overlap 16
packs 16
paradise 16
parameters 16
pas@@ 16
pe 16
peanuts 16
pedestrian 16
performers 16
persist 16
phrases 16
pine 16
pitches 16
pleasures 16
poorly 16
popped 16
ports 16
poured 16
prayers 16
preferences 16
projecting 16
protocol 16
puberty 16
publication 16
pulses 16
pun@@ 16
pushes 16
quantity 16
quarters 16
queens 16
quotes 16
racial 16
rank 16
rating 16
ration 16
reactors 16
recreate 16
rediscover 16
regarded 16
rehabilitation 16
relaxed 16
remotely 16
retain 16
revelation 16
reviewed 16
rig 16
rin@@ 16
rooted 16
rough@@ 16
roughness 16
ruin 16
rupees 16
sand@@ 16
sands 16
sandwiches 16
sank 16
sapiens 16
scape 16
schedule 16
scholarship 16
scre@@ 16
searches 16
separating 16
sey 16
shouting 16
siblings 16
simulator 16
six-year-old 16
skies 16
slime 16
small-scale 16
smo@@ 16
sou@@ 16
space-time 16
specialists 16
speeches 16
spins 16
spores 16
ss@@ 16
strain 16
structured 16
subsidies 16
suburban 16
suburbia 16
sucked 16
sum@@ 16
superior 16
supposedly 16
sweeping 16
synthesize 16
tail@@ 16
tam@@ 16
technician 16
ter-@@ 16
theft 16
thoughtful 16
threatening 16
thrive 16
tigers 16
time-lapse 16
toll 16
transferred 16
translates 16
triple 16
troubled 16
turtles 16
ultra-@@ 16
unequal 16
unhealthy 16
unified 16
urgency 16
urges 16
valued 16
vastly 16
vent 16
verge 16
versa 16
vic@@ 16
visceral 16
visitors 16
visualizing 16
vocal 16
vol@@ 16
volts 16
von 16
wallet 16
warehouse 16
water@@ 16
waterfall 16
wax 16
weekly 16
wel@@ 16
whip 16
whistle 16
wounds 16
ys@@ 16
zero-sum 16
zoo 16
zy 16
é 16
# 15
0 15
1,200 15
15th 15
160 15
1973 15
1974 15
1983 15
1992 15
1993 15
2,500 15
25@@ 15
26@@ 15
3,@@ 15
40-@@ 15
58 15
62 15
71 15
A.@@ 15
ABC 15
AC@@ 15
AI 15
Achilles 15
Alfred 15
Arkansas 15
Association 15
Austria 15
Award 15
BMW 15
Beck 15
Best 15
Bihar 15
Bollywood 15
Bridge 15
Browne 15
Bulgaria 15
Business 15
C.@@ 15
CDs 15
Chi@@ 15
Children 15
Cochrane 15
Colombia 15
Connecticut 15
Cri@@ 15
Cuban 15
DE@@ 15
Davis 15
Duke 15
E. 15
EB 15
Earth-like 15
Five 15
Greece 15
Han 15
Haw@@ 15
Hi@@ 15
I. 15
IP 15
Industrial 15
Jac@@ 15
Jan@@ 15
Joel 15
Jon 15
Jonas 15
KS 15
Ka@@ 15
Laden 15
Lan@@ 15
Lebanon 15
Line 15
Little 15
MBA 15
Machine 15
Magazine 15
Malcolm 15
Marshall 15
Miller 15
Mission 15
Muhammad 15
Mul@@ 15
Navy 15
New@@ 15
OPEC 15
Ooh 15
Oprah 15
PIPA 15
PISA 15
Palestinians 15
Pentagon 15
Pri@@ 15
Ran@@ 15
Rom@@ 15
Rush 15
Saddam 15
Senate 15
Service 15
Shoots 15
Sioux 15
Slow 15
Sol@@ 15
Sri 15
Stanley 15
Taiwan 15
Technology 15
Toyota 15
Tra@@ 15
Treating 15
Tur@@ 15
USDA 15
VC 15
Whole 15
Wor@@ 15
Word 15
ZK 15
ables 15
abnormal 15
abstraction 15
accumulation 15
ada 15
advantages 15
ai 15
alarming 15
ald 15
alpha 15
aming 15
analytical 15
ander 15
animate 15
ano 15
anthropologists 15
apped 15
arrangements 15
arrows 15
assignments 15
assistant 15
astro@@ 15
ately 15
ath@@ 15
atheists 15
auction 15
aunt 15
balancing 15
ball@@ 15
banker 15
basketball 15
beans 15
beast 15
beats 15
bee@@ 15
belonging 15
ben@@ 15
benign 15
bers 15
bian 15
bioenergy 15
biotech 15
bit@@ 15
black@@ 15
blobs 15
borrowing 15
bothered 15
break@@ 15
broadcasting 15
bureaucratic 15
burns 15
bury 15
but@@ 15
capsule 15
carbs 15
carve 15
casting 15
cau@@ 15
cen@@ 15
centered 15
centimeters 15
centric 15
chan@@ 15
chemists 15
classified 15
cloned 15
cobra 15
cockpit 15
collector 15
commerce 15
compose 15
composite 15
concentrations 15
conclusions 15
conf@@ 15
confirmed 15
controller 15
cores 15
courtyard 15
crafted 15
crater 15
crochet 15
cult 15
dges 15
differentiate 15
din@@ 15
disbelief 15
disparate 15
distracted 15
diver@@ 15
divergence 15
dives 15
dos 15
drama 15
dre@@ 15
du 15
elder 15
eled 15
emailed 15
emergent 15
emitted 15
ened 15
ening 15
enlightened 15
establishment 15
eu@@ 15
experimentation 15
explorer 15
explosions 15
extinctions 15
extracted 15
extremism 15
fMRI 15
fifteen 15
fitted 15
flags 15
flashing 15
flipping 15
floods 15
fluctuations 15
focal 15
folder 15
foot@@ 15
frontiers 15
fuck 15
gal@@ 15
gangs 15
gears 15
genesis 15
genuinely 15
go-@@ 15
god@@ 15
gratification 15
grazing 15
guidelines 15
guru 15
gyrus 15
hallway 15
hat@@ 15
headache 15
hear@@ 15
hike 15
hin@@ 15
historians 15
holder 15
hug 15
hull 15
hurricane 15
ima 15
immortal 15
imp@@ 15
import 15
impose 15
impress 15
indoors 15
inflation 15
injected 15
inter-@@ 15
interference 15
internationally 15
intrinsic 15
introduces 15
intuitions 15
invasive 15
ironic 15
istic 15
ities 15
izes 15
ja 15
je 15
kel 15
key@@ 15
kindly 15
lan 15
lasted 15
legally 15
leisure 15
lip 15
lousy 15
lump 15
lymph 15
maggots 15
maintained 15
maj@@ 15
makeup 15
man-made 15
margin 15
marriages 15
massively 15
measurement 15
mega-@@ 15
memorize 15
microwave 15
midnight 15
mimicking 15
mir@@ 15
mod@@ 15
monthly 15
mosque 15
motivates 15
motorcycle 15
multi-touch 15
museums 15
mutually 15
neighboring 15
ners 15
newest 15
notebook 15
nuclei 15
obligation 15
offensive 15
omics 15
onics 15
onset 15
oping 15
opposition 15
oral 15
orbital 15
orchestras 15
orphanage 15
ou 15
oun@@ 15
partially 15
payments 15
pha@@ 15
physiological 15
pianist 15
pigmentation 15
plan@@ 15
plywood 15
pneumonia 15
pol@@ 15
popping 15
por@@ 15
predatory 15
preservation 15
pressed 15
prevents 15
primal 15
primordial 15
proceed 15
programmer 15
projector 15
prone 15
prospect 15
proves 15
province 15
provocative 15
psychiatrists 15
py 15
quantitative 15
races 15
racism 15
real-world 15
rebuilding 15
receiver 15
reclaim 15
recordings 15
references 15
reinventing 15
relational 15
removes 15
residential 15
resonate 15
respects 15
ric@@ 15
ringing 15
rit@@ 15
rode 15
ruled 15
rushed 15
sac@@ 15
scar@@ 15
scare 15
scars 15
scenarios 15
seasonal 15
see@@ 15
selecting 15
selective 15
serial 15
settings 15
severely 15
sha 15
shar@@ 15
she@@ 15
shi@@ 15
shoots 15
sighted 15
simplify 15
six@@ 15
skip 15
smartest 15
snap 15
sole 15
spaceship 15
spades 15
spark 15
specialization 15
spouse 15
stakes 15
stats 15
steering 15
stepping 15
stereotypes 15
stigma 15
stre@@ 15
stripped 15
substitute 15
suburbs 15
sued 15
sunny 15
supermarkets 15
sustaining 15
swam 15
swarm 15
swear 15
sy@@ 15
syringe 15
teapot 15
terminal 15
texting 15
throat 15
ticking 15
timber 15
titled 15
tivity 15
tle 15
toaster 15
toilets 15
toughest 15
tourism 15
toxin 15
trac@@ 15
trade-offs 15
tran@@ 15
twenty 15
ude 15
ulate 15
ums 15
unaware 15
undergraduate 15
understandable 15
unfold 15
unimaginable 15
ura 15
urbanization 15
varied 15
veil 15
vibrant 15
visionary 15
volcano 15
wards 15
ware 15
warrior 15
wavelength 15
weakness 15
wilderness 15
windmill 15
wit@@ 15
worn 15
wreck 15
year@@ 15
yo 15
zero-@@ 15
.5 14
1,100 14
1982 14
2.@@ 14
2012 14
46 14
50th 14
56 14
83 14
89 14
AR@@ 14
African-American 14
Ali 14
Austin 14
BBC 14
Babylon 14
Batman 14
Benki 14
Billy 14
Bren@@ 14
Brigades 14
Bro@@ 14
Campaign 14
Casey 14
Chicken 14
Chief 14
Civil 14
Cohen 14
Cross 14
DJ 14
Dennis 14
Depression 14
Dev@@ 14
Doug 14
E8 14
Eames 14
Eleanor 14
Enlightenment 14
Exxon 14
Fahrenheit 14
Fe@@ 14
Fields 14
Forest 14
Fox 14
Fr@@ 14
Gal@@ 14
Garden 14
Gary 14
Give 14
Gs 14
Guinea 14
Ham@@ 14
Hindu 14
Hitler 14
Homer 14
Hungarian 14
Jacqueline 14
Janine 14
Jason 14
Jimmy 14
Kal@@ 14
Kanzi 14
Karen 14
Langley 14
Leo 14
Luke 14
Mahmoud 14
Maltese 14
Maslow 14
Midwest 14
Ministry 14
Miss 14
Mister 14
Mitchell 14
Molas 14
Moscow 14
NA@@ 14
NM 14
Net 14
Neumann 14
Nevada 14
Orchestra 14
P. 14
PS 14
Pakistani 14
Philadelphia 14
Point 14
Potter 14
Pu@@ 14
Qatar 14
Rand 14
Red@@ 14
Rockefeller 14
Ronald 14
S. 14
SMS 14
Satan 14
Sc@@ 14
She 14
Superman 14
Syria 14
TEDWomen 14
TEDster 14
Tarahumara 14
Tehran 14
Ten 14
Town 14
Treasure 14
Ushahidi 14
V-Day 14
Vagina 14
Vegas 14
Venice 14
WHO 14
Warner 14
Wednesday 14
Wired 14
Witness 14
Yale 14
ab 14
achievements 14
addresses 14
ade 14
adju@@ 14
adopting 14
adulthood 14
affection 14
ambulance 14
announcing 14
antennae 14
antidote 14
apparatus 14
apping 14
approval 14
arguably 14
arrival 14
assign 14
assumes 14
astrolabe 14
astronauts 14
aura 14
automotive 14
az@@ 14
bab@@ 14
bac@@ 14
bad@@ 14
bakery 14
ballast 14
banana 14
bats 14
beard 14
bedrock 14
behaving 14
believer 14
biomaterials 14
bipolar 14
bladder 14
blessing 14
blogger 14
blogosphere 14
boils 14
bot 14
boyfriend 14
brain@@ 14
branding 14
breathtaking 14
bricks 14
burial 14
butterflies 14
ca 14
cabin 14
calculator 14
calculators 14
capitalist 14
carbon-@@ 14
cas@@ 14
casual 14
casualties 14
catalyst 14
ced 14
cellphones 14
centralized 14
certificate 14
ch-@@ 14
charities 14
charts 14
cheated 14
chiefs 14
chunks 14
clap 14
clash 14
closes 14
coach 14
coalition 14
coated 14
coins 14
collaborating 14
collects 14
communist 14
community-@@ 14
competence 14
comprehensive 14
computer-@@ 14
concerts 14
cone 14
confirm 14
confuse 14
constitution 14
contest 14
cops 14
cords 14
cost-effective 14
costly 14
cou@@ 14
coupled 14
crashing 14
crust 14
d-up 14
daddy 14
danced 14
daunting 14
def@@ 14
delightful 14
delusion 14
democracies 14
dengue 14
deployment 14
dering 14
deserts 14
desp@@ 14
diagnostics 14
diagrams 14
digest 14
diplomatic 14
displaced 14
displayed 14
disposal 14
divers 14
dominance 14
donate 14
dow@@ 14
dried 14
drinks 14
drums 14
dump 14
durable 14
dynamically 14
echo 14
ection 14
educ@@ 14
elevated 14
elevation 14
eliminating 14
ella 14
elle 14
empathize 14
enberg 14
ences 14
enduring 14
ene@@ 14
energies 14
evi@@ 14
evident 14
examined 14
excerpt 14
excessive 14
expands 14
experimenting 14
explicit 14
extracting 14
eyed 14
faiths 14
fans 14
fat@@ 14
fax 14
fee 14
feminism 14
fictional 14
fins 14
fishes 14
fitting 14
flour 14
fluids 14
fooled 14
forecast 14
foremost 14
form@@ 14
fragmented 14
fulfill 14
fulfillment 14
functionality 14
furthermore 14
fuse 14
gamma 14
geo@@ 14
geological 14
germ 14
gling 14
graduates 14
grassland 14
grasslands 14
grounds 14
hands-on 14
heels 14
hen@@ 14
herd 14
hobby 14
hs 14
humpback 14
hurry 14
hydrocarbons 14
hyena 14
hypotheses 14
ideals 14
idiot 14
illumination 14
imaginations 14
immunity 14
incomplete 14
incorporate 14
ind@@ 14
indirectly 14
inging 14
inmates 14
insert 14
inspirational 14
intellect 14
intestine 14
investigating 14
investigative 14
invites 14
ious 14
ist@@ 14
je@@ 14
ji 14
judging 14
keen 14
kle 14
l-@@ 14
lacking 14
lakes 14
larvae 14
las@@ 14
legi@@ 14
lest 14
lia 14
limitation 14
lings 14
lish 14
literate 14
loaf 14
lowered 14
mainframe 14
manufactured 14
marries 14
mass-@@ 14
matic 14
medi@@ 14
memorable 14
merge 14
mers 14
messing 14
middle-aged 14
mil@@ 14
mimics 14
mite 14
mites 14
modernism 14
navigation 14
nutritional 14
officially 14
ography 14
oneself 14
opaque 14
orn 14
oting 14
ounding 14
ousness 14
outdoor 14
overfishing 14
ox@@ 14
paradigms 14
passengers 14
pat 14
payoff 14
peer-to-peer 14
penicillin 14
perceptual 14
performances 14
performer 14
periodic 14
personalization 14
petals 14
pharmaceuticals 14
philanthropic 14
pizza 14
play@@ 14
plentiful 14
plotted 14
polite 14
polluted 14
pools 14
pop-up 14
pork 14
pos@@ 14
postcards 14
ppers 14
praise 14
prince 14
programmable 14
prophet 14
proscenium 14
protective 14
proteomics 14
protons 14
puppet 14
puppets 14
purse 14
quanti@@ 14
quar@@ 14
quiz 14
raging 14
ram 14
read@@ 14
realizes 14
rear 14
reframe 14
regain 14
reinvent 14
relieved 14
render 14
renewables 14
replied 14
representatives 14
reproductive 14
resort 14
respectful 14
respecting 14
restricted 14
richness 14
right-@@ 14
rod 14
roommate 14
ruler 14
sabbatical 14
salad 14
sane 14
saturated 14
scarcity 14
scissors 14
scroll 14
se-@@ 14
second-@@ 14
secre@@ 14
sediment 14
seminal 14
sequel 14
servers 14
settlements 14
seven-@@ 14
sideways 14
sign@@ 14
snails 14
sneak 14
spar@@ 14
spe@@ 14
spec@@ 14
specimens 14
sperm 14
spines 14
stacks 14
starving 14
statistic 14
stein 14
stimulated 14
stole 14
storing 14
straw 14
strongest 14
subconscious 14
subjective 14
substantially 14
suggestions 14
supernova 14
superpower 14
suppress 14
surprises 14
symptom 14
taped 14
tapes 14
tasted 14
tation 14
tectonic 14
tele@@ 14
tense 14
terrestrial 14
threads 14
three-quarters 14
thriving 14
tizing 14
tolerant 14
towel 14
transducer 14
treats 14
tribute 14
triumph 14
tting 14
tutoring 14
typed 14
underway 14
unlimited 14
unrelated 14
uploaded 14
ured 14
uring 14
vegetation 14
virtues 14
warmth 14
weir@@ 14
workshops 14
yl@@ 14
ze@@ 14
1.4 13
16th 13
1918 13
1962 13
1967 13
200@@ 13
35,000 13
41 13
53 13
68 13
7,@@ 13
78 13
82 13
A-@@ 13
Accenture 13
Allan 13
Amanda 13
Ari@@ 13
Australian 13
Avenue 13
Blair 13
Bon@@ 13
Bor@@ 13
Botswana 13
Broadmoor 13
Buil@@ 13
Building 13
C-@@ 13
Cairo 13
Cham@@ 13
Club 13
Colorado 13
Cooper 13
Cro@@ 13
Cup 13
Dawkins 13
Democratic 13
Dennett 13
Dre@@ 13
EEG 13
Ear@@ 13
Emmanuel 13
Er@@ 13
Essex 13
Father 13
Finland 13
Food 13
Full 13
GPHIN 13
Galvao 13
Genome 13
Gilbert 13
Gillian 13
Gould 13
Grace 13
Guardian 13
H5N1 13
Herbie 13
Hmm 13
Holocaust 13
Honey 13
Hopkins 13
Hubble 13
Hussein 13
I-@@ 13
IV 13
Is@@ 13
Israelis 13
Je@@ 13
Jessica 13
Joey 13
Judaism 13
Justice 13
KT 13
Lagos 13
Le 13
Len 13
Libya 13
Linux 13
MA 13
MBI 13
Make 13
Mark@@ 13
Mathematica 13
Med@@ 13
Mediterranean 13
Miami 13
Minnesota 13
Nazi 13
Nu@@ 13
Op@@ 13
Page 13
Pan@@ 13
Paulo 13
Philippe 13
Pink 13
Pol@@ 13
Police 13
Qaeda 13
Renaissance 13
Reserve 13
Rica 13
Roots 13
SE 13
SM 13
SO@@ 13
Saint 13
Sao 13
Schwarzschild 13
Seth 13
Solar 13
Southeast 13
Stefan 13
Sue 13
Survey 13
Symphony 13
Thanksgiving 13
Things 13
Tom@@ 13
Transition 13
Tso 13
Tumor 13
UK 13
Virtual 13
Von 13
Whit@@ 13
WorldWide 13
acronym 13
activism 13
adage 13
adapting 13
aer@@ 13
aerodynamic 13
aftermath 13
aks 13
algorithmic 13
alistic 13
allo@@ 13
amed 13
angel 13
announce 13
antly 13
apper 13
arch 13
arises 13
ark 13
arm@@ 13
arti@@ 13
aspiration 13
astounding 13
at-@@ 13
ati@@ 13
attend 13
aviation 13
backgrounds 13
backpack 13
balconies 13
band@@ 13
bass 13
bearing 13
beetle 13
bends 13
bes 13
biased 13
biography 13
blob 13
blueprints 13
bombers 13
bombing 13
booth 13
brand-new 13
bursts 13
bye 13
bypass 13
campaigning 13
careers 13
catalog 13
censorship 13
chapters 13
charging 13
cheaply 13
chers 13
chewing 13
chk 13
cinema 13
cla@@ 13
clean@@ 13
clone 13
cockroach 13
coded 13
cognition 13
coherent 13
collide 13
communism 13
compass 13
competent 13
competitors 13
complications 13
comprehension 13
compromised 13
confusing 13
confusion 13
contemplate 13
convenience 13
converting 13
couples 13
crashed 13
creepy 13
crises 13
critics 13
cul@@ 13
damaging 13
dation 13
ddy 13
declined 13
decoration 13
defenders 13
definitions 13
deliberate 13
deni@@ 13
denied 13
denominator 13
denser 13
dental 13
desks 13
determining 13
devastated 13
dian 13
difficulties 13
dispersed 13
distress 13
dividend 13
downloaded 13
dragline 13
dresses 13
drip 13
dye 13
eager 13
eco-@@ 13
ed-@@ 13
edible 13
eigh@@ 13
eliminated 13
elled 13
eller 13
elusive 13
embody 13
emits 13
emp@@ 13
enclosure 13
encoded 13
encounters 13
ency 13
endlessly 13
energetic 13
eng@@ 13
enjoyable 13
ep 13
epi@@ 13
epic 13
erosion 13
escaped 13
evaporate 13
exams 13
excellence 13
excuses 13
experimented 13
exploding 13
expresses 13
extremes 13
fal@@ 13
fascination 13
fills 13
firemen 13
fishery 13
fla@@ 13
flapping 13
flashlight 13
fled 13
flourishing 13
foam 13
followers 13
fon@@ 13
forgiveness 13
four@@ 13
fractals 13
fraud 13
freedoms 13
fry 13
fueled 13
gan@@ 13
geeky 13
generators 13
geo-@@ 13
geographical 13
gin@@ 13
gle@@ 13
graffiti 13
great-@@ 13
greed 13
hacker 13
han 13
handsome 13
hard@@ 13
hardwired 13
headphones 13
heroin 13
hertz 13
high-quality 13
histories 13
hive 13
horrifying 13
hostility 13
hosts 13
house@@ 13
hur@@ 13
hurts 13
icy 13
idealism 13
identities 13
ideological 13
impe@@ 13
imperfect 13
imposed 13
inadequate 13
inappropriate 13
inc@@ 13
incidents 13
indic@@ 13
inertia 13
ington 13
ini@@ 13
instability 13
insurgency 13
intensely 13
interpreted 13
interrupted 13
intuitively 13
inv@@ 13
invasion 13
jams 13
jets 13
journeys 13
kie 13
kissing 13
lamb 13
landfill 13
lar@@ 13
lea@@ 13
left-handed 13
legend 13
len@@ 13
leveraging 13
lexicon 13
lid 13
life-saving 13
lightly 13
limbic 13
lobes 13
locks 13
logists 13
lon@@ 13
loyalty 13
madness 13
mag@@ 13
mama 13
manipulating 13
manure 13
mar 13
margins 13
marshmallow 13
masks 13
mation 13
maze 13
meadow 13
meanings 13
merging 13
messed 13
methodology 13
metropolitan 13
mies 13
mighty 13
millimeters 13
mind@@ 13
mini 13
miracles 13
modify 13
moisture 13
mond 13
monk 13
multiplied 13
myriad 13
nails 13
nanometers 13
nation-state 13
needing 13
nerdy 13
nie 13
nonviolence 13
noted 13
novels 13
nutrient 13
ola 13
old-fashioned 13
oning 13
onion 13
oo 13
oper@@ 13
orientation 13
ories 13
outrage 13
overwhelmingly 13
oysters 13
packaged 13
packets 13
painter 13
palette 13
palms 13
parable 13
participated 13
passionately 13
passport 13
pastor 13
path@@ 13
payload 13
peanut 13
pedal 13
peek 13
perfection 13
persistent 13
phases 13
photographing 13
pioneers 13
plaque 13
plasticity 13
plea 13
ples 13
plumbing 13
poli@@ 13
pollinators 13
pore 13
pp@@ 13
predicts 13
proliferation 13
promotes 13
psycho@@ 13
pumping 13
puppy 13
quicker 13
rainwater 13
ranges 13
rated 13
ratings 13
reactive 13
readily 13
receives 13
receptors 13
refers 13
reflecting 13
regre@@ 13
rel@@ 13
relying 13
reptiles 13
requirement 13
requirements 13
restorative 13
reuse 13
revenge 13
revi@@ 13
reviews 13
rider 13
ridicule 13
rigorous 13
road@@ 13
ron@@ 13
rotten 13
rowing 13
rudder 13
ruined 13
sau@@ 13
scal@@ 13
scar 13
sco@@ 13
sec@@ 13
secretly 13
self-esteem 13
semen 13
settlement 13
sewage 13
sex@@ 13
shave 13
sher 13
shout 13
shredded 13
sidewalk 13
sights 13
silks 13
simplistic 13
skiing 13
skins 13
skydiving 13
sliced 13
solves 13
sounding 13
specialize 13
spikes 13
spirits 13
sponsored 13
spor@@ 13
stacking 13
standardized 13
stat@@ 13
statues 13
stor@@ 13
stratosphere 13
sty@@ 13
suffers 13
sugars 13
sup@@ 13
surrounds 13
sw@@ 13
sweep 13
swept 13
swine 13
switching 13
syn@@ 13
tac@@ 13
taxi 13
technologists 13
tenth 13
thirds 13
thou 13
throwaway 13
tilt 13
timeline 13
tionists 13
token 13
tougher 13
tourists 13
traded 13
tragedies 13
trance 13
transnational 13
trick@@ 13
trickster 13
triggers 13
trunks 13
tter 13
tucked 13
turtle 13
tutor 13
twentieth 13
umbrella 13
unbelievably 13
uncles 13
uncover 13
und@@ 13
underwear 13
unemployment 13
unpredictable 13
unthinkable 13
ure 13
urgent 13
ush 13
ute 13
valves 13
var@@ 13
vation 13
ventilation 13
verbs 13
verify 13
vertically 13
vet 13
villagers 13
vin 13
vine 13
violation 13
virtuous 13
vividly 13
vul@@ 13
vy 13
watt 13
whatnot 13
wide-@@ 13
width 13
wished 13
wondrous 13
workshop 13
world-@@ 13
x-ray 13
yearning 13
yelling 13
youngsters 13
zeros 13
,000-dollar 12
-and-a-half 12
00s 12
1,600 12
101 12
12-@@ 12
15-@@ 12
1900 12
1957 12
1969 12
1988 12
51 12
73 12
74 12
81 12
88 12
9,000 12
ALS 12
Al-Qaeda 12
Alhambra 12
Americas 12
Baghdad 12
Balkans 12
Barbie 12
Beatles 12
Berners-Lee 12
Bilbao 12
Board 12
Bonnet 12
Bowl 12
Brain 12
Brand 12
Breton 12
Burma 12
Buy 12
CERN 12
CO@@ 12
CP 12
Carter 12
Chen 12
Clark 12
Corporation 12
Cra@@ 12
Creek 12
Critic 12
Cs 12
Cur@@ 12
DDT 12
Dimitri 12
Donnell 12
Dou@@ 12
Douglas 12
Economist 12
Ecuador 12
Eden 12
Eli@@ 12
Ellen 12
Energy 12
Enriquez 12
Ethiopian 12
Evelyn 12
Everything 12
Ezra 12
Fab 12
Fine 12
Fl@@ 12
Gapminder 12
Gaza 12
Glenn 12
Gold 12
Goo@@ 12
Green@@ 12
Grove 12
Haz@@ 12
Hebrew 12
Home 12
Horse 12
Ian 12
Igbo 12
Illinois 12
Information 12
Iraqi 12
Irish 12
JC 12
Jamaica 12
Jesse 12
Jo 12
Kabul 12
Kin@@ 12
Las 12
Lau@@ 12
Light 12
Lin@@ 12
Lisa 12
Lucy 12
Lynn 12
Macintosh 12
Madagascar 12
Mao 12
Marc 12
Matthieu 12
Millennium 12
Monologues 12
Myhrvold 12
NATO 12
Nancy 12
Naomi 12
Nation 12
Nazis 12
Network 12
Norwegian 12
Odysseus 12
Off@@ 12
Ol@@ 12
PE@@ 12
Palestine 12
Pants 12
Pin@@ 12
Play-Doh 12
Pool 12
RHex 12
RO@@ 12
Redwoods 12
Rights 12
Road 12
Robinson 12
SA 12
Samuel 12
Sand@@ 12
Senegal 12
Sergey 12
Shah 12
Shan@@ 12
Sim@@ 12
Sk@@ 12
Skycar 12
Son@@ 12
Spe@@ 12
Splashy 12
Sutherland 12
Sydney 12
Tas@@ 12
Tor@@ 12
Trek 12
Triceratops 12
Truth 12
Tunisia 12
Turing 12
Victorian 12
Vol@@ 12
Walmart 12
Wat@@ 12
Water@@ 12
Westerners 12
Wisconsin 12
X-rays 12
Yor@@ 12
Zambia 12
Ze 12
accessing 12
accommodate 12
accumulating 12
ace@@ 12
aching 12
acquisition 12
adjusted 12
administrative 12
adore 12
advertise 12
advi@@ 12
aids 12
aled 12
align 12
ama 12
anemia 12
ann@@ 12
ans@@ 12
aorta 12
aqu@@ 12
arc 12
archae@@ 12
ared 12
ater 12
attending 12
au 12
auto@@ 12
autonomously 12
aver@@ 12
aversion 12
backing 12
backward 12
baking 12
balcony 12
bases 12
bathe 12
battles 12
bility 12
bin@@ 12
binds 12
bitter 12
boo@@ 12
booming 12
boot 12
brink 12
broad@@ 12
browse 12
buck 12
buddy 12
builder 12
bureaucracy 12
butter 12
buyer 12
calving 12
cam@@ 12
capturing 12
car-sharing 12
carriers 12
cartilage 12
cartoonists 12
ceramics 12
chambers 12
chant 12
charitable 12
charming 12
che 12
cheapest 12
citizenship 12
claimed 12
cleaners 12
clicking 12
clo@@ 12
cod 12
collapsing 12
collections 12
colleges 12
colonial 12
color@@ 12
comedian 12
comfortably 12
comm@@ 12
commander 12
commands 12
compost 12
concer@@ 12
concussion 12
considerably 12
constructing 12
contemplating 12
contractor 12
contributes 12
contributors 12
conver@@ 12
cooled 12
coordinated 12
cos@@ 12
coumarin 12
cradle 12
craters 12
crocodile 12
crosses 12
crow 12
crux 12
customized 12
cyberspace 12
daf-2 12
dam 12
dam@@ 12
dated 12
dazzling 12
ddle 12
decode 12
decreased 12
deep-sea 12
defeated 12
defl@@ 12
degrade 12
del@@ 12
delayed 12
demanded 12
demonstrating 12
demonstrations 12
depres@@ 12
der-@@ 12
derive 12
descent 12
desirable 12
devi@@ 12
devise 12
devote 12
differentiated 12
diffuse 12
digitized 12
dil@@ 12
dip 12
discarded 12
discount 12
discrete 12
discusses 12
disin@@ 12
distinguished 12
distraction 12
divides 12
dos@@ 12
downs 12
drifted 12
drifting 12
dro@@ 12
dru@@ 12
duc@@ 12
ects 12
educators 12
een 12
eff@@ 12
efficacy 12
ek 12
ele@@ 12
embarrassment 12
embryo 12
embryonic 12
encode 12
ental 12
entries 12
ere 12
estimation 12
excites 12
executives 12
expenditure 12
exploitation 12
exports 12
exposing 12
face-to-face 12
fashionable 12
fearless 12
feasible 12
feathers 12
featured 12
fellows 12
ffer 12
ffs 12
filtering 12
fine-@@ 12
fished 12
fitness 12
fleet 12
fli@@ 12
flipped 12
flop 12
fol@@ 12
forgetting 12
fountain 12
fresh@@ 12
fulfilled 12
fulness 12
fur 12
futures 12
gait 12
gaming 12
gasses 12
gated 12
gen 12
geniuses 12
genomic 12
gh 12
glucose 12
governor 12
gradual 12
grape 12
grapes 12
grind 12
guest 12
habitable 12
handled 12
hangs 12
hatch 12
hats 12
head-tail-head 12
helicopters 12
helix 12
hiring 12
holders 12
hoo 12
hub 12
humidity 12
hundred-@@ 12
husbands 12
hydrothermal 12
hypertext 12
ices 12
ideally 12
imitate 12
immersion 12
improbable 12
incidence 12
incubator 12
ind 12
inde@@ 12
indicated 12
indicating 12
injecting 12
inquiry 12
instructor 12
interacts 12
interconnectedness 12
intimately 12
ised 12
ises 12
ita 12
iteration 12
j 12
jack 12
ke-@@ 12
kilos 12
kite 12
know-how 12
ladder 12
latitude 12
lawns 12
lawsuits 12
learner 12
leg@@ 12
leukemia 12
liberated 12
licensed 12
lifestyles 12
lifting 12
lim@@ 12
liter 12
lively 12
logarithmic 12
longing 12
low@@ 12
magnetism 12
maize 12
mam@@ 12
marvel 12
mas@@ 12
masterpieces 12
mates 12
mechanically 12
mediate 12
melts 12
membranes 12
memorized 12
messaging 12
mind-blowing 12
miniature 12
mom@@ 12
monarchy 12
monopoly 12
moons 12
mortgage 12
mother@@ 12
motivations 12
multitasking 12
mutilated 12
nat@@ 12
near-@@ 12
needless 12
negatives 12
non-verbal 12
non-violent 12
obey 12
occupied 12
onies 12
osh 12
osis 12
ote 12
otherness 12
otic 12
ounded 12
out-of-@@ 12
partisan 12
passively 12
pasting 12
pavilion 12
peacekeepers 12
peeling 12
penis 12
peri@@ 12
persons 12
pigmented 12
pinnacle 12
plank 12
poetic 12
poisoning 12
policemen 12
polls 12
pornography 12
portions 12
posting 12
powerfully 12
preference 12
pretending 12
prioritize 12
prof@@ 12
profiles 12
progressive 12
promotion 12
pronounced 12
propelled 12
proposing 12
propulsion 12
prostitution 12
proving 12
proximity 12
psyche 12
psychopathic 12
publishers 12
q@@ 12
quarks 12
questioned 12
quoted 12
rabbi 12
rabbit 12
radiologists 12
rang 12
reas@@ 12
reconciliation 12
rectangle 12
ree 12
refer@@ 12
regarding 12
rehearsal 12
remembers 12
replicating 12
replication 12
reply 12
resemble 12
resi@@ 12
restored 12
resulted 12
rewarded 12
rex 12
ri 12
rip 12
role-play 12
rub 12
rug 12
satisfying 12
savanna 12
scandal 12
scheduled 12
scholar 12
scratching 12
scri@@ 12
sculptor 12
searched 12
seatbelts 12
seizure 12
self-expression 12
self-organization 12
seniors 12
sexuality 12
shade 12
shadows 12
shirts 12
shor@@ 12
shoreline 12
shortcut 12
sil@@ 12
simulating 12
slideshow 12
slot 12
snapshot 12
snor@@ 12
societal 12
someplace 12
sophistication 12
sor 12
sor@@ 12
sourcing 12
southwest 12
speeding 12
spelled 12
spells 12
spirituality 12
sporting 12
sta 12
starch 12
starve 12
stiff 12
stran@@ 12
strapped 12
strive 12
stuffed 12
stunned 12
sub 12
subsequently 12
sufficiently 12
suite 12
superpowers 12
survives 12
survivor 12
sushi 12
suspected 12
swarms 12
sweating 12
synapse 12
synthesized 12
tackling 12
teddy 12
teen 12
template 12
tempting 12
thed 12
therapist 12
third-@@ 12
thro@@ 12
tick@@ 12
titanium 12
tiveness 12
tolerate 12
ton@@ 12
toolbox 12
toothbrush 12
tot@@ 12
tract 12
trafficking 12
trail 12
transcendent 12
transformations 12
transforms 12
traumatic 12
treaties 12
treaty 12
tric@@ 12
tripled 12
troubling 12
truc@@ 12
trusting 12
tun@@ 12
tunnels 12
ue 12
um-@@ 12
union 12
unto 12
unveils 12
updated 12
upload 12
urine 12
utilitarian 12
utility 12
vascular 12
vegetarian 12
violate 12
waking 12
wears 12
wetlands 12
whe@@ 12
wheel@@ 12
win-win 12
world-changing 12
woven 12
x-@@ 12
xen@@ 12
zoning 12
) 11
-of-@@ 11
.7 11
0-year-old 11
100-@@ 11
100@@ 11
12-year-old 11
1800s 11
1900s 11
1965 11
1978 11
24-hour 11
28@@ 11
3.@@ 11
30@@ 11
40@@ 11
45,000 11
750 11
79 11
91 11
@ 11
A. 11
AM 11
Actor 11
Ag@@ 11
Alexandria 11
An 11
Anna 11
Archi@@ 11
Area 11
Auschwitz 11
B. 11
Band-Aid 11
Barefoot 11
Beau 11
Bl@@ 11
Black@@ 11
Bos@@ 11
Boyle 11
Brilliant 11
Bureau 11
CA@@ 11
CL 11
CPU 11
Carson 11
Ce@@ 11
Charter 11
Chin@@ 11
Claus 11
Comm@@ 11
Commandments 11
Computer 11
Could 11
Cynthia 11
Dan@@ 11
Dar@@ 11
Darwinism 11
Death 11
Deep 11
Derek 11
Diego 11
Doc 11
Dum@@ 11
Dun@@ 11
E-@@ 11
Eduardo 11
Eg@@ 11
Egyptians 11
Emma 11
Ernest 11
Esther 11
Film 11
Fre@@ 11
Free 11
Freud 11
Fri@@ 11
Friedman 11
Gallery 11
Ghraib 11
Gowanus 11
HC 11
Hal@@ 11
Harlem 11
Hawaiian 11
Hea@@ 11
His 11
Hole 11
Huck 11
Interface 11
Inuit 11
Islamist 11
Jabbar 11
Jacques 11
Jeep 11
Johns 11
Julie 11
Juliet 11
Kahn 11
Kam@@ 11
Karl 11
Kentucky 11
Kismet 11
Kiva 11
Kurzweil 11
LHC 11
LI@@ 11
LOLcats 11
Laboratory 11
Laurie 11
M. 11
M.@@ 11
Mag@@ 11
Maitreya 11
Mall 11
Mandarin 11
Mari@@ 11
Mayan 11
Medicines 11
Mid@@ 11
Min 11
MoMA 11
Modern 11
Monkey 11
Motor 11
Netflix 11
Nicole 11
Night 11
Norse 11
Ob@@ 11
Okapi 11
Oscar 11
Ottoman 11
PCBs 11
Pantheon 11
Party 11
Pascal 11
Pass 11
Patent 11
Paula 11
Pinker 11
Pitt 11
Plan 11
Pleo 11
Pope 11
Pos@@ 11
Radio 11
Rezero 11
Riverside 11
Robin 11
Roc@@ 11
Rock 11
Rockett 11
Rovers 11
SF 11
Sachs 11
Salman 11
Saul 11
Save 11
Sciences 11
Sebastian 11
Sel@@ 11
Sousa 11
Station 11
Styrofoam 11
Sub-Saharan 11
Sul@@ 11
Super 11
TE@@ 11
TR 11
Tam@@ 11
Tim@@ 11
Tomorrow 11
Tran@@ 11
Troy 11
Trust 11
Ty@@ 11
U.N 11
UNAIDS 11
Universe 11
Uruguay 11
Viking 11
Visual 11
Vivian 11
Voice 11
W. 11
Willie 11
With 11
Woman 11
X-@@ 11
a.m 11
accelerator 11
acknowledged 11
activates 11
activation 11
ader 11
administrators 11
ado@@ 11
adulter@@ 11
advise 11
advocacy 11
advocating 11
age-@@ 11
age-old 11
ager 11
aggression 11
aimed 11
albeit 11
alia 11
aligned 11
alizes 11
alle@@ 11
alli@@ 11
alls 11
alternate 11
ambassador 11
ambi@@ 11
amplify 11
antidepressants 11
apathy 11
aria 11
arians 11
arrange 11
arranged 11
arrives 11
asphalt 11
assault 11
assist 11
assured 11
ata 11
ation-@@ 11
atro@@ 11
attended 11
attracting 11
audi@@ 11
automated 11
avert 11
awa 11
awa@@ 11
awarded 11
backstage 11
backup 11
basin 11
bathtub 11
battling 11
beams 11
behaved 11
behaves 11
belts 11
benefited 11
bets 11
betting 11
bi 11
biom@@ 11
biting 11
blades 11
blin@@ 11
blue-@@ 11
boarding 11
boil 11
bomb@@ 11
bonuses 11
borrowed 11
branching 11
breathed 11
bred 11
bribes 11
broadband 11
bru@@ 11
brute 11
bucket 11
bunk 11
burglar 11
burnt 11
calf 11
capit@@ 11
carrots 11
catastrophes 11
celestial 11
champagne 11
champion 11
chariot 11
cheer 11
chi 11
chick 11
chicks 11
chman 11
cho@@ 11
cigarettes 11
civilians 11
class@@ 11
closet 11
cloudy 11
cockroaches 11
comets 11
comforting 11
commonplace 11
companion 11
complexities 11
composers 11
compress 11
comprised 11
conce@@ 11
conceivable 11
conceived 11
concluded 11
conducive 11
conflicting 11
conserve 11
consist 11
consistency 11
constructive 11
contacted 11
converge 11
converts 11
coolest 11
corridors 11
cosmology 11
crafts 11
cried 11
criticize 11
cruelty 11
crush 11
cubes 11
dances 11
dar@@ 11
daycare 11
deadline 11
dedication 11
degrading 11
della 11
dependency 11
deprived 11
descend 11
desperation 11
destined 11
detached 11
detecting 11
dials 11
diary 11
dictator 11
diff@@ 11
dilemmas 11
diminished 11
din 11
diplomats 11
direc@@ 11
disagreement 11
disc 11
disc@@ 11
discomfort 11
discourse 11
disen@@ 11
dispute 11
disruption 11
disturbed 11
divinity 11
dominating 11
don@@ 11
dotcom 11
downhill 11
dragging 11
droplet 11
dum 11
dung 11
echoes 11
ecstasy 11
ected 11
ectomy 11
ego@@ 11
el-@@ 11
embed 11
embodiment 11
emit 11
emitting 11
encourages 11
enlightenment 11
enterprises 11
environmentalists 11
epidemics 11
ety 11
euros 11
evolutionarily 11
exclusively 11
excruciating 11
exercises 11
exploited 11
expo 11
exquisitely 11
extraction 11
extremist 11
facade 11
faculty 11
fade 11
fairness 11
far-@@ 11
fetuses 11
files 11
fin 11
fingerprint 11
firstly 11
flakes 11
flash@@ 11
flowering 11
follow-up 11
forbidden 11
formats 11
founders 11
fragrance 11
freaked 11
freeway 11
fried 11
ful@@ 11
fusiform 11
gan 11
gas@@ 11
gateway 11
generative 11
gist 11
gon@@ 11
grabbing 11
graduation 11
greeted 11
gridlock 11
groom 11
growers 11
hay 11
hazard 11
headset 11
hemoglobin 11
heroism 11
hers 11
high-level 11
hillside 11
hippie 11
hockey 11
hollow 11
home-@@ 11
hon@@ 11
hop@@ 11
horribly 11
hour@@ 11
hubris 11
humane 11
humanoid 11
identifying 11
ides 11
ignorant 11
ile 11
illuminating 11
illustrations 11
imitation 11
implies 11
improvising 11
impulses 11
incomes 11
indicators 11
induc@@ 11
induced 11
ine@@ 11
infamous 11
infer@@ 11
inflate 11
inflection 11
inhabit 11
initiated 11
inner-city 11
ino 11
insul@@ 11
insult 11
interdependence 11
interstate 11
intertwined 11
intimidating 11
invisibility 11
isms 11
itated 11
iti 11
itis 11
joints 11
journals 11
jum@@ 11
kar 11
ket@@ 11
kets 11
kh 11
knit 11
knot 11
lacks 11
latent 11
lawn 11
lawsuit 11
layered 11
lbs 11
leaks 11
legitimacy 11
les@@ 11
lesser 11
let@@ 11
liber@@ 11
lifts 11
liking 11
locals 11
locate 11
long-distance 11
lovers 11
ly-@@ 11
m-@@ 11
mailbox 11
mani@@ 11
mania 11
manic 11
mantra 11
marathon 11
massage 11
median 11
mel@@ 11
ment@@ 11
metastases 11
microseconds 11
mid- 11
mildness 11
milit@@ 11
millennium 11
ministry 11
miraculous 11
misunderstood 11
mit@@ 11
mmm 11
mo 11
mobilize 11
mode@@ 11
moderate 11
modern-day 11
modification 11
modular 11
monks 11
moth 11
mum 11
mundane 11
naturalist 11
nings 11
non-governmental 11
nonviolent 11
norm@@ 11
northeast 11
nuanced 11
obtain 11
ographic 11
oller 11
omic 11
omy 11
one-to-one 11
onia 11
oppression 11
optic 11
optimi@@ 11
opy 11
orchestr@@ 11
organizational 11
originated 11
orist 11
osity 11
oth 11
ounds 11
outdoors 11
outlet 11
outlines 11
outreach 11
outstanding 11
overboard 11
overseas 11
pacemaker 11
paints 11
palace 11
pancreas 11
pandemics 11
pap@@ 11
parallels 11
patented 11
pel 11
perceiving 11
perpetual 11
pesticide 11
phosph@@ 11
photosynthesis 11
pillow 11
plague 11
plaster 11
pled 11
plugged 11
poke 11
pores 11
portal 11
powerless 11
pper 11
practitioners 11
pragmatic 11
predictive 11
preliminary 11
presidents 11
preview 11
pric@@ 11
primate 11
probable 11
problem-solving 11
processors 11
prolific 11
proposes 11
providers 11
provoke 11
psychiatrist 11
psychiatry 11
punish 11
purchases 11
purchasing 11
purpos@@ 11
pursued 11
puzzling 11
quantify 11
rainbow 11
randomized 11
rationality 11
rationally 11
real-life 11
rearrange 11
rebellion 11
recipient 11
reck@@ 11
recommended 11
recon@@ 11
recyclable 11
red-@@ 11
reflex 11
removing 11
reporters 11
repository 11
representations 11
reprogram 11
restoring 11
retali@@ 11
revolutionize 11
rewarding 11
rhetoric 11
roc@@ 11
rocking 11
rotates 11
rotation 11
royal 11
rut 11
saltwater 11
salvation 11
sanctuary 11
scalable 11
screwed 11
sculpt 11
secretary 11
seeks 11
selectively 11
seller 11
sensations 11
settling 11
shepherd 11
shiny 11
shook 11
shores 11
shortage 11
show@@ 11
sians 11
sibility 11
side-by-side 11
similarity 11
sincere 11
sional 11
sit@@ 11
skepticism 11
skier 11
skyline 11
slaughter 11
smartphone 11
smiley 11
smu@@ 11
sn@@ 11
snail 11
snow@@ 11
sobering 11
socket 11
softly 11
solely 11
solitary 11
sors 11
soy 11
sparked 11
sparkling 11
spit 11
spy 11
squatter 11
stent 11
stewardship 11
stimulating 11
stly 11
stop@@ 11
strap 11
streaming 11
studios 11
submarines 11
submersibles 11
suited 11
summed 11
sunglasses 11
suspension 11
swallow 11
swallowed 11
swollen 11
synchrony 11
tablet 11
tadpole 11
tapping 11
tasty 11
tearing 11
technologist 11
tended 11
testimony 11
theorist 11
thr@@ 11
threaten 11
thri@@ 11
thu@@ 11
tickle 11
tide 11
tified 11
tinkering 11
tious 11
tis@@ 11
traction 11
trafficked 11
transcendence 11
transmitter 11
transplants 11
triggered 11
tropics 11
tuning 11
tural 11
twisted 11
tying 11
type@@ 11
typography 11
uck@@ 11
uncertain 11
underestimate 11
une@@ 11
unemployed 11
unexplored 11
unk 11
unlock 11
unsustainable 11
untouched 11
uprising 11
upstairs 11
uptake 11
uranium 11
uri@@ 11
urs 11
ury 11
utes 11
vaginas 11
van@@ 11
ve-@@ 11
veins 11
vel@@ 11
ventilated 11
vibration 11
vibrations 11
vicious 11
viewers 11
vitality 11
volunteered 11
warn 11
waterfront 11
wearable 11
weep 11
weighed 11
wellness 11
whilst 11
whisper 11
wil@@ 11
wild@@ 11
wind@@ 11
wiser 11
withstand 11
woo@@ 11
ye 11
yel@@ 11
yell 11
yields 11
yle 11
yogurt 11
yp@@ 11
.8 10
1.7 10
14th 10
16-@@ 10
170 10
1850 10
1858 10
1908 10
1920s 10
1940 10
1940s 10
1947 10
194@@ 10
1966 10
1979 10
1981 10
1987 10
200-@@ 10
2100 10
21st-century 10
25th 10
3.3 10
30-year 10
360 10
39 10
4.@@ 10
401 10
54 10
800,000 10
90,000 10
9th 10
Aaron 10
Adams 10
Al-@@ 10
Am 10
Ark 10
Aspen 10
Axis 10
BR 10
Baby 10
Bat@@ 10
Berry 10
Bird 10
Brit@@ 10
Buckminster 10
Buddhism 10
Budrus 10
CDC 10
Canal 10
Captain 10
Cargill 10
Cau@@ 10
Chap@@ 10
Charlotte 10
Chee@@ 10
Christianity 10
Chuck 10
Cl@@ 10
Conservation 10
Convention 10
Cru@@ 10
Cultural 10
DMCA 10
Delta 10
Derartu 10
Dewey 10
Diplomat 10
Discovery 10
Doha 10
Drake 10
Dyson 10
E.@@ 10
Edison 10
Effects 10
Emer@@ 10
Eu@@ 10
FS 10
Federal 10
Field 10
Franklin 10
Fred 10
Frederick 10
Freedom 10
From 10
Fuller 10
Furby 10
Gell-Mann 10
Georgetown 10
God@@ 10
Good@@ 10
Grand@@ 10
Group 10
Guard 10
Hannah 10
Happy 10
Harbor 10
Hardy 10
Helen 10
Hindi 10
Hob@@ 10
Hol@@ 10
Hor@@ 10
Icelandic 10
Inconvenient 10
Incredible 10
Independent 10
Indiana 10
Istanbul 10
J.@@ 10
Jean 10
Jose 10
Judy 10
Kerala 10
Kid@@ 10
Kiki 10
LE@@ 10
Lanka 10
Lar@@ 10
Lauren 10
Law@@ 10
Left 10
Lindbergh 10
Lucifer 10
MP3 10
MacCready 10
Mach@@ 10
Magic 10
Mah@@ 10
Malawi 10
Manchester 10
Matthew 10
McC@@ 10
McLuhan 10
Michel@@ 10
Mitra 10
NIH 10
NK 10
Nano 10
Nashville 10
Newtonian 10
Next 10
Novogratz 10
O.K. 10
OS 10
Ok@@ 10
Oklahoma 10
Old 10
On 10
Over 10
PO 10
PRIZE 10
Papua 10
Pat 10
Photoshop 10
Plato 10
Prince 10
Randi 10
Ranger 10
Rebecca 10
Rice 10
Ridge 10
Robicsek 10
Sagmeister 10
Sally 10
Sav@@ 10
Scientific 10
Scot@@ 10
Sen@@ 10
Sho@@ 10
Smo@@ 10
South@@ 10
Stuart 10
Sun@@ 10
Sus@@ 10
Swahili 10
TBP 10
TEDx 10
Tab@@ 10
Tal@@ 10
Tulu 10
Turk 10
Twenty-@@ 10
US@@ 10
Victoria 10
Vienna 10
Water 10
Worldchanging 10
Yemeni 10
Yochai 10
Zoe 10
absorbing 10
absorbs 10
academia 10
acc@@ 10
accumulated 10
achi@@ 10
acked 10
acknowled@@ 10
activating 10
actu@@ 10
addictive 10
aded 10
adequate 10
admitted 10
adop@@ 10
advised 10
advisers 10
after@@ 10
aims 10
ales 10
alo@@ 10
amp@@ 10
amphi@@ 10
analogies 10
anchor 10
ane@@ 10
anecdote 10
anecdotes 10
ania 10
annihil@@ 10
anonymity 10
antic@@ 10
appealed 10
appetite 10
appointed 10
appointment 10
apse 10
aquarium 10
arch@@ 10
archives 10
arly 10
arousal 10
aroused 10
arthritis 10
artic@@ 10
artifact 10
artificially 10
asis 10
aspire 10
astic 10
astonishingly 10
athletic 10
atom@@ 10
aton 10
atrocities 10
attendance 10
atur@@ 10
augment 10
auto 10
autobiographical 10
autopsy 10
avatar 10
bald 10
bark 10
barren 10
batch 10
battlefield 10
beaver 10
beg 10
believers 10
benchmark 10
big-@@ 10
binding 10
biomedical 10
bir@@ 10
black-eyed 10
blanket 10
bloom 10
blooms 10
blues 10
blurry 10
bodied 10
bol@@ 10
bore 10
bouncing 10
bounds 10
bread@@ 10
brightest 10
buffer 10
bug@@ 10
built-in 10
burg 10
bushes 10
buttermilk 10
cab@@ 10
call@@ 10
cam 10
camping 10
canc@@ 10
carcinogens 10
cardi@@ 10
catalo@@ 10
catches 10
causal 10
celebrates 10
census 10
centigrade 10
chairman 10
child-@@ 10
childbirth 10
chy 10
circumstance 10
clarify 10
cleans 10
cliche 10
clicks 10
climber 10
climbs 10
close-up 10
coating 10
coccus 10
col@@ 10
coll@@ 10
collaborated 10
collectors 10
colon@@ 10
comb@@ 10
combines 10
commitments 10
compelled 10
complaint 10
compression 10
conceit 10
confrontation 10
conjunction 10
conquered 10
consum@@ 10
consumerism 10
consumes 10
conventions 10
conversion 10
corn@@ 10
cortisol 10
counsel 10
counseling 10
counterintuitive 10
crafting 10
cran@@ 10
crappy 10
crave 10
crews 10
crushing 10
crutches 10
crystals 10
cures 10
curiously 10
curl 10
curtain 10
curvature 10
cutter 10
cy 10
dads 10
darker 10
darn 10
deceive 10
decipher 10
dedicate 10
dele@@ 10
delegation 10
dentist 10
dentists 10
departments 10
depleted 10
deposited 10
deri@@ 10
descended 10
dia 10
dictatorship 10
dier 10
dige@@ 10
disappointment 10
disastrous 10
disciplinary 10
disclosure 10
dismiss 10
dissent 10
dissolve 10
dissolved 10
districts 10
diver 10
divorce 10
divorced 10
dle 10
documentation 10
domination 10
doom 10
doorstep 10
dor 10
doubts 10
draft 10
dressing 10
drilled 10
drop-@@ 10
droughts 10
dude 10
dwell 10
dyslexic 10
eck 10
econ@@ 10
economical 10
egos 10
eh 10
eight-year-old 10
ela 10
electrode 10
elegance 10
ello 10
embarked 10
employer 10
encies 10
encouragement 10
end-@@ 10
endo@@ 10
eness 10
enhanced 10
enjoyment 10
eries 10
ethnicity 10
evaluation 10
eve 10
ew 10
examining 10
exchanging 10
execute 10
exile 10
expenses 10
experimenter 10
exterior 10
extroverts 10
eye-@@ 10
eyebrows 10
ez 10
fabricate 10
facilitate 10
faked 10
festival 10
fications 10
fiddle 10
fidelity 10
fiel@@ 10
filmmaking 10
filtered 10
finest 10
fireflies 10
fireman 10
firsthand 10
five-year-old 10
fixes 10
flag@@ 10
flawed 10
flick 10
flooded 10
fluorescent 10
flush 10
foot-@@ 10
foragers 10
foraging 10
forged 10
formations 10
formerly 10
forwards 10
fostered 10
freshman 10
freshwater 10
fro@@ 10
fts 10
fucking 10
fuss 10
gal 10
gang@@ 10
gardening 10
geek 10
generalize 10
geology 10
gging 10
giants 10
gies 10
gin 10
glo@@ 10
goggles 10
goose 10
gossip 10
gourmet 10
gravel 10
guessing 10
guided 10
guides 10
guiding 10
guts 10
halt 10
handshake 10
harvested 10
haunted 10
haunting 10
head-tail-tail 10
heightened 10
hid 10
high-end 10
high@@ 10
homicide 10
homosexuality 10
hooks 10
hose 10
humanize 10
humanizing 10
hunter 10
hyp@@ 10
hype 10
hypothetical 10
icity 10
ickens 10
ide 10
identification 10
ight 10
ile@@ 10
iles 10
im 10
immuno@@ 10
ination 10
increments 10
indicator 10
indirect 10
individu@@ 10
inert 10
infants 10
influential 10
infrastructures 10
inhal@@ 10
initiatives 10
inj@@ 10
innovator 10
inocul@@ 10
integral 10
intentionally 10
interrupt 10
intersections 10
inversion 10
irrespective 10
istically 10
ith 10
jaws 10
jects 10
jeweled 10
ji@@ 10
junior 10
kick@@ 10
kid@@ 10
kidneys 10
kins 10
kit@@ 10
kites 10
km 10
knocks 10
knots 10
know@@ 10
labyrinth 10
landmines 10
lasers 10
latter 10
launches 10
laundering 10
league 10
leaked 10
leaning 10
lemon 10
lesions 10
less-@@ 10
liability 10
liberties 10
lifetimes 10
listener 10
liters 10
litigation 10
livelihood 10
logistics 10
lone 10
long-lived 10
loom 10
lords 10
lore 10
lou@@ 10
ly@@ 10
madly 10
manifestations 10
marketers 10
mast 10
masterpiece 10
may@@ 10
micro 10
microfinance 10
mid 10
middle-@@ 10
migrant 10
minded 10
miners 10
mini-@@ 10
miniaturization 10
mistrust 10
molded 10
mon 10
monitors 10
mop 10
mos 10
mot@@ 10
motor@@ 10
motto 10
multiverse 10
mutant 10
mystical 10
nal 10
nan@@ 10
napkin 10
neglect 10
neurologic 10
neuroscientists 10
newborn 10
nickname 10
nine-@@ 10
nish 10
non-violence 10
nonverbals 10
obsc@@ 10
observable 10
offs 10
ogen@@ 10
ome@@ 10
omes 10
oming 10
ominous 10
op-ed 10
openly 10
opium 10
organically 10
ort 10
ouse 10
ov 10
owl 10
p-@@ 10
packages 10
pains 10
paragraph 10
parasites 10
parrot 10
participatory 10
ped@@ 10
perfume 10
peril 10
permit 10
pes 10
pests 10
photographic 10
pictured 10
pillars 10
pissed 10
pit@@ 10
pixels 10
planners 10
playwright 10
plots 10
point@@ 10
poisonous 10
polar@@ 10
policeman 10
polish 10
pon@@ 10
porn 10
post-traumatic 10
potassium 10
precipit@@ 10
prevailing 10
prevented 10
printers 10
probabilities 10
progressing 10
proportional 10
prosperous 10
protocols 10
psycho-social 10
punished 10
purchased 10
pyramids 10
quake 10
queerer 10
ques 10
radioactive 10
raft 10
raining 10
reckless 10
recline 10
reconnect 10
recovering 10
recreational 10
recruited 10
red@@ 10
referring 10
reformers 10
regulated 10
regulating 10
reinforce 10
rel 10
relies 10
reluctant 10
remark 10
repetition 10
replica 10
requiring 10
rer 10
resemblance 10
reserved 10
resin 10
restoration 10
restriction 10
rests 10
resulting 10
retinal 10
reversal 10
revol@@ 10
ribs 10
riders 10
ried 10
rier 10
ripe 10
rogue 10
ropes 10
rot 10
rot@@ 10
row@@ 10
rubbish 10
ruling 10
runway 10
rup@@ 10
ry@@ 10
salute 10
sampling 10
sandstone 10
sati@@ 10
sav@@ 10
saves 10
scattered 10
scrap 10
scru@@ 10
sediments 10
sel 10
self-help 10
sely 10
ser 10
serotonin 10
servant 10
seven@@ 10
sew 10
short-@@ 10
sidewalks 10
sies 10
simulations 10
sing@@ 10
siveness 10
ske@@ 10
slammed 10
slim 10
slo@@ 10
smash 10
sni@@ 10
sniff 10
snuck 10
solitude 10
soluble 10
soprano 10
sorted 10
sourced 10
spawning 10
spectral 10
splitting 10
sponge 10
sprawl 10
stam@@ 10
stamps 10
stand@@ 10
statisticians 10
steep 10
stic 10
stimuli 10
stoc@@ 10
ston 10
stretches 10
subsequent 10
subsidize 10
succeeding 10
suitable 10
summaries 10
sunfish 10
supplements 10
suppression 10
surrender 10
suspects 10
suspicion 10
swa@@ 10
swamp 10
swings 10
symbiosis 10
systemic 10
t-based 10
t-shirt 10
take-@@ 10
tapestries 10
tational 10
teeny 10
tel 10
telecommunications 10
temporarily 10
tempted 10
tery 10
theaters 10
thering 10
thetic 10
thi@@ 10
thir@@ 10
thousand-@@ 10
three-digit 10
thrilling 10
thunder 10
tier 10
time@@ 10
tires 10
toe 10
tom@@ 10
tore 10
torial 10
tory 10
tosses 10
toughness 10
traders 10
trails 10
trainer 10
transfers 10
transformational 10
transi@@ 10
translations 10
translators 10
tray 10
treadmill 10
troll 10
troop 10
tum 10
turbines 10
twists 10
two-and-a-half 10
uk 10
ules 10
ump 10
unchanged 10
unconsciously 10
underlies 10
undermine 10
undermining 10
undersea 10
undertaking 10
untie 10
unveil 10
upbeat 10
updates 10
upgrade 10
upwards 10
ure@@ 10
usable 10
utopian 10
val 10
valu@@ 10
variants 10
veiled 10
vel 10
veteran 10
vian 10
vibrate 10
virgin 10
virulence 10
visits 10
vit@@ 10
vodka 10
wakes 10
warheads 10
warriors 10
wasteful 10
waving 10
weaker 10
weaving 10
webs 10
weed 10
whack 10
whereby 10
whipped 10
whistles 10
wholeness 10
wildly 10
wit 10
wn 10
wool 10
wrinkles 10
y-based 10
yang 10
yin 10
za 10
zi 10
% 9
1-@@ 9
1000 9
13th 9
14,000 9
16,000 9
1800 9
190@@ 9
195@@ 9
2D 9
3-D 9
3.5 9
4th 9
5-@@ 9
60-@@ 9
66 9
7.@@ 9
8,@@ 9
80-@@ 9
9,@@ 9
AMD 9
ASHA 9
Actually 9
Admin 9
Afghans 9
Airstream 9
Alisa 9
Alps 9
Annie 9
Arabs 9
Aravind 9
Architecture 9
Aviv 9
Aye 9
Bac@@ 9
Bach 9
Bern@@ 9
Better 9
Betty 9
Beverly 9
Bezos 9
Bin 9
Brunel 9
Budapest 9
CE 9
CR@@ 9
Capgras 9
Carmen 9
Carolyn 9
Cash 9
Cat@@ 9
Cesar 9
Change 9
Cin@@ 9
Cloud 9
Colum@@ 9
Commission 9
Copernican 9
Cornell 9
DA 9
DIY 9
DM 9
DVDs 9
Dana 9
Data 9
Deborah 9
Diamond 9
Director 9
Divergence 9
Doctor 9
Duolingo 9
EPA 9
EU 9
Edith 9
Ensler 9
Evil 9
Face 9
Fair 9
Fermi 9
Financial 9
Fowler 9
Freudian 9
Fur@@ 9
Galaxy 9
Game 9
Gan@@ 9
Garrett 9
Geneva 9
Giussani 9
Glass 9
Goldman 9
Gor@@ 9
Gran@@ 9
Grandma 9
Greenpeace 9
Guatemala 9
Guinness 9
Hamlet 9
Hampshire 9
Hasan 9
Hay@@ 9
Heather 9
Hei@@ 9
Hell 9
Highway 9
Houston 9
Hun@@ 9
Hunt 9
Hunter 9
Hurricane 9
Hyderabad 9
I.M. 9
Index 9
Indi@@ 9
Indo-European 9
Infinity 9
Initiative 9
Intelligence 9
Iraqis 9
Iron 9
JPL 9
Jew 9
Josh 9
Jurassic 9
K. 9
Kaluza 9
Kap@@ 9
Kas@@ 9
Kerry 9
Kleiber 9
Kofi 9
Kor@@ 9
Koreans 9
Kra@@ 9
Kuwait 9
LA 9
LC 9
Lat@@ 9
Lea@@ 9
Learning 9
Leviathan 9
Linus 9
Live 9
Lyndon 9
Ma 9
Madison 9
Main 9
Mama 9
Marco 9
Marduk 9
Marines 9
Market 9
Maryland 9
Mau@@ 9
Maya 9
Maybe 9
McQueen 9
Mellon 9
Men@@ 9
Meth@@ 9
Metropolitan 9
Mississippi 9
Morning 9
Morocco 9
Mus@@ 9
Music 9
Muti 9
NBC 9
NO@@ 9
NYU 9
Najmuddin 9
Never 9
Noam 9
Not@@ 9
Ohio 9
Orange 9
Origin 9
Orion 9
Out@@ 9
Ox@@ 9
Oz 9
PA@@ 9
Pakistanis 9
Pas@@ 9
Patrick 9
Pauling 9
Pearl 9
Penn 9
Persian 9
Ph.D 9
Phys@@ 9
Pierre 9
Pine 9
Planet 9
Play@@ 9
Pogue 9
Pop@@ 9
Port 9
Post 9
Power 9
Prakash 9
Pranav 9
Prego 9
Prin@@ 9
Prozac 9
Py@@ 9
R. 9
RCA 9
Ralph 9
Report 9
Res@@ 9
Rich@@ 9
Rockwell 9
Rossy 9
Rufus 9
Rumi 9
Ryan 9
S-@@ 9
Sanghamitra 9
Sea@@ 9
Serious 9
Sev@@ 9
Sex 9
She@@ 9
Shekhar 9
Sherman 9
Shermer 9
Shirky 9
Simpson 9
Sinclair 9
Six 9
Small 9
Species 9
Spiderman 9
Sugata 9
Susie 9
Sys 9
T.B. 9
TB 9
TK 9
Tahrir 9
Take 9
Taylor 9
Tell 9
Terry 9
Tiger 9
Twit@@ 9
Tyler 9
UN 9
Us 9
Vir@@ 9
Volvo 9
Wa@@ 9
Wales 9
Warcraft 9
Web@@ 9
Wei@@ 9
Wh@@ 9
Which 9
Whitney 9
Without 9
Woods 9
Ze@@ 9
abdomen 9
aboard 9
abyss 9
aci@@ 9
acies 9
acity 9
adap@@ 9
adaptability 9
adaptable 9
addict 9
administrator 9
admiration 9
admission 9
advent 9
adver@@ 9
advertisers 9
advising 9
agen@@ 9
agreements 9
agu@@ 9
aiming 9
ain@@ 9
aka 9
alien@@ 9
aling 9
alliance 9
allu@@ 9
altering 9
amber 9
amidst 9
analy@@ 9
anarchy 9
ank@@ 9
annoyed 9
anomaly 9
anthrax 9
anticipating 9
antiretroviral 9
aper 9
apex 9
appreciating 9
archival 9
arctic 9
arity 9
arrogant 9
arrowheads 9
artworks 9
ary-@@ 9
asp@@ 9
aspir@@ 9
asse@@ 9
asses 9
assess 9
astonished 9
asts 9
atively 9
attributed 9
atz 9
aul@@ 9
author@@ 9
avoided 9
avoiding 9
back-@@ 9
badge 9
bag@@ 9
bailout 9
ballet 9
banal 9
barcode 9
barefoot 9
bathed 9
bathing 9
bedtime 9
belonged 9
bia 9
biblical 9
bid 9
big@@ 9
billboards 9
billion-dollar 9
bio 9
bites 9
bitten 9
blackboard 9
blending 9
blinded 9
blindfold 9
blinking 9
blur 9
bombar@@ 9
bon 9
borne 9
brake 9
brass 9
bre@@ 9
bribery 9
briquettes 9
brutality 9
buds 9
bullets 9
butterfly 9
buzz 9
byproduct 9
cabinets 9
cafeteria 9
candles 9
cape 9
carpenter 9
cassette 9
casts 9
causality 9
ce-@@ 9
celebrities 9
cellulose 9
censored 9
champions 9
charismatic 9
chee@@ 9
chefs 9
chemically 9
chimneys 9
chocolates 9
cholesterol 9
churches 9
circus 9
cites 9
city-@@ 9
classification 9
classify 9
cleverly 9
climat@@ 9
clou@@ 9
coc@@ 9
coding 9
coil 9
collagen 9
collisions 9
colonize 9
color-@@ 9
com 9
commercially 9
communicable 9
communicates 9
competitions 9
compiled 9
compiler 9
compliance 9
complication 9
computations 9
computer-generated 9
con 9
confession 9
connective 9
conquer 9
considerable 9
constitu@@ 9
constituency 9
constitutes 9
constructions 9
containing 9
contempt 9
continental 9
continual 9
conveniently 9
conviction 9
coronary 9
correction 9
correspon@@ 9
cortical 9
costing 9
counterparts 9
coup 9
courts 9
cowboy 9
crackers 9
crammed 9
craving 9
crease 9
creatively 9
credibility 9
cries 9
crocodiles 9
crowd-@@ 9
cubicle 9
currencies 9
curse 9
cursor 9
cus 9
customization 9
cyber@@ 9
dairy 9
daring 9
dataset 9
daytime 9
dder 9
ddled 9
dealer 9
deathbed 9
decay 9
deceased 9
deceptive 9
deci@@ 9
decisive 9
declare 9
decreasing 9
deep-@@ 9
democratization 9
dents 9
depletion 9
deposit 9
descendants 9
desired 9
deterior@@ 9
devised 9
devoid 9
dging 9
dictators 9
dire 9
dirigible 9
disadvantage 9
disem@@ 9
disp@@ 9
disparity 9
disposable 9
distortion 9
distractions 9
dless 9
doctrine 9
dog@@ 9
dom@@ 9
doodle 9
door@@ 9
doubles 9
dow 9
downstream 9
dragon 9
drone 9
ducks 9
eable 9
early-@@ 9
ech@@ 9
ecstatic 9
efficiencies 9
eighty 9
ells 9
ements 9
encoder 9
encrypted 9
endeavors 9
energized 9
enforcement 9
enhances 9
enhancing 9
enlist 9
eps 9
eras 9
err@@ 9
esh 9
esoteric 9
esses 9
estimating 9
eternity 9
eureka 9
ever@@ 9
exaggeration 9
excavate 9
exhibits 9
exporting 9
eye@@ 9
fabricated 9
faded 9
fai@@ 9
faithful 9
fallout 9
fast-@@ 9
feasibility 9
fences 9
fertile 9
ffing 9
fierce 9
fif@@ 9
fil@@ 9
filing 9
financed 9
fisherman 9
fission 9
flips 9
floats 9
flutes 9
footsteps 9
for-@@ 9
forgery 9
fortunes 9
frac@@ 9
fracture 9
fridge 9
fs 9
fun@@ 9
gadget 9
gam@@ 9
garden@@ 9
garment 9
gee 9
geeks 9
geneticist 9
genic 9
genital 9
gentler 9
geo-engineering 9
geologists 9
ghts 9
gir@@ 9
gles 9
gment 9
good-looking 9
governmental 9
gram@@ 9
grammar 9
great-great-@@ 9
greedy 9
greeting 9
grilled 9
gues 9
guessed 9
guesses 9
guests 9
gul@@ 9
h-@@ 9
hail 9
hal 9
hallucination 9
handouts 9
hangers 9
hard-to-@@ 9
harming 9
haul 9
head-@@ 9
heap 9
heartbreaking 9
hectares 9
hello 9
high-performing 9
highlands 9
highlighted 9
hind 9
hints 9
hives 9
hl 9
homage 9
hominid 9
hominids 9
hoo@@ 9
hopped 9
horse@@ 9
hospitality 9
http 9
human@@ 9
humanities 9
hump 9
hunch 9
hunter-gatherer 9
hurdy-gurdy 9
hypertension 9
ic-@@ 9
ican 9
ich@@ 9
icians 9
idi@@ 9
ignoring 9
iler 9
ill-@@ 9
iller 9
illion 9
illuminate 9
illustrator 9
immunization 9
impacted 9
impatient 9
implicit 9
impostor 9
impressions 9
inconsistent 9
indifferent 9
industri@@ 9
infused 9
inhabited 9
innate 9
inserted 9
insides 9
insky 9
inst@@ 9
institu@@ 9
insulation 9
interacted 9
interactivity 9
intermediate 9
intractable 9
introverted 9
investigations 9
ira 9
ishing 9
itary 9
janitors 9
jo 9
joins 9
joking 9
joyful 9
judged 9
juggle 9
juggler 9
ka@@ 9
kicking 9
kidnapped 9
kil@@ 9
kittens 9
kman 9
ku@@ 9
lamps 9
lander 9
lateral 9
law@@ 9
legged 9
lend 9
lengths 9
lever 9
lian 9
liars 9
liberate 9
librarians 9
licenses 9
life-changing 9
lit@@ 9
lized 9
lizing 9
lob@@ 9
loosely 9
losers 9
lowing 9
lum@@ 9
lumber 9
lun@@ 9
lust 9
lyrics 9
macho 9
macro 9
mailing 9
mainland 9
malleable 9
manageable 9
manipul@@ 9
manuals 9
marched 9
master@@ 9
mastered 9
materi@@ 9
maximize 9
mediated 9
melodies 9
memetics 9
metrics 9
mic@@ 9
migrated 9
milli@@ 9
mills 9
minal 9
mismatch 9
mistaken 9
mockingbird 9
modalities 9
moder@@ 9
modernist 9
modifying 9
mol@@ 9
monastery 9
mono@@ 9
mortal 9
mosses 9
motivating 9
mou@@ 9
mounting 9
muffin 9
mul@@ 9
multicultural 9
multimedia 9
mun@@ 9
mystic 9
nailed 9
nap 9
nation@@ 9
nationalism 9
nau@@ 9
neglected 9
nery 9
net@@ 9
nic@@ 9
night@@ 9
nominate 9
non 9
non-zero-sumness 9
nor@@ 9
not-@@ 9
notable 9
nutritious 9
nylon 9
objec@@ 9
occasions 9
occupations 9
oddly 9
odor@@ 9
oes 9
of@@ 9
oftentimes 9
oily 9
old-growth 9
ologically 9
omatic 9
ome 9
one-way 9
oneness 9
ont 9
open-ended 9
oppressed 9
opt 9
optimist 9
orangutans 9
orphaned 9
orthopedic 9
oscill@@ 9
ota 9
other@@ 9
oti@@ 9
our@@ 9
out-@@ 9
outbreaks 9
overlapping 9
overview 9
overweight 9
owning 9
paper@@ 9
paraphrase 9
pasted 9
paw 9
pay@@ 9
paycheck 9
pec@@ 9
pedi@@ 9
pediatrician 9
pens 9
pension 9
percentile 9
perfec@@ 9
peripheral 9
periphery 9
permits 9
persistence 9
persists 9
personalize 9
persuaded 9
physi@@ 9
pig@@ 9
pigeons 9
pillar 9
pitched 9
plat@@ 9
plugging 9
poachers 9
pollination 9
polling 9
polluting 9
polymers 9
porous 9
port@@ 9
posing 9
positives 9
pots 9
pottery 9
ppy 9
preach 9
preceding 9
prejudice 9
premature 9
pres@@ 9
prescriptions 9
presently 9
pret@@ 9
prevalent 9
priests 9
pro 9
proceeded 9
progressively 9
prop 9
prophets 9
proportions 9
prosthesis 9
proton 9
proxy 9
pun 9
pups 9
puzzled 9
py@@ 9
quad@@ 9
quadruple 9
qualify 9
quarter-@@ 9
queue 9
rabbits 9
rails 9
railway 9
rain@@ 9
ramp 9
ratic 9
ration@@ 9
ratios 9
rebels 9
reboot 9
rebreather 9
reception 9
recharge 9
reciprocal 9
reconstruction 9
recreating 9
recruit 9
recurrent 9
redundancy 9
ree@@ 9
refine 9
refrigeration 9
refrigerator 9
regeneration 9
regulatory 9
rehab 9
relaxation 9
remorse 9
remoteness 9
removal 9
renaissance 9
renamed 9
renov@@ 9
rep@@ 9
replicated 9
reservations 9
responds 9
reverse-@@ 9
rine 9
risked 9
rivals 9
rocky 9
rom@@ 9
ron 9
rounds 9
rubble 9
rudimentary 9
sacrifices 9
sail@@ 9
sailed 9
sampled 9
san@@ 9
sar 9
scaven@@ 9
schemes 9
schizophrenic 9
sculpting 9
scum 9
seamlessly 9
seated 9
segregated 9
self-assemble 9
self-assembling 9
semester 9
sensibility 9
separates 9
shack 9
shalt 9
shattered 9
shattering 9
shelters 9
shines 9
shortest 9
shoved 9
sim@@ 9
simplified 9
sinister 9
sion@@ 9
sioned 9
sioning 9
sities 9
skeptic 9
skied 9
skyrocketing 9
sleeve 9
slippery 9
smelling 9
smen 9
sociologists 9
socks 9
soda 9
sofa 9
solar-powered 9
sonic 9
sorting 9
soundtrack 9
spam 9
specialty 9
spectacle 9
spherical 9
spongy 9
spra@@ 9
springs 9
spun 9
square-@@ 9
squeezing 9
squirt 9
stacked 9
staple 9
stealth 9
steroids 9
stewards 9
stockpile 9
storytellers 9
straigh@@ 9
stresses 9
striving 9
stry 9
subsistence 9
substances 9
substrate 9
summarized 9
sunset 9
sunshine 9
superheroes 9
supervi@@ 9
suppliers 9
supplying 9
surf 9
sweater 9
swi@@ 9
swims 9
sword 9
swore 9
symbiotic 9
synagogue 9
synchronized 9
synthesizer 9
tabletop 9
tablets 9
tactics 9
tactile 9
tain@@ 9
tains 9
take-home 9
tapestry 9
tapped 9
taxpayer 9
teammates 9
tease 9
teen@@ 9
teens 9
tely 9
tender 9
tensions 9
terabytes 9
termites 9
testable 9
theoretically 9
thereafter 9
thickness 9
thoroughly 9
threatens 9
thumb@@ 9
timely 9
tiniest 9
tire 9
tis 9
tless 9
tobacco 9
tomatoes 9
torn 9
tos 9
tou@@ 9
transplantation 9
transporting 9
tric 9
tus 9
tweak 9
tweet 9
twenty-@@ 9
two-way 9
tz 9
ub@@ 9
ula 9
ularity 9
ulated 9
ulates 9
un 9
uncanny 9
undergo 9
unfamiliar 9
ung@@ 9
unicorn 9
unleashed 9
unnecessary 9
unpleasant 9
untapped 9
uous 9
up-@@ 9
ural 9
urban@@ 9
urbanism 9
ure-@@ 9
ut 9
utero 9
utilize 9
ution 9
vable 9
vacu@@ 9
valleys 9
vapor 9
vas@@ 9
veg 9
vent@@ 9
venue 9
venues 9
veri@@ 9
vets 9
vig@@ 9
virgins 9
vis-a-vis 9
vity 9
vocational 9
waiter 9
walker 9
wasps 9
water-@@ 9
wavelengths 9
weakest 9
weeping 9
well-intentioned 9
whistled 9
window@@ 9
wingsuit 9
wiping 9
woo 9
wood@@ 9
workplaces 9
wrapping 9
wraps 9
www.@@ 9
ya@@ 9
yan 9
yoga 9
ype 9
( 8
-A-@@ 8
-hour 8
-in 8
.C. 8
.D. 8
0-pound 8
0.1 8
10-year-old 8
11-year-old 8
13.7 8
14-year-old 8
1500 8
18,000 8
1928 8
1953 8
1954 8
21@@ 8
24,000 8
240 8
25-@@ 8
380 8
4.6 8
5-year-old 8
60@@ 8
65,000 8
69 8
7-@@ 8
700,000 8
75,000 8
7th 8
8.@@ 8
99.9 8
AID@@ 8
AT@@ 8
Airport 8
Alberto 8
Allah 8
Alley 8
Alliance 8
AlloSphere 8
Annan 8
Anne 8
Announcer 8
Any@@ 8
Aqu@@ 8
Argent@@ 8
Asperger 8
Atala 8
Augustine 8
Ay@@ 8
B-@@ 8
BMI 8
BPA 8
Bahamas 8
Barcelona 8
Bas@@ 8
Battle 8
Bedouin 8
Belgium 8
Bla@@ 8
Block 8
Boltzmann 8
Bonobos 8
Boys 8
Britannica 8
Brits 8
Brooks 8
Byrne 8
CD@@ 8
Cab@@ 8
Caroline 8
Catherine 8
Chad 8
Chaz 8
Choir 8
Cleveland 8
Coach 8
Compassion 8
Congolese 8
Crick 8
Crow@@ 8
D-@@ 8
DD 8
Days 8
Democrat 8
Deng 8
Denisovans 8
Des@@ 8
Devil 8
District 8
Domin@@ 8
Dominican 8
Doyle 8
Dravidian 8
Drori 8
Durga 8
Dut@@ 8
E.U. 8
Earth@@ 8
Eco@@ 8
Eigh@@ 8
Eisenhower 8
Elec@@ 8
Encyclopedia 8
Enron 8
Environmental 8
Erik 8
Estonia 8
Euro@@ 8
Fall 8
Farm 8
FedEx 8
Feel 8
Festival 8
Finance 8
Fortune 8
Fran@@ 8
Frankie 8
Fraser 8
Friends 8
G8 8
GM 8
Gabriel 8
Gau@@ 8
Generation 8
Genomics 8
Geoffrey 8
Germans 8
Gladwell 8
Gogh 8
Goodall 8
Gr@@ 8
Grant 8
Guide 8
Gupta 8
HAL 8
Hat 8
Hel@@ 8
Helvetica 8
Heroes 8
Hil@@ 8
Hillary 8
Hills 8
Holiness 8
Holland 8
Hotel 8
Hou@@ 8
Hulk 8
I.Q. 8
IP@@ 8
IPCC 8
Il 8
Innovation 8
Iowa 8
Ir@@ 8
Iranians 8
JM 8
Jas@@ 8
Jenny 8
Joy 8
Jr 8
Julius 8
Jurvetson 8
Justin 8
Kaaba 8
Kat@@ 8
Ken@@ 8
Know 8
Laramie 8
Last 8
Laura 8
Len@@ 8
Leonard 8
Les@@ 8
Lev@@ 8
Levine 8
Limb 8
Lis@@ 8
Liz 8
Lock@@ 8
Luc@@ 8
Ly@@ 8
MP 8
MR@@ 8
MT@@ 8
Maine 8
Management 8
Mandelbrot 8
Maps 8
Marilyn 8
Mauritius 8
Mechanical 8
Milan 8
Mir@@ 8
Miz@@ 8
Model 8
Mol@@ 8
Morgan 8
Mouse 8
Mozambique 8
Mullis 8
NFL 8
Nab@@ 8
Nad@@ 8
Nic@@ 8
Niger 8
Nin@@ 8
Nina 8
Nino 8
Number 8
O.@@ 8
O2 8
Oakland 8
Odyssey 8
Okin@@ 8
Orkut 8
Ornish 8
Ottawa 8
Out 8
PD@@ 8
Palm 8
Patricia 8
Patriot 8
Pete 8
Philips 8
Phillips 8
Piero 8
Plat@@ 8
Play 8
Pollock 8
Portuguese 8
Pot@@ 8
Preston 8
Principle 8
Protection 8
Protestant 8
Queens 8
RI@@ 8
Rain@@ 8
Raleigh 8
Rec@@ 8
Records 8
Ren@@ 8
Ric@@ 8
Richards 8
Ritchie 8
Robo@@ 8
Robotics 8
Rock@@ 8
Rotterdam 8
Rus@@ 8
SP@@ 8
ST 8
Sacramento 8
Schul@@ 8
Sean 8
Selam 8
Senator 8
Shannon 8
Sheila 8
Sher@@ 8
Shimon 8
Shreddies 8
Sir@@ 8
Six@@ 8
Snow 8
Some 8
Sop@@ 8
Stein@@ 8
Stra@@ 8
Study 8
Sufi 8
T.V. 8
TM 8
Tahltan 8
Tai@@ 8
Tamil 8
Tech 8
Tel 8
Ten@@ 8
Thatcher 8
Theatre 8
Thir@@ 8
Tibetan 8
Til@@ 8
Timothy 8
Tit@@ 8
Todd 8
Tolstoy 8
Torah 8
Towers 8
Tree 8
Twain 8
UC 8
UE 8
USB 8
Vancouver 8
Vas@@ 8
Vice 8
Vie@@ 8
Who@@ 8
Wii 8
Will 8
Wo@@ 8
Wolfe 8
Wonder 8
Woo@@ 8
Wu@@ 8
Wurman 8
Yahoo 8
Yugoslavia 8
Zurich 8
abi@@ 8
absent 8
abusing 8
acceler@@ 8
accomplishment 8
accounted 8
achievable 8
acidification 8
acker 8
acking 8
acuity 8
ad-@@ 8
adaptations 8
adhesive 8
adi@@ 8
ading 8
admi@@ 8
administered 8
admired 8
advancement 8
advertisement 8
ae 8
affordability 8
agonizing 8
air-@@ 8
alignment 8
all-out 8
allowance 8
altar 8
ambient 8
ami 8
amne@@ 8
amplified 8
an-American 8
analyses 8
analyst 8
ancestral 8
anda 8
anders 8
anos 8
antelope 8
antibody 8
any@@ 8
anyhow 8
anyways 8
apocalypse 8
appar@@ 8
applaud 8
applicable 8
apprentice 8
archetype 8
arenas 8
arium 8
armies 8
assem@@ 8
assisted 8
associ@@ 8
assurance 8
ate-@@ 8
atheism 8
atmospheres 8
audacious 8
audacity 8
autumn 8
baba 8
back-up 8
bait 8
banging 8
barbecue 8
bate 8
battered 8
bbing 8
bble@@ 8
beads 8
bel 8
bells 8
berries 8
bidding 8
bil@@ 8
bingo 8
biodegradable 8
biofuels 8
biomaterial 8
birth@@ 8
black-and-white 8
blamed 8
bleed 8
blinds 8
bloodstream 8
blow@@ 8
bombed 8
bomber 8
bombings 8
bonding 8
boom@@ 8
bothers 8
bottleneck 8
bou@@ 8
bow@@ 8
brainstorming 8
brainwaves 8
brea@@ 8
breadth 8
breaker 8
breeze 8
brighter 8
brow@@ 8
browsing 8
bullshit 8
bully 8
bum@@ 8
bumblebees 8
bundle 8
bunker 8
businessman 8
bycatch 8
cada@@ 8
calendars 8
cams 8
canals 8
canary 8
canning 8
cans 8
capillary 8
capitalists 8
capitalized 8
captivity 8
car-@@ 8
cargo 8
carriage 8
carts 8
cassava 8
castle 8
casually 8
categor@@ 8
cel 8
celebratory 8
cess 8
channeled 8
chanting 8
chased 8
chassis 8
check@@ 8
chemo 8
cherish 8
chooses 8
chop@@ 8
chords 8
chronically 8
cia 8
circled 8
circum@@ 8
cited 8
civilization-state 8
cleared 8
clearer 8
cles 8
cling 8
clinicians 8
clocks 8
clogged 8
clos@@ 8
clu@@ 8
colder 8
coldest 8
collateral 8
combustion 8
commerci@@ 8
common@@ 8
comparative 8
complaints 8
composing 8
concentrating 8
conductive 8
configurations 8
confirmation 8
connectomes 8
constellations 8
consultant 8
consulting 8
contagion 8
contested 8
contextual 8
contradictions 8
controversies 8
conven@@ 8
coo@@ 8
cookbook 8
corridor 8
corrosive 8
cosmetic 8
cost-benefit 8
courtship 8
crane 8
craz@@ 8
crisp 8
cross-section 8
crown 8
cruci@@ 8
crucially 8
crummy 8
cryp@@ 8
cured 8
curtains 8
cushions 8
cyborg 8
cycling 8
dable 8
dan 8
dant 8
darkest 8
debates 8
debating 8
debut 8
decreases 8
defect 8
defects 8
defensive 8
deleted 8
demise 8
depicted 8
depositing 8
deserved 8
destroys 8
detects 8
diagnosing 8
dialed 8
diarrheal 8
dict 8
dig@@ 8
digs 8
dilute 8
dim 8
dir@@ 8
discrimination 8
dismissed 8
dissonance 8
distort 8
disturb 8
dium 8
divergent 8
divi@@ 8
doable 8
doc 8
dock 8
dol@@ 8
dolls 8
domains 8
domesticated 8
domin@@ 8
donating 8
dot@@ 8
downside 8
downward 8
drain 8
drowned 8
drying 8
dull 8
ech 8
eclipse 8
ective 8
eding 8
editorial 8
electoral 8
electro@@ 8
elegantly 8
eli@@ 8
elic@@ 8
ell-@@ 8
elli@@ 8
ellular 8
elu@@ 8
embassy 8
ement 8
empirical 8
enching 8
endgame 8
energy-efficient 8
enhancement 8
entertain 8
enz@@ 8
epidemiology 8
epileptic 8
epoxy 8
erased 8
erian 8
ero 8
escal@@ 8
esp@@ 8
ette 8
evoke 8
examination 8
exchanges 8
exclude 8
executed 8
explosives 8
exten@@ 8
extraterrestrial 8
eye-opening 8
fare 8
farthest 8
favorable 8
feared 8
feat 8
feather 8
fertilizers 8
fiddling 8
fiery 8
fig@@ 8
fighter 8
filthy 8
finder 8
fir@@ 8
fireworks 8
fists 8
five-year 8
fix@@ 8
flame 8
flares 8
flavors 8
flaws 8
flexi@@ 8
flic@@ 8
flocks 8
floppy 8
fluctuation 8
fluke 8
fond 8
foreman 8
foreplay 8
forger 8
formulate 8
fort 8
forwar@@ 8
fossilized 8
fra@@ 8
fracking 8
fran@@ 8
freshmen 8
fri@@ 8
ft. 8
fted 8
func@@ 8
fused 8
gamble 8
gamers 8
gar 8
gauge 8
gens 8
gent 8
geologic 8
ger-@@ 8
gery 8
ght 8
ght@@ 8
giga@@ 8
gill 8
giraffe 8
girlfriends 8
glacial 8
glands 8
glori@@ 8
glove 8
gly 8
gn@@ 8
goofy 8
gorilla 8
government-@@ 8
gracefully 8
gradients 8
granddaughter 8
grandma 8
grap@@ 8
graphy 8
grappling 8
grinding 8
gum 8
gymnosophist 8
gyre 8
handwriting 8
harmless 8
harnessed 8
healthiest 8
hectare 8
heed 8
hem@@ 8
hierarchical 8
high-definition 8
highest-@@ 8
hippocampus 8
hit@@ 8
ho 8
holidays 8
horrified 8
hospit@@ 8
hottest 8
humanistic 8
humanly 8
humiliation 8
hurting 8
hydrant 8
hygiene 8
hypothe@@ 8
i.e. 8
iPhones 8
ice-@@ 8
icial 8
icist 8
icky 8
ided 8
iest 8
ig 8
il-@@ 8
ility 8
illing 8
illiteracy 8
imitating 8
immersive 8
immigration 8
immunized 8
implementation 8
implementing 8
implicated 8
imported 8
imprisoned 8
impro@@ 8
in-the-@@ 8
inadvertently 8
incentivize 8
inci@@ 8
incisions 8
inclusion 8
inference 8
initiate 8
inland 8
inno@@ 8
ins@@ 8
insecurity 8
insignificant 8
inspec@@ 8
inspires 8
installing 8
instruc@@ 8
instrumental 8
instrumentation 8
intellectuals 8
interactively 8
intern 8
interpreting 8
inters 8
interstellar 8
intra@@ 8
investor 8
invitations 8
invo@@ 8
irs 8
isolate 8
ison 8
issuing 8
ition 8
itors 8
ity-@@ 8
iza 8
jer@@ 8
jerk 8
joy@@ 8
junkies 8
juveniles 8
kar@@ 8
ker@@ 8
kidnapping 8
kilo@@ 8
kinetic 8
knob 8
knocking 8
knowledgeable 8
lac@@ 8
langu@@ 8
lap@@ 8
lava 8
leaf@@ 8
leaking 8
ledge 8
lef@@ 8
leton 8
level@@ 8
leveraged 8
liar 8
liberating 8
lig@@ 8
line@@ 8
lineage 8
lingu@@ 8
listing 8
loneliness 8
long-range 8
low-fat 8
low-power 8
lower-@@ 8
lowers 8
loyal 8
macro-@@ 8
mafia 8
magicians 8
malls 8
mammograms 8
mandatory 8
mangroves 8
manifesto 8
marble 8
marginalized 8
marin@@ 8
marke@@ 8
marking 8
materialistic 8
max 8
medal 8
medic@@ 8
meditate 8
megabyte 8
mentioning 8
menus 8
merchants 8
mercy 8
merged 8
merry 8
mes 8
mes@@ 8
metallic 8
metaphorically 8
microorganisms 8
microprocessors 8
micros@@ 8
mid-ocean 8
midden 8
mile-@@ 8
mill@@ 8
million-dollar 8
min 8
mind-boggling 8
mindful 8
mini@@ 8
minim@@ 8
miserably 8
missionary 8
mist 8
mista@@ 8
mobs 8
modernity 8
monitored 8
month-old 8
moron 8
morphology 8
mos@@ 8
mosquitos 8
motivators 8
motives 8
mound 8
movable 8
murderer 8
mutilation 8
nanometer 8
nanoparticles 8
navigating 8
neck@@ 8
negatively 8
negotiated 8
nerds 8
nesting 8
neurotransmitters 8
neutrality 8
neutrino 8
niches 8
nine-year-old 8
nomadic 8
nonprofits 8
northeastern 8
nos@@ 8
novelist 8
nucleic 8
oars 8
objectives 8
occasional 8
occurrence 8
ode 8
oids 8
olds 8
oll 8
olla 8
omed 8
ometer 8
ona@@ 8
one-eyed 8
one-hour 8
ood 8
oon 8
open-heart 8
oran@@ 8
oranges 8
orbits 8
orchids 8
ordering 8
organizers 8
oria 8
originate 8
ornith@@ 8
orphanages 8
oscopy 8
ost 8
outlets 8
outliers 8
outskirts 8
overload 8
overlooked 8
oxygen@@ 8
oy@@ 8
paddy 8
paintbrush 8
paleontologist 8
parade 8
paren@@ 8
patches 8
pathogen 8
patriotic 8
pavement 8
payback 8
pedestrians 8
pee 8
peer-reviewed 8
penalty 8
perfected 8
perimeter 8
persuasive 8
pessimistic 8
petroleum 8
phal@@ 8
pharmac@@ 8
pharmacy 8
photoreceptors 8
photosyn@@ 8
piled 8
pinch 8
pinpoint 8
pioneered 8
pirates 8
pis@@ 8
pitching 8
plantation 8
plo@@ 8
plumes 8
podium 8
pointer 8
pollinate 8
porch 8
portrayed 8
postcard 8
power@@ 8
prairie 8
preconceptions 8
precursor 8
predictability 8
prescribe 8
present-@@ 8
present-day 8
pressure-sensitive 8
presume 8
priced 8
princess 8
privately 8
privatization 8
propeller 8
propensity 8
prophecy 8
prostheses 8
prote@@ 8
proudly 8
provider 8
provinces 8
provision 8
psychiatric 8
psychotic 8
pumped 8
punched 8
punchline 8
purity 8
quarries 8
questionnaire 8
quorum 8
rab@@ 8
rabbis 8
racy 8
radiologist 8
rainy 8
rampant 8
ranked 8
rationale 8
ravaged 8
rebuilt 8
recess 8
recipients 8
recklessness 8
reconcile 8
redefining 8
refrigerators 8
regards 8
regi@@ 8
rehearse 8
reinforces 8
reinvented 8
rejection 8
rejuvenation 8
remake 8
remedy 8
reminiscent 8
renowned 8
repetitive 8
resembles 8
reservation 8
reset 8
respectable 8
resting 8
resurrection 8
retaining 8
retreated 8
retreating 8
retrofitting 8
retrospect 8
retrospective 8
rever@@ 8
ric 8
ridden 8
ripping 8
risking 8
rite 8
ro 8
rodeo 8
roller 8
rollercoaster 8
rotting 8
rugged 8
run@@ 8
runaway 8
rusty 8
ruthless 8
sage 8
sary 8
scares 8
scent 8
sch 8
scooter 8
scraped 8
screen@@ 8
scrotum 8
sculptural 8
seas@@ 8
sec 8
seize 8
seizures 8
seldom 8
sem@@ 8
sentient 8
sentiment 8
sentiments 8
setup 8
sewing 8
shard 8
sharper 8
shel@@ 8
shman 8
shocks 8
shorthand 8
shuttle 8
sick@@ 8
sickness 8
singular 8
sk 8
ska 8
skeptics 8
skinny 8
skyscrapers 8
sleep@@ 8
sli@@ 8
slipped 8
sliver 8
sludge 8
sma@@ 8
snack 8
sno@@ 8
soak 8
socialism 8
sociology 8
som@@ 8
sorrow 8
sovereign 8
sovereignty 8
spears 8
specifications 8
spectroscopy 8
speculate 8
speculation 8
spelling 8
spoil 8
spotlight 8
spotted 8
squash 8
squea@@ 8
squirrel 8
ssed 8
staged 8
stark 8
startup 8
starved 8
statistician 8
sticker 8
stitch 8
stock@@ 8
store@@ 8
straps 8
straws 8
strengthen 8
stretching 8
stries 8
stripes 8
struggles 8
styling 8
suc@@ 8
succes@@ 8
sul@@ 8
sunk 8
sunscreen 8
superficial 8
superintendent 8
supernatural 8
supplement 8
supplied 8
supreme 8
surreal 8
surveyed 8
sweat@@ 8
swee@@ 8
swirl 8
sympathetic 8
synchronize 8
tab@@ 8
tablecloth 8
tained 8
tallest 8
tap@@ 8
tas@@ 8
technologically 8
tedious 8
tem@@ 8
temes 8
templates 8
tempo 8
tenberg 8
tendencies 8
tenths 8
testes 8
testi@@ 8
tha 8
thankful 8
ther-@@ 8
thermo-bimetal 8
thinker 8
thirty 8
thought-controlled 8
thousandth 8
tial 8
tian 8
tible 8
tically-@@ 8
tices 8
tidy 8
tionary 8
tionist 8
tish 8
tize 8
tokens 8
tool@@ 8
top-@@ 8
topography 8
tornado 8
towels 8
tra 8
tracing 8
tragically 8
transaction 8
transp@@ 8
transplanting 8
treas@@ 8
treatable 8
trophy 8
trustworthy 8
truthful 8
tt 8
tumbling 8
tunes 8
tuous 8
turbulence 8
turbulent 8
turnover 8
ty-five 8
tyranny 8
ual 8
uation 8
ulator 8
una 8
unborn 8
unc@@ 8
underestimated 8
undergoing 8
undergraduates 8
underpin@@ 8
underutilized 8
unfinished 8
unfolds 8
unhappiness 8
unic@@ 8
uninhabited 8
unions 8
uniqueness 8
universality 8
universally 8
unleash 8
unnatural 8
unt 8
unwanted 8
uplifting 8
uploading 8
upper-@@ 8
upsetting 8
upside-down 8
ust 8
vac@@ 8
vaccinate 8
vaccinated 8
vain 8
vali@@ 8
valuing 8
vanilla 8
vanished 8
vantage 8
vapor@@ 8
vastness 8
vendor 8
vens 8
vest 8
viability 8
videotape 8
viewpoint 8
vings 8
violated 8
vir@@ 8
virulent 8
volatile 8
vow 8
wacky 8
warmed 8
warps 8
wastewater 8
wea@@ 8
weddings 8
weights 8
welcomed 8
whi@@ 8
wholesale 8
wholly 8
wid@@ 8
winding 8
windshield 8
wisely 8
worthless 8
wrestle 8
yep 8
yum 8
zooming 8
é@@ 8
&apos;s-eye 7
-minded 7
0,000 7
0.2 7
000@@ 7
06 7
1,300 7
1.8 7
102 7
11,000 7
120,000 7
13-@@ 7
175 7
18-@@ 7
1890 7
190 7
1912 7
1930 7
1932 7
1939 7
1958 7
1959 7
1964 7
1971 7
2025 7
24-@@ 7
3,500 7
3.2 7
30-day 7
4,500 7
4,@@ 7
5,@@ 7
600,000 7
61 7
650 7
67 7
80@@ 7
85,000 7
AC 7
AK-47 7
ARES 7
AT 7
ATM 7
Action 7
Administration 7
Advanced 7
Aff@@ 7
Ahmed 7
Ahmedabad 7
Alberta 7
Album 7
Alexis 7
Ali@@ 7
Altos 7
Ambassador 7
Americ@@ 7
Angela 7
Angola 7
Anil 7
Ansari 7
Ariely 7
Arnold 7
Asi@@ 7
At 7
Aubrey 7
Aung 7
Aur@@ 7
Austr@@ 7
Australians 7
Aveling 7
Aw 7
Aw@@ 7
Babylonian 7
Balinese 7
Ball@@ 7
Ballet 7
Basin 7
Bau@@ 7
Bayes 7
Beatrice 7
Behar 7
Beijerinck 7
Benoit 7
Benyus 7
Berkley 7
Bermuda 7
Bertrand 7
Bess 7
Bis@@ 7
Bloo@@ 7
Bloom@@ 7
Bobby 7
Boeing 7
Bombay 7
Boo@@ 7
Bose 7
Boulder 7
Box 7
Brent 7
Broadway 7
Brother 7
Bs 7
Buddhas 7
Buick 7
Bulg@@ 7
Bun@@ 7
By 7
CBS 7
CC 7
CFO 7
CI@@ 7
Cage 7
Calcutta 7
Cameroon 7
Campbell 7
Carol 7
Carroll 7
Cartesian 7
Census 7
Cer@@ 7
Chambal 7
Chandler 7
Cheetos 7
Chil@@ 7
Chopin 7
Christina 7
Cis@@ 7
Cities 7
Claes 7
Clarke 7
Climate 7
Clinic 7
Close 7
Colom@@ 7
Commerce 7
Committee 7
Concer@@ 7
Cook 7
Crad@@ 7
Creative 7
Curtis 7
Cut@@ 7
DK 7
Daddy 7
Dai 7
Daphne 7
Dark 7
Deutsch 7
Diet 7
Dietrich 7
Direc@@ 7
Dirty 7
Dis@@ 7
Dodgers 7
Donna 7
Dop@@ 7
Doris 7
Dracorex 7
Dublin 7
Durkheim 7
E.O. 7
ECX 7
Economic 7
Ecosia 7
Edwards 7
Eis@@ 7
Elder 7
Ele@@ 7
Elvis 7
Engelbart 7
Environment 7
Es@@ 7
Eva 7
Everywhere 7
Eye 7
F-@@ 7
FA@@ 7
Farmer 7
Faunal 7
Ferguson 7
Fiji 7
Fisher 7
Florence 7
Fo@@ 7
Foreign 7
Foster 7
Fra@@ 7
Franco 7
Future 7
G.@@ 7
G20 7
GB 7
GP@@ 7
Gail 7
Gallo 7
Gallup 7
Giant 7
Glacier 7
Globe 7
Gods 7
Gol@@ 7
Goldberg 7
Goldilocks 7
Gombe 7
Google@@ 7
Googlers 7
Grail 7
Griffith 7
Gro@@ 7
HTTP 7
Hai@@ 7
Haidt 7
Headwaters 7
Heal@@ 7
Heritage 7
High@@ 7
Him 7
Himalayan 7
Hippocrates 7
Hispanic 7
Hugo 7
Huh 7
Humanity 7
Hungary 7
Huntington 7
Hyperscore 7
Idris 7
Imag@@ 7
Islamism 7
Isn 7
Italians 7
Jak@@ 7
Jake 7
Jama@@ 7
Jarrett 7
Jean-@@ 7
Jeremy 7
Ji@@ 7
Joan 7
Jon@@ 7
Judge 7
Jun@@ 7
Jung 7
Karajan 7
Kate 7
Kelley 7
Keny@@ 7
Kermit 7
Kevlar 7
Kryp@@ 7
Kun@@ 7
Ky@@ 7
Kyi 7
L.A 7
LL 7
LP 7
Layma 7
Leahy 7
Lessig 7
Levin 7
Levitt 7
Lib@@ 7
Licklider 7
Lifesaver 7
Like 7
Locke 7
Lon@@ 7
Lor@@ 7
Lou@@ 7
Louise 7
Lovelace 7
Lunch 7
Lyn@@ 7
ME@@ 7
MG 7
MO@@ 7
Major 7
Malaysia 7
Manju 7
Mann 7
Marie 7
Martian 7
Mau 7
McMurdo 7
Medicare 7
Member 7
Merce@@ 7
Mexicans 7
Mind 7
Mohamed 7
Moi 7
Monet 7
Mongolia 7
Ms. 7
Mushroom 7
NOAA 7
Nar@@ 7
Nat@@ 7
Newcastle 7
Niel@@ 7
Nigerians 7
Nir@@ 7
Nixon 7
Nope 7
Nuland 7
Ny@@ 7
O.C. 7
Oil 7
Okolloh 7
Oldenburg 7
Olympus 7
On@@ 7
Once 7
Opera 7
Other 7
Otto 7
Over@@ 7
PET 7
PMTCT 7
PSA 7
PTSD 7
Pace 7
Palin 7
Pap@@ 7
Parikrma 7
Pei 7
Pep@@ 7
Perry 7
Pet@@ 7
Petersburg 7
Petri 7
PhD 7
Pharaoh 7
Picasso 7
Picture 7
Pla@@ 7
Ple@@ 7
Pond 7
Press 7
Prison 7
Produc@@ 7
Program 7
Prus@@ 7
Puerto 7
Pup@@ 7
Pyth@@ 7
RF 7
Rab@@ 7
Rajasthan 7
Ray@@ 7
Reader 7
Reddit 7
Rev@@ 7
Rhode 7
Rives 7
Rob@@ 7
Robot 7
Ron@@ 7
Rosie 7
Roth 7
SE@@ 7
SK 7
SL 7
Sagan 7
Samaritan 7
Sargasso 7
Sas@@ 7
Schocken 7
Sciento@@ 7
Sco@@ 7
Search 7
See 7
Sense 7
Sequ@@ 7
Seymour 7
Shaw 7
Should 7
Sistema 7
Ske@@ 7
Sky@@ 7
Sleep 7
Slo@@ 7
Smith@@ 7
Som@@ 7
Sophia 7
Soviets 7
Special 7
Stalin 7
Step 7
Still 7
Street@@ 7
Stru@@ 7
Sunitha 7
Suu 7
T-shirts 7
TEDxUSC 7
TO@@ 7
TVs 7
Tasmania 7
Tempest 7
Tesla 7
Tewksbury 7
Thai 7
Thames 7
Thanks 7
Then 7
Think 7
Thursday 7
Tipper 7
Torosaurus 7
Tour 7
Trans@@ 7
Tre@@ 7
Turbo 7
Tut@@ 7
Twee@@ 7
Twin 7
USC 7
Umar 7
Universal 7
Upwake 7
VA 7
Val@@ 7
Velcro 7
Vent@@ 7
Verizon 7
Veterans 7
Vibrio 7
Vision 7
Voyager 7
Vs 7
Wade 7
Ward 7
Was 7
Watch 7
Wayne 7
Week 7
Wel@@ 7
Wer@@ 7
West@@ 7
Widder 7
Wildlife 7
Wit@@ 7
Wofford 7
Worldchanging.com 7
Xiaoping 7
Ye@@ 7
Yellowstone 7
Yorkers 7
Youn@@ 7
Zac@@ 7
Zach 7
Zen 7
Zimbardo 7
Zone 7
absor@@ 7
absorption 7
absur@@ 7
accepts 7
accessories 7
accountants 7
accustomed 7
aches 7
acidic 7
acks 7
acous@@ 7
acquiring 7
addi@@ 7
ade@@ 7
admitting 7
advancements 7
advancing 7
adversaries 7
adviser 7
aeronau@@ 7
affluence 7
aggregated 7
aggregates 7
agony 7
agreeing 7
airbags 7
airs 7
ais@@ 7
alanine 7
alibi 7
allegedly 7
alleviate 7
altern@@ 7
ambitions 7
amoeba 7
ample 7
amputated 7
amputation 7
amused 7
ana@@ 7
analogous 7
anch@@ 7
anding 7
ands 7
anesthetize 7
angel@@ 7
animates 7
anna 7
anne 7
anno@@ 7
antennas 7
anti 7
anza 7
api@@ 7
aping 7
apol@@ 7
appalling 7
appliance 7
appren@@ 7
approximate 7
apro@@ 7
arable 7
arcane 7
archi@@ 7
arrays 7
arre@@ 7
arsenal 7
ascent 7
ass@@ 7
assembling 7
aster@@ 7
asthmatic 7
astonishment 7
asy 7
ateau 7
athe@@ 7
ati 7
atric 7
attic 7
attorney 7
attrac@@ 7
audible 7
aurus 7
authorized 7
automation 7
awakening 7
awfully 7
ax 7
aya 7
backbone 7
backlit 7
bacter@@ 7
bake 7
baloney 7
bankrupt 7
barbaria 7
barbs 7
bargain 7
bathrooms 7
bbling 7
bean 7
bedside 7
beg@@ 7
begging 7
begs 7
benches 7
benefiting 7
best-@@ 7
billion-year 7
billionth 7
biochemical 7
birdsong 7
birthplace 7
biscuits 7
bitch 7
bladders 7
bleep 7
blindly 7
blo@@ 7
block@@ 7
blockbuster 7
bloo@@ 7
blood@@ 7
bloodshed 7
blunt 7
bos@@ 7
bots 7
boun@@ 7
bounces 7
boundless 7
bowling 7
box@@ 7
brace 7
bran@@ 7
breakup 7
breeders 7
brewing 7
bride 7
broadcasters 7
broaden 7
bubbling 7
buck@@ 7
buffalo 7
bullying 7
bureaucrats 7
burger 7
business@@ 7
busted 7
cab 7
cade 7
camp@@ 7
campfire 7
canal 7
canyon 7
carrier 7
cartooning 7
cas 7
cataly@@ 7
categorized 7
cent@@ 7
centr@@ 7
centrifuge 7
cer 7
cha 7
championships 7
changer 7
chap 7
charisma 7
chat@@ 7
cheek 7
cheer@@ 7
childish 7
chim@@ 7
chopped 7
churn 7
ci 7
cience 7
cigar 7
cin@@ 7
cite 7
civilizational 7
claiming 7
clam 7
clan 7
cleverer 7
climax 7
clones 7
cloning 7
clustering 7
coaches 7
cocktails 7
coconut 7
coercion 7
coff@@ 7
coffeehouse 7
coherence 7
coincidentally 7
colossal 7
columnist 7
comedians 7
committing 7
compartment 7
compensate 7
complacency 7
complementary 7
completion 7
complic@@ 7
compliment 7
conceptualize 7
concerning 7
confess 7
confirms 7
confronting 7
consequently 7
conserved 7
constitutional 7
consult 7
consultants 7
contingent 7
contractions 7
controllers 7
conve@@ 7
conversely 7
cooker 7
coordinates 7
coordinating 7
copy@@ 7
correlate 7
correlations 7
correspondence 7
costumes 7
cot 7
counteract 7
coworkers 7
cram@@ 7
crayons 7
creationism 7
creationists 7
crest 7
critter 7
crossword 7
crum@@ 7
cubs 7
cultivating 7
cusp 7
cybercrime 7
cylinders 7
cynical 7
d-like 7
dale 7
darkly 7
dat@@ 7
ddling 7
dead@@ 7
debilitating 7
decimal 7
decorated 7
decorative 7
deepening 7
defen@@ 7
defenses 7
delta 7
dementia 7
democratize 7
democratized 7
dence 7
dened 7
denounce 7
denti@@ 7
deo 7
deple@@ 7
deregulation 7
derson 7
deser@@ 7
detec@@ 7
dev@@ 7
deviations 7
devils 7
dia@@ 7
diagonal 7
dialog 7
dians 7
diaspora 7
dic 7
dice 7
dictatorships 7
diesel 7
dignified 7
dim@@ 7
dinal 7
dine 7
diner 7
dio 7
diplom@@ 7
directing 7
disappoint 7
discharge 7
disciplined 7
discovers 7
discriminate 7
disgust 7
disks 7
dislike 7
dismay 7
displacement 7
dispose 7
disputes 7
disrupt 7
dissect 7
disseminate 7
distil@@ 7
distill 7
distinguishes 7
ditch 7
diverge 7
dizzy 7
doc@@ 7
doctrines 7
documentaries 7
doo 7
doomed 7
dotted 7
dou@@ 7
downsides 7
dra 7
dries 7
dropout 7
dubious 7
duh 7
dun@@ 7
duplicate 7
dusk 7
dwarf 7
dwelling 7
dynam@@ 7
dysfunctional 7
e-like 7
e-mail 7
earns 7
earthquakes 7
eb@@ 7
ece 7
echo@@ 7
ecologically 7
edition 7
educator 7
ee@@ 7
eer 7
eerie 7
efully 7
elastic 7
elect 7
electable 7
ema 7
embark 7
embarrass 7
emble@@ 7
embryos 7
eminent 7
emphasized 7
emphasizes 7
employing 7
emulate 7
encing 7
encyclo@@ 7
endemic 7
endor@@ 7
ennial 7
enrich 7
enriched 7
ens@@ 7
ented 7
enthr@@ 7
ential 7
eper 7
eping 7
ert 7
erupting 7
eruption 7
esty 7
eth@@ 7
ethos 7
eting 7
evolent 7
evolu@@ 7
examines 7
exceeds 7
exclu@@ 7
excluded 7
exemp@@ 7
exhilarating 7
exp@@ 7
experimentally 7
explorations 7
extern@@ 7
extremists 7
extrovert 7
eyeball 7
eyeballs 7
eyebrow 7
eyeglasses 7
eyesight 7
fats 7
fearful 7
featuring 7
feedbacks 7
fel@@ 7
ference 7
fermentation 7
ferocious 7
fetal 7
financing 7
fire-@@ 7
fish@@ 7
flaps 7
flare 7
flex 7
flir@@ 7
floo@@ 7
fluctu@@ 7
fluorescence 7
flute 7
food-@@ 7
forecasting 7
formaldehyde 7
forty 7
four-year-old 7
foyer 7
fragility 7
fragmentation 7
franchise 7
freaking 7
freaky 7
freezes 7
fries 7
fringe 7
fronts 7
froze 7
fueling 7
full-scale 7
funky 7
fuses 7
futureless 7
gaga 7
gambling 7
gathers 7
gating 7
gator 7
gavage 7
gelatin 7
geneticists 7
genoci@@ 7
geographically 7
gest 7
ghetto 7
gie 7
giraffes 7
git@@ 7
glance 7
glide 7
glos@@ 7
glu@@ 7
glyc@@ 7
gman 7
goddess 7
gol@@ 7
golfer 7
gor@@ 7
gos 7
gradient 7
graduating 7
graft 7
grapher 7
gravit@@ 7
green@@ 7
greet 7
gripping 7
grizzly 7
grove 7
grow@@ 7
gru@@ 7
guesswork 7
gym 7
habit@@ 7
hai 7
hallucin@@ 7
hamburgers 7
handbags 7
handmade 7
harnessing 7
hates 7
haze 7
heart@@ 7
heartfelt 7
hedge 7
heim 7
hel@@ 7
herbivores 7
herbs 7
heresy 7
high-performance 7
high-power 7
high-powered 7
high-risk 7
higher-@@ 7
highlights 7
highs 7
hijacked 7
hip-hop 7
his@@ 7
hn 7
hoc 7
hol@@ 7
homeland 7
homemade 7
homosexual 7
honey@@ 7
honoring 7
hooves 7
horizontally 7
hostage 7
hotspot 7
human-computer 7
human-powered 7
hunted 7
hurdle 7
hybrids 7
hydro 7
hyperbole 7
iTunes 7
ibuprofen 7
icious 7
icities 7
icks 7
ila 7
ilit@@ 7
illustrated 7
illustrating 7
ily 7
ima@@ 7
imaginable 7
imi 7
immigrant 7
impending 7
imposing 7
impractical 7
imprint 7
in-group 7
in-law 7
inary 7
incoherent 7
incur@@ 7
individuality 7
ineffective 7
inequalities 7
infancy 7
infects 7
inferior 7
inflicted 7
influenza 7
informs 7
infra@@ 7
inhibit@@ 7
inhibited 7
inity 7
innocence 7
ino@@ 7
inscri@@ 7
inspect 7
instantaneously 7
intake 7
intellectually 7
inten@@ 7
intensified 7
interagency 7
interconnections 7
interdependent 7
interiors 7
interplay 7
interro@@ 7
interval 7
intru@@ 7
inventive 7
invents 7
investigated 7
irreversible 7
iter 7
iter@@ 7
itude 7
jealousy 7
joys 7
jurisdiction 7
justi@@ 7
keeper 7
keepers 7
kicks 7
kinder 7
kiosk 7
kits 7
kler 7
kos 7
lab@@ 7
lacked 7
lag 7
lah 7
lain 7
landers 7
landmark 7
latte 7
lau@@ 7
lentils 7
leth@@ 7
lettuce 7
lexi@@ 7
lick 7
lics 7
lifespans 7
light@@ 7
like@@ 7
limiting 7
limitless 7
liqui@@ 7
listeners 7
listens 7
litter 7
livelihoods 7
liz@@ 7
long@@ 7
longer-term 7
lot@@ 7
loudly 7
lurking 7
lush 7
magically 7
magne@@ 7
main@@ 7
maneuver 7
mangoes 7
mangrove 7
mann 7
marathons 7
marching 7
margin@@ 7
mark@@ 7
markings 7
masonry 7
mattered 7
maximizing 7
mechanistic 7
meds 7
meen 7
membership 7
mentoring 7
mercury 7
merit 7
metic 7
mets 7
microprocessor 7
midair 7
migraines 7
migrating 7
milliseconds 7
mindfulness 7
minimally 7
misses 7
missiles 7
mits 7
mixes 7
mobilized 7
mock 7
modality 7
modules 7
molding 7
momentous 7
momma 7
monetary 7
mosaic 7
mosques 7
motel 7
motorized 7
muck 7
mum@@ 7
mural 7
murdering 7
muses 7
mush 7
mustn 7
mutants 7
mutate 7
mutates 7
myel@@ 7
nameless 7
nan 7
napkins 7
nationwide 7
natur@@ 7
naughty 7
near-death 7
necessity 7
nee@@ 7
nel 7
neocortical 7
nephews 7
neurologist 7
neurology 7
newborns 7
news@@ 7
niece 7
no-brainer 7
nodding 7
non-living 7
northwest 7
nostalgia 7
notebooks 7
notoriously 7
novelists 7
nugget 7
numer@@ 7
numerical 7
nursery 7
nurtured 7
oasis 7
obliged 7
oblivious 7
observatory 7
occupying 7
off-the-shelf 7
offset 7
oid 7
oil-@@ 7
oke 7
ometers 7
on-the-@@ 7
one-dimensional 7
openings 7
operators 7
ophysics 7
opposing 7
optically 7
orangutan 7
ordin@@ 7
orient 7
orphan 7
orphans 7
osa 7
ospace 7
otaku 7
ough 7
outdated 7
outed 7
outgrowth 7
outsider 7
outweigh 7
overcoming 7
oxy@@ 7
ozoic 7
packet 7
pale 7
papercutting 7
para@@ 7
paradoxically 7
paranoid 7
parasitic 7
pardon 7
part-@@ 7
part-time 7
pathetic 7
pati@@ 7
patri@@ 7
patron@@ 7
pattern@@ 7
paused 7
pauses 7
paved 7
peaked 7
pearl 7
pelago 7
pencils 7
penetrated 7
penetration 7
penny 7
per-@@ 7
percentages 7
perfor@@ 7
person@@ 7
personi@@ 7
petrol 7
ph 7
phil@@ 7
pho@@ 7
phon@@ 7
photons 7
pick@@ 7
pigments 7
pilgrimage 7
pins 7
pious 7
piracy 7
piss 7
plac@@ 7
placement 7
placenta 7
plated 7
pli@@ 7
plum@@ 7
poaching 7
pod 7
poin@@ 7
policymakers 7
ponder 7
poo@@ 7
popularity 7
portfolio 7
pos 7
positioned 7
possess 7
possessed 7
possession 7
possessions 7
postage 7
powering 7
preacher 7
preaching 7
prece@@ 7
predominantly 7
prehistoric 7
premium 7
preschool 7
prescribed 7
presidency 7
presses 7
priesthood 7
private-public 7
professions 7
progressed 7
progresses 7
propri@@ 7
proprietary 7
prosthetics 7
prostitutes 7
protections 7
protesting 7
protests 7
psych@@ 7
psychic 7
psychologically 7
pt 7
ptic 7
ptions 7
pto@@ 7
publi@@ 7
punctuated 7
quirky 7
quotation 7
rake 7
rash 7
rat@@ 7
ratt@@ 7
reb@@ 7
recommendation 7
recommendations 7
reconstructed 7
reconstructing 7
recorders 7
recreation 7
recursive 7
redefined 7
redemption 7
redesigning 7
reforestation 7
reformed 7
reforming 7
refreshing 7
regim@@ 7
regrow 7
regulators 7
rein@@ 7
rela@@ 7
relating 7
relentless 7
relocated 7
rem@@ 7
reminding 7
remot@@ 7
ren 7
renewal 7
renewed 7
repairing 7
repairs 7
repeats 7
repel 7
repu@@ 7
rer@@ 7
rescuing 7
resigned 7
resourceful 7
restless 7
restrictions 7
resurrec@@ 7
reunited 7
rev@@ 7
revelations 7
revolutionized 7
rhinoviruses 7
rhyme 7
rhythmic 7
ribbon 7
rifle 7
righteous 7
rip@@ 7
risen 7
roast 7
robe 7
rollers 7
romantici@@ 7
rooftops 7
ropic 7
ros 7
routes 7
rowed 7
rulers 7
rushing 7
rusted 7
sacks 7
saddest 7
sailor 7
saint 7
salaries 7
saliva 7
same-sex 7
san 7
sanc@@ 7
sanity 7
sation 7
saun@@ 7
scanners 7
sche 7
schematic 7
scored 7
scrutiny 7
seamless 7
seatbelt 7
secondhand 7
secrecy 7
sectarian 7
seduced 7
seductive 7
seeded 7
seismic 7
seless 7
self-awareness 7
self-knowledge 7
self-replicating 7
selfishness 7
sensor@@ 7
sensual 7
sequ@@ 7
sequest@@ 7
serendipity 7
serenity 7
sergeant 7
sermon 7
serv@@ 7
seven-year-old 7
shaft 7
shaman 7
ship@@ 7
shire 7
short@@ 7
shuts 7
sibly 7
side@@ 7
sided 7
siege 7
sig@@ 7
silenced 7
silently 7
simulators 7
singly 7
sins 7
sis 7
situated 7
six-and-a-half 7
skeletons 7
ski@@ 7
slightest 7
slowness 7
slows 7
slugs 7
small-@@ 7
smar@@ 7
smelled 7
smiled 7
smoothly 7
sms 7
sober 7
social-@@ 7
socialization 7
sociologist 7
solar-electrified 7
solids 7
spans 7
sparks 7
specially 7
sped 7
spices 7
spilling 7
spir@@ 7
spiritually 7
splendid 7
sponsors 7
spoon 7
square-foot 7
squeamish 7
stagnant 7
stainless 7
starlight 7
starter 7
stems 7
steri@@ 7
stering 7
stethoscope 7
stin@@ 7
stir 7
stomachs 7
stranded 7
stressful 7
striped 7
stripping 7
struc@@ 7
stumble 7
sub-surface 7
subjected 7
submission 7
subs 7
subscribers 7
subset 7
substitu@@ 7
subtly 7
subtraction 7
succeeds 7
sucking 7
sug@@ 7
suicidal 7
summers 7
summoned 7
suns 7
supervision 7
supporters 7
suppressed 7
sured 7
surfers 7
sus 7
sustainably 7
swords 7
symbo@@ 7
synchron@@ 7
syringes 7
taboos 7
tadpoles 7
takers 7
tal 7
tans 7
targeting 7
tat@@ 7
tch 7
tching 7
tchy 7
teas 7
tee 7
teeming 7
telegraph 7
telepresence 7
televisions 7
temper@@ 7
temples 7
tenacious 7
tentacles 7
termin@@ 7
testicles 7
textures 7
thal@@ 7
thanked 7
there@@ 7
thered 7
thfully 7
thigh 7
thine 7
thouse 7
thrives 7
thyself 7
tici@@ 7
ticks 7
tides 7
tiest 7
tigh@@ 7
tinker 7
titude 7
tman 7
tom 7
tooth@@ 7
torch 7
tori@@ 7
tournament 7
tractor 7
trade-off 7
train@@ 7
trans-@@ 7
transferring 7
transitional 7
transmitting 7
traps 7
trawling 7
treasure 7
treaty-based 7
trek 7
truce 7
trumpet 7
tt@@ 7
tum@@ 7
turf 7
turing 7
twe@@ 7
tweets 7
twelve 7
twit@@ 7
uan 7
ubuntu 7
ulations 7
ull 7
ulous 7
umin@@ 7
uncommon 7
underpins 7
underside 7
understandings 7
underwent 7
undo 7
undoubtedly 7
unethical 7
unification 7
uniforms 7
uninterrupted 7
unison 7
universals 7
unlocked 7
unpack 7
unsafe 7
unused 7
upbringing 7
uphill 7
upstate 7
urged 7
uss 7
uterus 7
vaccination 7
vanishing 7
varying 7
vectors 7
vels 7
vending 7
venom 7
verifiable 7
vertebrates 7
ves@@ 7
vesti@@ 7
vey 7
vibrational 7
video-@@ 7
vin@@ 7
viol@@ 7
virtuoso 7
visibility 7
visualizations 7
visualized 7
voc@@ 7
vores 7
vre 7
w-@@ 7
wagon 7
waits 7
wake-up 7
wardly 7
warms 7
wary 7
wastes 7
waterborne 7
watering 7
waterproof 7
way@@ 7
wealthier 7
weave 7
webcam 7
wee@@ 7
weighing 7
whaling 7
whirlwind 7
whis@@ 7
whiteboard 7
wig 7
wildest 7
wines 7
wingspan 7
wirelessly 7
witnesses 7
wolf 7
work-life 7
working-class 7
writings 7
xed 7
xi@@ 7
yar@@ 7
ym@@ 7
yn 7
youthful 7
yr@@ 7
zi@@ 7
zipping 7
á@@ 7
&apos;am 6
-by-@@ 6
.net 6
0.5 6
08 6
1.1 6
10-year 6
105 6
11@@ 6
13,000 6
14-@@ 6
17,000 6
1963 6
1977 6
2-year-old 6
2.3 6
2000s 6
2013 6
20th-century 6
21,000 6
220 6
22nd 6
23@@ 6
3,000-@@ 6
3-minute 6
30-second 6
30th 6
350,000 6
365 6
3rd 6
466@@ 6
46@@ 6
4Shbab 6
4chan 6
5.5 6
5.@@ 6
550 6
6-@@ 6
63 6
6th 6
7-year-old 6
7.5 6
747 6
8-@@ 6
80-year-old 6
9-@@ 6
99.@@ 6
ADD 6
AI@@ 6
AP@@ 6
Abani 6
Abi@@ 6
Abraha@@ 6
Absolu@@ 6
Admiral 6
Adri@@ 6
Afri@@ 6
Agra 6
Aha 6
Aicha 6
Allende 6
Alto 6
Amory 6
Andrea 6
Android 6
Andromeda 6
Ani@@ 6
Anonymous 6
Antoine 6
Antonio 6
Anu@@ 6
Apophis 6
Appalachi@@ 6
Aquarium 6
Archae@@ 6
Archit@@ 6
Aristotelian 6
Ashdown 6
Assembly 6
Astron@@ 6
Audience 6
Autodesk 6
Avelile 6
Awesome 6
Ax@@ 6
B.C 6
B.C. 6
BAS@@ 6
BO@@ 6
Bam@@ 6
Barnett 6
Barricelli 6
Bart 6
Bartok 6
Basil 6
Bayesian 6
Bee 6
Bennett 6
Bert 6
Bhar@@ 6
Bio@@ 6
Bit@@ 6
Blackawton 6
Blanc 6
Boone 6
Boris 6
Bou@@ 6
Branson 6
Braun 6
Bron@@ 6
Burger 6
Burton 6
Byron 6
CAT 6
CB@@ 6
Cambrian 6
Canary 6
Cantor 6
Capital 6
Carac@@ 6
Carlton 6
Carpet 6
Carrie 6
Cas@@ 6
Catalog 6
Ced@@ 6
Celsius 6
Cent@@ 6
Century 6
Character 6
Cheval 6
Chevy 6
Chip 6
Cho@@ 6
Christie 6
Churchill 6
Cir@@ 6
Clare 6
Clay 6
Clean 6
Cli@@ 6
Clock 6
Cody 6
Coll@@ 6
Collect 6
Collins 6
Colony 6
Columbus 6
Comedy 6
Conan 6
Congres@@ 6
Connexions 6
Cop@@ 6
Coun@@ 6
Cour@@ 6
Cousteau 6
Cox 6
Croatia 6
Cronin 6
Curitiba 6
D.C 6
DARwIn 6
DMV 6
Daisy 6
Dakota 6
Dal@@ 6
Davos 6
Del@@ 6
Dem@@ 6
Depp 6
Dereck 6
Descartes 6
Dharamsala 6
Diamandis 6
Diane 6
Dickinson 6
Dink 6
Disease 6
Disorder 6
Dizzy 6
Dollar 6
Doo@@ 6
Dra@@ 6
Driven 6
DryBath 6
Dunlap 6
ELA 6
Earle 6
Ebert 6
Ebola 6
Edge 6
Education 6
Eiffel 6
Electr@@ 6
Elephant 6
Emi@@ 6
End 6
English-speaking 6
Eno 6
Eri@@ 6
Et@@ 6
Ethan 6
Eur@@ 6
Everyone 6
Explorer 6
Express 6
FM 6
FN 6
Fant@@ 6
Feiler 6
Ferr@@ 6
Fifth 6
Fildes 6
Fis@@ 6
Fish 6
Fluctus 6
Foods 6
Fore@@ 6
Forum 6
Frankenstein 6
Freeman 6
Fren@@ 6
Frog 6
Ful@@ 6
G. 6
Ganges 6
Georges 6
Gever 6
Ghana@@ 6
Gil@@ 6
Girls 6
Glasgow 6
Godin 6
Goering 6
Gold@@ 6
Goldie 6
Got 6
Gothic 6
Grameen 6
Granny 6
Grateful 6
Gregory 6
Grier 6
Guang@@ 6
Guild 6
Gut@@ 6
Gy@@ 6
HS 6
Hal 6
Hamas 6
Handspring 6
Hansen 6
Happiness 6
Harriet 6
Hau@@ 6
Healey 6
Heathrow 6
Hector 6
Heidi 6
Heinz 6
Hemlock 6
Hewlett-Packard 6
Hillel 6
Himba 6
Hod@@ 6
Hof@@ 6
Hon@@ 6
Honor 6
Hoover 6
Horn 6
Horowitz 6
Idaho 6
Improv 6
Industry 6
Instagram 6
Interval 6
Isabel 6
Islam@@ 6
Isle 6
Itay 6
Ivory 6
JFK 6
JN 6
Jacobs 6
Jared 6
Jaw@@ 6
Jos@@ 6
K-@@ 6
Kan@@ 6
Kant 6
Kapur 6
Karmapa 6
Kary 6
Kash@@ 6
Kathryn 6
Keene 6
Kew 6
Kids 6
Kigali 6
Knee 6
Knight 6
Kno@@ 6
Kuiper 6
Kur@@ 6
Kurt 6
Lakshmi 6
Land 6
Laure@@ 6
Leakey 6
Legos 6
Lehman 6
Lem@@ 6
Lenny 6
Leslie 6
Lesotho 6
Libeskind 6
Lim@@ 6
Livermore 6
Lloyd 6
Loc@@ 6
Lom@@ 6
Lot@@ 6
Lotto 6
Lou 6
Love@@ 6
Lovins 6
Lucas 6
Luxembourg 6
MD 6
MI@@ 6
MS 6
MS@@ 6
MTV 6
Maas@@ 6
MacMaster 6
Madame 6
Mado@@ 6
Maestro 6
Maggie 6
Mali 6
Malthus 6
Malé 6
Marcel 6
Marx 6
Masters 6
Matrix 6
Mayor 6
McCain 6
McKay 6
McNuggets 6
Medicaid 6
Mee@@ 6
Meegeren 6
Mena 6
Metrics 6
Meyer 6
Mid-East 6
Miklos 6
Milgram 6
Milliken 6
Milly 6
Miner 6
Misha 6
Mistry 6
Molly 6
Mom@@ 6
Money 6
Monica 6
Monro@@ 6
Moog 6
Moschen 6
Motion 6
Motts 6
Mubarak 6
Mug@@ 6
MySpace 6
NBA 6
NE@@ 6
NO 6
Nachtwey 6
Nan@@ 6
Nav@@ 6
Nellie 6
Nep@@ 6
Net@@ 6
Netra 6
Nice 6
Nintendo 6
Nothing 6
OL 6
Online 6
Organ@@ 6
Ori@@ 6
Orville 6
Osama 6
P.C. 6
PC@@ 6
PH 6
PJC 6
Palace 6
Palo 6
Pamela 6
Panama 6
Paola 6
Parade 6
Partners 6
Pavlo@@ 6
Penelope 6
Peninsula 6
Phase 6
Phil 6
Photos@@ 6
Picchu 6
Plains 6
Plexi@@ 6
Pluto 6
Poetry 6
Polish 6
Popular 6
Porco 6
Pot 6
Powell 6
Power@@ 6
Powers 6
Pradesh 6
Prius 6
Proc@@ 6
Psycho 6
Punta 6
Purple 6
Pyg@@ 6
Quar@@ 6
Queensland 6
R-@@ 6
RA 6
RF@@ 6
RW 6
Radcliffe 6
Ragu 6
Ram 6
Randy 6
Rao 6
Ratan 6
Reef 6
Rel@@ 6
Rem@@ 6
Resnick 6
Respon@@ 6
Reuters 6
Rhodes 6
Ricard 6
Rico 6
Rita 6
Ritalin 6
Robbins 6
Rockies 6
Rodney 6
Rot@@ 6
Route 6
Rum@@ 6
Rutan 6
Rwandan 6
SA@@ 6
SAT 6
SR@@ 6
SUN@@ 6
Sabbath 6
Sacks 6
Sad@@ 6
Safety 6
Safeway 6
Sal 6
Salt 6
Schwartz 6
Sculpey 6
Sears 6
Seed 6
Seligman 6
Sen 6
Sendhil 6
Seoul 6
Shawn 6
Shea 6
Shenzhen 6
Sheryl 6
Shirin 6
Silver 6
Singh 6
Sivers 6
SixthSense 6
Skin@@ 6
Skoll 6
Sli@@ 6
Song 6
Southwest 6
Speed 6
Spir@@ 6
Squ@@ 6
Stand@@ 6
Stef@@ 6
Steffen 6
Strat@@ 6
Sundays 6
Sup@@ 6
Sure 6
Svalbard 6
Swaptree 6
Syri@@ 6
Sz@@ 6
T-shirt 6
T20 6
TA 6
TED-@@ 6
TEDIndia 6
TS 6
Talgam 6
Tata 6
Tax@@ 6
Tem@@ 6
Teresa 6
Ther@@ 6
Thom 6
Thou@@ 6
Tod 6
Today 6
Toonchi-too 6
Tot@@ 6
Tru@@ 6
Tulley 6
Turin 6
Turkana 6
Twi@@ 6
Tyrannosaurus 6
Tyrone 6
Tzu 6
U-@@ 6
UC@@ 6
UFOs 6
UNICEF 6
Under@@ 6
Up@@ 6
Upon 6
Upper 6
VCs 6
Valent@@ 6
Vel@@ 6
Vermeer 6
Viagra 6
Vic@@ 6
Vin@@ 6
Wag@@ 6
Walt 6
Weather 6
Wester@@ 6
Wiki 6
WikiLeaks 6
Wilbur 6
Wilkins 6
Winky 6
Winner 6
Wire 6
Wis@@ 6
Won@@ 6
Wong 6
Words 6
Wounded 6
XML 6
Xerox 6
Yan@@ 6
Yesterday 6
Yo 6
Youth 6
Yu@@ 6
Zappos 6
Zucker@@ 6
Zullinger 6
_ 6
a.@@ 6
abduc@@ 6
above-@@ 6
abusive 6
ac 6
accelerators 6
accents 6
access@@ 6
accord 6
accru@@ 6
achi 6
acle 6
acrylic 6
actic 6
actress 6
add-@@ 6
addicts 6
admittedly 6
ado 6
adored 6
adrenaline 6
advantageous 6
adventurous 6
adversity 6
advertisements 6
affair 6
affi@@ 6
affirming 6
afi 6
afterlife 6
aga 6
age-related 6
aggre@@ 6
agr@@ 6
ahh 6
air-conditioning 6
airborne 6
aisle 6
aisles 6
aking 6
ala 6
alan 6
albums 6
alie 6
alin 6
all-important 6
alled 6
allevi@@ 6
alliances 6
alligator 6
alling 6
allocation 6
alumni 6
always-on 6
amazes 6
ame 6
aments 6
amin@@ 6
ammunition 6
amygdala 6
analysts 6
anatom@@ 6
ancies 6
and-a-@@ 6
and-a-half 6
angi@@ 6
anguish 6
angular 6
anics 6
anie 6
anity 6
annually 6
anonymously 6
anticipation 6
anz@@ 6
aortic 6
aper@@ 6
aphid 6
apocalyptic 6
apologi@@ 6
appe@@ 6
appeals 6
aras@@ 6
archaeological 6
archetyp@@ 6
arg@@ 6
arias 6
aris 6
arisen 6
aristoc@@ 6
arized 6
arma@@ 6
armor 6
arran@@ 6
arrogance 6
arsen@@ 6
articulated 6
articulating 6
as-@@ 6
ascen@@ 6
ascending 6
ashes 6
assessing 6
assistants 6
associations 6
asted 6
astrolabes 6
astronomer 6
atal 6
aters 6
atorial 6
atr@@ 6
attacker 6
audition 6
aunties 6
aur@@ 6
authen@@ 6
avant-garde 6
avenue 6
averse 6
avi@@ 6
avin 6
b-@@ 6
bachelor 6
backdrop 6
backside 6
ballroom 6
bam 6
bandages 6
barn 6
baskets 6
battle@@ 6
baugh 6
bb@@ 6
be-@@ 6
beak 6
beat@@ 6
bed@@ 6
beep 6
beetles 6
beforehand 6
bellwether 6
berry 6
best-selling 6
bet@@ 6
beta 6
biennial 6
biking 6
billionaire 6
bins 6
biochemist 6
biochemistry 6
biologic 6
biop@@ 6
bios@@ 6
bis@@ 6
blankets 6
blasted 6
blat@@ 6
bleach 6
bleached 6
bleak 6
bli@@ 6
bloated 6
blogged 6
blower 6
blur@@ 6
boar@@ 6
bolt 6
boomers 6
bor 6
borg 6
bosses 6
bottom@@ 6
bounded 6
branded 6
breastfeeding 6
breathes 6
breeds 6
brewers 6
brittle 6
brochure 6
broker 6
brow 6
bruises 6
bu 6
bub@@ 6
buckle 6
bud 6
buil@@ 6
build-up 6
builders 6
bumping 6
buoy@@ 6
burqa 6
buyers 6
buzzing 6
cad@@ 6
caffeine 6
cakes 6
cali@@ 6
calibrate 6
camouflage 6
campaig@@ 6
canned 6
canni@@ 6
cannon 6
canoe 6
capsules 6
caricat@@ 6
carri@@ 6
cartel 6
carving 6
categorize 6
caution 6
ceme@@ 6
censor 6
cervical 6
chann@@ 6
characterizes 6
chatting 6
cheetah 6
chel@@ 6
cherry 6
chester 6
childlike 6
choked 6
chops 6
choreograph@@ 6
choreographer 6
chron@@ 6
chronic@@ 6
chute 6
cious 6
circulatory 6
circumcision 6
civilized 6
ck@@ 6
clari@@ 6
classmates 6
claw 6
cle 6
clicked 6
climate-@@ 6
climates 6
clinging 6
clist 6
clitoris 6
clum@@ 6
clut@@ 6
coached 6
coaching 6
coales@@ 6
cobras 6
cock 6
cogs 6
colliding 6
colonialism 6
colonization 6
commemor@@ 6
commentator 6
commis@@ 6
commu@@ 6
commun@@ 6
communicated 6
compensation 6
complex@@ 6
compositions 6
conceivably 6
condense 6
conditioner 6
conducts 6
confer 6
conferencing 6
confessed 6
confluence 6
conge@@ 6
congregation 6
congress@@ 6
connectedness 6
consecutive 6
conserv@@ 6
considers 6
consisted 6
consol@@ 6
consolidated 6
conspic@@ 6
constants 6
constituents 6
constitute 6
constraint 6
consul@@ 6
cont@@ 6
containment 6
contamin@@ 6
contaminants 6
contentious 6
contingency 6
contractors 6
conversational 6
conveying 6
convul@@ 6
convulsions 6
cool@@ 6
cools 6
cooper@@ 6
copes 6
copious 6
correcting 6
corrugated 6
costume 6
cottage 6
coughing 6
coun@@ 6
councils 6
counter-intuitive 6
counties 6
cracking 6
crate 6
craw@@ 6
credits 6
creed 6
creeping 6
cricke@@ 6
criticizing 6
crossroads 6
cruise 6
cry@@ 6
culmin@@ 6
culprit 6
curiosity-@@ 6
cushi@@ 6
custody 6
custom@@ 6
cut@@ 6
cyberattacks 6
cybercriminals 6
d-looking 6
day-@@ 6
dden 6
dding 6
death@@ 6
deb@@ 6
deceived 6
declassified 6
decompiculture 6
deconstruct 6
deepened 6
defeating 6
definite 6
deflation 6
deflect 6
defy 6
degeneration 6
del 6
deli@@ 6
deliberation 6
dences 6
dens 6
densely 6
densities 6
departure 6
depict 6
deplo@@ 6
deployments 6
deputy 6
derivative 6
derivatives 6
dessert 6
detach 6
detectable 6
detergent 6
deteriorating 6
deton@@ 6
devastation 6
devotion 6
dexterity 6
dge@@ 6
diabetic 6
diac 6
diets 6
differenti@@ 6
digestive 6
digitization 6
dings 6
dipped 6
dis 6
disappointing 6
discer@@ 6
disco@@ 6
discoura@@ 6
disease-@@ 6
dismal 6
dismantle 6
disobe@@ 6
dispat@@ 6
dispense 6
dispersants 6
displaying 6
disproportionate 6
disproportionately 6
disregard 6
disrup@@ 6
dissolves 6
dist@@ 6
distor@@ 6
distract 6
distracting 6
distressing 6
distributes 6
distributions 6
dived 6
diversion 6
divert 6
do-it-yourself 6
dogmas 6
doings 6
dollar-@@ 6
domes 6
doodles 6
dor@@ 6
doub@@ 6
dous 6
dragonfly 6
draining 6
drastic 6
drastically 6
draw@@ 6
dread 6
dream@@ 6
dripping 6
drones 6
drown 6
dt 6
duct 6
dul@@ 6
dummy 6
dusty 6
dyed 6
e-Patient 6
eagerly 6
ectors 6
ef 6
effor@@ 6
egel 6
elation 6
eld 6
electrically 6
electrogram 6
electronically 6
electroshock 6
eler@@ 6
elessness 6
elet@@ 6
elevate 6
elevates 6
elevators 6
eleventh 6
elimination 6
eline 6
ellers 6
elli 6
elly 6
embroidery 6
emergencies 6
emi@@ 6
emo@@ 6
empathic 6
empowers 6
emptied 6
ende@@ 6
eneb 6
energy-@@ 6
enforce 6
enforced 6
engulfed 6
enjoys 6
enrich@@ 6
enriching 6
enrolled 6
enshrined 6
enslave 6
enslaved 6
entary 6
entr@@ 6
epiphytes 6
episodes 6
epit@@ 6
erial 6
erials 6
erie 6
es-@@ 6
escalating 6
escaping 6
eses 6
esis 6
espres@@ 6
esthetic 6
ests 6
eth 6
ethically 6
eties 6
etta 6
evange@@ 6
evangelical 6
evidently 6
exaggerated 6
exc@@ 6
excep@@ 6
excite 6
excre@@ 6
exercising 6
exhal@@ 6
exhaust 6
exist@@ 6
experim@@ 6
explanatory 6
extensively 6
extra-chunky 6
extrac@@ 6
extracts 6
extrapolate 6
extrinsic 6
exuberant 6
eyelids 6
facet 6
facilitator 6
factual 6
fain@@ 6
falafel 6
fallibility 6
familiarity 6
fan@@ 6
far-fetched 6
farce 6
fatalities 6
fatigue 6
fau@@ 6
favela 6
favored 6
feed@@ 6
feel@@ 6
feld 6
fers 6
fertilize 6
fibro@@ 6
filament 6
filaments 6
filed 6
finances 6
fingernails 6
finishes 6
firewood 6
first-born 6
first-ever 6
fischeri 6
fist 6
fit@@ 6
fittest 6
five-minute 6
flatten 6
flattened 6
flattening 6
fleeing 6
floss 6
flung 6
foli@@ 6
fooling 6
footnote 6
forage 6
forager 6
forestry 6
formalized 6
formally 6
four-foot 6
fragment 6
frameworks 6
frau@@ 6
freaks 6
fringes 6
front-end 6
frowning 6
frustrations 6
fuckin 6
fudge 6
fully-@@ 6
fundamentals 6
funniest 6
furnaces 6
furry 6
fuselage 6
futuristic 6
gad@@ 6
gade 6
galvan@@ 6
game-@@ 6
garages 6
gation 6
gels 6
gement 6
generalization 6
generalized 6
generously 6
genitalium 6
geodesic 6
geometrical 6
germin@@ 6
ggles 6
ghettos 6
ghtful 6
gi 6
gian 6
gig@@ 6
gigabytes 6
ginger 6
gings 6
gla@@ 6
gler 6
glial 6
gloomy 6
glorified 6
glued 6
gmentation 6
gobble 6
good-@@ 6
goon 6
governs 6
grad 6
graded 6
graders 6
gran@@ 6
grander 6
grandfathers 6
grandson 6
graphically 6
graphite 6
gratifying 6
gratuitous 6
graze 6
greatness 6
green-@@ 6
grids 6
grips 6
grounding 6
groupers 6
grownups 6
grueling 6
gruesome 6
grumpy 6
guga 6
guinea 6
guitars 6
gurus 6
hacks 6
ham-@@ 6
handing 6
har 6
hardened 6
hardworking 6
hare 6
harmed 6
harrowing 6
harve@@ 6
hassle 6
hateful 6
hea@@ 6
head-tail-@@ 6
headlights 6
headrest 6
healed 6
heartbreak 6
heats 6
heavier 6
hec@@ 6
heh 6
hemorrha@@ 6
herds 6
here@@ 6
hero@@ 6
hesit@@ 6
hide@@ 6
hides 6
hies 6
hler 6
hobby@@ 6
holi@@ 6
holocaust 6
horns 6
horsepower 6
horticul@@ 6
hosted 6
housework 6
hr 6
href 6
huddled 6
hugged 6
hugging 6
hugs 6
human-to-human 6
humanism 6
humbling 6
hummingbird 6
humongous 6
humorous 6
hundred-dollar 6
hundredth 6
husky 6
hydrates 6
hydrogen@@ 6
hypo@@ 6
hypothermia 6
hysterical 6
ice@@ 6
icer 6
ician 6
ida 6
idealistic 6
identifies 6
idiots 6
idle 6
igniting 6
ik@@ 6
illi@@ 6
illy 6
imbu@@ 6
immediacy 6
immerse 6
impairment 6
imperson@@ 6
importing 6
impoverished 6
inaction 6
inanimate 6
inate 6
inbox 6
incarcerated 6
incarceration 6
incess@@ 6
inclined 6
incompatible 6
incorrect 6
incrementally 6
incubators 6
indefinitely 6
indiscriminately 6
indul@@ 6
inexhaustible 6
infecting 6
infill 6
inflammation 6
inflatable 6
influencing 6
info@@ 6
infringement 6
infuse 6
inhale 6
inhi@@ 6
inhibit 6
inhibits 6
initiating 6
injectors 6
innovating 6
inqui@@ 6
inquire 6
insatiable 6
insidious 6
inspected 6
inspi@@ 6
instill 6
instinctive 6
insulating 6
insur@@ 6
int-@@ 6
intelligentsia 6
intelligible 6
intercept 6
intern@@ 6
interpersonal 6
interpretations 6
inti@@ 6
intolerable 6
intrigue 6
introversion 6
introvert 6
inundated 6
invading 6
inverted 6
ires 6
irreduci@@ 6
irregular 6
isa 6
ished 6
ising 6
ite@@ 6
iterations 6
itor 6
ivory 6
izer 6
jam@@ 6
jec@@ 6
ject 6
jigsaw 6
jolly 6
journalistic 6
jump@@ 6
junction 6
jungles 6
kan 6
kelp 6
ken@@ 6
kery 6
ketchup 6
kill@@ 6
kistan 6
kitchens 6
knobs 6
knowledge-@@ 6
kooks 6
labeling 6
lace 6
laces 6
lambs 6
lame 6
lancet 6
lap-and-shoulder 6
lapse 6
las 6
latch 6
lattice 6
laughs 6
laureates 6
lavish 6
leaned 6
leans 6
leap@@ 6
learners 6
lec@@ 6
lecture-based 6
lemonade 6
lessness 6
levitation 6
libertarian 6
lical 6
lichens 6
lif@@ 6
ligament 6
limp 6
linearity 6
linguists 6
list@@ 6
litics 6
livable 6
ll 6
loading 6
localized 6
logos 6
logs 6
loid 6
longitude 6
loo 6
looming 6
los 6
los@@ 6
loud@@ 6
lowering 6
luminescence 6
lunatic 6
lunches 6
lyn 6
mach@@ 6
magnetically 6
mal 6
malarial 6
male-pattern 6
malpractice 6
maneuverable 6
manned 6
manuscript 6
marbles 6
marginal 6
marital 6
market-based 6
marketplaces 6
marvel@@ 6
mashup 6
masons 6
masse 6
mater 6
maths 6
matically 6
maxim@@ 6
me-@@ 6
meadows 6
measurably 6
mechan@@ 6
medically 6
meditated 6
meditating 6
meditators 6
megawatts 6
mel 6
menopause 6
mentary 6
mented 6
merchandise 6
mesh-@@ 6
messenger 6
metabo@@ 6
micro-machines 6
microphones 6
millionth 6
mined 6
mings 6
miscarriage 6
mistress 6
misunderstanding 6
mitigate 6
mitochondrial 6
mitted 6
mob 6
mobilization 6
mockingbirds 6
modifications 6
modulation 6
moist 6
mommy 6
monol@@ 6
moon@@ 6
morals 6
morphed 6
mortgages 6
motivator 6
mounds 6
mount 6
mourn 6
multiplexing 6
multiplicity 6
multiplying 6
municipalities 6
mur@@ 6
murderers 6
muse 6
mustache 6
muster 6
mythic 6
nake 6
naming 6
nanny 6
nano 6
nanos@@ 6
nanotubes 6
narcissistic 6
nationality 6
navi@@ 6
needy 6
neon 6
nerian 6
netted 6
neur@@ 6
neuromodulators 6
neutrinos 6
neutron 6
newer 6
nicest 6
nick@@ 6
nieces 6
nightmares 6
nighttime 6
no-take 6
nomad 6
nominated 6
non-visual 6
noon 6
normality 6
not@@ 6
noting 6
notori@@ 6
notwithstanding 6
nst 6
nudge 6
nun 6
nuns 6
obe@@ 6
obituary 6
objectivity 6
obligations 6
obsessive 6
obstruc@@ 6
oceanic 6
oceanography 6
offend 6
offenders 6
oil@@ 6
omer 6
omo 6
on-board 6
onaires 6
onally 6
ond 6
one-man 6
one@@ 6
oney 6
ong@@ 6
ope 6
open@@ 6
ophobia 6
ophys@@ 6
opponent 6
opteryx 6
optimized 6
orable 6
orchard 6
ord 6
ord@@ 6
ordinarily 6
ored 6
oren 6
org 6
org@@ 6
organ@@ 6
originals 6
orium 6
osphere 6
oul@@ 6
out-of-body 6
outline 6
outlook 6
outputs 6
outset 6
outsiders 6
outsourcing 6
ovarian 6
oven-like 6
overconfidence 6
overheard 6
overlook 6
overlooking 6
overly 6
overpopulation 6
oversight 6
overwhelm 6
oxid@@ 6
paci@@ 6
pact 6
pad@@ 6
paddle 6
painfully 6
pajamas 6
palazzo 6
paleo@@ 6
palsy 6
panicked 6
paperwork 6
par 6
parabola 6
parachutes 6
parag@@ 6
paragraphs 6
parainfluenza-@@ 6
paraly@@ 6
parent@@ 6
parti@@ 6
participant 6
parting 6
partnered 6
pasta 6
pathogenic 6
pathologist 6
peacefully 6
peacekeeping 6
pede 6
peering 6
pel@@ 6
pellets 6
pelvis 6
pendulum 6
penetr@@ 6
percussion 6
periodically 6
permafrost 6
perpetu@@ 6
perpetuating 6
perseverance 6
perv@@ 6
pessimism 6
petrochemicals 6
phen@@ 6
phobic 6
phot@@ 6
photo-@@ 6
photo@@ 6
[...]
