的 178851
， 129620
。 89776
我 51596
是 44591
我们 44227
在 38639
了 34876
你 27055
&quot; 22073
一个 21095
这 17293
有 16827
他们 16194
和 15822
就 12623
它 12379
这个 12354
都 11658
他 11523
可以 11285
人 10730
？ 10438
也 10433
这些 10234
会 9985
上 9055
不 8644
到 8592
说 8550
中 8436
做 8172
就是 8061
： 7870
- 7794
） 7388
很 7373
（ 7363
对 7307
把 6807
如果 6793
让 6718
因为 6542
来 6466
能 6459
但 6400
没有 6292
而 6249
所以 5937
现在 5930
想 5726
被 5677
这样 5540
知道 5516
去 5511
什么 5442
但是 5425
, 5420
这是 5345
她 5219
从 5182
要 5059
问题 5037
那 4943
当 4940
里 4925
你们 4880
它们 4844
将 4806
-- 4547
. 4511
不是 4488
自己 4471
一些 4450
用 4412
看到 4361
开始 4348
给 4312
个 4258
并 4258
更 4114
好 4091
然后 4076
非常 4060
、 4044
需要 4042
着 3910
时候 3897
世界 3862
人们 3846
东西 3727
为 3637
还 3623
可能 3563
一种 3540
与 3530
像 3466
那些 3445
所 3430
已经 3360
多 3277
时 3216
所有 3209
地 3201
年 3144
这里 3130
最 3094
认为 3058
这种 2994
很多 2993
呢 2930
发现 2879
工作 2867
事情 2858
过 2841
笑声 2681
们 2676
发生 2663
看 2642
或者 2577
· 2548
孩子 2511
如何 2510
一样 2494
地方 2494
大家 2427
还有 2400
那么 2399
不同 2380
得 2277
而且 2245
下 2244
通过 2242
研究 2237
吗 2224
国家 2175
生活 2163
重要 2136
告诉 2134
时间 2128
其他 2102
又 2080
新 2077
关于 2062
能够 2060
以及 2055
并且 2052
美国 2027
改变 2025
方式 2016
为什么 2012
设计 1999
事 1984
人类 1981
于 1911
故事 1895
使用 1892
因此 1881
只是 1862
吧 1856
不会 1834
应该 1834
任何 1822
进行 1804
得到 1798
或 1790
大 1789
后 1770
以 1767
希望 1754
那个 1733
出 1729
不能 1713
一起 1704
必须 1698
技术 1693
再 1653
成为 1650
一下 1636
觉得 1632
正在 1621
比 1617
还是 1593
真的 1585
那里 1561
方法 1558
起来 1528
小 1517
向 1512
生命 1506
只 1503
其中 1498
一 1489
每个 1486
来说 1482
对于 1479
跟 1471
今天 1459
最后 1441
喜欢 1436
实际上 1435
数据 1429
怎么 1426
当然 1422
系统 1414
这么 1412
同时 1403
使 1401
真正 1397
另 1391
信息 1376
社会 1375
一点 1336
存在 1332
事实上 1326
前 1323
之后 1311
完全 1300
却 1298
来自 1298
每 1298
发展 1290
了解 1281
看看 1274
作为 1273
一直 1268
创造 1268
公司 1249
情况 1235
出来 1234
！ 1232
整个 1231
结果 1228
其实 1227
决定 1226
大脑 1226
甚至 1222
也许 1219
两个 1218
想法 1212
想要 1207
找到 1204
问 1203
由 1199
帮助 1198
展示 1197
为了 1188
项目 1183
影响 1181
地球 1177
－ 1177
于是 1173
简单 1160
只有 1156
过程 1151
有些 1149
的话 1149
产生 1143
变得 1137
过去 1134
照片 1129
% 1128
当时 1124
才 1123
一次 1115
感觉 1112
同样 1109
相信 1093
: 1082
之前 1079
没 1073
一切 1068
许多 1066
例子 1062
拥有 1057
未来 1038
环境 1026
可 1021
组织 1020
出现 1015
原因 1005
选择 1001
城市 992
非洲 983
理解 982
有趣 980
之间 978
不过 974
其 958
想象 957
解决 956
怎样 951
演讲 941
我要 938
如此 936
10 935
笑 932
音乐 931
提供 926
而是 923
科学 921
学习 919
讲 918
生物 913
变成 908
? 907
能力 906
动物 900
经济 892
20 887
叫 887
听 887
学校 881
岁 877
比如 875
意识 874
写 866
内 857
教育 856
一位 849
♫ 847
月 847
无法 846
成功 845
思考 844
有人 840
是否 828
细胞 826
朋友 824
行为 824
成 823
印度 812
部分 809
学生 806
谁 806
带 802
建筑 799
是因为 799
网络 799
那样 799
声音 794
者 793
掌声 792
利用 791
走 780
点 777
她们 772
全球 771
文化 766
进入 764
之 763
大概 763
完成 761
建立 761
特别 760
空间 760
； 759
TED 758
制造 757
带来 756
我会 756
更好 752
科技 751
政府 748
正 747
食物 747
尝试 743
钱 742
巨大 740
宇宙 738
方面 732
关系 731
历史 731
身体 731
确实 730
第一个 729
一件 727
变化 727
语言 727
之一 726
另外 724
女性 720
控制 720
一定 718
《 716
》 716
经历 716
啊 713
最终 711
电脑 708
感到 698
机会 697
回到 694
里面 693
多少 692
大约 691
一天 690
几个 688
自然 686
叫做 685
运动 683
治疗 682
解释 682
请 682
吃 681
实验 681
做到 679
意味着 674
中国 673
一部分 672
复杂 672
看起来 672
意义 670
起 670
计划 666
基因 665
性 663
分享 660
高 660
太 659
等 659
继续 654
曾 653
听到 652
更加 652
电影 651
医生 644
几乎 642
联系 642
艺术 642
事物 641
小时 641
拿 641
健康 640
则 639
才能 639
个人 637
作品 637
总是 637
首先 634
获得 633
游戏 632
病人 627
力量 626
机器 626
模式 624
将会 621
该 616
包括 615
各种 614
活动 614
安全 611
买 610
制作 608
3 606
花 606
视频 606
最好 604
关注 603
5 602
意思 596
接受 596
仅仅 595
答案 595
机器人 594
领域 593
谢谢 592
中心 590
水 587
爱 585
2 582
地区 582
曾经 582
别人 580
重新 579
做出 578
结构 578
实现 577
想到 577
讨论 577
身上 572
主要 570
产品 570
自我 570
1 568
工具 567
一张 564
价值 564
即使 564
参与 561
上面 559
汽车 559
不要 558
市场 558
模型 558
这一 558
事实 556
发明 556
明白 554
概念 553
站 553
像是 552
十分 552
大量 552
比较 552
病毒 552
准备 551
疾病 551
类似 551
最大 549
有关 549
每天 548
美元 547
合作 546
家庭 546
区域 545
或是 545
放在 545
目标 545
世纪 544
正是 544
理论 544
努力 543
海洋 542
然而 542
观察 537
接下来 536
有点 535
以前 534
认识 533
显示 531
虽然 531
作用 530
唯一 530
不断 529
代表 529
住 528
三个 523
材料 523
用来 521
找 520
其它 519
观点 519
30 518
保护 518
接着 518
一年 517
很大 517
进化 515
不仅仅 514
50 512
大多数 511
母亲 511
令人 510
年代 510
那时 510
容易 508
或许 507
一@@ 506
只要 506
数字 506
看见 504
战争 502
生产 502
． 501
寻找 499
人口 498
形成 495
科学家 495
图片 494
政治 494
观众 494
注意 492
处理 491
资源 490
书 488
时代 488
来到 488
第一次 487
最近 484
基本 483
通常 483
直到 482
死 481
不@@ 480
传统 480
挑战 480
到底 479
持续 479
哪里 477
一条 476
女人 476
儿童 474
结束 474
支持 473
后来 471
家 471
些 470
这儿 470
越来越 468
车 467
反应 466
达到 466
谈论 464
这张 464
办法 463
实验室 462
癌症 462
相当 462
大@@ 461
超过 461
长 461
一只 460
具有 460
间 460
名字 459
下来 456
不再 456
等等 456
尽管 455
离开 455
一名 454
如 454
能量 452
计算机 452
内容 451
基本上 451
测试 451
媒体 450
男人 450
知识 449
社区 449
种 449
真实 448
大学 447
至少 447
有着 446
根本 446
伟大 444
坐在 444
快乐 444
探索 444
增长 443
是从 442
考虑 441
已 439
石油 439
15 438
4 438
使得 438
看着 438
足够 438
不管 437
仍然 437
行动 437
错误 437
下面 435
分子 435
愿意 435
大部分 434
提出 434
样子 434
死亡 434
速度 432
正确 431
画 431
导致 430
设备 430
不想 427
范围 427
回答 425
现实 425
的确 424
记得 424
目前 423
网站 422
数量 420
物种 420
上帝 417
自由 417
角度 417
试图 417
交流 416
移动 414
这件 414
充满 413
父亲 413
么 412
英国 409
应用 408
... 406
减少 404
小@@ 404
所有人 404
数学 404
突然 404
记录 404
几年 403
哦 402
好像 402
年前 402
有效 402
计算 402
感受 401
正如 401
本身 400
服务 399
现象 399
有个 398
可是 396
证明 396
那种 396
只能 395
程度 395
老师 395
DNA 394
图 394
形式 394
例如 393
建造 392
此 391
直接 391
飞机 391
增加 390
机构 390
植物 390
讲述 390
不用 389
方向 389
能源 389
人生 388
手术 387
以后 386
失去 385
全世界 384
很快 384
面对 384
6 383
基础 382
说明 381
不到 380
手 380
100 379
在于 379
清楚 379
不得不 378
互联网 378
每年 376
要求 376
创新 374
拍摄 374
明显 373
周围 372
女孩 372
实际 372
那儿 371
快 370
这项 370
其他人 369
受到 369
由于 369
一项 368
保持 367
来看 366
不仅 365
传播 365
位置 365
根据 365
造成 365
某些 364
表现 364
是不是 363
肯定 363
先 362
刚刚 362
即 359
开 358
光 357
天 357
投资 357
幸福 355
物质 355
一场 354
及 354
经常 353
经过 352
除了 352
分钟 351
多么 351
状态 351
体验 349
一般 348
困难 348
40 347
妇女 347
介绍 346
• 342
一段 342
功能 342
本书 342
纽约 342
自身 341
不错 340
事件 340
似乎 340
定义 340
民主 340
永远 340
父母 340
真是 340
头 339
精神 338
视觉 337
关键 336
而言 336
从来 334
宗教 334
所说 334
担心 334
相关 334
遇到 334
加入 333
亿 332
医疗 332
团队 332
地图 332
进 332
一旦 331
提到 331
手机 330
眼睛 330
完美 329
组成 329
细菌 329
随着 329
哪 328
效果 328
阶段 328
危险 327
谈 327
医院 326
药物 326
道德 326
称为 325
聪明 325
生存 323
非 323
假如 322
年轻 321
绿色 321
难 321
各位 320
式 320
化 319
回来 319
妈妈 319
有时 319
12 318
某种 318
用于 318
严重 317
我能 317
美丽 317
专家 316
他人 316
描述 316
放 316
欧洲 316
词 316
&apos; 315
指 315
时刻 314
智慧 313
这次 313
预测 313
星球 312
有@@ 312
确定 312
受 311
电话 311
艺术家 311
英尺 311
连接 310
面临 310
别的 309
房间 309
8 308
信号 308
土地 308
形状 308
思想 308
您 308
正常 308
允许 307
共同 307
嗯 307
还要 307
分析 306
参加 306
帮 306
提高 306
7 305
小孩 305
当地 305
相同 305
表达 305
开发 303
第一 303
表面 303
颜色 303
两种 302
从而 302
图像 302
奇怪 302
绝对 301
越 301
先生 300
目的 300
鱼 300
会议 299
玩 299
一系列 298
创作 298
婴儿 298
打开 298
过来 298
任务 297
神奇 296
路 296
显然 295
什么样 293
全部 293
它会 292
拍 291
教 291
运作 290
一半 288
一家 288
装置 288
万 287
太阳 286
尤其 286
无@@ 286
梦想 286
假设 285
飞行 285
至 284
转变 284
需 284
想想 283
到达 282
去年 282
消失 282
训练 282
话 282
之中 281
对此 281
收集 281
需求 281
体系 280
便 280
号 280
运用 280
接触 279
这@@ 277
强大 276
商业 275
房子 275
时期 275
英里 275
设计师 275
试验 275
一群 274
处 274
打 274
第二 274
人@@ 273
因素 273
某个 273
所谓 272
学 271
有意思 271
比如说 271
糟糕 271
表明 271
读 271
软件 271
值得 270
看上去 270
艾滋病 270
见 270
60 269
同 269
处于 269
当中 269
狗 269
第二个 269
错 269
子 268
建议 268
痛苦 268
线 268
美好 268
调查 268
以为 267
每次 267
物体 267
管理 267
西方 267
25 266
工程 266
如今 264
中间 263
无论 263
花费 263
大小 262
感兴趣 262
标准 262
表演 262
跑 262
动作 261
惊人 261
人民 260
怎么样 260
成长 260
放到 260
一块 259
中@@ 259
测量 259
现代 259
类 259
80 258
学会 258
程序 258
经验 258
鼓掌 257
基于 256
多@@ 254
掉 254
新闻 254
恐惧 253
电视 253
降低 253
克 252
学到 252
将要 252
冲突 251
四个 251
失败 251
快速 251
条 251
称之为 251
空气 251
结合 251
仅 250
内部 250
啦 250
神经 250
度 249
很棒 249
有时候 249
质量 249
吸引 248
特殊 248
作 247
离 247
要是 247
规则 247
兴趣 246
水平 245
真 245
表示 245
一份 244
在座 244
投入 244
收入 244
法律 244
拉 243
斯 243
早期 243
卖 242
独立 242
进步 242
兴奋 241
家伙 241
远 241
变 240
和平 240
靠 240
保证 239
听说 239
普通 239
条件 239
生长 239
蚂蚁 239
话题 239
刚 238
下去 237
关心 237
再次 237
恐龙 237
一步 236
下降 236
世界各地 236
出去 236
刚才 236
名 236
差不多 236
感染 236
拯救 236
政策 236
9 235
属于 235
行星 235
见到 235
角色 235
两年 234
可怕 234
成本 234
就要 233
风险 233
倍 232
可能性 232
家里 232
运行 232
之@@ 231
幸运 231
上@@ 230
停止 230
博客 230
少 230
常常 230
低 229
接近 229
晚上 228
米 228
办公室 227
区 227
危机 227
工程师 227
星系 227
这位 227
一生 226
力 226
国际 226
气候 226
食品 226
18 225
免费 225
情绪 225
我@@ 225
课程 225
出生 224
弄 224
暴力 224
演奏 224
状况 224
肿瘤 224
革命 224
屏幕 223
并非 223
神经元 223
─ 222
同事 222
相互 222
达 222
道 222
总统 221
昆虫 221
法 221
火星 221
英语 221
距离 221
一台 220
很难 220
情感 220
主题 219
塑料 219
外 219
权利 219
森林 219
模拟 219
相似 219
谈谈 219
以来 218
干 218
引起 218
彼此 218
长大 218
价格 217
儿子 217
患者 217
器 216
太阳能 216
特 216
腿 216
阿富汗 216
发出 215
平均 215
打算 215
援助 215
看待 215
开放 214
相对 214
蓝色 214
不可思议 213
做些 213
元素 213
文明 213
日 213
本质 213
马上 213
90 212
互相 212
思维 212
所在 212
挺 212
特定 212
球 212
理由 212
疯狂 212
一部 211
三@@ 211
互动 211
层面 211
日本 211
说话 211
资金 211
逐渐 211
飞 211
上升 210
对话 210
背景 210
邀请 210
11 209
不幸 209
坐 209
左边 209
教授 209
积极 209
行 209
且 208
回 208
因 208
男性 208
相反 208
鼓励 208
人群 207
仍 207
包含 207
压力 207
行业 207
贫穷 207
高兴 207
二氧化碳 206
人员 206
取得 206
杂志 206
负责 206
不够 205
十年 205
爆炸 205
威胁 204
活 204
漂亮 204
证据 204
200 203
也就是说 203
人物 203
从未 203
任何人 203
德 203
星期 203
蛋白质 203
连 203
阅读 203
器官 202
复制 202
将来 202
报道 202
放弃 202
化学 201
噢 201
害怕 201
感谢 201
物理 201
背后 201
原始 200
感 200
红色 200
人会 199
公共 199
实在 199
广告 199
按 199
次 199
试着 199
...... 198
或者说 198
水@@ 198
自 198
左右 197
物 197
监狱 197
企业 196
分 196
男孩 196
秘密 196
穿 196
终于 196
英雄 196
规模 196
地@@ 195
生 195
面前 195
发表 194
型 194
心脏 194
温度 194
熟悉 194
享受 193
位 193
到处 193
找出 193
无 193
适应 193
集中 193
之外 192
方案 192
著名 192
量 192
件 191
医学 191
惊讶 191
收到 191
演示 191
玩耍 191
理念 191
破坏 191
纸 191
群体 191
这点 191
右边 190
居住 190
很少 190
承认 190
机 190
生物学 190
相比 190
看法 190
记住 190
面包 190
中有 189
回家 189
操作 189
最初 189
约 189
采用 189
阻止 189
70 188
占 188
同意 188
妻子 188
本 188
某种程度 188
认知 188
诊断 188
A 187
女儿 187
年轻人 187
改善 187
细节 187
身边 187
三 186
会@@ 186
前面 186
博物馆 186
建设 186
往往 186
有没有 186
比赛 186
燃料 186
2000 185
信仰 185
加 185
工业 185
平衡 185
报纸 185
有用 185
病 185
结论 185
那@@ 185
难以置信 185
两@@ 184
完 184
工厂 184
仔细 183
感知 183
检测 183
气候变化 183
观念 183
一段时间 182
农业 182
呼吸 182
留下 182
给予 182
责任 182
不好 181
原则 181
大型 181
太空 181
很小 181
旅行 181
电子 181
走进 181
之所以 180
多年 180
文章 180
究竟 180
跳 180
区别 179
哪些 179
基因组 179
心 179
恢复 179
报告 179
而已 179
追求 179
主意 178
体内 178
各个 178
后面 178
核心 178
美 178
送 178
一边 177
全新 177
女士 177
提 177
稳定 177
谈到 177
企鹅 176
外面 176
重复 176
附近 176
s 175
个体 175
位于 175
团体 175
慢慢 175
拉@@ 175
热 175
独特 175
贡献 175
近 175
非常感谢 175
16 174
一片 174
下@@ 174
垃圾 174
富有 174
年龄 174
约翰 174
针对 174
面 174
信任 173
动 173
原理 173
各种各样 173
文字 173
棒 173
疫苗 173
老鼠 173
门 173
S@@ 172
一座 172
以上 172
如同 172
差异 172
带到 172
新@@ 172
某 172
･ 172
别 171
动力 171
往 171
循环 171
武器 171
段 171
重大 171
领导 171
为此 170
出@@ 170
启发 170
得以 170
穿过 170
避免 170
权力 169
满足 169
脚 169
血管 169
以下 168
创意 168
奇妙 168
好处 168
比例 168
污染 168
称 168
粒子 168
网上 168
脆弱 168
T@@ 167
农民 167
剩下 167
加上 167
坏 167
成员 167
更大 167
看过 167
走向 167
趋势 167
较 167
长期 167
今年 166
利益 166
可@@ 166
尔 166
激励 166
迅速 166
坚持 165
大规模 165
完整 165
开心 165
恩 165
来源 165
自@@ 165
船 165
500 164
伦敦 164
大自然 164
展现 164
总结 164
恒星 164
树 164
皮肤 164
要说 164
警察 164
输入 164
进来 164
限制 164
/ 163
21 163
事业 163
四@@ 163
指出 163
按照 163
看不到 163
边 163
释放 163
零 163
一句 162
亿美元 162
军队 162
创建 162
原来 162
扫描 162
老 162
这会 162
部门 162
之类 161
从事 161
倒 161
具体 161
心@@ 161
搞 161
爱因斯坦 161
联合国 161
鸟 161
克里斯 160
必要 160
神 160
美妙 160
记忆 160
说法 160
那天 160
古老 159
图表 159
建 159
标记 159
高度 159
﹐ 159
值 158
制度 158
发展中国家 158
幻灯片 158
强烈 158
愿望 158
技巧 158
掌握 158
播放 158
改造 158
旅程 158
记者 158
适合 158
途径 158
一套 157
人体 157
传递 157
便宜 157
做成 157
早上 157
沟通 157
深入 157
重点 157
G@@ 156
万美元 156
声 156
处在 156
家人 156
影片 156
我用 156
猜 156
第三个 156
类型 156
购买 156
道路 156
银行 156
顺便 156
刺激 155
卡@@ 155
很长 155
怀疑 155
热情 155
看来 155
超越 155
部落 155
万@@ 154
典型 154
卫星 154
却是 154
变革 154
广泛 154
确保 154
维持 154
获取 154
a 153
专业 153
从中 153
大卫 153
小小的 153
建筑师 153
成果 153
物品 153
药 153
--- 152
1000 152
B@@ 152
P@@ 152
习惯 152
作家 152
打@@ 152
提醒 152
数 152
死亡率 152
特征 152
猴子 152
秒 152
解决问题 152
H@@ 151
令 151
半 151
合适 151
哪个 151
哪儿 151
对待 151
消息 151
爸爸 151
理想 151
谷歌 151
转移 151
R@@ 150
一本 150
伊拉克 150
公众 150
内心 150
十@@ 150
平台 150
搜索 150
灾难 150
社交 150
资料 150
金钱 150
马 150
体 149
分布 149
山 149
想像 149
死去 149
消费者 149
用@@ 149
碳 149
等待 149
诗 149
严肃 148
为何 148
企业家 148
公开 148
反对 148
发 148
可行 148
员工 148
得出 148
期望 148
电池 148
行走 148
财富 148
M@@ 147
不停 147
创造力 147
卡 147
回去 147
我来 147
旋转 147
机制 147
一点点 146
即将 146
好消息 146
寿命 146
态度 146
气体 146
种族 146
舞台 146
贫困 146
14 145
D@@ 145
了不起 145
判断 145
成就 145
拿到 145
旁边 145
超级 145
选举 145
高@@ 145
一辆 144
交谈 144
张 144
成千上万 144
手@@ 144
消费 144
版本 144
玩具 144
设想 144
过@@ 144
他会 143
公园 143
心理 143
检查 143
深刻 143
生态系统 143
职业 143
说服 143
轨道 143
这场 143
黑洞 143
17 142
e 142
块 142
天@@ 142
带给 142
技能 142
早 142
浪费 142
环保 142
祖先 142
翻译 142
进去 142
不久 141
两 141
做法 141
做过 141
懂 141
望远镜 141
渴望 141
用户 141
画面 141
脸 141
衣服 141
阿@@ 141
19 140
二 140
培养 140
多样性 140
奖励 140
标志 140
没什么 140
法国 140
注意力 140
种类 140
竞争 140
组合 140
重 140
风 140
州 139
应对 139
录像 139
管 139
五年 138
伤害 138
同一个 138
图书馆 138
年里 138
总 138
手段 138
流行 138
灭绝 138
简直 138
节目 138
除非 138
作出 137
依靠 137
化石 137
有所 137
案例 137
漫画 137
率 137
相当于 137
聚集 137
自行车 137
装 137
解决方案 137
调整 137
身份 137
进一步 137
障碍 137
不可 136
五@@ 136
发光 136
启动 136
构成 136
灯 136
片 136
选 136
墙 135
当@@ 135
当作 135
沙漠 135
涉及 135
猪 135
现场 135
缺乏 135
转 135
众人 134
南非 134
台 134
同情心 134
开@@ 134
忘记 134
整体 134
肉 134
诞生 134
非常简单 134
L@@ 133
上去 133
专注 133
共享 133
准确 133
几天 133
博士 133
反 133
呈现 133
图案 133
大众 133
展览 133
怎么办 133
曲线 133
最高 133
电力 133
肌肉 133
自动 133
24 132
300 132
专利 132
依赖 132
倾向 132
同情 132
强调 132
旧 132
智能 132
期待 132
来@@ 132
灵感 132
算 132
致命 132
造 132
道理 132
麻烦 132
C 131
K@@ 131
优秀 131
倾听 131
喝 131
情形 131
手指 131
期间 131
极其 131
一面 130
三年 130
付出 130
公民 130
原子 130
就算 130
开车 130
既 130
本来 130
村庄 130
特性 130
穆斯林 130
网 130
视角 130
000 129
C@@ 129
Google 129
i 129
依然 129
便是 129
修复 129
关联 129
后果 129
商品 129
惊奇 129
成立 129
提升 129
比@@ 129
牌 129
部 129
长@@ 129
B 128
「 128
」 128
两者 128
几@@ 128
基金会 128
字 128
展开 128
市 128
待 128
打电话 128
排放 128
椅子 128
活跃 128
穿着 128
费用 128
这方面 128
长时间 128
魅力 128
一篇 127
以@@ 127
伊朗 127
估计 127
保存 127
停 127
外@@ 127
尊重 127
未 127
杀死 127
流 127
激情 127
点子 127
统计 127
要么 127
难以 127
交易 126
利 126
变暖 126
大会 126
好奇 126
层 126
彻底 126
摆脱 126
攻击 126
效应 126
普遍 126
没法 126
精确 126
糖 126
能否 126
衡量 126
观看 126
逻辑 126
b@@ 125
儿 125
全球化 125
女 125
应 125
德国 125
放大 125
消耗 125
玻璃 125
肯尼亚 125
黑暗 125
作者 124
光@@ 124
合成 124
呆 124
围绕 124
地点 124
平等 124
斯@@ 124
期 124
构建 124
真相 124
能@@ 124
脑 124
谈话 124
采访 124
重建 124
随后 124
&#91; 123
仪器 123
印象 123
取决于 123
名为 123
场 123
培训 123
多数 123
客户 123
尽可能 123
带有 123
执行 123
来讲 123
样本 123
模仿 123
而@@ 123
边缘 123
这部 123
马@@ 123
一幅 122
发挥 122
变@@ 122
地面 122
士兵 122
对方 122
意见 122
有点像 122
症状 122
穷人 122
群 122
还会 122
这时 122
这条 122
采取 122
队 122
阳光 122
黑猩猩 122
&#93; 121
13 121
s@@ 121
举个 121
人数 121
从@@ 121
手臂 121
昨天 121
混合 121
紧张 121
舞蹈 121
说道 121
赢得 121
飞行器 121
驱动 121
主义 120
人性 120
冒险 120
前@@ 120
固定 120
基础设施 120
探讨 120
教师 120
无论是 120
极端 120
每@@ 120
没错 120
演员 120
片段 120
特@@ 120
融合 120
认真 120
象征 120
达成 120
o 119
久 119
之内 119
内@@ 119
尼日利亚 119
应当 119
想起 119
标签 119
正@@ 119
海@@ 119
火箭 119
百万 119
种植 119
评论 119
送到 119
邻居 119
CA 118
不少 118
体现 118
全 118
发布 118
小型 118
崩溃 118
引发 118
影像 118
慈善 118
指数 118
更为 118
派 118
稍微 118
致力于 118
不了 117
不知 117
丰富 117
以至于 117
保留 117
做好 117
噪音 117
懂得 117
扩大 117
氧气 117
短 117
经济学家 117
语 117
赋予 117
预防 117
领袖 117
400 116
一颗 116
五个 116
信念 116
动机 116
天空 116
头脑 116
学院 116
常见 116
形态 116
愤怒 116
成@@ 116
改进 116
混乱 116
精彩 116
表情 116
预算 116
加@@ 115
强 115
机械 115
直觉 115
血液 115
里@@ 115
饮食 115
一遍 114
上学 114
兄弟 114
入 114
全国 114
公里 114
取 114
干细胞 114
拒绝 114
没@@ 114
看出 114
蚊子 114
象 114
重要性 114
d@@ 113
p@@ 113
一致 113
先@@ 113
发@@ 113
地位 113
夏天 113
太@@ 113
律师 113
心脏病 113
感情 113
教堂 113
照顾 113
这边 113
难道 113
雕塑 113
N@@ 112
m@@ 112
t@@ 112
书籍 112
伊斯兰教 112
名叫 112
吸收 112
坐下 112
塔 112
寻求 112
小组 112
小说 112
所知 112
承诺 112
改革 112
教学 112
正好 112
状 112
着手 112
金 112
金属 112
A@@ 111
以色列 111
光线 111
埃及 111
娱乐 111
安@@ 111
岛 111
意外 111
推广 111
放进 111
板 111
沿着 111
电 111
空中 111
蜜蜂 111
达尔文 111
难题 111
高中 111
一层 110
丈夫 110
亚洲 110
加拿大 110
口 110
咖啡 110
商店 110
喜爱 110
工人 110
差别 110
损失 110
推动 110
极大 110
物理学家 110
至今 110
进展 110
隐藏 110
集体 110
驾驶 110
i@@ 109
分@@ 109
前进 109
合理 109
哇 109
圈 109
对象 109
巴基斯坦 109
查看 109
桌子 109
流动 109
潜力 109
潜在 109
爬 109
犯罪 109
疟疾 109
纳 109
练习 109
组 109
课 109
路上 109
销售 109
人工 108
制定 108
包 108
发射 108
可爱 108
土壤 108
够 108
奇迹 108
巴西 108
抓住 108
无限 108
沮丧 108
河 108
活着 108
牛 108
理性 108
矛盾 108
种子 108
自从 108
苹果 108
覆盖 108
18@@ 107
六@@ 107
四 107
场景 107
尼 107
庞大 107
微小 107
有机 107
第 107
算法 107
良好 107
设置 107
不行 106
五 106
出版 106
分离 106
北部 106
唱 106
多种 106
字母 106
学者 106
实践 106
对@@ 106
度过 106
感官 106
摄影 106
枪 106
理 106
生态 106
盒子 106
街道 106
辩论 106
上来 105
产业 105
仪式 105
农场 105
半@@ 105
呀 105
存活 105
宣传 105
开展 105
引擎 105
得@@ 105
忽略 105
护士 105
有限 105
清晰 105
理查德 105
生@@ 105
白色 105
百分之 105
着迷 105
私人 105
色 105
规律 105
这有 105
这类 105
黄色 105
150 104
c@@ 104
不必 104
乐观 104
争论 104
优势 104
公平 104
另一方面 104
文 104
热爱 104
现状 104
艰难 104
若 104
起源 104
链接 104
一组 103
一首 103
三分之一 103
嘿 103
微笑 103
景象 103
每当 103
激发 103
爆发 103
生物学家 103
看不见 103
策略 103
要@@ 103
重@@ 103
镜头 103
页 103
频率 103
饥饿 103
e@@ 102
专门 102
交换 102
以外 102
以此 102
全@@ 102
去世 102
只不过 102
太棒了 102
头@@ 102
实施 102
影响力 102
成分 102
投票 102
折叠 102
文件 102
法则 102
现有 102
编辑 102
罗 102
西@@ 102
论 102
走出 102
运转 102
这幅 102
面积 102
额外 102
鲨 102
F@@ 101
之下 101
交通 101
代价 101
价值观 101
再也 101
单词 101
回应 101
墙上 101
如@@ 101
家长 101
心灵 101
构造 101
洛杉矶 101
照 101
珊瑚礁 101
生意 101
角落 101
转@@ 101
随机 101
E@@ 100
一个月 100
一根 100
中学 100
众多 100
区分 100
同一 100
圣经 100
底部 100
延伸 100
志愿者 100
意大利 100
效率 100
最佳 100
染色体 100
气 100
油 100
流感 100
火 100
物理学 100
电@@ 100
相 100
神秘 100
第三 100
繁殖 100
识别 100
试 100
y@@ 99
争议 99
促进 99
信 99
决策 99
反映 99
命名 99
回收 99
小心 99
干什么 99
庆祝 99
形象 99
所@@ 99
打破 99
换 99
提取 99
撞 99
敌人 99
给出 99
过度 99
那边 99
靠近 99
％ 99
一周 98
他@@ 98
传感器 98
制 98
加州 98
千@@ 98
对比 98
屋顶 98
微生物 98
患有 98
愚蠢 98
戴 98
指导 98
时@@ 98
明确 98
满 98
版 98
珊瑚 98
疼痛 98
白@@ 98
相@@ 98
真@@ 98
穿越 98
符号 98
适用 98
领导者 98
鲨鱼 98
与此同时 97
中东 97
原本 97
反馈 97
大陆 97
好@@ 97
安 97
明天 97
桥 97
相机 97
研发 97
组装 97
老@@ 97
规定 97
风格 97
一把 96
为@@ 96
乐器 96
众笑 96
体会 96
保罗 96
先进 96
加速 96
动画 96
反而 96
史 96
安排 96
尼@@ 96
尽 96
当今 96
想象力 96
换句话说 96
支付 96
显得 96
歌 96
激动 96
由此 96
石头 96
祖母 96
自然界 96
药品 96
这份 96
这块 96
青少年 96
99 95
er 95
传达 95
储存 95
单位 95
厨房 95
地说 95
密度 95
序列 95
引用 95
扔 95
欣赏 95
讨厌 95
资本 95
那位 95
防止 95
高级 95
g@@ 94
一间 94
万人 94
乐趣 94
保护区 94
停下来 94
冰川 94
利@@ 94
华盛顿 94
大气 94
差 94
引导 94
接 94
最新 94
林 94
猫 94
瑞典 94
瞬间 94
礼物 94
贴 94
跟着 94
重视 94
鸟类 94
黑人 94
2@@ 93
一堆 93
一所 93
七@@ 93
亿年 93
其@@ 93
单一 93
听众 93
哲学 93
回顾 93
地下 93
对称 93
小孩子 93
探测 93
斗争 93
曼 93
最@@ 93
欢迎 93
步骤 93
深 93
碰到 93
移植 93
紧密 93
赚钱 93
这句 93
门@@ 93
餐厅 93
骨头 93
y 92
人士 92
受伤 92
在我看来 92
安德森 92
得知 92
摄像机 92
比起 92
算是 92
花@@ 92
花粉 92
认同 92
讲故事 92
非洲人 92
W@@ 91
三种 91
下一代 91
人人 91
份 91
低@@ 91
关闭 91
各 91
和@@ 91
城 91
塑造 91
大气层 91
宣布 91
携带 91
本@@ 91
水下 91
爱情 91
现今 91
界 91
符合 91
袭击 91
转换 91
连@@ 91
阿拉伯 91
面部 91
35 90
45 90
X 90
en@@ 90
一代 90
三维 90
世上 90
以便 90
促使 90
冰 90
协调 90
古@@ 90
可不是 90
太平洋 90
好事 90
好好 90
提@@ 90
数学家 90
昂贵 90
模糊 90
气球 90
海水 90
液体 90
灵魂 90
症 90
磅 90
禁止 90
立刻 90
藏 90
躺 90
远远 90
追踪 90
一会儿 89
两次 89
二@@ 89
人造 89
克@@ 89
分开 89
可见 89
好玩 89
差距 89
很@@ 89
心理学 89
放入 89
无聊 89
极 89
查尔斯 89
演化 89
第二天 89
粮食 89
红@@ 89
级 89
街 89
规划 89
赢 89
震惊 89
一方面 88
去过 88
发起 88
地上 88
太多 88
奖 88
幅 88
德@@ 88
扩张 88
拿出 88
探测器 88
擅长 88
新型 88
最为 88
海 88
经济学 88
羊 88
美金 88
车@@ 88
运动员 88
食用 88
! 87
充分 87
全球性 87
八@@ 87
公@@ 87
及其 87
后@@ 87
品牌 87
回报 87
地震 87
天气 87
头发 87
巴@@ 87
干净 87
抓 87
措施 87
比尔 87
游泳 87
生成 87
用到 87
疗法 87
行@@ 87
解答 87
讲话 87
转向 87
陷入 87
非凡 87
预期 87
75 86
l@@ 86
供应 86
剂 86
取代 86
含义 86
坚信 86
增强 86
天才 86
师 86
心里 86
显著 86
根 86
此外 86
民族 86
法@@ 86
烹饪 86
界面 86
皮 86
笔 86
罗@@ 86
般的 86
这片 86
金枪鱼 86
龙 86
Chris 85
两倍 85
举 85
伊 85
伊斯兰 85
伴随 85
克服 85
再生 85
出发 85
千万 85
四年 85
塔@@ 85
墨西哥 85
夫 85
委员会 85
布@@ 85
所处 85
打印 85
描绘 85
教室 85
日子 85
治愈 85
海岸 85
白 85
研究所 85
芯片 85
角 85
费 85
赚 85
进程 85
远离 85
2008 84
5000 84
亿人 84
俄罗斯 84
六个 84
分裂 84
分配 84
即便 84
即兴 84
在线 84
家@@ 84
掌控 84
敏感 84
日常生活 84
旧金山 84
更@@ 84
极度 84
某人 84
树木 84
格 84
清洁 84
渐渐 84
特点 84
虚拟 84
部队 84
难@@ 84
David 83
on 83
不像 83
全都 83
具备 83
写作 83
双@@ 83
品 83
安静 83
小行星 83
布 83
忙 83
成像 83
我花 83
挂 83
摄影师 83
教会 83
无线 83
楼 83
毫无 83
洞 83
演出 83
犯 83
美@@ 83
群岛 83
翅膀 83
腐败 83
诊所 83
这才 83
高效 83
2007 82
600 82
E 82
不让 82
内在 82
只会 82
吃惊 82
否则 82
圣@@ 82
字典 82
已有 82
幻觉 82
想着 82
成绩 82
整合 82
气@@ 82
流@@ 82
海豚 82
点击 82
燃烧 82
眼 82
笑话 82
结婚 82
耳朵 82
脂肪 82
论文 82
走路 82
通@@ 82
那一刻 82
金@@ 82
顺利 82
1@@ 81
t 81
万年前 81
亚@@ 81
四处 81
尔@@ 81
布朗 81
平 81
异常 81
悲剧 81
承受 81
整@@ 81
无数 81
无论如何 81
最早 81
朝 81
权 81
某种意义 81
概率 81
消除 81
看@@ 81
睡 81
突破 81
竟然 81
联合 81
至关重要 81
蚊帐 81
课堂 81
转化 81
运输 81
一分钟 80
不论 80
与众不同 80
伊@@ 80
信心 80
兹 80
北极 80
在场 80
地理 80
奴隶 80
媒介 80
室 80
层次 80
居民 80
岩石 80
工作室 80
心中 80
性@@ 80
悲伤 80
扩展 80
推进 80
搬 80
有力 80
海底 80
深海 80
留在 80
短片 80
确信 80
笔记本电脑 80
苍蝇 80
采集 80
重量 80
韩国 80
黄金 80
ar@@ 79
es 79
in 79
一小 79
伙伴 79
伤 79
假 79
动态 79
单@@ 79
反射 79
变为 79
只@@ 79
叶 79
合 79
和谐 79
天堂 79
安装 79
定位 79
宝宝 79
尾巴 79
建筑物 79
成人 79
扮演 79
满意 79
点@@ 79
百@@ 79
纤维 79
脑袋 79
荣幸 79
西 79
跳舞 79
透明 79
酷 79
鱼类 79
an 78
k@@ 78
到来 78
南部 78
同@@ 78
员 78
命运 78
土星 78
基金 78
失望 78
好比 78
婚姻 78
密码 78
心理学家 78
数@@ 78
方便 78
普@@ 78
框架 78
正义 78
热@@ 78
相连 78
美分 78
菜 78
诗人 78
越@@ 78
X光 77
~ 77
一头 77
一小部分 77
兰 77
再@@ 77
受@@ 77
各自 77
图形 77
外部 77
多个 77
女@@ 77
姥 77
学家 77
带领 77
平面 77
年间 77
形 77
愉快 77
承担 77
机场 77
毕竟 77
温室 77
牙齿 77
系 77
绘画 77
网页 77
融入 77
解读 77
证实 77
试试 77
起@@ 77
部位 77
长度 77
阐述 77
不去 76
业 76
乌干达 76
代码 76
农村 76
分散 76
利润 76
制成 76
多次 76
大多 76
奥@@ 76
实时 76
撞击 76
放@@ 76
整理 76
既然 76
本地 76
极@@ 76
毕业 76
波@@ 76
神@@ 76
神话 76
窗户 76
绝大多数 76
绝望 76
统一 76
袋 76
评估 76
质疑 76
资助 76
跨越 76
身@@ 76
这座 76
连续 76
页面 76
鼠标 76
I 75
com 75
ing 75
乐队 75
乳腺癌 75
事儿 75
今日 75
协议 75
当成 75
摧毁 75
替代 75
月球 75
水中 75
注入 75
爱@@ 75
相应 75
祈祷 75
纳@@ 75
结尾 75
蜘蛛 75
读者 75
辐射 75
这段 75
遭受 75
随便 75
音乐家 75
( 74
O@@ 74
Twitter 74
en 74
一支 74
以往 74
你@@ 74
偶然 74
入@@ 74
公正 74
几分钟 74
出色 74
副 74
协作 74
受害者 74
变异 74
含量 74
告知 74
哈@@ 74
喜剧 74
学科 74
家具 74
尺寸 74
幻想 74
成熟 74
房屋 74
抑制 74
抽象 74
接到 74
推@@ 74
未@@ 74
水母 74
睡眠 74
老人 74
自豪 74
色彩 74
英文 74
营养 74
说@@ 74
谢谢你们 74
超@@ 74
跟踪 74
酒 74
非@@ 74
顿 74
领导人 74
黑@@ 74
w@@ 73
♪ 73
一同 73
于@@ 73
交给 73
体制 73
作业 73
分成 73
前提 73
剧院 73
勇气 73
双手 73
取出 73
国内 73
场所 73
基@@ 73
大楼 73
大象 73
太阳系 73
平常 73
开来 73
折纸 73
文@@ 73
样 73
没人 73
洞穴 73
潜水 73
牺牲 73
白人 73
皮@@ 73
眼镜 73
科 73
空@@ 73
童年 73
等于 73
纳米 73
聆听 73
节奏 73
萨@@ 73
蔬菜 73
血@@ 73
见过 73
设施 73
访问 73
诗歌 73
贸易 73
身处 73
退休 73
遗传 73
遥远 73
遵循 73
飞船 73
鼻子 73
Ch@@ 72
D 72
R 72
T 72
V@@ 72
之上 72
代替 72
使命 72
分类 72
前所未有 72
前景 72
单独 72
味道 72
地表 72
复杂性 72
小时候 72
座 72
无比 72
杀 72
村子 72
来源于 72
森 72
段时间 72
监控 72
神圣 72
精力 72
纽约时报 72
经营 72
缓慢 72
蘑菇 72
视力 72
解放 72
讽刺 72
设立 72
说出 72
贷款 72
达@@ 72
这台 72
鞋 72
黑色 72
3000 71
h@@ 71
iPhone 71
乔治 71
供 71
信@@ 71
各地 71
困扰 71
图@@ 71
基 71
屋子 71
山@@ 71
年@@ 71
很酷 71
忽视 71
恐怖 71
抛弃 71
排@@ 71
收获 71
术 71
机遇 71
权威 71
核能 71
植入 71
正面 71
火车 71
照明 71
种种 71
空 71
第一@@ 71
简短 71
红 71
详细 71
迪 71
阿 71
2005 70
I@@ 70
下午 70
主流 70
亲密 70
优雅 70
体@@ 70
作@@ 70
做点 70
全面 70
几十年 70
对抗 70
就让 70
干扰 70
推出 70
更新 70
毫无疑问 70
油@@ 70
海地 70
游 70
澳大利亚 70
焦虑 70
特技 70
瓦@@ 70
看作 70
碎片 70
立即 70
维@@ 70
舒服 70
草 70
高科技 70
鲸 70
3@@ 69
3D 69
o@@ 69
事是 69
亮 69
人脑 69
传染 69
何时 69
刀 69
午餐 69
合@@ 69
困境 69
国 69
天花 69
女士们 69
审视 69
小女孩 69
巴黎 69
惩罚 69
我刚 69
抱怨 69
拥抱 69
早晨 69
曲子 69
水源 69
法案 69
波士顿 69
深远 69
男子 69
第一步 69
编码 69
编程 69
缺少 69
缺陷 69
罗马 69
英寸 69
视为 69
诚实 69
起到 69
超 69
超市 69
轴 69
运算 69
还@@ 69
遗憾 69
重力 69
金融 69
钢琴 69
随时 69
雇佣 69
顶端 69
首次 69
2009 68
er@@ 68
一类 68
不太 68
公寓 68
出于 68
出售 68
各国 68
向前 68
含有 68
回@@ 68
天然 68
学@@ 68
对应 68
封面 68
巧克力 68
并不知道 68
底下 68
建成 68
弹 68
当下 68
怀孕 68
怎么回事 68
总@@ 68
战斗 68
按钮 68
挖掘 68
接@@ 68
族 68
板球 68
核武器 68
欲望 68
注射 68
玩家 68
生日 68
联盟 68
胜利 68
自信 68
芝加哥 68
观测 68
讲座 68
诸如此类 68
调@@ 68
过滤 68
迷人 68
酒店 68
首歌 68
骑 68
黑 68
22 67
n 67
n@@ 67
一大堆 67
不足 67
主义者 67
乳房 67
产物 67
仿佛 67
分解 67
化学物质 67
卡车 67
卢旺达 67
国会 67
多久 67
大胆 67
奥巴马 67
姆 67
开启 67
忘 67
我试 67
托马斯 67
排 67
无关 67
有害 67
机@@ 67
每周 67
火@@ 67
特质 67
直@@ 67
眼前 67
睡觉 67
第一件 67
苏联 67
血 67
讲讲 67
铁@@ 67
顾客 67
食 67
al@@ 66
u@@ 66
下载 66
丹 66
从没 66
依赖于 66
做个 66
别@@ 66
动@@ 66
反复 66
发行 66
只用 66
囚犯 66
外界 66
大笑 66
大街 66
奇 66
姿势 66
完善 66
定 66
将近 66
帮忙 66
干@@ 66
干预 66
店 66
康复 66
录制 66
微软 66
总之 66
想一想 66
打击 66
抱 66
探险 66
政治家 66
显而易见 66
暗物质 66
沙@@ 66
波 66
消灭 66
深@@ 66
炸弹 66
由@@ 66
称作 66
繁荣 66
绘制 66
统治 66
衰老 66
走过 66
身 66
轨迹 66
过于 66
这部分 66
遍布 66
部件 66
陆地 66
风@@ 66
魔术 66
鲸鱼 66
NASA 65
at@@ 65
一刻 65
专@@ 65
人才 65
任意 65
似的 65
例外 65
克斯 65
六 65
前往 65
加纳 65
单 65
厚 65
发育 65
发送 65
实体 65
少数 65
工 65
带上 65
当前 65
很感兴趣 65
戈尔 65
手中 65
折磨 65
提议 65
救 65
数据库 65
暗 65
正式 65
毁灭 65
活力 65
灵活 65
然 65
班 65
留给 65
相互作用 65
真理 65
简洁 65
自闭症 65
融化 65
足 65
进@@ 65
迪@@ 65
队伍 65
阴道 65
阿瑟 65
万年 64
丝 64
两位 64
两天 64
书@@ 64
从来不 64
会想 64
其次 64
军事 64
几周 64
创造性 64
勒 64
参观 64
反@@ 64
口@@ 64
后代 64
呼吁 64
哭 64
坐@@ 64
埃塞俄比亚 64
基地 64
大海 64
家乡 64
富裕 64
对付 64
寻常 64
年纪 64
幽默 64
很多很多 64
性别 64
总会 64
慢 64
指令 64
挣扎 64
挽救 64
数目 64
整整 64
新鲜 64
日@@ 64
有幸 64
有种 64
构想 64
河流 64
深度 64
灯光 64
皆 64
盯 64
看成 64
移 64
维度 64
脊髓灰质炎 64
走@@ 64
足以 64
近@@ 64
邮件 64
酱 64
金字塔 64
高尔夫球 64
2004 63
HIV 63
an@@ 63
一共 63
七个 63
乡村 63
云 63
交配 63
付 63
冒 63
写道 63
冬天 63
力@@ 63
南 63
原料 63
口袋 63
可靠 63
名@@ 63
大厅 63
头部 63
女孩子 63
存 63
张图 63
当做 63
批评 63
指@@ 63
显微镜 63
最快 63
有益 63
杰出 63
极限 63
比喻 63
球@@ 63
用途 63
申请 63
电线 63
病菌 63
系列 63
绕 63
耐心 63
脑部 63
脱离 63
般 63
街区 63
词汇 63
走上 63
阻碍 63
音 63
鸡 63
Facebook 62
一副 62
不安 62
丢 62
个性化 62
乐 62
九@@ 62
北美 62
原@@ 62
向上 62
嘛 62
土耳其 62
定律 62
常@@ 62
广场 62
念 62
感应 62
手上 62
手里 62
拿走 62
教@@ 62
时尚 62
有史以来 62
有名 62
木@@ 62
树@@ 62
欺骗 62
歌曲 62
步 62
每秒 62
深深 62
清单 62
激活 62
玉米 62
生气 62
疯 62
痛 62
管道 62
缩小 62
荷兰 62
角度看 62
身为 62
车祸 62
镜子 62
1960 61
S 61
f@@ 61
it@@ 61
乐意 61
做@@ 61
储蓄 61
内战 61
冰层 61
分别 61
刚好 61
创伤 61
十亿 61
占据 61
厉害 61
哈佛 61
哺乳动物 61
回忆 61
在@@ 61
好莱坞 61
居然 61
山脉 61
已知 61
开关 61
引入 61
微型 61
患 61
情景 61
成百上千 61
数码 61
星 61
服用 61
未知 61
汽油 61
浏览 61
环绕 61
瓶子 61
画@@ 61
目睹 61
神经系统 61
米@@ 61
糖尿病 61
维 61
自杀 61
舞 61
莫@@ 61
虫 61
街头 61
请求 61
调节 61
遭遇 61
随之 61
集团 61
顺序 61
高速 61
＂ 61
23 60
J@@ 60
a@@ 60
r@@ 60
us 60
一切都是 60
三明治 60
不光 60
不如 60
中央 60
为止 60
人均 60
假装 60
公布 60
六个月 60
制@@ 60
北@@ 60
厂 60
受欢迎 60
另一边 60
合法 60
国@@ 60
国王 60
埃@@ 60
天然气 60
尊严 60
巨型 60
帕@@ 60
座椅 60
弯曲 60
德里 60
怎样才能 60
性质 60
恐怖主义 60
成年人 60
房 60
抱歉 60
指挥 60
损伤 60
接收 60
教导 60
方 60
明年 60
景观 60
服 60
望 60
标题 60
核 60
检验 60
温暖 60
演讲者 60
灯泡 60
界限 60
积累 60
经典 60
结@@ 60
维护 60
艾@@ 60
街上 60
被@@ 60
西班牙 60
视 60
视野 60
轻@@ 60
进化论 60
部长 60
随 60
随意 60
雷 60
青蛙 60
革新 60
2003 59
一员 59
一路 59
万个 59
上下 59
个性 59
主动 59
举行 59
亲@@ 59
今晚 59
代 59
传到 59
你好 59
命 59
哪怕 59
啤酒 59
在世界上 59
坏消息 59
外星人 59
天赋 59
奇特 59
孤独 59
家园 59
家族 59
尽量 59
帝国 59
开采 59
当初 59
形容 59
恰恰 59
惊喜 59
想@@ 59
意 59
所能 59
所见 59
扩散 59
有利 59
格@@ 59
死@@ 59
清理 59
源于 59
版权 59
牛奶 59
瑞士 59
研究生 59
确切 59
确认 59
福利 59
罗伯特 59
老化 59
老板 59
自主 59
艾 59
苏@@ 59
表 59
被称作 59
设定 59
试想 59
调 59
谈判 59
贝@@ 59
轻 59
闻 59
集 59
震动 59
风能 59
鼠 59
2001 58
2006 58
2010 58
27 58
John 58
el@@ 58
on@@ 58
一代人 58
一道 58
三倍 58
两件事 58
丧失 58
人有 58
从根本上 58
依据 58
准则 58
原型 58
取@@ 58
可怜 58
商人 58
地带 58
墨西哥湾 58
头上 58
始终 58
实质 58
小学 58
崛起 58
打交道 58
捐赠 58
日常 58
早就 58
晚餐 58
曼哈顿 58
有过 58
本能 58
林@@ 58
架 58
毛 58
源 58
激烈 58
猜想 58
电视节目 58
皮层 58
相处 58
石 58
竞赛 58
维基百科 58
而后 58
脑中 58
艾米 58
落 58
质 58
资本主义 58
量子 58
错觉 58
陌生人 58
项 58
马丁 58
k 57
一架 57
主 57
举办 57
二战 57
传@@ 57
传输 57
伯@@ 57
停车场 57
免疫 57
全是 57
八个 57
千 57
句子 57
可持续性 57
史蒂夫 57
听过 57
哲学家 57
国民 57
声明 57
大人 57
失明 57
就是说 57
弄清楚 57
强迫 57
扭曲 57
搜寻 57
支撑 57
时光 57
明@@ 57
智力 57
最小 57
此时 57
民众 57
永恒 57
涂鸦 57
湖 57
激光 57
瓶 57
疑问 57
直线 57
省 57
着陆 57
磁场 57
纪录 57
经 57
综合 57
聊天 57
肝脏 57
肢体 57
脸上 57
艺术品 57
萨 57
蚁 57
蛇 57
装@@ 57
议题 57
负面 57
车辆 57
边界 57
震撼 57
非政府 57
飞@@ 57
飞行员 57
食物链 57
餐馆 57
骆驼 57
骨 57
麦克 57
黑客 57
et@@ 56
in@@ 56
一百万 56
七 56
上网 56
不可避免 56
不止 56
中来 56
乌鸦 56
乐@@ 56
亦 56
催产素 56
共有 56
再说 56
写下 56
冰@@ 56
冷 56
创立 56
初期 56
办 56
加利福尼亚 56
反正 56
发达国家 56
台上 56
同步 56
后悔 56
地板 56
宽 56
对称性 56
常 56
底 56
心态 56
情 56
揭示 56
教训 56
测序 56
猜测 56
电子邮件 56
病@@ 56
目前为止 56
知觉 56
短暂 56
碰撞 56
科@@ 56
精神病 56
触摸 56
讲@@ 56
询问 56
路@@ 56
轻松 56
这家 56
这首 56
造@@ 56
遇见 56
那条 56
零件 56
Y 55
am@@ 55
一页 55
两周 55
主人 55
争取 55
二十世纪 55
交@@ 55
交通工具 55
人权 55
从不 55
传染病 55
几何 55
列表 55
包装 55
友好 55
发掘 55
听见 55
吸引力 55
味 55
品质 55
外科医生 55
大声 55
工资 55
希@@ 55
带@@ 55
床 55
开头 55
开玩笑 55
异@@ 55
张@@ 55
性欲 55
感激 55
捕捉 55
放置 55
救援 55
旁 55
明 55
查 55
核@@ 55
根除 55
气味 55
泰@@ 55
海啸 55
游@@ 55
点儿 55
甲烷 55
监管 55
盖 55
短@@ 55
箱 55
罪犯 55
茶 55
见@@ 55
视网膜 55
解释一下 55
负担 55
费@@ 55
轮 55
透过 55
遭到 55
面@@ 55
DH 54
GDP 54
U@@ 54
el 54
or@@ 54
一款 54
不该 54
主@@ 54
事@@ 54
产 54
人为 54
人来 54
从前 54
令人兴奋 54
出自 54
压 54
嘴 54
多样化 54
妹妹 54
对不起 54
尴尬 54
局 54
布什 54
年来 54
很多年 54
意味 54
成年 54
打印机 54
拜访 54
排列 54
排序 54
推测 54
摄像头 54
放松 54
根源 54
毒品 54
活@@ 54
消极 54
特人 54
硬件 54
立@@ 54
纽约市 54
花园 54
草@@ 54
蛋白 54
装饰 54
见证 54
见面 54
詹姆斯 54
词语 54
轻易 54
酸 54
野生动物 54
非常复杂 54
顶部 54
) 53
G 53
MIT 53
YouTube 53
与其 53
世界银行 53
事故 53
亲爱 53
亿@@ 53
任 53
休息 53
依旧 53
光谱 53
关 53
冲 53
向下 53
呃 53
因特网 53
大师 53
太好了 53
套 53
屋子里 53
常规 53
年内 53
延长 53
战胜 53
找寻 53
拍照 53
排放量 53
排除 53
放下 53
文学 53
有毒 53
栖息地 53
款 53
沉浸 53
泄漏 53
演变 53
火山 53
牛顿 53
玩意儿 53
科学研究 53
管@@ 53
精英 53
纪录片 53
纯粹 53
经@@ 53
网@@ 53
美味 53
聚焦 53
脑@@ 53
航行 53
赛@@ 53
跳伞 53
追溯到 53
邪恶 53
降落 53
颗 53
飞天 53
驱使 53
验证 53
26 52
4@@ 52
95 52
le@@ 52
the 52
u 52
一个@@ 52
上方 52
不管怎样 52
东@@ 52
丢失 52
二十年 52
产出 52
使用者 52
假@@ 52
停@@ 52
养@@ 52
切@@ 52
刺 52
医师 52
协会 52
参与者 52
回头 52
在家 52
地铁 52
声@@ 52
好奇心 52
姐姐 52
子@@ 52
实用 52
导师 52
屋 52
弄@@ 52
彼得 52
心智 52
怀特 52
思路 52
恶化 52
抗生素 52
持 52
支出 52
收 52
暂时 52
更是 52
楼梯 52
海滩 52
犹太人 52
理智 52
生病 52
瘫痪 52
盘 52
看似 52
祖父 52
简化 52
粗糙 52
蛛丝 52
被动 52
警告 52
讯息 52
词@@ 52
试@@ 52
超出 52
迹象 52
通讯 52
那次 52
隔离 52
鞋子 52
预言 52
饼干 52
骄傲 52
高速公路 52
0 51
120 51
250 51
32 51
65 51
800 51
911 51
st@@ 51
一无所知 51
一模一样 51
严格 51
亚 51
人性化 51
人能 51
供给 51
保守 51
冥想 51
凌晨 51
几率 51
刚果 51
初 51
双方 51
古怪 51
叫声 51
吹 51
周期 51
哈 51
喔 51
回复 51
大致 51
大西洋 51
奇@@ 51
奥 51
好多 51
宗教信仰 51
小镇 51
就@@ 51
工作人员 51
幸福感 51
库 51
弦 51
当代 51
总体 51
恐怕 51
意愿 51
把手 51
损害 51
更少 51
替换 51
本人 51
永久 51
注 51
洗衣机 51
流程 51
温和 51
火星车 51
焦点 51
熊 51
生产力 51
男士 51
画画 51
登上 51
白天 51
真菌 51
突变 51
索 51
结局 51
翻 51
肤色 51
肺 51
诸位 51
贵 51
转动 51
这时候 51
针 51
雨水 51
霍华德 51
预计 51
麻醉 51
O 50
h 50
j@@ 50
z@@ 50
临床 50
价钱 50
众所周知 50
伦 50
位数 50
作弊 50
保健 50
修改 50
借助 50
做事 50
六年 50
具 50
军 50
冲@@ 50
冲击 50
分辨 50
列 50
副作用 50
加以 50
医疗保健 50
单纯 50
南极 50
厕所 50
周边 50
喂 50
嗨 50
四种 50
在乎 50
地址 50
塞 50
天生 50
失@@ 50
宝贵 50
尸体 50
尼安德 50
屠杀 50
崭新 50
市中心 50
带走 50
床上 50
廉价 50
开源 50
手工 50
搞笑 50
搭 50
搭建 50
政客 50
无线电 50
星盘 50
晚 50
最有 50
杀害 50
杯 50
歌手 50
此类 50
法庭 50
海平面 50
海报 50
海豹 50
深处 50
滑雪 50
满@@ 50
独自 50
琼斯 50
生物体 50
癌细胞 50
真空 50
瞧 50
碰 50
票 50
第一天 50
等到 50
箱子 50
经理 50
翻@@ 50
节 50
菲利普 50
蔓延 50
认可 50
返回 50
通信 50
酶 50
银河系 50
题 50
首席 50
BF 49
KB 49
M 49
P 49
V 49
is 49
万物 49
不怎么 49
世 49
也门 49
乱 49
五岁 49
体积 49
促成 49
修@@ 49
公式 49
减轻 49
包围 49
印刷 49
卷 49
句 49
司机 49
回事 49
团 49
塔利班 49
壳 49
多人 49
女孩儿 49
它@@ 49
安全套 49
客 49
射击 49
巴 49
带入 49
应用程序 49
引@@ 49
必然 49
总共 49
我家 49
所用 49
担忧 49
数字化 49
月份 49
朝着 49
棉花 49
此@@ 49
氧 49
水里 49
求@@ 49
漂浮 49
演唱 49
物@@ 49
犯错 49
男 49
眼@@ 49
第二次 49
紧 49
红杉 49
线性 49
线索 49
编@@ 49
聚会 49
肩膀 49
膨胀 49
草原 49
言@@ 49
证 49
误解 49
边@@ 49
过时 49
这笔 49
这能 49
道@@ 49
集合 49
1500 48
K 48
一大 48
一英里 48
三天 48
三角形 48
不但 48
不然 48
专辑 48
亚当 48
假肢 48
偏见 48
免疫系统 48
养 48
决心 48
几次 48
出口 48
剧场 48
升 48
受益 48
受过 48
叫@@ 48
可不 48
各@@ 48
吨 48
听@@ 48
命令 48
哪@@ 48
善于 48
塞@@ 48
士 48
夜晚 48
大脑皮层 48
太大 48
妈 48
季节 48
实@@ 48
家中 48
属性 48
平@@ 48
患上 48
拿@@ 48
拿来 48
撒哈拉 48
收@@ 48
方块 48
星星 48
普 48
普通人 48
杜@@ 48
毁 48
毛@@ 48
牙 48
独@@ 48
狮子 48
理所当然 48
生于 48
电流 48
痕迹 48
盒 48
直径 48
矮 48
硬币 48
秒钟 48
索@@ 48
肥胖 48
蓝@@ 48
虾 48
课题 48
贝尔 48
费曼 48
起初 48
跟随 48
这栋 48
这样的话 48
适当 48
通 48
通道 48
醒来 48
重塑 48
长寿 48
长远 48
青春期 48
非暴力 48
鼓舞 48
man 47
v@@ 47
一对 47
一点儿 47
上百万 47
上述 47
临时 47
亚里士多德 47
亲自 47
令人惊叹 47
价 47
保障 47
倾斜 47
偶尔 47
加工 47
包@@ 47
半个 47
卖@@ 47
危害 47
反抗 47
古 47
听听 47
周 47
周末 47
垂直 47
垫 47
室内 47
小提琴 47
尚未 47
带回 47
快@@ 47
悬崖 47
情境 47
投@@ 47
护理 47
拖 47
挑选 47
搜集 47
收益 47
政权 47
无需 47
暗示 47
更进一步 47
歌剧 47
比方说 47
浪漫 47
爵士 47
瓦 47
用作 47
知@@ 47
精神疾病 47
罪 47
考@@ 47
而来 47
脑海中 47
虚拟世界 47
解 47
读@@ 47
读书 47
赛鲁士 47
迁移 47
长久 47
长达 47
问道 47
雷@@ 47
28 46
7@@ 46
Mar@@ 46
ed 46
一封 46
不算 46
个@@ 46
义肢 46
乳腺 46
产@@ 46
介入 46
令人吃惊 46
公斤 46
共识 46
军@@ 46
冷@@ 46
创造者 46
初@@ 46
加强 46
十 46
千年 46
博@@ 46
卧室 46
厨师 46
发明家 46
叔叔 46
可惜 46
启示 46
咨询 46
商 46
四分之一 46
因@@ 46
图书 46
夏威夷 46
实力 46
巧妙 46
广阔 46
库@@ 46
废物 46
想过 46
感动 46
战士 46
战略 46
捕捞 46
据 46
操纵 46
新生 46
无处不在 46
暗喻 46
最低 46
末 46
极为 46
果蝇 46
桥梁 46
步行 46
清@@ 46
生理 46
研究者 46
离@@ 46
秩序 46
移民 46
第一位 46
第二@@ 46
篇文章 46
精@@ 46
纸@@ 46
美的 46
考试 46
至于 46
补充 46
诺 46
输出 46
这使 46
远@@ 46
造型 46
雄性 46
顾问 46
饥荒 46
马克 46
鹅 46
麻痹 46
黑帮 46
6@@ 45
700 45
; 45
H 45
am 45
不同于 45
主张 45
低于 45
倒@@ 45
共同点 45
写@@ 45
几种 45
到@@ 45
匹配 45
卡路里 45
即时 45
压缩 45
发作 45
发现自己 45
古代 45
史蒂芬 45
吃饭 45
听觉 45
四周 45
处理器 45
始于 45
将军 45
少@@ 45
屁股 45
左 45
干嘛 45
开端 45
弱 45
影子 45
性能 45
慈悲 45
战 45
抗 45
指标 45
推荐 45
教给 45
新兴 45
明智 45
晶体管 45
更糟 45
曼@@ 45
最棒 45
梅@@ 45
汉堡 45
没关系 45
渠道 45
激进 45
牧师 45
瑞 45
电视台 45
痢疾 45
目的地 45
硅谷 45
股 45
膝盖 45
舒适 45
花钱 45
荣誉 45
莱@@ 45
行驶 45
要花 45
触及 45
诺@@ 45
财产 45
财政 45
贫民窟 45
资产 45
迈克尔 45
这样一来 45
钟 45
风景 45
飞过 45
2002 44
4000 44
Paul 44
and@@ 44
ay 44
ol@@ 44
一会 44
一行 44
一门 44
七年 44
三十年 44
三次 44
不好意思 44
主体 44
九个 44
亚伯拉罕 44
交互 44
从小 44
以南 44
传 44
体重 44
保险 44
俩 44
偏@@ 44
八年 44
共鸣 44
切 44
勇敢 44
南极洲 44
参考 44
发给 44
响 44
地去 44
坏事 44
壁虎 44
处境 44
外交 44
大奖 44
头骨 44
姐妹 44
审查 44
导演 44
希 44
广播 44
应@@ 44
开创 44
引进 44
强奸 44
性感 44
情@@ 44
愉悦 44
抑郁 44
文献 44
断 44
施@@ 44
时常 44
替 44
本杰明 44
束缚 44
标@@ 44
树上 44
浓度 44
灰色 44
热量 44
熵 44
玩笑 44
现实生活 44
理@@ 44
生产总值 44
生育 44
画家 44
看一看 44
科研 44
立场 44
紫外线 44
绝不 44
脑子 44
船@@ 44
船上 44
蒂 44
西部 44
要点 44
记@@ 44
许可 44
评价 44
诠释 44
说起 44
赫@@ 44
足迹 44
路线 44
辅导 44
追寻 44
通往 44
那会 44
问@@ 44
雕像 44
雨 44
面团 44
首@@ 44
鱼@@ 44
鸿沟 44
鼓 44
Dan 43
Richard 43
TEDx@@ 43
ad@@ 43
al 43
es@@ 43
一番 43
一百@@ 43
一艘 43
三岁 43
上海 43
上班 43
不论是 43
业余 43
之旅 43
亚马逊 43
代@@ 43
伯 43
但@@ 43
保@@ 43
光明 43
内向 43
分支 43
劳@@ 43
劳动 43
华@@ 43
印度人 43
压@@ 43
及时 43
吃@@ 43
吸@@ 43
啥 43
喂养 43
在内 43
城镇 43
复@@ 43
外国 43
妥协 43
子宫 43
尺度 43
尽力 43
岛上 43
峡谷 43
工作者 43
工程学 43
并不需要 43
强有力 43
当地人 43
微妙 43
托 43
托@@ 43
捕鱼 43
探寻 43
探究 43
推 43
收藏 43
教科书 43
斯特 43
普及 43
杂耍 43
来临 43
查@@ 43
此刻 43
民@@ 43
海里 43
温@@ 43
演说 43
漫长 43
珍贵 43
电子@@ 43
画出 43
种@@ 43
种群 43
稍 43
类@@ 43
绝@@ 43
美国@@ 43
职业生涯 43
自私 43
艾滋病毒 43
蒙@@ 43
行不通 43
被迫 43
要素 43
解决办法 43
设 43
语@@ 43
货币 43
赛 43
走神 43
跑步 43
跳@@ 43
运营 43
迷因 43
逃离 43
选@@ 43
降到 43
除此之外 43
霍@@ 43
顶 43
骨骼 43
5@@ 42
The 42
ch@@ 42
iPod 42
to 42
一圈 42
一百年 42
一股 42
三分之二 42
业务 42
为例 42
主导 42
举例来说 42
乐团 42
产量 42
从此 42
仪 42
作曲家 42
元 42
全身 42
刚刚开始 42
创办 42
加快 42
加热 42
劳动力 42
化学家 42
单元 42
去掉 42
发言 42
右@@ 42
哥哥 42
回想 42
圆形 42
天文 42
奋斗 42
好几个 42
已@@ 42
帽子 42
引领 42
恐怖分子 42
恰当 42
慷慨 42
戏剧 42
战场 42
手法 42
提示 42
操控 42
改@@ 42
最多 42
术语 42
核磁共振 42
桶 42
概括 42
沙 42
法官 42
海拔 42
激动人心 42
激素 42
烟 42
熟知 42
爱人 42
玩@@ 42
电视机 42
真主 42
知 42
称呼 42
空白 42
立 42
篇 42
累积 42
组建 42
统计数据 42
聚@@ 42
脑海 42
苦难 42
营销 42
表述 42
装备 42
许许多多 42
该@@ 42
说谎 42
请@@ 42
谎言 42
起点 42
起飞 42
车里 42
转变成 42
载荷 42
这太 42
这比 42
通用 42
造影 42
邦 42
酒吧 42
键盘 42
零@@ 42
音符 42
麦@@ 42
and 41
is@@ 41
om@@ 41
一倍 41
中文 41
作物 41
侵入 41
修建 41
俱乐部 41
先前 41
创始人 41
删除 41
半小时 41
卫生 41
厘米 41
原先 41
受损 41
可口可乐 41
吹@@ 41
呈 41
品种 41
四岁 41
困惑 41
图画 41
土 41
地狱 41
墙壁 41
奇异 41
官员 41
尊敬 41
尺 41
尽快 41
巨@@ 41
幻肢 41
弗兰克 41
弹性 41
强@@ 41
当年 41
很漂亮 41
性格 41
总和 41
或@@ 41
截然不同 41
投资者 41
报 41
放慢 41
斯蒂芬尼 41
无形 41
林肯 41
毫米 41
水面 41
洗@@ 41
照射 41
独一无二 41
环 41
留 41
眼中 41
秀 41
管子 41
素 41
组成部分 41
编织 41
美国政府 41
羞耻 41
耶稣 41
脱@@ 41
节省 41
荒谬 41
落@@ 41
薄 41
表格 41
裔 41
见解 41
诸如 41
负 41
账户 41
越大 41
辆 41
那段 41
顶@@ 41
麦当劳 41
1990 40
J 40
ey 40
ul@@ 40
上传 40
上周 40
上次 40
东部 40
两条 40
中期 40
丹麦 40
之地 40
了@@ 40
人工智能 40
修 40
冰岛 40
列@@ 40
制品 40
前后 40
势力 40
化@@ 40
十个 40
卡片 40
发电 40
发达 40
另一半 40
同行 40
唱片 40
善良 40
土@@ 40
地毯 40
多巴胺 40
夫妇 40
夸张 40
威@@ 40
娜 40
学术 40
宏观 40
封闭 40
小东西 40
就此 40
尽@@ 40
左@@ 40
市长 40
延续 40
得不到 40
意想不到 40
所作 40
手册 40
投 40
投影 40
抗体 40
抗议 40
抵抗 40
持久 40
指示 40
捕食者 40
支架 40
料 40
断@@ 40
无神论者 40
春天 40
最具 40
有太多 40
条约 40
来回 40
步@@ 40
水果 40
湾 40
煤炭 40
爱好者 40
特效 40
狂热 40
玛 40
现 40
短信 40
研制 40
碎 40
福特 40
禽流感 40
税 40
竞选 40
端 40
第一批 40
等级 40
经费 40
编 40
缺失 40
罕见 40
群@@ 40
聚在一起 40
胳膊 40
葡萄 40
蛋糕 40
蜻蜓 40
议会 40
记 40
谷物 40
赞助 40
过后 40
连接体 40
连接起来 40
选票 40
锁定 40
降落伞 40
颠覆 40
.. 39
20@@ 39
Wikipedia 39
ra@@ 39
ri@@ 39
son 39
ur@@ 39
一人 39
一瞬间 39
不起 39
丝@@ 39
主管 39
主角 39
买@@ 39
储备 39
入侵 39
八 39
公路 39
分为 39
分割 39
分数 39
分歧 39
南@@ 39
去@@ 39
右 39
合作伙伴 39
同伴 39
否认 39
商场 39
培育 39
大门 39
安全带 39
实行 39
宣称 39
局限 39
应付 39
引力 39
弹@@ 39
录 39
心想 39
手势 39
批准 39
换@@ 39
放射 39
教练 39
新奇 39
无疑 39
无知 39
暴露 39
更长 39
最先 39
有意识 39
板块 39
架构 39
榜样 39
残疾 39
残酷 39
气泡 39
求 39
沙丘 39
没用 39
派对 39
烧@@ 39
牛津 39
男@@ 39
盲人 39
直观 39
第@@ 39
紧@@ 39
线条 39
细@@ 39
翻译成 39
老年人 39
耗费 39
肉@@ 39
肥胖症 39
胡@@ 39
自然选择 39
至@@ 39
航空 39
艾滋 39
苏格兰 39
苦@@ 39
英@@ 39
英亩 39
药@@ 39
蛋 39
规范 39
觅食 39
解@@ 39
说实话 39
资讯 39
越过 39
迈克 39
这颗 39
遍 39
遗产 39
那年 39
问到 39
防御 39
难度 39
雨林 39
非法 39
面孔 39
风暴 39
飓风 39
47 38
48 38
55 38
9@@ 38
Al@@ 38
Anderson 38
St@@ 38
ag@@ 38
as@@ 38
le 38
万美金 38
三十 38
不确定性 38
中部 38
主持人 38
五分钟 38
亚历山大 38
仍旧 38
优化 38
传承 38
伴侣 38
佛教 38
关@@ 38
关掉 38
兴起 38
兵 38
几 38
几位 38
凯@@ 38
刚@@ 38
协助 38
原油 38
叫作 38
叶子 38
吉@@ 38
名称 38
听力 38
回归 38
图上 38
圆柱 38
基督徒 38
堆 38
天体 38
好人 38
孩童 38
安置 38
官方 38
密@@ 38
市郊 38
弟弟 38
强度 38
心情 38
怪 38
恩@@ 38
恰好 38
恶 38
所学 38
找个 38
护@@ 38
提及 38
提问 38
支配 38
救助 38
旅游 38
旅途 38
旅馆 38
时机 38
暂停 38
有助于 38
木偶 38
杀手 38
杆 38
村 38
条例 38
松@@ 38
果 38
档案 38
残忍 38
比特 38
沉默 38
潜水器 38
玩游戏 38
电路 38
直升机 38
石@@ 38
硬@@ 38
私@@ 38
章鱼 38
笔记本 38
等同于 38
简@@ 38
紧急 38
细 38
终极 38
终结 38
绳子 38
耳机 38
肉眼 38
肯 38
胚胎 38
脑子里 38
船只 38
荧光 38
葡萄酒 38
藏@@ 38
视@@ 38
言 38
认出 38
诺顿 38
赶@@ 38
路径 38
送给 38
逐步 38
采取行动 38
重组 38
铁路 38
长得 38
问问 38
防@@ 38
阶层 38
非常容易 38
预@@ 38
频道 38
鸟儿 38
鸽子 38
36 37
6000 37
85 37
8@@ 37
L 37
as 37
id@@ 37
‧ 37
一方 37
三十@@ 37
下次 37
不愿 37
不见 37
世@@ 37
两分钟 37
举例 37
举动 37
之心 37
书中 37
买下 37
买卖 37
亿个 37
充足 37
出错 37
化合物 37
卡尔 37
历程 37
原 37
可用 37
吃掉 37
后期 37
哩 37
唱歌 37
喜悦 37
因而 37
地形 37
多于 37
夜 37
大大 37
天线 37
夫人 37
存储 37
孟买 37
安慰 37
小小 37
尽管如此 37
局面 37
并@@ 37
录音 37
微@@ 37
手腕 37
抓@@ 37
报@@ 37
搞清楚 37
撰写 37
收缩 37
早已 37
易 37
星体 37
曲 37
曼德拉 37
有点儿 37
柬埔寨 37
树林 37
根@@ 37
棘手 37
欧盟 37
每月 37
水资源 37
汤姆 37
沙子 37
没能 37
泡泡 37
洗 37
洛 37
滥用 37
潜艇 37
灌输 37
热衷于 37
环节 37
生命体 37
生态圈 37
百分之九十 37
监测 37
码 37
研究员 37
破@@ 37
破解 37
砸 37
礼拜 37
粘 37
紫色 37
约会 37
综合症 37
罐 37
胎儿 37
虐待 37
行程 37
身后 37
躲 37
边上 37
过多 37
近期 37
遗忘 37
链 37
镜 37
隐喻 37
雪@@ 37
骨架 37
鬼 37
魔术师 37
F 36
LED 36
Q 36
ha@@ 36
os@@ 36
ot@@ 36
re@@ 36
一是 36
不仅如此 36
两点 36
丽 36
乌贼 36
二十@@ 36
传说 36
倡导 36
停留 36
克林顿 36
克隆 36
冠军 36
划分 36
前额 36
剑桥 36
化疗 36
北 36
华 36
发觉 36
可乐 36
吉他 36
同性恋 36
哥伦比亚 36
哥本哈根 36
唱@@ 36
喊 36
国外 36
圣诞节 36
场合 36
场地 36
均 36
坦桑尼亚 36
外表 36
大片 36
天性 36
头盔 36
好看 36
娜塔莎 36
定制 36
容量 36
尼亚 36
岛屿 36
工业化 36
希腊 36
平均寿命 36
底层 36
弗@@ 36
彗星 36
很久以前 36
微积分 36
思索 36
性爱 36
恶劣 36
患病 36
意图 36
愿景 36
户 36
把握 36
拓展 36
挪威 36
摆在 36
智利 36
有钱 36
杀@@ 36
栅栏 36
样式 36
横跨 36
毒 36
毒素 36
氢气 36
治 36
注射器 36
添加 36
潜能 36
片子 36
王 36
甜 36
电子游戏 36
电梯 36
男生 36
留@@ 36
病例 36
盘子 36
目光 36
看电视 36
眼光 36
硫化氢 36
第一种 36
算@@ 36
精细 36
线@@ 36
线路 36
绿@@ 36
编写 36
置 36
老实 36
考验 36
肚子 36
背@@ 36
自发 36
色@@ 36
讲台 36
谱 36
车子 36
轮子 36
轮椅 36
运送 36
这套 36
迫使 36
造就 36
遵守 36
酒@@ 36
采@@ 36
铁 36
问过 36
难民 36
雪 36
青年 36
非常高兴 36
频繁 36
香港 36
鸡蛋 36
麦克风 36
1950 35
19@@ 35
An@@ 35
CEO 35
Michael 35
Z@@ 35
ar 35
d 35
ic@@ 35
l 35
p 35
z 35
― 35
一处 35
一整天 35
一百 35
不在乎 35
丛林 35
两张 35
乌@@ 35
乘 35
书写 35
乱@@ 35
享有 35
令人震惊 35
低估 35
何处 35
何种 35
偏远 35
停下 35
光学 35
关怀 35
关节 35
养分 35
动词 35
去除 35
只好 35
可笑 35
可视化 35
名人 35
咬 35
围@@ 35
基督教 35
增生 35
壮观 35
声称 35
夜@@ 35
大洋 35
天使 35
女子 35
奶奶 35
好象 35
完@@ 35
实实在在 35
容器 35
容忍 35
导@@ 35
小男孩 35
少量 35
工业革命 35
巧合 35
平方 35
想出 35
意@@ 35
戈@@ 35
我该 35
我读 35
抗@@ 35
抚养 35
挣 35
故障 35
无意 35
早餐 35
明星 35
星@@ 35
显现 35
更快 35
有效率 35
有机体 35
服装 35
机率 35
条@@ 35
杯子 35
标识 35
校园 35
校长 35
桌面 35
棕色 35
次数 35
歌唱 35
水域 35
污染物 35
泥土 35
注册 35
注视 35
源自 35
照@@ 35
物件 35
犹太教 35
献给 35
电极 35
盖@@ 35
短期 35
禁忌 35
穿@@ 35
第二种 35
管理局 35
绑 35
翼 35
耳蜗 35
草地 35
莉 35
营 35
落后 35
蓝 35
论点 35
说真的 35
谈@@ 35
贫民区 35
贯穿 35
踏上 35
配合 35
野外 35
针头 35
钉 35
间接 35
需@@ 35
马达 35
魔力 35
鳄鱼 35
麦 35
17@@ 34
29 34
Y@@ 34
de 34
x 34
一下子 34
一口 34
一批 34
一顿 34
七岁 34
三件 34
不满 34
与否 34
两件 34
主宰 34
之处 34
乘客 34
争@@ 34
交叉 34
人格 34
例 34
供@@ 34
侵蚀 34
停车 34
兆 34
关爱 34
其余 34
再生能源 34
切割 34
切除 34
创@@ 34
制造商 34
削减 34
前沿 34
剥夺 34
动手 34
勒@@ 34
北极熊 34
医药 34
协同 34
卓越 34
印度河 34
取消 34
受体 34
另一面 34
名单 34
后者 34
呈现出 34
哈佛大学 34
喷@@ 34
嘴里 34
圆圈 34
圣 34
在意 34
增@@ 34
多余 34
多元 34
大学生 34
头顶 34
威尔 34
定@@ 34
宠物 34
宣言 34
富人 34
寒冷 34
尖叫 34
属 34
巴勒斯坦 34
帐篷 34
帽 34
废墟 34
废弃 34
弹奏 34
强制 34
征服 34
必@@ 34
怪异 34
恶心 34
悲惨 34
意志 34
感冒 34
扔掉 34
找@@ 34
拖@@ 34
振动 34
授权 34
揭开 34
揭露 34
数百万 34
新陈代谢 34
旋律 34
时会 34
明亮 34
柱子 34
母@@ 34
水质 34
汉斯 34
沃尔玛 34
注定 34
注重 34
流感病毒 34
海湾 34
消亡 34
消化 34
混 34
混@@ 34
淹没 34
渴求 34
潜意识 34
照相机 34
牡蛎 34
特兹勒 34
猩猩 34
甘地 34
生动 34
用以 34
用品 34
疫情 34
癌 34
登 34
白宫 34
百科全书 34
目@@ 34
直至 34
眼球 34
破 34
突出 34
第一条 34
第二点 34
终点 34
绝 34
而成 34
耳@@ 34
肉类 34
自然而然 34
自行 34
英国人 34
莎士比亚 34
蚁穴 34
蜂 34
角@@ 34
触动 34
议员 34
设法 34
货 34
购物 34
越南 34
跑@@ 34
跳动 34
车上 34
软 34
配@@ 34
里斯 34
野生 34
银行家 34
锻炼 34
阴@@ 34
陌生 34
除 34
雨@@ 34
领导力 34
题目 34
首 34
马路 34
高于 34
1970 33
2020 33
2050 33
350 33
72 33
Robert 33
一棵 33
丁 33
不变 33
世界级 33
中是 33
乐谱 33
乔纳森 33
乘以 33
人去 33
人家 33
今后 33
令人@@ 33
休@@ 33
优先 33
传送 33
偷 33
公共卫生 33
共用 33
养活 33
凯文 33
分形 33
创业 33
刺@@ 33
升级 33
半岛 33
卡通 33
名词 33
含@@ 33
品@@ 33
喜好 33
团结 33
圆@@ 33
在外 33
在生活中 33
增大 33
大洲 33
娶 33
孙子 33
害虫 33
富@@ 33
导向 33
工@@ 33
帮@@ 33
建@@ 33
彩票 33
影 33
微 33
快感 33
思@@ 33
总的来说 33
总部 33
我敢 33
我称 33
打赌 33
打造 33
抽@@ 33
招@@ 33
持有 33
挑战性 33
握 33
无家可归 33
日益 33
旧@@ 33
是非 33
月亮 33
木星 33
林冠 33
树枝 33
核弹 33
格伦 33
案子 33
桌上 33
棒极了 33
模样 33
欧@@ 33
比率 33
汉 33
法语 33
洛@@ 33
浮现 33
源头 33
滑@@ 33
滑稽 33
滚@@ 33
漫画家 33
猎物 33
环@@ 33
现代化 33
瑞@@ 33
画廊 33
百分之八十 33
目 33
直立 33
看做 33
真是太 33
眼神 33
磁共振 33
磁铁 33
社群 33
福 33
空调 33
突触 33
窗口 33
约书亚 33
约束 33
置于 33
美洲 33
老龄化 33
职责 33
联想 33
肖像 33
艰苦 33
艺术作品 33
苏丹 33
英格兰 33
菌丝 33
表@@ 33
论坛 33
诉讼 33
路易斯 33
踩 33
还好 33
这篇 33
进而 33
远程 33
连结 33
选择性 33
铺 33
阴影 33
随@@ 33
静止 33
音乐厅 33
音频 33
骨髓 33
高质量 33
麻省理工 33
Alpha 32
DVD 32
Sh@@ 32
Z 32
ac@@ 32
ie 32
il@@ 32
or 32
org 32
th@@ 32
三角 32
不同寻常 32
不用说 32
东方 32
两岁 32
中世纪 32
义 32
乐高 32
五千 32
亨利 32
人际关系 32
代表性 32
令人激动 32
优点 32
伙计 32
伤口 32
余@@ 32
充斥 32
充电 32
六岁 32
兼 32
冷却 32
副本 32
医保 32
医学院 32
十万 32
千个 32
千米 32
反过来 32
口味 32
古典音乐 32
另一只 32
史无前例 32
合同 32
吓人 32
否定 32
哭泣 32
嘲笑 32
国际@@ 32
图标 32
圆 32
堂 32
大于 32
如下 32
密集 32
射@@ 32
少于 32
尼尔 32
山顶 32
市场营销 32
带动 32
平凡 32
幼儿园 32
度@@ 32
强壮 32
当天 32
必需 32
忽然 32
怪兽 32
总有 32
成型 32
我妈 32
所要 32
打败 32
抗争 32
拍@@ 32
指望 32
捕获 32
收费 32
收音机 32
效益 32
景 32
暗@@ 32
木材 32
杀掉 32
杰克 32
棍子 32
模块 32
横@@ 32
次@@ 32
沃@@ 32
活性 32
测验 32
浮@@ 32
海面 32
演 32
灾难性 32
爱好 32
爱尔兰 32
特权 32
獾 32
疑惑 32
百分之一 32
监督 32
盖茨 32
盘@@ 32
真实世界 32
真诚 32
秘诀 32
等式 32
简 32
管用 32
纯@@ 32
纸张 32
老年 32
考察 32
聊 32
联邦 32
背 32
背上 32
臂 32
艘 32
节能 32
范例 32
菌 32
著作 32
蒂@@ 32
蓝图 32
蜡烛 32
西雅图 32
谨慎 32
走到 32
跨 32
车库 32
转化成 32
过渡 32
这本 32
迷@@ 32
退@@ 32
选出 32
遗传学 32
野@@ 32
降@@ 32
雄 32
非营利 32
领 32
风筝 32
饼 32
首都 32
骨骼肌 32
高尔夫 32
1999 31
2011 31
33 31
43 31
ab@@ 31
ap@@ 31
di@@ 31
em@@ 31
op@@ 31
ro@@ 31
ut@@ 31
x@@ 31
一对一 31
一杯 31
一辈子 31
世界观 31
东 31
中风 31
丹尼尔 31
义务 31
人类文明 31
仁爱 31
代谢 31
伸出 31
借口 31
傻 31
党派 31
减速 31
双 31
发动 31
发音 31
变量 31
口号 31
可兰经 31
合作者 31
同等 31
向@@ 31
听从 31
吸入 31
喝@@ 31
城市化 31
境界 31
天花板 31
如果说 31
字@@ 31
孤儿 31
守@@ 31
实 31
封@@ 31
尖 31
就行了 31
层@@ 31
展出 31
山羊 31
布鲁斯 31
平方英尺 31
平时 31
年长 31
并非如此 31
开放式 31
必定 31
急@@ 31
总理 31
悬浮 31
惊异 31
想想看 31
手表 31
技术人员 31
指责 31
挺@@ 31
损坏 31
提交 31
搞定 31
摆@@ 31
改 31
敌意 31
救@@ 31
数千 31
数年 31
新生儿 31
无力 31
无助 31
早@@ 31
星际 31
本性 31
杀虫剂 31
松 31
极了 31
标本 31
标注 31
案 31
案件 31
欢乐 31
歌声 31
正当 31
每隔 31
水流 31
海上 31
涌现 31
涵盖 31
深层 31
清醒 31
游客 31
滚动 31
潮流 31
火灾 31
片断 31
牛@@ 31
王子 31
现存 31
甚 31
甚么 31
生涯 31
电场 31
电脑游戏 31
留言 31
病房 31
登陆 31
瞄准器 31
知名 31
短短 31
立体 31
章 31
第三@@ 31
箭头 31
米洛 31
级别 31
细小 31
脏 31
脚@@ 31
莫 31
获益 31
著 31
虔诚 31
裂缝 31
视线 31
证书 31
请来 31
诺贝尔奖 31
谈及 31
谷 31
责任感 31
起床 31
路程 31
转换成 31
载 31
辨别 31
迈出 31
近距离 31
逼 31
郊区 31
钥匙 31
镜片 31
难民营 31
露 31
靠着 31
面对面 31
音@@ 31
预料 31
首要 31
高峰 31
高潮 31
---- 30
James 30
ec@@ 30
et 30
hi@@ 30
ia 30
im@@ 30
ir@@ 30
一辆车 30
三位 30
下雨 30
不久前 30
不太好 30
东欧 30
两只 30
两样 30
临床试验 30
主席 30
举手 30
举起 30
事实证明 30
二维 30
五十年 30
亚特兰大 30
交 30
产卵 30
人类学家 30
付钱 30
会谈 30
低成本 30
佛 30
佩@@ 30
依@@ 30
共@@ 30
写出 30
冲动 30
冷冻 30
冷战 30
凡 30
出乎意料 30
加油站 30
升高 30
印 30
卵 30
双胞胎 30
发生变化 30
叠 30
召集 30
吓 30
善 30
坏@@ 30
多大 30
多岁 30
大厦 30
头条 30
奖项 30
奥秘 30
女生 30
妮 30
婚礼 30
孤立 30
学位 30
宝石 30
审判 30
容纳 30
封 30
射 30
居 30
展 30
平静 30
并未 30
底@@ 30
归功于 30
待@@ 30
微不足道 30
忧虑 30
总量 30
息息相关 30
恰恰相反 30
恶@@ 30
恻隐之心 30
扎@@ 30
抑郁症 30
报导 30
拉丁美洲 30
指向 30
挖 30
接纳 30
提前 30
插 30
搞@@ 30
摩尔 30
摩托车 30
摩擦 30
改良 30
数以千计 30
是否是 30
暴乱 30
最让人 30
有权 30
木头 30
柏林 30
柯@@ 30
核聚变 30
欧 30
正常人 30
正方形 30
母 30
流入 30
漫@@ 30
激起 30
照亮 30
牛肉 30
玛@@ 30
球员 30
生物@@ 30
用处 30
病情 30
病症 30
百万美元 30
盖瑞 30
直到现在 30
着@@ 30
研究院 30
砰 30
硬 30
福@@ 30
穷 30
第一年 30
第三种 30
第二件 30
粘@@ 30
糟 30
纪念 30
纳米比亚 30
组@@ 30
绝大部分 30
绝妙 30
统计学 30
维生素 30
网状 30
翻车鱼 30
耐@@ 30
肺部 30
肾脏 30
背面 30
胶 30
脚趾 30
脸部 30
花生 30
苏珊 30
萨拉 30
补贴 30
装满 30
讲解 30
说唱 30
起步 30
超声波 30
转型 30
转过 30
输 30
输送 30
辨识 30
还给 30
这群 30
这辆 30
进口 30
途中 30
速 30
那有 30
鉴定 30
门口 30
音乐会 30
骨@@ 30
魔法 30
10000 29
1994 29
1998 29
34 29
37 29
CO2 29
Jim 29
TEDx 29
Tom 29
Youtube 29
m 29
一个个 29
一声 29
一幕 29
一栋 29
一秒钟 29
一笔 29
不敢 29
世人 29
丢弃 29
两组 29
乔@@ 29
互@@ 29
享用 29
人心 29
体型 29
何@@ 29
使@@ 29
供应链 29
侵犯 29
信用卡 29
借 29
偏头痛 29
做爱 29
公海 29
兰@@ 29
关乎 29
冰盖 29
减@@ 29
几千年 29
几百年 29
出名 29
列举 29
列出 29
刮@@ 29
刻 29
匿名 29
华丽 29
原有 29
参@@ 29
取而代之 29
叙事 29
口语 29
古巴 29
史@@ 29
吊@@ 29
周@@ 29
商业模式 29
善@@ 29
固有 29
在此之前 29
地下室 29
地被 29
坚强 29
墨水 29
外观 29
多长时间 29
大城市 29
委内瑞拉 29
字体 29
孤儿院 29
客观 29
寄@@ 29
富 29
对手 29
导弹 29
将@@ 29
尾@@ 29
展望 29
山上 29
工艺 29
干燥 29
座位 29
形势 29
总能 29
感染率 29
扫描仪 29
担任 29
支@@ 29
散@@ 29
敲 29
斯图尔特 29
斯特@@ 29
新加坡 29
更具 29
更高 29
最难 29
服从 29
服务器 29
期@@ 29
校 29
样品 29
格斯 29
梦 29
橙色 29
正要 29
武装 29
毁掉 29
每件事 29
毒@@ 29
泡沫 29
活在 29
流行病 29
流量 29
海盗 29
清 29
烟@@ 29
特例 29
狂@@ 29
玩乐 29
电击 29
痛@@ 29
登山者 29
百分之十 29
盐 29
监视 29
相遇 29
看得见 29
看清 29
真实性 29
眼里 29
祖父母 29
类比 29
粉丝 29
粒 29
紧紧 29
经济体 29
罢了 29
翻转 29
老虎 29
耗尽 29
耳 29
脉冲 29
膜 29
自愿 29
艾伦 29
茨 29
草图 29
萧条 29
蒙 29
观 29
访谈 29
话@@ 29
说服力 29
谋杀 29
货物 29
走动 29
足@@ 29
足球 29
辉煌 29
过分 29
迷 29
追溯 29
退出 29
通向 29
通过观察 29
遥控器 29
那片 29
配方 29
重叠 29
量子力学 29
镇 29
问题所在 29
阿尔 29
阿根廷 29
阿特拉 29
雌性 29
顺@@ 29
领养 29
飞翔 29
饲养 29
高温 29
齐 29
1.5 28
130 28
2.5 28
GPS 28
Steve 28
ak@@ 28
b 28
g 28
ine 28
ou@@ 28
ra 28
sh@@ 28
一千 28
一千个 28
一双 28
一棵树 28
一眼 28
三条 28
上个世纪 28
上市 28
不住 28
不禁 28
东京 28
两百万 28
书里 28
人造卫星 28
伤@@ 28
估算 28
位@@ 28
体温 28
依照 28
信息技术 28
元件 28
光亮 28
光滑 28
共 28
养育 28
准 28
减缓 28
几百@@ 28
出版社 28
刀@@ 28
切片 28
化学@@ 28
南方 28
友 28
反思 28
发放 28
各类 28
合并 28
含 28
土豆 28
地质 28
坚定 28
坦白 28
堆积 28
塑料瓶 28
复苏 28
外壳 28
外科 28
大屠杀 28
天文学 28
太小 28
失聪 28
奥林匹克 28
好了吗 28
孔 28
存@@ 28
宝贝 28
实例 28
尔斯 28
屋里 28
展@@ 28
峰 28
布鲁克林 28
开会 28
开办 28
开支 28
开设 28
归 28
当今世界 28
总而言之 28
想得到 28
意粉 28
感@@ 28
愿 28
慈悲心 28
成效 28
我想 28
战@@ 28
手掌 28
打个比方 28
扣 28
抑或 28
折@@ 28
抵达 28
授予 28
插@@ 28
摆 28
操作系统 28
支 28
教义 28
敬畏 28
新西兰 28
方@@ 28
旁白 28
日期 28
时空 28
曾@@ 28
本世纪 28
杰@@ 28
极好 28
构思 28
枚 28
树立 28
格林 28
棒球 28
模 28
每人 28
水泥 28
水管 28
汤 28
沙发 28
没事 28
泥 28
泰国 28
测 28
测@@ 28
浮游生物 28
海洋生物 28
清晨 28
游行 28
潮 28
灯@@ 28
灰@@ 28
爬@@ 28
狩猎 28
独裁者 28
玩意 28
男孩子 28
癫痫 28
登@@ 28
百个 28
百分比 28
直 28
科学@@ 28
穆@@ 28
穿梭 28
粗@@ 28
系@@ 28
累 28
繁衍 28
红利 28
线虫 28
继续下去 28
维多利亚 28
罩 28
罪行 28
群众 28
职位 28
肯尼迪 28
船长 28
芥末 28
花朵 28
菲 28
葡萄牙 28
蒸汽 28
蜗牛 28
装有 28
见识 28
观@@ 28
解开 28
计算器 28
认定 28
语音 28
谋生 28
负责人 28
质@@ 28
起诉 28
跟@@ 28
软@@ 28
轻微 28
辅助 28
辛@@ 28
迁徙 28
运@@ 28
违反 28
迷惑 28
退化 28
送@@ 28
适@@ 28
适应性 28
逃@@ 28
选项 28
量@@ 28
量化 28
金融危机 28
长出 28
随之而来 28
震@@ 28
露@@ 28
非零 28
预见 28
餐 28
饮料 28
饮用水 28
香水 28
骗子 28
高达 28
鸭子 28
黄 28
黄@@ 28
1.@@ 27
42 27
46 27
Bo@@ 27
CD 27
Car@@ 27
N 27
Romo 27
Susan 27
Thomas 27
il 27
一两个 27
七十年代 27
下方 27
不远 27
与生俱来 27
世代 27
为生 27
九 27
二者 27
交往 27
人中 27
亿美金 27
什 27
从那以后 27
会员 27
伦@@ 27
俄国 27
候选人 27
假若 27
兄弟姐妹 27
先锋 27
再有 27
冯 27
冲浪 27
决定性 27
几张 27
出新 27
出行 27
划@@ 27
制片人 27
前行 27
加拉帕戈斯 27
十岁 27
半径 27
博 27
占领 27
印@@ 27
压迫 27
厌恶 27
参数 27
友善 27
变形 27
变换 27
古兰经 27
古希腊 27
叶@@ 27
号码 27
叹为观止 27
同一时间 27
吸烟 27
告@@ 27
响应 27
商业@@ 27
四天 27
回馈 27
埃 27
多得多 27
天文学家 27
奶酪 27
姑娘 27
威廉 27
子弹 27
孟加拉 27
宏伟 27
官 27
客人 27
尽头 27
岁月 27
崇拜 27
嵌入 27
布拉德 27
干旱 27
广 27
广@@ 27
库尔特 27
废弃物 27
开拓 27
引出 27
弗 27
强力 27
很强 27
性交 27
情节 27
戏 27
或多或少 27
手提电脑 27
扎 27
打扰 27
抵消 27
拥挤 27
捐 27
捐助 27
捕食 27
换个 27
换成 27
据说 27
探@@ 27
推特 27
提起 27
握手 27
摄氏度 27
摇滚 27
摩@@ 27
摩尔定律 27
支持者 27
故意 27
敏捷 27
无意识 27
早些时候 27
昨晚 27
更强 27
杂音 27
次序 27
此事 27
每一件 27
毫不 27
氢 27
水分 27
沉@@ 27
没人会 27
法院 27
流通 27
烦恼 27
特色 27
狂 27
狗@@ 27
独裁 27
王@@ 27
电子设备 27
画像 27
病原体 27
病患 27
百分之二十 27
益处 27
砍伐 27
社会性 27
科索沃 27
稍@@ 27
突@@ 27
笨 27
第三点 27
第四@@ 27
精致 27
素材 27
约翰逊 27
细微 27
绑架 27
维基 27
缩@@ 27
罗斯 27
美军 27
美学 27
考虑一下 27
聚合物 27
胸部 27
脊椎 27
舌头 27
艰巨 27
艺术@@ 27
行人 27
衣 27
补@@ 27
西藏 27
触觉 27
言语 27
讲完 27
论者 27
设计者 27
诱惑 27
说不定 27
请举手 27
诸多 27
课@@ 27
贤淑 27
走廊 27
越是 27
转折点 27
达赖喇嘛 27
运 27
这间 27
迷失 27
追@@ 27
里头 27
铅笔 27
错过 27
间@@ 27
附加 27
陈述 27
降临 27
降解 27
除去 27
陨石 27
陪 27
隐私 27
难以@@ 27
集成 27
雇员 27
雕刻 27
非洲大陆 27
面向 27
面纱 27
顶级 27
顺着 27
风力 27
飞到 27
魔鬼 27
&amp; 26
1995 26
1997 26
38 26
44 26
94 26
96 26
98 26
Ar@@ 26
George 26
JA 26
Ro@@ 26
U 26
ay@@ 26
ers 26
qu@@ 26
ter 26
us@@ 26
一体 26
一千@@ 26
一瓶 26
一首歌 26
上演 26
不介意 26
不利 26
不可@@ 26
不妨 26
不难 26
丽@@ 26
乌尔 26
乘坐 26
乙醇 26
也好 26
习惯于 26
事先 26
二十 26
云@@ 26
交响乐 26
亲身 26
人力 26
付给 26
伏 26
会场 26
会面 26
低收入 26
住宅 26
体育 26
佛罗里达 26
你家 26
便会 26
信件 26
修补 26
假想 26
偏好 26
先知 26
光照 26
党 26
共性 26
内存 26
再用 26
写成 26
农作物 26
冰箱 26
击@@ 26
切开 26
别处 26
剪@@ 26
十分之一 26
千万美元 26
单个 26
即@@ 26
历史学家 26
厌倦 26
原始数据 26
双向 26
双眼 26
双腿 26
台@@ 26
史上 26
号召 26
名声 26
告 26
哥白尼 26
地雷 26
培养皿 26
基层 26
境 26
士@@ 26
壮大 26
处@@ 26
外出 26
外星 26
大事 26
大道 26
大麻 26
太太 26
失败者 26
头疼 26
奇怪的是 26
奉献 26
奖学金 26
女王 26
子女 26
孕育 26
守 26
察觉 26
导航 26
小伙子 26
小规模 26
少年 26
岸 26
左上角 26
市区 26
平行 26
建筑学 26
建起 26
开口 26
归@@ 26
快要 26
急剧 26
慢性 26
所指 26
手套 26
手术室 26
拼@@ 26
挂@@ 26
接口 26
接种 26
攀登 26
散步 26
整天 26
方程 26
时速 26
易@@ 26
显@@ 26
晚期 26
智商 26
更能 26
最坏 26
最最 26
月@@ 26
有天 26
木炭 26
李 26
村落 26
标 26
模因 26
歧视 26
每种 26
法规 26
活动家 26
流域 26
海军 26
淡水 26
温 26
灵 26
灵长类 26
烤箱 26
牵@@ 26
猜猜 26
生来 26
电网 26
百分之百 26
皇家 26
相对论 26
矿物 26
磨@@ 26
神经细胞 26
租 26
稀有 26
程 26
程序员 26
稍后 26
笔@@ 26
笔记 26
筹款 26
类别 26
系统性 26
约@@ 26
纯 26
维修 26
绿 26
网络@@ 26
美德 26
脚下 26
茶壶 26
莎 26
营养不良 26
营地 26
葬礼 26
虫子 26
螃蟹 26
蟑螂 26
裤子 26
西班牙语 26
观众们 26
议程 26
记载 26
谢@@ 26
质子 26
路边 26
轮@@ 26
过滤器 26
迎接 26
这事 26
这要 26
退 26
造出来 26
逮捕 26
遍及 26
遥控 26
那场 26
重心 26
金星 26
铜 26
错@@ 26
闲@@ 26
集@@ 26
露出 26
顶尖 26
顶峰 26
领先 26
颗粒 26
香蕉 26
高压 26
鲁 26
鲁@@ 26
鲍勃 26
｢ 26
｣ 26
16@@ 25
1945 25
1980 25
1984 25
97 25
IBM 25
OK 25
PM 25
Sc@@ 25
Se@@ 25
ip@@ 25
um@@ 25
w 25
一口气 25
一度 25
一氧化氮 25
一看 25
上空 25
不堪 25
与@@ 25
专用 25
丢掉 25
二进制 25
人用 25
人行道 25
人道主义 25
仁慈 25
令人振奋 25
伊丽莎白 25
众@@ 25
传粉 25
余 25
便利 25
信奉 25
倡议 25
做手术 25
做饭 25
偷@@ 25
充分利用 25
光纤 25
减弱 25
出路 25
出门 25
击中 25
分泌 25
划 25
刷 25
剂量 25
前线 25
剧 25
功夫 25
劳工 25
包容 25
十五年 25
十月 25
午饭 25
压抑 25
原住民 25
原谅 25
发动机 25
发电机 25
发短信 25
叙述 25
另一端 25
可卡因 25
各个方面 25
名言 25
后院 25
吞噬 25
启迪 25
商@@ 25
喜 25
土卫六 25
在读 25
坎@@ 25
坚固 25
基本@@ 25
填充 25
境内 25
境地 25
多一点 25
大幅 25
太过 25
奥斯卡 25
女朋友 25
奴隶制 25
好得多 25
好笑 25
孢子 25
安全感 25
宝@@ 25
客@@ 25
寄给 25
密切 25
对照 25
小事 25
小麦 25
少女 25
就象 25
尼克 25
差@@ 25
巴士 25
巴比伦 25
市民 25
布满 25
平均值 25
幻@@ 25
引人入胜 25
弯@@ 25
弹簧 25
当局 25
彩色 25
往@@ 25
忍受 25
思 25
怪人 25
恐怖袭击 25
感应器 25
我先 25
戴@@ 25
户外 25
房@@ 25
折 25
拉里 25
拨@@ 25
捕杀 25
排名 25
推断 25
提炼 25
摄入 25
摆动 25
收养 25
教书 25
散 25
文本 25
斯坦福 25
斯坦福大学 25
斯科特 25
新颖 25
族人 25
是@@ 25
有意 25
木 25
杰克逊 25
极具 25
果@@ 25
某@@ 25
某处 25
标志性 25
根本无法 25
欲@@ 25
每日 25
气温 25
氦 25
水泵 25
汇聚 25
没想到 25
治理 25
泄露 25
泡 25
波长 25
流传 25
浓缩 25
海藻 25
渔业 25
瀑布 25
点燃 25
烧 25
热带 25
然@@ 25
煤 25
爪子 25
现金 25
用过 25
电台 25
电器 25
百 25
百分之@@ 25
盐@@ 25
睡@@ 25
矿@@ 25
碰巧 25
社会@@ 25
秋天 25
空军 25
突破性 25
立方体 25
站@@ 25
竞争者 25
筹集 25
签署 25
管理员 25
精美 25
红酒 25
维亚 25
缘 25
缩短 25
罪恶 25
群落 25
耶路撒冷 25
联结 25
腔 25
自动化 25
自由@@ 25
舞者 25
苦 25
荒唐 25
获利 25
蒸发 25
蓝鳍 25
虚构 25
螨 25
行政 25
袭 25
裂 25
裤 25
西蒙 25
触 25
言论 25
评@@ 25
谈起 25
谜团 25
贝拉 25
赞美 25
赤道 25
超导体 25
躲避 25
迈向 25
这门 25
进攻 25
违背 25
追逐 25
逃脱 25
速率 25
造出 25
那样的话 25
酋长 25
配偶 25
重现 25
钢铁 25
钱@@ 25
钻@@ 25
阿拉伯语 25
阿波罗 25
限度 25
雏形 25
霍乱 25
靠@@ 25
革命性 25
预先 25
领@@ 25
额 25
飞越 25
飞跃 25
饭 25
骗 25
高空 25
默@@ 25
鼻 25
Al 24
Me@@ 24
Re@@ 24
Sp@@ 24
Wolfram 24
ed@@ 24
ent@@ 24
ian 24
oc@@ 24
一次性 24
一阵 24
万能 24
上课 24
不上 24
不太@@ 24
不曾 24
东非 24
两边 24
乃至 24
乔 24
乡下 24
书店 24
事例 24
五种 24
井 24
人均收入 24
什@@ 24
优美 24
会为 24
伸展 24
侧面 24
修正 24
借用 24
兔子 24
入口 24
全美 24
公共@@ 24
六种 24
共和党人 24
写信 24
几秒钟 24
函数 24
切断 24
初级 24
别忘了 24
制造业 24
前列腺癌 24
剩 24
加剧 24
务@@ 24
势 24
十足 24
压制 24
原子弹 24
原子核 24
参照 24
发明者 24
可视 24
史密斯 24
右侧 24
吉姆 24
吸取 24
哈里 24
唤起 24
喇叭 24
喜@@ 24
喷发 24
器械 24
围着 24
图中 24
图景 24
圈子 24
地平线 24
地步 24
地里 24
基因组学 24
夏 24
大选 24
失控 24
奶牛 24
好友 24
威力 24
学过 24
宇宙空间 24
尖端 24
尼古拉斯 24
己 24
带宽 24
席卷 24
年度 24
并用 24
幼@@ 24
应有 24
延@@ 24
建了 24
开销 24
彩@@ 24
忠诚 24
抢 24
挤 24
推翻 24
提倡 24
摩西 24
撒谎 24
数十年 24
新一代 24
方形 24
施加 24
显示器 24
暴@@ 24
更深 24
最差 24
最长 24
有利于 24
朝@@ 24
权@@ 24
村里 24
枪@@ 24
柏@@ 24
格子 24
检视 24
欲 24
此处 24
每分钟 24
毫无意义 24
水准 24
汀 24
汇集 24
津 24
派@@ 24
流向 24
流失 24
消防员 24
溪流 24
漂@@ 24
演@@ 24
演绎 24
濒危 24
灭亡 24
热门 24
爵士乐 24
父 24
牲畜 24
猪@@ 24
环形 24
珠宝 24
班加罗尔 24
琢磨 24
生态学 24
用水 24
电荷 24
瘾君子 24
登录 24
研究成果 24
研讨会 24
破产 24
种族灭绝 24
科勒 24
科学技术 24
科学界 24
积木 24
税收 24
笑脸 24
第三方 24
简易 24
粪便 24
精准 24
纠结 24
红线 24
纵@@ 24
组件 24
绳索 24
维尔 24
署 24
老年痴呆症 24
肺结核 24
胡萝卜 24
脑细胞 24
脚步 24
节约 24
范畴 24
荣耀 24
药片 24
螺旋 24
行得通 24
街@@ 24
衣@@ 24
譬如 24
计 24
记录下来 24
该死 24
说来 24
读过 24
贪婪 24
资格 24
轻轻 24
较大 24
辆车 24
远处 24
逃跑 24
选民 24
那座 24
那才 24
针@@ 24
钻石 24
长话短说 24
闪光 24
阿奇 24
附@@ 24
陈@@ 24
隧道 24
难过 24
雅@@ 24
雇用 24
非常低 24
风车 24
食@@ 24
鬼@@ 24
10@@ 23
180 23
900 23
AIMS 23
BG 23
Bill 23
Rob 23
SETI 23
au@@ 23
ch 23
ic 23
ina 23
ll@@ 23
r 23
® 23
一串 23
一整套 23
三点 23
上台 23
上涨 23
不感兴趣 23
不足以 23
个人电脑 23
主持 23
举@@ 23
习俗 23
事务 23
从那时起 23
他来 23
他用 23
众 23
会上 23
传奇 23
传媒 23
传授 23
伦理 23
伯克利 23
但愿 23
侧 23
倾@@ 23
共和党 23
关上 23
冷漠 23
几百万 23
出发点 23
切实 23
利亚 23
制药 23
刻意 23
前方 23
力气 23
动脉 23
助@@ 23
十倍 23
单单 23
卖掉 23
召开 23
右手 23
同学 23
后退 23
吹口哨 23
品尝 23
唱诗班 23
嘈杂 23
地域 23
埃里克 23
埋 23
城里 23
基里巴斯 23
外交家 23
外向 23
多样 23
太阳光 23
失落 23
头痛 23
夺走 23
嫉妒 23
孟加拉国 23
宇航员 23
审美 23
害羞 23
容 23
宽容 23
寄生 23
对面 23
封信 23
小儿麻痹症 23
尝 23
就业 23
尾 23
局限于 23
屏气 23
峰值 23
布拉 23
常识 23
幕 23
幻象 23
床@@ 23
座@@ 23
康@@ 23
开着 23
开阔 23
微弱 23
心率 23
心跳 23
志愿 23
怕 23
性生活 23
怪@@ 23
恨 23
慈悯 23
才华 23
打动 23
扫@@ 23
扼杀 23
承载 23
抗药性 23
抬头 23
指着 23
捐款 23
换言之 23
排斥 23
排队 23
控制器 23
推移 23
推销 23
摇晃 23
摔倒 23
摸 23
撒 23
撕开 23
擦 23
放映 23
放进去 23
散发 23
散布 23
文档 23
无所谓 23
旨在 23
时不时 23
时钟 23
晓得 23
景色 23
智@@ 23
更换 23
最高法院 23
有创造力 23
有所@@ 23
有生之年 23
有的是 23
朗 23
机能 23
杂@@ 23
权衡 23
村民 23
束 23
条款 23
柜 23
树叶 23
椅 23
横渡 23
此时此刻 23
毕业生 23
气氛 23
沙滩 23
波兰 23
波动 23
津巴布韦 23
洪水 23
涂 23
深层次 23
渡渡 23
漏 23
灵@@ 23
灵活性 23
煤矿 23
牛津大学 23
特有 23
狄@@ 23
猿类 23
现@@ 23
珍惜 23
琳 23
瓦特 23
生产商 23
电源 23
盈利 23
盲目 23
相似之处 23
真心 23
着眼于 23
知识产权 23
砖 23
社会学家 23
祷告 23
移@@ 23
立法 23
童@@ 23
策划 23
算术 23
米尔 23
粉色 23
糖@@ 23
素@@ 23
红外线 23
纸质 23
纹 23
终 23
经济@@ 23
维系 23
职 23
联@@ 23
胖 23
能为 23
自由主义 23
致死 23
范 23
菲尼克斯 23
菲律宾 23
董事会 23
表皮 23
衰落 23
被捕 23
规矩 23
解剖 23
解析 23
说些 23
贝 23
贿赂 23
赞同 23
超级计算机 23
转基因 23
转身 23
迄今为止 23
运气 23
这头 23
迷宫 23
追 23
适宜 23
那张 23
部署 23
锁 23
锅 23
阐释 23
阿尔@@ 23
除@@ 23
集中营 23
韦@@ 23
音乐@@ 23
音量 23
须 23
预示 23
食谱 23
馅饼 23
馆 23
香@@ 23
马拉松 23
鳍 23
齐@@ 23
龙@@ 23
1968 22
1991 22
31 22
52 22
Ad@@ 22
Bar@@ 22
Tony 22
W 22
ig@@ 22
oo@@ 22
一万@@ 22
一侧 22
三分钟 22
不动 22
不得 22
中立 22
中等 22
久@@ 22
义@@ 22
之大 22
乌托邦 22
乎 22
九岁 22
买来 22
交易所 22
亲吻 22
亲眼 22
亲近 22
人类学 22
仇恨 22
以防 22
休假 22
会用 22
伪造 22
伯蒂县 22
伽利略 22
住@@ 22
依 22
信不信 22
信徒 22
信条 22
假死 22
偏差 22
偏离 22
停滞 22
偶像 22
先是 22
光源 22
全力 22
全职 22
八岁 22
共产主义 22
内心深处 22
农@@ 22
冰块 22
冷静 22
几条 22
凭 22
刊登 22
制造者 22
刹车 22
勾@@ 22
北京 22
北方 22
占有 22
卡塔尔 22
卡拉 22
卡西尼 22
卡门 22
卷入 22
发挥作用 22
发誓 22
发酵 22
变动 22
右手边 22
各处 22
吉 22
向着 22
周年 22
咖啡馆 22
固体 22
国度 22
国旗 22
地向 22
地貌 22
场面 22
坏人 22
块钱 22
堡 22
填满 22
复发 22
外形 22
外科手术 22
多点 22
大吃一惊 22
大国 22
套@@ 22
姆@@ 22
字节 22
宁愿 22
完全相同 22
官司 22
定居 22
定理 22
宿主 22
寄生虫 22
尖@@ 22
尚 22
尤@@ 22
峰顶 22
左侧 22
师@@ 22
并不认为 22
幸存者 22
底特律 22
异 22
归类 22
当有 22
当选 22
形@@ 22
得来 22
德拉 22
怀着 22
惊@@ 22
惯例 22
意志力 22
意料 22
意识形态 22
感人 22
战后 22
截@@ 22
所得 22
打猎 22
扯 22
抓取 22
抬起 22
拜 22
拼 22
挤压 22
捕捉到 22
掠 22
控制@@ 22
描写 22
效力 22
散播 22
新世界 22
於 22
族群 22
无人驾驶 22
无能为力 22
日语 22
有位 22
未曾 22
李@@ 22
构架 22
柔软 22
标语 22
校@@ 22
核反应堆 22
模拟器 22
歌@@ 22
步伐 22
毁灭性 22
毛发 22
氛围 22
氨基酸 22
沉迷于 22
没人能 22
波斯尼亚 22
流逝 22
海域 22
淡@@ 22
深渊 22
渔民 22
游动 22
溶解 22
炒 22
点亮 22
烟雾 22
烤 22
热点 22
熟 22
特意 22
状@@ 22
状物 22
猜@@ 22
猫咪 22
玛丽 22
班@@ 22
班卓琴 22
瑟 22
瓦解 22
甚@@ 22
生产者 22
电动 22
畏惧 22
留意 22
痴迷 22
瘤 22
登革热 22
百分之二 22
监禁 22
目录 22
睾丸 22
碎@@ 22
碳水化合物 22
磅重 22
稳@@ 22
竟 22
笨蛋 22
第一点 22
第四 22
笼子 22
等@@ 22
等等等等 22
签名 22
精通 22
纳州 22
纳粹 22
纷纷 22
纽 22
练 22
经受 22
给@@ 22
绝佳 22
网格 22
羞愧 22
羽毛 22
肯@@ 22
自我意识 22
致@@ 22
致敬 22
莫扎特 22
莱 22
菜单 22
蒙特 22
蝴蝶 22
螳螂 22
血压 22
行贿 22
裸露 22
角落里 22
计@@ 22
证人 22
请问 22
读出 22
貌似 22
财务 22
起源于 22
超人 22
超声 22
车轮 22
轰@@ 22
轰炸 22
载体 22
达芬奇 22
这根 22
这组 22
违法 22
选手 22
透@@ 22
通知 22
邮箱 22
配 22
里根 22
重生 22
野蛮 22
钱包 22
链条 22
锂 22
长长的 22
闪@@ 22
队员 22
阳性 22
阻力 22
院子 22
险 22
陷阱 22
随处可见 22
顶上 22
颇 22
驾车 22
鸡肉 22
默 22
默斯 22
﹖ 22
+ 21
140 21
Br@@ 21
Brian 21
CO 21
Ma@@ 21
Mat@@ 21
SJ 21
Skype 21
TED@@ 21
WK 21
ang@@ 21
av@@ 21
c 21
da 21
ell@@ 21
ke 21
of 21
ub@@ 21
un@@ 21
yn@@ 21
一丝 21
一大群 21
一月 21
一条线 21
一滴 21
一连串 21
三周 21
上个月 21
不受 21
不吃 21
不易 21
不清 21
丑陋 21
专栏 21
两千 21
中观 21
之快 21
之际 21
乘@@ 21
九年 21
亲手 21
仓库 21
休闲 21
优@@ 21
会议室 21
会长 21
传给 21
传遍 21
使人 21
侧@@ 21
保守派 21
做不了 21
儿@@ 21
充实 21
充满活力 21
免@@ 21
全身心 21
共事 21
共生 21
关键在于 21
其一 21
内疚 21
冒@@ 21
决@@ 21
几点 21
凯利 21
分化 21
切换 21
创 21
利比亚 21
剑 21
剪辑 21
办@@ 21
功能性 21
加勒比海 21
助手 21
势@@ 21
包裹 21
匈牙利 21
匠 21
匹兹堡 21
医学@@ 21
十分钟 21
升华 21
卢@@ 21
卫生巾 21
印第安人 21
县 21
变小 21
另一组 21
只花 21
可塑性 21
可言 21
司法 21
同胞 21
吸 21
周日 21
和解 21
咱们 21
器@@ 21
图象 21
图里 21
土著 21
地是 21
坠落 21
坦@@ 21
塔拉 21
填@@ 21
壁 21
复兴 21
复活 21
夜间 21
大使 21
大地 21
大都 21
天真 21
太快 21
夸克 21
奔跑 21
奥地利 21
好极了 21
威 21
官僚 21
宣扬 21
害 21
对折 21
小狗 21
尔顿 21
尼莱坞 21
屈@@ 21
巴厘岛 21
布置 21
常用 21
平和 21
幸好 21
废@@ 21
度假 21
建构 21
张力 21
弥补 21
强子 21
影@@ 21
很糟 21
微观 21
心血管 21
忍@@ 21
忙于 21
快餐 21
怀@@ 21
态 21
急需 21
性行为 21
怪物 21
恐慌 21
愈合 21
慢@@ 21
我以 21
所作所为 21
所在地 21
打断 21
把戏 21
投射 21
抛@@ 21
护照 21
报酬 21
拍打 21
拔@@ 21
拜托 21
拷贝 21
捕 21
推理 21
推行 21
搞砸 21
搬@@ 21
摄取 21
摇 21
摇@@ 21
攀岩 21
政 21
效仿 21
救济 21
教徒 21
教条 21
敞开 21
敢 21
数值 21
数十亿 21
斗 21
方程式 21
时段 21
春@@ 21
智能手机 21
最深 21
望@@ 21
本土 21
朱@@ 21
杀人 21
杰 21
杰作 21
杰夫 21
板子 21
架子 21
格雷 21
框 21
棍 21
橄榄球 21
橡皮泥 21
歌词 21
武力 21
毁坏 21
每晚 21
毒害 21
毕生 21
气流 21
气象 21
永不 21
汽车座椅 21
没见 21
治@@ 21
泥@@ 21
洗澡 21
洛克 21
活生生 21
浏览器 21
液 21
液态 21
深信 21
深奥 21
清真寺 21
清除 21
温柔 21
港 21
源泉 21
潜@@ 21
灰 21
点钟 21
煮 21
燃料电池 21
爬行 21
牙医 21
犯@@ 21
独处 21
现代人 21
生态环境 21
生机 21
用不着 21
田@@ 21
甲@@ 21
电能 21
电邮 21
画作 21
番茄酱 21
百分之五十 21
盖尔 21
相结合 21
省@@ 21
真想 21
眨眼 21
睡着 21
瞄准 21
矿 21
矿井 21
破碎 21
碰@@ 21
碳@@ 21
神父 21
神经科学 21
积@@ 21
积极情绪 21
移除 21
稍稍 21
稿 21
空闲 21
窝 21
立马 21
第一张 21
第五 21
第四个 21
答 21
简要 21
粉末 21
精神@@ 21
索马里 21
紧接着 21
累@@ 21
细致 21
结晶 21
继承 21
继续前进 21
罗伊 21
考 21
耕种 21
聊聊 21
肮脏 21
胡子 21
胶@@ 21
胶带 21
能用 21
脸@@ 21
腐烂 21
自给自足 21
自觉 21
舒@@ 21
航班 21
色情 21
节@@ 21
花掉 21
荒漠化 21
荷尔蒙 21
营养@@ 21
薪水 21
薯条 21
螺旋桨 21
行事 21
被困 21
觉醒 21
触角 21
计算机@@ 21
认@@ 21
认证 21
诗@@ 21
话语 21
谈一谈 21
谈过 21
谋@@ 21
谜 21
豪@@ 21
豹 21
贝多芬 21
负@@ 21
走近 21
起义 21
超大 21
跑道 21
跨@@ 21
跳跃 21
轮廓 21
较@@ 21
辈 21
达拉斯 21
运到 21
远古 21
述 21
迹 21
透 21
透露 21
逐@@ 21
递给 21
造福 21
道具 21
避@@ 21
都行 21
银@@ 21
键 21
问世 21
闻到 21
阶级 21
降雨 21
院 21
隐@@ 21
障碍物 21
零下 21
音响 21
颠倒 21
饿 21
首领 21
马尔代夫 21
马拉 21
马车 21
骑行 21
鲜花 21
齿轮 21
110 20
1975 20
1989 20
64 20
76 20
8000 20
Alice 20
Co@@ 20
Danny 20
De@@ 20
Jeff 20
RG 20
RNA 20
TEDMED 20
ah@@ 20
ana 20
at 20
ers@@ 20
ley 20
ta 20
一封信 20
一小块 20
一流 20
一阵子 20
万英尺 20
三维空间 20
上层 20
下个 20
下滑 20
下落 20
不出 20
不敢相信 20
不来 20
专业人士 20
东海岸 20
严峻 20
个头 20
临@@ 20
丹@@ 20
丹尼 20
主任 20
主观 20
之多 20
乐曲 20
书本 20
五分之一 20
交汇 20
交通拥堵 20
亲 20
亲眼目睹 20
人种 20
从何而来 20
代币 20
代数 20
任@@ 20
仿真 20
伤心 20
伯格 20
住所 20
何方 20
余生 20
作出反应 20
侮辱 20
保护@@ 20
修理 20
借@@ 20
借鉴 20
假体 20
做生意 20
先天 20
先驱 20
光年 20
克莱 20
克雷格 20
典范 20
兹@@ 20
养蜂人 20
内涵 20
再也不会 20
再见 20
冒出来 20
冰面 20
几百个 20
出版商 20
分辨率 20
初始 20
剧@@ 20
剧本 20
割@@ 20
力度 20
加仑 20
加利福尼亚州 20
化学反应 20
十九世纪 20
十二 20
半年 20
华尔街 20
南美洲 20
占用 20
印度教 20
历@@ 20
历史性 20
原材料 20
台阶 20
吓坏 20
吻合 20
周遭 20
哮喘 20
噩梦 20
四倍 20
四十年 20
因子 20
团@@ 20
圆点 20
圣母 20
圣诞老人 20
坑 20
坟墓 20
墨@@ 20
声波 20
外太空 20
外来 20
多亏 20
多重 20
多钱 20
大家伙 20
大家庭 20
头衔 20
奖赏 20
字符 20
季候风 20
安德鲁 20
宏大 20
宗旨 20
定期 20
宪法 20
射线 20
工业@@ 20
左手 20
巴勒斯坦人 20
市@@ 20
布莱恩 20
带回家 20
幕后 20
年老 20
并不一定 20
幸存 20
广义 20
店里 20
废料 20
开发商 20
弄清 20
张贴 20
心愿 20
心电图 20
忙碌 20
总有一天 20
悬挂 20
惊叹 20
惹 20
憎恨 20
截肢 20
执行官 20
投弹 20
护 20
抱负 20
抵制 20
拆除 20
拉比 20
招 20
拜@@ 20
拼命 20
指引 20
振奋 20
探 20
控 20
摇篮 20
撞@@ 20
攀爬 20
政@@ 20
政治@@ 20
斑@@ 20
无关紧要 20
无害 20
无穷 20
无趣 20
既有 20
时所 20
时装 20
映射 20
最少 20
最能 20
期刊 20
末期 20
朱利安 20
机翼 20
杀戮 20
条纹 20
查找 20
标示 20
桑 20
桑@@ 20
梦@@ 20
楼@@ 20
楼房 20
橡胶 20
死刑 20
残@@ 20
氏 20
汁 20
汉@@ 20
池塘 20
汤@@ 20
沉重 20
河@@ 20
泡@@ 20
洋葱 20
活得 20
流体 20
浴室 20
消@@ 20
消融 20
漫步 20
澳洲 20
灌溉 20
火柴 20
火腿 20
灰尘 20
热气球 20
爱上 20
爽 20
片状 20
牛仔 20
犹太 20
猎人 20
猴 20
现如今 20
玻璃@@ 20
球体 20
瓣膜 20
瓷砖 20
用心 20
用药 20
男女 20
留下来 20
疯子 20
百分之三十 20
百分点 20
盈余 20
看吧 20
破裂 20
磁@@ 20
祈求 20
空洞 20
端@@ 20
笛子 20
第一代 20
第三世界 20
签 20
简称 20
精巧 20
纠正 20
纳入 20
终@@ 20
经济危机 20
结 20
继而 20
缓解 20
罗斯林 20
羊@@ 20
美人鱼 20
美食 20
耶 20
耶@@ 20
联邦政府 20
聚 20
股票 20
肥料 20
胜 20
胸@@ 20
能比 20
能活 20
脑震荡 20
脖子 20
脱 20
自由派 20
航 20
芬奇 20
苏 20
苹果公司 20
茶@@ 20
蒂姆 20
蒙特雷 20
蓝光 20
薄膜 20
蚁后 20
蠕虫 20
衍生 20
衬衫 20
计划生育 20
误导 20
诱饵 20
读写 20
读到 20
谢丽尔 20
谦虚 20
贝索 20
贴@@ 20
赞成 20
赤@@ 20
走来 20
越来越少 20
越高 20
跨国 20
跨过 20
较为 20
达尔富尔 20
迈@@ 20
运河 20
连线 20
逆向 20
遗传信息 20
避开 20
那好 20
酒精 20
酵母 20
金斯 20
钟@@ 20
钢 20
铜@@ 20
闲置 20
阿姆斯特丹 20
阿拉斯加 20
降 20
隐形 20
雷达 20
雾 20
韧性 20
飘@@ 20
香味 20
高出 20
高密度 20
鲍鱼 20
鲜明 20
鸡@@ 20
麻省理工学院 20
黑板 20
鼓舞人心 20
0@@ 19
160 19
1982 19
1986 19
2030 19
= 19
Am@@ 19
FOXO 19
He@@ 19
IM 19
Julian 19
Le@@ 19
Mike 19
Mor@@ 19
TS 19
Ted 19
T恤 19
ach@@ 19
ant@@ 19
are 19
eBay 19
ew@@ 19
iPad 19
ick@@ 19
ity 19
ud@@ 19
一一 19
一个点 19
一到 19
一枚 19
一步步 19
一秒 19
一致性 19
下班 19
不丹 19
不准 19
不可或缺 19
不带 19
不许 19
不起作用 19
丑 19
丑闻 19
世界卫生组织 19
世间 19
业@@ 19
严谨 19
个案 19
中东地区 19
中产阶级 19
为主 19
之路 19
之道 19
乏味 19
乐于 19
九十年代 19
五十万 19
五月 19
五百 19
些许 19
交通@@ 19
京都 19
亲戚 19
人想 19
仅仅只是 19
介于 19
从头开始 19
传递信息 19
佛@@ 19
侵略 19
保卫 19
保持平衡 19
信贷 19
信赖 19
修饰 19
倒塌 19
债券 19
做起 19
健全 19
充@@ 19
公元前 19
六十 19
六十年代 19
六月 19
关联性 19
其为 19
军方 19
决不 19
凑@@ 19
出乎 19
击 19
分流 19
前来 19
剧团 19
剩余 19
动员 19
勃@@ 19
募集 19
北美洲 19
升起 19
卫生@@ 19
印记 19
历经 19
原则上 19
友谊 19
双臂 19
叙利亚 19
口音 19
召唤 19
可行性 19
吉米 19
同性 19
名义 19
后方 19
吐 19
周围环境 19
呼 19
呼叫 19
哪来 19
唔 19
唤醒 19
喷出 19
嘴巴 19
回避 19
围栏 19
地外 19
地想 19
坦 19
垂@@ 19
垮 19
基石 19
塞尔吉奥 19
墙@@ 19
外套 19
夜空 19
夜里 19
太高 19
失业 19
夸大 19
奈@@ 19
奏效 19
女神 19
姿态 19
婚@@ 19
存活率 19
季 19
宁静 19
安东尼 19
安妮 19
安慰剂 19
实物 19
客厅 19
家庭成员 19
宽@@ 19
寂静 19
对立 19
寻@@ 19
导 19
尔德 19
尼泊尔 19
局部 19
山谷 19
岸边 19
工作@@ 19
巧 19
巴贝奇 19
布局 19
希尔 19
带我去 19
幅照片 19
干涸 19
平均水平 19
年级 19
幸运地 19
幻灯 19
广告牌 19
建筑业 19
开到 19
式@@ 19
弗朗西斯 19
弗洛伊德 19
强暴 19
形体 19
往下 19
很近 19
志 19
忘掉 19
怜悯 19
思绪 19
急 19
急诊室 19
感同身受 19
我画 19
我见 19
战火 19
戴安娜 19
手斧 19
托尼 19
托德 19
扬@@ 19
抉择 19
招募 19
指南 19
捐献 19
捕猎 19
捷@@ 19
接管 19
摄像 19
摩 19
撒@@ 19
改成 19
教学@@ 19
教材 19
新德里 19
旗 19
无人 19
无可@@ 19
无声 19
无线网络 19
日光 19
日记 19
替代品 19
替身 19
有所作为 19
未经 19
标准化 19
树脂 19
核战争 19
桌 19
森@@ 19
欠 19
欧洲人 19
此项 19
毒性 19
毫无@@ 19
水生 19
永久性 19
沃尔夫 19
活到 19
浅@@ 19
海岸线 19
混凝土 19
混合物 19
渗透 19
游泳池 19
渺小 19
漏洞 19
激@@ 19
炸@@ 19
爆@@ 19
版权保护 19
牛排 19
牠 19
王国 19
王蛇 19
环境保护 19
珍妮 19
瓶盖 19
生命周期 19
生物科技 19
用户界面 19
用法 19
田 19
电路板 19
界线 19
略 19
略@@ 19
疯@@ 19
的@@ 19
皮质 19
监@@ 19
直播 19
相片 19
知识分子 19
碗 19
碰上 19
示范 19
社会化 19
祝 19
祝福 19
神庙 19
离子 19
科塔 19
移植手术 19
稳 19
穷@@ 19
穿行 19
第三次 19
第二条 19
类动物 19
粉笔 19
精神分裂症 19
精髓 19
糟透了 19
紧凑 19
约瑟夫 19
纸片 19
给与 19
维珍 19
缘故 19
缩写 19
肝 19
胎 19
胜过 19
脊 19
脏@@ 19
脑电图 19
膀胱 19
自传 19
自然环境 19
舍@@ 19
舱 19
良@@ 19
花上 19
若@@ 19
英 19
英国@@ 19
荡 19
莱特 19
获奖 19
获胜 19
营@@ 19
营造 19
落到 19
蕴含 19
薪 19
虚假 19
蜂群 19
蝌蚪 19
西伯利亚 19
西方人 19
西海岸 19
要花费 19
解放出来 19
警@@ 19
计数 19
记下 19
评判 19
该国 19
误@@ 19
读取 19
课本 19
调研 19
谢 19
谦卑 19
贝壳 19
账 19
购物中心 19
贵@@ 19
赖以生存 19
赛车 19
赞扬 19
赤脚 19
赶 19
距 19
踢 19
转到 19
转而 19
载@@ 19
边境 19
过世 19
追随 19
道菜 19
避难所 19
那幅 19
郊外 19
醒 19
采 19
钓鱼 19
钞票 19
钢@@ 19
钻探 19
银行业 19
错综复杂 19
镜像 19
闪烁 19
阵营 19
陈旧 19
随处 19
隔@@ 19
隔热 19
难得 19
集会 19
霍金 19
青@@ 19
静@@ 19
预知 19
马桶 19
验证码 19
高中生 19
高尚 19
高昂 19
鸟@@ 19
鼓@@ 19
1985 18
1996 18
450 18
49 18
57 18
AV 18
Alex 18
Ap@@ 18
Bronx 18
CNN 18
Lab 18
Peter 18
Ray 18
ace 18
art@@ 18
ast@@ 18
aw@@ 18
cymatics 18
id 18
ing@@ 18
od@@ 18
ster 18
一亿 18
一例 18
一团 18
一块儿 18
一米 18
一般来说 18
一课 18
一轮 18
三千 18
三百万 18
三者 18
上边 18
下沉 18
不为人知 18
不可知论 18
不应 18
不管怎么 18
不适 18
世俗 18
个人化 18
中西部 18
之久 18
之手 18
乌 18
乐观主义 18
九月 18
习以为常 18
书名 18
争夺 18
云层 18
五万 18
交响乐团 18
人口数量 18
人工合成 18
亿元 18
从未见过 18
仔细观察 18
代言 18
仿生学 18
伸@@ 18
体外 18
侦测 18
债 18
债务 18
值得注意 18
停顿 18
健康状况 18
像@@ 18
入手 18
全体 18
八十年代 18
公立学校 18
公顷 18
共和国 18
内心世界 18
冰冷 18
凯 18
击败 18
判决 18
制服 18
功课 18
动人 18
动物园 18
区@@ 18
医疗系统 18
千万别 18
升温 18
单细胞 18
占@@ 18
印度语 18
反向 18
发声 18
可信 18
可口 18
右下角 18
各式各样 18
启发性 18
吻 18
商业化 18
商机 18
喜马拉雅山 18
喝酒 18
四十@@ 18
回路 18
回过 18
园艺 18
固@@ 18
国务卿 18
圣保罗 18
在历史上 18
坚硬 18
坦白说 18
基本粒子 18
增多 18
增长率 18
壁@@ 18
夏@@ 18
夏季 18
多伦多 18
大不了 18
夹 18
奖@@ 18
女友 18
好似 18
妓女 18
威利 18
孙女 18
安全性 18
室外 18
对外 18
尖锐 18
屋@@ 18
崇高 18
嵌 18
州@@ 18
左下角 18
左撇子 18
巨额 18
差点 18
帕 18
帝@@ 18
席 18
干脆 18
平滑 18
年底 18
年时 18
广大 18
庆幸 18
应急 18
康恩 18
建筑@@ 18
建筑设计 18
彻底改变 18
往前 18
往返 18
很想 18
微博 18
心思 18
息 18
恰巧 18
悲观 18
感恩 18
慈善机构 18
戴着 18
所想 18
所有者 18
打着 18
执@@ 18
抛开 18
抬高 18
拇指 18
拽 18
挫折 18
振奋人心 18
捏 18
捕@@ 18
捡 18
据@@ 18
授粉 18
插图 18
搬到 18
摄影机 18
摆弄 18
摩托 18
摸@@ 18
播 18
支柱 18
改建 18
政党 18
救赎 18
数字@@ 18
斜坡 18
新书 18
旋@@ 18
无视 18
昏迷 18
星系团 18
普林斯顿 18
最大化 18
最底层 18
枯燥 18
查询 18
格尔 18
槽 18
欧元 18
此次 18
毛病 18
民 18
永@@ 18
油污 18
法国人 18
泰勒 18
洋 18
洋@@ 18
浪@@ 18
海浪 18
浸@@ 18
消逝 18
淋巴结 18
混淆 18
渲染 18
湖@@ 18
湿 18
溜@@ 18
滑 18
滴 18
漆黑 18
烂 18
煤@@ 18
熟@@ 18
熟练 18
牢固 18
犯人 18
独白 18
狭窄 18
猛@@ 18
环球 18
班级 18
琐碎 18
生死 18
生物量 18
电报 18
电视@@ 18
畅销 18
界定 18
百万年 18
百分之七十 18
百年 18
益虫 18
直升飞机 18
真得 18
眠 18
着火 18
瞧瞧 18
短时间 18
石膏 18
硅 18
碟 18
祖国 18
神殿 18
神经学家 18
种族隔离 18
秘鲁 18
空地 18
穿透 18
突尼斯 18
竞争力 18
章节 18
第一台 18
第二年 18
第二步 18
答应 18
筛选 18
管制 18
类人 18
纳德 18
纳米级 18
纹身 18
纽@@ 18
线上 18
绳 18
罪魁祸首 18
羞辱 18
翻倍 18
老兵 18
老式 18
胰岛素 18
胶片 18
脚手架 18
脱落 18
自下而上 18
自然@@ 18
自然资源 18
臭@@ 18
莎拉 18
营利性 18
蝙蝠 18
行者 18
被判 18
装在 18
西欧 18
观众席 18
触@@ 18
警卫 18
警示 18
许可证 18
论@@ 18
设@@ 18
贫困线 18
资@@ 18
跌倒 18
路标 18
跳进 18
躯体 18
转折 18
辛苦 18
达菲 18
迈 18
这下 18
这条线 18
进到 18
迪士尼 18
追随者 18
逆@@ 18
逆转录 18
通风 18
避孕套 18
酸@@ 18
醉 18
里克 18
重拾 18
金色 18
锋利 18
长久以来 18
长期以来 18
闹 18
阐明 18
阴谋 18
限于 18
随身带 18
隔绝 18
非同寻常 18
面世 18
面试 18
韵律 18
顺 18
预料到 18
领地 18
领带 18
颞叶 18
馆长 18
香 18
高地 18
鹿 18
麦片 18
黎巴嫩 18
黑手党 18
龟 18
2.@@ 17
2015 17
2500 17
51 17
68 17
77 17
At@@ 17
Barry 17
Be@@ 17
DJ 17
Earth 17
Evan 17
Flickr 17
Ge@@ 17
IDEO 17
MA 17
MO 17
Mc@@ 17
Ne@@ 17
Sha@@ 17
Stewart 17
Sudhir 17
TEDGlobal 17
We@@ 17
X@@ 17
der 17
ef@@ 17
ik@@ 17
ill@@ 17
ion 17
ir 17
la@@ 17
og@@ 17
ola 17
one 17
ug@@ 17
™ 17
一万 17
一万年 17
一个半 17
一个男孩 17
一千亿 17
一千年 17
一堵 17
一岁 17
一提 17
一朵花 17
一束 17
一端 17
一趟 17
三到 17
三号 17
上将 17
下周 17
下潜 17
下车 17
不同之处 17
不复存在 17
不小 17
不良 17
不起眼 17
世界末日 17
东亚 17
两人 17
两者之间 17
两面 17
之力 17
买单 17
争端 17
争辩 17
事上 17
五十 17
五天 17
交织 17
产生共鸣 17
亲切 17
人际 17
付费 17
任何事物 17
仿生 17
伊朗人 17
众生 17
会花 17
伪装 17
伯特 17
低廉 17
住房 17
便@@ 17
俄@@ 17
保加利亚 17
保险@@ 17
修剪 17
倒退 17
借此 17
假定 17
假期 17
傻@@ 17
傻瓜 17
僧侣 17
光合作用 17
光芒 17
免受 17
全麦 17
公认 17
共存 17
兵@@ 17
再来 17
再现 17
写给 17
农夫 17
冷藏 17
减 17
减排 17
几十亿 17
几千 17
凡@@ 17
凯特 17
凯西 17
出身 17
划船 17
初步 17
制止 17
刻@@ 17
削弱 17
前途 17
副@@ 17
办公 17
加油 17
加深 17
加速器 17
努@@ 17
劲 17
化妆 17
北半球 17
十七世纪 17
协定 17
南亚 17
博士学位 17
印度尼西亚 17
却说 17
厌烦 17
厚@@ 17
及@@ 17
反击 17
叠@@ 17
口中 17
可悲 17
台下 17
台湾 17
后排 17
后续 17
吞@@ 17
周五 17
呼@@ 17
和弦 17
品味 17
哥 17
喷射 17
嘴唇 17
器材 17
噪声 17
四次 17
园 17
围 17
国会议员 17
图纸 17
坐标 17
坡 17
坦克 17
垫子 17
境况 17
壁画 17
复制品 17
复原 17
外交官 17
大大的 17
天地 17
天敌 17
太久 17
失效 17
头版 17
奖金 17
奴役 17
奶 17
妙 17
子孙 17
孕妇 17
存款 17
孤单 17
学业 17
学着 17
学说 17
宁 17
宇宙学 17
完完全全 17
实质性 17
审核 17
家庭作业 17
对策 17
小于 17
小姐 17
小屋 17
尔特 17
尤 17
就业机会 17
层楼 17
居@@ 17
岩 17
干涉 17
年初 17
幼年 17
广岛 17
庄稼 17
底线 17
建模 17
开普勒 17
弥勒 17
弱点 17
录取 17
彼此之间 17
往后 17
德州 17
忍不住 17
念头 17
怒 17
思考者 17
总监 17
恶魔 17
情愿 17
想来 17
感触 17
成品 17
我举 17
我本 17
战役 17
打扮 17
扔进 17
扩@@ 17
扭转 17
承@@ 17
技术@@ 17
投放 17
报复 17
抱@@ 17
抵御 17
拉德 17
拍手 17
拖丝 17
拘@@ 17
拨 17
持续性 17
挂毯 17
指控 17
挑 17
挖@@ 17
捐赠者 17
据我所知 17
掉下来 17
排出 17
推崇 17
插入 17
搜索引擎 17
搭配 17
摸索 17
操@@ 17
支票 17
收回 17
放射性 17
放心 17
故 17
故@@ 17
效 17
数以万计 17
整 17
斜@@ 17
斯坦 17
新建 17
新闻报道 17
方方面面 17
无线电波 17
日历 17
时至今日 17
时髦 17
明信片 17
昏@@ 17
易于 17
星巴克 17
智 17
暴龙 17
更难 17
木板 17
未必 17
本领 17
机体 17
杂烩 17
杠杆 17
某事 17
栋 17
树冠 17
栖息 17
棵 17
植@@ 17
植被 17
横向 17
残疾人 17
殖民 17
母牛 17
每时每刻 17
民主党人 17
气管 17
氮 17
汇@@ 17
池 17
汲取 17
沃尔@@ 17
油价 17
沼泽 17
沿 17
浪费时间 17
消退 17
涡轮 17
港口 17
游说 17
滑板 17
演变成 17
演进 17
漫画书 17
灵光 17
热带雨林 17
热水 17
焦 17
照着 17
爱心 17
片@@ 17
牌@@ 17
牌子 17
牛仔裤 17
牢@@ 17
物理@@ 17
牵涉到 17
特区 17
狼 17
猎豹 17
玩儿 17
现成 17
珠穆朗玛峰 17
瓶@@ 17
生产线 17
生命力 17
生态学家 17
电子化 17
电脑@@ 17
百万分之一 17
盖住 17
直面 17
相像 17
真人 17
真有 17
眼泪 17
知晓 17
砍 17
碱基 17
碳氢化合物 17
社 17
社团 17
禁@@ 17
离婚 17
稀@@ 17
窗外 17
筒 17
糖果 17
索尼 17
红色高棉 17
纳米技术 17
织物 17
经济衰退 17
绝不会 17
绞 17
绷带 17
缺@@ 17
罐子 17
罗宾 17
羞耻感 17
老爸 17
耗@@ 17
聘请 17
聚到 17
肠 17
肥鹅肝 17
肺炎 17
胶囊 17
能源消耗 17
脊髓 17
脸谱 17
自我@@ 17
舞@@ 17
舞会 17
航空公司 17
艾凡 17
芬兰 17
草坪 17
草根 17
药剂 17
荷@@ 17
莫斯科 17
萨克斯 17
落实 17
藻类 17
虚@@ 17
表征 17
衰退 17
视作 17
解密 17
解脱 17
警察局 17
订 17
记录片 17
讲个 17
许 17
许多年 17
许多许多 17
识字 17
试试看 17
语法 17
诱人 17
诱因 17
读完 17
调动 17
调控 17
谚语 17
走开 17
走遍 17
起伏 17
越来越快 17
踏@@ 17
轴上 17
辞职 17
过得 17
还原 17
这层 17
这棵树 17
连在一起 17
迪拜 17
迷你 17
透镜 17
遇上 17
遗迹 17
遮@@ 17
那本书 17
部@@ 17
配对 17
采纳 17
重申 17
镇@@ 17
长滩 17
防 17
阿富汗人 17
附着 17
隔开 17
雅 17
雇主 17
雌 17
雪橇 17
静态 17
非常少 17
非盈利 17
面粉 17
音调 17
颇具 17
颤抖 17
饭店 17
饮用 17
饱受 17
首相 17
驻 17
高层 17
魔@@ 17
麻木 17
黏@@ 17
0000 16
125 16
1949 16
1983 16
1992 16
1993 16
2.0 16
59 16
62 16
84 16
86 16
87 16
Acumen 16
Amy 16
Andrew 16
Charles 16
Em@@ 16
Gr@@ 16
Gu@@ 16
JH 16
Jo@@ 16
Lee 16
Mad@@ 16
PISA 16
Panbanisha 16
SOPA 16
South 16
Th@@ 16
Windows 16
ZK 16
ani 16
art 16
he@@ 16
ier 16
if@@ 16
ks 16
li@@ 16
ok@@ 16
old 16
ore 16
sp@@ 16
ton 16
一号 16
一团糟 16
一夜 16
一大笔钱 16
一幢 16
一排 16
一词 16
丁@@ 16
万名 16
万维网 16
上午 16
上瘾 16
不信 16
不大可能 16
不已 16
不必要 16
不至于 16
世纪末 16
世贸中心 16
丝毫 16
两到 16
两国 16
两段 16
个人@@ 16
中年 16
中餐馆 16
丰田 16
串 16
临界 16
之情 16
乡@@ 16
买不起 16
买得起 16
乳@@ 16
二月 16
亲人 16
人要 16
企图 16
伍@@ 16
传染性 16
伽罗瓦 16
作坊 16
作曲 16
供应商 16
俯瞰 16
假说 16
催眠 16
充气 16
先后 16
光是 16
光盘 16
光速 16
公共服务 16
公约 16
六分之一 16
共感 16
写字 16
农产品 16
农田 16
凶手 16
出人意料 16
出租车 16
分叉 16
分工 16
切成 16
利比里亚 16
剥@@ 16
办到 16
助 16
勉强 16
医@@ 16
十年间 16
千人 16
华氏度 16
博雅 16
印在 16
印尼 16
厄尔尼诺 16
历 16
历史@@ 16
双赢 16
双重 16
反之 16
发电站 16
变老 16
叛乱 16
口哨 16
口罩 16
另@@ 16
另类 16
只想 16
合唱团 16
同理 16
向外 16
向往 16
吸毒 16
吸管 16
呵呵 16
哪种 16
囊 16
团结起来 16
园@@ 16
圈@@ 16
地盘 16
坐落 16
垄断 16
堆@@ 16
塞拉利昂 16
壁垒 16
处女 16
备 16
备@@ 16
复合 16
外交政策 16
大猩猩 16
大赛 16
天上 16
太难 16
奔 16
奥运会 16
好吃 16
好听 16
姓名 16
媲美 16
嬉戏 16
孔@@ 16
字幕 16
存放 16
孤@@ 16
学区 16
宇宙飞船 16
定时 16
实验性 16
室友 16
宪章 16
宫 16
寄 16
小孔 16
小家伙 16
小岛 16
小鼠 16
就够 16
就行 16
山丘 16
工作岗位 16
布鲁诺 16
带进 16
干过 16
平板 16
平民 16
应得 16
度量 16
延迟 16
异性 16
弃 16
引向 16
弦琴 16
弯 16
强化 16
录@@ 16
征兆 16
得主 16
得出结论 16
徘徊 16
忧郁 16
态@@ 16
思想@@ 16
急性 16
急救 16
意象 16
感悟 16
慈善事业 16
戏剧化 16
戏剧性 16
我出 16
扇@@ 16
手写 16
批@@ 16
抗抑郁 16
抢@@ 16
抹 16
抽搐 16
拉斯 16
拥堵 16
拨款 16
拿掉 16
指定 16
指挥家 16
挠 16
探险家 16
推向 16
推迟 16
插座 16
摒弃 16
撒哈拉沙漠 16
撕裂 16
播放器 16
擦@@ 16
收取 16
改变现状 16
放飞 16
敌@@ 16
敬@@ 16
数个 16
数十亿年 16
敲@@ 16
文盲 16
旁@@ 16
旗帜 16
日志 16
时态 16
时报 16
更让人 16
最贵 16
有次 16
有益于 16
末端 16
本科生 16
本齐 16
杆菌 16
极端主义 16
极高 16
查阅 16
标出 16
树干 16
桨 16
模板 16
欢@@ 16
步调 16
死后 16
死者 16
每条 16
毛衣 16
民主@@ 16
民间 16
沃伦 16
沙特阿拉伯 16
河里 16
泵 16
泽 16
浪潮 16
海边 16
涨落 16
液@@ 16
淀粉 16
混合@@ 16
清洁工 16
清洗 16
温室效应 16
游荡 16
湿地 16
滴@@ 16
潜 16
潜水艇 16
澄清 16
火焰 16
炮@@ 16
点点 16
烤面包机 16
烦 16
焚烧 16
照相 16
燃油 16
爱丁堡 16
片刻 16
牧@@ 16
特尔 16
犹豫 16
玛利亚 16
玛雅 16
环境@@ 16
珠 16
球场 16
球队 16
瓶颈 16
生活@@ 16
生物圈 16
用尽 16
用手 16
电影@@ 16
电磁力 16
电话号码 16
男友 16
留着 16
瘦 16
白痴 16
盆 16
盗@@ 16
盟友 16
盲@@ 16
相互@@ 16
相关性 16
相符 16
石器 16
破坏性 16
磁带 16
礼貌 16
神经学 16
私营 16
科幻小说 16
科技@@ 16
积极@@ 16
稀释 16
穆罕默德 16
竭尽全力 16
第二阶段 16
第四种 16
管理费 16
粘合 16
精子 16
精密 16
精简 16
纸板 16
纹理 16
终生 16
终身 16
结构@@ 16
结果表明 16
缅甸 16
编制 16
缝 16
缺点 16
网民 16
罗素 16
置换 16
老太太 16
耕作 16
联络 16
肩 16
肺@@ 16
背包 16
背部 16
胸 16
脂 16
脊椎动物 16
脑干 16
自制 16
自家 16
致 16
航天 16
航天器 16
航线 16
良知 16
花蜜 16
英国政府 16
范@@ 16
获得者 16
菲尔 16
葛瑞丝 16
蓝鲸 16
蛛 16
蛮 16
蝙蝠侠 16
融资 16
蟹 16
表演者 16
装上 16
西边 16
观察者 16
觉 16
计算机科学 16
订@@ 16
讨论一下 16
讲课 16
论据 16
评论家 16
识 16
试一试 16
说到底 16
调子 16
豆腐 16
象@@ 16
财@@ 16
责备 16
货车 16
质感 16
贴近 16
贾 16
贾@@ 16
资 16
资深 16
赌 16
赢@@ 16
赫 16
赶上 16
赶紧 16
趋向于 16
路德 16
踏入 16
身高 16
转过身 16
轮胎 16
轿车 16
辍学 16
辛 16
迎合 16
运动@@ 16
迫切 16
迷恋 16
逆转 16
透彻 16
邮票 16
邻里 16
都市 16
鄂 16
采购 16
里德 16
里昂 16
重返 16
钻 16
铺@@ 16
门槛 16
闪电 16
闭 16
闭@@ 16
闹@@ 16
闻名 16
阿姨 16
阿里 16
陪伴 16
陪审团 16
隔 16
难以想象 16
难受 16
难懂 16
难看 16
集中精力 16
非常明显 16
非理性 16
颁布 16
领悟 16
颜料 16
驾驭 16
驾驶员 16
髋骨 16
高山 16
高明 16
鱼儿 16
麽 16
黎明 16
.... 15
1974 15
1976 15
2012 15
5.@@ 15
7000 15
93 15
BBC 15
Beck 15
Bi@@ 15
DIY 15
E8 15
Fab 15
Gillian 15
Ke@@ 15
Kelly 15
Kevin 15
Linux 15
MBA 15
NA@@ 15
Pat@@ 15
Sa@@ 15
Ushahidi 15
Vi@@ 15
YR 15
Zipcar 15
ard 15
ation 15
az@@ 15
eb@@ 15
ent 15
ern@@ 15
ler 15
lo@@ 15
off 15
ot 15
per@@ 15
ry 15
ts 15
一万个 15
一再 15
一则 15
一旁 15
一时 15
一百万年 15
一粒 15
七千 15
上天 15
上画 15
上诉 15
下巴 15
下手 15
不定 15
不断@@ 15
不时 15
不朽 15
不爽 15
不经意 15
不谈 15
不间断 15
世界纪录 15
两名 15
两项 15
中奖 15
中子 15
举出 15
久远 15
乐园 15
事关 15
事后 15
二号 15
二极管 15
互助 15
互联 15
五倍 15
五次 15
亚利桑那州 15
交互式 15
亲身经历 15
人手 15
仅@@ 15
付款 15
仰望 15
伏特 15
会变 15
会见 15
伞 15
传教士 15
似@@ 15
何 15
作用力 15
侵害 15
侵权 15
侵略性 15
便于 15
便携 15
保佑 15
信封 15
倘若 15
假使 15
做得好 15
做梦 15
偷偷 15
催化剂 15
元@@ 15
光束 15
全人类 15
八百万 15
公交车 15
六周 15
共同之处 15
兴@@ 15
具体@@ 15
兽医 15
内森 15
再度 15
农 15
净 15
凉 15
凸显 15
分发 15
分布图 15
分校 15
刑 15
创新性 15
创新者 15
创造财富 15
初衷 15
判@@ 15
到位 15
前排 15
加州大学 15
务 15
勤@@ 15
化身 15
医治 15
医疗保障 15
千万@@ 15
升@@ 15
午夜 15
协商 15
卓@@ 15
卢比 15
卷@@ 15
厅 15
原创 15
去向 15
反响 15
反驳 15
发了 15
发明创造 15
发疯 15
变大 15
口头 15
古典 15
可知 15
可观 15
吃药 15
合约 15
命@@ 15
哈哈 15
哈里斯 15
啊哈 15
嗅觉 15
四十 15
四条 15
四点 15
回溯 15
困 15
国土 15
圣人 15
圣诞 15
坚决 15
坦诚 15
基本定律 15
基督 15
堵塞 15
增进 15
墨西哥人 15
处方 15
备受 15
外国人 15
多一些 15
多达 15
大峡谷 15
大意 15
大批 15
大提琴 15
大桥 15
大都会 15
天天 15
太空服 15
太近 15
失误 15
奉@@ 15
奎@@ 15
奢侈 15
奢华 15
妨碍 15
姓 15
威尔逊 15
字面 15
存钱 15
学徒 15
学得 15
定向 15
实习 15
实地 15
审@@ 15
家用 15
容@@ 15
宽恕 15
密 15
寒@@ 15
对照组 15
导电 15
小房间 15
少许 15
尘@@ 15
尚@@ 15
尤为 15
展望未来 15
山坡 15
山姆 15
岗位 15
巢 15
工具箱 15
工程@@ 15
左手边 15
巨头 15
巴顿 15
市场@@ 15
市场化 15
希特勒 15
希腊人 15
席@@ 15
常说 15
幕@@ 15
干吗 15
干得 15
平方@@ 15
平方英里 15
年复一年 15
年龄段 15
广播公司 15
开个 15
开辟 15
式样 15
引人注目 15
引爆 15
弗斯 15
张开 15
归属感 15
录像机 15
待遇 15
很久 15
很久很久 15
很慢 15
律 15
徒步 15
循环系统 15
德鲁 15
快点 15
怀 15
怀有 15
总算 15
恍惚 15
恒@@ 15
恶行 15
悬@@ 15
感受一下 15
感染力 15
感谢上帝 15
戈 15
我成 15
房车 15
房里 15
所有权 15
打仗 15
打游戏 15
执行者 15
批评家 15
找回 15
投给 15
投身 15
抛 15
抽 15
担当 15
拆@@ 15
指尖 15
挡 15
授课 15
掌 15
排练 15
掠夺 15
掩盖 15
掷 15
摄影者 15
收割 15
改写 15
放出 15
放开 15
放眼 15
敌 15
教育@@ 15
敢于 15
数学@@ 15
数百万年 15
整齐 15
文艺复兴 15
斯蒂夫 15
新奥尔良 15
新式 15
方框 15
旋 15
显现出来 15
晚@@ 15
普遍性 15
晶@@ 15
晶体 15
最强 15
最酷 15
本该 15
机械化 15
杂货店 15
杜 15
极为重要 15
极小 15
极少 15
枯竭 15
染上 15
查理 15
株 15
根基 15
棉@@ 15
模棱两可 15
模范 15
橄榄油 15
次方 15
欢呼 15
止@@ 15
正值 15
正因如此 15
殆尽 15
残骸 15
殖民地 15
毋庸置疑 15
比利 15
比尔盖茨 15
比重 15
民主党 15
民主化 15
氧@@ 15
氮气 15
水族馆 15
永生 15
汗 15
沉积物 15
沙拉 15
沙粒 15
沟 15
沥青 15
河边 15
油砂 15
油轮 15
沿@@ 15
波斯 15
波特 15
注@@ 15
洞察力 15
派遣 15
流行病学 15
浅 15
海外 15
海狸 15
海绵 15
海马 15
海龟 15
淡 15
渔夫 15
溶@@ 15
滤@@ 15
漫游 15
潜入 15
灌@@ 15
炎 15
炸 15
烟囱 15
热能 15
照料 15
熊@@ 15
爆 15
父@@ 15
爷爷 15
犬 15
犯下 15
狂喜 15
狗狗 15
现代@@ 15
珠峰 15
理会 15
瓷器 15
甘@@ 15
生物性 15
电子产品 15
电灯 15
电视剧 15
画布 15
画笔 15
疑 15
疗程 15
病毒感染 15
百分之五 15
百分之六十 15
皇后 15
盆地 15
盖子 15
盛@@ 15
盲 15
相邻 15
看病 15
着想 15
矩阵 15
矫正 15
硬化症 15
确@@ 15
确确实实 15
磁性 15
社交圈 15
神灵 15
离奇 15
秀@@ 15
空间站 15
窗 15
竞技场 15
童话 15
笑@@ 15
第一阶段 15
笼 15
签@@ 15
算不上 15
算出 15
粉 15
粗略 15
红外 15
纪念碑 15
纯洁 15
纳税人 15
线圈 15
结实 15
统计学家 15
罚 15
罢工 15
羚羊 15
翻开 15
老天 15
老婆 15
老朋友 15
而生 15
耻辱 15
聊@@ 15
肥@@ 15
胃 15
胆@@ 15
背叛 15
胜任 15
脱节 15
腾@@ 15
舌 15
舍 15
芬 15
芬@@ 15
苔藓 15
若干 15
英语@@ 15
英镑 15
莱斯 15
萨达姆 15
落下 15
葛@@ 15
蓄@@ 15
虎@@ 15
虽 15
蛋@@ 15
行进 15
街角 15
补助 15
被忽视 15
裁@@ 15
西亚 15
西非 15
解除 15
警方 15
讲到 15
讲述者 15
论证 15
识@@ 15
译者 15
试一下 15
试管 15
话筒 15
诸@@ 15
诺曼 15
谷@@ 15
赞@@ 15
超前 15
超新星 15
跌 15
车道 15
输@@ 15
输家 15
辞去 15
过往 15
过量 15
这就是说 15
这艘 15
进度 15
远景 15
连续性 15
迫不及待 15
逊 15
速@@ 15
道歉 15
遭 15
那块 15
那头 15
邦@@ 15
邻近 15
郁闷 15
郑重 15
里程 15
重新@@ 15
重症 15
金子 15
钟爱 15
钢丝 15
铅 15
长到 15
长颈鹿 15
问及 15
间隙 15
阳台 15
阻塞 15
阿布 15
雄@@ 15
面具 15
面貌 15
顺从 15
顿@@ 15
预兆 15
预想 15
预见到 15
风向 15
飞往 15
香烟 15
马修 15
马斯洛 15
马特 15
驱动力 15
骚扰 15
鲜为人知 15
齿 15
～ 15
0.@@ 14
1.2 14
1200 14
1600 14
170 14
1800 14
1918 14
1930 14
3.@@ 14
4.@@ 14
53 14
58 14
83 14
ABC 14
BC 14
Bl@@ 14
CT 14
Daniel 14
Dave 14
Fre@@ 14
Furby 14
Ger@@ 14
Jay 14
Joseph 14
KS 14
Kanzi 14
Kathryn 14
Keith 14
MBI 14
Mac 14
Mark 14
Martin 14
Natalie 14
RISD 14
Sal@@ 14
Smith 14
Wal@@ 14
Worldchanging 14
age 14
ala 14
all@@ 14
ann@@ 14
ens@@ 14
ini 14
io 14
ist@@ 14
iz@@ 14
ne 14
ob@@ 14
oll@@ 14
ow 14
ur 14
【 14
】 14
一两年 14
一个三维 14
一回 14
一大批 14
一扇 14
一无所有 14
一曲 14
一章 14
一线 14
一队 14
万亿 14
万分 14
万维 14
上千年 14
下水 14
下水道 14
下颚 14
不在意 14
不知情 14
不能@@ 14
不解 14
不道德 14
专心 14
世界@@ 14
世界性 14
两块 14
两大 14
严酷 14
中微子 14
丹尼斯 14
主旨 14
习 14
乡 14
争吵 14
事务所 14
于心 14
五十@@ 14
亚里 14
产权 14
亮@@ 14
人世 14
人口@@ 14
今@@ 14
付@@ 14
仪@@ 14
伙 14
会计 14
伽@@ 14
低温 14
余下 14
作画 14
便捷 14
信息@@ 14
信誉 14
修女 14
倒下 14
值@@ 14
偏僻 14
偷窃 14
储蓄率 14
傲慢 14
像素 14
儿时 14
充当 14
光辉 14
克拉克 14
免 14
免于 14
全国性 14
八十 14
公共政策 14
六千 14
六年级 14
兰德 14
兰迪 14
共处 14
养老院 14
内罗毕 14
冒犯 14
农药 14
冠 14
冠@@ 14
冬季 14
冰山 14
冰山一角 14
冻@@ 14
净化 14
准时 14
减小 14
减肥 14
凝聚 14
几句 14
几百 14
出席 14
分隔 14
刑@@ 14
列车 14
利他主义 14
别说 14
刷牙 14
前列腺 14
剥削 14
剧烈 14
剪刀 14
副产品 14
动力学 14
动摇 14
动荡 14
劫@@ 14
勇@@ 14
勇士 14
化学元素 14
化学成分 14
北冰洋 14
北边 14
十天 14
午@@ 14
半夜 14
单身 14
博拉 14
卡内基 14
卡特 14
即可 14
厄瓜多尔 14
历史博物馆 14
原生 14
去往 14
又会有 14
双脚 14
双金属 14
发型 14
取悦 14
取自 14
取舍 14
叫喊 14
史瓦西 14
右脑 14
各行各业 14
各项 14
吉尔 14
同类 14
同龄人 14
后台 14
周二 14
周期表 14
命题 14
和蕾 14
咳嗽 14
响@@ 14
响声 14
哥@@ 14
哥斯达黎加 14
喘 14
喝咖啡 14
喷洒 14
嗒 14
四位 14
四分之三 14
四月 14
四肢 14
团聚 14
国际货币基金组织 14
图解 14
在世 14
地中海 14
地球表面 14
场上 14
坚果 14
埋葬 14
城@@ 14
域 14
培@@ 14
堤 14
塑@@ 14
塑料袋 14
塔楼 14
塞尔 14
墙面 14
声响 14
声誉 14
外语 14
多元化 14
多出 14
多功能 14
多地 14
大不相同 14
大体上 14
大米 14
大豆 14
天呐 14
夫斯 14
夺@@ 14
奔@@ 14
女权主义 14
好多年 14
好转 14
好运 14
娅 14
娱乐@@ 14
婆罗 14
孙 14
季节性 14
学费 14
完全正确 14
完好 14
官@@ 14
宝 14
宝马 14
家门 14
密切相关 14
察觉到 14
对准 14
寺庙 14
寿司 14
射杀 14
對 14
小人 14
小子 14
小船 14
小额 14
尼尔森 14
尼斯 14
届 14
履行 14
山峰 14
州立大学 14
巡演 14
左宗棠 14
巧@@ 14
巨变 14
巨星 14
巴克 14
巴特 14
币 14
布尔 14
布雷顿 14
帐 14
常态 14
平均@@ 14
平庸 14
平流层 14
年份 14
并发症 14
废 14
建立联系 14
开枪 14
开着车 14
异议 14
引诱 14
张纸 14
弥@@ 14
强健 14
律法 14
徒 14
得益于 14
微处理器 14
德尔 14
德黑兰 14
心怀 14
必需品 14
忙@@ 14
忠于 14
忧郁症 14
快到 14
念@@ 14
怎么着 14
思想家 14
总人口 14
总数 14
恋爱 14
悲哀 14
情报@@ 14
惧怕 14
惨@@ 14
想不到 14
愈 14
成堆 14
成群 14
我想@@ 14
我选 14
手头 14
才行 14
打个 14
打扫 14
打死 14
扬 14
扯@@ 14
批判 14
批改 14
承包商 14
技因 14
投影仪 14
抗拒 14
抽出 14
抽烟 14
拥护者 14
拥有者 14
指纹 14
指针 14
挡住 14
挣钱 14
挨着 14
挨饿 14
捐给 14
捷径 14
掌@@ 14
掌权 14
探访 14
提名 14
提姆 14
提炼出 14
揭@@ 14
搏斗 14
携手 14
摇滚乐 14
摔 14
撒旦 14
攀@@ 14
改动 14
敏锐 14
救护车 14
数千年 14
数量级 14
整套 14
文化@@ 14
斯德哥尔摩 14
斯蒂芬 14
斯里兰卡 14
新娘 14
方向盘 14
方舟 14
施 14
旅 14
族@@ 14
无穷的 14
无能 14
无著 14
易懂 14
星期天 14
星球大战 14
暴力事件 14
暴风 14
更改 14
更近 14
最美 14
有何 14
有机物 14
有钱人 14
服务@@ 14
服役 14
服饰 14
末@@ 14
本科 14
权益 14
材质 14
极地 14
果然 14
染 14
栏 14
格言 14
格陵兰岛 14
模@@ 14
模子 14
正规 14
正试图 14
此地 14
每位 14
每天晚上 14
汽车@@ 14
沉 14
沉没 14
没听说过 14
沸腾 14
油井 14
法律@@ 14
泰坦尼克号 14
活下去 14
流血 14
流过 14
测试@@ 14
浮动 14
海峡 14
涂@@ 14
淘金热 14
深思 14
深陷 14
渡@@ 14
游历 14
游戏机 14
游过 14
溺水 14
滑行 14
漏@@ 14
演讲时 14
潮@@ 14
激励机制 14
火车站 14
灿烂 14
炸药 14
烂@@ 14
烧伤 14
烧掉 14
烧烤 14
爱德华 14
牙@@ 14
牙买加 14
牧羊人 14
物资 14
狂笑 14
猪肉 14
率@@ 14
环状 14
环绕着 14
环顾 14
珍视 14
生产@@ 14
生物进化 14
生理学 14
生计 14
甲 14
疼 14
痛恨 14
痛楚 14
瘟疫 14
白血病 14
的确如此 14
直视 14
相近 14
着实 14
石油价格 14
矿物质 14
砍@@ 14
研究@@ 14
确诊 14
磁 14
磨 14
神力 14
私有 14
科学实验 14
科学知识 14
租赁 14
移动电话 14
空气@@ 14
空间@@ 14
突起 14
站立 14
竞技 14
签订 14
简短地 14
箭 14
篮子 14
粉红色 14
精神病院 14
糊 14
素质 14
索取 14
级@@ 14
纽约州 14
经由 14
继@@ 14
维和 14
缝合 14
缠 14
网路 14
罗斯福 14
美女 14
羡慕 14
老是 14
考古学家 14
考量 14
耶稣基督 14
肆虐 14
肠胃 14
肺癌 14
脉@@ 14
脚印 14
自上而下 14
自大 14
自如 14
自学 14
自负 14
自问 14
舅舅 14
艇 14
色素 14
节拍 14
芝士 14
花椰菜 14
草甸 14
荷 14
荷兰人 14
获 14
菜@@ 14
菲@@ 14
菲尔德 14
萎缩 14
蒙大 14
藉由 14
蛆 14
蛛网 14
行为@@ 14
表上 14
表层 14
表达出来 14
装修 14
裹 14
规 14
解剖学 14
解码 14
触发 14
计算机程序 14
记号 14
讲过 14
评分 14
诉说 14
词是 14
试用 14
试纸 14
诗意 14
该是 14
说完 14
诺贝尔 14
读懂 14
谢天谢地 14
谣言 14
贝蒂 14
赛局 14
赢家 14
走势 14
走访 14
走走 14
走运 14
赶快 14
起码 14
超乎 14
跟上 14
跨国公司 14
路口 14
路过 14
跳出 14
跳过 14
身材 14
车站 14
转为 14
轮回 14
达尔文主义 14
这天 14
这话 14
这辈子 14
进出 14
迪伦 14
迪恩 14
追赶 14
逃 14
逃避 14
透明度 14
通电 14
通货膨胀 14
逼迫 14
遇 14
道德观 14
那晚 14
都@@ 14
酗酒 14
酝酿 14
酷@@ 14
重新组合 14
野 14
钢琴家 14
铭记 14
链@@ 14
销 14
长成 14
长相 14
长者 14
长距离 14
闭上 14
阳@@ 14
阶梯 14
阻挡 14
阿兰 14
阿姆斯特朗 14
陆@@ 14
降温 14
降雨量 14
险@@ 14
陶瓷 14
随时随地 14
难忘 14
霜 14
露营 14
露西 14
静脉 14
非得 14
领悟到 14
频 14
飞速 14
饮水 14
香豆素 14
马戏团 14
马耳他 14
骂 14
骑车 14
骨折 14
高处 14
高峰期 14
高等 14
高等教育 14
鱼群 14
鸡尾酒 14
鸣 14
麦哈麦 14
麻@@ 14
黏液 14
鼻@@ 14
龙卷风 14
1957 13
1973 13
54 13
56 13
71 13
74 13
81 13
89 13
92 13
@ 13
AK 13
Bab@@ 13
CAD 13
Craig 13
GPHIN 13
H5N1 13
Jack 13
Khan 13
Larry 13
Mathematica 13
Mo@@ 13
PC 13
PIPA 13
Par@@ 13
Pink 13
RHex 13
Rob@@ 13
Tim 13
Zero 13
ad 13
ak 13
ass@@ 13
de@@ 13
ds 13
em 13
f 13
ham 13
ko 13
ner 13
net 13
om 13
os 13
th 13
ya 13
一加仑 13
一堂 13
一小片 13
一日 13
一株 13
七种 13
万亿美元 13
万吨 13
万种 13
三大 13
三样 13
上千 13
上部 13
下定决心 13
不便 13
不单 13
不及 13
不多 13
不规则 13
专长 13
世贸 13
东南亚 13
丝绸 13
两千万 13
两层 13
两百 13
严厉 13
中止 13
临近 13
之美 13
乔布斯 13
书上 13
乳癌 13
乳酪 13
二十一 13
交易@@ 13
交替 13
交警 13
交集 13
人力资源 13
人文 13
今 13
介质 13
付诸行动 13
代理人 13
优质 13
会以 13
伟人 13
传来 13
伸 13
似 13
低价 13
低音 13
佛祖 13
佩戴 13
使用量 13
例证 13
供电 13
保持@@ 13
倾倒 13
偏远地区 13
做广告 13
做错 13
光环 13
克莱@@ 13
克里@@ 13
全局 13
全程 13
八千 13
公益 13
兰特 13
关进 13
关键@@ 13
其间 13
典礼 13
养殖 13
写信给 13
写诗 13
军人 13
决策者 13
冻结 13
准@@ 13
几十@@ 13
凭着 13
凸@@ 13
出海 13
分量 13
刊 13
创业者 13
初次 13
别无选择 13
到头来 13
到时候 13
制衡 13
前卫 13
前端 13
前者 13
剥离 13
力学 13
功 13
功@@ 13
加拿大人 13
动感 13
动手术 13
动植物 13
劳 13
北卡罗来纳州 13
北欧 13
北爱尔兰 13
医疗保险 13
十八 13
十几岁 13
千种 13
半前 13
半钟 13
华盛顿州 13
卖出 13
南加州 13
南美 13
博士生 13
卫报 13
卫生保健 13
却@@ 13
压根 13
原地 13
参议员 13
友@@ 13
反反复复 13
发人深省 13
发自内心 13
取名 13
取得成功 13
受试者 13
变戏法 13
古生物学家 13
可控 13
可谓 13
史前 13
右上角 13
合成器 13
同种 13
名片 13
否 13
呆@@ 13
呜 13
周六 13
周游世界 13
咬@@ 13
哈拉 13
哎 13
商务 13
商标 13
喂食 13
善款 13
器官移植 13
回声 13
困@@ 13
国界 13
国防 13
坍塌 13
埃克森 13
埃莉诺 13
埋@@ 13
埋藏 13
城市规划 13
基特 13
堂@@ 13
填补 13
增 13
声学 13
外号 13
外婆 13
多万 13
多动症 13
多多少少 13
多活 13
多种多样 13
够@@ 13
大体 13
大学毕业 13
大山 13
大战 13
大拇指 13
大腿 13
太少 13
太阳@@ 13
夫@@ 13
夫妻 13
夸@@ 13
奇点 13
奏@@ 13
奥妙 13
奥尔@@ 13
奶@@ 13
好几@@ 13
威尼斯 13
字母表 13
学期 13
学术界 13
孵化 13
守则 13
安定 13
完毕 13
完蛋 13
定罪 13
宝莱坞 13
审讯 13
宫殿 13
家务 13
宽广 13
密修者 13
富饶 13
对数 13
小巧 13
小脑 13
小马 13
小鱼 13
就会@@ 13
尼葛洛庞 13
尼龙 13
尽我所能 13
局势 13
屏蔽 13
州长 13
工作组 13
工匠 13
工序 13
巴赫 13
布鲁克斯 13
帆船 13
帧 13
常数 13
幅度 13
平均年龄 13
年收入 13
店铺 13
庞@@ 13
庞然大物 13
废水 13
庭 13
建筑材料 13
开业 13
开发者 13
开灯 13
弹钢琴 13
录影带 13
彼此间 13
往常 13
径 13
很傻 13
很深 13
得分 13
微波 13
微粒 13
德国人 13
德语 13
心底 13
心扉 13
必 13
怎能 13
急速 13
性关系 13
恰@@ 13
悲痛 13
情人节 13
情报 13
想必 13
感到恐惧 13
感性 13
感恩节 13
愿@@ 13
成名 13
成员国 13
成天 13
成就感 13
我错 13
戒@@ 13
截止 13
戴上 13
戴维 13
才刚 13
才智 13
打倒 13
打勾 13
打包 13
打碎 13
打磨 13
扔@@ 13
执政 13
技艺 13
报社 13
抵押 13
押 13
拉开 13
拉近 13
拍下 13
拐杖 13
按时 13
捆绑 13
捉 13
捍卫 13
捣@@ 13
据此 13
掏出 13
接受者 13
掩饰 13
搬进 13
摇动 13
撑@@ 13
播出 13
攀升 13
政府部门 13
故乡 13
敦促 13
数以百万计 13
数百@@ 13
整年 13
文凭 13
斗@@ 13
断裂 13
斯特灵 13
新发明 13
旅@@ 13
无与伦比 13
无国界 13
无尽 13
无畏 13
无穷无尽 13
无非 13
无须 13
时代广场 13
星期五 13
晒太阳 13
普尔 13
普拉 13
暴动 13
更多地 13
曾祖父 13
最令 13
最受 13
最远 13
有件事 13
有序 13
有所不同 13
有效性 13
有远见 13
服@@ 13
服刑 13
朝向 13
杀伤性 13
来试 13
来过 13
板@@ 13
极富 13
枪支 13
柏拉图 13
染@@ 13
柱 13
标杆 13
根与芽 13
案@@ 13
档 13
梅 13
棒子 13
横 13
欧罗巴 13
正以 13
正向 13
正直 13
殴打 13
比较简单 13
毛泽东 13
毫不@@ 13
气压 13
气囊 13
水池 13
汗@@ 13
沃 13
沃森 13
沙漠化 13
没准 13
油画 13
泽@@ 13
洒 13
洒@@ 13
洛克菲勒 13
津@@ 13
活儿 13
活泼 13
派出 13
流浪 13
测绘 13
消防 13
涌入 13
淡化 13
深受 13
深夜 13
深深地 13
混杂 13
渐@@ 13
演唱会 13
演奏家 13
演奏者 13
漩涡 13
激增 13
濒临 13
濒临灭绝 13
灭 13
炭 13
点头 13
烘培 13
热衷 13
熄灭 13
版权法 13
牙刷 13
特里 13
狠狠 13
猎杀 13
猛烈 13
猝死 13
环游世界 13
现代主义 13
现时 13
理想主义 13
甚至于 13
生殖 13
用餐 13
电影院 13
电气 13
电缆 13
痒 13
百事 13
百分百 13
盎司 13
盗版 13
盛行 13
直立人 13
相关联 13
相比之下 13
真切 13
真地 13
眼科 13
睡衣 13
睿智 13
瞎@@ 13
短缺 13
石化 13
石块 13
矿工 13
砖块 13
硫 13
确定性 13
社交@@ 13
社会学 13
祖@@ 13
离去 13
科技领域 13
租@@ 13
稀少 13
稳固 13
穗 13
空虚 13
穿戴 13
突 13
突发 13
竞争对手 13
答道 13
策 13
简单化 13
简而言之 13
简陋 13
管理@@ 13
篱笆 13
籍 13
粉碎 13
粘土 13
精华 13
精妙 13
精液 13
系统@@ 13
系统地 13
紊乱 13
索尔 13
紧密联系 13
繁@@ 13
红十字会 13
红树林 13
约定 13
纳尔逊 13
纸上 13
终将 13
终止 13
结识 13
绕过 13
绘图 13
统@@ 13
维奇 13
编剧 13
缝隙 13
缺 13
罐@@ 13
网球 13
罗西 13
置@@ 13
置身于 13
美国农业部 13
美观 13
翼服 13
耗 13
职@@ 13
聪明人 13
肌 13
肝酱 13
股市 13
肥皂 13
肩@@ 13
能动 13
脱口秀 13
自尊 13
臭 13
臭氧层 13
航海 13
节日 13
芝加哥大学 13
花儿 13
花豹 13
芽 13
苛刻 13
苦差事 13
苦恼 13
英雄主义 13
苹果电脑 13
荫 13
莉@@ 13
莎@@ 13
萤火虫 13
蕴藏 13
薄@@ 13
薄薄的 13
藻 13
虐 13
蚁群 13
融@@ 13
血统 13
血腥 13
补偿 13
衰竭 13
袋子 13
袜子 13
裙子 13
西兰花 13
西北部 13
规章 13
视图 13
解决之道 13
解构 13
解说 13
警 13
认得 13
认清 13
许诺 13
论述 13
诡异 13
误会 13
误差 13
谁@@ 13
谴责 13
豆 13
豆@@ 13
财政@@ 13
败@@ 13
质地 13
质问 13
贩卖 13
费城 13
赖 13
赞比亚 13
赫兹 13
赶到 13
起因 13
起始 13
起居室 13
起舞 13
超自然 13
趟 13
跌@@ 13
蹦@@ 13
躲@@ 13
车库里 13
辛西娅 13
迁@@ 13
迈进 13
迎@@ 13
近乎 13
进化史 13
远方 13
迪米特里 13
退回 13
退学 13
送上 13
适应环境 13
选中 13
透明化 13
逝去 13
造价 13
逾 13
遇难 13
那会儿 13
那辆 13
那颗 13
邻@@ 13
郡 13
醉@@ 13
里会 13
里约热内卢 13
重达 13
野心 13
金丝雀 13
金融@@ 13
钛 13
钩 13
钻头 13
铝 13
锤子 13
镇压 13
长期@@ 13
长着 13
门外 13
闪亮 13
阵@@ 13
阿凡 13
阿拉@@ 13
阿曼 13
限@@ 13
隆 13
集市 13
雌@@ 13
雌性激素 13
零售商 13
零部件 13
震撼人心 13
青春 13
青霉素 13
靴 13
鞋@@ 13
顽固 13
颅骨 13
风扇 13
风趣 13
飘 13
飞碟 13
食堂 13
饰 13
饱@@ 13
香肠 13
马尾藻 13
马达加斯加 13
驱@@ 13
驱逐 13
骑@@ 13
骑士 13
骚乱 13
高架 13
高清 13
鲍@@ 13
鲜@@ 13
／ 13
$ 12
* 12
.@@ 12
0.5 12
1962 12
1967 12
1979 12
1988 12
3.5 12
7.@@ 12
78 12
88 12
Armstrong 12
BJ 12
CPU 12
Con@@ 12
EG 12
Eduardo 12
En@@ 12
FBI 12
FDA 12
Far@@ 12
Gapminder 12
Gore 12
Hans 12
Hillis 12
In@@ 12
Jerry 12
Joel 12
Kar@@ 12
Ken 12
Kiva 12
Mac@@ 12
Mon@@ 12
NM 12
Pl@@ 12
SA@@ 12
SB 12
Scott 12
TEDWomen 12
William 12
ale 12
ash 12
ath@@ 12
ce 12
daf 12
ence 12
ep@@ 12
ev@@ 12
ich@@ 12
it 12
ive 12
ka 12
mer 12
od 12
ook 12
ow@@ 12
tr@@ 12
ust@@ 12
v 12
一个多 12
一书 12
一分 12
一分钱 12
一动不动 12
一匹 12
一向 12
一手 12
一月份 12
一段话 12
一班 12
一艘船 12
一说 12
一身 12
七分 12
三百 12
上放 12
上时 12
上映 12
上游 12
下山 12
不比 12
不着 12
不见得 12
不计其数 12
专业知识 12
专制 12
世界地图 12
丛 12
两幅 12
两英里 12
丧生 12
中会 12
中午 12
主导地位 12
举措 12
之声 12
之战 12
之鹰 12
乘着 12
买到 12
争执 12
事迹 12
二零零@@ 12
互相@@ 12
五到 12
五十年代 12
五千年 12
五百万 12
五角大楼 12
井@@ 12
亚瑟 12
亲眼看到 12
人太多 12
人间 12
介@@ 12
仙@@ 12
以免 12
仰@@ 12
件@@ 12
份量 12
伊恩 12
休 12
传回 12
传记 12
伤员 12
低调 12
体育馆 12
何在 12
作法 12
作证 12
作风 12
使劲 12
例@@ 12
保持联系 12
保险公司 12
信息处理 12
信息源 12
修炼 12
俯视 12
值钱 12
偏爱 12
停滞不前 12
停车位 12
储藏 12
儿童@@ 12
充满热情 12
先驱者 12
克拉 12
克罗 12
兔 12
入睡 12
全心全意 12
全然 12
八年级 12
公交 12
公共交通 12
兰花 12
关键问题 12
养成 12
兼容 12
内科医生 12
内裤 12
册 12
写过 12
冲破 12
决 12
减低 12
凝结 12
凭借 12
出狱 12
分枝 12
分给 12
刘易斯 12
别墅 12
到场 12
剔除 12
剧作家 12
割 12
割礼 12
办事 12
功劳 12
加密 12
加沙 12
加速度 12
勤 12
化为 12
十分相似 12
十字架 12
十字路口 12
半数 12
博弈 12
卡梅隆 12
卫 12
印刷机 12
印度洋 12
危@@ 12
厂商 12
原版 12
叉 12
反感 12
反面 12
发射器 12
发展趋势 12
取笑 12
受苦 12
受邀 12
叠加 12
古尔德 12
右翼 12
告别 12
呼唤 12
呼喊 12
咖啡厅 12
哈勃 12
哨声 12
哺育 12
售价 12
商学院 12
商量 12
喀布尔 12
善意 12
喉咙 12
喷水 12
嘘 12
四万 12
四十亿 12
四千 12
回望 12
回过头来 12
国家@@ 12
国际性 12
地质学 12
场@@ 12
坠 12
垃圾堆 12
垮台 12
埃森哲 12
城堡 12
基斯 12
堆肥 12
塑料@@ 12
塔尔 12
塞内加尔 12
塞尔维亚 12
墓地 12
复活节岛 12
外层 12
多变 12
多难 12
大到 12
大叫 12
大喊 12
大学教授 12
大屏幕 12
大帝 12
大火 12
大程度 12
大面积 12
头像 12
头巾 12
头绪 12
奈特 12
奏 12
好些 12
好几年 12
好用 12
始@@ 12
娃 12
嫁 12
嫁给 12
学问 12
它用 12
安迪 12
宴会 12
家谱 12
富含 12
寒 12
对撞机 12
小刀 12
小到 12
小心翼翼 12
小额贷款 12
尔罕 12
尘 12
尘土 12
居住地 12
屑 12
展品 12
展现出 12
山脊 12
巅峰 12
工艺品 12
己@@ 12
希腊神话 12
帕斯卡 12
帝 12
带子 12
帮派 12
常人 12
常理 12
年头 12
并不多 12
并排 12
幼稚 12
幼虫 12
广告@@ 12
庄园 12
庇护 12
庇护所 12
库珀 12
店@@ 12
开场 12
开明 12
弄错 12
引 12
归根结底 12
当地政府 12
当场 12
彻 12
往回 12
往外 12
往来 12
征求 12
待会儿 12
很早 12
德克萨斯州 12
德兰 12
心力衰竭 12
心理@@ 12
心碎 12
心血 12
志@@ 12
忘@@ 12
恰到好处 12
悄悄 12
悖论 12
想成 12
想方设法 12
愚弄 12
感叹 12
戈登 12
我国 12
我带 12
戒 12
戒律 12
手下 12
手提箱 12
手肘 12
手脚 12
扎克 12
打下 12
打字 12
扣@@ 12
执照 12
扮演着 12
承担责任 12
技 12
技@@ 12
抓狂 12
投入使用 12
抗击 12
抢劫 12
抵@@ 12
抽取 12
担保 12
担负 12
拆 12
拆开 12
拉丁文 12
拉丁语 12
拉各斯 12
拍卖 12
拼写 12
指甲 12
按摩 12
按键 12
挑@@ 12
挤@@ 12
挫败 12
捉@@ 12
捐@@ 12
捕鲸 12
捞 12
换取 12
换气 12
掌管 12
排泄物 12
探险者 12
接手 12
掩@@ 12
握@@ 12
握住 12
援@@ 12
搜@@ 12
搭@@ 12
播种 12
操作@@ 12
收拾 12
收购 12
收集器 12
攻克 12
放上 12
放回 12
政体 12
敬意 12
数以 12
数据@@ 12
数月 12
数码相机 12
敲门 12
文件夹 12
斯尔 12
新英格兰 12
无所@@ 12
无机 12
无止境 12
无法控制 12
无辜 12
普遍存在 12
暖@@ 12
暴 12
更多人 12
更有意义 12
有多@@ 12
有如 12
有条 12
望去 12
本拉登 12
朱丽叶 12
朱莉 12
机关 12
机械@@ 12
机票 12
杜克 12
来得 12
杰斐逊 12
松鼠 12
构筑 12
柏 12
某件事 12
某物 12
染色 12
柔@@ 12
柴 12
树种 12
核弹头 12
核电站 12
根植 12
格局 12
栽种 12
桌边 12
桩 12
梯子 12
棕榈树 12
楼下 12
模特 12
欧洲@@ 12
此种 12
武@@ 12
死板 12
残留 12
母语 12
毒药 12
毕尔巴鄂 12
毫秒 12
氢原子 12
水族箱 12
水是 12
汇报 12
汽水 12
沉思 12
沉积 12
沟@@ 12
没人@@ 12
油漆 12
沾 12
泛 12
泛滥 12
泪 12
洗钱 12
洞里 12
津贴 12
洪 12
流产 12
流动性 12
流经 12
测定 12
浴缸 12
海味 12
消沉 12
涌 12
涨 12
深知 12
渔网 12
渗@@ 12
湖泊 12
滋生 12
滑翔 12
滑翔机 12
滚 12
滥@@ 12
灌木 12
火花 12
灵性 12
炼@@ 12
热烈 12
照看 12
爬行动物 12
爱国者 12
牢房 12
犹@@ 12
狄克 12
独角兽 12
猎户座 12
猫@@ 12
猿 12
理应 12
琴 12
瑞德 12
瓣体 12
生化 12
生命@@ 12
用光 12
田地 12
田纳西州 12
电信 12
电信号 12
男女@@ 12
畅@@ 12
疏@@ 12
疏远 12
病理 12
白板 12
百万@@ 12
百分之九十九 12
百分之九十五 12
百分之四 12
皮带 12
皱纹 12
目击者 12
相伴 12
相似性 12
相撞 12
眉毛 12
看不出 12
看重 12
真实情况 12
真棒 12
眩晕 12
眼下 12
石板 12
石灰石 12
硕士 12
碳原子 12
礁 12
示@@ 12
礼 12
社会科学 12
福音 12
离不开 12
科恩 12
科技进步 12
称赞 12
移居 12
程式 12
空前 12
空气污染 12
空隙 12
突击 12
窄 12
窗@@ 12
窗帘 12
站点 12
童 12
童子军 12
第一份 12
第一场 12
第三阶段 12
答复 12
算了 12
粉红 12
精湛 12
紫@@ 12
繁复 12
纠缠 12
约旦 12
纵向 12
纵轴 12
纸巾 12
线粒体 12
组学 12
经文 12
结果显示 12
结点 12
续集 12
维也纳 12
维京 12
绿灯 12
缠绕 12
缸 12
罗德尼 12
罗里 12
罪@@ 12
羊毛 12
美满 12
翻天覆地 12
翻版 12
翻过来 12
耀斑 12
老奶奶 12
老妇人 12
耳边 12
耸@@ 12
联 12
联赛 12
聚光灯 12
肝@@ 12
股@@ 12
背着 12
能源危机 12
能行 12
脑后 12
脑电波 12
腰@@ 12
腹部 12
腺 12
腾 12
自动@@ 12
自由式 12
自相矛盾 12
自称 12
舞蹈家 12
航@@ 12
苦苦 12
荒废 12
菌@@ 12
菩提 12
薄片 12
虽说 12
蛙 12
蜂蜜 12
蜡 12
蜡@@ 12
血样 12
衣物 12
裂谷 12
装进 12
装配 12
西南 12
要来 12
要用 12
规@@ 12
视而不见 12
角色扮演 12
言论自由 12
警官 12
譬如说 12
订阅 12
认 12
议@@ 12
讲得 12
讲演 12
证@@ 12
词组 12
译@@ 12
试飞 12
诚@@ 12
话说回来 12
详尽 12
语气 12
读读 12
象征性 12
象是 12
货@@ 12
贫@@ 12
贫瘠 12
贮存 12
赚@@ 12
赞叹 12
超常 12
趣@@ 12
路克 12
路面 12
踪迹 12
身体健康 12
轴线 12
辩@@ 12
过头 12
过山车 12
迈阿密 12
近来 12
这为 12
这么久 12
这些年来 12
这回 12
这架 12
这群人 12
这行 12
远不止 12
远去 12
远远不够 12
迷茫 12
送往 12
选定 12
透视 12
通话 12
造访 12
道德@@ 12
遗@@ 12
遗传基因 12
遗传物质 12
遗体 12
邮@@ 12
配件 12
配置 12
酮 12
重击 12
重构 12
重获 12
钉子 12
铁轨 12
铃声 12
银 12
销售额 12
长城 12
长官 12
门人 12
闭上眼睛 12
闭嘴 12
防水 12
阴暗 12
附属 12
附带 12
限定 12
除掉 12
随心所欲 12
随身携带 12
隐秘 12
雪花 12
霍 12
静 12
非比寻常 12
面板 12
音高 12
顿悟 12
预定 12
预感 12
领会 12
频谱 12
额叶 12
飞车 12
飞过来 12
餐桌 12
饿死 12
首个 12
首脑 12
香料 12
马可 12
马赛 12
驻@@ 12
驾驶舱 12
骗@@ 12
骗局 12
高效率 12
高校 12
高端 12
高管 12
高雅 12
鬣狗 12
魔 12
鲍林 12
鸡块 12
鸦片 12
鸭 12
黄蜂 12
黑桃 12
黑白 12
黑莓 12
鼓动 12
鼓棒 12
鼻孔 12
&gt; 11
&lt; 11
00@@ 11
1300 11
1850 11
1900 11
190@@ 11
1947 11
1965 11
1981 11
1987 11
20000 11
220 11
360 11
39 11
41 11
66 11
69 11
Bu@@ 11
CL 11
CP 11
Christopher 11
DL 11
Dean 11
Di@@ 11
Dun@@ 11
EB 11
Emma 11
Eric 11
Fe@@ 11
Go 11
Ha@@ 11
Han@@ 11
Herbie 11
IT 11
Intel 11
JC 11
Jamie 11
Joe 11
Kh@@ 11
Kismet 11
LG 11
MP3 11
MRI 11
Miller 11
NI@@ 11
Nano 11
Nathan 11
Neil 11
New@@ 11
Norman 11
PCB 11
Pleo 11
Pr@@ 11
Qu@@ 11
SA 11
Ser@@ 11
Stu@@ 11
Su@@ 11
WI@@ 11
Williams 11
Word 11
ant 11
ase 11
ber@@ 11
berg 11
bert 11
co 11
ee 11
eg@@ 11
ell 11
ff@@ 11
for 11
ha 11
ick 11
ise 11
iv@@ 11
la 11
ne@@ 11
ney 11
orn 11
re 11
stein 11
uk@@ 11
um 11
ve 11
⋯ 11
一千万 11
一帮 11
一招 11
一新 11
一期 11
一桩 11
一桶 11
一百万个 11
一百个 11
一笑 11
七十 11
万一 11
万到 11
万次 11
三人 11
三角洲 11
上百 11
上百年 11
上级 11
上车 11
下个月 11
下台 11
下层 11
下游 11
不合理 11
不大 11
不太可能 11
不怎么样 11
不怕 11
不说 11
不通 11
不顾 11
两万 11
两三年 11
两侧 11
两半 11
两类 11
中心@@ 11
中性 11
中断 11
中毒 11
中用 11
丸 11
为的是 11
主页 11
之母 11
之源 11
乌拉圭 11
乐手 11
乔伊 11
书呆子 11
予 11
事要 11
事项 11
云彩 11
亚历克斯 11
产能 11
亨 11
亨特 11
人住 11
人口数 11
人机 11
人死于 11
人称 11
人道 11
亿吨 11
仅用 11
介意 11
从头 11
从未有过 11
仓 11
他家 11
付诸实践 11
代代相传 11
以致于 11
伊甸园 11
会儿 11
会带 11
会试 11
伤感 11
伤疤 11
伤痛 11
伦斯 11
伴 11
佛罗里达州 11
你会 11
使用@@ 11
俗 11
保持沉默 11
保留地 11
信用 11
倒霉 11
倾注 11
偏 11
偏向 11
做好事 11
停战 11
充满希望 11
兆@@ 11
光子 11
光荣 11
克兰 11
克尔 11
克里 11
入狱 11
入门 11
全家 11
公主 11
公元 11
公车 11
共同努力 11
关键时刻 11
兴奋不已 11
内置 11
内脏 11
内陆 11
再也不能 11
军团 11
农场主 11
冰上 11
冰雪 11
几十亿年 11
几千个 11
几只 11
凤凰 11
凯瑟琳 11
凶@@ 11
出汗 11
分心 11
分析师 11
分组 11
分销 11
刑讯逼供 11
列入 11
刚毛 11
创作者 11
利兹 11
利息 11
别提 11
刮 11
到处跑 11
制定者 11
前一天 11
办公桌 11
加倍 11
加大 11
动用 11
劳伦斯 11
勾勒 11
包涵 11
化工厂 11
化肥 11
北朝鲜 11
匮乏 11
医学界 11
十五 11
十亿美元 11
十字 11
千真万确 11
升降 11
半边 11
南斯拉夫 11
卡住 11
危险性 11
即时通讯 11
厄 11
厌 11
友情 11
反之亦然 11
反常 11
发性 11
发病 11
发财 11
发邮件 11
受不了 11
受众 11
受够了 11
受访者 11
变化@@ 11
变好 11
变形虫 11
变迁 11
口气 11
句号 11
另一头 11
可疑 11
可编程 11
台灯 11
司 11
司@@ 11
各不相同 11
吉儿 11
吉普车 11
后座 11
后背 11
后部 11
吐@@ 11
吞食 11
启蒙 11
吸尘器 11
呐 11
周一 11
和平@@ 11
咒语 11
咖啡杯 11
咸@@ 11
哈莱姆 11
响起 11
哥伦比亚大学 11
哺乳类 11
哼 11
售出 11
唯有 11
商界 11
商讨 11
喀麦隆 11
喂饱 11
善待 11
喜剧演员 11
喷泉 11
嘉@@ 11
四年级 11
四百 11
回忆起 11
因果 11
围墙 11
国立 11
国防部 11
国际象棋 11
图样 11
图示 11
圆顶 11
圈圈 11
圈子里 11
土卫二 11
圣雄甘地 11
地理位置 11
地用 11
坏主意 11
垃圾桶 11
型@@ 11
城市@@ 11
基线 11
堵 11
塑造成 11
壮丽 11
备用 11
夏洛特 11
外围 11
外衣 11
多媒体 11
多方面 11
多种不同 11
多远 11
大块 11
大幅度 11
大相径庭 11
大错特错 11
天主教 11
天后 11
太晚 11
夭折 11
失踪 11
头颅 11
奇观 11
契机 11
女高音 11
妄@@ 11
妙@@ 11
委托 11
婚 11
孙@@ 11
宁@@ 11
宅 11
宇航局 11
安娜 11
安德@@ 11
安然 11
完后 11
宏@@ 11
定价 11
实话 11
家们 11
家属 11
容许 11
宽度 11
宾州 11
宿@@ 11
对人 11
对撞 11
对错 11
封锁 11
小敏 11
小步 11
小点 11
小车 11
尽全力 11
屈服 11
山地 11
山地车 11
岂 11
峰会 11
崇尚 11
巡@@ 11
工作量 11
左脑 11
巨浪 11
巴格达 11
市场份额 11
布莱尔 11
希利 11
帕拉 11
平坦 11
平稳 11
年青人 11
幽@@ 11
幽默感 11
应激 11
废话 11
康 11
康涅狄格州 11
延缓 11
建设性 11
开普敦 11
开罗 11
开门 11
弗莱舍 11
弥漫 11
弱@@ 11
归于 11
彩 11
彩虹 11
很差 11
很远 11
徒劳 11
循@@ 11
微米 11
德斯 11
徽章 11
忘却 11
怀特兄弟 11
怒@@ 11
性命 11
怪胎 11
总在 11
总裁 11
恋@@ 11
恢复性 11
患@@ 11
情结 11
惊恐 11
想念 11
意大利人 11
意念 11
感光 11
感觉良好 11
感谢您 11
慢下来 11
慢活 11
戏法 11
我常 11
我教 11
我照 11
我爸 11
戒指 11
房地产 11
房租 11
所受 11
所称 11
扇 11
打工 11
打斗 11
批 11
抄@@ 11
把头 11
投掷 11
投球 11
投资人 11
折腾 11
抛物线 11
报名 11
抨击 11
披露 11
抽象化 11
拉伸 11
拉姆 11
拉斯维加斯 11
拍照片 11
拍电影 11
拖延 11
拖拉机 11
持@@ 11
指导员 11
指挥官 11
挪动 11
振@@ 11
捐献者 11
换来 11
掀起 11
接收器 11
接通 11
描@@ 11
描绘出 11
提案 11
提过 11
插头 11
搞错 11
搬迁 11
搬运 11
摩洛哥 11
撑 11
擅长于 11
收入水平 11
收录 11
收藏家 11
改为 11
改编 11
放牧 11
故我在 11
效@@ 11
效用 11
效能 11
敏感性 11
救生 11
数千@@ 11
数据资料 11
数码@@ 11
文化背景 11
文学作品 11
斑 11
斗士 11
料@@ 11
断层 11
新泽西 11
旁观者 11
无用 11
无神论 11
无罪 11
日复一日 11
日程 11
时间机器 11
星期一 11
晚会 11
智者 11
暖化 11
暗中 11
暴风雨 11
曲目 11
更为重要 11
最穷 11
有形 11
有水 11
有线电视 11
服药 11
朗@@ 11
木薯 11
机智 11
机理 11
束@@ 11
条带 11
来信 11
来往 11
来时 11
枕头 11
林木 11
枝 11
枪声 11
某天 11
某种原因 11
某项 11
柱@@ 11
栩栩如生 11
样@@ 11
根本就是 11
根本性 11
格外 11
格陵兰 11
格雷格 11
梅花 11
梭状 11
检查表 11
棚 11
椭圆形 11
模式识别 11
欢笑 11
欣@@ 11
止 11
正反 11
此前 11
步入 11
死神 11
残障 11
段落 11
毅力 11
每张 11
比作 11
比分 11
比方 11
比较@@ 11
毕@@ 11
毯子 11
民权运动 11
气概 11
气质 11
水上 11
水力 11
汇总 11
江@@ 11
污垢 11
污水 11
沃尔沃 11
没想 11
沿岸 11
泄@@ 11
法子 11
法式 11
泛@@ 11
泪水 11
泳@@ 11
洞察 11
洪@@ 11
洲 11
流离失所 11
测谎 11
浩瀚 11
浪漫爱情 11
海洛因 11
海量 11
深情 11
渔场 11
游走 11
源代码 11
源源不断 11
烤@@ 11
烫 11
热液 11
焦@@ 11
爪 11
爬墙 11
爬树 11
爸 11
版@@ 11
版图 11
牛粪 11
狡猾 11
独立@@ 11
狭隘 11
狮@@ 11
猛 11
猫科动物 11
玄@@ 11
玩转 11
珍@@ 11
球菌 11
瑜伽 11
生命危险 11
生态@@ 11
生机勃勃 11
生物界 11
生还 11
用具 11
甲虫 11
电子书 11
电灯泡 11
画图 11
番 11
疲惫 11
白蚁 11
百分之四十 11
相差 11
相等 11
看不懂 11
看得 11
看得出 11
看望 11
看透 11
真空管 11
知情 11
石器时代 11
码头 11
砍掉 11
砖@@ 11
破损 11
破烂 11
硅片 11
确 11
碳酸钙 11
磁力 11
礼堂 11
社会保障 11
社会关系 11
离家 11
称@@ 11
称其为 11
移开 11
稀奇 11
稍作 11
稳定性 11
穷困 11
穷国 11
穹顶 11
窃取 11
窗子 11
笛卡尔 11
笨拙 11
笨重 11
第七 11
第六 11
第十@@ 11
策展 11
算上 11
篇章 11
精 11
精心 11
精灵 11
精炼 11
精神分裂 11
糊涂 11
糖分 11
系数 11
繁多 11
红点 11
纤维素 11
纬度 11
纷争 11
组织者 11
绅士 11
细胞膜 11
经商 11
绒 11
绝好 11
绿茶 11
编纂 11
缝@@ 11
缺氧 11
网络攻击 11
罕 11
罗杰 11
耍@@ 11
耶和华 11
职员 11
联网 11
肉体 11
肠@@ 11
肠道 11
肿 11
胃@@ 11
胡椒 11
胸针 11
腰 11
臀部 11
自由度 11
自画像 11
至上 11
至此 11
致癌物 11
航天@@ 11
艺术展 11
艾尔 11
艾格尼丝 11
花些 11
花销 11
荡@@ 11
荣 11
荷兰语 11
获得成功 11
菜园 11
萦绕 11
落入 11
著@@ 11
著称 11
葡萄糖 11
葬 11
蒙大拿 11
蓝点 11
蜂@@ 11
蜜@@ 11
蠢@@ 11
血流 11
行列 11
衔接 11
表达方式 11
袖手旁观 11
裸@@ 11
裸体 11
褶皱 11
西装 11
观赏 11
视觉艺术 11
解体 11
解药 11
计时 11
议 11
讯 11
设身处地 11
诉@@ 11
诱发 11
诺亚 11
调试 11
负担得起 11
负面影响 11
责怪 11
购@@ 11
贯@@ 11
费劲 11
贾巴尔 11
赝@@ 11
起草 11
越战 11
趋@@ 11
跨度 11
路途 11
转弯 11
转播 11
软弱 11
软骨 11
轻蔑 11
较长 11
输掉 11
辨@@ 11
辨认 11
达到目标 11
迄今 11
过敏 11
迎来 11
这令 11
这股 11
进食 11
远比 11
远见 11
连锁 11
迟 11
迪斯尼 11
迷信 11
退后 11
退缩 11
适应能力 11
逃走 11
途@@ 11
逛 11
逼真 11
遇@@ 11
遍地 11
遗址 11
遥@@ 11
遭@@ 11
那台 11
那首歌 11
邪@@ 11
酵母菌 11
酸奶 11
采样 11
释@@ 11
重温 11
金刚 11
鉴于 11
鉴别 11
钻研 11
银行@@ 11
错误@@ 11
长尾 11
长椅 11
门前 11
间断 11
阁楼 11
阴蒂 11
阵 11
阿什 11
阿肯色州 11
限制性 11
难为情 11
雇 11
雕 11
雷切尔 11
雷德 11
雾气 11
非典 11
非线性 11
非营利性 11
面朝 11
音速 11
顶层 11
顶点 11
预测出 11
预防措施 11
领略 11
题材 11
额头 11
风险投资 11
飞来飞去 11
食品@@ 11
食性 11
食者 11
餐@@ 11
饲料 11
马力 11
马萨诸塞州 11
驾@@ 11
驾照 11
高低 11
高大 11
高性能 11
高手 11
高水平 11
高血压 11
鱿鱼 11
鲜艳 11
鲸@@ 11
黑点 11
黑眼睛 11
100000 10
14@@ 10
15@@ 10
190 10
1908 10
1940 10
1953 10
1966 10
1969 10
24@@ 10
35000 10
6500 10
67 10
Ag@@ 10
Agnes 10
Alan 10
BL 10
Bal@@ 10
Bob 10
CE 10
Cor@@ 10
DARPA 10
Dick@@ 10
Ed 10
El 10
Evelyn 10
Frank 10
Gh@@ 10
Gl@@ 10
Grey 10
Har@@ 10
Her@@ 10
ID 10
II 10
IP 10
Jefferson 10
Kiki 10
Kim 10
LI@@ 10
Lar@@ 10
Min@@ 10
NGO 10
Netflix 10
Nor@@ 10
Oliver 10
Per@@ 10
Photoshop 10
RS 10
Ra@@ 10
Ram@@ 10
Red@@ 10
Ron 10
Rose 10
Sar@@ 10
Sch@@ 10
She@@ 10
Sm@@ 10
Stephen 10
TB 10
TBP 10
Venter 10
Walker 10
Wilson 10
X射线 10
Yves 10
ake 10
all 10
ane 10
ate 10
cy 10
do 10
ene 10
enn@@ 10
est 10
est@@ 10
go 10
han 10
her 10
ich 10
ics 10
j 10
land 10
ma 10
na 10
ora 10
our 10
pp@@ 10
ris 10
se 10
ss@@ 10
ter@@ 10
ure 10
van 10
we@@ 10
¼ 10
一世 10
一两@@ 10
一体化 10
一吨 10
一味 10
一国 10
一大块 10
一家人 10
一层层 10
一年级 10
一来 10
一盘 10
一级 10
一罐 10
一节 10
一顶 10
七天 10
万事万物 10
万五千 10
万元 10
万有引力 10
上任 10
上加@@ 10
上取 10
上用 10
下会 10
下跌 10
下雪 10
不对劲 10
不平 10
不得了 10
不由自主 10
不知所措 10
不能不 10
专业训练 10
业界 10
业绩 10
丝腺 10
两党 10
两台 10
两极 10
两百年 10
严格@@ 10
丧命 10
中国政府 10
中所 10
丰@@ 10
丰富多彩 10
主权 10
义工 10
之作 10
乐章 10
书架上 10
书桌 10
乱七八糟 10
争斗 10
二十万 10
五位 10
五点 10
亚伯特 10
交到 10
交叉路口 10
交通系统 10
亮光 10
亲缘 10
人到 10
人口统计 10
人形 10
人时 10
人格@@ 10
亿英镑 10
仅为 10
仅此而已 10
介子 10
从头到尾 10
从现在起 10
他妈的 10
付出代价 10
以内 10
份子 10
仿 10
伍 10
伐@@ 10
伐木 10
优越 10
会令 10
会得 10
会犯 10
传出 10
传播@@ 10
传统@@ 10
传统意义 10
伤亡 10
伴奏 10
低下 10
住院 10
体检 10
体细胞 10
体育@@ 10
体面 10
何不 10
何为 10
何以 10
何等 10
作响 10
佬 10
佳肴 10
侄子 10
侍@@ 10
依赖性 10
侵扰 10
俄勒冈州 10
保住 10
保姆 10
保密 10
保护环境 10
信服 10
借着 10
假象 10
偷看 10
僧伽 10
充沛 10
兆瓦 10
先说 10
免疫@@ 10
全年 10
公告 10
共同@@ 10
共进午餐 10
共通 10
关节炎 10
关门 10
兴 10
兴盛 10
其后 10
具@@ 10
内尔 10
内有 10
再造 10
写书 10
写实 10
军事@@ 10
农业@@ 10
冰淇淋 10
冰激凌 10
冰解面 10
净@@ 10
净水 10
准许 10
凉@@ 10
凉爽 10
减慢 10
凝@@ 10
几件事 10
几何学 10
几句话 10
几小时 10
几英里 10
几项 10
凹@@ 10
出个 10
出场 10
出资 10
分析@@ 10
分界线 10
切口 10
划算 10
创可贴 10
利于 10
制作者 10
制约 10
制表 10
刺绣 10
剃@@ 10
前任 10
前去 10
剑桥大学 10
剪 10
力所能及 10
加尔各答 10
动性 10
助理 10
劲儿 10
势利 10
势头 10
勇于 10
勘探 10
包厢 10
匆忙 10
匪夷所思 10
医 10
医务人员 10
医药@@ 10
十分困难 10
十诫 10
千分之一 10
千里 10
半月 10
华里 10
协@@ 10
单子 10
南半球 10
南边 10
卡什 10
卡克伦 10
卧@@ 10
卫生间 10
印第安 10
历史记录 10
历时 10
压裂 10
厌@@ 10
厚度 10
原话 10
参议院 10
反应堆 10
反弹 10
发射@@ 10
取得胜利 10
变更 10
变色 10
古董 10
另一回事 10
另一方 10
只管 10
可可 10
史诗 10
号@@ 10
叹@@ 10
各大 10
各方 10
合格 10
同龄 10
后天 10
吐丝 10
向导 10
呐喊 10
呼应 10
咀嚼 10
和尚 10
咯 10
咽 10
哄 10
哈克 10
哈尔 10
哎呀 10
哭@@ 10
哮喘病 10
唐 10
商家 10
喀@@ 10
善恶 10
喝茶 10
喷气 10
喷雾 10
嗅 10
嘎@@ 10
嘴@@ 10
嚷 10
囊@@ 10
回顾历史 10
回首 10
团结一致 10
固然 10
国籍 10
图斯 10
圣地亚哥 10
圣殿 10
圣经上 10
在此期间 10
地为 10
地产 10
地来 10
地理@@ 10
地理杂志 10
地看 10
地站 10
地质学家 10
坡度 10
型机 10
培植 10
基准 10
基因@@ 10
堪@@ 10
填写 10
墙体 10
备份 10
复 10
复印机 10
外力 10
外边 10
多名 10
多哈 10
大卫王 10
大坝 10
大得多 10
大灾难 10
大黄蜂 10
天里 10
太空船 10
太空飞行 10
太贵 10
太远 10
太阳镜 10
失调 10
头条新闻 10
头牛 10
夹@@ 10
奉 10
奔走 10
奥利弗 10
奥斯曼帝国 10
奥普拉 10
奧 10
女权主义者 10
奸 10
妮@@ 10
姑@@ 10
季度 10
学了 10
学童 10
安全@@ 10
安全局 10
安放 10
安静下来 10
宝藏 10
实事 10
宣告 10
宫@@ 10
害@@ 10
宽带 10
富于 10
富足 10
察看 10
小区 10
小姑娘 10
小家庭 10
小猫 10
小球 10
小说家 10
小鸟 10
小鸡 10
尖峰 10
就职 10
尺子 10
尼古拉 10
尼日利亚人 10
尽情 10
尿 10
层出不穷 10
屏住 10
展厅 10
属@@ 10
工头 10
已故 10
巴尔@@ 10
巴里 10
市场经济 10
市政厅 10
布什总统 10
布料 10
帆 10
帝国大厦 10
常有 10
干活 10
平原 10
并存 10
庆典 10
床边 10
底座 10
建于 10
建筑工人 10
开创性 10
开花 10
异想天开 10
异教徒 10
弃@@ 10
弊 10
弧菌 10
弱势群体 10
弹射 10
强劲 10
强国 10
强行 10
归还 10
当代艺术 10
录影 10
往事 10
徒@@ 10
德克萨斯 10
德尼柔 10
心存 10
心爱 10
心理医生 10
必将 10
必要条件 10
志同道合 10
忠实 10
怀疑论者 10
急切 10
性病 10
性高潮 10
怪诞 10
恐@@ 10
恐吓 10
恐怖@@ 10
恢复过来 10
恩斯 10
恶作剧 10
悉尼 10
悲观主义 10
情人 10
惩@@ 10
惯性 10
想些 10
想像成 10
想当然 10
愈发 10
愧疚 10
慢速 10
成功率 10
成形 10
成瘾 10
战时 10
战略@@ 10
戳 10
戴尔 10
房顶 10
所写 10
所属 10
所著 10
所言 10
扁豆 10
手术@@ 10
才@@ 10
扎根 10
扑@@ 10
打出 10
打孔 10
托尔斯泰 10
扪心自问 10
技术性 10
抗病毒 10
折扣 10
报废 10
抵抗力 10
抽象@@ 10
担@@ 10
拍到 10
指明 10
按@@ 10
挑出 10
挑剔 10
挥舞 10
捐助者 10
捡起来 10
排成 10
排行榜 10
接下去 10
推论 10
搭便车 10
搭档 10
携带者 10
摄相机 10
摆放 10
摇摆 10
摔@@ 10
摔跤 10
摘@@ 10
摞 10
摩天大楼 10
支离破碎 10
放上去 10
放学 10
放手 10
放着 10
政界 10
救活 10
教派 10
教皇 10
敬 10
数万 10
数位 10
数学模型 10
数百个 10
敲击 10
敲打 10
料到 10
斯多德 10
斯大林 10
斯密 10
斯顿 10
新人 10
新增 10
新种 10
新闻记者 10
方言 10
施压 10
旅客 10
旅行@@ 10
旗@@ 10
无动于衷 10
无所畏惧 10
无法忍受 10
日托 10
日趋 10
时间段 10
旺 10
明明 10
明暗 10
星座 10
星空 10
显 10
显示屏 10
晕@@ 10
晦涩 10
普通话 10
曲折 10
最爱 10
有句 10
木马 10
未能 10
本源 10
朱丽婭秀 10
机密 10
杂乱 10
杂物 10
杜尔迦 10
杰西 10
极其重要 10
极力 10
构式 10
林登 10
果实 10
果断 10
枝条 10
某一 10
某位 10
染料 10
柳@@ 10
标明 10
栓 10
核实 10
核心@@ 10
核爆炸 10
格式 10
桅杆 10
桌布 10
梁 10
梅隆 10
梦幻 10
棕榈 10
楼上 10
模具 10
横穿 10
横轴 10
橙子 10
橱窗 10
欠@@ 10
欣慰 10
欧美 10
欺@@ 10
欺诈 10
款@@ 10
歇 10
正经 10
殖民主义 10
每天花 10
毒气 10
毛里求斯 10
民意调查 10
水手 10
水桶 10
水滴 10
汉堡包 10
汉娜 10
汽@@ 10
沾@@ 10
法制 10
法学院 10
波音 10
洁净 10
洗手间 10
洗衣 10
活过来 10
派上用场 10
测出 10
测压 10
浑身 10
海中 10
海鲜 10
浸泡 10
涂层 10
消毒 10
消费@@ 10
涌@@ 10
涨@@ 10
淘汰 10
深切 10
深远影响 10
渗入 10
湿@@ 10
滋@@ 10
滋味 10
满脑子 10
滴滴涕 10
漏掉 10
演讲人 10
潘@@ 10
潜质 10
潮湿 10
澡 10
灾害 10
炉 10
炮 10
烦人 10
热气 10
热潮 10
燃@@ 10
牛角 10
牧场 10
特写 10
犀牛 10
犯罪率 10
狂欢 10
独特性 10
独自一人 10
猎@@ 10
猎食 10
猖獗 10
猫头鹰 10
猿人 10
玉米@@ 10
玉米片 10
玛格丽特 10
玩偶 10
环保@@ 10
环顾四周 10
珀 10
珍 10
珠@@ 10
球赛 10
理查 10
瑟@@ 10
甜甜 10
甜美 10
生存@@ 10
生殖@@ 10
生育率 10
用力 10
田园 10
电厂 10
电压 10
电影节 10
电磁 10
电脑前 10
电费 10
疟原虫 10
疮 10
疾@@ 10
登顶 10
皇@@ 10
盆@@ 10
益@@ 10
监察 10
监护 10
盟@@ 10
相互影响 10
相匹配 10
相识 10
盾 10
眨 10
着重 10
瞎 10
短短的 10
磨损 10
社@@ 10
祝愿 10
神性 10
祸 10
祸@@ 10
离谱 10
私立学校 10
秋@@ 10
秋季 10
种族歧视 10
科威特 10
科目 10
科菲 10
积极参与 10
积雪 10
程@@ 10
税@@ 10
究@@ 10
空气质量 10
窍门 10
立体声 10
竹子 10
符合@@ 10
第一本 10
第三代 10
第二层 10
第六感 10
第四次 10
答@@ 10
简明 10
管理者 10
篮球 10
粉@@ 10
粉刷 10
粗糙度 10
精良 10
紧急情况 10
红细胞 10
纵观 10
纷@@ 10
织@@ 10
经济效益 10
结冰 10
结核病 10
绕@@ 10
绘 10
绘@@ 10
绝非 10
统治者 10
维吉尼亚 10
维拉 10
综@@ 10
绿洲 10
编译器 10
缠@@ 10
罐头 10
罗宾斯 10
置信 10
美国国会 10
美国国防部 10
美国宇航局 10
美式 10
美感 10
美是 10
美术 10
美洲@@ 10
群中 10
群组 10
老年@@ 10
老百姓 10
考古 10
而出 10
而行 10
耐克 10
耗时 10
耗资 10
联合会 10
聚合 10
肋骨 10
肌@@ 10
肌萎缩 10
肖恩 10
肠子 10
股东 10
股票市场 10
背道而驰 10
胡安 10
胰腺 10
胸腔 10
能带 10
能干 10
能源需求 10
脑损伤 10
脸孔 10
脾气 10
腿@@ 10
自发性 10
自恋 10
自我感觉 10
自来水 10
自由市场 10
舆论 10
舌@@ 10
舍基 10
舟 10
航道 10
艺@@ 10
节点 10
节约能源 10
芒果 10
芭比 10
芭芭拉 10
芭蕾 10
苏萨 10
荒芜 10
荒野 10
获取信息 10
蒸@@ 10
蒸汽机 10
蓝线 10
蓬松 10
藤@@ 10
虚幻 10
蚜虫 10
蜂房 10
蜂鸟 10
蜘蛛侠 10
蜥蜴 10
蜷缩 10
血清素 10
行李 10
行车 10
表面积 10
衬@@ 10
被遗弃 10
裂@@ 10
装载 10
褐色 10
西弗吉尼亚州 10
要不然 10
要学 10
覆 10
观察@@ 10
规格 10
览 10
触目惊心 10
詹姆士 10
订购 10
讨 10
议案 10
设计图 10
设计方案 10
诅咒 10
诗篇 10
诚然 10
诱导 10
诺伊曼 10
谎 10
谱子 10
象征意义 10
豪华 10
贝斯 10
财力 10
财政部长 10
责 10
货架 10
贫富差距 10
贫血症 10
贮水池 10
赌博 10
赖@@ 10
赞 10
赞助商 10
赞颂 10
走私 10
超强 10
超级大国 10
越深 10
跨学科 10
跳下去 10
踢@@ 10
蹲 10
身临其境 10
身旁 10
躺@@ 10
车程 10
轨 10
转盘 10
轻型 10
辩 10
辩护 10
边缘系统 10
边际 10
达罗 10
过剩 10
运动神经 10
运营商 10
运输@@ 10
近几年 10
返 10
这全 10
这周 10
这帮 10
这成 10
这所 10
这棵 10
这真 10
远距离 10
连接@@ 10
连环 10
迟到 10
迫害 10
退役 10
逊@@ 10
通行 10
道义 10
遗传学家 10
遗失 10
那人 10
那件事 10
那就是说 10
邦德 10
邻国 10
邻座 10
部手机 10
配备 10
配有 10
酸化 10
醇 10
重复使用 10
重演 10
重造 10
重重 10
量产 10
金融服务 10
钓@@ 10
钩子 10
钻进 10
铃铛 10
铝@@ 10
银色 10
锁@@ 10
镇上 10
镜@@ 10
长短 10
问卷 10
闹钟 10
闻@@ 10
阅 10
防治 10
防蚊 10
阴囊 10
阻断 10
阿拉 10
阿拉伯人 10
阿联酋 10
降下来 10
陨石坑 10
陷 10
陷@@ 10
随即 10
隐患 10
隐蔽 10
难堪 10
雀@@ 10
雅克 10
雨季 10
零碎 10
零食 10
霍尔 10
霍恩 10
露脊 10
青 10
非官方 10
非常适合 10
面上 10
面包师 10
面罩 10
音效 10
页岩 10
顾@@ 10
顾虑 10
颁发 10
预估 10
预约 10
飞快 10
餐桌上 10
饭桌 10
饭碗 10
饱 10
马上会 10
马尔科 10
马里 10
驶过 10
高跟鞋 10
魔兽 10
鲜活 10
鳄 10
鳕鱼 10
麼 10
黑线 10
默默 10
齐心协力 10
１ 10
0.2 9
08 9
1.3 9
137 9
13@@ 9
15000 9
1858 9
1958 9
1971 9
1978 9
40000 9
401 9
82 9
Ab@@ 9
Alisa 9
And@@ 9
Andy 9
Ash@@ 9
Av@@ 9
Beverly 9
Bono 9
Boyle 9
Bre@@ 9
CR@@ 9
Cli@@ 9
Cr@@ 9
Dolby 9
Donnell 9
Duolingo 9
Fide 9
Fl@@ 9
Fr@@ 9
Galvao 9
Gary 9
Graham 9
Gri@@ 9
Ja@@ 9
Jam@@ 9
Jill 9
Jon 9
Juan 9
Kr@@ 9
Los 9
Lot@@ 9
Lynn 9
Mer@@ 9
Microsoft 9
ND@@ 9
Nat@@ 9
Nelson 9
Nick 9
Nicole 9
Or@@ 9
Orkut 9
Pen@@ 9
Point 9
Por@@ 9
Prego 9
Q@@ 9
Ragu 9
Reddit 9
Reed 9
Rory 9
Ros@@ 9
SK 9
Seth 9
Sim@@ 9
St 9
Stanley 9
TK 9
Tim@@ 9
Tur@@ 9
UE 9
Young 9
ama 9
app@@ 9
ard@@ 9
ari 9
ber 9
ck 9
die 9
dy 9
email 9
ens 9
esh 9
ette 9
ex 9
ez 9
gen@@ 9
hat 9
hr@@ 9
ib@@ 9
ide 9
ong 9
oop 9
ould 9
oun@@ 9
our@@ 9
ran@@ 9
ss 9
ta@@ 9
uc@@ 9
ue 9
ure@@ 9
ut 9
water 9
・ 9
一丁点 9
一九@@ 9
一击 9
一切顺利 9
一包 9
一大部分 9
一带 9
一战 9
一扇门 9
一整 9
一朵 9
一现 9
一般@@ 9
一般而言 9
一角 9
万倍 9
万分之一 9
三年级 9
三张 9
三百@@ 9
三維 9
上会 9
上床 9
上爬 9
上路 9
不休 9
不公 9
不成 9
不看 9
不知@@ 9
不知不觉 9
不能容忍 9
不锈钢 9
不需 9
不靠 9
世界大战 9
丘 9
东北部 9
丢脸 9
两千五百 9
两方 9
两端 9
两难 9
严@@ 9
个例 9
中东问题 9
中情局 9
中间人 9
中非 9
串@@ 9
临终 9
为人所知 9
为期 9
为食 9
主人公 9
主动脉 9
主教 9
主演 9
丽蓓卡 9
之星 9
之歌 9
之王 9
之神 9
之谜 9
乌龟 9
乐子 9
九十 9
书页 9
争 9
事会 9
二分之一 9
二十亿 9
二是 9
于世 9
互利 9
五千万 9
五年级 9
五百年 9
亚历山大图书馆 9
亚拉 9
产品设计 9
产妇 9
亮度 9
亮点 9
人写 9
人机界面 9
人脸 9
人质 9
亿万富翁 9
亿颗 9
仁@@ 9
仆人 9
从天而降 9
仔细@@ 9
仙子 9
令人信服 9
令人厌恶 9
令人称奇 9
令人难忘 9
任何@@ 9
任命 9
任期 9
份@@ 9
伊娃 9
伊拉克人 9
伊斯坦布尔 9
伍夫德 9
伏@@ 9
休息时间 9
优待 9
会到 9
传导 9
传授给 9
伯里 9
伽 9
低效 9
佐@@ 9
佐料 9
体力 9
佛教徒 9
作战 9
你们好 9
使者 9
來 9
侏罗纪 9
供养 9
侯赛因 9
侵占 9
侵袭 9
保安 9
保有 9
保育 9
信号灯 9
修好 9
修整 9
修订 9
倒入 9
倒数 9
候选 9
借助于 9
借来 9
借给 9
停止使用 9
健将 9
偶 9
偶@@ 9
偷猎者 9
偷盗 9
偿@@ 9
储@@ 9
傻子 9
儿女 9
先入为主 9
先看 9
光顾 9
克拉底 9
克曼 9
克罗@@ 9
克里斯蒂娜 9
党员 9
入学 9
全场 9
全息 9
全方位 9
全神贯注 9
八万 9
公共场所 9
共和 9
关注度 9
其实不然 9
其所 9
具体来说 9
养老金 9
兽 9
内阁 9
军事力量 9
军事行动 9
军备 9
冠状动脉 9
冥@@ 9
冬@@ 9
冰冻 9
况且 9
冷水 9
凌@@ 9
减半 9
减退 9
几件 9
几秒 9
凭空 9
凯尔 9
出炉 9
出生地 9
出生率 9
出租 9
出钱 9
出院 9
分区 9
分娩 9
划过 9
创始 9
初中 9
利益冲突 9
刹@@ 9
刻板 9
削@@ 9
前世 9
前所未见 9
前期 9
剥 9
剥开 9
剧情 9
剪纸 9
力求 9
功效 9
加糖 9
加进来 9
加里 9
助听器 9
劳作 9
勒斯 9
化解 9
北非 9
十二个 9
十二月 9
十几年 9
十多年 9
千万年 9
千名 9
半个世纪 9
半导体 9
半透明 9
华纳 9
单向 9
卖出去 9
南希 9
博爱 9
博茨瓦纳 9
博诺 9
卜@@ 9
占地面积 9
卡罗尔 9
卡罗琳 9
卡通画 9
卡雷贝 9
卫@@ 9
卫星@@ 9
即便如此 9
卵子 9
卷起 9
历史长河 9
压缩成 9
原件 9
县@@ 9
参与度 9
双层 9
双曲 9
双螺旋 9
反省 9
发扬 9
发散 9
发电厂 9
发病率 9
发言权 9
发送到 9
取向 9
变冷 9
变性 9
另一侧 9
叫法 9
叫醒 9
可用性 9
可贵 9
可靠性 9
可食用 9
叼 9
合伙人 9
吉斯 9
同一天 9
同僚 9
同卵 9
同感 9
同盟 9
后腿 9
后裔 9
吓@@ 9
君主制 9
否决 9
听懂 9
启蒙运动 9
吵 9
吸血鬼 9
吹嘘 9
周三 9
周而复始 9
呼气 9
咚咚 9
咸 9
响亮 9
哥伦布 9
唐纳 9
售卖 9
商品化 9
啊啊啊 9
喂@@ 9
喜马拉雅 9
嗜@@ 9
器具 9
嚼 9
囊括 9
囚徒 9
四分钟 9
四号 9
回合 9
回溯到 9
因果关系 9
园区 9
固化 9
国防部长 9
国际化 9
图鲁 9
圣杯 9
在政治上 9
地下水 9
地基 9
地层 9
地铁站 9
坐飞机 9
坚实 9
坚韧 9
坦率 9
域名 9
基因图谱 9
基因学 9
基因工程 9
基座 9
基本概念 9
基督教徒 9
堵车 9
塞缪尔 9
塞进 9
填字游戏 9
增添 9
壳@@ 9
复杂度 9
夏令营 9
多尔 9
多得 9
多谢 9
多长 9
大不列颠 9
大些 9
大众化 9
大力 9
大得 9
大法官 9
大略 9
大笔 9
大部份 9
天下 9
天主教徒 9
太慢 9
太美 9
太迟 9
夫斯基 9
失 9
失灵 9
头号 9
奎因 9
契合 9
奔波 9
套装 9
奢侈品 9
奥克兰 9
奥古斯丁 9
奥布里 9
奥斯@@ 9
奴隶制度 9
奶油 9
奸@@ 9
好不好 9
好玩儿 9
好评 9
妇人 9
妥 9
妹 9
始 9
始祖 9
姿 9
威廉斯 9
嬉皮 9
孕@@ 9
字眼 9
存储@@ 9
学习@@ 9
安哥拉 9
安心 9
安然无恙 9
安瑞科 9
完工 9
宗 9
宗@@ 9
定时炸弹 9
定论 9
定量 9
实惠 9
实验@@ 9
宣@@ 9
家庭@@ 9
家庭暴力 9
家畜 9
宾 9
宾夕法尼亚 9
宿 9
宿舍 9
察 9
小册子 9
小团体 9
小布什 9
小朋友 9
小溪 9
小玩意儿 9
小盒子 9
小群 9
少数几个 9
少见 9
尔曼 9
尝尝 9
就会 9
尸@@ 9
尸检 9
尾部 9
尿@@ 9
尿布 9
尿液 9
层层 9
居所 9
屏 9
屏障 9
山洞 9
岛@@ 9
岩层 9
崩@@ 9
州立 9
巡逻 9
工业界 9
工具@@ 9
左转 9
巨 9
巨人 9
巨石 9
巫@@ 9
差劲 9
巴德 9
巴西人 9
巷 9
市政府 9
布罗德 9
布莱@@ 9
布达佩斯 9
布道 9
希伯来 9
希拉里 9
希波 9
帐号 9
帐户 9
带菌者 9
平方米 9
平衡点 9
平面设计 9
年幼 9
年轻一代 9
幸福生活 9
幼仔 9
幽灵 9
庆@@ 9
序@@ 9
店员 9
庙宇 9
座头 9
廷 9
建材 9
开出 9
开动 9
开发新 9
开张 9
弓 9
引导员 9
引言 9
弗吉尼亚 9
弯折 9
强加 9
强迫性 9
归咎于 9
归来 9
归纳 9
录像带 9
彩色@@ 9
影星 9
彼@@ 9
往下@@ 9
征@@ 9
征收 9
很难说 9
律@@ 9
得意 9
得病 9
微秒 9
德修斯 9
心声 9
心流 9
心痛 9
志向 9
忧 9
怀念 9
怎@@ 9
性价比 9
性侧 9
性工作者 9
总得 9
恋 9
恒定 9
恒温箱 9
恩惠 9
恶性 9
悠久 9
悦@@ 9
悬殊 9
情不自禁 9
惠特克 9
惨剧 9
惯用 9
惰性 9
想像力 9
愁 9
愁@@ 9
愈@@ 9
懒@@ 9
懒惰 9
戏@@ 9
成倍 9
成见 9
我同 9
我学 9
我开 9
我爱你 9
我进 9
战线 9
戚@@ 9
戴维斯 9
所花 9
手提包 9
手术台上 9
才华横溢 9
打人 9
打住 9
打头 9
打来 9
扮@@ 9
技术含量 9
抄 9
投向 9
投诉 9
投身于 9
抗原 9
折射 9
折痕 9
抬 9
抬@@ 9
拉动 9
拉尼 9
拍下来 9
拍卖会 9
拐 9
拖网 9
拦截 9
拳头 9
拾@@ 9
拿下 9
按下 9
按住 9
挖出来 9
挞 9
挥@@ 9
挨家挨户 9
挽回 9
捆 9
换位 9
捧 9
接入 9
接待 9
控@@ 9
推倒 9
推导 9
推进器 9
插进 9
搁 9
搅@@ 9
摄影@@ 9
摊 9
摘 9
撕@@ 9
撕掉 9
撤@@ 9
播@@ 9
支援 9
收起 9
攻读 9
放任 9
放大镜 9
政府@@ 9
敏 9
救生@@ 9
数以百计 9
数百年 9
数额 9
整形 9
整洁 9
文化大革命 9
文物 9
斋@@ 9
斐济 9
斯利 9
斯托克 9
新药 9
新鲜空气 9
方圆 9
施加压力 9
施舍 9
旅行家 9
旗子 9
无一例外 9
无可 9
无名 9
无奈 9
无情 9
无所不在 9
无所事事 9
无效 9
无数次 9
无法@@ 9
无法解释 9
无私 9
无菌 9
日内瓦 9
日后 9
早前 9
早年 9
时才 9
时间推移 9
时间表 9
旺盛 9
昏暗 9
星光 9
星期四 9
昭示 9
昵称 9
晒 9
晕 9
晚些时候 9
晚宴 9
晚饭 9
景@@ 9
晴@@ 9
暴发 9
曝光 9
最优 9
最合适 9
最想 9
最深处 9
最高点 9
有朝一日 9
有线 9
朋克 9
服务生 9
木匠 9
木卫二 9
本应 9
本意 9
机动 9
机动车 9
杂 9
杂交 9
条线 9
极有 9
极点 9
极端分子 9
林地 9
架飞机 9
柄 9
查莉 9
柯罗迪 9
校区 9
核酸 9
格勒 9
格拉@@ 9
栽培 9
桥@@ 9
梅尔 9
检@@ 9
植物@@ 9
楷模 9
楼里 9
概@@ 9
概念化 9
欺负 9
正统 9
此举 9
歪曲 9
毁容 9
每件 9
每加仑 9
每星期 9
每桶 9
毒瘾 9
比不上 9
比亚 9
毛细血管 9
毛骨悚然 9
毯 9
气息 9
气罐 9
氢@@ 9
氯@@ 9
水位 9
水层 9
水来 9
水温 9
水肺 9
求助 9
汉姆 9
池子 9
污 9
污@@ 9
没收 9
河岸 9
治好 9
治安 9
泊 9
波浪 9
泪@@ 9
泰迪熊 9
洋流 9
流出 9
流水 9
流淌 9
流行起来 9
测算 9
浩@@ 9
浮出 9
海军陆战队 9
海洋学 9
海胆 9
涉足 9
润@@ 9
液态水 9
涵义 9
深入研究 9
深水 9
混在 9
清洁剂 9
温床 9
游览 9
溪 9
滋养 9
滑动 9
满是 9
满足感 9
滨@@ 9
滨海 9
滩 9
滴灌 9
漏油 9
潜到 9
潜水员 9
潮汐 9
澜 9
激动不已 9
灭@@ 9
灰质 9
灶 9
炎症 9
炫@@ 9
炫耀 9
点到 9
点水 9
烤鸡 9
烦躁 9
热狗 9
热身 9
焦距 9
燕@@ 9
爱迪生 9
牙线 9
牢 9
牧草 9
特工 9
特洛伊 9
犯罪@@ 9
狭小 9
猴@@ 9
环流 9
现场表演 9
现实@@ 9
现阶段 9
玻璃窗 9
班上 9
理想化 9
理所应当 9
理论家 9
琳@@ 9
琼 9
瓦尔 9
瓦斯 9
瓦格纳 9
甜@@ 9
甜点 9
甜蜜 9
生效 9
生活习惯 9
生物医学 9
用电量 9
田野 9
由此可见 9
电机 9
电磁波 9
电脉冲 9
电话簿 9
男朋友 9
畅游 9
畅销书 9
界@@ 9
略微 9
症候群 9
症结 9
痊愈 9
痣 9
瘾 9
登月 9
白脱 9
白鲨 9
皱@@ 9
益 9
盛大 9
相互连接 9
相通 9
相隔 9
省钱 9
看时 9
看清楚 9
真人秀 9
真伪 9
真谛 9
着装 9
短小 9
短跑 9
石油@@ 9
码@@ 9
研究课题 9
破译 9
碎石 9
碳纳米管 9
示威 9
示意 9
礼@@ 9
社会主义 9
社会活动 9
神秘感 9
神经病 9
神经递质 9
福德 9
私下 9
私有化 9
秉@@ 9
科学杂志 9
科幻 9
积极分子 9
移动性 9
稻@@ 9
穆 9
穆提 9
究 9
穷苦 9
窃@@ 9
窒息 9
窝@@ 9
窥探 9
竖@@ 9
第一句 9
第一座 9
第一眼 9
第一组 9
筹到 9
简约 9
管治 9
管辖 9
箴言 9
米兰 9
米勒 9
类地行星 9
籽 9
粗 9
粮食@@ 9
精度 9
精明 9
精确度 9
紧缩 9
繁盛 9
繁荣@@ 9
红灯 9
纪律 9
纯净 9
纳什维尔 9
纳吉木丁 9
纳多 9
纺织品 9
纽约大学 9
细胞@@ 9
细胞分裂 9
细胞核 9
终端 9
经合组织 9
绑@@ 9
维克 9
维斯 9
绵羊 9
绿化 9
绿巨人 9
缔造 9
编号 9
缘@@ 9
缺乏@@ 9
罚单 9
罚款 9
置疑 9
美化 9
美景 9
羞@@ 9
群居 9
耀眼 9
耕 9
耕地 9
职业@@ 9
职业道德 9
职场 9
职能 9
联合国@@ 9
肉食 9
肢 9
肤浅 9
肥皂剧 9
肾上腺素 9
胀 9
胆固醇 9
胜@@ 9
胜出 9
胶水 9
胶质 9
胸前 9
胸口 9
胺 9
能以 9
脊柱 9
脏水 9
脑组织 9
脱颖而出 9
脸书 9
腌制 9
腐朽 9
腐蚀 9
腰部 9
腹腔镜 9
自动售货机 9
自助 9
自我介绍 9
自此 9
自然法则 9
自然灾害 9
自然科学 9
自由选择 9
自行车道 9
自责 9
臭名昭著 9
臭氧 9
致使 9
航空@@ 9
船员 9
艰辛 9
艳@@ 9
艺 9
艺人 9
艺术馆 9
艾莉森 9
节拍器 9
芙@@ 9
芭比娃娃 9
花样 9
花瓶 9
苏茜 9
范式 9
茨@@ 9
草莓 9
荒@@ 9
药丸 9
莫名其妙 9
获@@ 9
获奖者 9
菌株 9
葛 9
葛兰丁 9
薇薇安 9
虚拟现实 9
蛞蝓 9
蛮@@ 9
蛾 9
蜂巢 9
蜜多 9
蜡笔 9
融为一体 9
螺@@ 9
蠢 9
补 9
补给 9
表亲 9
表扬 9
表演艺术 9
表现@@ 9
衬衣 9
衰弱 9
衰败 9
裁决 9
西红柿 9
要死 9
要长 9
覆盖@@ 9
见见 9
观者 9
视错觉 9
视频@@ 9
觉@@ 9
解析度 9
触控 9
詹@@ 9
警惕 9
警戒 9
计算能力 9
订单 9
订定 9
让步 9
论战 9
访 9
词来 9
译 9
试图用 9
诗作 9
语言@@ 9
语调 9
说点 9
诺拉 9
调质 9
豪 9
贝叶斯 9
账单 9
贪@@ 9
贴切 9
贴纸 9
费力 9
贼 9
赌@@ 9
赌注 9
赔偿 9
赠@@ 9
走入 9
起身 9
超文本 9
超棒 9
超速 9
越远 9
趋于 9
趣 9
趣事 9
趣味 9
跋涉 9
路易 9
路西 9
跳入 9
身体语言 9
身在 9
软件@@ 9
轰动 9
轶事 9
轻而易举 9
辣 9
运动会 9
近十年 9
这来 9
这段话 9
远大 9
远征 9
连同 9
连贯 9
迟@@ 9
迪克 9
迫在眉睫 9
迷住 9
退一步 9
退休金 9
送入 9
适应力 9
逃生 9
选用 9
通路 9
逝世 9
造物 9
造物主 9
道义上 9
遗弃 9
遗漏 9
遵从 9
避孕药 9
那层 9
那根 9
酷刑 9
醒过来 9
采摘 9
释放出来 9
里长 9
重大意义 9
重大突破 9
野兽 9
金属@@ 9
金融学 9
针管 9
钙 9
铃 9
铲@@ 9
银河 9
铸@@ 9
销毁 9
销量 9
锋@@ 9
锡@@ 9
锯@@ 9
长存 9
长岛 9
闪 9
闪耀 9
问起 9
间隔 9
队友 9
防晒霜 9
阳光@@ 9
阵列 9
阿拉巴马 9
陛下 9
院里 9
陶 9
随手 9
难以捉摸 9
难怪 9
雄性激素 9
集中@@ 9
集结 9
雇@@ 9
雷曼 9
雷诺 9
雾@@ 9
震 9
青睐 9
青铜 9
面容 9
鞭@@ 9
音器 9
音译 9
音阶 9
顺应 9
顾 9
预备 9
预设 9
领土 9
颈@@ 9
风速 9
飞去 9
飞得 9
飞扬 9
饱和 9
首页 9
香槟 9
香草 9
马拉维 9
马歇尔 9
驻扎 9
驾 9
驾驶者 9
高层次 9
高强度 9
高盛 9
鲁米 9
鲑鱼 9
鳃 9
麦迪逊 9
麻省 9
黄油 9
黑岗 9
默认 9
鼠@@ 9
龄 9
龙虾 9
０ 9
］ 9
............ 8
.5 8
102 8
1100 8
12000 8
1890 8
1928 8
1939 8
1954 8
25000 8
2600 8
30000 8
330 8
4500 8
50000 8
50@@ 8
61 8
747 8
91 8
99.9 8
AM 8
AMD 8
ASHA 8
Ac@@ 8
Alexander 8
Ali 8
App@@ 8
Apple 8
Arthur 8
BP 8
BPA 8
Barricelli 8
Bas@@ 8
Ben 8
Ber@@ 8
Bur@@ 8
Byrne 8
CA@@ 8
CAT 8
Cal@@ 8
Carter 8
Charlie 8
Dav@@ 8
El@@ 8
Emily 8
Ev@@ 8
Fermi 8
Fran@@ 8
Full 8
Fund 8
GB 8
Gab@@ 8
Gra@@ 8
HTTP 8
Haw@@ 8
ID@@ 8
IP@@ 8
IPCC 8
It 8
Jason 8
Jonathan 8
Joshua 8
Kat@@ 8
LHC 8
Limb 8
Malcolm 8
Mas@@ 8
Max 8
OECD 8
Pe@@ 8
Pet@@ 8
Pranav 8
Pre@@ 8
Pri@@ 8
RCA 8
Ri@@ 8
Rick 8
Roger 8
Ross 8
SARS 8
SE 8
Saf@@ 8
Sav@@ 8
Sergey 8
Shi@@ 8
Shreddies 8
Sk@@ 8
Steven 8
Sylvia 8
T20 8
Tata 8
Too@@ 8
West 8
Wh@@ 8
Wii 8
ZipCar 8
ah 8
aker 8
anis@@ 8
anj@@ 8
ara 8
ary 8
att@@ 8
au 8
be 8
ech 8
ek 8
enny 8
ere 8
erman 8
ero 8
erry 8
ett@@ 8
for@@ 8
ford 8
ge 8
ge@@ 8
gin@@ 8
hi 8
iTunes 8
ial 8
ies 8
ind 8
ion@@ 8
ions 8
ire 8
ist 8
ker 8
ki 8
ling 8
man@@ 8
mon@@ 8
och@@ 8
og 8
ogr@@ 8
oney 8
ory 8
oth@@ 8
ov 8
ov@@ 8
ran 8
ros@@ 8
sc@@ 8
sch@@ 8
st 8
uh@@ 8
usty 8
we 8
© 8
½ 8
一万两千 8
一下@@ 8
一些则 8
一亿人 8
一具 8
一出 8
一半@@ 8
一夜之间 8
一届 8
一打 8
一摸 8
一整@@ 8
一段路 8
一百四十 8
一目了然 8
一触即发 8
一路上 8
一通 8
七百万 8
万分之 8
万头 8
万辆 8
三十岁 8
三十秒 8
上万 8
上下文 8
上下颠倒 8
上帝保佑 8
上能 8
上船 8
上花 8
下棋 8
不列颠 8
不单是 8
不当 8
不明 8
不相干 8
不自在 8
专业化 8
专为 8
专利@@ 8
世博会 8
世卫 8
世界杯 8
丙氨酸 8
丛@@ 8
东北 8
丢人 8
两只手 8
两家 8
两条腿 8
两篇 8
两股 8
两部 8
严密 8
个人经历 8
中产 8
中央政府 8
中将 8
中意 8
中说 8
中间@@ 8
丰厚 8
临 8
为难 8
举止 8
举着 8
举足轻重 8
之分 8
之初 8
乐在其中 8
乔治敦 8
乔纳斯 8
乖 8
乘飞机 8
九成 8
九点 8
乡间 8
买不到 8
买家 8
事实真相 8
事态 8
事来 8
二十个 8
二十分钟 8
二十多岁 8
二次 8
亏@@ 8
云端 8
互动性 8
互惠 8
互相合作 8
互相帮助 8
五号 8
些小 8
交流@@ 8
交通运输 8
亭 8
亲密关系 8
亲属 8
人口众多 8
人口总数 8
人站 8
亿光年 8
仅次于 8
今天下午 8
今年夏天 8
介 8
仍会 8
从头再来 8
从零开始 8
仔 8
价@@ 8
价位 8
仿@@ 8
伏特加 8
休息室 8
会动 8
会响 8
传入 8
伤痕 8
伦理道德 8
伪科学 8
估测 8
伸手 8
位子 8
低频 8
住在一起 8
住户 8
体征 8
体液 8
体育场 8
何况 8
佳@@ 8
使用暴力 8
侄女 8
侥幸 8
便利店 8
俗@@ 8
保 8
保加利亚人 8
保守党 8
信息量 8
信教 8
倒钩 8
倾诉 8
假人 8
假臂 8
偏执 8
做主 8
做时 8
停住 8
健身 8
偷偷地 8
偷猎 8
僵硬 8
充分发挥 8
克利夫 8
克利夫兰 8
克鲁@@ 8
兑@@ 8
入院 8
全能 8
全部都是 8
八月 8
八次 8
八百 8
公平正义 8
公开@@ 8
六万 8
六到 8
六十年 8
六天 8
六百万 8
兰利 8
关键期 8
关键词 8
其二 8
养家糊口 8
兼@@ 8
兼职 8
内华达州 8
内燃机 8
再循环 8
再过 8
写些 8
写作@@ 8
军火 8
冥河 8
冰球 8
冲向 8
冲洗 8
决议 8
决赛 8
冷却@@ 8
冷酷 8
冻 8
几代人 8
几分 8
凡是 8
凭直觉 8
凯斯 8
出产 8
出口@@ 8
出台 8
出头 8
出没 8
出版@@ 8
击垮 8
凿 8
分子生物学 8
分子生物学家 8
分子结构 8
分离出来 8
分解成 8
切斯特 8
刚出生 8
创世 8
判 8
利率 8
制图 8
刷@@ 8
刺眼 8
刻苦 8
前脑 8
剪过 8
劝说 8
功用 8
功绩 8
加在一起 8
加州大学洛杉矶分校 8
加班 8
动量 8
努力@@ 8
劳伦 8
化成 8
区区 8
医疗卫生 8
十万人 8
十五分钟 8
千瓦 8
千美元 8
半球 8
华氏 8
华盛顿大学 8
卑@@ 8
卑鄙 8
单曲 8
单调 8
卖力 8
博弈论 8
占卜 8
占地 8
卡恩 8
卡拉@@ 8
卡斯特 8
卡通人物 8
卡鲁扎 8
印刷品 8
印欧语 8
卷尺 8
卸 8
卸@@ 8
卸下 8
厂房 8
厄运 8
历史悠久 8
压舱物 8
原位 8
参赛 8
双倍 8
双语 8
反光 8
反叛 8
发丝 8
发光体 8
发出声音 8
发到 8
发展@@ 8
发抖 8
发来 8
发芽 8
发言人 8
发问 8
取得联系 8
受人 8
受孕 8
受害人 8
受控 8
受精 8
变体 8
变坏 8
变得复杂 8
变态 8
变种 8
叛@@ 8
口吻 8
口哨声 8
口服 8
叮 8
可回收 8
可想而知 8
右倾 8
右腿 8
司法@@ 8
吃晚饭 8
各个领域 8
合一 8
合力 8
名誉 8
后备 8
向前走 8
吞没 8
听诊器 8
启动资金 8
启程 8
吵闹 8
吼 8
呈@@ 8
告诫 8
周边@@ 8
味@@ 8
呼吸系统 8
呼声 8
命中 8
咖啡机 8
哇@@ 8
哈士奇 8
哈姆雷特 8
哈特 8
哪位 8
唾液 8
喙 8
喝水 8
喷口 8
喷气式 8
嗓音 8
嘉吉 8
嘲弄 8
回忆录 8
回放 8
国务院 8
国家元首 8
圆满 8
圣坛 8
圣路易斯 8
在经济上 8
地区性 8
地心引力 8
地方性 8
地球@@ 8
地理学 8
均匀 8
坐姿 8
坚 8
坚持下去 8
坛 8
坦人 8
坦率地 8
垃圾邮件 8
垮掉 8
城区 8
培训中心 8
基尔 8
堆满 8
堪称 8
塑料制品 8
填 8
壮举 8
壮年 8
声带 8
处处 8
处置 8
复合材料 8
外人 8
多层 8
多过 8
大会堂 8
大使馆 8
大大增加 8
大大降低 8
大妈 8
大开眼界 8
大忙 8
大臣 8
大街小巷 8
天内 8
天大 8
天然@@ 8
天窗 8
太多@@ 8
太酷 8
太长 8
头头 8
夺去 8
女性主义 8
女神像 8
奴 8
妄想 8
妇 8
姨@@ 8
威斯康辛 8
娇@@ 8
嫌 8
子孙后代 8
子民 8
字格 8
存于 8
存亡 8
季@@ 8
学习外语 8
学识 8
守护者 8
守旧 8
安南 8
安稳 8
安逸 8
宗教@@ 8
定下 8
宝贝儿 8
实现目标 8
实用主义 8
实证 8
实际行动 8
宣传@@ 8
宣誓 8
室内空气 8
害死 8
家庭主妇 8
宾夕法尼亚州 8
寓意 8
寓言 8
寡@@ 8
寸 8
寸@@ 8
对性 8
尊@@ 8
小偷 8
小而 8
小虫 8
少数派 8
少有 8
尘埃 8
尸 8
尼日 8
尾气 8
局长 8
屁 8
屁@@ 8
屡@@ 8
山区 8
山寨 8
岩@@ 8
崩塌 8
工作日 8
左翼 8
左腿 8
巨大成功 8
巨无霸 8
巨轮 8
巩固 8
巫 8
差异性 8
差错 8
已婚 8
巴哈马 8
市面上 8
布伦特 8
布兰@@ 8
布莱克 8
布里@@ 8
布鲁@@ 8
布鲁克 8
希腊@@ 8
帕尔@@ 8
带去 8
带头人 8
帮人 8
幢 8
平常人 8
平日 8
平衡@@ 8
年会 8
年青 8
年龄层 8
幸@@ 8
幻 8
序 8
应不应该 8
应是 8
废除 8
庭@@ 8
庭院 8
康德 8
延 8
延续下去 8
建筑工地 8
开火 8
开篇 8
异乎寻常 8
异国 8
弄乱 8
弓@@ 8
引来 8
弗里 8
弗雷德 8
弱力 8
强制性 8
强悍 8
强烈建议 8
强生 8
强韧 8
归根到底 8
归结为 8
当上 8
当人 8
当务之急 8
当量 8
彭@@ 8
彻@@ 8
往前走 8
征程 8
很会 8
微创 8
微薄 8
微观世界 8
德堡 8
德米特里 8
德雷克 8
心境 8
心头 8
心得 8
心目 8
心算 8
必不可少 8
忧心忡忡 8
怀旧 8
思考问题 8
性伴侣 8
怨恨 8
怪怪的 8
总计 8
恳请 8
恶意 8
悬念 8
悲 8
悲@@ 8
惠 8
惠特尼 8
惨 8
惨重 8
想谈 8
意料之外 8
愚昧 8
感到高兴 8
感染者 8
愤世嫉俗 8
憧憬 8
懂@@ 8
懒 8
成问题 8
我作 8
我应 8
我心 8
我查 8
我生 8
我过 8
战地 8
战术 8
截 8
截图 8
所剩无几 8
所及 8
所述 8
手推车 8
手提 8
手握 8
手机@@ 8
手柄 8
手稿 8
打广告 8
打火机 8
扔下 8
扫 8
扭@@ 8
扰乱 8
扼@@ 8
抄袭 8
把@@ 8
投票@@ 8
抗癌 8
抚摸 8
抵触 8
拉玛 8
拉萨 8
拐@@ 8
拐卖 8
拒@@ 8
招来 8
招牌 8
指南针 8
指头 8
指认 8
挚爱 8
挣得 8
挣脱 8
挥 8
捡起 8
据估计 8
掉@@ 8
掉下去 8
排版 8
探索者 8
探索频道 8
接上 8
控制系统 8
推到 8
推动者 8
揍 8
援 8
援救 8
搭乘 8
搭桥 8
搭载 8
摄像师 8
摇头 8
摊开 8
撒丁岛 8
撒切尔 8
操 8
收容 8
收容所 8
收成 8
改了 8
改革者 8
攻击性 8
敌对 8
敏感度 8
教养 8
教程 8
数十@@ 8
数据流 8
整晚 8
整条 8
斤 8
断言 8
斯塔@@ 8
斯曼 8
斯洛@@ 8
新泽西州 8
新车 8
新闻@@ 8
施行 8
旅游业 8
无所不知 8
无数个 8
无极 8
无缘无故 8
无论怎样 8
既定 8
日出 8
日夜 8
日常用品 8
日报 8
日照 8
早上好 8
旱@@ 8
旱季 8
旱灾 8
时代周刊 8
时时 8
时间跨度 8
旷@@ 8
昆@@ 8
星期二 8
晃 8
晚年 8
普查 8
景致 8
暂@@ 8
暂且 8
暑假 8
暖 8
暖气 8
暗示着 8
暴力行为 8
暴行 8
曙光 8
曲柄 8
更久 8
更会 8
更正 8
更远 8
最出色 8
最高@@ 8
最高峰 8
有事 8
有件 8
有罪 8
朝鲜 8
本国 8
本次 8
朱 8
杜邦 8
来个 8
来来回回 8
来电 8
杨 8
杨@@ 8
杯@@ 8
杰米 8
松开 8
极少数 8
极致 8
构@@ 8
构件 8
果汁 8
枪击 8
枯萎 8
染成 8
柔和 8
查克 8
标牌 8
样板 8
样貌 8
核废料 8
根本原因 8
根深蒂固 8
根端 8
根部 8
格拉姆 8
格莱@@ 8
栽 8
桃 8
框@@ 8
档案馆 8
梅尔沃德 8
梅洛 8
梗 8
梦境 8
梦魇 8
梳理 8
梵@@ 8
检测器 8
棒@@ 8
棕榈油 8
棱 8
植入物 8
橄榄@@ 8
橡皮筋 8
欣喜 8
欧几里得 8
欧拉 8
款项 8
正想 8
正确性 8
正轨 8
此人 8
武断 8
死亡数 8
死囚 8
死因 8
死地 8
残 8
残害 8
残杀 8
母体 8
母婴 8
母子 8
母猪 8
每一 8
比利时 8
比哈尔邦 8
比较复杂 8
毫@@ 8
毫克 8
氮@@ 8
水分子 8
水瓶 8
水道 8
汗水 8
汽车行业 8
沃克 8
沃土 8
沉淀 8
沉溺于 8
沉迷 8
沒 8
沙特 8
没完 8
没有@@ 8
沦为 8
治疗仪 8
治病 8
法老 8
洋溢 8
洗掉 8
洗脑 8
洗衣服 8
洞@@ 8
洞口 8
流利 8
流泪 8
流畅 8
流行音乐 8
浆 8
浓厚 8
浩大 8
浪 8
浮冰 8
浴@@ 8
海伦 8
海尔 8
海岸边 8
海床 8
海湾地区 8
海特 8
涂成 8
涂料 8
消费主义 8
消防栓 8
消防车 8
消音 8
涩 8
深入人心 8
深圳 8
深感 8
混合体 8
混沌 8
添@@ 8
添加剂 8
渣 8
温馨 8
港湾 8
游乐场 8
游牧 8
湿度 8
溜 8
溪@@ 8
溶液 8
滕 8
漂 8
漫 8
灌木丛 8
灵巧 8
灵敏 8
灾@@ 8
炎热 8
烟草 8
热忱 8
热空气 8
烹调 8
焦油 8
照射到 8
照耀 8
熏@@ 8
爱护 8
爱是 8
父母亲 8
父辈 8
爷 8
版块 8
牙科 8
特别之处 8
特拉维夫 8
特曼 8
特鲁@@ 8
犬@@ 8
犯罪现场 8
犯错误 8
狂人 8
独木舟 8
狭义 8
狱中 8
狱友 8
猎鹰 8
猜猜看 8
献@@ 8
献身 8
玛丽亚 8
环境因素 8
环形山 8
环视 8
现行 8
玻尔兹曼 8
珀@@ 8
球形 8
理工 8
理工大学 8
理工学院 8
理论@@ 8
瑕疵 8
瑞特 8
瓜@@ 8
生产方式 8
生殖器 8
生物钟 8
用地 8
用电 8
用纸 8
用语 8
甩 8
田纳西 8
申请专利 8
电子元件 8
电子计算机 8
电波 8
电脑屏幕 8
电话线 8
电钻 8
电阻 8
画上 8
画成 8
留住 8
留心 8
番茄 8
疑@@ 8
疗养院 8
疗效 8
疤痕 8
疲劳 8
疼@@ 8
病因 8
病痛 8
症@@ 8
痒痒 8
痛心 8
登记 8
百万富翁 8
百分之三 8
百分之二十五 8
百忧解 8
百思买 8
皮特 8
盒@@ 8
盖洛普 8
盗取 8
盗窃 8
盘旋 8
相交 8
相提并论 8
相见 8
相较 8
盼@@ 8
省下 8
看书 8
看台 8
看护 8
真不知道 8
真能 8
眼花缭乱 8
着眼 8
睁 8
睁开 8
睡不着 8
瞩目 8
知之甚少 8
短语 8
石灰岩 8
砂@@ 8
破坏力 8
破除 8
砸@@ 8
硕大 8
硫磺 8
碱@@ 8
碱基对 8
碳化物 8
磁片 8
社交活动 8
社会变革 8
祝贺 8
神经@@ 8
神经外科 8
祭司 8
秃@@ 8
种树 8
科学院 8
科罗拉多州 8
秘书 8
秘方 8
积聚 8
移到 8
稀缺 8
程序@@ 8
程序化 8
稳定下来 8
窥@@ 8
竞@@ 8
竣工 8
竭尽所能 8
竹@@ 8
笑容 8
第一块 8
第一家 8
第一手 8
第一架 8
第一部 8
第一首 8
第三天 8
第三幕 8
第三步 8
第二次世界大战 8
第五个 8
等会儿 8
等候 8
筏子 8
筑 8
筑起 8
答对 8
策@@ 8
筹@@ 8
筹资 8
筹钱 8
算算 8
管它 8
篮 8
篮@@ 8
篷 8
米特 8
粘贴 8
精神病学 8
索引 8
索菲亚 8
紧迫 8
繁忙 8
纠纷 8
红光 8
红毛 8
约翰@@ 8
纪念@@ 8
纳闷 8
纸牌 8
练@@ 8
终究 8
经纪人 8
经验教训 8
绞@@ 8
统统 8
统计数字 8
绳@@ 8
维空间 8
缓急 8
缪@@ 8
网址 8
罗森 8
署名 8
美国空军 8
羽 8
翻阅 8
耍 8
耐 8
耐力 8
耗能 8
职务 8
肩上 8
肯塔基州 8
肯尼斯 8
育@@ 8
育儿 8
肿@@ 8
肿块 8
胎@@ 8
胎盘 8
胡 8
胡克 8
能源@@ 8
能耗 8
能造 8
能量消耗 8
脂肪酸 8
脉 8
脑内 8
脸颊 8
腔@@ 8
膝@@ 8
膳食 8
臂@@ 8
自主性 8
自以为是 8
自古以来 8
自我实现 8
自控 8
自杀@@ 8
自由发挥 8
至极 8
致力 8
致病 8
航天局 8
航拍 8
舵 8
船舵 8
船身 8
良性 8
艾达 8
芙 8
芭蕾舞 8
花园里 8
苏斯 8
苏格兰人 8
苗条 8
苹果派 8
荣@@ 8
荣格 8
药方 8
荷马 8
莫大 8
莫桑比克 8
获知 8
菌丝体 8
菩萨 8
萦绕在 8
萨克拉门托 8
萨里 8
落地 8
葡萄干 8
蒙古 8
蓝区 8
藤 8
虎 8
虐囚 8
虚无 8
虫@@ 8
虽@@ 8
蛇@@ 8
蜂后 8
蜂窝 8
蜂类 8
蜜 8
血糖 8
行径 8
行政@@ 8
街边 8
补品 8
补救 8
表弟 8
表象 8
袍 8
被告 8
裁 8
裁判 8
装作 8
装到 8
裹@@ 8
褪色 8
西尔 8
要命 8
覆盖率 8
见鬼 8
观景台 8
观测@@ 8
规划@@ 8
觉察 8
觉察到 8
触手可及 8
詹妮弗 8
誓@@ 8
警报 8
计算@@ 8
认真思考 8
让你在 8
训练有素 8
记起 8
许多种 8
论断 8
设在 8
设计@@ 8
证件 8
评 8
评论员 8
词典 8
试过 8
试镜 8
试验者 8
诡计 8
语言学家 8
语言文字 8
说错 8
请教 8
诺依曼 8
课上 8
调料 8
调配 8
谈判桌 8
谈判桌上 8
谜题 8
谢尔曼 8
谢谢您 8
谦逊 8
谬论 8
谱@@ 8
谱写 8
豆子 8
象牙 8
贝尔@@ 8
贫民 8
购买力 8
贷 8
费解 8
赐予 8
赛跑 8
赤字 8
赫尔@@ 8
赶出 8
赶走 8
起先 8
超凡 8
超重 8
越加 8
越南战争 8
足足 8
趾 8
跃@@ 8
跑步机 8
距今 8
踏 8
踢足球 8
躁 8
身子 8
身形 8
身影 8
身心 8
身着 8
车臣 8
车间 8
轮流 8
软盘 8
轴@@ 8
较少 8
辞 8
辣@@ 8
过日子 8
运输系统 8
近亲 8
近代 8
返@@ 8
还行 8
这两点 8
这两项 8
这么回事 8
这仅 8
这代人 8
这会儿 8
这名 8
这款 8
进军 8
进进出出 8
连成 8
迥异 8
迫@@ 8
迷上 8
迷路 8
迸发 8
追捕 8
送出去 8
送回 8
适中 8
适于 8
适量 8
逃过 8
逗 8
通感 8
通用@@ 8
通用汽车 8
通讯@@ 8
造假 8
造林 8
道夫 8
遮住 8
那份 8
那本 8
那间 8
那首 8
邮寄 8
部份 8
配乐 8
酒鬼 8
里程碑 8
里边 8
重任 8
重新排列 8
重新认识 8
金牌 8
金额 8
钉@@ 8
钦佩 8
钻油 8
铁杉 8
铺设 8
销@@ 8
销售员 8
错失 8
锤 8
镑 8
长吻 8
长方形 8
长袍 8
门厅 8
问候 8
问责制 8
闲逛 8
队@@ 8
防御@@ 8
防盗 8
防空洞 8
阻@@ 8
阿巴 8
陆上 8
陈词滥调 8
陡峭 8
陶醉 8
陷入困境 8
隐含 8
隔壁 8
隼 8
雀 8
雅虎 8
集聚 8
集装箱 8
集资 8
雕刻家 8
雪茄 8
零售 8
零零 8
霍布斯 8
霍普金斯 8
露天 8
霸王龙 8
非常@@ 8
非洲地区 8
非裔 8
面包店 8
面条 8
革命@@ 8
鞋带 8
音节 8
顶障 8
顺带 8
颂扬 8
颇为 8
颈 8
颈部 8
飙升 8
飞利浦 8
飞速发展 8
食肉动物 8
餐巾纸 8
饮 8
饶 8
首选 8
马克思 8
马尔萨斯 8
马铃薯 8
驾驶座 8
骑着 8
骗人 8
骨子里 8
高中毕业 8
高分辨率 8
高危 8
高得 8
高智商 8
高超 8
鬼魂 8
魔幻 8
鱼肝油 8
鲁克 8
鲁莽 8
鲍威尔 8
鸣@@ 8
鹅@@ 8
鹦鹉 8
鹿特丹 8
麦子 8
鼓掌声 8
鼻祖 8
0.1 7
1400 7
1912 7
1932 7
1952 7
1956 7
1964 7
1972 7
2025 7
240 7
24000 7
2700 7
3500 7
365 7
39@@ 7
550 7
650 7
7.5 7
78@@ 7
79 7
8.@@ 7
9.11 7
9000 7
99@@ 7
AC@@ 7
AIDS 7
AR 7
AR@@ 7
ARES 7
Adams 7
Allan 7
Anil 7
Ban@@ 7
Ben@@ 7
Bezos 7
Blo@@ 7
Bor@@ 7
Bra@@ 7
Brand 7
Cap@@ 7
Cop@@ 7
Cur@@ 7
DARwIn 7
DE@@ 7
DM 7
DMCA 7
Deborah 7
Dor@@ 7
ECX 7
ES 7
ESSEX 7
Ecosia 7
Ed@@ 7
Ex@@ 7
Fellow 7
For@@ 7
Fri@@ 7
Gar@@ 7
Gen@@ 7
Gene 7
Gordon 7
HAL 7
Hall 7
Hun@@ 7
IN@@ 7
JO 7
JPL 7
Jane 7
Jarrett 7
Jay@@ 7
Jones 7
Kir@@ 7
Kri@@ 7
LC 7
LOLcats 7
Layma 7
Leahy 7
Man@@ 7
Mark@@ 7
Mi@@ 7
Mitchell 7
MoMA 7
Mul@@ 7
Mullis 7
Nan@@ 7
Netra 7
No@@ 7
OLPC 7
OO@@ 7
Ok@@ 7
Okapi 7
PS@@ 7
PSA 7
Pal@@ 7
Pat 7
Pete 7
RA@@ 7
RO@@ 7
ROD 7
Rezero 7
Rita 7
Robinson 7
Rockwell 7
Rosling 7
SM 7
SO@@ 7
San 7
Sebastian 7
Sher@@ 7
Shermer 7
Shimon 7
Sinclair 7
Sou@@ 7
Ta@@ 7
Ter@@ 7
T恤衫 7
USB 7
Ur@@ 7
Verizon 7
Warren 7
Wi@@ 7
Wil@@ 7
You 7
ach 7
ai 7
amb@@ 7
ance 7
anda 7
aph@@ 7
ast 7
bi 7
dis 7
du@@ 7
ela 7
elle 7
enberg 7
ess 7
ett 7
ff 7
field 7
hai 7
head 7
hen@@ 7
ho@@ 7
iP@@ 7
ica 7
ik 7
ind@@ 7
ins 7
isa 7
ish 7
iss@@ 7
ite 7
ith 7
itt@@ 7
iz 7
king 7
kins 7
ll 7
ment 7
my 7
ock 7
ole 7
olo 7
ona 7
onia 7
onn@@ 7
ony 7
oom 7
ope 7
ose 7
ota 7
oto 7
per 7
rain 7
ric@@ 7
sh 7
si 7
sk@@ 7
ston 7
twitter 7
ty 7
ull@@ 7
un 7
uss@@ 7
ver 7
ville 7
£ 7
一个零 7
一举一动 7
一二 7
一切正常 7
一切都在 7
一升 7
一发 7
一地 7
一大笔 7
一并 7
一张白纸 7
一心 7
一想 7
一成不变 7
一晚 7
一次次 7
一步@@ 7
一派胡言 7
一环 7
一盏 7
一空 7
一英寸 7
一试 7
一辈 7
一连 7
一闪 7
一顿饭 7
万台 7
万桶 7
三名 7
三层 7
三月 7
三百五十 7
三组 7
三藩市 7
上个星期 7
上前 7
上头 7
上学时 7
上山 7
上岸 7
上浮 7
上要 7
上门 7
下个星期 7
下身 7
下部 7
不下 7
不佳 7
不切实际 7
不同凡响 7
不堪设想 7
不容 7
不常 7
不开 7
不明智 7
不止一次 7
不爱 7
不相@@ 7
不着@@ 7
不符 7
不肯 7
不育 7
不论如何 7
不问 7
与日俱增 7
与此相关 7
丑化 7
业余爱好 7
两万@@ 7
两座 7
两性 7
两用 7
两百五十 7
两米 7
两足 7
个别 7
个子 7
个州 7
中亚 7
中央公园 7
中枢 7
中空 7
中线 7
中起 7
中途 7
串联 7
临床实验 7
临死 7
临终前 7
为本 7
主动@@ 7
主干道 7
乃 7
义词 7
之光 7
之夜 7
之计 7
乐土 7
习得@@ 7
习性 7
乡镇 7
书面 7
买个 7
乱糟糟 7
乳液 7
予@@ 7
予以 7
事时 7
二三十年 7
二十五万 7
二年级 7
二手 7
二百@@ 7
亏损 7
五亿 7
亚当斯 7
交朋友 7
交通事故 7
交通堵塞 7
产品@@ 7
产地 7
享@@ 7
享乐 7
亲友 7
亲眼看见 7
人则 7
人口密度 7
人口普查 7
人头 7
人正 7
人比 7
人民@@ 7
人物@@ 7
人身 7
人里 7
亿到 7
亿多 7
亿桶 7
仁 7
仁爱之心 7
仅存 7
今夜 7
今年年底 7
仍@@ 7
从左到右 7
他花 7
付不起 7
令@@ 7
令人不安 7
以求 7
以至 7
以致 7
以防万一 7
仰慕 7
件物品 7
价格@@ 7
任天堂 7
伊始 7
伊迪 7
伍德 7
伐 7
优 7
优于 7
优先权 7
会先 7
会飞 7
传染给 7
传真 7
传道 7
伯克 7
伯特兰 7
伯纳斯 7
估量 7
伽马 7
低头 7
低谷 7
住处 7
体中 7
体能 7
何去何从 7
何故 7
何时何地 7
作个 7
你会@@ 7
你够 7
你试 7
使命感 7
使用率 7
依托 7
依次 7
侦查 7
促销 7
俄亥俄州 7
保养 7
保护性 7
保护措施 7
保拉 7
信中 7
信天翁 7
信托 7
倍感 7
倒闭 7
倡导者 7
偏偏 7
做会 7
停放 7
停电 7
健@@ 7
健忘症 7
傀儡 7
傍晚 7
储水 7
储量 7
催化 7
僧@@ 7
僵局 7
兄 7
先例 7
先来 7
光临 7
光在 7
光来 7
光谱学 7
克利 7
克尔白 7
克罗地亚 7
克莱恩 7
克里克 7
克里斯蒂 7
兜售 7
入侵者 7
全力以赴 7
全景 7
全班 7
全食 7
八倍 7
八分 7
八卦 7
八成 7
八点 7
公共关系 7
公共利益 7
公共汽车 7
公关 7
公务员 7
公有 7
公民权 7
六十@@ 7
关切 7
关押 7
关注点 7
关系@@ 7
关系网 7
关键点 7
兴致 7
养料 7
兽@@ 7
内含 7
内外 7
冈@@ 7
再举 7
再次发生 7
再长 7
冗长 7
冥王星 7
冰河 7
冲击力 7
冲撞 7
况@@ 7
减压 7
凝胶 7
几何图形 7
几岁 7
几百万年 7
几百美元 7
出世 7
出卖 7
出奇 7
出版物 7
出血 7
击打 7
凿@@ 7
刀刃 7
分崩离析 7
分明 7
切掉 7
切除术 7
切面 7
刊@@ 7
列为 7
创办人 7
创新能力 7
创造@@ 7
判定 7
利斯 7
券 7
刻度 7
刻画 7
前有 7
剖析 7
剧目 7
力图 7
劝 7
办公大楼 7
办公楼 7
功率 7
功能@@ 7
加州理工学院 7
动力@@ 7
动手做 7
动物界 7
助人 7
助推 7
助长 7
劫持 7
勃勃 7
勒曼 7
募@@ 7
包罗万象 7
匹 7
十二年 7
十位 7
十分@@ 7
十秒钟 7
千亿 7
千千万万 7
千篇一律 7
午餐时间 7
半天 7
半张 7
协奏曲 7
单靠 7
卖得 7
卖淫 7
南面 7
卡拉扬 7
卡特里娜 7
卡罗 7
卡车司机 7
卢 7
卢克 7
卢布 7
卫士 7
印刷术 7
印着 7
危地马拉 7
卵@@ 7
卷土重来 7
厚重 7
原汁原味 7
厨@@ 7
参考@@ 7
又@@ 7
及早 7
双相 7
反义词 7
反恐 7
反面@@ 7
发展史 7
发布会 7
发烧 7
发电@@ 7
发行量 7
取决 7
取名为 7
取回 7
取样 7
取款机 7
受挫 7
受益匪浅 7
受限 7
受限于 7
变慢 7
叙@@ 7
口感 7
古人 7
句@@ 7
另一家 7
可信赖 7
可变性 7
可夫 7
可达 7
台词 7
司令 7
叹 7
各有不同 7
合体 7
合在一起 7
合奏 7
合法化 7
合法性 7
合理化 7
吉尔伯特 7
吉祥 7
吊 7
同一性 7
同心协力 7
同源 7
名将 7
名气 7
后遗症 7
吓倒 7
君王 7
吞 7
吩咐 7
听信 7
听取 7
启用 7
吵@@ 7
吸气 7
告终 7
员@@ 7
周刊 7
周游 7
味蕾 7
呻吟 7
呼出 7
和蔼 7
咖啡@@ 7
咨询@@ 7
哈利波 7
哈德逊 7
哈桑 7
哥们 7
哨 7
哪张 7
哭喊 7
哲@@ 7
唉 7
唐@@ 7
售 7
售@@ 7
啤酒@@ 7
善举 7
善用 7
喊@@ 7
喷 7
喷剂 7
嗡@@ 7
嗷 7
嘶@@ 7
嘻哈 7
囚禁 7
四散 7
困难重重 7
围住 7
固执 7
国人 7
国民收入 7
图形@@ 7
图片@@ 7
圆环 7
土层 7
土耳其人 7
圣战 7
圣诞树 7
在建 7
在校 7
在此之后 7
在精神上 7
地名 7
地壳 7
地有 7
地段 7
地球村 7
地道 7
坎 7
坏话 7
坐标轴 7
块儿 7
块冰 7
块状 7
坚@@ 7
坚韧不拔 7
坠@@ 7
垃圾箱 7
型号 7
型态 7
埃尔@@ 7
城墙 7
城外 7
城邦 7
基恩 7
堤坝 7
堪萨斯州 7
堵住 7
塔利 7
塔斯马尼亚岛 7
塞满 7
塞萨尔 7
填饱 7
墙中洞 7
墙板 7
增殖 7
增肥 7
增量 7
墨 7
壮 7
处理厂 7
复仇 7
复印 7
复杂化 7
复杂程度 7
夏菲 7
夕@@ 7
外皮 7
多姿多彩 7
多斯 7
多米尼加 7
多花 7
多项 7
大为 7
大军 7
大力@@ 7
大动脉 7
大块头 7
大堆 7
大夫 7
大头针 7
大宝 7
大方 7
大有 7
大本营 7
大树 7
大理石 7
大都市 7
天呀 7
天文@@ 7
天衣无缝 7
天际 7
失业率 7
头皮 7
夹克 7
夺 7
奇想 7
奖品 7
奖杯 7
奥兹 7
奥托 7
奥斯汀 7
女童 7
奶瓶 7
好坏 7
好点 7
如图所示 7
如是 7
妇@@ 7
姐 7
姑且 7
娱乐性 7
婆 7
嬉皮士 7
孕期 7
字面上 7
学员 7
学年 7
学来 7
学生会 7
学界 7
它花 7
它闻 7
宅@@ 7
宇宙观 7
安全气囊 7
安宁 7
安德 7
安息日 7
安萨里 7
完全@@ 7
完全一致 7
完备 7
完整性 7
宗教仪式 7
官僚@@ 7
定式 7
宜 7
实验者 7
家禽 7
家门口 7
宽泛 7
宾@@ 7
宾语 7
寂 7
寄托 7
密封 7
密歇根州 7
密西西比 7
富兰克林 7
富勒 7
寝@@ 7
寥@@ 7
对视 7
寻思 7
导航系统 7
射出 7
小企业 7
小型化 7
小方块 7
小木屋 7
小汽车 7
尔森 7
尝@@ 7
就学 7
尼亚@@ 7
尼加拉瓜 7
尼西亚 7
尽早 7
局@@ 7
局外人 7
屁屁 7
届时 7
屎 7
屠宰 7
岛国 7
峰@@ 7
巢@@ 7
工程设计 7
工蚁 7
左倾 7
左眼 7
左脚 7
巧是 7
巨大变化 7
已久 7
巴托克 7
巴斯@@ 7
巷@@ 7
市内 7
市政 7
布利 7
布拉@@ 7
布拉格 7
布赖恩 7
帅 7
帕克 7
帕米拉 7
帕金森症 7
帖 7
帝国主义 7
平均数 7
平行线 7
并不大 7
并行 7
并试 7
幸福快乐 7
幸运@@ 7
广为人知 7
广告人 7
广泛传播 7
广泛性 7
广袤 7
应为 7
应邀 7
底端 7
府 7
延展 7
建在 7
开发@@ 7
开外 7
开幕式 7
开放@@ 7
异性恋 7
异见 7
式化 7
弗尔 7
弦@@ 7
弱小 7
弱者 7
弹出 7
弹琴 7
归属 7
当说 7
形形色色 7
形象化 7
往复 7
征集 7
径直 7
很受 7
很广 7
很烂 7
很穷 7
很重 7
得体 7
得克萨斯州 7
得失 7
御@@ 7
微乎其微 7
微分方程 7
微生物学 7
微量 7
心律 7
心房 7
心肌@@ 7
心脏@@ 7
忍 7
忍耐 7
忠告 7
忧@@ 7
快克 7
快进 7
快餐店 7
怀抱 7
怎 7
急于 7
性冲动 7
性化 7
性格@@ 7
怨@@ 7
总指挥 7
总署 7
总要 7
恋人 7
恐惧感 7
恕道 7
恢复健康 7
息@@ 7
恶性循环 7
恶性肿瘤 7
恶搞 7
恶臭 7
悍 7
患病率 7
惊 7
惊慌 7
惠普 7
惭愧 7
惯常 7
想见 7
想通 7
惹麻烦 7
意大利语 7
愤@@ 7
愤恨 7
愤慨 7
慈@@ 7
慈善家 7
慢慢来 7
慢跑 7
懊悔 7
成功@@ 7
成正比 7
成真 7
成虫 7
我于 7
我俩 7
我得 7
战俘 7
战斗机 7
戴夫 7
戴森 7
户@@ 7
房门 7
所在@@ 7
扇门 7
手头上 7
手工艺 7
手心 7
手持 7
手绘 7
打中 7
打入 7
打招呼 7
打结 7
打通 7
扔出去 7
执行@@ 7
扩展性 7
扳机 7
扶 7
扶手 7
扶持 7
把握住 7
把门 7
抒发 7
抓到 7
投下 7
投机 7
投票者 7
投资@@ 7
投降 7
抚慰 7
抢先 7
报警 7
抵 7
抹@@ 7
抹掉 7
抽出来 7
拆解 7
拍出 7
拍拍 7
拥护 7
拧 7
拧@@ 7
拭目以待 7
拳@@ 7
拼凑 7
拼图 7
持续增长 7
指导@@ 7
指示牌 7
按部就班 7
挑衅 7
挡风玻璃 7
挪到 7
捏@@ 7
捐赠人 7
捕鱼业 7
损 7
换掉 7
换种 7
掀开 7
掏空 7
排行 7
探求 7
探索之旅 7
接电话 7
控制室 7
控制组 7
推动力 7
推断出 7
推车 7
措 7
措手不及 7
描绘出来 7
提供者 7
提早 7
援手 7
搁置 7
搜 7
搞不懂 7
搞怪 7
搬回 7
搬走 7
摧残 7
摩擦力 7
摩斯 7
摸不着头脑 7
撕碎 7
撞车 7
撤出 7
撤离 7
撤退 7
擅@@ 7
操场 7
支持性 7
收尾 7
攻@@ 7
放个 7
放电 7
放疗 7
放过 7
政变 7
政治体制 7
救世主 7
教育界 7
教育领域 7
教过 7
敢肯定 7
数千个 7
数周 7
数学公式 7
数学课 7
数据量 7
数百 7
整座 7
整本 7
整栋 7
斜率 7
断定 7
断断续续 7
斯卡 7
斯基 7
斯特里 7
斯通 7
新纪元 7
新词 7
方向@@ 7
施暴 7
旅游@@ 7
无人@@ 7
无从 7
无偿 7
无政府 7
无时无刻 7
无条件 7
既@@ 7
日光浴 7
日式 7
日本政府 7
日渐 7
日落 7
早先 7
时性 7
时而 7
时装@@ 7
时间@@ 7
明尼苏达 7
明日 7
明胶 7
易用 7
星期六 7
晃@@ 7
晒@@ 7
晚礼服 7
普林斯顿大学 7
普通@@ 7
景点 7
晶片 7
晾衣架 7
暗藏 7
曲@@ 7
曲率 7
有数 7
有机@@ 7
有毒气体 7
朋 7
服务业 7
服务员 7
服务提供商 7
朗诵 7
朗读 7
期盼 7
木制 7
木工 7
木质 7
本事 7
本真 7
术后 7
朴 7
机动性 7
权威@@ 7
杉 7
束手无策 7
杠 7
条码 7
来得及 7
杰奎琳 7
杰西卡 7
杰里 7
松岭 7
松散 7
林德伯格 7
林斯 7
架设 7
某样 7
查兹 7
查德 7
柯密特 7
柴油 7
核对 7
核糖核酸 7
根系 7
格兰德 7
格里@@ 7
桃@@ 7
桡 7
梅斯 7
梭@@ 7
梯@@ 7
梵高 7
检 7
检核 7
检索 7
棚@@ 7
棚子 7
植根于 7
植物园 7
概述 7
榜 7
橄榄 7
橡@@ 7
次要 7
歌名 7
歌颂 7
正中间 7
正为 7
正像 7
正方 7
正是如此 7
正门 7
此图 7
步兵 7
武装@@ 7
武装力量 7
殖民者 7
每公斤 7
每场 7
每平方米 7
每样 7
每根 7
每每 7
毕业@@ 7
毕加索 7
毗@@ 7
毗荼 7
毙 7
民主主义 7
民权 7
气孔 7
氦气 7
水会 7
水力发电 7
水媒 7
水库 7
永续 7
求知欲 7
汽油@@ 7
沃尔特 7
沉淀物 7
没事儿 7
没到 7
没多久 7
河床 7
河水 7
河豚 7
油炸 7
油门 7
泉 7
法令 7
法王 7
波洛克 7
波顿 7
泼@@ 7
洁 7
洗手 7
洞悉 7
活体 7
活塞 7
流亡 7
流浪汉 7
流线型 7
浇@@ 7
浇水 7
浇铸 7
测试者 7
浑浊 7
浓烟 7
浓郁 7
浦@@ 7
浪漫主义 7
海狮 7
海鸥 7
浸透 7
涂上 7
涅 7
消息来源 7
混蛋 7
清教徒 7
清新 7
清晰可见 7
清空 7
渔@@ 7
渥太华 7
温哥华 7
温顺 7
游戏规则 7
游牧民族 7
湖边 7
源码 7
滑雪者 7
滚轮 7
满怀 7
满怀希望 7
漂移 7
演算法 7
潜伏 7
澳大利亚人 7
激光@@ 7
火爆 7
灭蚊 7
灰暗 7
炭@@ 7
炸毁 7
点上 7
点火 7
炽热 7
烈 7
烈@@ 7
烘烤 7
烧毁 7
烧焦 7
热心 7
热泉 7
热闹 7
烯 7
照样 7
煽@@ 7
熔岩 7
燃 7
爱丽丝 7
爱尔兰人 7
爱沙尼亚 7
爱滋病 7
牢骚 7
物质@@ 7
牵扯 7
牵涉 7
牵连 7
特斯 7
特殊教育 7
特雷门琴 7
犹如 7
狐狸 7
独有 7
独眼 7
独裁统治 7
独身 7
狱@@ 7
狼@@ 7
献上 7
玩玩 7
玩过 7
玫瑰 7
现代科技 7
现任 7
现已 7
玻璃片 7
珍宝 7
珍珠 7
珍珠@@ 7
球场上 7
球车 7
理清 7
琐事 7
琴@@ 7
琴键 7
瑞士人 7
瓣 7
瓦克 7
甘愿 7
生产量 7
生前 7
生成器 7
生死攸关 7
生灵 7
生菜 7
用钱 7
甲醛 7
申@@ 7
电池板 7
电视新闻 7
电视频道 7
电量 7
男士们 7
畅想 7
畅谈 7
留声机 7
畜牧业 7
畸形 7
疆@@ 7
疏忽 7
疲@@ 7
疾病@@ 7
病变 7
病史 7
病床 7
病态 7
病理学 7
病理学家 7
瘦@@ 7
瘫 7
白种人 7
百五十 7
百倍 7
百元 7
百姓 7
百岁 7
的士 7
的的确确 7
皆@@ 7
皇后区 7
皮埃尔 7
皮毛 7
皮耶罗 7
皮肤科 7
皮革 7
皮龟 7
益智 7
盖头 7
目击 7
直达 7
相乘 7
相对来说 7
相聚 7
相貌 7
省份 7
省油 7
眉头 7
看守 7
看得出来 7
眼看 7
眼睁睁 7
眼科医生 7
眼部 7
着急 7
睪 7
瞪 7
知不知道 7
石斑鱼 7
石油输出 7
石碑 7
砂岩 7
研@@ 7
硅@@ 7
硕士学位 7
确凿 7
确立 7
碳纤维 7
碾@@ 7
碾碎 7
磷脂 7
示例 7
示意图 7
祖 7
神秘@@ 7
票@@ 7
禁 7
福克斯 7
离岸 7
私密 7
秃鹰 7
种族问题 7
科斯 7
积分 7
积攒 7
积极性 7
称得上 7
移走 7
稀奇古怪 7
穆雷 7
窜 7
立交桥 7
竖 7
竟@@ 7
章@@ 7
童工 7
竭 7
竹制 7
笔下 7
笔画 7
第一名 7
第一幅 7
第三件 7
第三条 7
第九@@ 7
第二代 7
第二轮 7
第二部 7
第五@@ 7
第八 7
第四天 7
第四点 7
签字 7
简便 7
简单明了 7
简单易行 7
简历 7
算了吧 7
算得 7
管状 7
箱@@ 7
篝火 7
米老鼠 7
米长 7
类人猿 7
类固醇 7
粥 7
精确性 7
系列@@ 7
系统化 7
素食主义者 7
素食者 7
紧缺 7
紧迫感 7
约旦河西岸 7
纪@@ 7
纲领 7
纸币 7
纺@@ 7
纺织 7
纽带 7
细胞组织 7
织成 7
终极目标 7
绍@@ 7
经验丰富 7
结束语 7
绝迹 7
统计分析 7
统领 7
绩效 7
续 7
维利 7
维和部队 7
维娅 7
综合征 7
绿地 7
绿色@@ 7
缓@@ 7
缓冲@@ 7
缕 7
编码器 7
编造 7
缩减 7
缴纳 7
缺口 7
网吧 7
网络空间 7
罗布 7
罗德 7
罗纳德 7
罩@@ 7
置身 7
羊群 7
美国士兵 7
美术馆 7
美籍 7
翻译器 7
翻过 7
翼@@ 7
老公 7
老妈 7
老家 7
老手 7
老旧 7
老歌 7
考博林 7
者@@ 7
而会 7
而定 7
而战 7
耐用 7
耳闻 7
耶鲁 7
耶鲁大学 7
耸人听闻 7
联合国安理会 7
联觉 7
聘用 7
肆@@ 7
肌肤 7
肖@@ 7
肩并肩 7
肩部 7
肯尼 7
肾@@ 7
肾癌 7
胃口 7
胃里 7
背光 7
背负 7
胡扯 7
能省 7
脊梁 7
脑神经 7
脚趾头 7
脚跟 7
脱离@@ 7
脸庞 7
腐 7
腹侧 7
腹腔 7
腻 7
腾飞 7
膜@@ 7
膝 7
自助餐 7
自拔 7
自治 7
自满 7
自然光 7
自然力 7
自然通风 7
自由落体 7
自省 7
自转 7
致富 7
致癌 7
舍尔 7
舍弃 7
船运 7
色调 7
艾哈迈德 7
艾萨克 7
节选 7
花点 7
苍@@ 7
苏人 7
苏黎世 7
若想 7
苯@@ 7
英文@@ 7
英特网 7
茁壮成长 7
茂 7
茉莉 7
茧 7
荧屏 7
药店 7
莉娅 7
莫尔 7
莫过于 7
莱纳 7
莲 7
菌种 7
营利 7
萨尔 7
落下来 7
葆 7
蒂沃 7
蓄意 7
蓄水 7
蓬勃发展 7
蔓延到 7
薛定谔 7
薯片 7
虎鲸 7
虚弱 7
虚拟@@ 7
蚀 7
蚁@@ 7
蚱蜢 7
蛙@@ 7
蛤 7
蜂拥 7
蜕皮 7
蜘蛛网 7
蜜莉 7
蜿蜒 7
蝇 7
蝎子 7
蠕动 7
血淋淋 7
血清 7
血红素 7
行政区 7
衡量标准 7
表现形式 7
表示@@ 7
衫 7
衰减 7
袋鼠 7
袖@@ 7
袖子 7
袜 7
被子 7
被访者 7
裁剪 7
装潢 7
装运 7
裙 7
西南部 7
西奥多 7
西斯科 7
西班牙人 7
要少 7
要紧 7
观望 7
觉悟 7
解题 7
触摸屏 7
触碰 7
言归正传 7
誉 7
警卫队 7
计划局 7
认出来 7
讨@@ 7
讯号 7
记忆@@ 7
记着 7
讲授 7
讲演者 7
访客 7
诀窍 7
证词 7
评审 7
诈 7
诉 7
诙谐 7
诚恳 7
诚挚 7
诞辰 7
详@@ 7
语境 7
误 7
说成 7
请原谅 7
诺夫 7
诺贝尔@@ 7
诽谤 7
调查结果 7
调音 7
谈论着 7
谋 7
象形文字 7
负债 7
负荷 7
财政部 7
责任心 7
败 7
贪污 7
贫乏 7
贫困地区 7
购物@@ 7
贵族 7
贷@@ 7
赏 7
赏@@ 7
赚大钱 7
赫斯 7
走时 7
超链接 7
越久 7
越发 7
越多 7
越长 7
趋化因子 7
趴在 7
跑来跑去 7
跑过来 7
跟前 7
跨文化 7
跳到 7
跳来跳去 7
踩@@ 7
踪 7
蹄 7
身亡 7
身体状况 7
躯 7
车型 7
车身 7
转发 7
转头 7
转转 7
轮到 7
软件开发 7
轴心 7
轻便 7
轻声 7
辛普森 7
辞@@ 7
辨 7
辨认出 7
辱 7
辽阔 7
达克 7
达尔 7
迅猛 7
过上 7
过热 7
迎面 7
运动场 7
运动鞋 7
运往 7
近年来 7
这人 7
这则 7
这支 7
违规 7
连通 7
连锁店 7
迟早 7
迟钝 7
迫切需要 7
述说 7
追求幸福 7
适者生存 7
逃出 7
逆境 7
选取 7
选择@@ 7
递送 7
途 7
逗@@ 7
逢 7
逮@@ 7
逼@@ 7
道奇 7
道格拉斯 7
遗嘱 7
遗留 7
遗留下来 7
邓小平 7
那件 7
那双 7
那句 7
那家 7
那类 7
那组 7
邪恶轴心 7
郎 7
都柏林 7
酒神 7
酯 7
酸性 7
酿造 7
醒悟 7
采石场 7
采集器 7
里奥 7
重回 7
重度 7
重担 7
重病 7
重金属 7
野牛 7
金融业 7
针对性 7
钓鱼者 7
钟形 7
钟摆 7
钢材 7
钢笔 7
铀 7
铁杆 7
铁矿 7
铂 7
铃@@ 7
铉 7
铝制 7
铸造 7
销售量 7
锦@@ 7
长于 7
长矛 7
长老 7
长辈 7
长链 7
门上 7
闪光灯 7
闪现 7
闪闪发光 7
闭合 7
问得 7
问答 7
间歇泉 7
闷 7
阅览室 7
阔@@ 7
防卫 7
防暴 7
阳 7
阴茎 7
阴阳 7
阶@@ 7
阿布@@ 7
阿拉伯@@ 7
附肢 7
陈腐 7
陈规 7
降临到 7
限 7
陡 7
院@@ 7
陨坑 7
陪@@ 7
随机性 7
隐 7
隐居 7
隐身 7
难点 7
雕塑家 7
零花钱 7
霉 7
霍夫曼 7
青年人 7
静音 7
非人类 7
非盈利性 7
面包皮 7
面对现实 7
革@@ 7
韦 7
韦德 7
音乐创作 7
顺畅 7
顺道 7
须@@ 7
顾及 7
预报 7
预览 7
领头人 7
领队 7
频@@ 7
题为 7
风味 7
风洞 7
飞人 7
飞过去 7
飞逝 7
食人族 7
首例 7
首当其冲 7
香气 7
马丁路德 7
马哈 7
马州 7
马库斯 7
马来西亚 7
马蒂 7
马里兰州 7
驯养 7
驯化 7
驶@@ 7
驶向 7
驼 7
骇人 7
验尸 7
髓 7
高原 7
高尔夫球场 7
高过 7
魂@@ 7
鯨 7
鲁宾 7
鹰嘴豆 7
麦克@@ 7
麦克斯韦 7
麦哲伦 7
黄昏 7
黄鳍 7
黏土 7
黑暗时代 7
默德 7
默里 7
黛安 7
齿@@ 7
龙王 7
［ 7
----- 6
..... 6
1.8 6
105 6
108 6
115 6
12@@ 6
17000 6
175 6
1910 6
1933 6
1959 6
1963 6
200@@ 6
26@@ 6
3.8 6
30@@ 6
38@@ 6
4Shbab 6
4chan 6
58@@ 6
73 6
AG 6
AL@@ 6
AT 6
Altos 6
Amazon 6
Amory 6
Ang@@ 6
Aubrey 6
Austin 6
Autodesk 6
Aveling 6
BMI 6
Beau 6
Benkler 6
Berk@@ 6
Blackawton 6
Bon@@ 6
Boone 6
Bri@@ 6
Brown 6
Brunel 6
Burn@@ 6
CB@@ 6
CBS 6
Cameron 6
Camp@@ 6
Carlton 6
Carolyn 6
Cas@@ 6
Chi@@ 6
Cl@@ 6
Coach 6
Connections 6
DDT 6
Data 6
Dereck 6
Dev@@ 6
Dink 6
Dizzy 6
Do@@ 6
Don@@ 6
Donn@@ 6
Doug 6
Dra@@ 6
Dyson 6
ED 6
Ear@@ 6
Ellen 6
Eno 6
Enriquez 6
Eve 6
Fi 6
Frankie 6
G20 6
Gaga 6
Gan@@ 6
Geoffrey 6
Georg@@ 6
Gi@@ 6
Give 6
Go@@ 6
Gol@@ 6
Green 6
Gupta 6
HA 6
Hannah 6
Hansen 6
Hardy 6
Harris 6
Hayes 6
Henry 6
Hol@@ 6
Howard 6
Hyderabad 6
IQ 6
Internet 6
Interval 6
Jab@@ 6
Jas@@ 6
Jessica 6
Jordan 6
Julius 6
Jurvetson 6
Kal@@ 6
Kary 6
Katrina 6
King 6
Kurzweil 6
Le 6
Licklider 6
Lou@@ 6
Lovins 6
MTV 6
MacMaster 6
Mag@@ 6
Mal@@ 6
Mand@@ 6
Map 6
Marc 6
Mary 6
Matt 6
Mena 6
Mich@@ 6
Mid@@ 6
Mitra 6
Moog 6
Mos@@ 6
Mus@@ 6
My@@ 6
NA 6
NBA 6
NBC 6
NO@@ 6
Na@@ 6
OM@@ 6
OS 6
Oldenburg 6
On@@ 6
PE@@ 6
PMTCT 6
PS 6
Palm 6
Parikrma 6
Part@@ 6
Patrick 6
Pogue 6
PostSecret 6
Preity 6
Pur@@ 6
RE@@ 6
Rachel 6
Ratan 6
Riv@@ 6
Ru@@ 6
Rufus 6
ST 6
Sam 6
Sarah 6
Schocken 6
Shar@@ 6
Ste@@ 6
Sun@@ 6
Sutherland 6
Swaptree 6
TED2006 6
Tab@@ 6
Technorati 6
Tendai 6
The@@ 6
Tipper 6
Tod@@ 6
Treasure 6
Tube 6
Tyrone 6
Van 6
Vent@@ 6
Ver@@ 6
Vir@@ 6
Wiki 6
Winky 6
Wor@@ 6
World 6
XML 6
Yochai 6
Zappos 6
Zinta 6
Zullinger 6
able 6
af@@ 6
aman@@ 6
ass 6
atz 6
aul@@ 6
ayan 6
by 6
con@@ 6
dia 6
edia 6
erd@@ 6
erl@@ 6
esc@@ 6
ese 6
fission 6
fre@@ 6
gaga 6
guga 6
he 6
ht@@ 6
ibuprofen 6
ical 6
ically 6
ight 6
ika 6
ile 6
ill 6
illa 6
ille 6
int 6
ison 6
ita 6
itt 6
ius 6
kar 6
kar@@ 6
les 6
lor 6
me 6
me@@ 6
meen 6
moth@@ 6
mouse 6
ni 6
ol 6
oll 6
ood@@ 6
oor 6
op 6
org@@ 6
oth 6
oy@@ 6
ple 6
poo@@ 6
rey 6
rin 6
rop@@ 6
row 6
sa 6
sch 6
sey 6
sha 6
sky 6
str@@ 6
ton@@ 6
uck@@ 6
une 6
ush 6
well 6
wh@@ 6
xe 6
xic@@ 6
yb@@ 6
yc@@ 6
ye 6
ym@@ 6
ymb@@ 6
you 6
youtube 6
zo 6
ó 6
· 6
一万亿 6
一两 6
一两次 6
一个系列 6
一列 6
一刻起 6
一叠 6
一堂课 6
一帆风顺 6
一年@@ 6
一惊 6
一拳 6
一捆 6
一条街 6
一死 6
一百万美元 6
一百多 6
一磅 6
一票 6
一窥 6
一站 6
一见 6
七万 6
七年级 6
七月 6
七次 6
七百 6
万事@@ 6
万条 6
三万 6
三十个 6
三四个 6
三圈 6
三家 6
三文@@ 6
三步 6
三秒 6
三英里 6
三角@@ 6
上上下下 6
上作 6
上加 6
上校 6
上楼 6
上线 6
上读 6
上铺 6
上限 6
上风 6
下列 6
下半叶 6
下场 6
下调 6
不乏 6
不以为然 6
不全是 6
不凡 6
不利于 6
不单单是 6
不可收拾 6
不可逆转 6
不合逻辑 6
不堪@@ 6
不堪重负 6
不大@@ 6
不好@@ 6
不得@@ 6
不得而知 6
不快 6
不息 6
不然的话 6
不离 6
不算什么 6
不胜枚举 6
不良@@ 6
不要紧 6
不负责任 6
不赖 6
不足@@ 6
不顾一切 6
与世隔绝 6
专 6
专业@@ 6
专业人才 6
专业分工 6
专政 6
专案 6
丘吉尔 6
丙@@ 6
丛林中 6
东河 6
东边 6
丢下 6
两亿 6
两代 6
两千@@ 6
两句话 6
两处 6
两本书 6
两栖动物 6
两根 6
两片 6
两秒钟 6
两辆 6
两颗 6
丧@@ 6
个人身份 6
个儿 6
中介 6
中枢神经 6
中画 6
中要 6
丰富性 6
丹娜 6
为数不多 6
主修 6
主宰者 6
丽娜 6
丽莎 6
举些 6
义诊 6
之书 6
之事 6
之名 6
之爱 6
之物 6
之遥 6
乔恩 6
乘法 6
乞求 6
习@@ 6
习得 6
书房 6
书评 6
买下来 6
买回来 6
乳齿 6
争议性 6
事与愿违 6
事实@@ 6
二十位 6
二十四 6
二年 6
二战时期 6
二极 6
二次@@ 6
云集 6
互相学习 6
互相联系 6
五六个 6
五十岁 6
五大 6
亚马@@ 6
交出 6
交换@@ 6
交界处 6
交融 6
产下 6
亨廷顿 6
享 6
亵渎 6
人买 6
人体炸弹 6
人作 6
人员@@ 6
人命 6
人声 6
人气 6
人活 6
人见 6
人马 6
亿万 6
亿磅 6
仅凭 6
仇@@ 6
今生 6
从上到下 6
从此以后 6
仑 6
他读 6
付诸 6
仙女座 6
代名词 6
代步 6
代表团 6
令人担忧 6
以使 6
以此类推 6
价值体系 6
任由 6
仿制 6
仿照 6
企@@ 6
企业@@ 6
伊博语 6
伊尔 6
伊斯梅尔 6
伊曼纽尔 6
伊特 6
伙伴关系 6
伙儿 6
会出 6
会计师 6
会诊 6
伟哥 6
传宗接代 6
传真机 6
传统媒体 6
传言 6
传输数据 6
伦敦@@ 6
伯恩 6
伯顿 6
伴@@ 6
伴有 6
但用 6
低沉 6
低碳 6
低级 6
低脂 6
住手 6
住进 6
住院@@ 6
佐证 6
体上 6
体力劳动 6
余地 6
佛朗哥 6
佛罗伦萨 6
佣金 6
佳 6
佼@@ 6
例行公事 6
供氧 6
侦探 6
便携式 6
促 6
促@@ 6
俘虏 6
保丽龙 6
保护者 6
保暖 6
信箱 6
修道院 6
俯身 6
們 6
倒计时 6
借钱 6
值得称赞 6
倾 6
假发 6
做做 6
做工 6
做礼拜 6
做菜 6
偷走 6
偿 6
偿还 6
储备@@ 6
储藏室 6
催生 6
傻事 6
儿科医生 6
先谈 6
光影 6
光泽 6
光片 6
光鲜 6
克莱因 6
全副武装 6
全套 6
全球定位系统 6
全自动 6
全貌 6
八条 6
公 6
公众形象 6
公共场合 6
公平性 6
公平竞争 6
公爵 6
六十岁 6
六条 6
兰克 6
共同完成 6
关在 6
关头 6
关税 6
关键因素 6
关键性 6
关键所在 6
兴奋剂 6
兴建 6
具体情况 6
兼具 6
兼顾 6
内华达 6
内嵌 6
内核 6
内部@@ 6
冈 6
冉@@ 6
再下 6
再生@@ 6
再落 6
再试一次 6
写入 6
军士 6
军官 6
军用 6
冠军赛 6
冰原 6
冰柱 6
冰水 6
冲到 6
冲着 6
冲绳 6
冲进 6
决定权 6
决策@@ 6
准确率 6
凋@@ 6
凌驾于 6
凝固 6
几下 6
几何@@ 6
几号 6
几样 6
几步 6
几段 6
几部 6
凭@@ 6
凯伦 6
凯拉 6
凶杀 6
出书 6
出事 6
出入 6
出口国 6
出处 6
出水 6
出窍 6
出让 6
函 6
刀片 6
分子@@ 6
分布式 6
分手 6
分散化 6
分析仪 6
分母 6
分离@@ 6
分类@@ 6
分级 6
切入 6
切入点 6
切割机 6
切实可行 6
切斯 6
刊物 6
刑事 6
划出 6
划线 6
刚果民主共和国 6
刚果河 6
创业家 6
初始状态 6
初等教育 6
判刑 6
利尔 6
别克 6
别动 6
到哪去 6
到此为止 6
到访 6
制裁 6
刺激器 6
刺穿 6
刺青 6
前不久 6
前列 6
前台 6
前天 6
前身 6
前辈 6
前部 6
剖@@ 6
剧毒 6
剩@@ 6
剪下来 6
剪掉 6
割下来 6
力争 6
劝@@ 6
加一点 6
加个 6
加压 6
加水 6
加点 6
加重 6
劣 6
劣质 6
动乱 6
动态@@ 6
动态变化 6
动物@@ 6
动画片 6
动能 6
助推器 6
劫 6
劳动@@ 6
劳拉 6
勘@@ 6
勤劳 6
勺子 6
匀称 6
包容性 6
包装@@ 6
匆匆 6
化妆@@ 6
化学合成 6
化学性质 6
北大西洋 6
北约 6
匹斯堡 6
匹马 6
区块 6
医学杂志 6
医疗@@ 6
十一月 6
十万美元 6
十三 6
十二@@ 6
十五@@ 6
十八岁 6
十六岁 6
十分复杂 6
十四 6
千兆 6
千变万化 6
升降机 6
半空 6
华盛顿邮报 6
协调@@ 6
单功能 6
单单是 6
卖点 6
南北 6
南卡罗来纳州 6
南太平洋 6
南端 6
博主 6
博士后 6
占星术 6
卡内基音乐厅 6
卡利亚 6
卡森 6
卢卡斯 6
卢森堡 6
印地语 6
印度@@ 6
印度政府 6
印第安@@ 6
危及 6
即将来临 6
卵巢癌 6
卷曲 6
历史进程 6
压倒性 6
厚厚的 6
原子@@ 6
原点 6
双人 6
双关语 6
双年展 6
双曲线 6
反倒 6
反应器 6
反转 6
发亮 6
发光管 6
发动战争 6
发掘出 6
发狂 6
发育@@ 6
发送给 6
取水 6
取胜 6
受制于 6
受此 6
受约束 6
受训 6
受限制 6
变热 6
变黑 6
叛军 6
叛逆 6
口腔 6
口足 6
口香糖 6
古罗马 6
古道 6
只为 6
叫绝 6
可供 6
可再生 6
可取 6
可变 6
可喜 6
可恶 6
可的松 6
可说 6
史努比 6
史学家 6
右臂 6
吃不@@ 6
吃些 6
各州 6
各异 6
各有 6
合作项目 6
合剂 6
合意 6
合物 6
合理性 6
吉普 6
同仁 6
同位素 6
同志 6
同性恋者 6
同步@@ 6
名望 6
名流 6
名画 6
后人 6
后会 6
后边 6
吓唬 6
听不见 6
听闻 6
吮吸 6
吸食 6
吹牛 6
吼@@ 6
告示 6
呗 6
味儿 6
味觉 6
呼吸@@ 6
呼吸道 6
命中注定 6
和平共处 6
和睦 6
咏叹调 6
咖啡因 6
咳 6
哀@@ 6
哀悼 6
哈利 6
哈马 6
哈马斯 6
哑剧 6
哥伦比亚@@ 6
哥特式 6
哧 6
唠叨 6
唧 6
唧筒 6
唯@@ 6
唱起 6
商业活动 6
商品@@ 6
商谈 6
啤酒厂 6
喘息 6
喝一杯 6
喷涌 6
喻 6
嘀咕 6
嘭 6
嘲鸟 6
嘶 6
四到 6
四射 6
四百万 6
四百年 6
四类 6
四维 6
回信 6
回升 6
回想起来 6
回收率 6
回教 6
回落 6
回顾过去 6
园地 6
围起来 6
固 6
国与国 6
国家级 6
图拉 6
图是 6
图林 6
图灵 6
图谱 6
圆圆的 6
圈养 6
土狼 6
圣巴巴拉 6
圣彼得堡 6
圣徒 6
在一起 6
在我心中 6
在短期内 6
在线@@ 6
在职 6
地会 6
地使 6
地块 6
地底 6
地标 6
地游 6
地球日 6
地衣 6
地要 6
址 6
均匀分布 6
均衡 6
坐落于 6
坚守 6
坞 6
坤 6
垂直轴 6
垃圾@@ 6
垃圾场 6
型车 6
垒 6
埃塞克斯 6
埃德@@ 6
埋头 6
培养基 6
基准线 6
基加利 6
基本原理 6
堆叠 6
堆起来 6
堕落 6
堡垒 6
塌@@ 6
塘 6
填充物 6
填埋场 6
境遇 6
墓碑 6
墓穴 6
增加一倍 6
增长速度 6
壮@@ 6
声望 6
处理@@ 6
处罚 6
复用 6
外交@@ 6
外交部长 6
外包 6
外行星 6
外部@@ 6
多到 6
多尔蒂 6
多快 6
多才多艺 6
多月 6
多有 6
多疑 6
多边形 6
大一 6
大不一样 6
大个 6
大众传媒 6
大伙 6
大哭 6
大大小小 6
大姐 6
大有@@ 6
大白鲨 6
天前 6
太冷 6
失掉 6
头儿 6
夹板 6
奇幻 6
奈德 6
奋力 6
契约 6
奔驰 6
奖得主 6
奠@@ 6
奠定 6
奥运 6
女声 6
奴隶主 6
好几 6
好斗 6
如是说 6
如此一来 6
妇女@@ 6
妊娠 6
妙语 6
妥当 6
威士忌 6
威尔@@ 6
威尔斯 6
威茨 6
娃娃 6
娓娓道来 6
婆罗门 6
媒体报道 6
嫌@@ 6
嫌疑人 6
孔雀 6
存储器 6
存入 6
存档 6
存量 6
学分 6
学术研究 6
宁可 6
它成 6
它长 6
安理会 6
完事 6
完好无损 6
定性 6
定格 6
实体化 6
实用性 6
实践@@ 6
实验组 6
宠@@ 6
宠物@@ 6
客观@@ 6
宣判 6
宣讲 6
室内@@ 6
宴 6
家后 6
宽阔 6
宾馆 6
密切@@ 6
密密麻麻 6
密歇根 6
密码子 6
密闭 6
富国 6
富翁 6
富集 6
寒武纪 6
寓教于乐 6
寡妇 6
对光 6
对立面 6
对角线 6
寻觅 6
寿@@ 6
封闭式 6
将会用 6
尊 6
小三角 6
小丑 6
小儿子 6
小把戏 6
小提琴家 6
小玩意 6
小肠 6
小队 6
少不了 6
少数民族 6
尖刺 6
就是指 6
就此@@ 6
就读 6
尺@@ 6
尺高 6
尼克松 6
尼日尔 6
尽善尽美 6
尾声 6
尿道 6
局限性 6
层级 6
屈从 6
屏@@ 6
屠@@ 6
屠宰场 6
履历 6
岁@@ 6
岌岌可危 6
岩浆 6
岸上 6
崇敬 6
嵌@@ 6
工作坊 6
工作效率 6
工学院 6
工种 6
工薪阶层 6
工钱 6
左方 6
巨大@@ 6
巫师 6
已然 6
巴塞罗那 6
巴布亚新几内亚 6
巴拉克 6
巴菲特 6
市里 6
市镇 6
布雷 6
希腊语 6
帝王 6
带你去 6
带头 6
带点 6
席位 6
干尽 6
干枯 6
平息 6
平方公里 6
平淡无奇 6
平生 6
平缓 6
年少 6
并不@@ 6
并不比 6
并列 6
并立 6
并肩 6
幼小 6
幼崽 6
幼蚁 6
幼鸟 6
广为 6
广告商 6
庆 6
床垫 6
库里蒂巴 6
应运而生 6
底盘 6
度过难关 6
座右铭 6
康复中心 6
康奈尔大学 6
延展性 6
建个 6
建得 6
开工 6
开心@@ 6
开拍 6
开拓@@ 6
开放性 6
开除 6
弄湿 6
弊端 6
引以为@@ 6
引到 6
引申 6
弗里德曼 6
弟 6
弟@@ 6
张牌 6
张表 6
弧@@ 6
弹道 6
强尼 6
强烈@@ 6
归宿 6
归零 6
当事人 6
当众 6
当晚 6
当权 6
当真 6
当着 6
录音@@ 6
彪@@ 6
彰 6
彷 6
彷@@ 6
彻头彻尾 6
往上爬 6
往上走 6
征服者 6
径@@ 6
很久没 6
得上 6
得快 6
循环@@ 6
微微 6
微缩 6
微调 6
德罗 6
心于 6
心室 6
心意 6
心理健康 6
心理变态 6
心理疾病 6
心病 6
心肺 6
心脏起搏器 6
忘怀 6
忧伤 6
忧心 6
快地 6
快得多 6
念书 6
性交易 6
总体@@ 6
总收入 6
恐怖组织 6
恭@@ 6
恭喜 6
恳求 6
恼火 6
悄然 6
悔 6
悟 6
您们 6
悬而未决 6
悼念 6
情书 6
情绪反应 6
惊吓 6
惊悚 6
惊慌失措 6
惊醒 6
惋惜 6
惹@@ 6
意在 6
感想 6
感言 6
慌@@ 6
慢动作 6
慰藉 6
憎恶 6
戈林 6
成人@@ 6
成倍增长 6
成千 6
成千上百 6
成年期 6
我下 6
我仅 6
我付 6
我建 6
我放 6
我活 6
我游 6
我病 6
我谈 6
或非 6
战乱 6
战区 6
战舰 6
战马 6
截取 6
截然 6
戴曼君 6
戴维@@ 6
房东 6
房屋里 6
所到之处 6
所含 6
所在位置 6
所见所闻 6
所读 6
所赐 6
所起 6
扁 6
手工艺品 6
手来 6
手语 6
手风琴 6
扑 6
扑灭 6
打乱 6
打分 6
打嗝 6
打字机 6
扔下去 6
托拉 6
托管 6
执 6
执着 6
扩充 6
扫描器 6
扶@@ 6
扶梯 6
批判性 6
承 6
技工 6
技术手段 6
技术支持 6
投手 6
投放市场 6
投票站 6
抖动 6
折断 6
抚育 6
抢救 6
报仇 6
披@@ 6
披头士 6
抵抗运动 6
抹布 6
押韵 6
拉克 6
拉勒米堡 6
拉尔夫 6
拉美 6
拍击 6
拖动 6
拖拽 6
拖网渔船 6
拖鞋 6
招聘 6
招致 6
拢 6
择 6
拼接 6
拼车 6
持有者 6
挑选出 6
挖洞 6
挠@@ 6
挥发性 6
挥手 6
挪 6
振作 6
振作起来 6
挺不错 6
挺身而出 6
挽@@ 6
捉住 6
捐出 6
捐钱 6
捕到 6
损毁 6
换上 6
换算 6
捧@@ 6
掉头 6
掠@@ 6
探头 6
探险队 6
接踵而来 6
接连 6
控制中心 6
控制权 6
控告 6
掩埋 6
掰 6
插曲 6
揭发 6
揭密 6
搅 6
搅拌 6
搞不清楚 6
携@@ 6
摄@@ 6
摄于 6
摇滚音乐 6
摩诃 6
撤 6
撤掉 6
播报 6
操作员 6
攫取 6
收听到 6
收据 6
收视 6
收银员 6
改用 6
改装 6
放射@@ 6
放缓 6
政治学 6
故去 6
故土 6
救济@@ 6
教我如何 6
教案 6
教育家 6
敞@@ 6
散发出 6
散居 6
散文 6
散落 6
数不清 6
数亿 6
数以亿计 6
数十 6
数学方法 6
数学课程 6
数是 6
数码技术 6
整件事 6
整体@@ 6
整体性 6
整容 6
整间 6
文化遗产 6
斧头 6
断开 6
斯卡@@ 6
斯坦利 6
斯堡 6
斯塔尔 6
斯拉 6
斯特拉@@ 6
斯瓦尔 6
斯瓦希里 6
斯皮 6
斯莫尔 6
斯蒂@@ 6
斯马 6
新体验 6
新生代 6
新能源 6
新西@@ 6
新视角 6
新闻自由 6
新鲜事 6
方程组 6
施以 6
施展 6
施德明 6
旅行者 6
旋钮 6
旋风 6
无事 6
无声@@ 6
无妨 6
无常 6
无序 6
无性繁殖 6
无所不能 6
无法形容 6
无缝 6
无色 6
无足轻重 6
日日 6
日益@@ 6
旧有 6
时时刻刻 6
时有 6
时要 6
昂 6
明尼苏达州 6
明晰 6
映@@ 6
春 6
显微 6
晋升 6
晚安 6
晚接 6
普世 6
普斯 6
景仰 6
晶 6
智人 6
暖和 6
暗指 6
暗淡 6
暗箱 6
暴风雪 6
曲线图 6
曲调 6
曲面 6
更坏 6
更新@@ 6
更贵 6
更酷 6
曼彻斯特 6
曾一度 6
最低点 6
最佳@@ 6
最弱 6
最烂 6
最糟 6
有待 6
有条理 6
有病 6
有能 6
木料 6
木棍 6
本着 6
机关枪 6
机器@@ 6
机器翻译 6
机尾 6
机械设备 6
机舱 6
杀伤力 6
权势 6
权限 6
杆@@ 6
杉@@ 6
材@@ 6
条目 6
来举 6
来者 6
来造 6
来龙去脉 6
杰伊 6
松弛 6
松饼 6
极佳 6
极快 6
析 6
枝@@ 6
枝干 6
枯@@ 6
柜@@ 6
柠檬 6
查出 6
查理二世 6
柯林斯 6
柴@@ 6
标准差 6
校准 6
校友 6
核子 6
格拉斯哥 6
格拉茨 6
格曼 6
格莱布 6
格里尔 6
桌前 6
桌面上 6
桑德斯 6
桑迪 6
桥牌 6
梅根 6
梦想成真 6
梯 6
棉 6
棋@@ 6
棱@@ 6
棵树 6
椅@@ 6
椰子 6
楼层 6
概念性 6
概念车 6
槛 6
模拟@@ 6
橘 6
橘@@ 6
橡树 6
橡皮艇 6
橱柜 6
欠下 6
欢庆 6
欣 6
欣喜若狂 6
欧文 6
歌剧院 6
正弦@@ 6
正视 6
步态 6
武 6
死于 6
死亡威胁 6
死人 6
死刑犯 6
段@@ 6
殷歌丽 6
殿堂 6
每一处 6
每片 6
每间 6
每页 6
毛孔 6
毛虫 6
毫无关系 6
民族主义 6
民间组织 6
氢弹 6
氧化@@ 6
水份 6
水垢 6
水底 6
水性 6
水污染 6
水龙头 6
求得 6
求生 6
求知 6
汇合 6
汉字 6
污辱 6
沃尔 6
沉寂 6
沉船 6
沙沙声 6
沟通交流 6
没劲 6
没读 6
没门 6
沦丧 6
沫 6
河谷 6
河道 6
沸@@ 6
沸水 6
油墨 6
油滴 6
油田 6
油脂 6
治疗法 6
沼泽地 6
沿海 6
沿用 6
泉@@ 6
泊车 6
法兰克 6
法尔 6
法治 6
法西斯主义 6
波及 6
波哥大 6
波多黎各 6
波诺 6
泰 6
泰坦尼克 6
泰特 6
泳 6
洁@@ 6
洗礼 6
洗衣@@ 6
洛伊@@ 6
洞中 6
流感疫苗 6
流汗 6
流行歌曲 6
浇 6
浇灌 6
测量@@ 6
济 6
济@@ 6
浓@@ 6
浓缩铀 6
浪漫@@ 6
浮 6
浮标 6
浴 6
海星 6
海绵状 6
浸 6
涂尔干 6
涅@@ 6
消 6
消耗掉 6
消费市场 6
涌出 6
涌现出 6
涡流 6
淘@@ 6
淘金 6
淫 6
深信不疑 6
深受@@ 6
深呼吸 6
深蓝 6
混音 6
淹死 6
清澈 6
渔 6
渔船 6
渔获 6
温带 6
港@@ 6
游击队 6
游戏@@ 6
溃疡 6
溅 6
源@@ 6
溢@@ 6
溢出 6
滑落 6
滔滔不绝 6
滞 6
滞@@ 6
滴水 6
漂流 6
漂白 6
漆 6
漏斗 6
漏水 6
演习 6
演播室 6
漠视 6
激奋 6
激进分子 6
濒死 6
火山@@ 6
火星人 6
火药 6
火鸡 6
灰烬 6
灼伤 6
灾 6
灾后 6
炒作 6
炙热 6
炭疽 6
炸掉 6
点击率 6
点滴 6
烘@@ 6
烦@@ 6
烧瓶 6
热力学 6
热带地区 6
热源 6
热门话题 6
焚@@ 6
照镜子 6
熊猫 6
熔化 6
熙@@ 6
熟练@@ 6
熟练工人 6
燃煤 6
燃起 6
爱国@@ 6
爱情故事 6
爱着 6
爸爸妈妈 6
版面 6
牌照 6
牙签 6
牙膏 6
牛羊 6
牢牢 6
牢记 6
物流 6
特别@@ 6
特制 6
特异 6
特殊性 6
犁 6
犯罪分子 6
犹他州 6
狗屎 6
独奏 6
狱 6
猎 6
猎手 6
猛然 6
猿@@ 6
玛丽@@ 6
玛姬 6
玛氏 6
玛雅人 6
玩得 6
玩火 6
环礁 6
现实主义 6
现正 6
现身 6
珠穆朗玛 6
班里 6
球拍 6
理疗 6
理解力 6
瑞克 6
瑞典人 6
瑞秋 6
瓜 6
瓜分 6
瓦片 6
瓦西里 6
甚远 6
生子 6
生存环境 6
生小孩 6
生物化学 6
生物工程 6
生理@@ 6
生锈 6
用图表 6
用意 6
用笔 6
用量 6
由下而上 6
申请@@ 6
电子白板 6
电影明星 6
电源插座 6
电站 6
电脑系统 6
电脑软件 6
电视广告 6
电话@@ 6
男孩儿 6
画中 6
画室 6
画展 6
画得 6
画板 6
畅 6
畜牧 6
略带 6
疗 6
疗@@ 6
疫 6
疲倦 6
病历 6
病得 6
痉挛 6
痛哭 6
癖 6
登场 6
白垩纪 6
白日梦 6
白纸 6
百人 6
百威 6
百慕大 6
百老汇 6
皮夹 6
皮肤癌 6
盈 6
盐水 6
监护室 6
盔甲 6
盖尔曼 6
盗 6
盛宴 6
目的性 6
直奔 6
直截了当 6
相互依存 6
相互合作 6
相关者 6
相爱 6
相距 6
省去 6
看一遍 6
看不清楚 6
看个 6
看些 6
看好 6
看管 6
真不错 6
真假 6
真品 6
真实感 6
真真切切 6
真迹 6
眼界 6
着手于 6
着陆器 6
着陆时 6
睡醒 6
督促 6
瞠目结舌 6
矛 6
知名度 6
知识@@ 6
石墨 6
石斧 6
石灰 6
矿产 6
矿石 6
砖墙 6
破灭 6
破纪录 6
硅藻 6
硝@@ 6
硝酸盐 6
硫@@ 6
硬盘 6
确有 6
碰触 6
碳酸盐 6
磋商 6
磨难 6
磷 6
磷@@ 6
礁石 6
示警 6
礼拜@@ 6
礼服 6
社会工作 6
社会活动家 6
社会福利 6
社会群体 6
神明 6
神权 6
神话故事 6
票数 6
祭@@ 6
祭祀 6
禁锢 6
福布斯 6
福特汽车公司 6
离得 6
离心机 6
私人@@ 6
科尔 6
科普 6
租用 6
积 6
称做 6
称道 6
移入 6
移出 6
稠密 6
穆巴拉克 6
穴居人 6
空中@@ 6
空无一物 6
空谈 6
穿刺 6
突发事件 6
突起物 6
窘境 6
立方@@ 6
童军 6
端的 6
笑笑 6
笛 6
第一例 6
第一所 6
第一站 6
第二位 6
第二项 6
第十 6
等同 6
等生 6
筋@@ 6
筑巢 6
筹划 6
筹备 6
筹集资金 6
简介 6
简报 6
简略 6
箔 6
管弦乐团 6
管弦乐队 6
管理人员 6
管理机构 6
篇幅 6
篡改 6
簿 6
米切尔 6
米格 6
米歇尔 6
籽@@ 6
粗暴 6
精彩@@ 6
精心制作 6
精疲力竭 6
精神状态 6
糊糊 6
糕点 6
糖丸 6
糖类 6
索伦 6
紧急@@ 6
累计 6
繁杂 6
繁殖@@ 6
红杉树 6
纤@@ 6
纤维@@ 6
约组织 6
纪实 6
纪念馆 6
纯正 6
纳斯 6
纳税 6
纸条 6
纸箱 6
线段 6
组别 6
组织@@ 6
组织培养 6
终点线 6
经常@@ 6
经济模型 6
经理人 6
经销商 6
经验@@ 6
经验主义 6
绒布 6
结构性 6
结核 6
给我发 6
绚@@ 6
绝对@@ 6
绝种 6
统计@@ 6
继 6
续@@ 6
维他命 6
维茨 6
绿色革命 6
缀 6
缅因州 6
缓 6
编排 6
缘于 6
缜密 6
缝纫 6
缩影 6
缪尔 6
网络安全 6
网络服务 6
罗兰 6
罗兹 6
罗列 6
罚@@ 6
置入 6
羊毛衫 6
美国中央情报局 6
美国国家航空航天局 6
美国陆军 6
美好@@ 6
美尔 6
美餐 6
群集 6
翁 6
翻译@@ 6
翻译员 6
翻页 6
翼展 6
老兄 6
老大 6
考古学 6
考察@@ 6
而变 6
而应 6
而活 6
耳环 6
耶林克 6
聊天室 6
聊过 6
联合体 6
联邦快递 6
联邦调查局 6
聚量 6
聚集地 6
聪明才智 6
肃@@ 6
肚 6
肥 6
育 6
胆 6
胆囊 6
背心 6
胜利者 6
胡闹 6
胡须 6
能效 6
脂@@ 6
脆 6
脆弱性 6
脑力 6
脑瘫 6
脚本 6
脱下 6
脱掉 6
腋@@ 6
腐肉 6
腐败现象 6
腰包 6
腹 6
腹@@ 6
腹泻 6
腿部 6
膏 6
自力更生 6
自始至终 6
自小 6
自已 6
自带 6
自慰 6
自杀式 6
自行@@ 6
自言自语 6
舒缓 6
舞厅 6
舞步 6
航向 6
航空线 6
舰队 6
舱门 6
良机 6
色情@@ 6
艾尔沃德 6
艾森豪威尔 6
艾米丽 6
艾莎 6
艾里克 6
节制 6
节省下来 6
节育 6
节课 6
花太多 6
花生@@ 6
苍白 6
苏族 6
苟同 6
若干年 6
英勇 6
英特尔 6
英雄@@ 6
苹果机 6
茅@@ 6
荒凉 6
药房 6
莫利 6
莫奈 6
莫妮卡 6
莱尔 6
莱文 6
莱索托 6
莱西 6
莲@@ 6
获准 6
获救 6
菌类 6
菌落 6
菜肴 6
菠菜 6
萌生 6
萌芽 6
萝 6
营业 6
营救 6
萨瑟兰 6
葡萄@@ 6
董事 6
葫芦 6
葵 6
蒙住 6
蒙特@@ 6
蒙特利尔 6
蒸 6
蓝草 6
蔑视 6
蔬@@ 6
蕾 6
薄板 6
藏有 6
虚 6
虚线 6
蛋壳 6
蜂拥而至 6
融洽 6
螺丝 6
蠢事 6
血液循环 6
血红蛋白 6
补液 6
表决 6
表盘 6
表示感谢 6
衰@@ 6
衷@@ 6
袍子 6
被装 6
被触 6
褶 6
西北 6
西德 6
西瓜 6
要不是 6
要慢 6
规避 6
视觉效果 6
视频会议 6
觉得很有 6
觉性 6
解决不了 6
解放@@ 6
言行 6
詹宁 6
警醒 6
警钟 6
计数器 6
计算机行业 6
计量 6
订出 6
认真对待 6
让你能 6
训@@ 6
记忆力 6
记忆犹新 6
讲义 6
讲些 6
许@@ 6
许多@@ 6
许多次 6
评级 6
识别系统 6
识破 6
诊 6
诊@@ 6
词儿 6
试验性 6
诗是 6
诡@@ 6
该用 6
语义 6
语言学 6
误认为 6
说好 6
说教 6
诵读 6
诸神 6
诺姆 6
诺沃 6
诺贝尔和平奖 6
课室 6
课程@@ 6
谁会想到 6
调节器 6
调谐 6
谢加 6
谭@@ 6
谷地 6
豁@@ 6
象棋 6
貌 6
贝利 6
贝多 6
负重 6
负面@@ 6
贡献者 6
货真价实 6
贩@@ 6
贫困人口 6
贬低 6
贬值 6
购买者 6
贱 6
贺卡 6
贾科梅 6
资料库 6
资本家 6
赌场 6
赎罪券 6
赐 6
赖斯 6
走下坡路 6
赶出去 6
赶来 6
赶超 6
起搏器 6
起火 6
起着 6
起重机 6
超低 6
超导 6
超弦 6
超级市场 6
超能力 6
超负荷 6
越南人 6
越多越好 6
越快越好 6
越来越近 6
趋向 6
路灯 6
路透社 6
踩扁 6
踪@@ 6
蹩脚 6
蹲@@ 6
躁狂 6
身手 6
身陷 6
躲到 6
车票 6
转入 6
转圈 6
转手 6
轻度 6
载人 6
较差 6
较量 6
辅@@ 6
辐条 6
输送到 6
辗@@ 6
辛格 6
边缘化 6
边角 6
边远 6
达成协议 6
达米@@ 6
过大 6
过失 6
过瘾 6
迎头赶上 6
还击 6
这一@@ 6
这么@@ 6
这得 6
这批 6
这挺 6
进餐 6
迦@@ 6
迪斯科 6
迫 6
迷航 6
追忆 6
追问 6
逆 6
选人 6
选拔 6
选择权 6
递 6
递@@ 6
递进 6
通俗 6
通风@@ 6
逝 6
逝者 6
遍@@ 6
遏制 6
道德感 6
遗传@@ 6
遗落 6
遗骸 6
遨游 6
遮眼 6
遵@@ 6
邂逅 6
邓@@ 6
那句话 6
那州 6
那当 6
那点 6
那群 6
邻 6
都市@@ 6
都灵 6
酒后 6
酒杯 6
酚 6
酷似 6
酿成 6
醉酒 6
采伐 6
采矿 6
释 6
释义 6
里亚@@ 6
里卡多 6
里尔 6
重复性 6
重建家园 6
重新启动 6
重新考虑 6
重物 6
重置 6
重述 6
野猪 6
野营 6
量分析 6
量身定做 6
鉴 6
钢琴@@ 6
钢缆 6
钩针 6
铅@@ 6
铲 6
铲除 6
销售@@ 6
锅@@ 6
锋面 6
锐@@ 6
锐减 6
错事 6
锡 6
锤@@ 6
锥体 6
镀@@ 6
镖 6
长假 6
长篇 6
门廊 6
闭上眼 6
闯入 6
闷@@ 6
闹剧 6
闻所未闻 6
阀门 6
阈值 6
队长 6
防毒面具 6
防盗@@ 6
阴性 6
阶 6
阿克 6
阿尔卑@@ 6
阿尔弗雷 6
阿尔戈 6
阿尔茨海默氏症 6
阿比 6
阿波菲 6
阿特金 6
阿诺德 6
陀@@ 6
附 6
附件 6
附生植物 6
陆空 6
陈 6
降至 6
陡@@ 6
院校 6
除草剂 6
隆@@ 6
随机@@ 6
隐匿 6
隐瞒 6
隔间 6
难于 6
难以忍受 6
难免 6
难关 6
难熬 6
难闻 6
雄狮 6
雄辩 6
雅各布 6
集体@@ 6
集体行动 6
集成电路 6
雌激素 6
雏菊 6
雪层 6
零分 6
零售@@ 6
零年 6
雷声 6
霉素 6
霍加 6
霍夫 6
露头角 6
静下来 6
静电 6
静静地 6
非但 6
非同凡响 6
非对称 6
非正式 6
靡 6
面墙 6
鞭策 6
韦尔 6
韧带 6
韩 6
韩@@ 6
音乐剧 6
音乐学院 6
音盲 6
音频文件 6
页@@ 6
项链 6
顺理成章 6
预警 6
颅 6
领取 6
颇@@ 6
频度 6
颗牙 6
额@@ 6
颠覆性 6
颤 6
风光 6
飞回来 6
飞奔 6
飞来 6
飞舞 6
食指 6
饭@@ 6
饮@@ 6
饱含 6
首字母 6
首尔 6
马尔@@ 6
马尔克斯 6
马斯特 6
马杜克 6
马茨 6
马蒂厄 6
驱 6
骇人听闻 6
骨盆 6
髋关节 6
髖 6
高产 6
高价 6
高估 6
高档 6
高楼 6
高清晰 6
高点 6
高贵 6
高音 6
魄 6
鱼油 6
鱼缸 6
鱼鳍 6
鲁斯 6
鲜 6
鲨@@ 6
鷉 6
鸽 6
鹅卵石 6
鹓 6
鹰 6
麦乐 6
麦克默 6
麦凯 6
麦秆 6
麦肯锡 6
麻醉师 6
黄线 6
黄金分割 6
點 6
鼓手 6
鼓捣 6
鼓起勇气 6
齐全 6
齐尔 6
0.0@@ 5
0.7 5
07 5
1.25 5
1.4 5
101 5
103 5
12500 5
1700 5
1759 5
1915 5
1920 5
1931 5
1941 5
1946 5
195@@ 5
1961 5
2013 5
2016 5
2100 5
21000 5
250000 5
25@@ 5
300000 5
4.5 5
40@@ 5
420 5
529 5
5500 5
63 5
65000 5
683 5
7100 5
750 5
826 5
99.@@ 5
ASCAP 5
ATA 5
ATM 5
AdSense 5
Alisch 5
All@@ 5
Allen 5
Amb@@ 5
Angeline 5
Anthony 5
ApproTEC 5
Aud@@ 5
Aut@@ 5
BOMB 5
Behar 5
Bell 5
Bennett 5
Benoit 5
Bern@@ 5
Bernoulli 5
Bir@@ 5
Blue 5
Bot 5
CO@@ 5
Caitria 5
Carson 5
Chinoy 5
Christ@@ 5
Clarke 5
Col@@ 5
Comp@@ 5
Cra@@ 5
Cre@@ 5
DA 5
DC 5
Dawkins 5
Dec@@ 5
Del@@ 5
Dennett 5
Dennis 5
Diana 5
Douglas 5
DryBath 5
EDL 5
Edward 5
Eis@@ 5
Ele@@ 5
Enrico 5
Ernest 5
Esther 5
FM 5
FN 5
FO@@ 5
Fark 5
Fis@@ 5
Fit@@ 5
Forre@@ 5
Fox 5
GBM 5
Gall@@ 5
Gat@@ 5
Gilbert 5
Gold@@ 5
Gran@@ 5
Gre@@ 5
Greg 5
HE 5
Han 5
Hav@@ 5
Hawkins 5
Hedy 5
Hel@@ 5
Hill@@ 5
Hir@@ 5
Hom@@ 5
Hu@@ 5
Hugo 5
HyperCard 5
IM@@ 5
IMAX 5
IS 5
Instagram 5
Inter@@ 5
Is@@ 5
Ishi@@ 5
JN 5
Jac@@ 5
Jacob@@ 5
Jennifer 5
Jerem@@ 5
Johnson 5
Jon@@ 5
Jonas 5
Joy 5
Jud@@ 5
KF 5
Kap@@ 5
Kareem 5
Kindle 5
Klein 5
Kn@@ 5
Kwabena 5
Ky@@ 5
K党 5
LE 5
LE@@ 5
LS 5
LXD 5
La@@ 5
Lady 5
Lamarr 5
Langley 5
Lau@@ 5
Laurie 5
Legadema 5
Levitt 5
Libeskind 5
Life 5
Liv@@ 5
Log@@ 5
Lovegrove 5
Ly@@ 5
Lyn@@ 5
MA@@ 5
MB 5
Mach@@ 5
Mak@@ 5
Mart@@ 5
Media 5
Mil@@ 5
Mistry 5
Mobile 5
Moore 5
Morgan 5
Mur@@ 5
Myesha 5
Myhr@@ 5
NEC 5
NT 5
Napster 5
Nike 5
Noah 5
Novocure 5
Ny@@ 5
Nyota 5
Office 5
Ol@@ 5
P2P 5
PD@@ 5
PDA 5
PH值 5
PJC 5
Pa@@ 5
Pad 5
Palin 5
Perry 5
Phi 5
Philip 5
Po@@ 5
Poupon 5
Prize 5
Pro@@ 5
RD@@ 5
RI@@ 5
RTPJ 5
Rab@@ 5
Rag@@ 5
Raghava 5
Raj@@ 5
Ras@@ 5
Research 5
Rev@@ 5
Rhod@@ 5
Rock@@ 5
SC@@ 5
SING 5
Str@@ 5
Studs 5
Sugata 5
Sunitha 5
Sw@@ 5
TED2008 5
TED2010 5
TED2011 5
Taji 5
Tan 5
Tar@@ 5
To@@ 5
Treo 5
Ut@@ 5
Whit@@ 5
Will@@ 5
Win@@ 5
World@@ 5
Wright 5
Y2K 5
Yad 5
Zag@@ 5
Ze@@ 5
aa@@ 5
ab 5
acy 5
air 5
ald 5
ali 5
ame 5
anc@@ 5
ander 5
anga 5
anna 5
ano 5
ap 5
aph 5
appiness 5
ars 5
ath 5
ather 5
ator 5
atur@@ 5
aul 5
aya 5
az 5
baugh 5
berto 5
bet@@ 5
bit 5
chu 5
ck@@ 5
cookie 5
dum 5
eck 5
ect@@ 5
edy 5
een 5
ein 5
ella 5
elly 5
eme 5
enb@@ 5
ench 5
end@@ 5
ents 5
ert@@ 5
ery 5
etti 5
feld 5
ger 5
gers 5
get 5
google 5
har 5
has@@ 5
hel@@ 5
hr 5
iel@@ 5
ier@@ 5
iger 5
ij@@ 5
ike 5
ila 5
ings 5
ington 5
ink 5
ino 5
ira 5
ito 5
ix 5
ji 5
kel 5
lan 5
lau@@ 5
ld@@ 5
li 5
loyd 5
lyn 5
mar 5
mart 5
men 5
more 5
ms 5
new 5
omb@@ 5
ont@@ 5
oo 5
ood 5
ord 5
ort@@ 5
oton 5
ou 5
ough 5
ound@@ 5
oy 5
pH 5
q@@ 5
ram 5
ria 5
ro 5
sl@@ 5
spre@@ 5
sta@@ 5
sten 5
ters 5
tw@@ 5
uel 5
ug 5
ul 5
uman@@ 5
ung 5
up 5
uz@@ 5
vin 5
wa 5
wat@@ 5
wit@@ 5
wood 5
yp@@ 5
za 5
zy 5
× 5
€ 5
一万倍 5
一万八千 5
一丝不@@ 5
一两件 5
一个八岁 5
一个圈 5
一个样 5
一九八@@ 5
一亿@@ 5
一代代 5
一任 5
一动 5
一劫 5
一千两 5
一千六百 5
一卷 5
一命 5
一块块 5
一块钱 5
一家@@ 5
一小撮 5
一心多用 5
一整块 5
一无所获 5
一无是处 5
一时期 5
一格 5
一点一滴 5
一点一点 5
一百万倍 5
一百三十 5
一百五十 5
一百五十万 5
一百倍 5
一盒 5
一瞥 5
一碗 5
一纸 5
一脚 5
一镜 5
七八年 5
万亿个 5
万岁 5
万磅 5
三万个 5
三分 5
三十万 5
三千五百 5
三岁时 5
三岔@@ 5
三星期 5
三轮车 5
三项 5
上刻 5
上千人 5
上半@@ 5
上半身 5
上司 5
上所述 5
上移 5
上身 5
下属 5
下意识 5
下楼 5
下移 5
下边 5
下颌骨 5
不下去 5
不乐意 5
不买 5
不值 5
不免 5
不入 5
不具 5
不分@@ 5
不前 5
不包 5
不及格 5
不可逾越 5
不同点 5
不均 5
不如@@ 5
不妙 5
不安分 5
不尽@@ 5
不尽相同 5
不差 5
不干 5
不惜 5
不懈 5
不择手段 5
不提 5
不放 5
不教 5
不敬 5
不断进步 5
不景气 5
不灵 5
不由@@ 5
不耐烦 5
不论@@ 5
不论怎样 5
不象 5
不难理解 5
丑恶 5
专业术语 5
专员 5
专属 5
专有 5
专栏作家 5
且@@ 5
世界遗产 5
丙烷 5
东南 5
东南部 5
东德 5
东莞 5
东西方 5
丢@@ 5
两万五千 5
两三个 5
两三天 5
两下 5
两千年 5
两句 5
两国@@ 5
两场 5
两套 5
两条线 5
两杯 5
两架 5
两步 5
两腿 5
严肃性 5
严重性 5
丧气 5
个人利益 5
中印 5
中叶 5
中央@@ 5
中央处理器 5
中央集权 5
中心化 5
中指 5
中脊 5
中转 5
丰收 5
丰盛 5
临床@@ 5
临床医学 5
临时性 5
丹佛 5
为一 5
为己有 5
为所欲为 5
主攻 5
主权国家 5
主编 5
主语 5
主题@@ 5
丽塔 5
丽贝卡 5
举报 5
举步维艰 5
之火 5
之谈 5
之高 5
乌云 5
乌斯 5
乌班图 5
乎@@ 5
乐透彩 5
乒乓球 5
乔伊@@ 5
乔叟 5
乔治@@ 5
乖@@ 5
乞丐 5
习惯性 5
书信 5
书桌上 5
乱画 5
乳 5
事事 5
事务@@ 5
事有 5
二十五 5
二十五年 5
二十多年 5
二叠纪 5
二月份 5
二烯 5
于是乎 5
互信 5
互换 5
互补 5
五件 5
五名 5
五周 5
五块 5
五张 5
五星级 5
五百@@ 5
五英里 5
亚人 5
亚伦 5
亚原子 5
亡 5
亡者 5
交叉@@ 5
交响曲 5
交谊舞 5
交锋 5
交际 5
产业化 5
亨氏 5
亭子 5
亮相 5
亲历 5
亲生 5
亲眼所见 5
人于 5
人体@@ 5
人力物力 5
人口爆炸 5
人大 5
人工@@ 5
人工智慧 5
人工生命 5
人意 5
人文主义 5
人死 5
人生@@ 5
人生哲学 5
人生意义 5
人皆知 5
人类基因 5
人肉 5
人花 5
人选 5
人问 5
人院 5
亿倍 5
仁兄 5
仅限于 5
今时 5
从业者 5
从图 5
从大 5
从小到大 5
从这一点 5
他成 5
付账 5
仙人掌果 5
令人困惑 5
令人满意 5
令人生畏 5
令人费解 5
以为@@ 5
以北 5
以备 5
以期 5
价格下降 5
价格低廉 5
份额 5
仿制品 5
仿效 5
伊曼 5
伊玛目 5
伊登 5
伊迪丝 5
伍斯特 5
伎俩 5
休斯敦 5
众神 5
优惠券 5
会来 5
会要 5
会计@@ 5
会话 5
会过 5
会造 5
伞@@ 5
传奇人物 5
传奇色彩 5
传感 5
传统观念 5
伤脑筋 5
伪装成 5
伯明翰 5
估 5
估@@ 5
伸出手 5
伺@@ 5
但他却 5
但别 5
位居 5
低空 5
低端 5
住宅区 5
佐治亚州 5
体育运动 5
体验@@ 5
何必 5
佛像 5
作假 5
作呕 5
佩奇 5
佩里 5
使唤 5
例行 5
侍者 5
依存 5
依泰塔 5
依附 5
侦@@ 5
侦察 5
侯 5
侵@@ 5
侵权行为 5
俄克拉@@ 5
俏皮 5
保护局 5
保龄球 5
信任度 5
信号@@ 5
信息时代 5
修理@@ 5
修行 5
俱@@ 5
俾斯麦 5
俾格米 5
倍@@ 5
倍增 5
倍数 5
候 5
候@@ 5
候机室 5
候鸟 5
倚 5
债@@ 5
值得一提 5
值得尊重 5
假货 5
偏误 5
做作业 5
做点事 5
停机坪 5
健在 5
健康长寿 5
健谈 5
偶发事件 5
偷偷摸摸 5
储物@@ 5
催生出 5
傲 5
傻傻的 5
像样 5
僵@@ 5
儒@@ 5
充 5
充分@@ 5
先令 5
先别 5
先有 5
先祖 5
先试 5
光学@@ 5
光彩 5
光晕 5
光标 5
光波 5
光电 5
光秃秃 5
光能 5
光靠 5
克利@@ 5
克拉@@ 5
克森 5
克罗斯 5
克里斯塔 5
克里斯托弗 5
克里斯蒂安 5
克隆@@ 5
克鲁尼 5
克鲁斯 5
免得 5
兜@@ 5
入海 5
全书 5
全国上下 5
全在 5
全天候 5
全宇宙 5
全心投入 5
全民 5
全盘 5
全称 5
八分钟 5
八度 5
八种 5
八维 5
公交@@ 5
公交车站 5
公共资源 5
公司@@ 5
公正性 5
公民自由 5
公然 5
公私 5
公诸@@ 5
六七十年代 5
六分钟 5
六大 5
六次 5
六百 5
六维 5
六角 5
六词 5
六边形 5
兰人 5
兰登 5
共同利益 5
共同行动 5
共通@@ 5
关上门 5
关灯 5
其上 5
其然 5
养蜂 5
兼有 5
内侧 5
内化 5
内奥米 5
内幕 5
内建 5
内耳 5
内蕴 5
再好不过 5
再建 5
再往 5
再活 5
再者 5
再试 5
冗@@ 5
写字@@ 5
军医 5
军阀 5
农庄 5
农贸市场 5
冥思 5
冰布 5
冰河时期 5
决不会 5
冶@@ 5
冷气 5
冻伤 5
冻死 5
准确度 5
准确性 5
凌乱 5
减去 5
减掉 5
减重 5
凑巧 5
凝聚力 5
凝视 5
凝视着 5
几万 5
几十个 5
几千米 5
几名 5
几吨 5
几家 5
几层 5
几百英里 5
凡人 5
凯恩 5
凳子 5
凶猛 5
凸透镜 5
出众 5
出力 5
出局 5
出自于 5
击倒 5
击掌 5
击碎 5
刀叉 5
分化成 5
分散@@ 5
分文 5
分界 5
分行 5
分贝 5
分配@@ 5
分门别类 5
切身 5
列奥纳多 5
刚果@@ 5
刚过去 5
创举 5
创作力 5
创想 5
创新@@ 5
创新型 5
删@@ 5
判断力 5
利他 5
利用@@ 5
别国 5
别无@@ 5
别看 5
别致 5
别转 5
到手 5
到此结束 5
制做 5
制动 5
制度化 5
制药业 5
刷成 5
刺杀 5
刻不容缓 5
刻着 5
刻薄 5
刻骨铭心 5
前人 5
前兆 5
前后@@ 5
前戏 5
前程 5
前路 5
剖腹产 5
剧中 5
剪切 5
副标题 5
力场 5
办不到 5
办公@@ 5
功利 5
加以@@ 5
加利 5
加利福尼亚大学 5
加勒特 5
加固 5
加拉加斯 5
加斯 5
加法 5
加载 5
动容 5
动物学 5
动脑筋 5
助者 5
努 5
努力做到 5
努力学习 5
励@@ 5
劳力 5
劳森 5
劳累 5
勋爵 5
勋章 5
勒夫 5
勾 5
勿施于人 5
匈牙利人 5
化学键 5
北卡罗@@ 5
北地区 5
北极点 5
北纬 5
匠人 5
匹@@ 5
区别对待 5
区里 5
医护人员 5
医疗事故 5
医疗器械 5
十万年 5
十九岁 5
十二岁 5
十五岁 5
十亿分 5
十六世纪 5
十号 5
十次 5
十秒 5
十面体 5
千亿美元 5
千分之 5
千张 5
千方百计 5
千次 5
千百万年 5
千赫 5
半分钟 5
半月板 5
半段 5
半空中 5
半英里 5
半部 5
半里 5
华而不实 5
华雷斯 5
协同工作 5
卑微 5
卓 5
单人 5
单是 5
单枪匹马 5
单车 5
博览会 5
卡伦 5
卡米拉 5
卡通@@ 5
卫星电话 5
印地@@ 5
印章 5
危急 5
危机@@ 5
即刻 5
即逝 5
卵巢 5
卷进 5
厄尔 5
历史背景 5
历险记 5
压倒 5
压在 5
压榨 5
厕纸 5
原以为 5
原创性 5
原动力 5
原封不动 5
原意 5
原文 5
原貌 5
厨 5
去处 5
去数 5
参赛@@ 5
叉@@ 5
双份 5
反例 5
反对派 5
反对者 5
反观 5
发源地 5
发生@@ 5
发生冲突 5
发生器 5
发生地 5
发着 5
发给你 5
发起者 5
取暖 5
取材于 5
受审 5
受害 5
受访 5
受雇 5
变压器 5
变暗 5
变速器 5
口器 5
口头上 5
古人类 5
古典@@ 5
古印度 5
古斯塔夫 5
古细菌 5
句话 5
另一台 5
另个 5
另有 5
只得 5
只活 5
只羊 5
只能靠 5
只靠 5
召回 5
叮@@ 5
叮咬 5
可不可以 5
可口可乐公司 5
可否 5
可控性 5
可比 5
可耻 5
可见光 5
右方 5
右转 5
叶片 5
号称 5
吃光 5
各就各位 5
各式 5
各样 5
各种@@ 5
合乎 5
合乎@@ 5
合作性 5
合唱 5
合成物 5
合板 5
吉他手 5
吉尼斯 5
吉布@@ 5
吊灯 5
同化 5
同名 5
同时代 5
名副其实 5
名牌 5
名目 5
名符其实 5
后头 5
后现代 5
后花园 5
向南 5
向日葵 5
吟唱 5
吠 5
吨@@ 5
含糊@@ 5
听者 5
启@@ 5
吱 5
吸纳 5
吸虫 5
吸血 5
吸附 5
呈次 5
呕吐 5
呜@@ 5
周内 5
周长 5
咖啡豆 5
咨询师 5
咻 5
品牌形象 5
哄@@ 5
哈弗 5
哈得逊 5
哑 5
哑@@ 5
哥们儿 5
哥伦比亚省 5
哨@@ 5
哪一条 5
哪些@@ 5
哪些地方 5
哺乳 5
哼@@ 5
唤 5
唯独 5
唱词 5
商业区 5
商业界 5
商业行为 5
啪 5
啼@@ 5
喀拉拉邦 5
喂给 5
喉 5
喉@@ 5
喜不喜欢 5
喜马拉雅山脉 5
喝彩 5
喧嚣 5
喧闹 5
喻@@ 5
嘀嘀 5
嘉年华 5
嘌呤 5
嘘@@ 5
嘟@@ 5
嘲 5
嘲讽 5
嘴边 5
噗 5
噗鲁 5
器皿 5
噩耗 5
噬菌体 5
噱头 5
囚@@ 5
四代 5
四分 5
四百@@ 5
四维空间 5
四面体 5
回击 5
回国 5
回流 5
因纽 5
因陀罗 5
困住 5
围成 5
固态 5
国境 5
国家博物馆 5
国家卫生研究院 5
国家航空航天局 5
国税局 5
国际舞台 5
圆柱@@ 5
圆球 5
圆网 5
圈里 5
土卫@@ 5
土地@@ 5
土著人 5
土著居民 5
圣公会 5
在思想上 5
圭@@ 5
地下@@ 5
地下道 5
地以 5
地图集 5
均@@ 5
均等 5
坍缩 5
坏处 5
坑里 5
坠毁 5
坦布 5
坦普 5
垂 5
垂直于 5
垫@@ 5
埃尔维斯 5
埃尔西 5
埃斯特 5
城乡 5
培乐多 5
基因库 5
基底 5
基思 5
基础@@ 5
基站 5
堆砌 5
堪 5
堪萨斯 5
塑 5
塑型 5
塑料包装 5
塑胶 5
塔伊 5
塔斯 5
塞克斯 5
塞利 5
塞巴斯蒂安 5
塞斯 5
塞特 5
填入 5
境@@ 5
增产 5
墨守@@ 5
声源 5
壶 5
备忘录 5
夏日 5
外加 5
外来@@ 5
外祖母 5
多事 5
多产 5
多任务处理 5
多元性 5
多利 5
多加 5
多半 5
多孔 5
多层次 5
多张 5
多棒 5
多维 5
多维度 5
多重性 5
夜店 5
大众@@ 5
大佛 5
大儿子 5
大兵 5
大同小异 5
大喊大叫 5
大堂 5
大大@@ 5
大大提高 5
大学校园 5
大家族 5
大时 5
大网 5
大肆 5
大脑神经 5
大英博物馆 5
大英百科全书 5
大雨 5
天上掉 5
天主教堂 5
天佑 5
天分 5
天方夜谭 5
天秤座 5
天际线 5
天鹅 5
太低 5
太像 5
太多人 5
太子港 5
太平@@ 5
太强 5
太热 5
太空@@ 5
太阳神 5
失事 5
失衡 5
头去 5
夷为平地 5
夺取 5
夺回 5
奇数 5
奇普 5
奈 5
奋@@ 5
奏曲 5
契 5
契@@ 5
契诃夫 5
奥斯维辛 5
奥林匹克@@ 5
女主角 5
女侠 5
女医生 5
女老师 5
好使 5
好意 5
好时光 5
好的开始 5
如图 5
如此这般 5
如火如荼 5
妆 5
妈咪 5
妓 5
妙不可言 5
妙极了 5
妥@@ 5
妮塔 5
妻@@ 5
始祖鸟 5
始终@@ 5
委@@ 5
委员 5
委婉 5
威内 5
威廉姆斯 5
娃人 5
娜塔莉 5
娴熟 5
婴儿@@ 5
媒@@ 5
嫁@@ 5
嫁人 5
子宫@@ 5
子里 5
子集 5
孔子 5
孔洞 5
字样 5
存有 5
孟德尔 5
学习者 5
学前班 5
学名 5
学士学位 5
学术论文 5
孵@@ 5
它会@@ 5
宇宙射线 5
安上 5
安东尼奥 5
安乐死 5
安全措施 5
安全网 5
安全部 5
安吉拉 5
安康 5
安眠药 5
完全彻底 5
完整@@ 5
完结 5
宕@@ 5
官方语言 5
定势 5
宜@@ 5
实事求是 5
实况 5
实地考察 5
实实 5
实际@@ 5
审 5
客气 5
宣传册 5
宣传画 5
室温 5
宰杀 5
家居 5
家庭影院 5
家时 5
容积 5
宽松 5
寂寞 5
寄主 5
寄出 5
寄宿 5
寄来 5
密斯 5
密集型 5
寓@@ 5
对半@@ 5
对系统 5
导入 5
导游 5
寿衣 5
射电 5
射频 5
将牌 5
小便 5
小儿科 5
小号 5
小块 5
小型企业 5
小孩儿 5
小店 5
小弊 5
小河 5
小游戏 5
小片 5
小猩猩 5
小节 5
小轿车 5
小黑点 5
少得 5
尖叫声 5
尖牙 5
尖端科技 5
尝到 5
尤为重要 5
就别 5
就职@@ 5
尺长 5
尼姑 5
尼罗河 5
居于 5
居住@@ 5
居民区 5
展区 5
展开讨论 5
山中 5
山里 5
山间 5
岁数 5
岂@@ 5
岔@@ 5
岗 5
岗@@ 5
崎岖不平 5
川@@ 5
巡回 5
巡天 5
巢穴 5
工业区 5
工会 5
工夫 5
左下方 5
左派 5
差一点 5
己见 5
已近 5
巴基 5
巴塞尔 5
巴尔 5
巴尔干地区 5
巴尔河 5
巴拿马 5
巴甫洛夫 5
巴米扬 5
巴马 5
市场调研 5
市场需求 5
布兰森 5
布兰登 5
布兰达 5
布劳恩 5
布卡 5
布吕尔 5
布尔@@ 5
布景 5
布琳 5
帅哥 5
希思罗 5
希瑟 5
帕姆 5
帕特里 5
帕蒂 5
帕金森 5
帛 5
带个 5
带电 5
帮到 5
常在 5
常年 5
常量 5
幅@@ 5
干冰 5
干掉 5
干的事 5
平克 5
平地上 5
平安@@ 5
年数 5
年轮 5
年长者 5
幼儿 5
幼苗 5
广告公司 5
广播电台 5
庄 5
床单 5
库尔 5
库斯 5
应变 5
应用@@ 5
废品 5
废旧 5
废气 5
度日 5
座舱 5
廉洁 5
廊 5
建好 5
开去 5
开场白 5
开垦 5
开奖 5
开幕 5
开怀大笑 5
开战 5
开朗 5
开机 5
开窗 5
开通 5
开采@@ 5
异域 5
异教 5
引人注意 5
引号 5
引水 5
引致 5
弗兰@@ 5
弗吉尼亚州 5
弗罗 5
弗莱 5
弱智 5
弹出来 5
弹药 5
弹跳 5
强加于 5
强盗 5
强盛 5
强硬 5
归为 5
当回事 5
当头 5
当过 5
录下 5
录音室 5
录音机 5
形似 5
形图 5
影象 5
影院 5
彻彻底底 5
彼岸 5
往下掉 5
往里面 5
征途 5
很怪 5
很晚 5
很痛 5
律性 5
徒步旅行 5
得克萨@@ 5
得其@@ 5
得到许可 5
得够 5
得花 5
循规蹈矩 5
微风 5
心理治疗 5
心甘情愿 5
心脏外科 5
心血@@ 5
必备 5
必要性 5
忍者 5
忘我 5
忠@@ 5
快车 5
念完 5
怀中 5
怀俄明州 5
怀里 5
怕@@ 5
思科 5
急迫 5
性别歧视 5
性是 5
怪事 5
总督 5
总额 5
恋尸癖 5
恕 5
恢复@@ 5
恢复正常 5
恩赐 5
恪守 5
恰是 5
恶意软件 5
恶梦 5
恼人 5
悉心 5
悔恨 5
悠@@ 5
悠悠 5
悠闲 5
悬 5
悲剧性 5
情侣 5
情报局 5
情操 5
情景喜剧 5
惊叹不已 5
惊呆 5
惊愕 5
惊艳 5
惠更斯 5
惨不忍睹 5
惨案 5
惨淡 5
惨烈 5
想不出 5
想做到 5
想像@@ 5
想像到 5
想学 5
想尽办法 5
想干什么 5
惶恐 5
愈加 5
愈来愈 5
愈来愈多 5
意会 5
意料@@ 5
愚@@ 5
愿不愿意 5
慌 5
慌张 5
慎 5
慎@@ 5
慑 5
慕@@ 5
慢性病 5
慧眼 5
慷慨@@ 5
憋气 5
戏弄 5
成不了 5
成份 5
成群结队 5
我动 5
我常@@ 5
我思 5
我时 5
我管 5
我脑 5
我越 5
我造 5
我长 5
战斗@@ 5
战死 5
战略性 5
战警 5
战败 5
战车 5
房间内 5
所幸 5
所愿 5
所示 5
所致 5
手们 5
手动 5
手感 5
手拿@@ 5
手机用户 5
手榴弹 5
手电筒 5
手边 5
手部 5
手镯 5
才干 5
打了个 5
打到 5
打开门 5
打架 5
打滚 5
打瞌睡 5
打量 5
扛 5
执拗 5
执迷 5
扩大@@ 5
扫射 5
扬声器 5
扮 5
扰 5
扶贫 5
找人 5
承担@@ 5
技法 5
抑制@@ 5
投了 5
投影机 5
投票权 5
投资商 5
投钱 5
抗衡 5
抗议者 5
折服 5
抢劫@@ 5
报上 5
报以 5
披萨 5
抽样 5
拄 5
拆下来 5
拆分 5
拉上 5
拉巴 5
拉特 5
拉着 5
拉诺 5
拉长 5
拍卖行 5
拎 5
拐角 5
招呼 5
招待 5
拟 5
拟@@ 5
拟人化 5
拥 5
拥有权 5
拨号音 5
拱形 5
拼贴 5
持久@@ 5
持枪 5
持续时间 5
指挥@@ 5
指挥棒 5
指派 5
指甲油 5
按压 5
按着 5
按计划 5
挖出 5
挖开 5
挡@@ 5
挣@@ 5
挤满 5
挥霍 5
挪@@ 5
振兴 5
捆@@ 5
捕鲸船 5
损@@ 5
损失@@ 5
捣毁 5
掉落 5
掌上电脑 5
排入 5
排挤 5
排放物 5
排水@@ 5
排泄 5
排骨 5
掘 5
掘@@ 5
掠夺者 5
探望 5
探视 5
接生 5
接见 5
接触@@ 5
控诉 5
推力 5
推土机 5
推特上 5
推选 5
推销员 5
描 5
提包 5
提着 5
插画 5
揣@@ 5
搅拌机 5
搏 5
搞清 5
搬家 5
搭讪 5
摁 5
摄制 5
摄氏 5
摆布 5
摇摇@@ 5
摩登 5
摸摸 5
撇开 5
撕毁 5
撞击到 5
撰@@ 5
操心 5
操纵杆 5
操纵者 5
擦拭 5
支持系统 5
支撑@@ 5
收听 5
收支 5
收支平衡 5
收敛 5
收看 5
收藏@@ 5
收费站 5
改掉 5
改革家 5
攻 5
攻击@@ 5
攻打 5
放些 5
放射性@@ 5
放射科 5
放生 5
放眼@@ 5
放走 5
政治犯 5
故事书 5
故事会 5
效忠 5
效果图 5
救命 5
救灾 5
教员 5
教学方式 5
教父 5
教育经费 5
教育者 5
教育部门 5
教课 5
散射 5
敬仰 5
敬佩 5
数十个 5
数据传输 5
数数 5
敲响 5
整修 5
整场 5
整夜 5
整日 5
斑点 5
料想到 5
斥 5
斧子 5
断电 5
斯坦@@ 5
斯尼克 5
斯山 5
斯托 5
斯汀 5
斯沃 5
斯河 5
斯隆 5
新几内亚 5
新品 5
新墨西哥州 5
新大陆 5
新技能 5
新来 5
新版 5
新篇章 5
新罕布什尔 5
新闻周刊 5
新闻媒体 5
新鲜@@ 5
新鲜感 5
方位 5
方便使用 5
方格 5
方法论 5
施工 5
施肥 5
旁听 5
旗下 5
无人居住 5
无休止 5
无可避免 5
无敌 5
无法回答 5
无礼 5
无穷尽 5
无精打采 5
无花果 5
无误 5
无赖 5
无阻 5
无限大 5
既然如此 5
日以继夜 5
日程@@ 5
日间 5
旦 5
旧式 5
旧石器时代 5
旧金山湾 5
旨意 5
早于 5
早产儿 5
早日 5
早起 5
早饭 5
旬 5
时下 5
时事 5
时光@@ 5
时日 5
时说 5
时限 5
旺加 5
昆士兰州 5
昌 5
昔日 5
星云 5
星尘 5
映 5
春季 5
是谁 5
昼夜 5
显出 5
显微照片 5
显现出 5
显眼 5
显露出来 5
晒干 5
晓 5
普拉@@ 5
普拉特 5
普林斯 5
普特 5
普罗 5
普遍现象 5
普顿 5
普鲁士 5
暴君 5
暴徒 5
暴跌 5
暴躁 5
暴雨 5
曲解 5
曳 5
更令 5
更差 5
更广 5
曼哈顿岛 5
替@@ 5
最低@@ 5
最佳人选 5
最前沿 5
最富 5
最小化 5
最终目标 5
最起码 5
月经 5
有把握 5
有效@@ 5
有望 5
有色人种 5
有车 5
服务体系 5
服务器软件 5
服装@@ 5
朝上 5
朝下 5
朝圣 5
木棒 5
未成年 5
未知数 5
本上 5
本体 5
本地人 5
本宁顿 5
本植物 5
本职工作 5
朱丽娅 5
朱蒂 5
朴@@ 5
朵 5
朵@@ 5
朵花 5
机电 5
机身 5
杀菌 5
杂交种 5
杂技 5
杆子 5
李奥纳特 5
杏仁核 5
材 5
材料科学 5
村@@ 5
村里人 5
杖 5
杜伊 5
杜威 5
杜松子酒 5
条件反射 5
条条框框 5
条河 5
来点 5
来画 5
来算 5
杰森 5
松树 5
松露 5
板上 5
极低 5
极尽 5
极强 5
极权主义 5
极短 5
枕@@ 5
果园 5
果效 5
果松 5
架@@ 5
架起 5
柏林墙 5
柜台 5
柜子 5
柠檬水 5
柠檬汁 5
查理@@ 5
柯伊伯 5
柯克 5
柯南 5
柱状图 5
柴火 5
标价 5
标准@@ 5
标尺 5
标榜 5
树下 5
树丛 5
树顶 5
栓@@ 5
栖 5
核查 5
核电 5
根茎 5
格拉 5
格林斯潘 5
格格 5
格格不入 5
格雷@@ 5
栽@@ 5
桌旁 5
桑德 5
桑德尔 5
桑蚕 5
梯度 5
梳@@ 5
检察官 5
检查@@ 5
检测仪 5
棋 5
棋子 5
棋盘 5
棒球场 5
棚户区 5
森德 5
植株 5
植物学家 5
椎骨 5
椰子@@ 5
榨@@ 5
榨取 5
樊建川 5
模块化 5
模式化 5
模拟出 5
模糊不清 5
横扫 5
樱@@ 5
橘红色 5
檐@@ 5
欠缺 5
欢快 5
欣然接受 5
欧内斯特 5
欲强 5
款人 5
歉意 5
歌星 5
止步 5
正中 5
正正 5
正确率 5
此后 5
此基础 5
此案 5
歧途 5
死亡@@ 5
死定了 5
死海 5
死胡同 5
残余 5
残暴 5
殷@@ 5
母爱 5
每克 5
每家 5
每家每户 5
每秒钟 5
比上 5
比克 5
比夫 5
比拟 5
比萨 5
比萨饼 5
毕业典礼 5
毕生精力 5
毛巾 5
毡 5
气愤 5
气象站 5
气馁 5
氚 5
氧化 5
氨@@ 5
水体 5
水在 5
水平面 5
水枪 5
水汽 5
水渠 5
水牛 5
水珠 5
水缸 5
水量 5
永存 5
永恒不变 5
汁液 5
求偶 5
求婚 5
汉森 5
江 5
汲@@ 5
汹涌 5
沃德 5
沉入 5
沉闷 5
沉降 5
沐浴 5
沙克 5
沙地 5
没准儿 5
没意思 5
没法@@ 5
没落 5
没过多久 5
沧桑 5
河沿 5
河马 5
油腻 5
治疗师 5
沾满 5
沿路 5
泄 5
法拉 5
法拉利 5
法文 5
波尔 5
波尔@@ 5
波尔布 5
波斯湾 5
波段 5
波波 5
泰晤士河 5
泰诺 5
泽佛 5
洋洋 5
洛尔 5
活人 5
活命 5
派驻 5
流下 5
流放 5
流水线 5
流行性 5
流露出 5
济慈 5
浑然天成 5
浮力 5
浮夸 5
浮宫 5
浮游@@ 5
海军@@ 5
海明威 5
海洋@@ 5
海洋学家 5
海港 5
海登 5
海盗号 5
消化道 5
消磨 5
消耗量 5
消遣 5
涉水 5
涉猎 5
润 5
淋浴 5
淤@@ 5
深刻印象 5
深厚 5
深潜 5
深色 5
深藏 5
深邃 5
混响 5
添 5
清洁@@ 5
渗水 5
渗透到 5
渡 5
游乐园 5
游弋 5
游艇 5
湖区 5
湾@@ 5
源性 5
溶 5
滑梯 5
滑轮 5
滑过 5
滚开 5
满分 5
满意度 5
满满@@ 5
滤镜 5
滥伐 5
滴水@@ 5
漆黑一片 5
演化出 5
演唱者 5
演练 5
漠不关心 5
漫漫 5
潜得 5
潜水@@ 5
澎湃 5
激光测距仪 5
激进主义 5
濒临绝种 5
火器 5
火种 5
灯具 5
灰熊 5
灵气 5
灶台 5
灼@@ 5
灾区 5
炉@@ 5
炎@@ 5
点半 5
点对点 5
点心 5
烈地 5
烟尘 5
烤炉 5
烧录 5
热切地 5
热岛 5
热带@@ 5
热浪 5
热点@@ 5
热端 5
焕@@ 5
煎@@ 5
照常 5
照应 5
照搬 5
煽动 5
熔炉 5
熠@@ 5
熬 5
燕 5
燕麦 5
爆炸@@ 5
爆炸声 5
爬升 5
爱国 5
爱尔兰语 5
爱滋 5
父女 5
爸妈 5
片中 5
牛群 5
牟利 5
物价 5
物竞天择 5
特化 5
特拉 5
特立尼@@ 5
特纳 5
特许@@ 5
犀利 5
犯有 5
犯法 5
犹太教徒 5
狂躁 5
狒狒 5
狓 5
狠@@ 5
狮 5
猎犬 5
猛地 5
猜到 5
猴仔 5
玉@@ 5
王五 5
王者 5
玛丽莲梦 5
玛萨瑞 5
玫 5
玫瑰@@ 5
环境影响 5
现代科学 5
玲珑 5
珍妮@@ 5
珍爱 5
珠子 5
珠宝店 5
球具 5
理发 5
理查兹 5
理睬 5
理论化 5
琪 5
瑞斯 5
瑟曼 5
瓜尔 5
瓦伦西亚 5
瓦尔迪 5
瓦萨里 5
瓦达 5
甜味 5
甜椒 5
生与死 5
生平 5
生日蛋糕 5
生母 5
生活态度 5
生活水准 5
生活费 5
生而@@ 5
生而平等 5
用个 5
用乐高 5
用场 5
用此 5
用电器 5
用脚 5
用谷歌 5
甩开 5
由水 5
由衷 5
甲壳虫 5
甲壳虫乐队 5
甲板 5
申明 5
电信业 5
电动机 5
电动汽车 5
电子器件 5
电子扫描 5
电子显微镜 5
电话亭 5
电话会议 5
电话公司 5
男同性恋 5
畅通 5
畏@@ 5
畏缩 5
留存 5
留情 5
疏 5
疏水 5
疑虑 5
病患者 5
病毒传播 5
痛不@@ 5
癌症病人 5
癫痫病 5
登台 5
登山 5
白光 5
白内障 5
白化 5
白点 5
百万吨 5
百事可乐 5
百出 5
百分之七 5
百分之九十八 5
百分之十@@ 5
百叶窗 5
百条 5
百次 5
百科 5
百货公司 5
皆大欢喜 5
皇 5
皱眉 5
盏灯 5
盐湖城 5
监听 5
监护人 5
监视器 5
盖里 5
盛 5
盟 5
盲目@@ 5
直入 5
直白 5
相互理解 5
相加 5
相斥 5
相看 5
相符合 5
眉@@ 5
看不清 5
看中 5
看得@@ 5
看穿 5
真心@@ 5
真挚 5
真是假 5
真真 5
眷顾 5
眼皮@@ 5
眼罩 5
着重于 5
睁开眼睛 5
睡个 5
睡眠不足 5
督@@ 5
瞧@@ 5
瞧不起 5
矗立 5
矛@@ 5
矢@@ 5
矫@@ 5
矫形 5
短期内 5
短浅 5
矮@@ 5
矮人 5
矮小 5
石油输出国组织 5
矿场 5
砌 5
研究室 5
研究家 5
砖头 5
砰砰 5
破旧 5
硅质 5
硫酸 5
硫酸盐 5
碍 5
碎玻璃 5
碗@@ 5
碧翠@@ 5
碰见 5
磁悬浮 5
磁盘 5
礼品 5
礼品店 5
社会科学家 5
社会阶层 5
社区@@ 5
社工 5
社论 5
祝@@ 5
神创论 5
神学院 5
神情 5
神户 5
神是 5
神来 5
神经性 5
神经网络 5
神经质 5
票房 5
禁不住 5
禅 5
禅修 5
福克@@ 5
福勒 5
福斯特 5
福祉 5
禧 5
离子通道 5
离异 5
禽 5
秀丽 5
私营企业 5
私营部门 5
种族主义 5
种植@@ 5
科医生 5
科姆 5
科学论文 5
科尔曼 5
科德 5
科技含量 5
科斯塔 5
科特@@ 5
科研机构 5
科迪 5
秘密@@ 5
积蓄 5
称号 5
稀松 5
稍候 5
稍加 5
稚嫩 5
稠 5
稻草 5
稽@@ 5
稿人 5
稿子 5
穷孩子 5
空空 5
穿插@@ 5
窟窿 5
立志 5
立方英尺 5
竖立 5
竖起 5
站台 5
竞相 5
竞选活动 5
童年时期 5
竭力 5
竹 5
竿@@ 5
笔直 5
符号化 5
笨@@ 5
第一届 5
第一排 5
第一次世界大战 5
第一款 5
第一段 5
第一章 5
第一篇 5
第一辆 5
第一页 5
第一颗 5
第七个 5
第三层 5
第三类 5
第九 5
第二段 5
第二类 5
笼@@ 5
笼统 5
笼罩 5
等价 5
等着瞧 5
筋 5
筋疲力尽 5
筑@@ 5
筷子 5
签下 5
简易房 5
简森 5
简简单单 5
简要地 5
算盘 5
管家 5
管理学 5
篷车 5
簧管 5
米饭 5
粉酱 5
粒@@ 5
粗鲁 5
粘合剂 5
粘液 5
粘结 5
粘附 5
粮 5
粮@@ 5
精力充沛 5
精神科 5
糅合 5
糊@@ 5
糕 5
糖衣 5
糟蹋 5
系鞋带 5
素食 5
索求 5
索要 5
紧跟 5
紫 5
繁琐 5
纠@@ 5
纠错 5
红心 5
约克 5
纯氧 5
纯真 5
纱 5
纳巴 5
纳河 5
纳粹@@ 5
纸板盒 5
纹@@ 5
纺织厂 5
组人 5
组员 5
组里 5
细心 5
细细 5
细腻 5
细长 5
终日 5
经济合作与发展组织 5
经济损失 5
经过培训 5
绑匪 5
结成 5
结石 5
结缔组织 5
结肠镜 5
绘制地图 5
给你个 5
给力 5
绝境 5
统治@@ 5
维修队 5
维埃拉 5
维护和平 5
维特 5
绵@@ 5
绽放 5
绿线 5
缆线 5
缓缓 5
编写@@ 5
编程@@ 5
缠身 5
缸体 5
缺水 5
网上@@ 5
网关 5
网络工具 5
网络游戏 5
罗伦 5
罗密欧 5
罗德岛 5
罗斯海 5
罗莎 5
罗马@@ 5
罗马帝国 5
罪名 5
美利坚合众国 5
美国佬 5
美国大使馆 5
美国麻省理工学院 5
美好未来 5
美极了 5
美联储 5
美酒 5
羚 5
群体@@ 5
翅 5
翩@@ 5
翻一番 5
翻越 5
翻身 5
老去 5
老大哥 5
老套 5
老照片 5
老虎@@ 5
老鹰 5
考尔 5
考得 5
而为 5
而今 5
而外 5
而用 5
而起 5
耐药 5
耕@@ 5
耳膜 5
耶维奇 5
耸肩 5
聋 5
职人员 5
联合利华 5
联手 5
联通 5
肉瘤 5
肖邦 5
肘 5
肚@@ 5
股票@@ 5
肢@@ 5
肥沃 5
肥胖@@ 5
肯德尔 5
胆量 5
背盖区 5
背负着 5
胖@@ 5
胜者 5
胞 5
胡乱 5
胡说 5
胡说八道 5
胭脂红 5
胰@@ 5
胶原蛋白 5
胶状 5
胶状物 5
能助 5
能起 5
脉搏 5
脉络 5
脐@@ 5
脑死亡 5
脑癌 5
脑里 5
脓@@ 5
脚上 5
脚踏车 5
脱脂剂 5
脱钩 5
腐@@ 5
腐败问题 5
腕@@ 5
腕表 5
腱 5
腺@@ 5
腺丝 5
腾出 5
膜炎 5
臆@@ 5
自律 5
自我调节 5
自由化 5
自私自利 5
自称为 5
至高无上 5
致以 5
致命性 5
致死率 5
致癌物质 5
舞台剧 5
航空局 5
航船 5
般@@ 5
船体 5
船头 5
良药 5
艰@@ 5
色情电影 5
艺术史 5
艺术性 5
艾克斯 5
艾琳 5
艾瑞克 5
艾略特 5
艾米莉 5
节律 5
芝麻街 5
芦@@ 5
花光 5
花卉 5
花招 5
花旗银行 5
花皮 5
芽@@ 5
苍老 5
苏珊娜 5
苯 5
英吉利海峡 5
英式 5
英格尔 5
茅屋 5
茜 5
茫然 5
茫茫 5
茱莉亚 5
茱蒂 5
茴香 5
茵 5
茶具 5
草稿 5
荒漠 5
荧光灯 5
药水 5
莉斯 5
莫比 5
莫登 5
莫里 5
获得@@ 5
菜谱 5
萃取 5
萝卜 5
营中 5
萨尼 5
萨拉热窝 5
萨特 5
落叶 5
落差 5
落成 5
著述 5
葱 5
蒙德 5
蒙混 5
蒙蔽 5
蓝调 5
蓝领 5
蕴含着 5
蕾丝 5
藏书 5
藏身 5
虐@@ 5
虚拟空间 5
蚕丝 5
蚯蚓 5
蛇形 5
蛋白组学 5
蛔虫 5
蛰 5
螺丝@@ 5
螺旋形 5
螺旋状 5
血块 5
血汗 5
血缘关系 5
行为习惯 5
行使 5
行动@@ 5
行李箱 5
衍@@ 5
衍生品 5
街坊@@ 5
街景 5
衣架 5
补丁 5
补充@@ 5
表兄 5
表哥 5
表演@@ 5
表达形式 5
表面温度 5
衰 5
袖 5
被叫 5
装扮 5
装疯 5
装着 5
西扎 5
西斯 5
西服 5
要价 5
要害 5
要强 5
要往 5
见效 5
见证者 5
观音 5
规划师 5
规划者 5
规模化 5
视点 5
觉着 5
解决@@ 5
解救出来 5
解散 5
解说员 5
解雇 5
触感 5
触控板 5
触犯 5
言外之意 5
言表 5
言辞 5
詹 5
誉@@ 5
警力 5
警报器 5
警笛 5
警觉 5
警车 5
计划署 5
计算出来 5
计算机系统 5
计量@@ 5
订制 5
讣告 5
认字 5
认知失调 5
讨人@@ 5
讨价还价 5
讨论会 5
让给 5
训练营 5
议定书 5
记在心 5
记录在案 5
记谱 5
讲究 5
许愿 5
论派 5
设计界 5
访问量 5
评为 5
试验@@ 5
诚信 5
诚如 5
询 5
该病 5
详 5
诧异 5
语句 5
语汇 5
误区 5
误诊 5
说得好 5
说来话长 5
请愿 5
诺基亚 5
读物 5
课外 5
调和 5
调大 5
调换 5
调用 5
调皮 5
谈不上 5
谨@@ 5
豆类 5
象牙海岸 5
象限 5
贝斯手 5
贝格 5
贝特森 5
贝辛 5
负有 5
负载 5
财 5
责骂 5
账号 5
货币@@ 5
货船 5
质性 5
贫苦 5
贬@@ 5
购 5
贴图 5
贴着 5
贸易@@ 5
费舍尔 5
费钱 5
资源@@ 5
资质 5
资金@@ 5
赋 5
赔@@ 5
赖以 5
赘@@ 5
赞助人 5
赞歌 5
赤裸 5
赫克托 5
走捷径 5
走来走去 5
起效 5
趁 5
趁机 5
超然 5
超现实 5
超群 5
越强 5
越野车 5
足球场 5
足球比赛 5
足球赛 5
足类 5
足足有 5
足部 5
跃 5
跌入 5
跌落 5
跑车 5
跟随者 5
跨出 5
跪 5
跪下 5
路况 5
路易十四 5
路段 5
跳下 5
跳板 5
践踏 5
踢球 5
踮@@ 5
蹊跷 5
蹼 5
躁@@ 5
身分 5
身患 5
躯干 5
躲开 5
躲猫猫 5
躲起来 5
车手 5
车灯 5
车门 5
转录 5
转换器 5
转瞬即逝 5
转给 5
转速 5
软体 5
软管 5
软糖 5
轰 5
轴承 5
轻巧 5
轻轻地 5
载重 5
辅助@@ 5
辐射@@ 5
辐射状 5
输给 5
辛劳 5
辣椒 5
辰 5
辱@@ 5
边界线 5
达兰 5
达到高潮 5
达尼 5
达拉 5
达沃斯 5
迁 5
过于@@ 5
过学 5
过期 5
过活 5
过海 5
迈尔 5
迎刃而解 5
运行@@ 5
运载 5
近似 5
还长 5
这不像 5
这中 5
这书 5
这倒 5
这匹马 5
这同 5
这店 5
这新 5
这牌 5
这离 5
这道 5
进制 5
进发 5
进晚餐 5
进水 5
进行@@ 5
远亲 5
远胜 5
远超 5
远超过 5
违@@ 5
违反@@ 5
连系 5
迥然不同 5
迪尔 5
迭代 5
追根溯源 5
逃亡 5
逆风 5
选修 5
透明性 5
透视图 5
逐一 5
逐个 5
通俗易懂 5
通宵 5
通融 5
速度慢 5
造福人类 5
造者 5
逸 5
逼供 5
遇害 5
道别 5
道尔 5
道森 5
遗传性 5
遛 5
遮挡 5
遮盖 5
邀@@ 5
那套 5
那家伙 5
那栋 5
那真 5
那群人 5
那辆车 5
那部 5
邮 5
邮政@@ 5
邻居家 5
郁金香 5
郎@@ 5
郑重其事 5
部族 5
酌情处理 5
配得 5
酒店@@ 5
酒馆 5
酬劳 5
酵@@ 5
酸钾 5
醇@@ 5
醋 5
醍醐灌顶 5
醒醒 5
采取任何 5
采取措施 5
里奇 5
里装 5
重于 5
重力场 5
重启 5
重型 5
重整 5
重新学习 5
重蹈 5
野味 5
量体 5
量身 5
金器 5
金矿 5
金融时报 5
金融风暴 5
金赛 5
金鱼 5
针织 5
钍 5
钟上 5
钟情 5
钠 5
钢筋 5
钦@@ 5
钱会 5
钱德勒 5
钱来 5
钱花 5
钳 5
钳@@ 5
钾 5
铁路@@ 5
铭@@ 5
铸 5
铸成 5
铺垫 5
铺天盖地 5
链子 5
锁上 5
锅炉 5
锌 5
锡克 5
锦标赛 5
镇定 5
镍 5
镜框 5
镭射 5
镶@@ 5
镶嵌 5
长处 5
长河 5
长满 5
长线 5
长足 5
长远@@ 5
长途 5
长途旅行 5
门店 5
门户 5
闪烁着 5
闭关 5
闭幕 5
闭路 5
问下 5
问卷调查 5
问责 5
闯进 5
闲 5
间谍 5
阅@@ 5
阉割 5
防护@@ 5
防火墙 5
防线 5
阳伞 5
阴极射线管 5
阴郁 5
阿伦 5
阿喀琉斯 5
阿塞拜疆 5
阿尔伯特 5
阿尔卑斯山 5
阿尔及利亚 5
阿尔法 5
阿巴拉契亚 5
阿帕@@ 5
阿拉巴马州 5
阿斯@@ 5
阿沙宁卡 5
陀螺仪 5
附上 5
附在 5
际 5
际@@ 5
陈列 5
降低成本 5
降幅 5
降水 5
降生 5
降级 5
除此以外 5
险恶 5
陪伴着 5
陶@@ 5
隆隆 5
随意性 5
随风 5
隐形@@ 5
隐性 5
隔膜 5
隔阂 5
障 5
难产 5
雄心 5
雄蚁 5
雅普 5
集合起来 5
雕塑品 5
雪佛兰 5
零排放 5
零散 5
零星 5
雷利 5
雷区 5
震撼力 5
霍奇 5
霓虹灯 5
霸@@ 5
霸占 5
青年@@ 5
青草 5
静修 5
静坐 5
静止不动 5
非主流 5
非国家 5
非常灵活 5
非生物 5
面包@@ 5
面包车 5
面图 5
面目 5
面设计 5
靴子 5
靶细胞 5
鞋店 5
鞍形 5
鞍状物 5
鞠躬 5
鞭子 5
韦伯 5
韦尔@@ 5
韦恩 5
韩文 5
韩语 5
音乐演奏 5
音响系统 5
音素 5
音质 5
顷@@ 5
顺风 5
顽@@ 5
顽强 5
顽皮 5
预案 5
预热 5
预订 5
领到 5
领头 5
领导@@ 5
领着 5
颈动脉 5
颗@@ 5
颚 5
颚骨 5
额度 5
颠@@ 5
风声 5
风潮 5
飘浮 5
飞入 5
飞机场 5
飞涨 5
飞行高度 5
飞走 5
飞镖 5
食品行业 5
食材 5
食物残渣 5
食用@@ 5
饥@@ 5
饥渴 5
饭后 5
饰品 5
饵 5
首位 5
首批 5
首映 5
马培德 5
马尔切 5
马恩岛 5
马拉@@ 5
马累 5
马萨诸塞 5
马金 5
驱车 5
驻民 5
驼峰 5
骄@@ 5
验@@ 5
骑过 5
骑马 5
骚动 5
骡子 5
骤@@ 5
骰子 5
高中@@ 5
高品质 5
高声 5
高官 5
高帝 5
高效能 5
高浓度 5
高清晰度 5
高能量 5
高脂肪 5
高频 5
高风险 5
高龄 5
鬼脸 5
魏@@ 5
魔戒 5
魔方 5
鱼线 5
鱼翅 5
鲁坦 5
鲁士 5
鲁尔 5
鲍尔 5
鲍里斯 5
鲼 5
鳗鱼 5
鳞@@ 5
鸟瞰 5
鸟群 5
鸟鸣 5
鸡皮疙瘩 5
鸫 5
鹦嘴 5
鹿@@ 5
麋鹿 5
麦克斯 5
麦凯恩 5
麦利肯 5
麦当娜 5
黄疸 5
黄石公园 5
黑夜 5
黑客@@ 5
黑比诺 5
黑盒子 5
黑色素 5
默默地 5
默默无闻 5
黛 5
黛德丽 5
黯淡 5
鼓声 5
齐聚一堂 5
３ 5
９ 5
# 4
0.3 4
0.6 4
007 4
06 4
0ppm 4
1.1 4
109 4
11000 4
111 4
114 4
117 4
155 4
156 4
165 4
1650 4
180@@ 4
1812 4
185 4
1854 4
1863 4
1867 4
1879 4
1880 4
1903 4
1913 4
1919 4
192 4
1926 4
1929 4
1937 4
1977 4
2.4 4
200000 4
2048 4
230 4
234 4
249 4
256 4
28@@ 4
2D 4
3.3 4
320 4
325 4
380 4
450ppm 4
46664 4
5.5 4
6.5 4
700@@ 4
AIDG 4
ALS 4
AOL 4
API 4
ARPA 4
AT@@ 4
Abbott 4
Abdi 4
Action 4
Af@@ 4
Agaricon 4
Ahmad 4
Ahmedabad 4
Alex@@ 4
Alvin 4
Amjad 4
Andre@@ 4
Ardu@@ 4
Ari@@ 4
Ariely 4
Ashraf 4
Assange 4
Ataturk 4
B92 4
BE 4
BRD4 4
BT 4
Ba@@ 4
Babble 4
Bae@@ 4
Bangoora 4
Bar 4
Baraniuk 4
Barnett 4
Basit 4
Berners 4
Big 4
Bigelow 4
Black@@ 4
Blanc 4
Bou@@ 4
Bouba 4
Boy@@ 4
Brain 4
Brin 4
Bro@@ 4
Bruce 4
Buba 4
Buck@@ 4
BumpTop 4
Bundy 4
Burrows 4
Buzz 4
B型 4
CERN 4
CH@@ 4
CI@@ 4
CIA 4
CL@@ 4
CS@@ 4
Ca@@ 4
Cant@@ 4
Cap 4
CarderPlanet 4
Catherine 4
Chaos 4
Ches@@ 4
Cheval 4
Cit@@ 4
Cla@@ 4
Clare 4
Com@@ 4
Coo@@ 4
CouchSurfing 4
DP 4
Deqo 4
Deut@@ 4
Direc@@ 4
Dis@@ 4
Dod@@ 4
Dr@@ 4
Dre@@ 4
Du@@ 4
EBAY 4
Eames 4
Edwards 4
Eleanor 4
Eliasson 4
Elizabeth 4
Encarta 4
Ensler 4
Ep@@ 4
Even 4
Excel 4
FEED 4
FOXP2 4
Fab@@ 4
Felix 4
Fer@@ 4
Fey 4
Firefly 4
Ford 4
Full@@ 4
G8 4
GA@@ 4
GG@@ 4
GNH 4
GP@@ 4
GW 4
Gard@@ 4
Gates 4
Genspace 4
Gladwell 4
Global 4
Gloria 4
Gombe 4
Gorg@@ 4
Gregory 4
H1N1 4
Harry 4
Heal@@ 4
Hi 4
Hill 4
Hobbes 4
Homer 4
Hou@@ 4
IDE 4
IGF 4
IMPASS 4
INK 4
IP电话 4
Image 4
Ines 4
Inv@@ 4
Iphone 4
Isra@@ 4
JQ1 4
JR 4
Jackson 4
Jacqueline 4
Jacques 4
Jah@@ 4
Janine 4
Java 4
Jaw@@ 4
Jean 4
Jobs 4
John@@ 4
Johnny 4
Jos@@ 4
Jose 4
Joubert 4
Joyce 4
Julia 4
Jun@@ 4
KA 4
KIP@@ 4
KK 4
Kam@@ 4
Kavita 4
Kell@@ 4
Kenn@@ 4
Kibaki 4
Kinect 4
Kiran 4
Kleiner 4
Ko@@ 4
Kra@@ 4
Krosoczka 4
Kur@@ 4
Kymaerica 4
L1 4
La 4
Lab@@ 4
Law@@ 4
Leroy 4
Lesbor 4
Levine 4
Lewis 4
Li@@ 4
Lim@@ 4
Link@@ 4
Live 4
Loc@@ 4
Long 4
Luce 4
MAP 4
MI@@ 4
ML 4
MM 4
MT@@ 4
Mall@@ 4
Man 4
Margaret 4
Markham 4
Matthieu 4
Mau@@ 4
McGonigal 4
McLean 4
McLuhan 4
Me 4
Meetup 4
Metrics 4
Micheal 4
Mit@@ 4
Mobutu 4
Mohamed 4
Mont@@ 4
Monterey 4
Moschen 4
Mr 4
Mugwagwa 4
Mun@@ 4
MySpace 4
MyoD 4
NC 4
NIAC 4
NOAA 4
Nadia 4
Natasha 4
Networ@@ 4
OED 4
Ob@@ 4
Odeo 4
Op@@ 4
Open 4
Ornish 4
Otto 4
PA 4
PBS 4
PET 4
PF@@ 4
PLATO 4
PR 4
PT 4
PTSD 4
Page 4
Parusharam 4
Patricia 4
Patt@@ 4
Pav@@ 4
Peres 4
Ph@@ 4
Phi@@ 4
Phillips 4
Pickens 4
Pilot 4
Poll@@ 4
Pope 4
Pos@@ 4
Power 4
Prad@@ 4
Pragmatic 4
Pranitha 4
Preston 4
Prin@@ 4
Pro 4
Prof@@ 4
Project 4
Pu@@ 4
Quincy 4
Quran 4
RAM 4
RFID 4
RUS 4
Rain@@ 4
Ral@@ 4
Randall 4
Rani 4
Rich@@ 4
Rit@@ 4
Ritchie 4
Rives 4
Robbie 4
Roosev@@ 4
Rothemund 4
Rover 4
Rub@@ 4
Russell 4
Ryan 4
SAT 4
SE@@ 4
SPCA 4
SS 4
STriDER 4
SU@@ 4
SUV 4
Sad@@ 4
Sakena 4
Sakkaf 4
Sal 4
Samboja 4
Sanjay 4
Schul@@ 4
Scranton 4
Sethi 4
Seung 4
Seva 4
Shan@@ 4
Sheikha 4
Shim@@ 4
Shirin 4
Smith@@ 4
Sol@@ 4
Start 4
Stef@@ 4
Stein@@ 4
Stern 4
Stirling 4
Strat@@ 4
Stre@@ 4
Strudwick 4
Suki 4
Sur@@ 4
Sz@@ 4
T1 4
TEDGlob@@ 4
TEDxUSC 4
TEDxWomen 4
TEEB 4
TMS 4
TOR 4
Tal@@ 4
Tarter 4
Tel@@ 4
Top@@ 4
Tr@@ 4
Tre@@ 4
Treatment 4
Trott 4
Trump 4
Tully 4
Turkana 4
Tw@@ 4
UVA 4
UVB 4
Ul@@ 4
Un@@ 4
Univ@@ 4
Usman 4
Valent@@ 4
Vashem 4
Verinsky 4
Vil@@ 4
Vis@@ 4
Ward 4
Wat@@ 4
Watt 4
Web@@ 4
Whirlwind 4
White 4
Wol@@ 4
YB 4
Yo 4
You@@ 4
ZX@@ 4
ache 4
achter 4
ack 4
adi 4
ady 4
agnorisis 4
ain 4
ain@@ 4
ais@@ 4
aka 4
aki 4
alini 4
ambo 4
amos 4
amp@@ 4
ango 4
ani@@ 4
anti 4
anz@@ 4
aqu@@ 4
ark 4
arty 4
assa 4
aster 4
ata 4
ato 4
awa 4
bar 4
bie 4
bot 4
box 4
brot 4
bun@@ 4
bur@@ 4
ca 4
cel@@ 4
chitecture 4
co@@ 4
cock 4
col@@ 4
comp@@ 4
den 4
der@@ 4
dic@@ 4
dit 4
don@@ 4
ec 4
eda 4
eli 4
elinda 4
ema 4
eman 4
enc@@ 4
eney 4
enh@@ 4
enter 4
era 4
ergo 4
ering 4
ert 4
erve 4
esign 4
ess@@ 4
eth 4
etic 4
etty 4
facebook 4
gr@@ 4
han@@ 4
have 4
heim 4
hex@@ 4
hib 4
hie 4
him 4
ias 4
ice 4
icks 4
ieg@@ 4
iegel 4
ierra 4
iers 4
iew 4
ig 4
igg@@ 4
iki 4
ild 4
iller 4
imb@@ 4
inger 4
int@@ 4
ional 4
ior 4
iro@@ 4
ites 4
iti 4
ium 4
kman 4
lder 4
let@@ 4
lif@@ 4
like 4
logo 4
low 4
mat@@ 4
med 4
min@@ 4
mo 4
ms@@ 4
muffin 4
napot 4
ness 4
not 4
obe 4
ods 4
olas 4
ombe 4
ome 4
omi 4
ond 4
oom@@ 4
oot 4
ott@@ 4
ower 4
peripeteia 4
ph 4
pl@@ 4
point 4
ppm 4
pson 4
que 4
rad 4
raf@@ 4
rav@@ 4
reCAPTCHA 4
rep@@ 4
ri 4
ric 4
rice 4
rich 4
rie 4
riel 4
ring 4
ron 4
ross 4
rove 4
sa@@ 4
sb@@ 4
se@@ 4
shi@@ 4
sigma 4
ska 4
ski 4
so 4
sper@@ 4
sson 4
sum 4
syn@@ 4
tha 4
than 4
the@@ 4
tre@@ 4
uck 4
uddy 4
und 4
uppam 4
use 4
utch@@ 4
ven 4
von 4
wamy 4
war 4
wasichu 4
web 4
wid@@ 4
worthy 4
www 4
ycle 4
yen 4
ymp@@ 4
yo 4
é 4
∙ 4
一一@@ 4
一万亿美元 4
一个九岁 4
一个六岁 4
一个多元 4
一举 4
一九九@@ 4
一亿年 4
一伙 4
一克 4
一分为二 4
一刹那 4
一千万年 4
一千公里 4
一千名 4
一千次 4
一去@@ 4
一团@@ 4
一塌糊涂 4
一大@@ 4
一大早 4
一天@@ 4
一字@@ 4
一宗 4
一帧 4
一心一意 4
一性 4
一景 4
一有 4
一段@@ 4
一段距离 4
一波 4
一派 4
一清二楚 4
一滴水 4
一片片 4
一百七十 4
一百二十五 4
一百位 4
一百多年 4
一百岁 4
一百次 4
一盏灯 4
一睹 4
一瞬 4
一箱 4
一簇 4
一线@@ 4
一维 4
一致同意 4
一视同仁 4
一败涂地 4
一车 4
一长 4
一集 4
一餐 4
一齐 4
七倍 4
七成 4
万吨级 4
万英镑 4
丈@@ 4
三千万 4
三千年 4
三台 4
三四 4
三四年 4
三宝 4
三峡@@ 4
三度空间 4
三座 4
三思@@ 4
三月份 4
三段 4
三百个 4
三要素 4
上一年 4
上下@@ 4
上场 4
上尉 4
上带 4
上建 4
上扬 4
上推 4
上星期 4
上班族 4
上端 4
上膛 4
上课时 4
上长 4
下人 4
下决心 4
下注 4
下着雨 4
下腰 4
下船 4
下院 4
不一会儿 4
不久以后 4
不假 4
不动产 4
不可否认 4
不可开交 4
不可抗力 4
不可救药 4
不可磨灭 4
不合 4
不向 4
不善 4
不太会 4
不太熟悉 4
不如意 4
不宜 4
不容@@ 4
不寒而栗 4
不尽 4
不屈 4
不屈不挠 4
不惜@@ 4
不成比例 4
不敢@@ 4
不料 4
不断前进 4
不断改进 4
不是故意 4
不深 4
不爱交际 4
不相上下 4
不祥 4
不管@@ 4
不菲 4
不见@@ 4
不计后果 4
不试 4
不贵 4
不费@@ 4
不起来 4
不过如此 4
不近人情 4
不远处 4
不配 4
不长 4
不难@@ 4
不顾后果 4
与时俱进 4
与此相反 4
与非 4
丑@@ 4
专业技能 4
专职 4
专营@@ 4
专题@@ 4
世界杯赛 4
世界粮食计划署 4
世界贸易中心 4
世界贸易组织 4
丙烯@@ 4
业主 4
业余时间 4
东区 4
东地区 4
东波角 4
东西向 4
东非大裂谷 4
丝绸之路 4
丢人现眼 4
丢进 4
两千个 4
两头 4
两手 4
两支 4
两旁 4
两条@@ 4
两栖类 4
两百个 4
两艘 4
严寒 4
严苛 4
严重威胁 4
严重破坏 4
个个 4
个人主义 4
个人信息 4
个人行为 4
个体化 4
个数 4
个面 4
中为 4
中仅 4
中国@@ 4
中央银行 4
中层 4
中年人 4
中度 4
中待 4
中心地带 4
中才 4
中生@@ 4
中生代 4
中立@@ 4
中等教育 4
中美关系 4
中美洲 4
中读 4
中餐 4
丰 4
丰满 4
串线 4
临产时 4
临界点 4
为乐 4
为我所用 4
为时@@ 4
为荣 4
主办 4
主动性 4
主因 4
主机 4
主要@@ 4
主题公园 4
主食 4
举手@@ 4
乃是 4
之不@@ 4
之争 4
之于 4
之以@@ 4
之势 4
之宝 4
之屋 4
之年 4
之意 4
之树 4
之水 4
之河 4
之深 4
之灾 4
之眼 4
之远 4
之长 4
乌克兰 4
乌兹别@@ 4
乌玛 4
乍得 4
乐此不疲 4
乔安@@ 4
乔治亚州 4
乘员 4
乙 4
乙烷 4
九百 4
乞力马扎罗山 4
也罢 4
书人 4
书会 4
书来 4
书架 4
买二捐 4
买卖双方 4
买车 4
乱成一团 4
乱跑 4
乳头 4
乳汁 4
了个 4
了之 4
争强好胜 4
事业@@ 4
事半功倍 4
事外 4
事故@@ 4
事无@@ 4
二三十 4
二个 4
二乘 4
二十岁 4
二十年代 4
二圈 4
二字 4
二手@@ 4
二氧化@@ 4
二氧化硫 4
二百万 4
二级 4
云朵 4
云母 4
互相理解 4
互联网协议 4
互通 4
五份 4
五六十年代 4
五十个 4
五层 4
五月天 4
五美元 4
五边形 4
五金 4
五金店 4
井井有条 4
井喷 4
亚利桑@@ 4
亚基 4
亚德 4
亟待解决 4
亟需 4
亢奋 4
交互@@ 4
交互作用 4
交付 4
交付给 4
交战 4
交通灯 4
交错 4
亦可 4
亦然 4
产业链 4
享乐主义 4
亲昵 4
亲眼见到 4
人一 4
人一等 4
人上 4
人人平等 4
人力资本 4
人口比例 4
人口过剩 4
人工干预 4
人情 4
人情@@ 4
人文@@ 4
人文主义者 4
人生目标 4
人脉 4
人造黄油 4
亿万年 4
亿条 4
什叶派 4
仅靠 4
今年@@ 4
今早 4
从下@@ 4
从今@@ 4
从何 4
从无到有 4
从桥 4
仓@@ 4
仔@@ 4
他于 4
他俩 4
他开 4
他时 4
他生 4
仗 4
付诸于 4
仙 4
代理 4
代理商 4
代谢率 4
令人遗憾 4
令人高兴 4
令人鼓舞 4
以人为本 4
以供 4
以新 4
以比 4
以色列@@ 4
任一 4
任何时刻 4
任务分配 4
仿画 4
伊万 4
伊利亚特 4
伊利诺@@ 4
伊利诺伊州 4
伊勒 4
伊博人 4
伊卡 4
伊姆斯 4
伊蚊 4
伐木工 4
休整 4
优秀@@ 4
优越感 4
伙@@ 4
会因 4
会派 4
会选 4
伟@@ 4
伟大@@ 4
传下去 4
传单 4
传扬 4
传送@@ 4
伤兵 4
伤心@@ 4
伤心欲绝 4
伤膝河 4
伦理学家 4
伪 4
伯尔 4
伯爵 4
伸开 4
伸缩 4
伸进 4
伽伐尼 4
伽马射线 4
位元 4
低劣 4
低层次 4
低年级 4
低落 4
低速 4
体味 4
体表 4
体谅 4
体重增加 4
何谓 4
佛朗 4
佛热 4
作何 4
作出@@ 4
作对 4
作成 4
作秀 4
佝偻病 4
你点 4
佩服 4
佯@@ 4
佷 4
使用权 4
例举 4
例外情况 4
侏儒 4
供应@@ 4
供职 4
供膳 4
供血 4
供货@@ 4
依恋 4
便携式电脑 4
便条 4
便秘 4
俄克拉何@@ 4
俄勒冈 4
俊 4
俗气 4
保加利亚语 4
保守@@ 4
保守主义 4
保温箱 4
保留住 4
信仰@@ 4
修路 4
修辞 4
俯冲 4
俯拜 4
俳句 4
俺 4
個 4
倍受 4
倒影 4
倒立 4
倒置 4
倒转 4
候选者 4
倚@@ 4
借出 4
借此机会 4
倭 4
值得一提的是 4
倾尽 4
假冒@@ 4
假日 4
假装会 4
偏倚 4
偏执狂 4
偏转 4
做不来 4
做大 4
做客 4
做要 4
做题 4
健 4
健壮 4
健康@@ 4
健康人 4
健忘 4
偶数 4
偶然@@ 4
偶然间 4
偷取 4
偷运 4
储存@@ 4
催@@ 4
催促 4
催泪@@ 4
傲@@ 4
僵化 4
僻@@ 4
儿童读物 4
兄弟俩 4
充气式 4
充满信心 4
充裕 4
兆头 4
先为 4
先天性 4
先给 4
先验 4
光光 4
光度 4
光敏 4
光景 4
光灯 4
光谱线 4
克伦威尔 4
克制 4
克拉夫特 4
克拉拉 4
克斯坦 4
克星顿 4
克林@@ 4
克瑞斯 4
克莉丝 4
克莱格 4
克莱顿 4
免疫力 4
免费@@ 4
免遭 4
入口处 4
全城 4
全天 4
全天然 4
全心 4
全然不同 4
全身@@ 4
全过程 4
全速 4
全部内容 4
全长 4
全额 4
八人 4
八位 4
八十五 4
八天 4
八小时 4
八扯 4
公之于众 4
公墓 4
公尺 4
公演 4
公用 4
公益事业 4
公益活动 4
公立 4
六千五百 4
六只 4
兰姆 4
兰岛 4
兰格 4
兰顿 4
共产主义者 4
共同体 4
共度 4
共计 4
共赢 4
共进 4
兴衰 4
兴趣@@ 4
兴高采烈 4
其道 4
具体化 4
典 4
养大 4
养家 4
养鸡 4
兽皮 4
内啡肽 4
内城 4
内特 4
内科 4
内衣 4
内贾德 4
内阁@@ 4
再切 4
再来一个 4
再花 4
再谈 4
冒出 4
冒风险 4
写手 4
写文章 4
军事化 4
军备竞赛 4
农户 4
冰下 4
冰封 4
冰晶 4
冲入 4
冲出 4
冲浪者 4
决断 4
况 4
冷冰冰 4
冷凝 4
冷嘲热讽 4
冷酷无情 4
冻土 4
准备@@ 4
准确无误 4
凌 4
凌弱 4
减震器 4
凑 4
几万年 4
几千人 4
几千次 4
几星期 4
几百万个 4
几百万倍 4
几百次 4
几近 4
凡事 4
凡尔@@ 4
凡特 4
凭空@@ 4
凯撒 4
凯瑞 4
凯莉 4
凶 4
凸起 4
出人@@ 4
出其 4
出击 4
出品 4
出国 4
出手 4
出演 4
出版业 4
出示 4
出能 4
出过 4
出面 4
击手 4
刀子 4
刃 4
分会 4
分光镜 4
分半钟 4
分层 4
分布式@@ 4
分担 4
分散剂 4
分是 4
分段 4
分水岭 4
分秒@@ 4
分红 4
分钱 4
分队 4
切削 4
切割@@ 4
切尔 4
切尔诺贝利 4
切身@@ 4
划定 4
划掉 4
划时代 4
列出来 4
刚上 4
刚满 4
创下 4
创业精神 4
创口 4
创纪录 4
创造性地 4
创造物 4
初级阶段 4
删减 4
利害@@ 4
利己 4
利己主义 4
利用光 4
利用效率 4
利益集团 4
别为 4
别具@@ 4
别去 4
别扭 4
到家 4
制作方法 4
制冷 4
制药@@ 4
制造@@ 4
制造机 4
刷子 4
刺耳 4
刻上 4
刻录 4
剃 4
前十 4
前厅 4
前当 4
前提条件 4
前无古人 4
前瞻性 4
前肢 4
前轮 4
前门 4
剑@@ 4
剧痛 4
剩余@@ 4
剪出 4
剪断 4
副总裁 4
副牌 4
割掉 4
割裂 4
劈 4
力量@@ 4
办事处 4
办公椅 4
功利@@ 4
功能障碍 4
加利@@ 4
加加 4
加尔@@ 4
加工@@ 4
加德纳 4
加快@@ 4
加拉@@ 4
加纳人 4
加进 4
务必 4
劣势 4
动作片 4
动器 4
动工 4
动画人物 4
动画师 4
动者 4
动荡@@ 4
劳埃德 4
势不可挡 4
勃 4
勇敢@@ 4
勉 4
勒令 4
動@@ 4
勘 4
勘测 4
勤奋 4
勺 4
勾画 4
包住 4
包着 4
包装材料 4
化学品 4
化粪池 4
化验 4
北极@@ 4
北极圈 4
北端 4
北面 4
匠心 4
匣子 4
区域性 4
区间 4
医护 4
医疗机构 4
医药学 4
匿名性 4
十九 4
十二面 4
十六个 4
十分必要 4
十分高兴 4
十四个 4
十四岁 4
十所 4
十月份 4
十点 4
十米 4
千万个 4
千五百 4
千克 4
千公里 4
千头 4
千百年 4
升值 4
升水 4
升空 4
升调 4
半乳糖 4
半到 4
半圆形 4
半圈 4
半夜里 4
半成品 4
半生 4
半身不遂 4
半途而废 4
华尔兹 4
华生 4
协调一致 4
卑劣 4
卓伊 4
卓别林 4
卓有成效 4
单亲 4
单凭 4
单股 4
卖方 4
南瓜 4
南部非洲 4
南露 4
博士@@ 4
博尔德 4
博文 4
博格 4
占有欲 4
卡斯帕罗夫 4
卡斯特罗 4
卡普兰 4
卡洛@@ 4
卡洛斯 4
卡萨@@ 4
卡马 4
卢拉 4
卢斯 4
卢汉 4
卫生学 4
卫生条件 4
卫生设施 4
卫生部 4
卫者 4
印制 4
印刷@@ 4
印刷厂 4
印刷技术 4
印刷版 4
印有 4
印第安纳 4
印证 4
危 4
危险点 4
即时@@ 4
即时性 4
却会 4
却成 4
却没能 4
卸货 4
厂家 4
厄@@ 4
历克斯 4
历来 4
压根儿 4
压缩空气 4
压载 4
厚实 4
原产 4
原处 4
原始人 4
原子结构 4
原汤 4
厨余 4
厮@@ 4
去取 4
参 4
参照系 4
参考资料 4
参谋 4
又名 4
及时@@ 4
双亲 4
双关 4
双双 4
双子塔 4
双酚 4
双重性 4
双面 4
反作用 4
反复无常 4
反射光 4
反方 4
反粒子 4
反腐败 4
反问 4
发个 4
发号施令 4
发展壮大 4
发情 4
发情期 4
发扬光大 4
发掘出来 4
发泄 4
发源 4
发热 4
发生率 4
发臭 4
发表文章 4
发过来 4
发送信息 4
取其精华 4
受伤害 4
受到感染 4
受到限制 4
受灾 4
受热 4
受用 4
受益者 4
受苦受难 4
受难 4
受骗者 4
变卖 4
变糟 4
叛乱@@ 4
叛国罪 4
叠出 4
口才 4
口水 4
古斯 4
古普塔 4
古根海姆 4
古猿 4
另一@@ 4
另一名 4
另一类 4
另辟蹊径 4
叩诊 4
只卖 4
只在乎 4
只字@@ 4
只手 4
召 4
可以信赖 4
可供@@ 4
可去 4
可好 4
可循 4
可数 4
可行性研究 4
可要 4
可验证 4
台式机 4
史蒂@@ 4
叶绿素 4
叶酸 4
司令部 4
司空见惯 4
叹息 4
吃个 4
吃水果 4
各人 4
各种渠道 4
合为一体 4
合影 4
合情合理 4
合资 4
合金 4
吉尼斯世界纪录 4
吉拉 4
吉祥物 4
同侪 4
同等@@ 4
名列 4
名列前茅 4
名是 4
后备箱 4
后现代主义 4
后肢 4
吐出 4
吐出来 4
向北 4
向南飞 4
向性 4
向来 4
吓了一跳 4
君@@ 4
君主@@ 4
吞拿鱼 4
吟@@ 4
吧台 4
吨级 4
含氧量 4
含水层 4
听得 4
听错 4
启示录 4
吱吱@@ 4
吵醒 4
吸力 4
吸毒者 4
吸烟者 4
吹灰之力 4
呀@@ 4
呆板 4
周后 4
周转 4
周间 4
呱@@ 4
呵 4
呼吸器 4
呼吸机 4
咄@@ 4
咋 4
咋@@ 4
和平主义者 4
和平时期 4
咒符 4
咒骂 4
咦 4
咪咪 4
咬人 4
咬牙切齿 4
咯咯 4
咸菜 4
哇塞 4
哈伊 4
哈斯 4
哈罗德 4
哈迪 4
哟 4
哪一天 4
哪一年 4
哪年 4
哪月 4
哲学@@ 4
唇@@ 4
唐娜 4
唑 4
啄@@ 4
商业价值 4
商会 4
商铺 4
啊@@ 4
啥@@ 4
啥时候 4
啦@@ 4
喀嚓 4
善事 4
善人 4
喇叭声 4
喊停 4
喊叫 4
喊道 4
喋@@ 4
喝完 4
喝点 4
喝牛奶 4
喷射出 4
喷漆 4
喷火 4
喽 4
嗤之以鼻 4
嘟 4
嘟嘟 4
嘤 4
嘱 4
嘱咐 4
噶玛巴 4
嚷嚷 4
四五年 4
四亿 4
四十五分钟 4
四十岁 4
四十年代 4
四块 4
四处寻找 4
四大 4
四季 4
四样 4
四溅 4
四米 4
四角 4
四重奏 4
四页 4
回味 4
回响 4
回巢 4
回想到 4
回报率 4
回程 4
回笼 4
因在 4
因地制宜 4
因特尔 4
团伙 4
团员 4
困于 4
围场 4
围坐在 4
国土面积 4
国家主权 4
国库 4
国民@@ 4
国际贸易 4
国集团 4
图书馆员 4
图形化 4
图画书 4
图解法 4
圆周@@ 4
圆桌会议 4
圆锥 4
圈住 4
圈内 4
土匪 4
土壤@@ 4
土食 4
圣像 4
圣劳伦斯 4
圣地 4
圣塔 4
在你看来 4
在所难免 4
在表面上 4
地处 4
地多 4
地底下 4
地爱上 4
地牢 4
地理信息 4
地窖 4
地笑 4
地读 4
地谈 4
地轴 4
地问 4
场馆 4
坏了 4
坏孩子 4
坐上 4
坐地 4
坐进 4
坑@@ 4
坚定不移 4
坚持@@ 4
坠入 4
坠尘 4
坦帕 4
坦白讲 4
垂死 4
垃圾筒 4
埃伯特 4
埃勒 4
埃米 4
城市居民 4
域@@ 4
培养@@ 4
基因突变 4
基尼 4
基岩 4
基弗 4
基础性 4
基础教育 4
基础知识 4
基金组织 4
堂皇 4
堆积如山 4
塌 4
塔塔 4
塞勒姆 4
塞尔@@ 4
塞拉 4
塞拉斯 4
填平 4
墙洞 4
增值 4
增加@@ 4
增速 4
声名狼@@ 4
声觉 4
壶状 4
处女膜 4
处方@@ 4
处理过程 4
复健 4
复制出 4
复数 4
外交部 4
外公 4
外层空间 4
外甥女 4
外行 4
多一点点 4
多丽丝 4
多些 4
多位 4
多克 4
多发性 4
多只 4
多多 4
多家 4
多巴 4
多巴哥 4
多恩 4
多所 4
多氯联苯 4
多种语言 4
多米 4
多米尼克 4
多英里 4
夜夜 4
大便 4
大写 4
大力支持 4
大发雷霆 4
大口 4
大吃@@ 4
大吉 4
大名鼎鼎 4
大嘴 4
大型@@ 4
大堡礁 4
大学@@ 4
大小便 4
大幅@@ 4
大手笔 4
大是大非 4
大杂烩 4
大气@@ 4
大洞 4
大浪 4
大炮 4
大点 4
大牌 4
大纲 4
大老远 4
大肠杆菌 4
大胡子 4
大西洋@@ 4
大调 4
大跃进 4
大钢琴 4
大陆漂移 4
大餐 4
天主教会 4
天孔 4
天文台 4
天来 4
天桥 4
天气@@ 4
天津 4
天籁 4
天降 4
天马行空 4
太好 4
太帅 4
太早 4
太有 4
太精彩 4
央斯基 4
失业者 4
失去@@ 4
失常 4
失忆 4
失禁 4
头昏@@ 4
头版头条 4
头等 4
头等大事 4
头等舱 4
头肌 4
头足 4
夷@@ 4
夹带 4
夹杂 4
夹杂着 4
奄奄一息 4
奇兹 4
奇思妙想 4
奇森 4
奇珍 4
奇迹般地 4
奈克 4
奈吉尔 4
奈米 4
奉行 4
奋战 4
奋起 4
套用 4
奥会 4
奥兰@@ 4
奥卡@@ 4
奥威尔 4
奥德 4
奥德修 4
奥恩布 4
奥斯丘 4
奥斯威辛集中营 4
奥斯陆 4
奥林匹斯 4
女主播 4
女佣 4
女座 4
女性朋友 4
女权 4
奶水 4
她@@ 4
她家 4
好久 4
好书 4
好于 4
好哇 4
好多@@ 4
好多好多 4
好孩子 4
好心 4
好戏 4
好日子 4
好时机 4
好歹 4
好觉 4
好过 4
如上 4
如出一辙 4
如实 4
妒忌 4
妖@@ 4
妙处 4
妙绝伦 4
始终如一 4
姓@@ 4
委 4
委任 4
委派 4
姜汁 4
姜饼 4
威严 4
娄 4
娘@@ 4
娜@@ 4
娜斯 4
娱乐界 4
婆罗洲 4
婚前 4
婚姻关系 4
婴儿期 4
婴孩 4
婶婶 4
嫁接 4
子儿 4
子手 4
孔雀@@ 4
存留 4
孤岛 4
孤独@@ 4
学士 4
学学 4
学期@@ 4
学术@@ 4
学派 4
孩@@ 4
孩提 4
孩提时代 4
宇@@ 4
守卫 4
守护 4
安保 4
安养院 4
安吉 4
安抚 4
安睡 4
完全同意 4
完全符合 4
完美无缺 4
宏 4
宗教团体 4
定为 4
定会 4
定型 4
定居点 4
定点 4
宛@@ 4
宜家 4
宜居 4
实业家 4
实习医生 4
实习生 4
实则 4
实际成本 4
实际操作 4
审美观 4
审计 4
审议 4
客户服务 4
客户群 4
客房 4
室内设计 4
宪@@ 4
宫缩 4
害处 4
家具@@ 4
家养 4
家喻户晓 4
家庭计划 4
家用电器 4
家里人 4
家长会 4
容易接受 4
宽敞 4
宾夕法尼亚大学 4
宿醉 4
寄居 4
寄生物 4
密不可分 4
密切关系 4
密布 4
密谋 4
富强 4
寒流 4
察@@ 4
寮 4
对决 4
对受 4
对外开放 4
对外部 4
对峙 4
对话框 4
寺 4
寻 4
寻回 4
寻找机会 4
导者 4
尊为 4
尊崇 4
小些 4
小件 4
小作坊 4
小儿麻痹 4
小兵 4
小城镇 4
小女儿 4
小字 4
小宝宝 4
小室 4
小山 4
小巷 4
小心谨慎 4
小指 4
小数点 4
小洞 4
小王子 4
小红 4
小绿@@ 4
小草 4
小虫子 4
小袋 4
小钱 4
小麻烦 4
少年@@ 4
少生 4
少花 4
少部分 4
尔克 4
尔多 4
尔巴 4
尖端技术 4
尤卡@@ 4
就会用 4
就可以看 4
就绪 4
就诊 4
尼克斯 4
尼哥罗 4
尼法 4
尼瓦尔 4
尼赫鲁 4
尽其所能 4
尽力@@ 4
尽己 4
尽责 4
尽量减少 4
尽量避免 4
局域网 4
局部@@ 4
层上 4
层叠 4
层高 4
居家 4
屈 4
屋内 4
展示@@ 4
展览@@ 4
履@@ 4
山猫 4
岁时 4
岩洞 4
岳母 4
崇拜者 4
州政府 4
巡逻@@ 4
工人员 4
工人阶级 4
工具栏 4
工地 4
左上方 4
左右@@ 4
巧在 4
巫术 4
差事 4
己醇 4
巴尔干半岛 4
巴尔的摩 4
巴布 4
巴拉 4
巴胡 4
巾 4
市场推广 4
市集 4
布伦 4
布兰 4
布朗运动 4
布瑞林 4
布罗 4
布赖特 4
布里 4
布里斯托尔 4
布隆迪 4
帅@@ 4
帆布 4
帆布@@ 4
师傅 4
希娜 4
希托邦 4
希望@@ 4
希里 4
帕卡德 4
帕尔 4
帕特 4
帕特里克 4
帕金森氏 4
帖子 4
带出 4
带回去 4
带状 4
带电粒子 4
帮上 4
帮不了 4
常会 4
常听到 4
常现象 4
常见病 4
常规@@ 4
幕前 4
干些 4
干洗店 4
干道 4
平均工资 4
平整 4
平板电视 4
平民化 4
平淡 4
平等@@ 4
平行四边形 4
平面图 4
平顺 4
年产 4
年华 4
年少时 4
年期 4
年薪 4
年迈 4
年龄组 4
并不聪明 4
并肩作战 4
幸 4
幸免 4
幸免于难 4
幼年时期 4
幽浮 4
广受 4
广告行业 4
广播@@ 4
广泛应用 4
庄严 4
庄重 4
序曲 4
库克 4
库拉 4
应尽 4
应答 4
应聘 4
店面 4
废奴 4
废水处理 4
度假@@ 4
度数 4
度角 4
康乐 4
康奈@@ 4
康托 4
康拉德 4
康纳@@ 4
延绵 4
廷@@ 4
建树 4
建筑学家 4
建设@@ 4
开上 4
开了个 4
开发人员 4
开合 4
开学 4
开拓者 4
开药 4
开进 4
异形 4
异类 4
弃儿 4
弄个 4
弄懂 4
弊@@ 4
引起@@ 4
弗瑞 4
弗里亚 4
弗雷 4
弗雷德里克 4
张嘴 4
张望 4
张照 4
张网 4
弥漫着 4
弧线 4
弯曲@@ 4
弹出式 4
弹子 4
强制执行 4
强势 4
强而有力 4
归入 4
归因于 4
归结 4
归结到 4
当今社会 4
当心 4
当是 4
当权者 4
当水 4
当门 4
录相 4
形态各异 4
形而上学 4
彩排 4
彩画 4
彬@@ 4
影城 4
影射 4
彻夜@@ 4
彼得@@ 4
往上 4
往南 4
往好 4
征 4
征得 4
很多@@ 4
很妙 4
很惨 4
很浓 4
很贵 4
很赞 4
徒手 4
得救 4
循 4
微博上 4
微控制器 4
微波炉 4
微管 4
微软公司 4
德勒 4
德文 4
德普 4
德曼 4
德温 4
德里克 4
心机 4
心照不宣 4
心知肚明 4
心神@@ 4
心胸 4
必修 4
必死无疑 4
必然结果 4
必胜 4
忆@@ 4
忌惮 4
忏悔 4
忠诚度 4
快些 4
快捷 4
快照 4
忽悠 4
忽略不计 4
怎么弄 4
思念 4
思想意识 4
思潮 4
急切需要 4
急救室 4
性传播 4
性别差异 4
性奴隶 4
性手枪 4
性趣 4
怨 4
总机 4
恃强@@ 4
恐惧心理 4
恒 4
恒河 4
恒温@@ 4
恢复力 4
恨@@ 4
恨不得 4
恩戈奇 4
恩特 4
恰如其分 4
恼怒 4
悄@@ 4
悄悄地 4
悄悄话 4
悉 4
悔@@ 4
悟@@ 4
患癌 4
您好 4
悬臂 4
悲惨@@ 4
悼@@ 4
情势 4
情怀 4
情感@@ 4
情理 4
情趣 4
惊呼 4
惊天动地 4
惊心动魄 4
惟一 4
惠及 4
惬意 4
惯@@ 4
想不通 4
想尽 4
想用 4
想试 4
想造 4
惴@@ 4
惹恼 4
愈演愈烈 4
意为 4
意即 4
意向 4
意味@@ 4
意境 4
意外事故 4
意式 4
意识@@ 4
愚笨 4
感人@@ 4
感光@@ 4
感到痛苦 4
感情@@ 4
感染性 4
感观 4
感觉得到 4
感谢@@ 4
愤 4
愧 4
慈祥 4
慕 4
慢镜头 4
慧@@ 4
慰 4
慷慨激昂 4
懦夫 4
戈尔巴乔夫 4
戈尔迪 4
成小 4
成年@@ 4
成批 4
我为 4
我办 4
我弹 4
我录 4
我得@@ 4
我怕 4
我点 4
我爱@@ 4
我离 4
我秀 4
我算 4
我装 4
我觉 4
我记 4
我输 4
我醒 4
或用 4
战事 4
战前 4
战友 4
战壕 4
战机 4
截屏 4
戳@@ 4
戴面纱 4
房产 4
房价 4
所住 4
所爱 4
所画 4
扁平 4
手指头 4
手握着 4
手摇 4
手机短信 4
手铐 4
才气 4
扎进 4
扑克 4
扑面而来 4
打个招呼 4
打击乐 4
打喷嚏 4
打坐 4
打滑 4
打理 4
打赢 4
打过 4
打雷 4
扔给 4
托尼@@ 4
托盘 4
扣动 4
扣除 4
执掌 4
执法 4
扫兴 4
扫描@@ 4
扭 4
扰动 4
扶植 4
批发@@ 4
批评者 4
找些 4
找寻@@ 4
承载@@ 4
技术创新 4
把玩 4
把酒 4
抑@@ 4
抒情 4
抓起 4
投在 4
投票箱 4
抗抑郁剂 4
抗菌 4
折法 4
抛物 4
抢占 4
抢走 4
护唇膏 4
报业 4
报警器 4
披 4
抵抗性 4
抹杀 4
押@@ 4
抽水 4
抽走 4
拆毁 4
拉丁 4
拉上来 4
拉下 4
拉什 4
拉到 4
拉力 4
拉威尔 4
拉托 4
拉拢 4
拉格 4
拉瓦 4
拉蒙 4
拉贾斯坦邦 4
拍个 4
拍张 4
拍成电影 4
拍摄者 4
拒 4
拒绝@@ 4
拓@@ 4
拓宽 4
拓扑 4
拔下来 4
拔出 4
拔地而起 4
拖走 4
拙@@ 4
招待会 4
拥@@ 4
拦@@ 4
括@@ 4
拱@@ 4
拳 4
拼图游戏 4
拼错 4
拾 4
拾荒者 4
拿个 4
拿给 4
持着 4
持续@@ 4
指代 4
指弹 4
指挥部 4
指点 4
按到 4
按摩@@ 4
挑出来 4
挑战赛 4
挑起 4
挖个 4
挣到 4
挣点 4
挤进 4
挥之不去 4
挨个 4
挪威人 4
挪开 4
挺难 4
挽歌 4
捂住 4
捅 4
损耗 4
换乘 4
换句话 4
据点 4
捷 4
掌上 4
掌理 4
掏@@ 4
排便 4
排量 4
掠过 4
探戈 4
探测仪 4
探路者 4
接吻 4
接点 4
接着就是 4
接线员 4
接线盒 4
推入 4
推进剂 4
掩护 4
掩蔽 4
措辞 4
掺杂 4
揉@@ 4
提了 4
提供援助 4
提防 4
插件 4
插手 4
插页 4
握紧 4
揣 4
揭秘 4
揭穿 4
搅动 4
搜救 4
搜罗 4
搞个 4
搞乱 4
搞混 4
搞破坏 4
搬出 4
搬出来 4
携 4
摄入量 4
摄影家 4
摇摇 4
摈弃 4
摊@@ 4
摊子 4
摔下来 4
摘录 4
摘掉 4
摘要 4
摘除 4
摩尔多瓦 4
撒迦 4
撞击力 4
撞坏 4
撞毁 4
撞进 4
撤消 4
撩@@ 4
撬@@ 4
撬动 4
播放@@ 4
操作手册 4
攀 4
支原体 4
支持@@ 4
收益率 4
收视率 4
改名 4
改正 4
攻陷 4
放下去 4
放假 4
放在@@ 4
放大器 4
放好 4
放射学 4
放射治疗 4
放射状 4
放映室 4
放满 4
放糖 4
放进来 4
政治学家 4
政治性 4
政治权利 4
政治立场 4
故事情节 4
敌手 4
敏@@ 4
敏感话题 4
救人 4
救生圈 4
教人 4
教学大纲 4
教它 4
教师@@ 4
教科文组织 4
敢@@ 4
敢死队 4
数到 4
数十亿美元 4
数千万 4
数千名 4
数天 4
数学原理 4
数学计算 4
数据处理 4
数百万个 4
数百万美元 4
数百人 4
数百英里 4
整容手术 4
整形@@ 4
整本书 4
整装待发 4
整顿 4
整齐@@ 4
文不值 4
文件系统 4
文化差异 4
文字@@ 4
文物@@ 4
文稿 4
斐@@ 4
斑驳 4
斗篷 4
斜 4
斟酌 4
斤@@ 4
斥@@ 4
断掉 4
断路器 4
斯克 4
斯博士 4
斯塔 4
斯宾诺莎 4
斯巴@@ 4
斯文 4
斯洛 4
斯瓦@@ 4
斯皮尔伯格 4
斯维尔 4
斯里 4
新一轮 4
新开 4
新手 4
新斯科@@ 4
新月形 4
新潮 4
新理念 4
新生@@ 4
新近 4
新途径 4
新郎 4
新闻业 4
新闻界 4
施力 4
施教 4
施瓦辛格 4
旅店 4
旅游景点 4
旗鱼 4
无一@@ 4
无人机 4
无几 4
无可奉告 4
无名@@ 4
无处 4
无处@@ 4
无完@@ 4
无异 4
无形资产 4
无懈可击 4
无损 4
无数种 4
无望 4
无穷大 4
无章 4
无线通讯 4
无缺 4
无言以对 4
无路 4
无际 4
无限@@ 4
日常用语 4
日新月异 4
日语@@ 4
旦@@ 4
旧约 4
早些 4
早早 4
早该 4
时代华纳 4
时代性 4
时侯 4
时尚@@ 4
时效 4
时机@@ 4
时用 4
时能 4
时装业 4
时间尺度 4
旷 4
旺@@ 4
昂@@ 4
昂山 4
昆 4
昆汀 4
明斯基 4
明斯特 4
明智之举 4
明目张胆 4
昏 4
易事 4
易变 4
易感性 4
易物 4
星宿 4
星期三 4
星期日 4
昨@@ 4
昨天晚上 4
显卡 4
晃动 4
晃来晃去 4
晚间 4
晨@@ 4
普什图 4
普及@@ 4
普罗米修斯 4
普遍认为 4
普锐斯 4
普鲁@@ 4
晶体学 4
智库 4
智能@@ 4
智能化 4
暂缓 4
暗室 4
暗暗 4
暗杀 4
暗自 4
暮光 4
暴民 4
暴涨 4
曰 4
曲影症 4
更多 4
更多@@ 4
更是如此 4
更棒 4
更重 4
曼特 4
曼语 4
曾孙 4
替代@@ 4
替换成 4
最多能 4
最常 4
最高层 4
月光 4
月底 4
有利可图 4
有助 4
有声 4
有失 4
有家 4
有性 4
有悖 4
有无 4
有枪 4
有生以来 4
有电 4
服于 4
服务商 4
朗斯 4
望而却步 4
朝圣者 4
朝鲜@@ 4
期权 4
期许 4
期限 4
朦胧 4
木乃伊 4
木偶@@ 4
木琴 4
木雕 4
未婚 4
未经@@ 4
未记 4
末日 4
本世纪末 4
术@@ 4
朴实 4
机械工程 4
机组 4
杀人@@ 4
杀人犯 4
杂乱@@ 4
杂志社 4
权威人士 4
权重 4
李四 4
李奥@@ 4
杏@@ 4
杜绝 4
杞人忧天 4
条形码 4
条文 4
来世 4
来建 4
来教 4
来种 4
来访 4
来谈 4
杰佛@@ 4
杰拉德 4
杰瑞 4
杰里米 4
极客 4
构型 4
枕 4
林斯基 4
林肯@@ 4
果冻 4
果酱 4
枪杀 4
枪炮 4
柏油 4
某一方面 4
某地 4
某次 4
柚@@ 4
查到 4
查斯丁 4
查普曼 4
查查 4
标度 4
标新立异 4
栏杆 4
栏目 4
树皮 4
栖@@ 4
栖身 4
栗 4
栗@@ 4
校车 4
校队 4
株@@ 4
样机 4
样板房 4
样样 4
核反应 4
核子@@ 4
核桃 4
核裂变 4
根结 4
格兰 4
格利 4
格力 4
格拉斯 4
格朗 4
格林@@ 4
格林威治 4
格纳 4
格罗@@ 4
格莱美奖 4
格里菲斯 4
格鲁@@ 4
格鲁吉亚 4
桂林 4
桑尼 4
桑蒂@@ 4
桔@@ 4
桔子 4
梅尔彻 4
梅雷 4
梗死 4
梦中 4
梦寐以求 4
梦幻@@ 4
梦想@@ 4
梦游 4
梦见 4
梦里 4
梨 4
检查一下 4
棉花@@ 4
森岛 4
棺材 4
植入@@ 4
植物学 4
椒@@ 4
椭圆 4
楔@@ 4
楼板 4
概括@@ 4
榜@@ 4
榜单 4
槽@@ 4
模仿@@ 4
模版 4
横截面 4
横空出世 4
橘子 4
橡皮 4
橡胶@@ 4
檀@@ 4
次品 4
次级 4
欢呼雀跃 4
欢喜 4
欧亚 4
欲求 4
款待 4
歇@@ 4
歇斯底里 4
歉 4
歌中 4
歌唱家 4
歌唱者 4
正住 4
正午 4
正对着 4
正当@@ 4
正有 4
正相反 4
正站 4
正经事 4
正试 4
正题 4
此书 4
此生 4
此道 4
此项工作 4
步入正轨 4
步枪 4
歧义 4
歪@@ 4
死光 4
死前 4
死记硬背 4
殃 4
殊@@ 4
残存 4
残缺 4
殖民@@ 4
毁@@ 4
母乳 4
母乳喂养 4
每一分 4
每一刻 4
每人每年 4
每分 4
每到 4
每棵 4
每童 4
毒液 4
毒蛇 4
比例@@ 4
比做 4
比哈尔 4
比目鱼 4
比较慢 4
毕 4
毗 4
毛收入 4
毛毯 4
毛线 4
毛茸茸 4
毛钱 4
毫不费力 4
氏族 4
民族@@ 4
民间@@ 4
民防 4
气穴 4
气象局 4
氟@@ 4
氢链 4
氢键 4
氧化物 4
氯化@@ 4
水利 4
水到渠成 4
水区 4
水压 4
水坝 4
水屋 4
水彩画 4
水星 4
水机 4
水果@@ 4
水泡 4
水深 4
水灾 4
水熊虫 4
水牛城 4
水生动物 4
水稻 4
水花 4
永无止境 4
永远都是 4
求职 4
汇 4
汇率 4
汇编 4
汉伯特 4
汉密尔顿 4
汉语 4
汞 4
污染@@ 4
汤玛斯 4
汽车业 4
汽车旅馆 4
沃什 4
沃兹 4
沉沉 4
沉醉@@ 4
沉默@@ 4
沙沙 4
沙王 4
沙石 4
沙龙 4
没动 4
没得 4
没戏 4
没说 4
没道理 4
没钱 4
油然而生 4
油箱 4
沿海地区 4
沿途 4
泊@@ 4
法兰西 4
法师 4
法拉第 4
法来 4
法特 4
法默 4
泡沫塑料 4
波利尼西亚 4
波利斯 4
波拉 4
波色 4
泥巴 4
泥沙 4
注满 4
注解 4
注释 4
泰尔 4
泰格 4
泰米尔语 4
泳衣 4
泻 4
泻@@ 4
洋娃娃 4
洗净 4
洗涤 4
洗牌 4
洛克希德 4
洛基 4
洛子峰 4
洞窟 4
洪流 4
洲际 4
活到老 4
活动@@ 4
活多久 4
活火山 4
活物 4
活跃分子 4
活过 4
派克 4
派别 4
流到 4
流动@@ 4
流动率 4
流浪@@ 4
流畅@@ 4
流纹岩 4
浅海 4
浅蓝 4
浅薄 4
浆果 4
测试版 4
测量仪 4
浑身@@ 4
浓咖啡 4
浦 4
浦那 4
浪费资源 4
浮在 4
海下 4
海产 4
海伍德 4
海带 4
海滨 4
海王星 4
海芋 4
海蒂 4
海象 4
海鞘 4
海鸟 4
海默 4
浸入 4
浸没 4
涂写 4
涂抹 4
消减 4
消化系统 4
消解 4
消费量 4
涉@@ 4
涌来 4
涟漪 4
涡轮机 4
涤@@ 4
淋 4
淋@@ 4
淋巴@@ 4
淋漓 4
淘气 4
淡出 4
淡淡的 4
深入@@ 4
深化 4
深有@@ 4
深爱 4
深爱着 4
深空 4
深蓝色 4
深达 4
混战 4
清扫 4
清晰度 4
清清楚楚 4
清醒过来 4
渊源 4
渍 4
渔人 4
渔村 4
渣@@ 4
渴 4
游刃有余 4
游到 4
游来游去 4
游泳裤 4
游离 4
游过去 4
湖中 4
湖底 4
湖面 4
湿婆 4
溃@@ 4
源源不绝 4
溜溜 4
溜走 4
溺@@ 4
溺死 4
满月 4
满满的 4
满载 4
滩@@ 4
滴血 4
漂到 4
漂在 4
演化@@ 4
演奏台 4
演讲@@ 4
演讲会 4
潘多拉 4
潦@@ 4
激 4
激怒 4
激荡 4
濒@@ 4
灌 4
灌溉@@ 4
灌输式 4
火光 4
火力 4
火烧 4
火线 4
灭掉 4
灯亮了 4
灯火通明 4
灵媒 4
灵敏度 4
灵顿 4
炉子 4
炊事 4
炫 4
炭黑 4
炸死 4
点数 4
点着 4
炼金术士 4
烙印 4
烛@@ 4
烤面包 4
烦心 4
烦扰 4
烧饭 4
烫@@ 4
热切 4
热平衡 4
热度 4
热恋 4
热情@@ 4
热烈@@ 4
热病 4
热线 4
热诚 4
烹@@ 4
焚毁 4
焦化 4
焦虑@@ 4
焰 4
焰@@ 4
然大@@ 4
然无@@ 4
煎 4
煎熬 4
煤气 4
煤烟 4
照抄 4
照明设计 4
煮食 4
熊蜂 4
熔@@ 4
熟练掌握 4
熟能@@ 4
熨斗 4
熬夜 4
爆炸事件 4
爆炸性 4
爆炸物 4
爆米花 4
爪@@ 4
爱尔兰共和军 4
爱恋 4
爱戴 4
爱抚 4
爱斯基摩 4
爱死 4
爱玩 4
爱荷华州 4
爱车 4
爱达荷州 4
爵士@@ 4
片机 4
片面 4
牙龈 4
牛叉 4
牢牢地 4
牦牛 4
牵引 4
牵强 4
特别强调 4
特地 4
特大 4
特技表演 4
特殊@@ 4
特殊化 4
特蕾莎 4
犁@@ 4
犯了@@ 4
犯过 4
狂潮 4
狂野 4
独享 4
独家 4
独断 4
独立宣言 4
独立性 4
独轮车 4
狭@@ 4
狱长 4
猎取 4
猜词 4
猬 4
猴面包树 4
率先 4
玉米棒 4
王妃 4
玩具@@ 4
玩弄 4
环境污染 4
环氧树脂 4
环游 4
环菌 4
现代医学 4
现场@@ 4
现实情况 4
玻利维亚 4
玻璃杯 4
玻璃瓶 4
玻璃纤维 4
珉 4
珊瑚@@ 4
珍藏 4
珍重 4
班人 4
球门 4
球面 4
理事会 4
理学 4
理学家 4
理性主义 4
理论物理 4
琥珀 4
琴弦 4
瑞士@@ 4
瑟瑟 4
瓦非 4
甄选 4
甘氨酸 4
甘蓝 4
甘蔗 4
甘蔗渣 4
甚微 4
甜度 4
生下 4
生产率 4
生出 4
生存能力 4
生态平衡 4
生意@@ 4
生意人 4
生日快乐 4
生日礼物 4
生植物 4
生死@@ 4
生活空间 4
生活资料 4
生物武器 4
生物科学 4
生物课 4
生生@@ 4
生长因子 4
用人 4
用做 4
用得着 4
用户名 4
用火 4
甩@@ 4
甩动 4
由人 4
由来已久 4
甲壳类 4
申诉 4
电信公司 4
电冰箱 4
电力@@ 4
电力供应 4
电力公司 4
电动@@ 4
电子表格 4
电影业 4
电疗 4
电磁脉冲 4
电脑桌面 4
电脑病毒 4
电锯 4
男一女 4
画质 4
画里 4
畔 4
留出 4
留到 4
略有 4
番@@ 4
疆 4
疏散 4
疑似 4
疣 4
疤 4
疮@@ 4
疹@@ 4
痛打 4
痰 4
痴@@ 4
痴呆 4
痴呆症 4
癌@@ 4
癫@@ 4
登记处 4
白杨 4
白石 4
白种 4
白虎 4
白质 4
白边 4
白马 4
白鸽 4
百万只 4
百万英镑 4
百分之七十五 4
百分之六 4
百分之十五 4
百吉饼 4
百岁老人 4
百年@@ 4
百货 4
的人 4
皆知 4
皇室 4
皇帝 4
皈依 4
皮亚 4
皮纸 4
皮艇 4
皮质醇 4
皱 4
盈@@ 4
盖上 4
盖亚 4
盖罗 4
盘算着 4
盛开 4
盛装 4
盟国 4
目瞪口呆 4
盲点 4
盲童 4
直径约 4
直接@@ 4
直系 4
直肠 4
直角 4
直言 4
直说 4
相互之间 4
相互依赖 4
相互竞争 4
相册 4
相冲突 4
相去@@ 4
相同之处 4
相同点 4
相吻合 4
相对而言 4
相当@@ 4
相当可观 4
相形见绌 4
相待 4
相投 4
相距甚远 4
相连接 4
盼 4
省掉 4
看不出来 4
看守@@ 4
真不@@ 4
真实@@ 4
真没想到 4
真爱 4
真知@@ 4
真空泵 4
真诚地 4
真话 4
真该 4
眠@@ 4
眨@@ 4
眩 4
眼儿 4
眼睑 4
眼科医院 4
着色 4
睁眼 4
睡袋 4
睫毛 4
睬 4
睹 4
瞥 4
瞥见 4
矛盾@@ 4
矢量 4
矩形 4
短命 4
短篇 4
短路 4
石柱 4
石棉 4
石油业 4
石油化学 4
矿业 4
矿区 4
砂眼 4
砍倒 4
研 4
研磨 4
砖混 4
破败 4
确切的说 4
硼烷 4
碉堡 4
碍@@ 4
碑@@ 4
碟@@ 4
碧@@ 4
碧翠丝 4
碰壁 4
碳汇 4
磁通量 4
磕 4
磨牙 4
社会底层 4
社会心理学 4
社区服务 4
祝你好运 4
神仙 4
神学 4
神童 4
神经科 4
神经节 4
神论 4
神论者 4
神魂颠倒 4
神龟 4
祥@@ 4
票价 4
祭 4
禁令 4
禁捕 4
禁止@@ 4
禅@@ 4
福尔 4
福尔@@ 4
福气 4
福特公司 4
离家出走 4
离散 4
私 4
私人化 4
秆 4
秋千 4
种植者 4
种菜 4
科伦@@ 4
科学依据 4
科学性 4
科幻电影 4
科技人员 4
科技成果 4
科研@@ 4
科研人员 4
科研工作 4
科罗拉多 4
科达 4
秒@@ 4
秒表 4
租来 4
租给 4
租车 4
称职 4
称重 4
称量 4
移交 4
稀 4
稀稠 4
稀缺@@ 4
稀薄 4
程序代码 4
税前 4
税后 4
税收收入 4
税率 4
稳定@@ 4
稻田 4
稿件 4
穆加贝 4
穆尔 4
穆拉 4
穆萨维 4
空中交通 4
空位 4
空想 4
空投 4
空格 4
空空如也 4
穿孔 4
穿插 4
穿鞋 4
突发@@ 4
突变率 4
突显 4
窃 4
窥 4
立方 4
立方米 4
立法@@ 4
立面 4
站不住脚 4
站得住脚 4
章法 4
童年期 4
端口 4
竿 4
笃 4
笃@@ 4
笔头 4
笔迹 4
笛手 4
符@@ 4
第一印象 4
第一节 4
第一道 4
第一项 4
第三年 4
第三纪 4
第二届 4
第二张 4
第二组 4
第二语言 4
第五件 4
第五天 4
第五次 4
第六天 4
第四层 4
等于零 4
等级制度 4
答题 4
筹 4
签上 4
算作 4
算数 4
算计 4
算进去 4
管弦乐 4
管理制度 4
管理层 4
管理系统 4
管辖权 4
簇@@ 4
米尔顿 4
米开朗@@ 4
米洛@@ 4
粉饰 4
粗细 4
粘到 4
粘稠 4
粮仓 4
精准度 4
精力旺盛 4
精心设计 4
精疲力尽 4
糊状 4
糕@@ 4
糖份 4
糗 4
糟糕透顶 4
系中 4
系亲属 4
素不相识 4
素季 4
索科@@ 4
索罗斯 4
索诺 4
紧密结合 4
紧抓 4
紧要 4
紧身 4
紧身衣 4
紧随其后 4
紫外光 4
紫杉 4
累月 4
繁冗 4
繁华 4
繁荣昌盛 4
红薯 4
纤细 4
约什 4
约翰内斯堡 4
纪 4
纪元 4
纬 4
纯属 4
纲 4
纳博科 4
纳德@@ 4
纳特 4
纳米管 4
纳粹主义 4
纷繁 4
纷繁复杂 4
纺织@@ 4
纺织业 4
纽曼 4
纽约城 4
纽约港 4
线下 4
线形 4
线条图 4
线缆 4
练习@@ 4
组合成 4
组合而成 4
组和 4
组织性 4
细微差别 4
细看 4
细胞体 4
细胞培养 4
织出 4
织布 4
终结者 4
绊倒 4
绊脚石 4
经济总量 4
经济援助 4
经济收益 4
经济社会 4
经济负担 4
结了婚 4
结婚@@ 4
结婚戒指 4
结账 4
绕圈 4
绕过去 4
给人以 4
绚丽 4
络 4
绝不能 4
绝伦 4
绝版 4
绝缘 4
绝缘体 4
绝路 4
绞尽脑汁 4
统一@@ 4
统一性 4
统一教 4
统计表 4
维什 4
维持@@ 4
维生 4
维芬 4
维达 4
绷紧 4
绸@@ 4
绿化带 4
绿碳 4
绿色植物 4
缅@@ 4
缆绳 4
缓冲 4
缓和 4
缔造者 4
编成 4
编纂@@ 4
编舞 4
编译 4
缘由 4
缝制 4
缝纫机 4
缩 4
缩水 4
缩略语 4
缴@@ 4
缺乏症 4
网球场 4
网络化 4
网络连接 4
罗切 4
罗塞@@ 4
罗宾逊 4
罗德里格斯 4
罗拉 4
罗摩@@ 4
罗斯冰 4
罗曼 4
罗穆 4
罗萨 4
罗马城 4
罚金 4
罢@@ 4
置之不理 4
置身其中 4
羊水 4
美亚 4
美味@@ 4
美国参议院 4
美国式 4
美国电影协会 4
美术@@ 4
美联社 4
美莎 4
美食@@ 4
羞怯 4
翘@@ 4
翠@@ 4
翠贝卡 4
翰@@ 4
翻了一番 4
翻拍 4
翻新 4
翻番 4
翻遍 4
耀着 4
老人家 4
老家伙 4
老年学 4
老死 4
老话 4
老鼠@@ 4
老龄 4
考试@@ 4
耆那教 4
而能 4
而至 4
耐克鞋 4
耐药性 4
耗油 4
耗用 4
耳熟 4
耳聋 4
耳鸣 4
耻 4
耻@@ 4
耽搁 4
耽误 4
耿@@ 4
聊一聊 4
聋人 4
职工 4
职权 4
联合国儿童基金会 4
联合行动 4
联接 4
联系方式 4
聚乙烯 4
聚居 4
聚居地 4
聚氯乙烯 4
聪@@ 4
聪慧 4
肉食动物 4
肋 4
肌瘤 4
肌肉组织 4
肖像画 4
股价 4
股份 4
股票价格 4
股骨 4
肢解 4
肤 4
肥皂泡 4
育出 4
肺腑 4
肺里 4
肿瘤学 4
胀@@ 4
背对着 4
背景音乐 4
背离 4
背诵 4
胖子 4
胜地 4
胜诉 4
胞@@ 4
胡安得森 4
胶原 4
胶合板 4
胸肌 4
能令 4
能源部长 4
能长 4
脂肪@@ 4
脊@@ 4
脑回 4
脑残 4
脑瘤 4
脑袋瓜 4
脚尖 4
脚类 4
脚踏@@ 4
脚踏实地 4
脚踝 4
脱口而出 4
脱氧@@ 4
脱水 4
脱贫 4
脸皮 4
脸蛋 4
腐化 4
腐蚀性 4
腮 4
腹地 4
腿骨 4
膜拜 4
膺 4
臃肿 4
自个儿 4
自主权 4
自信心 4
自卑 4
自卫 4
自嘲 4
自夸 4
自学成才 4
自尊心 4
自强不息 4
自成@@ 4
自我陶醉 4
自欺欺人 4
自治@@ 4
自然生态 4
自由贸易 4
自知 4
自若 4
自行车赛 4
自重 4
自食@@ 4
臭虫 4
至上而下 4
致密 4
致意 4
致谢 4
致辞 4
舍温 4
舒尔茨 4
舒适性 4
舔 4
舞曲 4
舞蹈团 4
航机 4
航母 4
航海家 4
航程 4
航空学 4
航空母舰 4
航空航天 4
舰 4
舰@@ 4
舵@@ 4
船舶 4
船队 4
良多 4
良方 4
艰险 4
色彩@@ 4
色盲 4
艺术创作 4
艾丽@@ 4
艾利克 4
艾德 4
艾玛@@ 4
节俭 4
芒@@ 4
芬芳 4
芭蕾@@ 4
芯 4
花到 4
花粉囊 4
花粉热 4
花纹 4
花花公子 4
花边 4
芳纶 4
芳香化 4
苏士侃 4
苏非派 4
苗 4
苟@@ 4
若斯 4
若能 4
若要 4
苦心 4
苯乙烯 4
英国首相 4
英文单词 4
英明 4
英语老师 4
英语课 4
英雄人物 4
苹果@@ 4
茁壮 4
茄 4
茎 4
茫 4
草叶 4
草皮 4
草类 4
草药 4
荐 4
荒诞 4
荡漾 4
荧幕 4
药剂师 4
药用 4
药都 4
荼@@ 4
莓 4
莫哈@@ 4
莫斯 4
莫测 4
莫里斯 4
莱尼 4
莱布尼@@ 4
莱昂 4
莱昂纳多 4
莱曼 4
菜式 4
菜花 4
菠@@ 4
菱形 4
菲利普斯 4
菲尔铁塔 4
菲舍尔 4
萃 4
萎@@ 4
营业额 4
萨利纳斯 4
萨奇 4
萨姆 4
萨斯 4
萨根 4
萨科@@ 4
萨马 4
葡萄牙语 4
蒂斯 4
蒙在鼓里 4
蒙特利 4
蒲@@ 4
蒲柏 4
蒸发@@ 4
蒸蒸日上 4
蒸馏 4
蒿 4
蓄 4
蓝绿色 4
蓬勃 4
蔗@@ 4
蔚蓝 4
蔡 4
蔽 4
蕨@@ 4
蕾@@ 4
薄雾 4
薪资 4
薪酬 4
藉 4
藤线 4
蘸 4
虚张声势 4
虫类 4
虾场 4
蚕@@ 4
蛤蜊 4
蛮力 4
蝗虫 4
蝶@@ 4
螈 4
融汇 4
螯@@ 4
螺 4
螺旋@@ 4
蟹肉 4
血流量 4
血肉@@ 4
行动者 4
行当 4
行装 4
行话 4
行销 4
行骗 4
衣夹 4
衣橱 4
衣着 4
补习 4
表现手法 4
表相 4
表达@@ 4
表面@@ 4
衬 4
被关 4
被盗 4
被绑 4
袭@@ 4
裂变物质 4
装入 4
装点 4
裘@@ 4
裙@@ 4
裤@@ 4
裸 4
褒@@ 4
西区 4
西半球 4
西奈 4
西奥 4
西德@@ 4
西方式 4
西班牙@@ 4
西蒙@@ 4
西门子 4
要建 4
要教 4
要钱 4
覆辙 4
见血 4
观众群 4
观光 4
观察员 4
规章制度 4
视听 4
视觉皮质 4
视频剪辑 4
觉得惊奇 4
解剖学家 4
解救 4
解锁 4
言不@@ 4
誓 4
警察@@ 4
计划@@ 4
计画 4
计算方法 4
计算机化 4
计算机所 4
计算机辅助 4
计算机领域 4
计较 4
订书@@ 4
认不出来 4
认同感 4
认知科学 4
认认真真 4
认识一下 4
让@@ 4
让玩家 4
训 4
训斥 4
议会@@ 4
议论 4
议院 4
讯科技 4
记不得 4
记事本 4
记分@@ 4
记录@@ 4
记忆体 4
记牌 4
记笔记 4
记者会 4
讶@@ 4
论调 4
论辩 4
设有 4
访问者 4
评定 4
评测 4
识别性 4
诈骗 4
诉诸 4
诋毁 4
词汇量 4
试剂 4
诗社 4
诗词 4
话虽如此 4
该地 4
详细信息 4
详细资料 4
详述 4
语系 4
诱@@ 4
诱惑@@ 4
说不@@ 4
说客 4
说得对 4
说明书 4
说是 4
说辞 4
请举 4
请勿 4
诺尔 4
诺德 4
诺斯 4
读一读 4
读者@@ 4
课外@@ 4
调查员 4
调查者 4
谋杀@@ 4
谎@@ 4
谎者 4
谐@@ 4
谜@@ 4
谢拉 4
谨 4
谨记 4
谷底 4
谷登堡 4
谷类 4
象个 4
象头 4
豪斯 4
豹@@ 4
豹纹 4
贝克@@ 4
贝勒斯 4
贝基 4
贝毒 4
贝聿铭 4
贞@@ 4
负值 4
负有责任 4
负电荷 4
负罪感 4
贡献力量 4
责任@@ 4
责难 4
败仗 4
贩 4
贩子 4
贩毒 4
贫困@@ 4
购物车 4
贴心 4
贵州 4
贵得 4
贵贱 4
贸@@ 4
贸易壁垒 4
费尔德 4
费时 4
费格森 4
费氏 4
贾德 4
贿@@ 4
资金不足 4
赋权 4
赐@@ 4
赖于 4
赛格 4
赛道 4
赞美诗 4
赞赏 4
赤裸裸 4
赦 4
赫曼 4
赫本 4
赫比 4
赫特 4
走了 4
走远 4
起事 4
起司 4
起名叫 4
起手来 4
起跳 4
趁@@ 4
趁着 4
超时 4
超荷 4
超长 4
越低 4
越南语 4
越少 4
越往 4
越长越 4
足智多谋 4
足有 4
跃跃欲试 4
跑遍 4
跑题 4
距离感 4
跟不上 4
跟得上 4
跟踪调查 4
跨入 4
跨部门 4
路亚 4
路可通 4
路易斯安@@ 4
路易斯维尔 4
路牙 4
路由 4
跳伞@@ 4
跳水 4
跳进去 4
跳远 4
跷跷板 4
踏板 4
踢腿 4
踩油门 4
蹄@@ 4
蹦蹦跳跳 4
身体力行 4
身穿 4
车位 4
车厢 4
车头 4
车窗 4
车队 4
转世 4
转座子 4
转机 4
转眼@@ 4
转轴 4
转运 4
轮候 4
轮班 4
轮船 4
软件程序 4
软件设计 4
轻信 4
轻怡 4
轻柔 4
轻视 4
载歌载舞 4
载片 4
较弱 4
较难 4
辈子 4
辉@@ 4
输油@@ 4
输精管 4
辛勤工作 4
辛巴 4
辛苦工作 4
辛辛那提 4
辜负 4
辞典 4
辞掉 4
辟 4
辣酱 4
辨别@@ 4
辨认出来 4
辩护律师 4
辱性 4
边脑 4
达利 4
达州 4
达梅尔 4
达至 4
达蒙 4
迁走 4
迂回 4
迅猛发展 4
过个 4
过会 4
过低 4
过关 4
过夜 4
过早 4
过滤@@ 4
过滤出来 4
过火 4
过用 4
过高 4
迎战 4
运出 4
运动神经元 4
运载火箭 4
近似于 4
近况 4
近在咫尺 4
近年 4
返祖 4
返祖现象 4
还清 4
这三项 4
这代 4
这出 4
这向 4
这株 4
这正 4
这比@@ 4
这瓶 4
这花 4
这词 4
这车 4
这长 4
这面 4
进修 4
进化树 4
进口@@ 4
进屋 4
进度条 4
进退两难 4
远洋 4
远行 4
远足 4
远远@@ 4
远道而来 4
远非 4
远高于 4
违 4
连为一体 4
连接器 4
连环画 4
连续@@ 4
迟早会 4
迪斯@@ 4
迪瓦 4
述@@ 4
迷你@@ 4
迷惑@@ 4
迷阵 4
迸@@ 4
迹斑斑 4
追上 4
追查 4
追着 4
退伍军人 4
退却 4
退去 4
退步 4
退而求其次 4
送命 4
适 4
适度 4
逃课 4
逃逸速度 4
逃难 4
逆时针 4
选个 4
选美 4
透气 4
逐年 4
递交 4
递增 4
這@@ 4
通力合作 4
通勤 4
通晓 4
通电话 4
通达 4
通通 4
逛@@ 4
逻辑思维 4
逻辑性 4
逼近 4
逾@@ 4
遍布整个 4
道光 4
道德规范 4
遗留下 4
遗留问题 4
遛狗 4
遣 4
遣@@ 4
遥不可及 4
遮掩 4
遵 4
遵照 4
邀 4
邓巴 4
那一 4
那利 4
那可真 4
那棵 4
那能 4
那行 4
那要 4
邮局 4
邮政 4
邮车 4
邻居们 4
部曲 4
都还没 4
鄙@@ 4
鄙视 4
配上 4
配额 4
酒窖 4
酣@@ 4
酱@@ 4
酸度 4
酿@@ 4
醋栗 4
醚 4
里加 4
里学 4
里希 4
里教 4
重中之重 4
重奏 4
重归 4
重振 4
重提 4
重播 4
重新分配 4
重点@@ 4
重蹈覆辙 4
重逢 4
重重@@ 4
重重的 4
野性 4
野狗 4
野草 4
野餐 4
量子@@ 4
量级 4
量表 4
金光闪闪 4
金宝 4
金属线 4
金融市场 4
针叶树 4
钓 4
钚 4
钞 4
钢丝@@ 4
钢制 4
钢圈 4
钢琴师 4
钢铁@@ 4
钱买 4
钱财 4
钻个 4
钻井 4
钻孔 4
钻机 4
钻进去 4
铁丝 4
铁丝网 4
铁板 4
铅笔画 4
铜矿 4
铰@@ 4
铺上 4
铺开 4
锈@@ 4
锐 4
错误观念 4
锡瓦 4
锥形 4
锦上添花 4
锻炼身体 4
镁 4
镇子 4
镐 4
镜面 4
镰@@ 4
长凳 4
长生不老 4
长篇大论 4
长股 4
长路 4
长途跋涉 4
门窗 4
门诊 4
问个 4
问个问题 4
闲暇 4
间休息 4
闸@@ 4
闻闻 4
阅读@@ 4
阅读障碍 4
队列 4
防备 4
防守 4
防火 4
防空 4
防腐剂 4
防范措施 4
阳性@@ 4
阳痿 4
阴 4
阶乘 4
阻 4
阻隔 4
阿伯丁 4
阿依达 4
阿兹@@ 4
阿司匹林 4
阿善 4
阿基@@ 4
阿尔夫 4
阿尔巴尼亚 4
阿尔贝托 4
阿斯彭 4
阿格拉 4
阿瓦 4
阿穆尔 4
阿贾克斯 4
附体 4
陆军 4
陆续 4
陋@@ 4
限制@@ 4
限速 4
除以 4
除外 4
陵 4
陶器 4
陶土 4
隆重 4
随机应变 4
随身听 4
随随便便 4
隐杆 4
隐约 4
隔天 4
隔断 4
隔热材料 4
障@@ 4
难听 4
难逃 4
雄伟 4
雄心壮志 4
集合体 4
集思广益 4
集权 4
集者 4
雌鱼 4
雕塑@@ 4
雕琢 4
雨后春笋 4
雪地 4
雪崩 4
雪球 4
零到 4
零点 4
雷尔 4
雷斯 4
雷斯顿 4
雾剂 4
霉菌 4
霍克 4
霍利 4
霍尔@@ 4
霍普金斯大学 4
霍肯 4
霸 4
霸主 4
青蒿素 4
青豆 4
青铜@@ 4
靓丽 4
静物画 4
静默 4
非传统 4
非同@@ 4
非法@@ 4
非洲之角 4
面包房 4
面带@@ 4
面筋 4
革 4
革新者 4
鞋匠 4
鞋底 4
鞭毛 4
音响@@ 4
音轨 4
韵@@ 4
项目@@ 4
顺利@@ 4
顺利进行 4
顺序排列 4
顺手 4
须要 4
须鲸 4
顾名思义 4
顿饭 4
颁@@ 4
颁奖 4
颂@@ 4
预告片 4
预备@@ 4
预防@@ 4
颅顶 4
领悟力 4
领舞 4
颖 4
颗卫星 4
题@@ 4
颜@@ 4
颠簸 4
颤动 4
风中 4
风化 4
风和@@ 4
风干 4
风情 4
风景画 4
风机 4
风病 4
风险@@ 4
飞出 4
飞向 4
飞回 4
飞机制造 4
飞艇 4
飞行速度 4
飞黄腾达 4
食品药品 4
食欲 4
食水 4
食火鸡 4
食草动物 4
餐盘 4
饮酒 4
饶恕 4
馈赠 4
首歌曲 4
首饰 4
香榭丽舍 4
香蕉叶 4
马丘比丘 4
马克吐温 4
马匹 4
马友友 4
马吉德 4
马塞 4
马德里 4
马拉松赛 4
马林 4
马路上 4
马蹄 4
驯 4
驯@@ 4
驯服 4
驱动器 4
驱赶 4
驳@@ 4
驶入 4
驻守 4
骇客 4
验 4
验光师 4
验孕 4
骑单车 4
骨灰 4
骨组织 4
骨质 4
骨髓@@ 4
骨髓移植 4
髋部 4
高举 4
高于一切 4
高产出 4
高亮 4
高到 4
高加索 4
高墙 4
高崖 4
高斯 4
高时 4
高深 4
高登 4
高粱 4
高纬度 4
高薪 4
高速路 4
高频率 4
高额 4
高高@@ 4
魔毯 4
鱼子酱 4
鱼肉 4
鱼钩 4
鱼雷 4
鲁斯@@ 4
鲈鱼 4
鲍 4
鲍伯 4
鲜血 4
鲟鱼 4
鲾 4
鸟巢 4
鸣叫 4
鸭嘴龙 4
鸭龙 4
鹤 4
麦克法 4
麦克阿瑟 4
麦金农 4
麦金塔 4
麻 4
麻布 4
麻醉剂 4
麻醉药 4
黄包车 4
黄点 4
黄瓜 4
黄金时代 4
黄铜 4
黏在 4
黏性 4
黑暗面 4
黑烟 4
黑熊 4
黑豹 4
默罕 4
鼎@@ 4
鼓吹 4
鼓点 4
鼓起 4
鼓面 4
齿状 4
龙神 4
﹕ 4
８ 4
-@@ 3
1.6 3
1917 3
1925 3
2200 3
2300 3
3200 3
3PO 3
50ppm 3
9.@@ 3
999 3
AB 3
AC 3
AS 3
AY 3
Act@@ 3
Ale@@ 3
Art 3
Astr@@ 3
BD 3
Bess@@ 3
Bev@@ 3
Blakley 3
Bos@@ 3
Bour@@ 3
Brilliant 3
Brun@@ 3
Burns 3
Byr@@ 3
CN@@ 3
Carl 3
Carol@@ 3
Char@@ 3
Cle@@ 3
Conn@@ 3
De 3
Derek 3
Dr 3
Drew 3
EE@@ 3
ES@@ 3
Ell@@ 3
Gil@@ 3
GoogleShare 3
HI@@ 3
HT@@ 3
Hay@@ 3
Hob@@ 3
Hock@@ 3
Hur@@ 3
Hy@@ 3
In 3
Inst@@ 3
Int@@ 3
Ip@@ 3
It@@ 3
Jeff@@ 3
Johanna 3
Kamen 3
Krishn@@ 3
Land@@ 3
Lawrence 3
Leah 3
Leg@@ 3
Lov@@ 3
MD 3
Mah@@ 3
May@@ 3
McC@@ 3
McChrystal 3
Med@@ 3
Moriarty 3
Mull@@ 3
Muruganantham 3
NE@@ 3
Nad@@ 3
Neill 3
Net@@ 3
New 3
Nic@@ 3
Nov@@ 3
Oli@@ 3
PDP 3
Penelope 3
Pepper 3
Phot@@ 3
Plan@@ 3
Power@@ 3
PowerPoint 3
Pra@@ 3
Protei 3
Ps@@ 3
RI 3
Rach@@ 3
Radio 3
Rin@@ 3
RoMeLa 3
Robin@@ 3
Sagmeister 3
Sat@@ 3
Sec@@ 3
Serg@@ 3
Sev@@ 3
Sharon 3
Shir@@ 3
Shuff@@ 3
Silver 3
Sistema 3
Sivers 3
Spyfish 3
Stefan 3
Strieber 3
Sud@@ 3
Sy@@ 3
TES 3
Te@@ 3
Tech@@ 3
Tes@@ 3
Theodore 3
Tri@@ 3
Watson 3
Whitley 3
Whole 3
XX 3
Yeah 3
_ 3
ack@@ 3
ads 3
af 3
ams 3
ange 3
ans 3
ardo 3
arre@@ 3
arrett 3
ave 3
ayan@@ 3
back 3
cel 3
chi@@ 3
cym@@ 3
cymatic 3
di 3
ean 3
edman 3
ee@@ 3
elli 3
ena 3
erica 3
ern 3
eu 3
ever 3
fMRI 3
ga 3
gan 3
gh 3
gh@@ 3
gl@@ 3
gre@@ 3
gu@@ 3
hen 3
hhhh@@ 3
ho 3
hone 3
ids 3
im 3
iner 3
ip 3
ission 3
itha 3
ky 3
lass@@ 3
line 3
ly 3
make 3
mun@@ 3
of@@ 3
ogito 3
omen 3
ord@@ 3
orn@@ 3
ound 3
out 3
over 3
own 3
pacak 3
pro@@ 3
rag@@ 3
red 3
rick 3
rid@@ 3
rig@@ 3
right 3
rof@@ 3
ti 3
ube 3
uk 3
ump 3
up@@ 3
uv@@ 3
va@@ 3
when 3
will 3
wor@@ 3
ycho 3
yn 3
ze 3
á 3
ü 3
一丁@@ 3
一不@@ 3
一书中 3
一千倍 3
一听 3
一头雾水 3
一对@@ 3
一户 3
一氧化@@ 3
一片@@ 3
一等 3
一股@@ 3
一言以蔽之 3
一贯 3
一跳 3
一面@@ 3
三块 3
三百年 3
上万个 3
上升@@ 3
上开 3
上街 3
下半@@ 3
下半身 3
下坡 3
下坡路 3
不合@@ 3
不合时宜 3
不外@@ 3
不好玩 3
不如说 3
不明@@ 3
不明飞行物 3
不留 3
不衰 3
不觉 3
不计 3
不难想象 3
与其说 3
专科医生 3
世纪@@ 3
世贸@@ 3
业余@@ 3
业者 3
丛里 3
两地 3
两层楼 3
两面性 3
严肃@@ 3
个月 3
中士 3
中带 3
中年男子 3
中选 3
为所@@ 3
主导@@ 3
乃@@ 3
久而久之 3
之子 3
之巅 3
之理 3
之血 3
乍一看 3
乏 3
乔丹 3
也@@ 3
乡村音乐 3
买通 3
乾@@ 3
了吧 3
事前 3
二世 3
二千 3
二百 3
二者之间 3
于众 3
云霄 3
互动@@ 3
亚格尔 3
亚美@@ 3
些@@ 3
亟@@ 3
交响@@ 3
交媾 3
交涉 3
交道 3
产生@@ 3
亩 3
京@@ 3
亲密@@ 3
人体器官 3
人类@@ 3
人造@@ 3
人际交往 3
亿分 3
亿次 3
仅此@@ 3
从头@@ 3
仓鼠 3
他造 3
付诸@@ 3
仙人掌 3
仙境 3
代代 3
任职 3
伊利诺伊@@ 3
伊迪@@ 3
伏特@@ 3
休斯顿 3
优先@@ 3
优良 3
优越@@ 3
会教 3
会议@@ 3
会输 3
传染@@ 3
伦佐 3
估价 3
伴着 3
佃@@ 3
低声 3
低语 3
佐拉 3
体化 3
体恤衫 3
体积小 3
体重@@ 3
何时@@ 3
作曲@@ 3
佣@@ 3
佩 3
依我看 3
依赖@@ 3
侠 3
侠@@ 3
侮@@ 3
侯@@ 3
便成 3
俄 3
俄亥@@ 3
俏 3
保全 3
保持稳定 3
保留@@ 3
信任@@ 3
信息系统 3
信手拈来 3
俯@@ 3
倦@@ 3
倪 3
值得@@ 3
值得纪念 3
假腿 3
做买卖 3
做人 3
做足 3
停靠 3
偷车 3
傅@@ 3
储 3
催 3
僧 3
允 3
兄@@ 3
兄妹 3
兄弟会 3
先入@@ 3
先要 3
光谱@@ 3
克林 3
兔@@ 3
党@@ 3
入场@@ 3
全国@@ 3
全靠 3
八千万 3
八号 3
公会 3
公司员工 3
公民@@ 3
六倍 3
六岁时 3
关照 3
典@@ 3
内在美 3
册@@ 3
冒险家 3
写得 3
写照 3
农耕 3
冬 3
冬奥会 3
冰岛@@ 3
冲走 3
冷端 3
冷风 3
凄@@ 3
凉鞋 3
凝 3
几内亚 3
几十亿美元 3
几幅 3
出彩 3
出点 3
出走 3
击溃 3
函@@ 3
刀切 3
分之三 3
分泌@@ 3
分辨@@ 3
创世纪 3
刨 3
利安 3
制片@@ 3
刺痛 3
刽@@ 3
剂@@ 3
前年 3
前所未闻 3
力不从心 3
加利福尼亚大学洛杉矶分校 3
加勒@@ 3
加勒比@@ 3
加尔 3
加德满都 3
加拉 3
劣@@ 3
动画@@ 3
动脉@@ 3
动静 3
努力实现 3
勒姆 3
募 3
匈牙利@@ 3
化为@@ 3
化作 3
区内 3
区域@@ 3
医患 3
匿 3
匿@@ 3
十五个 3
十八世纪 3
十六 3
十几@@ 3
十分明确 3
十大 3
千万种 3
卒 3
单单在 3
单在 3
南极@@ 3
博伊@@ 3
博茨@@ 3
占有@@ 3
卡纳塔克邦 3
卡罗来@@ 3
卫队 3
厂@@ 3
压扁 3
原体 3
原始@@ 3
原状 3
厢@@ 3
厨艺 3
参与@@ 3
友邻 3
反比 3
反聚量 3
发出信号 3
发回 3
发展前景 3
发明人 3
发条 3
发现@@ 3
发自@@ 3
发行@@ 3
发表@@ 3
发起@@ 3
发送@@ 3
叔 3
叔伯 3
取个 3
受到@@ 3
受力 3
受洗 3
变形@@ 3
叠层石 3
古人类学家 3
只会用 3
可及 3
可得 3
可真 3
可见@@ 3
右上方 3
叶绿@@ 3
号线 3
号角 3
叹不已 3
合众国 3
合成@@ 3
吉尔@@ 3
同意书 3
名利 3
吐温 3
向右转 3
向外看 3
向量 3
吓跑 3
吕@@ 3
君子 3
吝@@ 3
听不@@ 3
听证会 3
听诊 3
吸吮 3
吻@@ 3
吾@@ 3
呢@@ 3
周折 3
周期@@ 3
呯 3
呵@@ 3
和睦相处 3
和谈 3
咎 3
咎@@ 3
咏 3
咒 3
咔@@ 3
咖@@ 3
咱 3
哀伤 3
哈佛@@ 3
哈利@@ 3
哈弗@@ 3
哒 3
哺 3
唆 3
唇 3
唤@@ 3
唧@@ 3
唬@@ 3
售货机 3
唯我@@ 3
唯物@@ 3
唯物主义 3
啃 3
商用 3
啕@@ 3
啜@@ 3
啬 3
啮@@ 3
啷 3
啸 3
喃 3
喃@@ 3
喇叭@@ 3
喝啤酒 3
喷嘴 3
喹 3
嗅@@ 3
嗓@@ 3
嗜 3
嗪 3
嘉宾 3
嘲@@ 3
嘻 3
噗咻 3
噪@@ 3
噬@@ 3
噼@@ 3
嚎@@ 3
嚓 3
囚 3
四十万 3
四处@@ 3
四张 3
四方 3
回头@@ 3
回收@@ 3
回首往事 3
困在 3
固定@@ 3
国情咨文 3
图像@@ 3
图像处理 3
图册 3
土机 3
土耳其@@ 3
圣诞@@ 3
圣诞礼物 3
在技术上 3
地写 3
地方@@ 3
地玩 3
地震@@ 3
坊 3
坏掉 3
坐标系 3
块@@ 3
块头 3
坚持不懈 3
坡道 3
垄@@ 3
垠 3
埃塞俄@@ 3
埃尔 3
埃拉 3
埋怨 3
基本特征 3
堂弟 3
堆积@@ 3
堕@@ 3
堪萨@@ 3
堵墙 3
塔斯马尼亚 3
塔特 3
塞尔维亚人 3
塞车 3
填埋 3
墨西哥城 3
壑 3
壤 3
壬 3
声调 3
复制到 3
复合@@ 3
复杂@@ 3
复活节 3
多彩 3
多普勒 3
多种@@ 3
多角度 3
多酷 3
大好 3
大局 3
大展 3
大把大把 3
大棒 3
大爱 3
大肠@@ 3
大衣 3
大财团 3
大陆@@ 3
大革命 3
大麦 3
天上@@ 3
天定 3
天棚 3
太短 3
太空梭 3
太重 3
失业@@ 3
失传 3
失调症 3
失败@@ 3
头来 3
头盖骨 3
夸 3
奇思@@ 3
奎 3
奥勒 3
奥多 3
奥尔森 3
奥德@@ 3
奥斯威@@ 3
奥斯特 3
奥米 3
奥运@@ 3
女权@@ 3
女病人 3
奴@@ 3
好几代 3
好要 3
如此@@ 3
姆斯 3
姊@@ 3
姑 3
威尔金森 3
威斯康@@ 3
威胁性 3
婚姻@@ 3
婴 3
婿 3
媒 3
媚 3
媚@@ 3
嫌疑@@ 3
嫩@@ 3
字母@@ 3
字词 3
孜@@ 3
孟@@ 3
孤零零 3
学习成绩 3
学历 3
学龄前 3
孽 3
宇 3
宇宙@@ 3
安全部队 3
安德烈 3
安第@@ 3
安详 3
宋@@ 3
完好@@ 3
完美@@ 3
宕 3
定位@@ 3
定做 3
实用@@ 3
实用价值 3
宠 3
客体 3
室@@ 3
宰 3
害者 3
寂@@ 3
寄生@@ 3
密西西比@@ 3
寒冬 3
寡 3
寨@@ 3
对劲 3
对战 3
对称@@ 3
寻求真理 3
导管 3
寿 3
寿命长 3
射器 3
將 3
對@@ 3
小可爱 3
小手 3
小提琴@@ 3
小段 3
小菜一碟 3
小视频 3
少些 3
少数@@ 3
就地取材 3
尼克尔 3
尼古丁 3
尼岛 3
尼特 3
尽其@@ 3
层建筑 3
居民@@ 3
屑@@ 3
展馆 3
履 3
岩画 3
岬 3
岳@@ 3
岸@@ 3
峦 3
峭壁 3
崔@@ 3
崖 3
崭@@ 3
崽 3
嵌入式 3
川 3
巨量 3
巴尼 3
巴拉圭 3
巴斯 3
巴氏 3
巴纳 3
巴西@@ 3
布宜诺斯艾利斯 3
布雷@@ 3
帆@@ 3
希伯来语 3
帐@@ 3
帕杰 3
帕金森@@ 3
帝国@@ 3
帮帮我 3
幂 3
幌子 3
平安 3
平板@@ 3
平铺 3
年轻@@ 3
幸亏 3
幼 3
幽默@@ 3
广大@@ 3
庄@@ 3
庇@@ 3
库里 3
庵 3
庸 3
廉 3
廉@@ 3
建国 3
建有 3
开幕@@ 3
开往 3
开怀@@ 3
开窍 3
引人@@ 3
弗朗@@ 3
弗莱@@ 3
张三 3
弹拨 3
强制@@ 3
强加@@ 3
强迫@@ 3
归档 3
形态学 3
形文字 3
彰显 3
往昔 3
征税 3
征询 3
待会 3
待发 3
得太多 3
微博@@ 3
微星 3
徳 3
徽标 3
心动@@ 3
心灵@@ 3
心理准备 3
忌 3
忍无可忍 3
忙忙碌碌 3
快速增长 3
快餐@@ 3
忽@@ 3
忿@@ 3
怀疑@@ 3
怜@@ 3
怜悯之心 3
怠 3
怦@@ 3
性状 3
怯 3
总以为 3
总的@@ 3
恍@@ 3
恐 3
恐怖行动 3
恕@@ 3
恭维 3
恳 3
恶毒 3
恼@@ 3
悬吊 3
情绪@@ 3
情绪化 3
惊险 3
惠@@ 3
惧 3
惧@@ 3
想去 3
想当 3
惶@@ 3
惹火 3
惺 3
惺@@ 3
感受@@ 3
感觉@@ 3
愿者 3
憋@@ 3
懈 3
戈斯 3
戏称 3
成一团 3
成像@@ 3
成河 3
成败 3
我加 3
我发 3
我常想 3
我會 3
戛@@ 3
所罗门群岛 3
所获 3
手摇@@ 3
手枪 3
扎入 3
打印@@ 3
打响 3
托邦 3
扫除 3
扮演@@ 3
扳@@ 3
技师 3
技术上 3
技术员 3
技术革新 3
抑 3
折射出 3
抚@@ 3
抛出 3
护栏 3
护理人员 3
拂 3
拄@@ 3
拆掉 3
拉姆斯 3
拉斯@@ 3
拉登 3
拍卖@@ 3
拔 3
拣 3
拣@@ 3
括 3
拱 3
拴 3
拴着 3
拷打 3
持平 3
按揭 3
挑战者 3
挟@@ 3
挥动 3
挨 3
挨@@ 3
振 3
捉摸 3
捍@@ 3
捏造 3
捞@@ 3
捣鼓 3
捱@@ 3
掀@@ 3
授 3
授@@ 3
排字 3
掖 3
接受@@ 3
控性 3
掺@@ 3
提供@@ 3
提前@@ 3
提前准备 3
揭 3
搜索@@ 3
搞不清 3
搞懂 3
搭扣 3
摩天@@ 3
摩纳哥 3
撇子 3
撒尿 3
撮@@ 3
撰 3
擒@@ 3
擦肩而过 3
攘 3
攘@@ 3
攥 3
收放 3
改观 3
改革@@ 3
放映机 3
放肆 3
政治信仰 3
政策@@ 3
救火@@ 3
教养所 3
教育工作者 3
敦 3
数不胜数 3
数十万 3
数据中心 3
数最多 3
数百次 3
整片 3
敷@@ 3
文学@@ 3
斡@@ 3
斧@@ 3
斩@@ 3
斯州 3
斯科 3
斯达@@ 3
新兴国家 3
新月@@ 3
新楼 3
新纳粹 3
旁观 3
无止@@ 3
无线@@ 3
无论@@ 3
日本@@ 3
日益严重 3
旨@@ 3
早有 3
旱 3
时代@@ 3
时差 3
时数 3
易如反掌 3
易碎 3
昔@@ 3
昙@@ 3
星级 3
昧 3
昧@@ 3
昭@@ 3
昴 3
显示@@ 3
晓@@ 3
普森 3
普罗维登@@ 3
普西 3
晾 3
暇 3
暑 3
暑期 3
暧@@ 3
暮@@ 3
暴力@@ 3
曲棍球 3
最多@@ 3
最小@@ 3
有别于 3
有空 3
朋友家 3
望而@@ 3
期内 3
未知@@ 3
未解 3
末尾 3
本岛 3
术士 3
机会@@ 3
机械系统 3
来不及 3
来读 3
杰尔 3
构成威胁 3
林中 3
枢@@ 3
枣@@ 3
架上 3
枷@@ 3
某种@@ 3
柔韧 3
柬埔@@ 3
栅 3
标志@@ 3
栈 3
校报 3
根本@@ 3
格里 3
格雷厄姆 3
桌@@ 3
桶子 3
梁@@ 3
梅里爱 3
梭 3
梭利 3
梯形 3
椎 3
楚 3
概况 3
榭 3
樟@@ 3
模拟系统 3
樣 3
横越 3
橙@@ 3
橡皮@@ 3
檐 3
欢 3
欧国家 3
欺 3
正对 3
正常@@ 3
正确@@ 3
此药 3
武器@@ 3
殉@@ 3
殊 3
毂 3
毋@@ 3
每人@@ 3
比人 3
毫无用处 3
氏@@ 3
气候@@ 3
气候系统 3
氨 3
氪 3
水器 3
永久@@ 3
汀@@ 3
求助于 3
池@@ 3
污点 3
沃斯 3
沃顿 3
沉积@@ 3
沒@@ 3
沙文主义 3
沼 3
波函数 3
波利@@ 3
波士@@ 3
波形 3
波特兰 3
波纹 3
波黑 3
泣 3
泥瓦匠 3
泪流满面 3
泰米尔@@ 3
泼 3
洗碗 3
洛夫 3
洞间 3
洲@@ 3
活跃@@ 3
洼 3
洼@@ 3
派发 3
流氓 3
流行@@ 3
流露 3
浃@@ 3
浅色 3
浏览@@ 3
浑@@ 3
浑然@@ 3
浓 3
浮肿 3
海姆 3
海德 3
海泽伍 3
海脊 3
消化@@ 3
消防@@ 3
消防队员 3
涎 3
涕@@ 3
涛 3
涨潮 3
涵 3
淆@@ 3
淫@@ 3
深思熟虑 3
深深@@ 3
淹 3
清净 3
渐进式 3
渔具 3
渝 3
渡过 3
温饱 3
游遍 3
湮@@ 3
湿润 3
源地 3
溢 3
溺 3
滋 3
滕@@ 3
满满 3
滥调 3
漆@@ 3
演奏@@ 3
演算 3
漠@@ 3
潘 3
澳大@@ 3
激昂 3
激进@@ 3
火山口 3
火热 3
火球 3
火箭@@ 3
灯塔 3
灰泥 3
灵异 3
灸 3
炊 3
炊@@ 3
炖 3
炬 3
炭砖 3
点击@@ 3
烈火 3
烷@@ 3
焊 3
焊@@ 3
焚 3
煞@@ 3
照明@@ 3
煮沸 3
熄@@ 3
熏 3
熟睡 3
[...]
