#version: 0.2
联 合
2 0
联合 国</w>
20 0
会 议</w>
决 议</w>
国 家</w>
国 际</w>
委 员
委员 会</w>
大 会</w>
1 9
报 告</w>
1 2</w>
发 展</w>
组 织</w>
问 题</w>
秘 书
共 和
共和 国</w>
特 别</w>
执 行</w>
包 括</w>
秘书 长</w>
注 意</w>
关 于</w>
有 关</w>
以 及</w>
方 面</w>
社 会</w>
通 过</w>
19 9
尼 亚</w>
其 他</w>
合 作</w>
所 有</w>
区 域</w>
政 府</w>
公 约</w>
机 构</w>
o t
u ot
uot ;</w>
q uot;</w>
& quot;</w>
人 权</w>
提 供</w>
斯 坦</w>
经 济</w>
建 议</w>
各 国</w>
继 续</w>
行 动</w>
促 进</w>
情 况</w>
方 案</w>
根 据</w>
工 作</w>
回 顾</w>
安 全</w>
活 动</w>
加 强</w>
措 施</w>
比 亚</w>
努 力</w>
武 器</w>
重 申</w>
决 定</w>
附 件</w>
和 平</w>
提 出</w>
主 义</w>
利 亚</w>
确 保</w>
员 国</w>
1 0</w>
1 1</w>
规 定</w>
强 调</w>
国 际
系 统</w>
采 取</w>
发 展
宣 言</w>
这 些</w>
进 行</w>
欢 迎</w>
鼓 励</w>
缔 约
考 虑</w>
会 员国</w>
世 界</w>
援 助</w>
人 员</w>
阿 拉
5 5</w>
事 会</w>
持 续</w>
需 要</w>
理 事会</w>
发展 中
发展中 国家</w>
保 护</w>
权 利</w>
及 其</w>
缔约 国</w>
行 为</w>
有 效</w>
条 约</w>
必 须</w>
领 土</w>
目 标</w>
支 持</w>
实 现</w>
资 源</w>
审 议</w>
妇 女</w>
儿 童</w>
技 术</w>
影 响</w>
5 7</w>
200 0</w>
人 民</w>
200 2</w>
各 项</w>
日 至</w>
吁 请</w>
200 1</w>
. 1</w>
核 武器</w>
西 亚</w>
管 理</w>
认 识</w>
5 6</w>
人 道
200 3</w>
相 关</w>
2 0</w>
充 分</w>
进 一
消 除</w>
200 5</w>
5 8</w>
1 5</w>
进一 步</w>
6 0</w>
建 立</w>
能 力</w>
正 式</w>
作 用</w>
2 3</w>
适 当</w>
协 调</w>
维 亚</w>
民 主
举 行</w>
记 录</w>
裁 军</w>
文 化</w>
其 中</w>
作 出</w>
草 案</w>
原 则</w>
5 9</w>
这 方面</w>
领 域</w>
爱 尔
爱尔 兰</w>
巴 勒
2 2</w>
200 4</w>
1 4</w>
一 切</w>
第 六</w>
工 作
全 体
重 要</w>
基 金</w>
计 划</w>
教 育</w>
全体 会议</w>
第 五
协 助</w>
非 洲</w>
审 查</w>
几 内
第 二
参 与</w>
巴勒 斯坦</w>
敦 促</w>
协 定</w>
自 由</w>
人道 主义</w>
项 目</w>
补 编</w>
第 一
6 1</w>
1 3</w>
必 要</w>
表 决</w>
斯 洛
犯 罪</w>
实 施</w>
作 为</w>
巴 布
俄 罗
任 何</w>
克 斯坦</w>
加 拉
1 7</w>
使 用</w>
1 8</w>
1 6</w>
确 认</w>
一 个</w>
第五 十
政 策</w>
任 务</w>
以 色
按 照</w>
关 系</w>
之 间</w>
法 律</w>
A d
提 交</w>
阿 富
以色 列</w>
Ad d
开 展</w>
阿 尔
进 程</w>
全 球</w>
阿富 汗</w>
歧 视</w>
难 民</w>
以 便</w>
高 级
阿拉 伯</w>
首 脑
首脑 会议</w>
几内 亚</w>
可 能</w>
题 为</w>
事 务</w>
拉 圭</w>
宪 章</w>
1 9</w>
5 4</w>
联 邦</w>
战 略</w>
全 面</w>
环 境</w>
冲 突</w>
承 诺</w>
阿拉 伯
2 1</w>
克 罗
议 定
议定 书</w>
议 程</w>
马 里</w>
200 6</w>
关 切</w>
利 用</w>
代 表</w>
中 心</w>
要 求</w>
2 5</w>
种 族
同 时</w>
形 式</w>
提 案</w>
199 9</w>
毛 里
尼 日
支 助</w>
6 2</w>
义 务</w>
未 经</w>
解 决</w>
成 果</w>
联合 国
民主 共和国</w>
非 政府</w>
各 种</w>
范 围</w>
斯 拉
南 斯拉
信 息</w>
进 展</w>
C .
政 治</w>
防 止</w>
部 分</w>
南 非</w>
取 得</w>
非 法</w>
国际 法</w>
尤 其</w>
谈 判</w>
要 性</w>
第 三
2 4</w>
尊 重</w>
它 们</w>
邀 请</w>
办 事
预 算</w>
办事 处</w>
纲 领</w>
打 击</w>
文 件</w>
秘书 处</w>
基 本</w>
南斯拉 夫</w>
服 务</w>
减 少</w>
人 民
提 高</w>
2 6</w>
米 尼
多 米尼
反 对</w>
表 示</w>
重 要性</w>
方 式</w>
世 界
安 排</w>
19 8
框 架</w>
o r
部 门</w>
专 员</w>
赞 赏</w>
群 岛</w>
玻 利
人 权
3 0</w>
里 亚</w>
严 重</w>
下 列</w>
贸 易</w>
期 间</w>
1 0
资 料</w>
千 年</w>
主 义
机 制</w>
格 林
格林 纳
呼 吁</w>
恐 怖
增 加</w>
意 大
第 十
设 立</w>
意大 利</w>
文 书</w>
遵 守</w>
5 3</w>
维 持</w>
酌 情</w>
行 政</w>
办 法</w>
出 版
科 学</w>
3 1</w>
制 度</w>
葡 萄
高级 专员</w>
主 要</w>
意 见</w>
法 国</w>
参 加</w>
2 8</w>
2 9</w>
平 等</w>
西 班
出版 物</w>
I I</w>
贫 穷</w>
C or
德 国</w>
Cor r
希 腊</w>
奥 地
贡 献</w>
印 度
葡萄 牙</w>
Add .1</w>
指 出</w>
奥地 利</w>
西班 牙</w>
优 先</w>
空 间</w>
恐怖 主义</w>
4 9</w>
临 时</w>
责 任</w>
王 国</w>
获 得</w>
苏 丹</w>
荷 兰</w>
联合 王国</w>
芬 兰</w>
大 不
加 拿
大不 列
大不列 颠</w>
北 爱尔兰</w>
现 有</w>
履 行</w>
墨 西
加拿 大</w>
比 利
比利 时</w>
这 种</w>
瑞 典</w>
伊 斯
处 理</w>
丹 麦</w>
挪 威</w>
赞 成</w>
墨西 哥</w>
日 本</w>
美 元</w>
扩 散</w>
孟 加拉
孟加拉 国</w>
卢 森
卢森 堡</w>
2 7</w>
咨 询</w>
采 取
Corr .1</w>
5 1</w>
路 斯</w>
浦 路斯</w>
塞 浦路斯</w>
199 8</w>
地 马
危 地马
灾 害</w>
最 后</w>
依 照</w>
研 究</w>
编 号</w>
第 四
条 件</w>
弃 权</w>
在 内</w>
印度 尼
他 们</w>
智 利</w>
5 0</w>
司 法</w>
艾 滋
事 项</w>
行 动
危地马 拉</w>
马 耳
马耳 他</w>
埃 及</w>
克罗 地
造 成</w>
工作 人员</w>
境 内</w>
出 售</w>
克罗地 亚</w>
列 入</w>
马 尼亚</w>
罗 马尼亚</w>
禁 止</w>
5 2</w>
结 果</w>
成 员</w>
印度尼 西亚</w>
美 利
美利 坚
美利坚 合
美利坚合 众
波 兰</w>
斯洛 文
斯洛文 尼亚</w>
200 7</w>
乌 克
阿 根
能 够</w>
新 西
程 序</w>
俄罗 斯
瓜 多
厄 瓜多
阿根 廷</w>
美利坚合众 国</w>
威 胁</w>
塞 内
塞内 加
塞内加 尔</w>
一 项</w>
目 的</w>
马 其
马其 顿
马其顿 共和国</w>
乌克 兰</w>
厄瓜多 尔</w>
阿尔 及
新西 兰</w>
俄罗斯 联邦</w>
古 巴</w>
伊斯 兰
黎 加</w>
达 黎加</w>
斯 达黎加</w>
哥 斯达黎加</w>
对 话</w>
克 共和国</w>
捷 克共和国</w>
基 础</w>
专 门
牙 利</w>
摩 洛
匈 牙利</w>
巴 西</w>
柬 埔
建 设</w>
摩洛 哥</w>
协 商</w>
马 来
马来 西亚</w>
199 5</w>
阿尔及 利亚</w>
移 徙</w>
地 位</w>
第 五</w>
加 利亚</w>
保 加利亚</w>
制 定</w>
尼日 利亚</w>
铭 记</w>
斯洛 伐
斯洛伐 克</w>
泰 国</w>
自 愿</w>
陶 宛</w>
立 陶宛</w>
加 入</w>
宗 教</w>
主 席</w>
批 准</w>
冰 岛</w>
土 耳
土耳 其</w>
秘 鲁</w>
澳 大
澳大 利亚</w>
适 用</w>
突 尼
突尼 斯</w>
所 载</w>
哥 伦
萨 尔
萨尔 瓦
萨尔瓦 多</w>
俄罗 斯</w>
1 8
约 旦</w>
中 国</w>
白 俄罗斯</w>
波 斯
波斯 尼亚</w>
达 国家</w>
发 达国家</w>
黑 塞
黑塞 哥
黑塞哥 维
黑塞哥维 那</w>
多米尼 加
多米尼加 共和国</w>
第一 章</w>
哥伦 比亚</w>
这 一</w>
地 区</w>
推 动</w>
自 然
纳 哥</w>
摩 纳哥</w>
尔 多
本 国</w>
摩 尔多
联 盟</w>
塞 俄
埃 塞俄
国 在</w>
脱 维亚</w>
海 洋
暴 力</w>
拉 脱维亚</w>
国 家
肯 尼亚</w>
巴 拿
韩 民
韩民 国</w>
大 韩民国</w>
贩 运</w>
巴拿 马</w>
乌 拉圭</w>
爱 沙
爱沙 尼亚</w>
两 年</w>
亚 美
4 8</w>
刚 果
亚美 尼亚</w>
7 3</w>
菲 律
菲律 宾</w>
纳 米
纳米 比亚</w>
吉 布
法 索</w>
纳 法索</w>
敦 士
敦士 登</w>
支 敦士登</w>
布 基
布基 纳法索</w>
列 支敦士登</w>
汇 编</w>
吉布 提</w>
埃塞俄 比亚</w>
保 障</w>
一 届</w>
人 类</w>
卡 塔
刚果 民主共和国</w>
海 地</w>
容 忍</w>
蒙 古</w>
占 领</w>
缅 甸</w>
伴 关系</w>
伙 伴关系</w>
萨 克斯坦</w>
柬埔 寨</w>
哈 萨克斯坦</w>
关 注</w>
民 主</w>
C O
道 尔</w>
安 道尔</w>
性 别</w>
伊斯兰 共和国</w>
伊 朗
伊朗 伊斯兰共和国</w>
巴 基
专门 机构</w>
赞 比亚</w>
巴基 斯坦</w>
财 政</w>
玻利 维亚</w>
民 众</w>
发 挥</w>
印 度</w>
以 期</w>
阿 塞
阿塞 拜
瑞 拉</w>
委 内
委内 瑞拉</w>
国 内</w>
尼 加拉
尼加拉 瓜</w>
阿塞拜 疆</w>
人权 委员会</w>
尼 亚
报 告
新 闻
塞 拉
塞拉 利
塞拉利 昂</w>
离 失
离失 所</w>
流 离失所</w>
标 准</w>
圣 马
报告 员</w>
圣马 力
圣马力 诺</w>
马 达
马达 加
马达加 斯
马达加斯 加</w>
贸 易
联合 共和国</w>
桑 尼亚
桑尼亚 联合共和国</w>
坦 桑尼亚联合共和国</w>
黎 巴
黎巴 嫩</w>
做 法</w>
求 斯</w>
毛里 求斯</w>
科 威
加 纳</w>
行动 计划</w>
给 予</w>
尚 未</w>
X X
刑 事</w>
鲁 吉
鲁吉 亚</w>
格 鲁吉亚</w>
迪 瓦</w>
科 特
科特 迪瓦</w>
制 订</w>
方 法</w>
安 哥
麦 隆</w>
科威 特</w>
喀 麦隆</w>
卡塔 尔</w>
具 有</w>
利 益</w>
贝 宁</w>
十 年</w>
倡 议</w>
第二 十
讨 论</w>
7 7</w>
4 6</w>
预 防</w>
渔 业</w>
纳 入</w>
助 于</w>
预 防
自 治</w>
比 克</w>
莫 桑
多 哥</w>
莫桑 比克</w>
巴 拉圭</w>
有 助于</w>
着 重
得 到</w>
得 角</w>
佛 得角</w>
海 洋</w>
各 级</w>
后 续</w>
为 此</w>
商 定</w>
斐 济</w>
共 同</w>
CO N
立 特
立特 里亚</w>
厄 立特里亚</w>
三 届</w>
拉 斯</w>
安哥 拉</w>
多 边</w>
都 拉斯</w>
特 阿拉伯</w>
牙 买
洪 都拉斯</w>
沙 特阿拉伯</w>
七 届</w>
牙买 加</w>
拟 订</w>
机 会</w>
鲁 萨
鲁萨 兰
鲁萨兰 国</w>
达 鲁萨兰国</w>
评 估</w>
莱 达鲁萨兰国</w>
文 莱达鲁萨兰国</w>
着重 指出</w>
199 6</w>
稳 定</w>
具 体</w>
瑞 士</w>
也 门</w>
圭 亚
圭亚 那</w>
可 以</w>
卢 旺
工作 组</w>
派 团</w>
民 间</w>
经 费</w>
特 派团</w>
负 责</w>
卢旺 达</w>
小 组</w>
199 7</w>
利 比亚</w>
伯 利
满 意</w>
刚 果</w>
法 院</w>
成 为</w>
1 3
多 样
请 求</w>
巴 尼亚</w>
发 生</w>
阿尔 巴尼亚</w>
新 闻</w>
殖 民
一 级</w>
6 7</w>
阿 曼</w>
巴 巴
巴巴 多
巴巴多 斯</w>
尼 泊
新闻 部</w>
尼泊 尔</w>
应 当</w>
4 7</w>
伯利 兹</w>
设 施</w>
更 正</w>
帝 汶</w>
二 届</w>
东 帝汶</w>
捐 助</w>
兰 卡</w>
里 兰卡</w>
说 明</w>
斯 里兰卡</w>
公 平</w>
1 7
确 定</w>
划 署</w>
阿拉伯 联合
阿拉伯联合 酋
阿拉伯联合酋 长
阿拉伯联合酋长 国</w>
种族 歧视</w>
越 南</w>
毛里 塔
毛里塔 尼亚</w>
巴 林</w>
津 巴布
津巴布 韦</w>
不 同</w>
隆 迪</w>
布 隆迪</w>
新 加
产 生</w>
0 0</w>
管 制</w>
召 开</w>
签 署</w>
新加 坡</w>
利 亚
科 摩
科摩 罗</w>
阿拉伯 叙
阿拉伯叙 利亚
阿拉伯叙利亚 共和国</w>
索 马里</w>
F .
4 5</w>
预防 犯罪</w>
符 合</w>
CON F.
莱 索
莱索 托</w>
扩 大</w>
法 庭</w>
再 次</w>
199 4</w>
改 善</w>
茨 瓦
博 茨瓦
人 口</w>
里 南</w>
苏 里南</w>
博茨瓦 纳</w>
全 球
圣 卢
圣卢 西亚</w>
马 拉
作 出
乌 干
萨 摩
萨摩 亚</w>
武 装
无 核武器</w>
宗 旨</w>
侵 犯</w>
乌干 达</w>
论 坛</w>
朝 鲜
一 些</w>
限 制</w>
六 届</w>
生 效</w>
瓦 共和国</w>
摩尔多 瓦共和国</w>
种族 主义</w>
达 和
达和 多
达和多 巴
达和多巴 哥</w>
立 尼
立尼 达和多巴哥</w>
积 极</w>
特 立尼达和多巴哥</w>
所 作</w>
传 播</w>
民主 主义
民主主义 人民
朝鲜 民主主义人民
十 一届</w>
状 况</w>
格林纳 达</w>
各 自</w>
普 遍</w>
十 届</w>
加 勒
3 3</w>
立 法</w>
朝鲜民主主义人民 共和国</w>
马拉 维</w>
安 提
瓜 和
瓜和 巴布
瓜和巴布 达</w>
安提 瓜和巴布达</w>
吉 尔
吉尔 吉
加 蓬</w>
恢 复</w>
7 5</w>
吉尔吉 斯
培 训</w>
吉尔吉斯 斯坦</w>
老 挝
老挝 人民
老挝人民 民主共和国</w>
手 段</w>
岛 屿</w>
挑 战</w>
层 空间</w>
外 层空间</w>
非 洲
金 融
机 关</w>
落 实</w>
此 种</w>
步 骤</w>
新 几内亚</w>
巴布 亚
巴布亚 新几内亚</w>
认 为</w>
Add .
广 泛</w>
武装 冲突</w>
了 解</w>
西 亚
毒 品</w>
酷 刑</w>
国际 公约</w>
独 立</w>
塔 吉
哈 马</w>
巴 哈马</w>
促 请</w>
人道 主义
人道主义 法</w>
塔吉 克斯坦</w>
监 测</w>
病 毒</w>
多样 性</w>
转 让</w>
违 反</w>
199 3</w>
监 督</w>
帮 助</w>
十 二届</w>
4 4</w>
4 1</w>
紧 急</w>
深 信</w>
森 特</w>
格林纳 丁
格林纳丁 斯</w>
文 森特</w>
圣 文森特</w>
费 用</w>
综 合</w>
尔 维亚</w>
塞 尔维亚</w>
共 同
密 克罗
密克罗 尼
西亚 联邦</w>
第五十 八</w>
密克罗尼 西亚联邦</w>
声 明</w>
门 群岛</w>
罗 门群岛</w>
所 罗门群岛</w>
接 受</w>
如 下</w>
不 丹</w>
经 济
当 局</w>
黑 山</w>
这 个</w>
日 内
十 六届</w>
第五十 七届</w>
斯 威
7 8</w>
4 2</w>
斯威 士
斯威士 兰</w>
全球 化</w>
决 心</w>
用 于</w>
筹 资</w>
第五十 九</w>
增 进</w>
3 2</w>
受 害
马 尔
受 到</w>
自然 灾害</w>
3 4</w>
马尔 代
马尔代 夫</w>
日内 瓦</w>
重 建</w>
就 此</w>
各 方</w>
加勒 比</w>
生 物</w>
生 产</w>
美 洲</w>
结 论</w>
尼日 尔</w>
伊 拉
调 查</w>
原 子
规 则</w>
心 理</w>
债 务</w>
马 绍
马绍 尔
马绍尔 群岛</w>
开 发</w>
特 设</w>
所 述</w>
享 有</w>
指 标</w>
应 对</w>
残 疾
增 强</w>
伊拉 克</w>
体 制</w>
中 非
4 3</w>
最 近</w>
并 且</w>
艾滋 病毒</w>
联 合</w>
我 们</w>
不 断</w>
一 致</w>
斯 堡</w>
高级 别</w>
仇 外</w>
筹 备</w>
私 营
约 翰
约翰 内
约翰内 斯堡</w>
目 前</w>
艾滋 病</w>
私营 部门</w>
生 活</w>
个 人</w>
宣 传</w>
增 长</w>
3 5</w>
瑙 鲁</w>
海洋 法</w>
20 0</w>
特 殊</w>
2 6
自 决</w>
比 里亚</w>
旨 在</w>
利 比里亚</w>
冈 比亚</w>
裁 军
裁军 谈判</w>
赞 扬</w>
对 于</w>
4 0</w>
改 进</w>
联 系</w>
完 成</w>
危 险</w>
财 产</w>
训 练</w>
而 且</w>
3 6</w>
1 5
群 体</w>
编 写</w>
第二 章</w>
从 而</w>
缔约 方</w>
专 家</w>
便 利</w>
语 文</w>
兹 别
保 证</w>
乌 兹别
评 价</w>
乌兹别 克斯坦</w>
及 时</w>
1 6
资 金</w>
许 多</w>
存 在</w>
正 在</w>
青 年</w>
效 率</w>
迅 速</w>
选 举</w>
残疾 人</w>
a r
小 岛屿</w>
粮 食
平 民</w>
中非 共和国</w>
控 制</w>
药 物</w>
核 裁军</w>
I II</w>
改 革</w>
土 著</w>
3 8</w>
意 识</w>
P ar
集 团</w>
必 要
协 议</w>
同 意</w>
知 识</w>
提 供
伙 伴</w>
运 动</w>
土 库
7 0</w>
3 7</w>
宣 布</w>
待 遇</w>
相 互
十 三届</w>
协 调
汤 加</w>
曼 斯坦</w>
土库 曼斯坦</w>
实 体</w>
合 作
业 务</w>
之 前</w>
一 份</w>
地 方</w>
以 来</w>
切 实</w>
至 关
军 备</w>
授 权</w>
路 撒
耶 路撒
军 事</w>
腐 败</w>
至关 重要</w>
捐 助
2 8
独 立
暴 力
捐 款</w>
瓦 尔</w>
玻利 瓦尔</w>
有 权</w>
地 雷</w>
数 据</w>
199 2</w>
金 融</w>
健 康</w>
采取 行动</w>
规 模</w>
社 区</w>
申 明</w>
满 足</w>
实 质
两 性</w>
C. 9
创 造</w>
公 民</w>
没 有</w>
女 孩</w>
耶路撒 冷</w>
核 准</w>
实质 性</w>
达 成</w>
双 边</w>
和 平
观 点</w>
成 员国</w>
运 作</w>
家 庭</w>
仍 然</w>
事 件</w>
该 国</w>
行 使</w>
环 境
L .
提供 援助</w>
北 京</w>
工 程
救 济</w>
承 担</w>
四 届</w>
中 东</w>
7 1</w>
多米尼 克</w>
重 新</w>
开 始</w>
后 果</w>
公 正</w>
五 届</w>
承 认</w>
工程 处</w>
来 源</w>
因 素</w>
途 径</w>
相 互</w>
7 4</w>
投 资</w>
实 际</w>
养 护</w>
侵 害</w>
暴力 行为</w>
指 导</w>
民 族</w>
尽 可能</w>
需 求</w>
材 料</w>
信 托</w>
金融 机构</w>
平 洋</w>
太 平洋</w>
规 划署</w>
必要 措施</w>
共同 体</w>
4 8
区 域
帕 劳</w>
分 摊</w>
通 信</w>
比 绍</w>
如 何</w>
几内 亚
几内亚 比绍</w>
交 流</w>
轻 武器</w>
欣 见</w>
C. 0
3 9</w>
分 析</w>
世 纪</w>
今 后</w>
捕 捞</w>
采取 措施</w>
提 议</w>
基 金
XX I</w>
阿 图</w>
银 行</w>
瓦 努
瓦努 阿图</w>
第 一</w>
局 势</w>
法 治</w>
条 款</w>
采 用</w>
Par t</w>
维 也
维也 纳</w>
19 67</w>
长 期</w>
感 谢</w>
为 了</w>
属 于</w>
上 文</w>
鱼 类</w>
风 险</w>
部 长
过 程</w>
文 明</w>
管 理
立 即</w>
种 群</w>
受害 者</w>
199 1</w>
密 切
实 行</w>
享 受</w>
补 充</w>
透 明
信 任</w>
损 害</w>
巩 固</w>
国 为</w>
首 脑</w>
研 究
欧 洲</w>
某 些</w>
发展 权</w>
剥 削</w>
元 首</w>
农 业
一 次</w>
已 经</w>
. 4</w>
政 府
公 共
信 息
不 利</w>
条 例</w>
政府 首脑</w>
面 临</w>
透明 度</w>
维 护</w>
200 8</w>
或 者</w>
不 得</w>
7 9</w>
予 以</w>
7 6</w>
针 对</w>
重 视</w>
涉 及</w>
2 9
研究 所</w>
制 止</w>
不 可
构 成</w>
部长 级</w>
性 质</w>
联合国 粮食
联合国粮食 及
联合国粮食及 农业
联合国粮食及农业 组织</w>
E S</w>
处 决</w>
过 渡</w>
跨 国</w>
蒙 特
效 力</w>
2 200</w>
障 碍</w>
纽 约</w>
经 常</w>
起 诉</w>
举 办</w>
3 0
谴 责</w>
基 于</w>
由 于</w>
摊 款</w>
因 此</w>
阶 段</w>
整 个</w>
6 8</w>
查 明</w>
开 发
十 五届</w>
作出 努力</w>
保 健</w>
现 象</w>
人 居</w>
停 止</w>
部 队</w>
殖民 地</w>
变 化</w>
上 述</w>
纲 要</w>
独立 宣言</w>
持 久</w>
专 门</w>
定 期</w>
各 地</w>
过 境</w>
基 础
内 容</w>
计 划署</w>
V .
贸易 组织</w>
内 部</w>
人 道</w>
收 入</w>
第三 次</w>
世界 贸易组织</w>
疟 疾</w>
更 加</w>
圣 多
减 轻</w>
6 3</w>
盟 约</w>
有 人</w>
大 规模</w>
西 比</w>
美 和
美和 普
美和普 林
美和普林 西比</w>
圣多 美和普林西比</w>
筹 措</w>
托 克
托克 劳</w>
日 益</w>
管 辖</w>
第 二</w>
总 部</w>
致 力
致力 于</w>
2 17</w>
规 划</w>
缔 结</w>
第 六
欧 洲
工 具</w>
妇 女
促 使</w>
此 类</w>
政 治
避 免</w>
导 致</w>
那 些</w>
法 律
一 般</w>
7 2</w>
介 绍</w>
卫 生</w>
能 机构</w>
国际 原子
国际原子 能机构</w>
瓦 卢</w>
图 瓦卢</w>
重 大</w>
结 构</w>
强 迫</w>
东 道
9 73</w>
非洲 联盟</w>
调 整</w>
第四 次</w>
东道 国</w>
基础 设施</w>
作出 贡献</w>
人权 宣言</w>
最 佳</w>
带 来</w>
本 条</w>
权 力</w>
罗 马</w>
粮 食</w>
拘 留</w>
世界 人权宣言</w>
这 样</w>
利 于</w>
准 则</w>
任 择</w>
争 端</w>
信 仰</w>
程 度</w>
开发 计划署</w>
员 额</w>
处 罚</w>
国 籍</w>
论 会</w>
讨 论会</w>
直 接</w>
森 林</w>
决 策</w>
8 1</w>
访 问</w>
所 有人</w>
公 众</w>
保 持</w>
国家 一级</w>
协 作</w>
尊 严</w>
各 项
足 够</w>
融 入</w>
蒙特 雷</w>
国家 元首</w>
以 往</w>
东 耶路撒冷</w>
不 人道</w>
联合国 开发计划署</w>
应 付</w>
6 4</w>
未 来</w>
妨 碍</w>
核 查</w>
占 领
出 现</w>
人 人</w>
危 机</w>
剥 夺</w>
主 权</w>
德 班</w>
审 计</w>
透 明</w>
表 现</w>
统 一</w>
每 个</w>
成 功</w>
因 为</w>
从 事</w>
第 七
当 地</w>
希 望</w>
察 员</w>
人 格</w>
深 切</w>
制 裁</w>
Add. 2</w>
第三 章</w>
更 好</w>
就 业</w>
认 可</w>
主 管</w>
人 数</w>
达 到</w>
每 年</w>
应 用</w>
充 分
乍 得</w>
C N
第二 次</w>
收 集</w>
基金 会</w>
通 知</w>
拟 议</w>
密切 合作</w>
妇女 地位</w>
6 9</w>
迫 切
第二十 三届</w>
破 坏</w>
20 10</w>
遭 受</w>
积 极
有 辱</w>
内 陆</w>
举 措</w>
道 几内亚</w>
赤 道几内亚</w>
自然 资源</w>
滥 用</w>
战 争</w>
女 童</w>
保 留</w>
9 0</w>
这 项</w>
编 制</w>
统 一
国 民</w>
人 力
主 流</w>
种 族</w>
成 立</w>
第一 卷</w>
人力 资源</w>
迫切 需要</w>
经 验</w>
残 忍</w>
麻 醉
调 动</w>
以 前</w>
之 一</w>
药 品</w>
舌 尔</w>
塞 舌尔</w>
运 输</w>
观 察员</w>
有 利于</w>
部 长</w>
自 己</w>
职 能</w>
经济 合作
媒 体</w>
加 以</w>
紧 急
生 产
如 果</w>
储 存</w>
199 0</w>
尽 早</w>
高 度</w>
代 表
X V</w>
拥 有</w>
拉 丁
官 员</w>
地 点</w>
原 因</w>
身 份</w>
表 示
捐助 者</w>
寻 求</w>
恤 金</w>
G C</w>
罪 行</w>
网 站</w>
防 治</w>
灭 性</w>
毁 灭性</w>
双 方</w>
网 络</w>
危 害</w>
不 可</w>
非 殖民
非殖民 化</w>
能 源</w>
组 成
组成 部分</w>
第四 十
拉丁 美洲</w>
6 5</w>
规 约</w>
摩尔多 瓦</w>
犯 罪
职 责</w>
经济合作 组织</w>
外 国</w>
土 地</w>
国际 法院</w>
二 十
意 义</w>
R e
6 6</w>
19 49</w>
明 确</w>
失 踪</w>
重 点</w>
生 态
例 如</w>
核 可</w>
政治 权利</w>
叙 利亚</w>
专 业</w>
常 设</w>
大 学</w>
转 移</w>
净 额</w>
订 正</w>
精 神</w>
是 否</w>
原子 能</w>
单 方面</w>
I .
世界 各地</w>
8 3</w>
第十 届</w>
族 裔</w>
非洲 统一
非洲统一 组织</w>
第 四</w>
核 心</w>
多 边
国际 法庭</w>
有 利</w>
任 意</w>
脆 弱</w>
全 面
1 57</w>
一 国</w>
官 方</w>
之 后</w>
销 毁</w>
工 业</w>
协调 员</w>
一 部分</w>
转 型
转型 期</w>
案 文
当 事
全 国</w>
价 值</w>
流 动</w>
全 世界</w>
遵 循</w>
密 切</w>
发 表</w>
任 命</w>
豁 免</w>
维 斯</w>
组 成</w>
最 高</w>
尼 维斯</w>
基 茨</w>
圣 基茨</w>
事 务
8 7</w>
Re v
采取 有效</w>
资 产</w>
农 业</w>
三 个</w>
市 场</w>
和 解</w>
各 个</w>
分 配</w>
登 记</w>
案文 见</w>
复 原</w>
化 学
CN .4</w>
行动 者</w>
尽 快</w>
外 交</w>
各 个
主 题</w>
年 度</w>
回 返</w>
周 年</w>
198 2</w>
理 会</w>
两 级</w>
附 属</w>
质 量</w>
第一 次</w>
生态 系统</w>
安 理会</w>
反 映</w>
预 期</w>
少 数</w>
语 言</w>
联合国 环境
联合国环境 规划署</w>
一 种</w>
4 9
载 有</w>
附 录</w>
气 候
年 人</w>
中 期</w>
试 验</w>
结 盟</w>
数 额</w>
提 请</w>
贸易 和
贸易和 发展
贸易和发展 会议</w>
联合国 贸易和发展会议</w>
结 束</w>
开 放</w>
专 题</w>
Rev .1</w>
R ES</w>
防 范</w>
协调 一致</w>
两 个</w>
气候 变化</w>
主 动</w>
主 任</w>
赞 同</w>
时 间</w>
共 识</w>
指 定</w>
对 付</w>
区域 合作</w>
任 职</w>
争 取</w>
中 部</w>
I V.
C.0 3</w>
紧 努力</w>
加 紧努力</w>
专 家
. 7</w>
戈 兰</w>
允 许</w>
传 统</w>
中 美洲</w>
198 0</w>
里 多
里多 尼亚</w>
最 大</w>
新 喀
新喀 里多尼亚</w>
分 发</w>
公 共</w>
专家 组</w>
荒 漠
荒漠 化</w>
以 外</w>
解 决
筹 备
商 品</w>
东 南
A C.
方 针</w>
放 射
基 本
A .1</w>
8 2</w>
5 0
选 择</w>
正 案</w>
执 法</w>
彻 底</w>
强 烈</w>
引 起</w>
修 正案</w>
8 8</w>
钻 石</w>
竞 赛</w>
议 会</w>
继 续
财 务</w>
名 额</w>
反 应</w>
创 新</w>
居 民</w>
困 难</w>
商 业</w>
9 1</w>
8 0</w>
缺 乏</w>
常 会</w>
占领 国</w>
严 格
不 结盟</w>
计 数</w>
尽 管</w>
主 持</w>
跨 界</w>
移 民</w>
探 讨</w>
估 计数</w>
遗 憾</w>
武 力</w>
捐助 国</w>
情 报</w>
合 同</w>
地 中
具 体
依 存</w>
水 平</w>
毛 额</w>
所 涉</w>
完 全</w>
可 行</w>
关 键</w>
. 2</w>
办 公
积极 参与</w>
数 目</w>
刑 事
全 体</w>
资 助</w>
获 取</w>
终 止</w>
电 子</w>
法 官</w>
各项 规定</w>
体 化</w>
一 体化</w>
麻醉 药品</w>
15 14</w>
重 人权</w>
支 付</w>
尊 重人权</w>
完 整</w>
出 口</w>
负 担</w>
裁 减</w>
物 质</w>
污 染</w>
有 害</w>
探 索</w>
守 则</w>
团 体</w>
修 正</w>
世界 银行</w>
第三 国</w>
地中 海</w>
以 下</w>
虐 待</w>
用 途</w>
内 部
雇 佣
雇佣 军</w>
福 祉</w>
消 灭</w>
早 日</w>
愿 望</w>
差 距</w>
分 享</w>
信息 技术</w>
严格 遵守</w>
自 由
南 合作</w>
南 南合作</w>
巴 黎</w>
图 书
图书 馆</w>
可 能
加 速</w>
非 正式</w>
采 购</w>
规 范</w>
化学 武器</w>
内部 监督</w>
紧急 情况</w>
年 度
多 哈</w>
改 为</w>
彻 底
可能 性</w>
胁 迫</w>
职 位</w>
第三 十
法 行为</w>
城 市</w>
办公 室</w>
8 9</w>
重 大
趋 势</w>
建 设
以 此</w>
辅 相
辅相 成</w>
相 辅相成</w>
担 任</w>
十 分</w>
198 1</w>
秩 序</w>
沿 海</w>
拟 定</w>
不 论</w>
领 导</w>
设 法</w>
第十 一届</w>
日 起</w>
改 变</w>
建设 性</w>
安 保</w>
和平 解决</w>
各个 方面</w>
丧 失</w>
解决 办法</w>
展 开</w>
备 竞赛</w>
团 结</w>
受害 人</w>
分 别</w>
军 备竞赛</w>
企 业</w>
饥 饿</w>
船 只</w>
灭 绝</w>
比 例</w>
十 周年</w>
200 9</w>
款 项</w>
年度 报告</w>
2 7
红 十
种族 灭绝</w>
海 事
海事 组织</w>
彻底 消除</w>
地 域</w>
国际 海事组织</w>
公 务
确 立</w>
相互 依存</w>
协 商
1 2
越 来
越来 越</w>
职 权
职权 范围</w>
彼 此</w>
司 法
亚 洲</w>
20 15</w>
预 测</w>
负 有</w>
国际 贸易</w>
国家 联盟</w>
8 5</w>
首 长</w>
阻 碍</w>
部 署</w>
疾 病</w>
收 到</w>
承 受</w>
会 议
食 物</w>
遗 产</w>
薪 金</w>
农 村</w>
C.9 6</w>
排 雷</w>
她 们</w>
反 腐败</w>
努 力
9 4</w>
9 2</w>
顾 及</w>
辩 论</w>
武 装</w>
工作 队</w>
多 数</w>
均 衡</w>
关 岛</w>
C.0 2</w>
8 6</w>
理 由</w>
大 量</w>
复 兴</w>
卫 生
CONF. 157</w>
1 1
集 体</w>
九 届</w>
高 级</w>
附 加</w>
代表 团</w>
首 要</w>
海洋 环境</w>
欧洲 委员会</w>
杀 伤</w>
常 规
宪 法</w>
力 量</w>
返 回</w>
设 备</w>
促 成</w>
1 4
指 导
引 渡</w>
山 区</w>
公务 员</w>
充 足</w>
咨 询
和平 利用</w>
不 足</w>
逐 步</w>
诺 贝
罗 毕</w>
系 统
征 聘</w>
减 免</w>
关 联</w>
人 力</w>
P T</w>
N PT</w>
进 度</w>
状 态</w>
灾 难</w>
比 额</w>
小 额</w>
内 罗毕</w>
公 司</w>
解 放
老 龄</w>
洗 钱</w>
攻 击</w>
多边 贸易</w>
合 法
决 权</w>
依 据</w>
表 达</w>
穷 国</w>
特 定</w>
正 义</w>
批 款</w>
平 衡</w>
干 事</w>
定 居
劳 工
关 键
二十 一</w>
这 是</w>
转 型</w>
若 干</w>
家 庭
处 境</w>
产 品</w>
核 不
核不 扩散</w>
持 续
所 列</w>
常规 武器</w>
工 人</w>
做 出</w>
一 百
降 低</w>
行 政
融 资</w>
纪 念</w>
真 正</w>
治 疗</w>
公 开</w>
保 存</w>
人权 法</w>
10 6</w>
评 论</w>
订 立</w>
红十 字
第 八
拉 特</w>
主 办</w>
& #
&# 9
领 土
重 债</w>
接 触</w>
技 能</w>
宝 贵</w>
公 认</w>
核 定</w>
普 遍
德 里</w>
尔 诺贝
切 尔诺贝
or g</w>
财 务
派 遣</w>
无 法</w>
旅 游
当 前</w>
儿 童
两 项</w>
e c
继 承</w>
特 权</w>
思 想</w>
年 底</w>
外 地</w>
出 席</w>
赔 偿</w>
绩 效</w>
方 向</w>
支 出</w>
18 9</w>
预 算
第 三</w>
登 记
法 外</w>
案 件</w>
减 贫</w>
之 以
5 31</w>
查 阅</w>
延 期</w>
尽 量</w>
准 入</w>
信 贷</w>
专门 知识</w>
9 6</w>
8 4</w>
磋 商</w>
战 时</w>
CONF. 19
诉 讼</w>
表 明</w>
船 舶</w>
放射 性</w>
多样 化</w>
外 部</w>
9 7</w>
10 9</w>
铲 除</w>
赋 予</w>
色 情</w>
绳 之以
绳之以 法</w>
生 命</w>
减 灾</w>
严 重
198 9</w>
18 2</w>
统 筹</w>
细 则</w>
科 学
洄 游</w>
斯 坦
技 术
惯 例</w>
惠 益</w>
延 长</w>
回 应</w>
咨询 服务</w>
伤 害</w>
严 格</w>
9 8</w>
指导 方针</w>
和 二</w>
单 位</w>
供 资</w>
一 般
一 和二</w>
挥 作用</w>
所 起</w>
国际 金融</w>
发 挥作用</w>
动 员</w>
养 恤</w>
关 心</w>
10 5</w>
现 行</w>
殖民 主义</w>
庇 护</w>
人 口
东南 欧</w>
不 能</w>
领土 完整</w>
遣 返</w>
调 集</w>
感 染</w>
坚 决</w>
国际 劳工
事务 部</w>
一般 性</w>
C C
顾 问</w>
面 对</w>
阿拉伯 国家联盟</w>
谅 解</w>
证 书</w>
本 哈
本哈 根</w>
救 灾</w>
市 场
哥 本哈根</w>
合 法</w>
免 疫</w>
修 订</w>
10 0</w>
额 外</w>
过 去</w>
第一 届</w>
核 试验</w>
提 到</w>
巴勒 斯坦
委 会</w>
处 于</w>
十 四届</w>
人 们</w>
邻 国</w>
违 背</w>
第三 节</w>
检 查
根 除</w>
原 籍</w>
18 0</w>
所 定</w>
切尔诺贝 利</w>
健 全</w>
R E
视 性</w>
海 上</w>
歧 视性</w>
最 新</w>
康 复</w>
国际劳工 组织</w>
S T</w>
金 伯
金伯 利</w>
贩 卖</w>
课 程</w>
行 径</w>
背 景</w>
第六 条</w>
欧洲 联盟</w>
慷 慨</w>
0 00</w>
马 德里</w>
货 物</w>
定居 点</w>
历 史</w>
兴 趣</w>
全面 禁止</w>
联合国 儿童
联合国儿童 基金会</w>
第二十 四届</w>
福 利</w>
柬埔 寨
志 愿</w>
体 育</w>
1 20</w>
领 导
货 币
诸 如</w>
类 似</w>
最 终</w>
效 益</w>
持 久
交 存</w>
9 9</w>
6 0
量 减少</w>
达 成
装 置</w>
自 决权</w>
联 委会</w>
罪 犯</w>
申 请</w>
本 身</w>
投 票</w>
战 略
年 龄</w>
履 行
尽 量减少</w>
响 应</w>
合 理</w>
劳 动</w>
助 长</w>
债 务
中 所载</w>
鉴 于</w>
达成 协议</w>
少 年</w>
医 疗</w>
制 造</w>
分 子</w>
他 人</w>
人 士</w>
交 易</w>
198 8</w>
特 网</w>
柬埔寨 政府</w>
最 低</w>
收 款</w>
损 失</w>
因 特网</w>
业 绩</w>
不 再</w>
C. 5</w>
2 42</w>
19 4</w>
随 时</w>
近 东</w>
贸易 法</w>
账 户</w>
视 察</w>
缴 付</w>
筹备 工作</w>
私 人</w>
普遍 性</w>
成 绩</w>
市场 准入</w>
南斯拉 夫
加 快</w>
准 备</w>
27 531</w>
19 73</w>
超 过</w>
续 会</w>
约 束
约束 力</w>
现 代
爆 炸</w>
持久 和平</w>
总 额</w>
应 急</w>
家 属</w>
女 工</w>
切 实
非 暴力</w>
零 票</w>
资 格</w>
航 行</w>
联 盟
联盟 共和国</w>
大 多数</w>
取 消</w>
友 好
南斯拉夫 联盟共和国</w>
2 22</w>
问 责</w>
登记 册</w>
法 语</w>
替 代</w>
更 大</w>
愿 意</w>
布 雷
已 有</w>
大 力</w>
友好 关系</w>
分 担</w>
讨 会</w>
管 辖
研 讨会</w>
残 疾</w>
捕 鱼</w>
所 得</w>
意 愿</w>
必 不可
应 收款</w>
布雷 顿</w>
基金 组织</w>
卫生 组织</w>
产 权</w>
198 6</w>
联 检</w>
现代 化</w>
文 化
推 广</w>
客 观</w>
国际 货币
全 部</w>
2 10</w>
19 60</w>
颁 布</w>
这 类</w>
议 事
观 经济</w>
第二 个</w>
现 况</w>
本 着</w>
恐 吓</w>
国际货币 基金组织</w>
第二 节</w>
法律 文书</w>
必不可 少</w>
弹 药</w>
发 出</w>
世界 卫生组织</w>
领导 人</w>
非 常</w>
阿拉 木
问 责
红十字 国际
红十字国际 委员会</w>
层 面</w>
名 单</w>
克 服</w>
之 下</w>
C. 2</w>
辐 射</w>
议事 规则</w>
视 为</w>
要 素</w>
绑 架</w>
管辖 权</w>
男 女</w>
永 久</w>
概 算</w>
林 匹
有 罪</w>
有 效率</w>
应 该</w>
干 旱</w>
宏 观经济</w>
奥 林匹
哈 拉</w>
即 决</w>
八 届</w>
充分 考虑</w>
信 仰
信仰 自由</w>
9 5</w>
198 5</w>
脆 弱
脆弱 性</w>
撒 哈拉</w>
恶 化</w>
志 愿
不 要</w>
一 条</w>
问责 制</w>
照 顾</w>
志愿 人员</w>
容 易</w>
协商 一致</w>
兵 库</w>
体 系</w>
交 换</w>
五 年</w>
主 席
2 35</w>
骚 扰</w>
逮 捕</w>
纪 录</w>
税 收</w>
治 理</w>
斗 争</w>
复 杂</w>
只 有</w>
划 界</w>
C D</w>
退 化</w>
进 步</w>
粮食 安全</w>
外 债</w>
同 样</w>
16 9</w>
遵 照</w>
通 报</w>
正 规</w>
机 能</w>
提 及</w>
巨 大</w>
十 三</w>
力 支持</w>
军 事
I V</w>
A .7</w>
4 0
20 6</w>
2 18</w>
198 7</w>
行 为
概 念</w>
来 自</w>
有 限</w>
有 力</w>
政 体</w>
备 选</w>
分 割</w>
债务 人</w>
会议 组织</w>
伊斯兰 会议组织</w>
事 态</w>
良 好</w>
海洋 生物</w>
没 收</w>
支 援</w>
撤 销</w>
多 年</w>
体 现</w>
IV. 13</w>
3 00</w>
资 本</w>
议 定</w>
被 害
被害 人</w>
虽 然</w>
范 畴</w>
未 能</w>
招 募</w>
当事 方</w>
导 弹</w>
基本 建设</w>
困 境</w>
可 靠</w>
六 种</w>
1 28</w>
解 释</w>
美 属</w>
种 种</w>
注 重</w>
汇 报</w>
攸 关</w>
悬 挂</w>
全 人类</w>
供 应</w>
与 其</w>
XX V
阿拉木 图</w>
重 返</w>
理 事</w>
成 本</w>
总 干事</w>
努力 实现</w>
除 雷</w>
该 项</w>
致 力</w>
惩 罚</w>
安 全
刑事 法庭</w>
免 受</w>
不可 分割</w>
不 罚</w>
3 3
里 约
里约 热
里约热 内
里约热内 卢</w>
设 想</w>
自由 化</w>
救 援</w>
常 规</w>
多 元
国际 贸易
加 紧</w>
其 后</w>
全 力</w>
保 护
住 房</w>
1 62</w>
除 非</w>
进 行
迄 今</w>
解放 组织</w>
至 少</w>
签 字</w>
特 拉特</w>
洛 尔
洛尔 科</w>
民 族
有 些</w>
日 期</w>
推 行</w>
惩 治</w>
巴勒斯坦 解放组织</w>
家 园</w>
多 地</w>
合作 社</w>
合 办</w>
农 村
主 管
被 占
被占 领土</w>
第一 个</w>
检查 组</w>
投 入</w>
感 兴趣</w>
布 尔</w>
国 旗</w>
各 届</w>
农村 妇女</w>
为 止</w>
w w</w>
w ww</w>
48 5</w>
领 事</w>
继续 执行</w>
社 会
特 使</w>
根 源</w>
文 本</w>
捍 卫
捍卫 者</w>
成 效</w>
征 求</w>
学 习</w>
C.9 3</w>
2 70</w>
17 5
1 73</w>
1 11</w>
行政 当局</w>
职 等</w>
流 通</w>
正 常</w>
持续 性</w>
复 员</w>
合法 性</w>
发 言</w>
卖 淫</w>
力 求</w>
作 业</w>
一 名</w>
1 46</w>
联合国 总部</w>
综 合
第十 二届</w>
着 手</w>
男 子</w>
深 入</w>
更 新</w>
文化 遗产</w>
庆 祝</w>
即 将</w>
印度 洋</w>
关键 作用</w>
偷 运</w>
万 美元</w>
2 37</w>
转 递</w>
调 解</w>
结 核
结核 病</w>
民 营</w>
数 据
才 能</w>
当事 人</w>
干 预</w>
公 海</w>
主席 团</w>
一 起</w>
I. 8</w>
重大 贡献</w>
足 额</w>
贫 困</w>
议 题</w>
让 人</w>
死 亡</w>
散 发</w>
国 内
受 让人</w>
协 会</w>
出 版</w>
免 遭</w>
以 上</w>
遭 到</w>
道 德</w>
讲 习
维 尔
管理 局</w>
章 程</w>
环 发</w>
潜 力</w>
查 会议</w>
时 限</w>
振 兴</w>
得 以</w>
审 查会议</w>
受 益</w>
创 造
19 8</w>
鲨 鱼</w>
置 于</w>
系统 地</w>
看 法</w>
潜 在</w>
模 式</w>
宪 政</w>
大 会
大会 决议</w>
多 种</w>
5 00</w>
2 13</w>
19 78</w>
释 放</w>
进 入</w>
过 渡
财 政
设 计</w>
讲习 班</w>
索 沃</w>
科 索沃</w>
执 行
所 在
态 度</w>
在 于</w>
危 及</w>
前 景</w>
制 作</w>
初 步</w>
充分 利用</w>
Add. 3</w>
19 77</w>
1 60</w>
. 3</w>
配 合</w>
赤 贫</w>
经济 委员会</w>
期 限</w>
曼 谷</w>
区域 间</w>
分 配
9 3</w>
重 复</w>
谋 求</w>
职 业</w>
维尔 京
维尔京 群岛</w>
理 解</w>
感 到</w>
年 鉴</w>
前 提</w>
何 人</w>
会 费</w>
买 卖</w>
t s</w>
5 60</w>
2 43</w>
2 26</w>
10 7</w>
1 58</w>
1 16</w>
随 后</w>
空 间
灵 活</w>
期 待</w>
时 期</w>
平 等
安 置</w>
夺 权利</w>
剥 夺权利</w>
修 改</w>
仇 恨</w>
48 6</w>
2 14</w>
1 41</w>
1 31</w>
进行 谈判</w>
认 真</w>
老 年人</w>
缅 甸
结 合</w>
繁 荣</w>
犯罪 行为</w>
特 性</w>
数 字</w>
成 就</w>
尽 力</w>
外 空</w>
地 球</w>
准 确</w>
候 选
之 中</w>
2 20</w>
驻 地</w>
资 源
至 迟</w>
自 然</w>
统 计
精 神
相 应</w>
有 效
塞 尔</w>
具 备</w>
7 29</w>
2 73</w>
表示 感谢</w>
而 言</w>
第五十 四届</w>
煽 动</w>
流 行
气 候</w>
案 文</w>
强 化</w>
因 而</w>
参 照</w>
参 与
加 上</w>
公共 卫生</w>
候选 人</w>
为 期</w>
Par ts</w>
I X
26 3</w>
2 45</w>
18 7</w>
10 8</w>
10 485</w>
10 2</w>
10 1</w>
鲁 塞尔</w>
面 影响</w>
负 面影响</w>
行为 人</w>
缅甸 政府</w>
继续 加强</w>
示 范</w>
电 信</w>
正 当</w>
数据 库</w>
打 算</w>
当 代</w>
布 鲁塞尔</w>
家庭 成员</w>
填 补</w>
包 容</w>
凌 虐</w>
具体 措施</w>
修 建</w>
仲 裁</w>
互 相</w>
中 央</w>
h t
1 51</w>
通 讯</w>
西 撒哈拉</w>
立 场</w>
生 命
海 啸</w>
流行 病</w>
期 望</w>
好 处</w>
可 持续性</w>
印 发</w>
列 为</w>
再 生
作 物</w>
6 00</w>
1 10</w>
青 少年</w>
载 列</w>
货 币</w>
良 心</w>
级 别</w>
第二十 届</w>
总 统</w>
强 制
口 头</w>
协 同</w>
前 往</w>
债 权
使 团</w>
中 亚</w>
不 受</w>
CONF. 2000</w>
2 15</w>
1 27</w>
1 22</w>
- -</w>
隔 离
隔离 墙</w>
船 旗
船旗 国</w>
美 洲
着 重</w>
法 定</w>
教 训</w>
往 往</w>
定 于</w>
境 况</w>
唯 一</w>
口 译</w>
五 个</w>
D E
. .
雇 用</w>
递 送</w>
调 查
第二 届</w>
杀 害</w>
旅游 组织</w>
念 及</w>
国内 法</w>
体 育
世界 旅游组织</w>
9 70</w>
20 8</w>
2 56</w>
2 27</w>
15 77</w>
1 52</w>
重 新
警 察</w>
袭 击</w>
精神 药物</w>
第四 章</w>
核 爆炸</w>
指 控</w>
应 有</w>
应 为</w>
届 会</w>
少 数
对 策</w>
场 所</w>
动 力</w>
加勒 比
再生 能源</w>
全球 性</w>
侦 查</w>
代表 性</w>
习 俗</w>
E .
CON F</w>
16 4</w>
阻 止</w>
遇 到</w>
记 者</w>
衡 平</w>
缓 解</w>
第七 十三</w>
机 遇</w>
惩 处</w>
强 奸</w>
序 言</w>
少数 民族</w>
定 义</w>
媒 介</w>
外 交
以 后</w>
i n
9 0
青 年人</w>
阶 层</w>
防 备</w>
适 合</w>
违 法行为</w>
详 细</w>
职 人员</w>
第五 次</w>
此 事</w>
有 所
如 此</w>
基 地</w>
制 品</w>
创造 条件</w>
人 选</w>
个 别</w>
17 1</w>
1 23</w>
& a
高 效率</w>
筹备 会议</w>
第一 节</w>
渔 船</w>
波 恩</w>
死 刑</w>
暂 停</w>
整 体</w>
指 南</w>
批 准
批准 书</w>
或 缺</w>
总 体</w>
平等 权利</w>
同 一</w>
反 恐</w>
加 剧</w>
估 计</w>
伤 亡</w>
以色 列
不可 或缺</w>
30 4</w>
2 36</w>
2 33</w>
1 24</w>
补 救</w>
索 引</w>
必 需</w>
其 他人</w>
共同 努力</w>
交 流
之 外</w>
2 21</w>
18 1</w>
顺 利</w>
迎 接</w>
资源 管理</w>
物 体</w>
极 端</w>
日 增</w>
摘 要</w>
征 税</w>
大 大</w>
国际 标准</w>
加勒比 海</w>
DE C</w>
26 560</w>
20 2</w>
19 79</w>
18 3</w>
编 纂</w>
意 外</w>
废 料</w>
坦 布尔</w>
善 政</w>
启 动</w>
取 代</w>
伊斯 坦布尔</w>
丰 富</w>
不 会</w>
7 00</w>
11 25</w>
逐 渐</w>
童 工</w>
生 境</w>
排 斥</w>
必 要性</w>
工作 者</w>
地 带</w>
加 沙</w>
出 于</w>
再 度</w>
兼 顾</w>
依 赖</w>
体育 运动</w>
价 值
2 34</w>
黑 海</w>
预 警</w>
规 章</w>
联 络</w>
署 国</w>
签 署国</w>
空间 科学</w>
用 来</w>
生产 性</w>
气 氛</w>
款 额</w>
核 设施</w>
更 多地</w>
当 选</w>
大 西
发 起</w>
公共 行政</w>
传 染
事 实</w>
九 条</w>
一 年</w>
I. 18</w>
D ec
2 .
预防 性</w>
陆 架</w>
过 分</w>
答 复</w>
移 交</w>
生 计</w>
港 口</w>
民主 化</w>
民 投票</w>
既 定</w>
无 条件</w>
政 党</w>
对 待</w>
大 陆架</w>
3 ;</w>
2 53</w>
1 ;</w>
&#9 3;</w>
&#9 1;</w>
麻醉 品</w>
阿拉伯 人</w>
路 线
路线 图</w>
计 算</w>
终 了</w>
约 束</w>
第十 三
第六 次</w>
第七 章</w>
种 植</w>
男 女
涵 盖</w>
废 物</w>
广 播</w>
前 体</w>
专 题
不 应</w>
P R
CONF.19 2</w>
2 32</w>
2 16</w>
198 4</w>
职 类</w>
第五 章</w>
竞 争
犯罪 活动</w>
特 点</w>
构 成
收 容</w>
拖 延</w>
容 性</w>
合作 伙伴</w>
依 然</w>
个 月</w>
E D</w>
3 78</w>
2 50</w>
19 7</w>
13 2</w>
预算 外</w>
非 国家</w>
限 度</w>
阐 述</w>
联合国 秘书处</w>
相互 合作</w>
相 信</w>
收 益</w>
性 暴力</w>
必要 条件</w>
实 地</w>
塔 利
塔利 班</w>
受 灾
公 营</w>
先 前</w>
以 求</w>
付 款</w>
人 身
一 节</w>
一 致
XX V</w>
C.9 7</w>
1 25</w>
1 19</w>
除 武装</w>
解 除武装</w>
第四 届</w>
服 务
数 量</w>
推 进</w>
形 成</w>
废 除</w>
广 泛
年 期</w>
定 为</w>
大西 洋</w>
何 种</w>
传染 病</w>
优 惠</w>
之 害</w>
20 7</w>
17 2</w>
1 67</w>
遏 制</w>
营 养</w>
联合国 国际贸易
联合国国际贸易 法
联合国国际贸易法 委员会</w>
美洲 国家
美洲国家 组织</w>
第四十 九届</w>
环境 保护</w>
父 母</w>
拒 绝</w>
报 表</w>
扫 盲</w>
履行 任务</w>
司法 制度</w>
PR ST</w>
4 00</w>
2 5
1 14</w>
震 惊</w>
边 界</w>
起 因</w>
融 合</w>
薪 酬</w>
董 事会</w>
美 阿</w>
第十 四
第一 款</w>
知 识
法 规</w>
构成 威胁</w>
施 行</w>
施 加</w>
敏 感</w>
敌 对
援 国</w>
排 除</w>
掌 握</w>
拨 款</w>
年 代</w>
尽 全力</w>
宗 教
四 个</w>
受灾 国</w>
受 援国</w>
包 容性</w>
努 美阿</w>
其 它</w>
亟 需</w>
一 方</w>
S P
I X</w>
20 5</w>
17 9</w>
闭 会</w>
等 教育</w>
研 训</w>
方 便</w>
应 由</w>
团 聚</w>
和 谐</w>
单 独</w>
内 向</w>
公 布</w>
债权 人</w>
一 方面</w>
o n
X X</w>
Corr .2</w>
CONF. 189</w>
20 378</w>
17 5</w>
0 .
阐 明</w>
贩 毒</w>
证 据</w>
认 捐</w>
经 验
来 源
施 政</w>
居 住</w>
实 质</w>
备 灾</w>
在 上文</w>
住 区</w>
人口 比例</w>
为 重要</w>
不 良</w>
不 仅</w>
CONF.19 1</w>
8 00</w>
20 3</w>
2 51</w>
19 70</w>
19 54</w>
1 53</w>
1 50</w>
足 以</w>
第四十 七届</w>
第四 十六届</w>
界 限</w>
特 别
来源 国</w>
无 论</w>
提 名</w>
报 道</w>
导 则</w>
学 科</w>
国 政府</w>
主管 机关</w>
一 章</w>
t p</w>
ht tp</w>
CONF. 1995</w>
2 40</w>
2 12</w>
1 54</w>
1 13</w>
金融 体制</w>
赫 勒
赫勒 拿</w>
证 明</w>
设 在</w>
角 度</w>
统 计</w>
紧 张
第十 二
用 以</w>
独立 性</w>
极 为重要</w>
显 著</w>
恐怖 分子</w>
强制 性</w>
帐 户</w>
实 践</w>
四 方</w>
同 等</w>
华 盛
区域 开发</w>
削 减</w>
其 管辖</w>
公 职人员</w>
亿 美元</w>
交 付</w>
互 动</w>
2 48</w>
18 5</w>
13 3</w>
1 47</w>
1 30</w>
1 29</w>
过 度</w>
达 喀
达喀 尔</w>
赫 纳</w>
许 可</w>
第四 节</w>
空 缺</w>
穷 人</w>
监 禁</w>
渠 道</w>
渔 获</w>
渔 业
海 牙</w>
民族 和解</w>
比 率</w>
提 倡</w>
另 见</w>
卡塔 赫纳</w>
协 力</w>
但 须</w>
任 期</w>
人 体</w>
不 法行为</w>
一致 性</w>
20 9</w>
20 1</w>
2 49</w>
2 25</w>
19 55</w>
17 0</w>
16 5</w>
1 77</w>
1 21</w>
贫 民
贫民 窟</w>
竭 尽全力</w>
根 本</w>
扩 展</w>
完 整
多元 性</w>
占领 区</w>
减 除</w>
供 应
严重 威胁</w>
ec t
26 6</w>
26 5</w>
19 9</w>
13 8</w>
10 4</w>
1 55</w>
预 警
道 路</w>
解 除</w>
英 文</w>
第四 条</w>
电 子
爆 发</w>
派 驻</w>
旱 灾</w>
年 来</w>
对 此</w>
容 许</w>
后 勤</w>
后 代</w>
华盛 顿</w>
切实 有效</w>
分配 原则</w>
免 费</w>
CO P</w>
28 3</w>
2 61</w>
2 41</w>
2 19</w>
2 11</w>
1 17</w>
预警 系统</w>
近 年来</w>
观 念</w>
蓄 意</w>
缴 纳</w>
秘 书</w>
私 营</w>
灾 后</w>
有 益</w>
最 好</w>
明 显</w>
恐 怖</w>
幅 度</w>
对 象</w>
名 誉</w>
召 集</w>
区 别</w>
判 决</w>
但 是</w>
CC W</w>
49 7</w>
19 48</w>
1 61</w>
阿 布
第四十 八届</w>
第四 十三届</w>
现 在</w>
显 示</w>
无 线
旅 行</w>
敌对 行动</w>
按 时</w>
安 圭
均 等</w>
四 十
周 期</w>
X V
AC. 105</w>
2 58</w>
2 106</w>
财务 报表</w>
该 司</w>
裂 变</w>
营 养
节 省</w>
简 化</w>
生 殖</w>
滥 杀</w>
滥 伤</w>
深 感</w>
津 贴</w>
次 序</w>
星 期</w>
时 候</w>
旅游 业</w>
搜 索</w>
拉 政府</w>
情 形</w>
得 起</w>
得 成功</w>
审 判</w>
大 批</w>
器 官</w>
伤 害
为 何</w>
严 峻</w>
七 条</w>
一 直</w>
d o
U N
175 12</w>
1 49</w>
1 .
集 中</w>
逾 期</w>
选 择
退 休</w>
财 力</w>
论 自由</w>
言 论自由</w>
行 事</w>
第一 百</w>
监 督
民主 政体</w>
无 国籍</w>
护 理</w>
家庭 暴力</w>
子 女</w>
大 幅</w>
发 现</w>
动 机</w>
决 策
伤害 力</w>
三 年</w>
一 半</w>
T A
S ect
IV. 8</w>
AC. 109</w>
3 38</w>
2 62</w>
2 31</w>
15 41</w>
13 4</w>
0 1</w>
负 担
视 同
视同 仁</w>
营养 不良</w>
自然 人</w>
等 级</w>
第三 届</w>
目 的
特 征</w>
物 资</w>
渔业 资源</w>
海洋 资源</w>
毁 坏</w>
旅 费</w>
旅 游</w>
斯 克</w>
找 出</w>
律 师</w>
将 来</w>
安圭 拉</w>
学 生</w>
学 校</w>
奥林匹 克
多 个</w>
培 养</w>
出 生</w>
全 力支持</w>
事 故</w>
一 视同仁</w>
一 套</w>
R C</w>
9 00</w>
28 6</w>
13 7</w>
1 44</w>
1 26</w>
造 福</w>
适 应</w>
迫 切</w>
这 次</w>
贩 卖
负担 得起</w>
衡 量</w>
翻 译</w>
相互 了解</w>
相 同</w>
目的 地</w>
特 区</w>
消 极
有效 性</w>
更 为</w>
无线 电</w>
撤 回</w>
揭 示</w>
总 值</w>
开 支</w>
平 台</w>
工 业
完整 性</w>
女 性</w>
奥林匹 克</w>
各项 措施</w>
侵 略</w>
48 0</w>
26 25</w>
19 74</w>
1 42</w>
1 15</w>
起 草</w>
贩卖 人口</w>
责 任
调查 结果</w>
系 指</w>
第 七</w>
生产 总值</w>
生 态</w>
消极 影响</w>
步 提高</w>
桌 会议</w>
教 育
技术 转让</w>
忘 录</w>
强 有力</w>
就 业
备 忘录</w>
地 向</w>
圆 桌会议</w>
受 灾</w>
偿 还</w>
会 上</w>
事务 处</w>
不 是</w>
B L
2 55</w>
道 导弹</w>
身 心
身心 健康</w>
贯 彻
莫 罗</w>
维 护
紧张 局势</w>
知识 产权</w>
界 定</w>
查 莫罗</w>
弹 道导弹</w>
干 涉</w>
学 院</w>
太 阳
大 型</w>
基 准</w>
吸 引</w>
六 个月</w>
任 何人</w>
事 先</w>
中 东
与 会
on l
onl in
onlin e</w>
m p
RE M
19 6</w>
1 18</w>
0 7</w>
间 表</w>
迟 延</w>
达 巴</w>
转 运</w>
身 心</w>
起 来</w>
贷 款</w>
苏 丹
苏丹 政府</w>
监 管</w>
爆 炸
法 人</w>
残疾 儿童</w>
此 一</w>
权 代表</w>
有 所</w>
易 受</w>
时 间表</w>
援 引</w>
所 在</w>
学 金</w>
妥 善</w>
太阳 能</w>
哪 些</w>
各 次</w>
分 阶段</w>
分 之
佩 林</w>
书 面</w>
书 面
中非 国家</w>
w t
wt o</w>
u n
do c
V ED</w>
TA BL
TABL E</w>
REM O
REMO VED</w>
AC. 198</w>
5 29</w>
2 4
198 3</w>
17 6</w>
16 6</w>
1 45</w>
1 40</w>
0 2</w>
鸿 沟</w>
阿布 贾</w>
选 出</w>
进 出</w>
返 还</w>
综合 症</w>
经验 教训</w>
经济 社会</w>
组 织
类 型</w>
生命 权</w>
环境 卫生</w>
活 力</w>
民 选</w>
无 效</w>
斡 旋</w>
援 助
承 付</w>
执行 局</w>
开 会</w>
庄 严</w>
天 免疫</w>
增 多</w>
后 天免疫</w>
协商 会议</w>
助 理</w>
减 损</w>
六 条</w>
京 都</w>
三 十
XX IX</w>
UN E
UNE P</w>
C.9 4</w>
6 34</w>
17 4</w>
13 5</w>
1 56</w>
非 正规</w>
长 期
进一 步提高</w>
轨 道</w>
财政 状况</w>
街 头</w>
药 物
药物 滥用</w>
经济 援助</w>
细 菌</w>
相 对</w>
监 狱</w>
独 特</w>
深 表</w>
淡 水</w>
法律 事务</w>
此 项</w>
检 查</w>
检 察
根 本
权 限</w>
性 虐待</w>
归 还</w>
应 分</w>
大 陆</w>
双 边
单 一</w>
加 入
加入 书</w>
具体 情况</w>
共同 利益</w>
全 权代表</w>
众 多</w>
价值 观</w>
价 格</w>
为 本</w>
与会 者</w>
F CC
FCC C</w>
12 49</w>
证 人</w>
第 九
痛 惜</w>
爆炸 物</w>
流 行</w>
毒 素</w>
援助 团</w>
接 纳</w>
抢 劫</w>
开 办</w>
常 驻</w>
巴 拉</w>
工作 文件</w>
小 型</w>
大 力支持</w>
地 理</w>
商 业
切实 可行</w>
做 到</w>
保 持
令 人
W T</w>
3 18</w>
29 6</w>
26 9</w>
2 44</w>
18 6</w>
17 8</w>
1 48</w>
金 斯克</w>
迄 今
贪 污</w>
调 解
补 助
补助 金</w>
缩 小</w>
管理 系统</w>
第十三 次</w>
突 出</w>
放 在</w>
就业 机会</w>
家 人</w>
实 物</w>
塞 米</w>
可 循</w>
取 决
取决 于</w>
协 助
协助 执行</w>
加 倍
加倍 努力</w>
以 供</w>
争 议</w>
mp ;</w>
XX X</w>
S G
SG B</w>
Add. 5</w>
29 5</w>
2 54</w>
19 2</w>
13 73</w>
. 6</w>
&a mp;</w>
通 行</w>
送 交</w>
舆 论</w>
自 身</w>
红 新
用 品</w>
瑚 礁</w>
珊 瑚礁</w>
毫 不</w>
武 库</w>
机 会
机会 均等</w>
未 成
天 体</w>
增 订</w>
地 理
同 上</w>
受 伤害</w>
发 言
劳 工</w>
制 约</w>
分 列</w>
信息 安全</w>
保 密</w>
低 收入</w>
之 日起</w>
XXV I</w>
Dec .
C P</w>
2 67</w>
19 0</w>
高 效</w>
马 舍
马舍 尔</w>
非 法
选 民</w>
谋 生</w>
西 岸</w>
裁 决</w>
纪 念
痛 苦</w>
由 此</w>
渔 具</w>
本 人</w>
有 用</w>
持续 增长</w>
当 事</w>
孤 儿</w>
多边 合作</w>
增 编</w>
境 外</w>
合 理
各 阶层</w>
受 害</w>
十 二</w>
共 享</w>
公 正
信息 系统</w>
3 12</w>
2 60</w>
2 24</w>
19 72</w>
19 5</w>
18 8</w>
10 3</w>
证 件</w>
训 研</w>
苦 难</w>
职 权</w>
职 务</w>
维 和</w>
用 户</w>
现 金</w>
比 亚
格 式</w>
极 其
极其 重要</w>
来 说</w>
所 指</w>
开 罗</w>
工作 量</w>
就 是</w>
声 援</w>
各 部</w>
受 到
友 好</w>
划 定</w>
分 段</w>
军 队</w>
使 该</w>
何 处</w>
传 播
会 期</w>
主 导</w>
CONF. 206</w>
19 51</w>
16 3</w>
飓 风</w>
集 会</w>
财务 状况</w>
被 迫</w>
补 偿</w>
蒙特 塞</w>
绝 种族</w>
系 列</w>
第十四 次</w>
第二十 六届</w>
第二十 七届</w>
第七 条</w>
生 存</w>
灭 绝种族</w>
民 用</w>
概 述</w>
时 应</w>
无 阻</w>
故 意</w>
政 和</w>
披 露</w>
坚 信</w>
国 与</w>
取 得成功</w>
删 除</w>
保 安</w>
传播 媒介</w>
今 世</w>
人 员
专题 讨论</w>
不 容许</w>
13 6</w>
1 43</w>
. 5</w>
难 民营</w>
追 究</w>
进 口</w>
过 剩</w>
路 线</w>
资 金
羁 押</w>
简 要</w>
筹 集</w>
第十 一部分</w>
生产 力</w>
犯罪 集团</w>
核 武库</w>
有所 增加</w>
月 球</w>
日 益
日 历</w>
支 配</w>
指 示</w>
弱 势
弱势 群体</w>
尼 诺</w>
尔 尼诺</w>
国 民
合理 化</w>
变 动</w>
及 早</w>
压 力</w>
厄 尔尼诺</w>
南 极</w>
半 球</w>
例 外</w>
人身 安全</w>
之 际</w>
东 部</w>
I N
B D</w>
90 68</w>
28 8</w>
28 1</w>
2 23</w>
19 75</w>
19 3</w>
19 1</w>
16 8</w>
13 9</w>
1 12</w>
首 次</w>
配 偶</w>
选择 性</w>
进 攻
进攻 性</w>
表示 满意</w>
节 目</w>
纠 正</w>
破 坏
男 孩</w>
瓦 那</w>
武装 部队</w>
极 为</w>
无 障碍</w>
新 能源</w>
教 学</w>
撤 出</w>
携 带</w>
执 法
所在 地</w>
所在 国</w>
应 予</w>
并 于</w>
大 众</w>
国 集团</w>
固 有</w>
哈 瓦那</w>
半 数</w>
劫 持
位 置</w>
人 命</w>
交流 信息</w>
X I
S R
C BD</w>
30 3</w>
2 30</w>
2 28</w>
. 8</w>
首 先</w>
预算 内</w>
贯 彻</w>
该 部</w>
言 论</w>
营 业</w>
肤 色</w>
第十 四届</w>
第一 条</w>
章 可循</w>
离 辐射</w>
监 视</w>
电 离辐射</w>
犯 下</w>
毫 不
有 章可循</w>
暂 时</w>
教 徒</w>
抗 灾</w>
所 用</w>
或 非</w>
恢 复
应 是</w>
差 异</w>
实 效</w>
奖 学金</w>
复 苏</w>
坚 定</w>
国家 计划</w>
卫 星</w>
全 民投票</w>
业 已</w>
s online</w>
2 52</w>
2 47</w>
2 39</w>
19 63</w>
领 袖</w>
预 计</w>
面 积</w>
难 者</w>
陆 地</w>
赠 款</w>
西 非国家</w>
表示 决心</w>
补 性</w>
营 造</w>
英 属
英属 维尔京群岛</w>
联合国 人口
联合国人口 基金</w>
联合 会</w>
联 络
第八 章</w>
第二 条</w>
竞争 力</w>
科学 研究</w>
破坏 性</w>
用 作</w>
独立 国家</w>
温 得</w>
汇 款</w>
每 日</w>
检察 官</w>
放射 源</w>
战略 武器</w>
惠 及</w>
很 大</w>
开 采</w>
大 小</w>
多 元</w>
外 联</w>
四 条</w>
动 用</w>
关 闭</w>
公 私</w>
八 国集团</w>
依 法</w>
优 越</w>
互 补性</w>
doc sonline</w>
L C</w>
4 43</w>
18 4</w>
雅 温得</w>
防 空</w>
防 灾</w>
遵 行</w>
适 用
退 回</w>
运 用</w>
迈 向</w>
装 备</w>
能 否</w>
管理 人员</w>
第十二 次</w>
第六 章</w>
禁 毒</w>
相 当</w>
皮 特</w>
百 慕
百慕 大</w>
理 论</w>
永 久
残 块</w>
未 缴</w>
曼 群岛</w>
斯 科</w>
改 造</w>
指 明</w>
所 提</w>
截 至</w>
意 图</w>
弃 物</w>
开 曼群岛</w>
废 弃物</w>
广泛 传播</w>
布 里
寻 找</w>
定 居</w>
完 善</w>
安哥 拉政府</w>
大 幅度</w>
增 加
合 格</w>
各 类</w>
反 对
南 半球</w>
单 兵</w>
十 一</w>
凯 恩</w>
准 许</w>
决 条件</w>
冲 击</w>
先 决条件</w>
充 作</w>
偏 见</w>
优 先
人 质</w>
不 良
下 落</w>
下 向</w>
一 道</w>
XX II</w>
V. 10</w>
50 3</w>
5 83</w>
5 56</w>
29 2</w>
20 4</w>
19 71</w>
高 等教育</w>
面 向</w>
镇 压</w>
贸 发</w>
调 指出</w>
计 算
获 益</w>
缴 款</w>
绝 对</w>
结 社</w>
相 当
永久 性</w>
次 级</w>
日 后</w>
无 人</w>
效 果</w>
强 调指出</w>
实 际
契 约</w>
多 种
喜 见</w>
公正 性</w>
五 十
不 断
I. 5</w>
8 22</w>
50 9</w>
3 94</w>
29 0</w>
2 29</w>
175 13</w>
1 59</w>
除 了</w>
金融 服务</w>
重大 进展</w>
重 担</w>
这 两项</w>
运 送</w>
过渡 时期</w>
辅 助</w>
转 让
第二十 五届</w>
立 法
相当 于</w>
男女 平等</w>
申 诉</w>
甄 选</w>
现 实
现 代</w>
海洋 学</w>
毫不 迟延</w>
比 较</w>
核 心
有 意</w>
普 及
普及 教育</w>
恶 劣</w>
忆 及</w>
废 止</w>
布里 奇
工业 化</w>
履行 职责</w>
宣 告</w>
多元 化</w>
四 年</w>
后 来</w>
合 并</w>
参 考</w>
化学 品</w>
公共 信息</w>
公 报</w>
倡 导</w>
会 谈</w>
令 人</w>
中 为</w>
不 限</w>
不 到</w>
一 切
u b
P LC</w>
A PLC</w>
2 3
非洲 大陆</w>
附 带</w>
采取 任何</w>
遗 传</w>
通 加</w>
迫 害</w>
达 格</w>
边 缘
边缘 化</w>
转让 技术</w>
财 产权</w>
设 置</w>
论 是</w>
计 量</w>
莫 斯科</w>
节 录</w>
自 行</w>
编 列</w>
经济 体</w>
第三 项</w>
直 至</w>
环境 退化</w>
特 派</w>
火 山
火山 爆发</w>
水 资源</w>
民主 联盟</w>
次 数</w>
档 案</w>
核心 作用</w>
极 端
普 通</w>
效 应</w>
提 高
拉 罗</w>
执法 人员</w>
广 播
广 为</w>
妇女 组织</w>
多 项</w>
圆 满
回 合</w>
各个 领域</w>
受 难者</w>
发 动</w>
参与 者</w>
原 始</w>
医 疗
列 出</w>
出 缺</w>
免 于</w>
停 火</w>
保 全</w>
依 靠</w>
份 额</w>
互 利</w>
一 系列</w>
C. 6</w>
6 67</w>
6 19</w>
4 26</w>
3 5
28 5</w>
部 非洲</w>
邻 近
邻近 地区</w>
逆 转</w>
迁 移</w>
诉 诸</w>
识 别</w>
表示 遗憾</w>
结 构
称 为</w>
益 于</w>
演 变</w>
正 当
日 为</w>
无 害</w>
提高 认识</w>
接 收</w>
担 责任</w>
扣 除</w>
战 祸</w>
彼 此
强 加
强加 于</w>
巴 厘</w>
审 慎</w>
周 围</w>
口 国</w>
南 部非洲</w>
南 亚</w>
利 用
出 身</w>
内 外</w>
关 税</w>
全 境</w>
信 心</w>
SR .
Add. 4</w>
50 8</w>
5 10</w>
33 480</w>
26 8</w>
2 75</w>
2 38</w>
还 应</w>
转 基金</w>
资金 来源</w>
萨 卡</w>
肯 定</w>
联 网</w>
纪 律</w>
签 发</w>
第十 九条</w>
笔 译</w>
激 励</w>
每 一</w>
核 战争</w>
族 群</w>
文 件
战 斗</w>
学 术</w>
奠 定</w>
基 石</w>
周 转基金</w>
发 给</w>
双 重</w>
参 加
卷 入</w>
卢 萨卡</w>
区 内</w>
劫持 人质</w>
削 弱</w>
初 级</w>
初 次</w>
其 余</w>
六 个</w>
八 条</w>
偿 债</w>
体 面</w>
优先 权</w>
以色列 国</w>
以 使</w>
为 限</w>
不 当</w>
三 年期</w>
V. 11</w>
T D</w>
S ub
E. 98</w>
30 822</w>
30 5</w>
17 71</w>
间 接</w>
重 叠</w>
配 额</w>
速 度</w>
连 同</w>
解放 军</w>
观 性</w>
观 察</w>
蚊 帐</w>
职 司</w>
统计 数据</w>
管理 处</w>
第四 十二届</w>
第 七届</w>
符 合
移 送</w>
理 想</w>
牵 头</w>
毛 坯</w>
根本 原因</w>
核 实</w>
核 动力</w>
来 文</w>
数 以
插 入</w>
开 大会</w>
对 本</w>
客 观性</w>
奴 役</w>
基本 权利</w>
告 知</w>
可 用</w>
召 开大会</w>
只 要</w>
别 的</w>
划 拨</w>
切 割</w>
内 载</w>
公共 部门</w>
克 斯</w>
先 进</w>
作出 反应</w>
住 所</w>
以色列 政府</w>
人民 解放军</w>
亲 属</w>
一百 零
一 再</w>
RE P</w>
IX .4</w>
A H
8 71</w>
2 74</w>
19 61</w>
鼓 舞</w>
限 于</w>
遗 留</w>
追 求</w>
身 份
跟 踪</w>
见 解</w>
要 点</w>
蔓 延</w>
统 治</w>
纽 约
疫 苗</w>
电 视</w>
生 殖
现 存</w>
牙 公约</w>
海 牙公约</w>
海 事</w>
水 下</w>
时 向</w>
改 组</w>
拨 出</w>
扣 押</w>
感 到
密切 相关</w>
实 况</w>
奴 隶
多 方面</w>
处 置</w>
土 著
命 令</w>
受 益
压 制</w>
力 度</w>
分之 二</w>
出 来</w>
内 为</w>
全面 实施</w>
停 火
休 战</w>
五 十周年</w>
二 个</w>
中 所作</w>
中 应</w>
不 安</w>
三 分之二</w>
V II</w>
Sub .2</w>
M SP
60 2</w>
5 59</w>
4 63</w>
26 4</w>
马 科</w>
领 取</w>
送 回</w>
转 交</w>
贯 性</w>
负 责
调解 人</w>
联合 声明</w>
签 订</w>
第四 十届</w>
第五 十</w>
相互 尊重</w>
相互 作用</w>
相 称</w>
白 盔</w>
特 克斯</w>
照 料</w>
消 费</w>
活 跃</w>
法律 义务</w>
段 落</w>
概 览</w>
条 所</w>
权 益</w>
未 决</w>
有 损</w>
摆 脱</w>
拆 除</w>
总 督</w>
忽 视</w>
建 造</w>
延 迟</w>
年 届会</w>
巴 马科</w>
屠 杀</w>
小 学</w>
宗教 自由</w>
完 全
奴 隶</w>
奋 剂</w>
多边 条约</w>
原 子</w>
原 则
原则 上</w>
南 方</w>
加 大</w>
剩 余</w>
创 建</w>
出 入</w>
凯 科</w>
其 能</w>
兴 奋剂</w>
保 罗</w>
XXV III</w>
AH G</w>
60 6</w>
4 62</w>
30 619</w>
29 9</w>
2 76</w>
2 57</w>
隆 坡</w>
长 老</w>
销 售</w>
连 贯性</w>
这 笔</w>
自 主权</w>
网 络
维护 者</w>
经 营</w>
红十字 会</w>
科学 技术</w>
碎 片</w>
短 缺</w>
现实 意义</w>
满 都</w>
清 单</w>
汇 辑</w>
条 所列</w>
早 期</w>
文 字</w>
推 迟</w>
挑 重担</w>
持 械</w>
拖 欠</w>
扭 转</w>
德 满都</w>
征 得</w>
彼此 之间</w>
影 响
影响 力</w>
已 获</w>
对 应</w>
夺 取</w>
多 方</w>
域 外</w>
圣 城</w>
圣 保罗</w>
国际贸易 中心</w>
国 对</w>
吉 隆坡</w>
司法 机关</w>
变 革</w>
加 德满都</w>
功 效</w>
军事 装备</w>
其 为</w>
共 计</w>
全 权</w>
信息 中心</w>
优 质</w>
企 图</w>
亟 须</w>
事 业</w>
不 论是</w>
下 降</w>
三 条</w>
CN .
4 72</w>
4 59</w>
25 45</w>
2 46</w>
19 69</w>
高 技术</w>
革 命</w>
退 出</w>
还 是</w>
认 知</w>
罂 粟</w>
综合 性</w>
紧 迫</w>
第十 三届</w>
第二十 二届</w>
第二 期</w>
第一 阶段</w>
睦 邻
电 信
燃 料</w>
比亚 政府</w>
放 弃</w>
撤 离</w>
提 高效率</w>
排 放</w>
授 予</w>
拘 禁</w>
感到 遗憾</w>
悲 惨</w>
性 健康</w>
强 大</w>
工 程</w>
审 判
奴隶 制</w>
外 来</w>
城 市
国 应</w>
因 果</w>
商 务</w>
和平 谈判</w>
北 部</w>
列 明</w>
刑事 诉讼</w>
冻 结</w>
其 所</w>
兰 政府</w>
停火 协定</w>
偏 低</w>
供应 商</w>
使 用
作 战</w>
亚 国家联盟</w>
事 实
东南 亚国家联盟</w>
东南 亚</w>
不可 逆转</w>
o s
XI I
XII I.18</w>
M S
C.9 5</w>
5 73</w>
49 9</w>
40 2</w>
4 39</w>
4 12</w>
17 60</w>
10 71</w>
驱 逐</w>
首 席</w>
非 法行为</w>
通 常</w>
适 足</w>
运 载
运载 工具</w>
运 动
过渡 政府</w>
辩 护</w>
贿 赂</w>
诚 地</w>
职 员</w>
管理 工作</w>
第十 七条</w>
稳 固</w>
积 压</w>
确 信</w>
真 诚地</w>
目 无
目无 亲</w>
百 万</w>
生 活
特别 强调</w>
海 底</w>
海 岸</w>
流 亡</w>
汲 取</w>
极端 主义</w>
权 威</w>
普 及</w>
换 意见</w>
所 订</w>
所 有权</w>
战略 性</w>
形 势</w>
应 以</w>
布里奇 敦</w>
封 锁</w>
外交 部长</w>
培 训
囚 犯</w>
商 品
各 非</w>
公 开
全 盘</w>
交 通</w>
交 换意见</w>
举 目无亲</w>
中东 地区</w>
Sect .
A .
7 91</w>
4 78</w>
2 79</w>
2 59</w>
19 68</w>
19 07</w>
高 质量</w>
金融 危机</w>
重新 召集</w>
责任 人</w>
负 有
负有 责任</w>
补 助</w>
精 简</w>
粮 农
粮农 组织</w>
第八 届</w>
第二 阶段</w>
第二 款</w>
研 制</w>
监督 制度</w>
申 请
物 色</w>
澄 清</w>
海 里</w>
概 不</w>
未成 年</w>
日 前</w>
教育 工作者</w>
擅 自</w>
快 速</w>
建 立
年 长</w>
小 组
对 性</w>
大 纲</w>
地 震</w>
回 归</w>
动 荡</w>
功 能</w>
刑 法</w>
公 民投票</w>
倾 弃</w>
俱 乐
俱乐 部</w>
余 额</w>
低 于</w>
五 年期</w>
严重 性</w>
三 角</w>
七 个</w>
p os
pos ;</w>
IV. 6</w>
7 A</w>
3 91</w>
3 57</w>
&a pos;</w>
额 外
迪 西</w>
这 场</w>
运动 会</w>
边 缘</w>
载 于</w>
贯彻 执行</w>
该 段</w>
致 使</w>
网 页</w>
缓 和</w>
红新 月
红新月 会</w>
第十 五届</w>
第五 节</w>
第三 个</w>
第一 期</w>
第 斯</w>
符合 国际</w>
立 宪</w>
着 眼
着眼 于</w>
生殖 器官</w>
海洋 污染</w>
海 图</w>
流 网</w>
法律 效力</w>
法 制</w>
汇 率</w>
毕 业</w>
核 能</w>
核 军备</w>
查 访</w>
林 迪西</w>
承 担责任</w>
意 志</w>
年 初</w>
平 均</w>
布 林迪西</w>
实际 上</w>
安 第斯</w>
大 部分</w>
大 大
埃塞俄 比亚政府</w>
圆 满</w>
可 行
取 缔</w>
南 太平洋</w>
包 含</w>
势 头</w>
利用 率</w>
具体 步骤</w>
公 然</w>
公 务</w>
全面 解决</w>
供 其</w>
位 于</w>
互 助</w>
两 次</w>
不良 影响</w>
不 致</w>
下 述</w>
一 点</w>
B W
8 791</w>
5 74</w>
28 2</w>
0 4</w>
0 .7</w>
额外 负担</w>
预防 措施</w>
阻 挠</w>
针 对性</w>
配 置</w>
赞 助</w>
贯 穿</w>
责 成</w>
诽 谤</w>
订 于</w>
自 主</w>
职 业
结 社
结社 自由</w>
精 算</w>
穆 斯
穆斯 林</w>
知 情</w>
相 符</w>
瘘 管</w>
用 水</w>
现 状</w>
犯罪 者</w>
混 合</w>
每 月</w>
极 洲</w>
有 益于</w>
最 终
暴 行</w>
文件 系统</w>
效 能</w>
掠 夺</w>
挨 饿</w>
担 保</w>
找 到</w>
扶 持</w>
手 册</w>
开发 银行</w>
建 筑
应 于</w>
已 于</w>
审 理</w>
奖 励</w>
国 有</w>
受到 限制</w>
双边 合作</w>
占 有</w>
南 部</w>
南 极洲</w>
勾 销</w>
军事 行动</w>
克 减</w>
做 好</w>
信 守</w>
任 用</w>
人 均</w>
产 出</w>
五 条</w>
个 人
两 种</w>
东 京</w>
世界 卫生</w>
不 足以</w>
C. 81</w>
C P
30 2</w>
2 72</w>
19 76</w>
18 74</w>
13 25</w>
0 5</w>
马 普
马普 托</w>
预算 编制</w>
难 性</w>
陆 上</w>
金融 部门</w>
通 货
通货 膨
通 力
通力 合作</w>
载 入</w>
踪 者</w>
起 源</w>
诱 杀</w>
认 定</w>
表 决权</w>
补 贴</w>
经 常
类 别</w>
第 六届</w>
离 开</w>
电信 联盟</w>
生 长</w>
犹 太
特别 法庭</w>
灾 难性</w>
添 加</w>
深 化</w>
涉 嫌</w>
测 量</w>
植 物</w>
某 一</w>
极 其</w>
来 看</w>
指 派</w>
扶 养</w>
战 胜</w>
总 数</w>
形 态</w>
开 列</w>
山 脉</w>
将 会</w>
对 受</w>
定 罪</w>
奥林匹克 运动会</w>
奥林匹克 委员会</w>
失 踪者</w>
失 业
基 督
国际 电信联盟</w>
国际 奥林匹克委员会</w>
国际 事务</w>
和 睦</w>
可 否</w>
参加 者</w>
十 六</w>
关键 因素</w>
代 价</w>
产 科</w>
交流 经验</w>
中 上
中上 层</w>
两 用</w>
XV III</w>
P V.
3 30</w>
3 11</w>
28 4</w>
2 77</w>
19 47</w>
1 49
.. ..
高 度
难 民
阿尔及 尔</w>
长期 存在</w>
适 宜</w>
边 境</w>
辅 导</w>
转 变</w>
车 辆</w>
起 着</w>
该 次</w>
该 届</w>
议 员</w>
葡萄 牙
节 约</w>
至 今</w>
耽 搁</w>
而 是</w>
统计 数字</w>
精 确</w>
第一 项</w>
第 九</w>
章 节</w>
竞争 性</w>
竞 争</w>
种 类</w>
生产 国</w>
甚 至</w>
清 理</w>
此 外</w>
欠 款</w>
最 初</w>
日 趋</w>
提 醒</w>
控 制
报 酬</w>
战 斗
惯 常</w>
弱 势</w>
干 扰</w>
巴 斯</w>
始 终</w>
失 去</w>
大 程度</w>
多 样</w>
基 层</w>
地 为</w>
合 适</w>
可行 性</w>
友 谊</w>
危 急</w>
十 天</w>
十 四</w>
十 六条</w>
加 工</w>
几 个</w>
减 半</w>
冷 战</w>
入 伍</w>
信 念</w>
保护 区</w>
优 惠
伊 朗</w>
人 身</w>
中 立</w>
下 令</w>
上 升</w>
H R
BW C</w>
Add. 7</w>
5 79</w>
5 40</w>
5 36</w>
4 64</w>
3 87</w>
3 61</w>
马拉 喀
马拉喀 什</w>
陈 述</w>
重 组</w>
部长 会议</w>
运 输
迄今 为止</w>
身 体</w>
贸 组织</w>
购 买</w>
财务 报告</w>
负 面</w>
详 细
试 点</w>
联合 体</w>
老 年</w>
缓 慢</w>
经常 性</w>
纽约 联合国总部</w>
紧急 状态</w>
管理 制度</w>
第三十 七届</w>
真 相</w>
疗 法</w>
海 龟</w>
求 偿</w>
永 远</w>
民 事</w>
每 届</w>
核 废料</w>
杀 人</w>
暴力 事件</w>
明 确
担 负</w>
扩 充</w>
所 示</w>
感 染
当事 国</w>
审判 程序</w>
实 习</w>
定 性</w>
安全 措施</w>
坦 佩
坦佩 雷</w>
地理 位置</w>
国 情</w>
咨 商</w>
可 信</w>
另 外</w>
受害 国</w>
发言 人</w>
发 达</w>
发 生
反对 派</w>
参与 性</w>
占领 军</w>
化 学</w>
努力 提高</w>
利 斯</w>
借 用</w>
信 通</w>
使 得</w>
作 主</w>
以 利</w>
人 为</w>
亚 太</w>
二 条</w>
主管 机构</w>
世 贸组织</w>
专 业
不 适</w>
三 级</w>
SP L
SPL O
SPLO S</w>
M I
4 57</w>
3 83</w>
3 37</w>
3 17</w>
28 9</w>
2 78</w>
12 44</w>
0 9</w>
非法 活动</w>
静 止</w>
阿富 汗
阿富汗 人</w>
里 巴斯</w>
部 件</w>
那 样</w>
追 回</w>
追 加</w>
进 出口</w>
转 用</w>
贸易 谈判</w>
财 富</w>
试 爆</w>
西 非</w>
考 试</w>
网络 安全</w>
缩 短</w>
结 成</w>
组织 法</w>
累 积</w>
紧 张</w>
精 算
精算 师</w>
第八 节</w>
第八 条</w>
第三十 四届</w>
第三 十五届</w>
第七 次</w>
第 九届</w>
科学 界</w>
睦邻 关系</w>
生 物
特 殊
物 种</w>
深 为</w>
法律 援助</w>
横 滨</w>
核 威胁</w>
有 利
更 具</w>
昂 山</w>
时 机</w>
斯 德
斯德 哥
斯德哥 尔
斯德哥尔 摩</w>
斟 酌</w>
教 材</w>
效 用</w>
操 作</w>
持 有</w>
抵 消</w>
很 多</w>
强 行</w>
建 筑</w>
幸 存
幸存 者</w>
年 轻</w>
居 所</w>
局 面</w>
宣 扬</w>
实 务</w>
基 里巴斯</w>
名 人士</w>
发展 前景</w>
发 送</w>
即 使</w>
决策 机构</w>
储 蓄</w>
传 统
从 速</w>
从 中</w>
亚 非</w>
互 相
事实 上</w>
中 向</w>
一 定</w>
s e
V .4</w>
CONF. 202</w>
CO P
7 78</w>
5 97</w>
30 8</w>
3 32</w>
2 222</w>
革 新</w>
雇 员</w>
采 纳</w>
通 告</w>
选 定</w>
追 踪</w>
追 查</w>
连 贯</w>
路 易
超 出</w>
赋 权</w>
议 会
议会 选举</w>
视 听</w>
裁 武</w>
表 现
表现 形式</w>
补 救
补救 措施</w>
薪 资</w>
荒 漠</w>
自由 权</w>
缺 陷</w>
维 持
维持 费</w>
经 过</w>
第十 八条</w>
第六 节</w>
第七 十六条</w>
私 人
祝 贺</w>
确 性</w>
破 产</w>
益 处</w>
百 分
物 品</w>
流 落</w>
沟 通</w>
核 可
极 大</w>
权 国家</w>
有 序</w>
最终 目标</w>
易 于</w>
提 起</w>
指 数</w>
成 年人</w>
意 味
意味 着</w>
情 势</w>
情 事</w>
并 非</w>
山 年</w>
居 住
定居 者</w>
定 向</w>
完全 符合</w>
学 术
多 层面</w>
基 薪</w>
和平 区</w>
后 世</w>
受 限制</w>
去 年</w>
南 美洲</w>
刑事 犯罪</w>
值 得</w>
信息 网</w>
便 于</w>
优 势</w>
仇 视</w>
主 权国家</w>
中 等</w>
丧 生</w>
与 此
不 带</w>
不 为
下 次</w>
下 放</w>
下 届</w>
Add. 6</w>
7 59</w>
5 80</w>
48 3</w>
48 1</w>
4 65</w>
4 28</w>
3 9
3 60</w>
3 16</w>
28 7</w>
20 11</w>
2 173</w>
14 78</w>
驻 留</w>
防 止
防止 出现</w>
部 厅</w>
适用 范围</w>
还 有</w>
西亚 政府</w>
药 用</w>
脱 离</w>
聘 用</w>
缺 少</w>
管理 机构</w>
第十 一条</w>
第三十 八届</w>
第三 十届</w>
积极 支持</w>
短 期</w>
知 名人士</w>
相 关
电 台</w>
用 尽</w>
物 理</w>
法 案</w>
气 体</w>
栏 下</w>
架 构</w>
果 断</w>
杜 绝</w>
未 满</w>
未 有</w>
未 受</w>
曾 经</w>
日益 严重</w>
新 型</w>
摊 派</w>
提供 方便</w>
捐 赠</w>
技术 咨询</w>
手 续</w>
所 获</w>
感 激</w>
恢复 正常</w>
微 额</w>
巴勒斯坦 人</w>
层 次</w>
密切 协作</w>
女 婴</w>
多 重</w>
增 拨</w>
国家 主权</w>
名 称</w>
各 款</w>
发 放</w>
发 射</w>
即 审</w>
印度尼 西亚政府</w>
千 百万</w>
区 分</w>
劫 持</w>
办 理</w>
创 伤</w>
分配 资源</w>
准 确性</w>
八 个</w>
借 助</w>
保护 环境</w>
伊斯兰 教</w>
付 诸
九 个</w>
丰 富
两 国</w>
不 懈</w>
一百零 五</w>
一切 权利</w>
IX .7</w>
Dec l
C. 86</w>
C M</w>
7 63</w>
5 78</w>
5 778</w>
4 74</w>
4 25</w>
4 22</w>
3 7
3 56</w>
3 101</w>
29 8</w>
29 3</w>
2 48
2 171</w>
19 .
1 299</w>
陷 入</w>
阿拉伯 文</w>
防 雷</w>
遥 法外</w>
通 盘</w>
逍 遥法外</w>
运 载</w>
财 产
负责 人</w>
该 区</w>
试 图</w>
识 字</w>
计算 机
解决 问题</w>
联合国 大会</w>
网 址</w>
统计 资料</w>
统 筹
统筹 兼顾</w>
组 建</w>
紧急 行动</w>
紧 密</w>
第十四 条</w>
第五十 五</w>
第三十 九届</w>
第 八</w>
研 发</w>
直 到</w>
珊 瑚</w>
现 任</w>
海 峡</w>
沙 伊
母 亲</w>
武 力
武力 威胁</w>
条 所载</w>
本 法</w>
普 选</w>
明确 规定</w>
时 代</w>
文 学</w>
摧 毁</w>
接 待</w>
投 票
所 谓</w>
所 欠</w>
得 不到</w>
强 烈
应 用
应 得</w>
广 大</w>
常 任
常任 理事</w>
对 抗</w>
委 托</w>
妨 害</w>
士 兵</w>
基础 教育</w>
培训 班</w>
地 国</w>
国 别</w>
商业 性</w>
否 则</w>
各项 政策</w>
参与 方</w>
原 主</w>
南 北</w>
十 个</w>
区域 性</w>
动 态</w>
几 乎</w>
全 额</w>
充分 发挥</w>
充 当</w>
企 业
以 免</w>
丰富 多
中 有</w>
两 者</w>
两 名</w>
不断 扩大</w>
不为 过</w>
不 容</w>
三 名</w>
XXV II</w>
IN F</w>
C.0 5</w>
C L
A U</w>
A S
5 44</w>
5 20</w>
5 15</w>
48 9</w>
29 4</w>
2 71</w>
19 66</w>
11 54</w>
0. 15</w>
饮 用水</w>
预 缴</w>
非洲 之
非洲之 角</w>
除 外</w>
迈 出</w>
路易 港</w>
跨 部门</w>
走 私</w>
行 进</w>
行 之
行之 有效</w>
葡萄牙 语</w>
自由 行动</w>
联 邦
经 许可</w>
纳 粹</w>
纪念 活动</w>
紧急 措施</w>
系统 对</w>
第十 九届</w>
第八 次</w>
第二十 八届</w>
第二十 九届</w>
第三 方</w>
第三 十六届</w>
科 技</w>
祸 害</w>
确 实</w>
相互 间</w>
目 录</w>
源 于</w>
海 鸟</w>
海 关</w>
派 出</w>
波 动</w>
法 令</w>
沙伊 赫</w>
民 兵</w>
比 什
比什 凯
比什凯 克</w>
死 伤</w>
构 想</w>
条 文</w>
未 经许可</w>
期 内</w>
有效 途径</w>
最 多</w>
无 法
支 柱</w>
据 此</w>
总 协定</w>
微 型</w>
席 位</w>
审 计
名 义</w>
同 该</w>
另 有</w>
发 表
十 二个</w>
动 产</w>
利 害
判 处</w>
刑 罚</w>
分 项</w>
分 歧</w>
出 发</w>
保持 一致</w>
保护 主义</w>
保 险</w>
依 循</w>
会议 议程</w>
伊斯 兰</w>
价值 观念</w>
交 给</w>
书面 形式</w>
丰富多 彩</w>
中 止</w>
中 小型</w>
严重 后果</w>
不 符</w>
一 至</w>
一 句</w>
e r
XV I</w>
V I</w>
I. 3</w>
I CC
F S</w>
CONF. 183</w>
A .4</w>
8 89</w>
5 37</w>
4 46</w>
4 24</w>
248 41</w>
16 74</w>
14 65</w>
顺 利
面 向
零 部件</w>
逐 个</w>
边 际</w>
赫 勒</w>
贝 巴</w>
调 研</w>
诺 斯
诺斯 艾
诺斯艾 利斯</w>
该 分</w>
评 析</w>
西班 牙
表示 同意</w>
萨 赫勒</w>
自 力
自力 更
自力更 生</w>
职业 培训</w>
而 作</w>
老 人</w>
美 国
维护 和平</w>
续 性</w>
红十 字</w>
签 证</w>
第十二 条</w>
第十 一章</w>
神 户</w>
研 拟</w>
睦 邻</w>
着重 于</w>
相 处</w>
盗 行为</w>
的 斯
的斯 亚
的斯亚 贝巴</w>
百分 比</w>
百 条</w>
用 语</w>
特 有</w>
渐 进</w>
深 感
深感 不安</w>
海 盗行为</w>
流 入</w>
民 间
殖 民</w>
正 如</w>
标 准
枪 支</w>
本 章</w>
本 地</w>
未 获</w>
有利 条件</w>
救 助</w>
政治 犯</w>
改 革
接 受
捕 获</w>
投 诉</w>
战斗 人员</w>
感染 者</w>
待 定</w>
待 命</w>
当 家
当家 作主</w>
强 制</w>
弹 头</w>
开 设</w>
应 计</w>
年 轻
年 会</w>
布 宜
布宜 诺斯艾利斯</w>
对 非</w>
宽 容</w>
头 报告</w>
大 麻</w>
外 国
坚 持</w>
在 此
土著 人</w>
喀 布尔</w>
各项 任务</w>
各 种
各 大</w>
可 预
口 头报告</w>
受益 者</w>
十 五</w>
十 三个</w>
劳 动力</w>
前 使</w>
刺 激</w>
到 达</w>
判 断</w>
出版 社</w>
减 缓</w>
决策 者</w>
军 火</w>
共 有</w>
保护 措施</w>
伴 随</w>
他 国</w>
亚 的斯亚贝巴</w>
主 张</w>
为 准</w>
不 具</w>
下 均</w>
上 诉</w>
三 方</w>
一 样</w>
C L</w>
5 91</w>
5 11</w>
49 2</w>
4 58</w>
4 17</w>
30 7</w>
3 90</w>
3 81</w>
3 63</w>
20 20</w>
15 15</w>
0 6</w>
高度 重视</w>
风 险
面 前</w>
集 结</w>
雅 加
雅加 达</w>
邮 政</w>
邮 件</w>
道 路
道路 交通</w>
通货膨 胀
通货膨胀 率</w>
通 过
这 份</w>
近 期</w>
转 化</w>
跨 学科</w>
赫 尔
贸易 条件</w>
负 债</w>
调 拨</w>
观 测</w>
覆 盖
自然 遗产</w>
能 及</w>
而 自由</w>
美 国</w>
细 节</w>
红新 月</w>
第十三 条</w>
第二 项</w>
立法 机构</w>
立法 机关</w>
空 中</w>
租 金</w>
相 一致</w>
监督 机构</w>
电子 商务</w>
生 而自由</w>
物 和
物和 弃</w>
物 力</w>
灵 活
沙 姆
沙姆 沙伊赫</w>
水 灾</w>
死 亡
武 器
某 项</w>
未 爆</w>
有 者</w>
星 期
早 婚</w>
无 须</w>
新 增</w>
文 盲</w>
收 费</w>
拉 维亚</w>
打 击
打击 犯罪</w>
所 致</w>
所 能及</w>
战略 目标</w>
成 长</w>
懈 努力</w>
总 结</w>
性 别
循 序
循序 渐进</w>
征 募</w>
建筑 物</w>
年轻 人</w>
巴 哈</w>
展 览</w>
外 展</w>
壁 垒</w>
增加 额</w>
图 里</w>
国际 性</w>
国际 争端</w>
命 运</w>
合法 权利</w>
及 第</w>
历 史
动 物</w>
力 所能及</w>
副 本</w>
分 散</w>
出 口国</w>
内 所</w>
内 在</w>
先 生</w>
伦 敦</w>
优惠 条件</w>
优 化</w>
介 入</w>
什 么</w>
不 懈努力</w>
一 贯</w>
一 天</w>
一 大</w>
X IV</w>
MI N</w>
L. 12</w>
ICC D</w>
I V.4</w>
H RC</w>
C S</w>
90 4</w>
6 87</w>
5 93</w>
5 32</w>
5 21</w>
48 8</w>
4 50</w>
4 .
3 80</w>
3 23</w>
3 13
19 46</w>
15 02</w>
0 3</w>
黑 兰</w>
风险 管理</w>
面 地</w>
错 误</w>
银 行
进 口国</w>
辛 格</w>
距 离</w>
走 向</w>
谢 利</w>
识 形态</w>
设 有</w>
论 处</w>
许 可
许可 证</w>
记 官</w>
观 察
著 重</w>
范 本</w>
自 愿
自 动</w>
联邦 政府</w>
联合国 日内
联合国日内 瓦
联合国日内瓦 办事处</w>
美 好</w>
统一 性</w>
素 质</w>
第五 届</w>
积 累</w>
真 诚</w>
看 到</w>
监 察员</w>
男女 比例</w>
电 站</w>
申 报</w>
生产 能力</w>
牛 津
牛津 大学</w>
清 洗</w>
深 海</w>
沉 重</w>
汉 密
汉密 尔
汉密尔 顿</w>
气 象
殖民 统治</w>
正当 理由</w>
梅 拉</w>
案 例</w>
标准 化</w>
某 种</w>
某 人</w>
权 威
权威 性</w>
本 源</w>
未成 年人</w>
最 受</w>
日 于</w>
整 理</w>
敦 请</w>
放射 性
放射性 物质</w>
改革 方案</w>
推 翻</w>
指导 组</w>
抬 头</w>
意 识形态</w>
德 黑兰</w>
循 环
律 平等</w>
强烈 呼吁</w>
开 展
布 拉</w>
差 别
差别 待遇</w>
工 会</w>
审 讯</w>
存 续</w>
如 同</w>
墨西 哥
增 至</w>
国民 经济</w>
国 性</w>
国 向</w>
同 行</w>
合 成</w>
合 实际</w>
可 靠
发言 权</w>
历 次</w>
即 时</w>
卡 纳
十 七</w>
办 活动</w>
前 南</w>
利 政府</w>
列 举</w>
切 合实际</w>
农 产品</w>
军事 力量</w>
全面 性</w>
先 例</w>
倾 倒</w>
保 险
供 水</w>
体 面地</w>
传统 习俗</w>
传 染</w>
以 利于</w>
人身 自由</w>
交 送</w>
二十 周年</w>
书 记官</w>
举 办活动</w>
中 所</w>
下 文</w>
三 项</w>
三 卷</w>
一百 七
一 律平等</w>
一 人</w>
W H
RE P
REP HR
REPHR AS
REPHRAS ED</w>
O C</w>
CP .3</w>
CL CS</w>
60 5</w>
6 60</w>
5 61</w>
5 .6</w>
3 8
3 75</w>
高 棉</w>
驱 虫</w>
频 繁</w>
预 先</w>
量 度</w>
退 约</w>
迟 于</w>
该 条</w>
该 处</w>
订 约</w>
解 放</w>
色 高棉</w>
署 长</w>
编 辑</w>
维 尔</w>
结构 性</w>
纳 粹
纳粹 主义</w>
红 色高棉</w>
管理 部</w>
第十 条</w>
第五 条</w>
第九 章</w>
第三 条</w>
石 油</w>
知 道</w>
知 名</w>
相关 性</w>
百 姓</w>
电 文</w>
生产 者</w>
滞 留</w>
深 入
海 外</w>
流 感</w>
活 动
水 产</w>
每 种</w>
死亡 率</w>
核 电站</w>
查 询</w>
朝 向</w>
服务 质量</w>
新 药</w>
文 物</w>
数以 千
数以千 计</w>
政治 纲领</w>
接 再
接再 厉</w>
损 坏</w>
指 称</w>
挂 钩</w>
拨 给</w>
所 受</w>
愈 来
恰 当</w>
性别 歧视</w>
忠 实</w>
循环 基金</w>
当 今
当今 世界</w>
当 中</w>
开展 业务</w>
延 绳
底 薪</w>
广泛 支持</w>
幼 鱼</w>
并 未</w>
差 值</w>
尤 应</w>
尤 为</w>
导 作用</w>
宿 主</w>
容 并
客 户</w>
实 施
宗教 团体</w>
宇 宙</w>
委 员</w>
复 杂
处 在</w>
增 设</w>
国 外</w>
团 伙</w>
和 善</w>
吸 取</w>
听 取</w>
后 裔</w>
合作 项目</w>
可靠 性</w>
双边 协定</w>
历史 性</w>
危地马 拉政府</w>
卡 内
卡内 基</w>
医疗 卫生</w>
务 必</w>
再 接再厉</w>
内 所载</w>
兼 容并
共和 国政府</w>
共 处</w>
六 十周年</w>
公开 性</w>
公共 服务</w>
全体 成员</w>
全 文</w>
侧 重</w>
伯利 恒</w>
会议 记录</w>
会 计</w>
以 人
以人 为本</w>
交 往</w>
之 日</w>
之 内</w>
主 导作用</w>
中 载列</w>
两 届</w>
两 周</w>
上 次</w>
一 词</w>
一 组</w>
s .
r o
WH A
W FS</w>
T T</w>
G A
GA TT</w>
C. 00</w>
8 .
5 49</w>
5 .
49 5</w>
4 23</w>
3 34</w>
3 .
29 1</w>
17 .
12 A</w>
鸦 片</w>
高级 官员</w>
面向 市场</w>
非洲 人</w>
非 常
青 蒿
青蒿 素</w>
随 着</w>
金融 中心</w>
重新 占领</w>
遥 感</w>
逐 出</w>
退 休
迟 在</w>
连 续</w>
进 而</w>
近 来</w>
转 入</w>
越 境</w>
贷 项</w>
责任 制</w>
语 种</w>
被 告
行 业</w>
获 量</w>
自愿 性</w>
联络 处</w>
联合 行动</w>
耶路撒 冷
耶路撒冷 城</w>
美国 联邦</w>
维 修</w>
结 核</w>
素 季</w>
第三 十三届</w>
移 动</w>
破 产
相 等</w>
疆 界</w>
电 视
灵活 性</w>
清 雷</w>
深入 研究</w>
测 性</w>
法律 顾问</w>
民 警</w>
民 百姓</w>
此 前</w>
欧 亚</w>
核 弹头</w>
村 庄</w>
机 场</w>
朝 着</w>
服务 业</w>
有 条
有 成效</w>
有 增
有增 无
有增无 减</w>
最 迟在</w>
普遍 存在</w>
时 效</w>
时 性</w>
日 常</w>
无 可</w>
新 兴</w>
整 套</w>
数以 百
政 策
收 养</w>
接 近</w>
捍 卫</w>
执行 公务</w>
所 设</w>
或 次</w>
怎 样</w>
弃 鱼</w>
延绳 钓</w>
应 立即</w>
平 民百姓</w>
工 商业</w>
尚 余
尚余 非</w>
小组 会议</w>
小 国</w>
导 航</w>
对 外</w>
密切 联系</w>
宗教 信仰</w>
学术 界</w>
失业 率</w>
天 基</w>
外交 使团</w>
基本 法</w>
四 周</w>
商品 价格</w>
可预 测性</w>
受 理</w>
反 馈</w>
反 贪污</w>
印 刷</w>
印 制</w>
加 深</w>
加 以
判 例</w>
分 类</w>
冷 水</w>
农 地</w>
六 次</w>
六 周</w>
公共 安全</w>
入 境</w>
供应 品</w>
仲 裁
人员 伤亡</w>
产 妇</w>
个 体</w>
严重 破坏</w>
下 去</w>
一 段</w>
一 步</w>
一 事</w>
t i
s se
e p</w>
a w</w>
P C</w>
F I
C. 87</w>
Add. 8</w>
9 464</w>
5 50</w>
5 34</w>
5 30</w>
38 544</w>
3 95</w>
3 31</w>
2 187</w>
18 99</w>
驱 回</w>
预 见</w>
顺 应</w>
项 工作</w>
集 中
附 有</w>
那 种</w>
遗 余
遗余 力</w>
连 续性</w>
远 距离</w>
远 离</w>
迄今 已</w>
辩 护
财政 管理</w>
诱 拐</w>
详细 资料</w>
详 尽</w>
该 所</w>
警 惕</w>
观察 团</w>
西 欧</w>
裁 判</w>
行为 准则</w>
萨 拉
艰 难</w>
能 源
联络 组</w>
绝 不</w>
结构 调整</w>
经 社
经社 理事会</w>
经 由</w>
约 定</w>
第三十 一条</w>
第七 节</w>
空 白</w>
科 托
科托 努</w>
福 利
福利 制度</w>
破产 法</w>
相 容</w>
皮 书</w>
留 物</w>
电子 邮件</w>
狭 小</w>
灾 区</w>
湖 区</w>
温 室</w>
清 除</w>
海 域</w>
流 向</w>
水 道</w>
民间 组织</w>
残 留物</w>
步 伐</w>
此 项工作</w>
此 后</w>
欧 国家</w>
概 要</w>
检查 站</w>
检 测</w>
核 证</w>
柏 林</w>
期 刊</w>
朝鲜民主主义人民 共和国政府</w>
有 待</w>
最 低
最 为</w>
更 改</w>
无 证</w>
无 视</w>
新闻 自由</w>
斯 特</w>
文 第</w>
携 手</w>
接受 国</w>
据 报</w>
招 聘</w>
抵 触</w>
扫 除</w>
所 以</w>
房 地</w>
战略 规划</w>
悲 剧</w>
循 环</w>
建立 健全</w>
建 成</w>
工作 日</w>
展 望</w>
审 定</w>
孤 身</w>
孕 妇</w>
大 国</w>
外 勤</w>
处 死刑</w>
增 值</w>
城市 论坛</w>
土 穆</w>
国家 机关</w>
团 长</w>
团 结
四 十</w>
喀 土穆</w>
名 册</w>
合法 政府</w>
司法 部门</w>
另 行</w>
受 惠</w>
取 用</w>
反对 党</w>
参 数</w>
南 非洲</w>
升 级</w>
医 学</w>
劳工 法</w>
制 药</w>
制 宪</w>
利害 关系</w>
利 核电站</w>
创 收</w>
刑事 责任</w>
切尔诺贝 利核电站</w>
分 庭</w>
出 口
几 年</w>
减 疟</w>
内 政
公共 事务</w>
债权 国</w>
借 此</w>
借 以</w>
修 复</w>
保持 平衡</w>
以 内</w>
亵 渎</w>
产 前</w>
互 联网</w>
二 名</w>
书 记</w>
习 惯</w>
主 体</w>
中 等教育</w>
中 文</w>
中 将</w>
中 低收入</w>
个人 身份</w>
与此 同时</w>
不 遗余力</w>
不 必要</w>
不 动产</w>
一 旦</w>
一 支</w>
一 倍</w>
一 体</w>
u n</w>
R P
IN F
INF C
INFC I
INFCI RC</w>
CONF. 172</w>
Add. 11</w>
7 80</w>
7 05</w>
6 50</w>
5 72</w>
5 66</w>
49 4</w>
4 56</w>
4 53</w>
4 32</w>
4 15</w>
35 11</w>
3 86</w>
3 70</w>
2 2
2 131</w>
19 58</w>
19 25</w>
19 15</w>
1 197</w>
龄 化</w>
齐 下</w>
马 那
马那 瓜</w>
饱 经</w>
食 品</w>
预 备</w>
限 额</w>
陆 国</w>
鉴 定</w>
重大 成就</w>
重大 意义</w>
遭 遇</w>
送 达</w>
转 达</w>
身份 证</w>
贸 总协定</w>
贯彻 落实</w>
该 城</w>
证 券</w>
计算 机</w>
警 察
警察 部队</w>
解 散</w>
虫 剂</w>
薄 弱</w>
蒙特 利
蒙特利 尔</w>
营 利</w>
艰 苦</w>
航 运</w>
自由 选择</w>
自 我</w>
能 为</w>
而 定</w>
老 龄化</w>
索 取</w>
粮食 计划署</w>
篇 幅</w>
筹 划</w>
等 等</w>
第十 六届</w>
第六 十
第二 卷</w>
第九 次</w>
第 九条</w>
竭 力</w>
税 率</w>
移 入</w>
礼 拜</w>
知 悉</w>
生 成</w>
现 实</w>
特殊 作用</w>
灰 复
灰复 燃</w>
渴 望</w>
清 楚</w>
清 偿</w>
深 表
治 外</w>
民 生</w>
毗 邻</w>
比亚 特区</w>
残 酷</w>
死 灰复燃</w>
核 技术</w>
核 扩散</w>
本 次</w>
日 渐</w>
无 论
施 工</w>
新闻 媒介</w>
断 肢</w>
操 守</w>
措 辞</w>
推 定</w>
损 耗</w>
挑 衅</w>
指 挥</w>
所 属</w>
战 俘</w>
情 报
悬 殊</w>
恐 惧</w>
忧 虑</w>
得 益</w>
建立 联系</w>
延 误</w>
延 续</w>
应 从</w>
带 有</w>
布 加勒
布加勒 斯特</w>
履行 义务</w>
小 农</w>
富 有</w>
密切 注意</w>
容 留</w>
宜 于</w>
安全 部队</w>
始 发</w>
奉 行</w>
失 效</w>
大 有</w>
多种 不同</w>
多 次</w>
墨西哥 城</w>
基本 要素</w>
基本 概念</w>
城 乡</w>
坚 实</w>
地 亚
地亚 哥</w>
圣 地亚哥</w>
土著 居民</w>
圆满 完成</w>
围 绕</w>
四十 四个</w>
商 事</w>
哥伦 比亚特区</w>
同 非</w>
同 情</w>
司法 独立</w>
可 供</w>
受益 人</w>
及 美属</w>
即 应</w>
动 植物</w>
务 实</w>
前 途</w>
删 去</w>
刚果 人</w>
几 项</w>
减 让</w>
决 意</w>
内 陆国</w>
内 政</w>
兼 容</w>
关 贸总协定</w>
共同 点</w>
公共 政策</w>
全 国性</w>
债务 国</w>
促 进
使用 暴力</w>
件 人</w>
令人 满意</w>
人 知</w>
人 事</w>
互 惠</w>
二十 五</w>
二 所载</w>
中 请</w>
个 案</w>
世界 粮食计划署</w>
不 利于</w>
上 游</w>
一百 六
一切 办法</w>
一 周</w>
一 亿</w>
l aw</w>
e n
XX IV</w>
S S</w>
L E
CONF. 164</w>
9 99</w>
6 58</w>
50 2</w>
50 1</w>
5 89</w>
5 58</w>
5 47</w>
5 18</w>
49 6</w>
4 35</w>
4 21</w>
4 19</w>
313 63</w>
3 89</w>
3 49</w>
3 26</w>
28 26</w>
28 19</w>
26 363</w>
20 12</w>
18 33</w>
16 12</w>
15 40</w>
15 20</w>
149 56</w>
10 19</w>
0. 20</w>
饮 水</w>
预 定</w>
项 下</w>
雷 区</w>
隔 离</w>
隐 瞒</w>
陀 利亚</w>
鉴 定
重 计</w>
配 备</w>
邻 近</w>
通 讯
适用 法律</w>
适 龄</w>
迫 性</w>
还 要</w>
身份 证件</w>
起 到</w>
财产 损失</w>
贝 尔
贝尔 格
贝尔格 莱
贝尔格莱 德</w>
调解 员</w>
调 停</w>
诚 信</w>
证 实</w>
覆 盖</w>
被告 人</w>
行政 部门</w>
获 悉</w>
能 以</w>
缩 减</w>
绝 不能</w>
结 婚
经济 秩序</w>
终 生</w>
组 在</w>
紧 迫性</w>
筹 款</w>
筹 办</w>
称 赞</w>
秩 序
秩序 地</w>
秘 密</w>
社会 制度</w>
研 所</w>
睦 相处</w>
相 比</w>
相 威胁</w>
电子 媒体</w>
生物 武器</w>
生命 线</w>
现 已</w>
版 本</w>
海 地区</w>
洛 美</w>
法 系</w>
法 文</w>
水 准</w>
气象 组织</w>
民 政</w>
毫 无
比 勒
比勒 陀利亚</w>
每 次</w>
正 是</w>
欧洲 理事会</w>
欧 元</w>
欠 缴</w>
格 里
查 禁</w>
查 找</w>
权 力
权力 下放</w>
杀 虫剂</w>
本 款</w>
未 交</w>
有 秩序地</w>
最低 标准</w>
最 高级别</w>
普 查</w>
时 所</w>
时 以</w>
方 可</w>
新闻 记者</w>
文 职人员</w>
撤 消</w>
摒 弃</w>
捞 业</w>
捕 捞业</w>
持 证</w>
报 复</w>
技术 性</w>
所 载列</w>
所 能</w>
所 未有</w>
愈来 愈
愈来愈 多</w>
恪 守</w>
恋 童</w>
怂 恿</w>
往 来</w>
康 复
康复 中心</w>
底 鱼</w>
广播 员</w>
并 经</w>
巴 尔
巴尔 干</w>
展 示</w>
展 现</w>
尼 拉</w>
尚 待</w>
少 女</w>
射 入</w>
室 内</w>
安全 部门</w>
婚 姻</w>
天 气</w>
大 楼</w>
多种 形式</w>
境 签证</w>
境 地</w>
基 伍</w>
地 质</w>
圣 地</w>
圆满 结束</w>
国际 形势</w>
团结 一致</w>
善 政
商业 活动</w>
和平 共处</w>
和 睦相处</w>
吸 收</w>
否 定</w>
后 面</w>
可 取</w>
另 一方面</w>
变 得</w>
受 难</w>
卡纳 克</w>
半 年</w>
医疗 保健</w>
勘 探</w>
务 须</w>
前 所未有</w>
判 处死刑</w>
初 期</w>
分 之一</w>
函 件</w>
军 人</w>
养 殖</w>
关 税
关 押</w>
六 年</w>
八 七</w>
全面 落实</w>
入 学</w>
克 政府</w>
借 鉴</w>
保 障
侵 蚀</w>
会议 室</w>
伊拉 克政府</w>
任 何
仲裁 员</w>
仔 细</w>
人民 代表</w>
产 量</w>
事 由</w>
乡 村</w>
主 持
丢 失</w>
东 欧国家</w>
世界 气象组织</w>
专 用</w>
不 明</w>
不 分
三 次</w>
三 十周年</w>
三 分之一</w>
一百 四十</w>
一 位</w>
一 个月</w>
un h
unh c
r e
b l
XX XV</w>
MS P</w>
IX .8</w>
I n
E X</w>
C. 4</w>
Add. 12</w>
Ad d</w>
9 17</w>
8 50</w>
8 23</w>
7 90</w>
7 02</w>
6 25</w>
50 6</w>
5 82</w>
5 81</w>
5 71</w>
5 19</w>
48 4</w>
4 69</w>
3 92</w>
3 85</w>
3 58</w>
3 51</w>
3 14</w>
3 10</w>
2 205</w>
2 1.
鲁 特</w>
高 层</w>
驱 动</w>
马 尼拉</w>
香 港</w>
顺 差</w>
非 核心</w>
集 会
集会 自由</w>
难 以</w>
隐 私</w>
金融 市场</w>
金 属</w>
选择 权</w>
退休 金</w>
远 程</w>
进 修</w>
达 尔
达尔 富
达尔富 尔</w>
辩护 律师</w>
转 换</w>
跃 分子</w>
费 率</w>
贸易 协定</w>
购 置</w>
贝 鲁特</w>
许 诺</w>
警 报</w>
规 范
规 程</w>
覆盖 范围</w>
裁 定</w>
行政 权</w>
获 得成功</w>
药 性</w>
节 所载</w>
而 应</w>
美利坚合众 国政府</w>
结婚 年龄</w>
结 算</w>
结 婚</w>
经济合作 与
经济合作与 发展
经济合作与发展 组织</w>
经济 基础</w>
管理 费用</w>
策 划</w>
第十 节</w>
第十 五</w>
第十 五
第十 三</w>
第一 句</w>
积极 开展</w>
积极 响应</w>
科学 家</w>
科 技
私 法</w>
碰 撞</w>
监 护</w>
白 皮书</w>
理 应</w>
然 后</w>
火 器</w>
海 平
海平 面</w>
活 跃分子</w>
民 教育</w>
比 利亚</w>
武器 化</w>
正 确</w>
格 局</w>
标 志</w>
末 尾</w>
有 形</w>
最 具</w>
普 敦</w>
晋 升</w>
是 因为</w>
日益 增长</w>
日 程
无 辜</w>
新闻 媒体</w>
新西 兰政府</w>
政策 措施</w>
收 藏</w>
操 作
搜 寻</w>
提 尼
提尼 翁</w>
提 出
推 回</w>
探 视</w>
据 称</w>
损 毁</w>
挑 选</w>
拉 丁</w>
抛 弃</w>
抚 养</w>
抗 药性</w>
技术 支持</w>
所 负</w>
或 分</w>
成 瘾</w>
患 者</w>
总 务</w>
性 侵犯</w>
急 需</w>
怀 孕</w>
引 导</w>
开 放
廉 正</w>
康 状况</w>
应 适当</w>
应 自</w>
广播 电台</w>
广 为
广为 人知</w>
差 别</w>
差 万
差万 别</w>
就 职</w>
小 规模</w>
审 案</w>
委 任</w>
姓 名</w>
失 望</w>
失 业</w>
大 幅
多 语种</w>
外 流</w>
复 方</w>
备 金</w>
基 多</w>
城市 化</w>
地理 信息系统</w>
土 地
国内 外</w>
国 所作</w>
国 与
国与 国</w>
固 定</w>
回 收</w>
后 者</w>
司 在</w>
发生 地</w>
发 布</w>
双 向</w>
及 时性</w>
即 可</w>
协 约</w>
千 差万别</w>
努力 争取</w>
准 予</w>
公共 财政</w>
全球 战略</w>
全 民教育</w>
入 境签证</w>
充分 行使</w>
儿童 教育</w>
健 康状况</w>
借 调</w>
信 用
俄 文</w>
作 贡献</w>
任 地</w>
仪 式</w>
以 下
以下 内容</w>
人员 编制</w>
产 后</w>
交 通
交 互</w>
五 项</w>
互 动
互 信</w>
书面 通知</w>
书面 声明</w>
主持 人</w>
中 所列</w>
中 介</w>
严格 执行</w>
严 厉</w>
两 天</w>
两 份</w>
专业 化</w>
不 起</w>
不 堪</w>
不 予</w>
不 久</w>
一百七 十</w>
x COP</w>
w e
we b</w>
ti o
tio n</w>
sse m
ssem bl
ssembl y</w>
i s
ht m</w>
a m
Re s.
RE C</w>
MS C.
LE G</w>
I S
E xCOP</w>
CN. 17</w>
C. 3</w>
C .1</w>
Add. 10</w>
A ssembly</w>
8 73</w>
8 48</w>
8 15</w>
7 57</w>
7 50</w>
6 88</w>
6 37</w>
5 96</w>
5 63</w>
40 5</w>
40 1</w>
4 90</w>
4 79</w>
4 76</w>
4 67</w>
4 60</w>
4 36</w>
3 55</w>
3 50</w>
3 47</w>
3 41</w>
3 40</w>
3 21</w>
29 97</w>
19 50</w>
. .</w>
齐 心
高 尚</w>
马 格里
马格里 布</w>
首 要
饮 食</w>
飞 行
飞行 员</w>
额 为</w>
颁 发</w>
非 农业</w>
长 老
长老 会</w>
链 接</w>
鉴定 人</w>
里 程
里程 碑</w>
里 斯
那 里</w>
遏 止</w>
通 行
逐 一</w>
进行 性</w>
这 为</w>
辨 认</w>
辛 基</w>
轮 值</w>
赫尔 辛基</w>
调查 团</w>
请 拨</w>
询 问</w>
译 成</w>
诊 断</w>
证 会</w>
血 统</w>
获 准</w>
苯 丙
苯丙 胺</w>
艺 术
航 海</w>
航 天</w>
舞 台</w>
自 其</w>
自 从</w>
经验 交流</w>
经 历</w>
组 合</w>
组 办</w>
管理 层</w>
筹 供</w>
第四 个</w>
第十 章</w>
第十 一次</w>
第二十 四条</w>
第二十 二条</w>
第一 步</w>
章 中</w>
积极 合作</w>
确 切</w>
相 结合</w>
监 测
留 住</w>
申请 书</w>
生 育</w>
犹太 主义</w>
牢 固</w>
激 增</w>
源 泉</w>
游 客</w>
深表 遗憾</w>
涌 入</w>
海 道</w>
海 员</w>
测 绘</w>
法 国政府</w>
沿 岸</w>
沿 岸
水 文学</w>
民族 主义</w>
检 索</w>
格 尊严</w>
柴 维尔</w>
枯 竭</w>
杰 出</w>
有 机</w>
有 害
有害 物质</w>
最 易</w>
暂 行</w>
普 通
是 从</w>
明 示</w>
明 知</w>
旷 日
旷日 持久</w>
时 地</w>
文 献</w>
改 良</w>
改 动</w>
收 缴</w>
搬 迁</w>
提 升</w>
推 展</w>
拉 柴维尔</w>
抗 辩</w>
抑 制</w>
扫 雷</w>
成 人</w>
意 向</w>
恐怖 活动</w>
性 保健</w>
很 难</w>
当 时</w>
弱 点</w>
弘 扬</w>
引 发</w>
异 议</w>
开 头</w>
应 堆</w>
庇 护
幸 福</w>
年 薪</w>
平 行</w>
布 拉柴维尔</w>
巴勒 莫</w>
已 登记</w>
山 岳</w>
小组 讨论</w>
小 企业</w>
将 要</w>
对 养</w>
审计 报告</w>
学 者</w>
如 能</w>
天 文</w>
大 选</w>
大 使</w>
多 国</w>
外国 人</w>
复杂 性</w>
增 补</w>
垫 款</w>
场 址</w>
在此 之前</w>
国际 舞台</w>
团 在</w>
四 名</w>
喷 剂</w>
听 证会</w>
否 认</w>
吞 并</w>
同 亚非</w>
各 政党</w>
可 比</w>
受到 破坏</w>
受 伤</w>
发 行</w>
发 指</w>
反 应堆</w>
原 有</w>
原 定</w>
历 年</w>
单 边</w>
十 八</w>
化 为</w>
动 乱</w>
务 教育</w>
加以 解决</w>
办 公</w>
利 益
判 刑</w>
初 始</w>
创 业</w>
刚 刚</w>
分 离</w>
凡 是</w>
冬 季</w>
农业 部门</w>
共同 声明</w>
共同 商定</w>
公务 人员</w>
公 平
兑 现</w>
借 款</w>
修 订
信 奉</w>
促进 作用</w>
使 人</w>
作 准</w>
伦 理</w>
伊 比利亚</w>
企业 界</w>
任何 一方</w>
以 考虑</w>
令人 发指</w>
人 种</w>
人 格尊严</w>
五十 多年</w>
互相 合作</w>
事务 司</w>
予 以考虑</w>
乌克 兰政府</w>
义 务教育</w>
中东 国家</w>
中 核</w>
业 精神</w>
专 项</w>
不良 后果</w>
不 让</w>
不 向</w>
不 合理</w>
不 分</w>
一百 八
s .1</w>
E n</w>
CONF. 187</w>
9 50</w>
8 30</w>
6 91</w>
5 95</w>
5 76</w>
5 67</w>
5 65</w>
5 35</w>
5 17</w>
48 7</w>
4 77</w>
4 73</w>
4 48</w>
4 20</w>
39 574</w>
35 457</w>
30 1</w>
3 65</w>
3 46</w>
3 27</w>
28 0</w>
28 .
26 705</w>
24 64</w>
20 51</w>
14 56</w>
13 97</w>
13 60</w>
顺利 完成</w>
项 目
非 歧视</w>
非 他
非他 明</w>
难民 潮</w>
防 卫</w>
鉴 别</w>
金 钱</w>
重 负担</w>
里斯 本</w>
遵 从</w>
遇 到
遇到 困难</w>
选 项</w>
选 举
追 究
迹 象</w>
迫 使</w>
远 地区</w>
运输 系统</w>
运输 工具</w>
过渡 期</w>
贫 民</w>
诸 边</w>
诚 意</w>
诉 讼
评 级</w>
设 定</w>
订 明</w>
规范 性</w>
西 帝</w>
被 判</w>
行 使
萨拉 热
萨拉热 窝</w>
英 国</w>
腐 败
网 上</w>
继 承
经 管</w>
组 成员</w>
纵 容</w>
约 法</w>
系统 性</w>
第十 四</w>
第十 一</w>
第二十 条</w>
第二十 一条</w>
第三十 二条</w>
竞 合</w>
立 刻</w>
稳 过渡</w>
私人 资本</w>
离 职</w>
禁 绝</w>
社会 活动</w>
社会 主义</w>
社 团</w>
示 威</w>
确 保
相互 理解</w>
相互 影响</w>
的 话</w>
登记 处</w>
痛 心</w>
病 率</w>
病 例</w>
生活 水准</w>
生命 周期</w>
现 场</w>
犹太 人</w>
犯 有</w>
牢 记</w>
热 液</w>
滥 用
温 尼
温尼 伯</w>
深 重</w>
派 系</w>
派 往</w>
注 意
泊 车</w>
沿岸 国</w>
沉 重负担</w>
民族 团结</w>
正当 程序</w>
欲 免</w>
概 况</w>
桌 面</w>
核可 本</w>
核 科学</w>
条 约法</w>
朝鲜 半
朝鲜半 岛</w>
有效 期</w>
有所 改善</w>
更 高</w>
更 佳</w>
普 埃
普埃 布拉</w>
易 名</w>
明 文
日程 表</w>
日 趋
日 俱
日俱 增</w>
日 以</w>
无论 怎样</w>
新闻 稿</w>
断 定</w>
整 合</w>
放 置</w>
收 回</w>
揭 露</w>
提供 者</w>
掸 邦</w>
挑 起</w>
拥 有者</w>
拉 法</w>
抵 制</w>
折 扣</w>
执行 机构</w>
托 管</w>
所 附</w>
所 为</w>
房 舍</w>
房 屋</w>
成 熟</w>
得 出</w>
形 象</w>
开 普敦</w>
开 幕</w>
度 降低</w>
度 化</w>
库 县</w>
年 养</w>
平 稳过渡</w>
平 均
带 头</w>
巴 托</w>
已 满</w>
差 旅费</w>
岌 岌
岌岌 可
岌岌可 危</w>
履 约</w>
居住 者</w>
居住 地</w>
寡 妇</w>
密 不可
密不可 分</w>
实施 方案</w>
安 非他明</w>
学 会</w>
季 度</w>
失业 问题</w>
太 阳</w>
天 翁</w>
大幅 度降低</w>
大 战</w>
大 家</w>
大 力度</w>
外 界</w>
复 存在</w>
增加 收入</w>
增 效</w>
增 列</w>
基督 教徒</w>
基督 教</w>
基 线</w>
场 地</w>
地 球
地 址</w>
地 图</w>
在 线</w>
在 国</w>
团 是</w>
因 应</w>
喷 口</w>
周 转</w>
含 有</w>
各 份</w>
司法 程序</w>
司法 官员</w>
变 更</w>
发表 意见</w>
十 分
努力 完成</w>
加 重</w>
加 大力度</w>
前 面</w>
制 度化</w>
利 马</w>
判 决
判决 书</w>
初 等教育</w>
创 业精神</w>
分 工</w>
出 席
凭 借</w>
几 种</w>
减 去</w>
准 备金</w>
内 涵</w>
兼 并</w>
其 向</w>
其 下</w>
兵 库县</w>
关键 时期</w>
兰 巴托</w>
公共 财产</w>
公 职</w>
公 告</w>
免 除</w>
偏 不
偏不 倚</w>
借 口</w>
信用 证</w>
信 天翁</w>
保险 费</w>
保 管</w>
使用 者</w>
作 证</w>
估 值</w>
传 递</w>
会 员</w>
企 盼</w>
任 满</w>
以 图</w>
代 理
亿 人</w>
人 性</w>
亚 太
事 宜</w>
乱 伦</w>
乌 兰巴托</w>
举 报</w>
为 首</w>
为 重</w>
中东 问题</w>
中 以</w>
业 主</w>
与 日俱增</w>
不 法</w>
不 少</w>
不 够</w>
不 复存在</w>
不 偏不倚</w>
上 面</w>
上 将</w>
万 计</w>
七 年</w>
一 读</w>
一 第</w>
一 所</w>
一 代</w>
a f
XX XVI</w>
XX III</w>
XV II</w>
X II</w>
SR. 30</w>
RP M
P C.2</w>
L. 11</w>
IX .1</w>
C.9 2</w>
C E
A .3</w>
9 76</w>
6 90</w>
6 38</w>
6 33</w>
6 16</w>
50 7</w>
5 98</w>
5 84</w>
5 48</w>
5 46</w>
5 28</w>
49 8</w>
4 68</w>
4 52</w>
4 31</w>
35 597</w>
33 873</w>
33 757</w>
3 74</w>
3 73</w>
3 64</w>
3 44</w>
3 19</w>
3 13</w>
20 56</w>
14 691</w>
14 152</w>
10 01</w>
1 194</w>
.... ..</w>
齐心 协力</w>
鼓 吹</w>
高 不
高不 下</w>
饥 荒</w>
颠 覆</w>
题 目</w>
顾 问
雇 主</w>
阿拉木 图
阿拉木图 宣言</w>
重新 安排</w>
里 达</w>
避 难</w>
通过 审查</w>
递 给</w>
逐 字</w>
透明 化</w>
迟 交</w>
连 任</w>
违 规
这 组</w>
过 份</w>
轻 重
资 讯</w>
贯彻 实施</w>
贫 富
负责 管理</w>
试 验
认 证</w>
计 及</w>
览 会</w>
规 章
规章 制度</w>
西班牙 文</w>
西班牙 政府</w>
表示 感激</w>
落 不明</w>
获 取
自 立</w>
肺 结核</w>
肆 虐</w>
考 古</w>
群 组</w>
美洲 开发银行</w>
缓 急</w>
缉 毒</w>
继 任</w>
绝 大多数</w>
结 余</w>
纳 迪</w>
纳 克
纳克 里</w>
纯 属</w>
纪 事</w>
系统 安全</w>
策 略</w>
第十 二</w>
第二 次
第二次 世界
第二次世界 大战</w>
第二 句</w>
第三 轮</w>
第三 卷</w>
第一 号</w>
立 即
立即 行动</w>
积极 行动</w>
科学 知识</w>
科 纳克里</w>
票 数</w>
社会 群体</w>
社会 关系</w>
砸 死</w>
瞻 性</w>
瞄 准</w>
相互 信任</w>
百 分之
百 万美元</w>
生态 平衡</w>
生产 率</w>
瑞 士
环境 署</w>
环境 法</w>
物 质
照 会</w>
激 发</w>
深 远</w>
海 盗</w>
海 上
海上 运输</w>
流 量</w>
流 出</w>
注 册</w>
汇 集</w>
气 象</w>
民主 选举</w>
比 值</w>
每 隔</w>
款 下</w>
次 性</w>
梅 里达</w>
格 高尚</w>
查 验</w>
染 上</w>
林 区</w>
条 向</w>
未 遂</w>
更 易</w>
普通 照会</w>
春 季</w>
无法 控制</w>
无 酬</w>
新 进展</w>
新 政府</w>
新 德里</w>
斯 特
文化 背景</w>
教育 领域</w>
改 称</w>
改 名</w>
排 挤</w>
挫 折</w>
按 规定</w>
拓 展</w>
抵 销</w>
技 巧</w>
托 存</w>
打 破</w>
战 线</w>
战 状态</w>
或 性</w>
悼 念</w>
恢复 原
恢复原 状</w>
总 则</w>
征 询</w>
往 返</w>
当 作</w>
强制 措施</w>
强制 执行</w>
弥 补</w>
引 用</w>
庞 大</w>
库 存</w>
常 见</w>
常 常</w>
布 设</w>
巴 西
差 价</w>
差 不
居 高不下</w>
尚 无</w>
导 言</w>
实 用</w>
它 同</w>
婴 儿</w>
姆 斯</w>
大大 减少</w>
多种 多样</w>
多 万</w>
外 情况</w>
处 分</w>
坐 标</w>
均 收入</w>
地理 坐标</w>
地 面</w>
地 方
在 场</w>
圆满 成功</w>
四 项</w>
善 意</w>
善 后</w>
品 格高尚</w>
和平 部队</w>
听 询</w>
各个 部门</w>
可 信
只 能</w>
受 地</w>
发表 声明</w>
发 交</w>
反 而</w>
原 先</w>
印 刷
单 个</w>
十 八
医 院</w>
勇 敢</w>
助 学金</w>
前 瞻性</w>
到 经</w>
利 息</w>
分 开</w>
出口 品</w>
出 庭</w>
减 至</w>
再 次
兼容并 蓄</w>
养 育</w>
关税 壁垒</w>
关 连</w>
共 用</w>
六 星期</w>
公共 秩序</w>
免 税</w>
先 后</w>
充分 反映</w>
充 实</w>
停 战线</w>
偏 高</w>
偏 离</w>
倍 增</w>
信 奉
保 留
保 卫</w>
保 卫
例 外情况</w>
作 法</w>
作 好</w>
余 下</w>
低 成本</w>
传 授</w>
伊斯兰 堡</w>
以 防</w>
付诸 实行</w>
仍 应</w>
人员 培训</w>
人 均收入</w>
交 由</w>
亚太 地区</w>
亚 洲
五 种</w>
互 补</w>
二 读</w>
事务 部长</w>
事 情</w>
主席 职位</w>
为 数</w>
为 性</w>
中 央
东 南</w>
业 经</w>
世界 性</w>
专题 组</w>
不断 加强</w>
不 迟于</w>
不 必</w>
不 得
下 落不明</w>
下 称</w>
七 项</w>
七 次</w>
一 次性</w>
一 律</w>
一 并</w>
一 俟</w>
i r
f web</w>
e fweb</w>
V III</w>
Sect. 13</w>
L. 9</w>
D .
CONF. 15</w>
Add. 9</w>
A. 9
9 86</w>
9 24</w>
60 3</w>
6 53</w>
6 48</w>
6 26</w>
50 4</w>
5 39</w>
5 12</w>
40 3</w>
4 75</w>
4 70</w>
4 54</w>
4 51</w>
4 49</w>
4 29</w>
33 27</w>
30 9</w>
3 96</w>
3 88</w>
3 84</w>
3 77</w>
3 35</w>
3 33</w>
3 20</w>
29 7</w>
2 167</w>
19 57</w>
13 77</w>
13 59</w>
0 01</w>
. 18</w>
领土 问题</w>
领 养</w>
预 报</w>
顾问 团</w>
音 像</w>
非洲 开发银行</w>
非 关税壁垒</w>
非 传统</w>
雷 克
雷克 雅
雷克雅 未
雷克雅未 克</w>
附 文</w>
附 上</w>
阿 布</w>
长期 以来</w>
长 效</w>
金 额</w>
金 刚
重新 部署</w>
重 要
重 振</w>
逼 婚</w>
造 林</w>
通过 培训</w>
逐 案</w>
逊 尼
逊尼 派</w>
选举 法</w>
逃 避</w>
追究 责任</w>
连 接</w>
远 程
远程 教育</w>
运 动员</w>
运 业</w>
迁 往</w>
轻重 缓急</w>
轰 炸</w>
转 录</w>
跨 越</w>
跨 国
跨国 公司</w>
贫富 悬殊</w>
贪 污
质 量
财政 危机</w>
谈 会</w>
讯 息</w>
解放 运动</w>
角 落</w>
表 彰</w>
蒙 受</w>
营 运</w>
获 释</w>
获 得
草 稿</w>
苏 维
苏维 埃</w>
艺 术</w>
航 空</w>
自 卫</w>
腾 出</w>
腐败 现象</w>
胜 任</w>
肇 事
肇事 者</w>
联 机</w>
而 设</w>
者 之间</w>
翻 修</w>
缔 造</w>
综合 征</w>
给 付</w>
经济 繁荣</w>
组织 协调</w>
系统 活动</w>
简 报</w>
第四十 九条</w>
第十 次</w>
第十 六次</w>
第二十 三条</w>
第三十 三条</w>
第三 款</w>
第三 十二届</w>
竞 选</w>
空间 通信</w>
稳 定性</w>
称 职</w>
科 研
禽 流感</w>
离 散</w>
社会 工作者</w>
社会 保障</w>
示 威
确保 安全</w>
省 级</w>
盈 余</w>
盆 地</w>
百分之 百</w>
留 在</w>
界 线</w>
男女 老
申请 人</w>
环境 影响</w>
独 有</w>
熟 练</w>
热 烈
热烈 欢迎</w>
灾 情</w>
火 山</w>
潜 能</w>
渊 源</w>
深 刻</w>
浮 油</w>
流 域</w>
活动 中心</w>
洪 水</w>
注意 力</w>
注 入</w>
法 中</w>
水 文</w>
民 点</w>
民 法</w>
民 事
毫 无</w>
毒 性</w>
每 一项</w>
残 留</w>
此 基础</w>
此 举</w>
正 直</w>
止 使用</w>
款 权</w>
档 案
校 长</w>
构 架</w>
极 力</w>
有 毒</w>
月 底</w>
替 代
替代 性</w>
更 换</w>
明 智</w>
日趋 严重</w>
无 数</w>
新 纳粹</w>
新 任</w>
数以百 计</w>
数 个</w>
教 科
敌 视</w>
收 取</w>
撰 写</w>
提出 申请</w>
提 款权</w>
推 出</w>
接 获</w>
探 矿</w>
探 测</w>
指 引</w>
拒 绝
拉 巴
投票 权</w>
扭 曲</w>
所 犯</w>
成 见</w>
意 见
惨 痛</w>
情报 所</w>
情 节</w>
情 况
恫 吓</w>
性 骚扰</w>
性 行为</w>
急 情况</w>
心 全
心全 意</w>
德 人</w>
得 益于</w>
得 来</w>
张 正义</w>
引 文</w>
开放 市场</w>
开 拓</w>
开 创</w>
延 至</w>
库 尔
库尔 德人</w>
庇护 所</w>
年 间</w>
平均 数</w>
帕 拉</w>
差不 齐</w>
工作 进度</w>
居 民点</w>
尼 西亚</w>
封 闭</w>
对 外部</w>
宵 禁</w>
审 核</w>
安全 事件</w>
学 说</w>
孕 产妇</w>
姆 山</w>
妇 幼</w>
奈 姆山</w>
失 常</w>
大 屠杀</w>
复 边</w>
声 音</w>
增 建</w>
基本 上</w>
城 镇</w>
埃 维
坎 帕拉</w>
国民 议会</w>
国民 大会</w>
国 国民</w>
国 同</w>
四十 一个</w>
四 管</w>
善政 对</w>
咨询 机构</w>
吸 毒</w>
同 酬</w>
各种 因素</w>
各 样</w>
各 位</w>
可 疑</w>
可 予</w>
另 一方</w>
句 首</w>
古 奈姆山</w>
受 过</w>
发 病率</w>
反 洗钱</w>
参加 国</w>
参 差不齐</w>
原 称</w>
原 应</w>
危 急情况</w>
卫 军</w>
卡 努
卡努 安</w>
占 多数</w>
十 条</w>
十 九</w>
勇 气</w>
办公 厅</w>
利益 冲突</w>
创造 性</w>
减 低</w>
军事 基地</w>
内政 部</w>
其 他
其他 费用</w>
共同 语言</w>
共同 市场</w>
共 创</w>
六 名</w>
全 心全意</w>
党 卫军</w>
停 止使用</w>
偏 远</w>
假 日</w>
信奉 宗教</w>
信 徒</w>
俄罗斯 联邦政府</w>
侮 辱</w>
体 器官</w>
伸 张正义</w>
伤 亡
会 籍</w>
企业 家</w>
任 一</w>
以 本</w>
代 际</w>
付诸 实施</w>
付 给</w>
从 未</w>
今 年</w>
仅 靠</w>
仅 以</w>
人口 老龄化</w>
人 体器官</w>
交 叉</w>
交 互
亚洲 开发银行</w>
二 次</w>
二 十</w>
乱 石</w>
之 水</w>
举 债</w>
中 间
中 长期</w>
中 立
中 欧</w>
中 所起</w>
两 者之间</w>
专 长</w>
专 注</w>
不 相容</w>
不 容
不 变</w>
下 午</w>
上 海</w>
三 天</w>
万 人</w>
一百 一
一 群</w>
一 笔</w>
一 栏</w>
un am
unam a</w>
s u
p a
o m
o d
in t</w>
i l
i a
doc s</w>
d e
af g</w>
V .1</w>
T B
TB T</w>
Sect s.1</w>
M S</w>
IS B
ISB A</w>
CN. 15</w>
CN .7</w>
C TBT</w>
A P</w>
9 32</w>
9 .
8 90</w>
8 09</w>
7 65</w>
7 39</w>
7 36</w>
7 24</w>
60 8</w>
6 40</w>
5 75</w>
5 26</w>
5 22</w>
49 1</w>
4 71</w>
4 6
4 44</w>
4 42</w>
4 38</w>
4 37</w>
4 34</w>
37 924</w>
30 6</w>
3 98</w>
3 29</w>
24 111</w>
22 495</w>
2 2464</w>
2 1360</w>
13 68</w>
13 42</w>
12 .
10 26</w>
1 296</w>
麻 管
麻管 局</w>
首 都</w>
页 数</w>
非法 交易</w>
集 资金</w>
集 体
难 以
阿 鲁
阵 线</w>
防 护</w>
金融 资产</w>
野 生</w>
采 访
遗 弃</w>
通货膨 胀</w>
递 延</w>
选 用</w>
适 时</w>
这 使</w>
运 会</w>
迄今 已有</w>
达 意见</w>
边 界
身 精神</w>
足 球</w>
走 廊</w>
赖 于</w>
费 者</w>
贸易 壁垒</w>
贫 困
贫困 者</w>
货币 基金</w>
账 目</w>
财政 困难</w>
豁 免
豁免 权</w>
谋 杀</w>
详 述</w>
记 名</w>
训 练
计 划
角 色</w>
览 表</w>
见 本</w>
表 达意见</w>
表 格</w>
表 中</w>
获取 信息</w>
获 救</w>
英 联邦</w>
英 才</w>
若 干
航 空
自然 环境</w>
能源 供应</w>
而 未决</w>
罪 责</w>
罗 安
罗安 达</w>
缓 减</w>
继续 下去</w>
继承 权</w>
统 称</w>
结 壳</w>
终 身</w>
紧 密
紧密 联系</w>
索 偿</w>
糖 尿
糖尿 病</w>
米 德</w>
简 单</w>
签 名</w>
筹 集资金</w>
第十 五条</w>
第二十 二次</w>
第三 阶段</w>
突 地区</w>
空 气
空气 污染</w>
稻 米</w>
稳 步</w>
稳 健</w>
程 序
租 赁</w>
科技 知识</w>
科威 特
科威特 人</w>
科 研</w>
种族 隔离</w>
私人 生活</w>
私 有
私 下</w>
硫 化
硫化 物</w>
相互 依赖</w>
相互 之间</w>
男 童</w>
由 该</w>
生物 资源</w>
珍 惜</w>
率 高</w>
献 身精神</w>
特殊 性</w>
牲 畜</w>
物 理
牟 利</w>
热 心</w>
灾 民</w>
滥用 权力</w>
清 洁</w>
清 晰</w>
消 费者</w>
消 失</w>
海 自由</w>
泰 国政府</w>
泛 非</w>
法 法院</w>
污 染
求 助</w>
水 文
民族 自决</w>
毁 林</w>
武装 集团</w>
欧洲 共同体</w>
格 达</w>
核可 该</w>
标 题</w>
权 能</w>
未 偿</w>
期 除</w>
有条 理</w>
有条 不
有条不 紊</w>
有 赖于</w>
有 着</w>
有 步骤</w>
最 广</w>
最 少</w>
显 然</w>
是 非</w>
时 至</w>
时 为</w>
日 程</w>
无 记名</w>
旋 风</w>
新 机制</w>
料 库</w>
数 票</w>
数 千</w>
教 廷</w>
敏 感
收 件人</w>
接 替</w>
接 到</w>
探 雷</w>
掌 管</w>
损 及</w>
损 于</w>
挪 用</w>
担 忧</w>
抗 疟</w>
扰 乱</w>
扣 减</w>
托 付</w>
手 中</w>
所 核</w>
截 止</w>
感 情</w>
惯 法</w>
惩 戒</w>
悬 而未决</w>
总 体
急 务</w>
怀 疑</w>
征 兵</w>
强 加</w>
张 贴</w>
庭 长</w>
座 谈会</w>
应用 程序</w>
应用 科学</w>
应 予以</w>
广 阔</w>
并 视</w>
并 入</w>
年度 预算</w>
平等 待遇</w>
常规 裁军</w>
布里奇 顿</w>
巴 格达</w>
已 达成</w>
已 告</w>
工作 进展</w>
工作 效率</w>
屈 从</w>
居 留</w>
居 地</w>
尽 责</w>
尔 巴
导 游</w>
对 方</w>
富 有成效</w>
密切 关系</w>
宪 法法院</w>
宣 传
审 前</w>
官 长</w>
学 员</w>
嫌 疑
如 本</w>
奥 运会</w>
失 散</w>
大大 增加</w>
多 名</w>
外国 投资</w>
外 包</w>
夏 季</w>
增 大</w>
塔 什
塔什 干</w>
基 数</w>
地球 科学</w>
国际 联盟</w>
国 都</w>
国 会</w>
四 卷</w>
四 分之
四分之 三</w>
四 五条</w>
呼 声</w>
吸 入</w>
听 众</w>
合法 利益</w>
合 伙</w>
各种 各样</w>
各 段</w>
各 分</w>
可 观</w>
可 供
可供 使用</w>
只 应</w>
叛 乱</w>
受 其</w>
发 出
原 本</w>
原 居地</w>
占 据</w>
卓 有成效</w>
十 七条</w>
医 药</w>
匮 乏</w>
努力 创造</w>
动 性</w>
前 述</w>
制 图</w>
初 稿</w>
创 意</w>
创 办</w>
刑 期</w>
分 布</w>
出席 会议</w>
出 借</w>
凶 杀</w>
几 次</w>
冲 突地区</w>
内 多</w>
其 不
共 存</w>
公 海自由</w>
公 民
党 组织</w>
光 头</w>
停 车
倡 导
借 贷</w>
信息 管理系统</w>
估 价</w>
传 送</w>
传 媒</w>
以 该</w>
以 致</w>
以 昭</w>
令人 鼓舞</w>
代理 人</w>
付 诸</w>
人 群</w>
享 用</w>
交 还</w>
交 易
亚 斯</w>
五 十年</w>
二 百</w>
书 籍</w>
习 惯法</w>
乘 以</w>
之 处</w>
之 二</w>
为 数
中立 性</w>
中 心
中 亚
东 欧</w>
业 界</w>
世界 市场</w>
专题 会议</w>
与 会</w>
不 过</w>
不 已</w>
不 均</w>
下 来</w>
下 才</w>
三 国</w>
三 十</w>
万 国
一 轮</w>
一 览表</w>
一 概</w>
v i
unhc r</w>
un i
un ep</w>
m l</w>
i m
ht ml</w>
c h</w>
c ep</w>
XX XVII</w>
XI V.1</w>
O O</w>
L. 34</w>
L. 2</w>
L. 10</w>
L XXII</w>
G E
G C.
Decl .1</w>
Dec. 531</w>
Corr .3</w>
COP .7</w>
C RC</w>
B MS</w>
AC. 154</w>
9 89</w>
9 28</w>
9 13</w>
8 74</w>
8 638</w>
8 60</w>
8 45</w>
7 515</w>
6 41</w>
6 36</w>
6 10</w>
5 87</w>
5 86</w>
5 70</w>
5 69</w>
5 45</w>
5 25</w>
5 23</w>
40 7</w>
4 66</w>
4 55</w>
4 47</w>
4 10</w>
3 99</w>
3 97</w>
3 59</w>
3 281</w>
3 25</w>
3 235</w>
27 77</w>
23 41</w>
19 30</w>
149 5</w>
14 458</w>
12 67</w>
11 53</w>
11 .2</w>
10 64</w>
1. 5</w>
1 196</w>
0. 5</w>
0. 001</w>
默 许</w>
鲁 政府</w>
鱼 种</w>
高 目标</w>
高 峰</w>
马拉 博</w>
马 朱
马朱 罗</w>
首要 任务</w>
飞 机</w>
风 气</w>
风 俗</w>
领导 权</w>
预 先
顿 法</w>
顺利 进行</w>
顺 序</w>
非法 占有</w>
非常 感谢</w>
集体 行动</w>
院 院
院院 长</w>
限 内</w>
阿布 哈
阿布哈 兹</w>
阿尔 卑
阿尔卑 斯
阿尔卑斯 山脉</w>
防 御
防御 能力</w>
银行 业务</w>
重 返
重返 家园</w>
重 印</w>
采访 团</w>
酗 酒</w>
都 灵</w>
部 就
部就 班</w>
郑 重</w>
郎 德</w>
遭 惨</w>
遥 感
遥感 技术</w>
遣 队</w>
道 德
道 义</w>
通 用</w>
通 无阻</w>
递 交</w>
逆 转录</w>
退 还</w>
迫切 性</w>
违规 行为</w>
远 景</w>
还 债务</w>
近 期内</w>
运 营</w>
过渡 阶段</w>
迁 徙</w>
边界 争端</w>
辩 解</w>
输 入</w>
较 强</w>
轰 滥
轰滥 炸</w>
轮 流</w>
车 队</w>
身 为</w>
践 踏</w>
越 贡献</w>
超 级
超级 大国</w>
起 源于</w>
赫尔 姆斯</w>
谨 慎</w>
调 阅</w>
调 剂</w>
请 求
该 厅</w>
译 员</w>
诉讼 法</w>
访 查</w>
论 界</w>
论 为</w>
记 名
记名 投票</w>
计算机 化</w>
触 犯</w>
触 即
触即 发</w>
解决 方案</w>
解 体</w>
西 南亚</w>
被 控</w>
表 扬</w>
行政 助理</w>
虚 拟</w>
营 救</w>
菌 株</w>
草 拟</w>
英 语</w>
节 余</w>
艺术 品</w>
船 队</w>
船 旗</w>
舆 论界</w>
致 盲</w>
自 译</w>
自 审</w>
脚 石</w>
耻 辱</w>
编 集</w>
经 纪</w>
经 理</w>
绊 脚石</w>
纳 斯</w>
紧急 状况</w>
紧张 状况</w>
粗 暴</w>
类 药物</w>
管 治</w>
筑 起</w>
第四 款</w>
第十五 次</w>
第十 六条</w>
第十 七次</w>
第十 七届</w>
第五 卷</w>
第二十 八</w>
第二 轮</w>
第九 节</w>
第九 十七条</w>
第一 季度</w>
窒 息</w>
秘 鲁政府</w>
票 据</w>
社 区
确 定性</w>
睦邻 友好</w>
看 待</w>
相互 协作</w>
直 接
监督 机制</w>
疏 散</w>
留 权</w>
留 下</w>
畅 通无阻</w>
电视 广播</w>
由 经</w>
生 动物</w>
瓜 亚
瓜亚 基
瓜亚基 尔</w>
琼 布拉</w>
理 念</w>
环 节</w>
猖 獗</w>
狂 轰滥炸</w>
物理 性质</w>
燃 烧
燃烧 武器</w>
照 应</w>
激 光</w>
演 进</w>
游 行</w>
渔 区</w>
清 查</w>
海 燕</w>
海 滩</w>
流 动性</w>
波 及</w>
法律 承认</w>
法律 咨询</w>
法律 依据</w>
法 院院长</w>
沿 途</w>
沦 为</w>
沙 市</w>
污 水</w>
气 层</w>
民主 改革</w>
毫无 例外</w>
毗 连</w>
每 星期</w>
殿 堂</w>
死 刑
死刑 犯</w>
此 次</w>
此 案</w>
正 面</w>
模 范</w>
桥 梁</w>
条 至</w>
杜 尚
杜尚 别</w>
权 而</w>
术 语</w>
本 政府</w>
本 届</w>
本 加
本加 厉</w>
未 亡</w>
期 限内</w>
朝 此</w>
服务 提供者</w>
最 迟</w>
更 长</w>
明文 规定</w>
明 斯克</w>
时 有</w>
日 见</w>
日 本政府</w>
日 子</w>
既 然</w>
无法 解释</w>
无 需</w>
无 私</w>
方 对</w>
新闻 资料</w>
新闻 网</w>
新 一轮</w>
文 职</w>
文 组织</w>
数以百 万计</w>
数 码</w>
数 百万</w>
散 播</w>
教科 文组织</w>
教 师</w>
效 率高</w>
效 性</w>
故 障</w>
政治 局势</w>
改 叙</w>
收 容
收容 所</w>
提 前</w>
控制 协议</w>
探 访</w>
排 期</w>
换 算</w>
捐 献</w>
按 部就班</w>
拟 于</w>
拉 雷</w>
拉 尼西亚</w>
抵 押</w>
投票 决定</w>
投 资
承 担
扶 贫</w>
执行 程序</w>
所 称</w>
所 应</w>
战略 伙伴</w>
戒 备</w>
意见 分歧</w>
想 法</w>
总 表</w>
总 监</w>
总 收入</w>
急 诊</w>
急 性</w>
德 国政府</w>
得 失</w>
待 发</w>
征 收</w>
弥 合</w>
引 进</w>
应 负</w>
应 缴</w>
应 尽</w>
应 享</w>
广泛 开展</w>
广 岛</w>
年 前</w>
希 布
希布 伦</w>
布 雷</w>
布 琼布拉</w>
巴勒斯坦 国</w>
巴 塔</w>
工 商
工 同酬</w>
崇 高目标</w>
岛 上</w>
屏 障</w>
居 留权</w>
尽 其
尽其 所能</w>
尔巴 阡
尔 政府</w>
定 出</w>
定 不
定不 移</w>
官 僚</w>
完 备</w>
安 居</w>
孤 立</w>
字 母</w>
娱 乐
好 地
好地 解决</w>
失 弃</w>
大 气层</w>
多 面
多 达</w>
复 核</w>
备 用</w>
备 战状态</w>
处 所</w>
处 以</w>
声 称</w>
基 建</w>
城 内</w>
埋 布</w>
埃维 昂</w>
坚 定不移</w>
地中 海地区</w>
国际 私法</w>
国 受</w>
围 墙</w>
因 其</w>
四 次</w>
喀 尔巴阡
哈 拉雷</w>
吸 食</w>
吸 烟</w>
含 义</w>
后 继</w>
同 工同酬</w>
合 资</w>
各 节</w>
各 层次</w>
可 言</w>
可 向</w>
可 不</w>
口 岸</w>
口 供</w>
变 通</w>
变 本加厉</w>
变 成</w>
受 阻</w>
受 款</w>
受 本</w>
取 得
发生 冲突</w>
发出 通知</w>
反 倾
双 亲</w>
原 件</w>
厄瓜多 尔政府</w>
即 到</w>
卫生 部门</w>
卫生 设施</w>
卫生 系统</w>
卫 士</w>
卓 越贡献</w>
十八 岁</w>
十 年间</w>
十 四卷</w>
十 二
劫持 者</w>
动 摇</w>
加 利</w>
前 任</w>
剂 量</w>
创 设</w>
创 新
列 报</w>
出 其不
出其不 意</w>
农 务</w>
军事 法庭</w>
内 有</w>
内 所作</w>
兼容并 包</w>
其 实</w>
共 生</w>
公正 无私</w>
公开 市场</w>
全 套</w>
偿 还债务</w>
偿 付</w>
停车 场</w>
债 券</w>
倡导 者</w>
信息 管理</w>
保卫 和平</w>
保 育</w>
侵 权
使 本</w>
何 地</w>
体 能</w>
体 罚</w>
低 廉</w>
似 乎</w>
伯 顿法</w>
伪 造</w>
会 晤</w>
会 商</w>
会 同</w>
优惠 待遇</w>
仅 限于</w>
人 间</w>
人 犯</w>
交互 式</w>
交 战</w>
五 天</w>
五 十</w>
互动 式</w>
二 级</w>
也 许</w>
之 用</w>
中心 站</w>
中央 政府</w>
中亚 国家</w>
中 非</w>
中 除</w>
中 转</w>
中 起</w>
中 学</w>
中 列明</w>
个人 资料</w>
严 惩</w>
两 位</w>
东 非</w>
与 非</w>
不得 不</w>
不分 性别</w>
不 顾</w>
不 能
不 加</w>
上 调</w>
万国 宫</w>
一百八 十</w>
一百 二十
一百 三十</w>
一 触即发</w>
u t</w>
r t</w>
o l
m a
c om
c .
b er
a ut</w>
XX XIV</w>
S P</w>
S O
SO L
R D</w>
P L</w>
MSP .2</w>
MSP .1</w>
L. 6</w>
L. 4</w>
L. 39</w>
L. 38</w>
L. 36</w>
L. 33</w>
L. 31</w>
L. 30</w>
L. 24</w>
L. 23</w>
L. 22</w>
L. 21</w>
L. 20</w>
L. 18</w>
L. 16</w>
L. 15</w>
L. 13</w>
In t
HR I</w>
G O
FI PL</w>
E. 04</w>
D P</w>
CONF. 203</w>
CN. 10</w>
CE RD</w>
C. 75</w>
C M
A rt</w>
9 84</w>
8 68</w>
8 26</w>
7 33</w>
7 12</w>
60 1</w>
6 95</w>
6 82</w>
6 81</w>
6 51</w>
6 30</w>
6 27</w>
50 5</w>
5 E</w>
5 77</w>
5 700</w>
5 62</w>
5 57</w>
5 54</w>
5 52</w>
5 51</w>
5 43</w>
5 38</w>
5 158</w>
5 13</w>
5 .2</w>
40 4</w>
4. 25</w>
4 41</w>
4 40</w>
4 33</w>
4 30</w>
39 481</w>
33 76</w>
33 75</w>
33 69</w>
3 68</w>
3 52</w>
3 499</w>
3 474</w>
3 43</w>
3 263</w>
3 236</w>
3 22</w>
3 .2</w>
27 627</w>
26 21</w>
24 43</w>
24 .
2 252</w>
2 237</w>
2 220</w>
2 138</w>
2 114</w>
19 29</w>
16 53</w>
15 82</w>
15 03</w>
13 04</w>
12 72</w>
10 61</w>
1 284</w>
1 265</w>
1 .2</w>
0 8</w>
0 50</w>
0 .2</w>
. 12</w>
鸦 片
高度 集中</w>
高 昂</w>
验 证</w>
验 室</w>
领 退</w>
预 知</w>
顾 客</w>
项目 管理</w>
项 收入</w>
项 所</w>
非 正常</w>
非 商业性</w>
青 红
青红 皂
青红皂 白</w>
需 其</w>
集 延</w>
雅 典</w>
难民 收容</w>
难民 所</w>
隔 绝</w>
隔 期</w>
陷 于</w>
限 期</w>
陆 源</w>
附 带
附带 条件</w>
队 伍</w>
间 隔期</w>
间 隔</w>
问 卷</w>
闭 症</w>
闭 幕</w>
鉴 于
鉴于 此</w>
金刚 石</w>
金 泽</w>
金 沙
金沙 萨</w>
重新 分配</w>
重 重</w>
释 放
释放 出来</w>
释 出</w>
采 行</w>
酌 处</w>
邻 之
邻之 道</w>
速 效</w>
速 反应</w>
进 武器</w>
运 行</w>
过 早</w>
边 远地区</w>
边 境
边境 地区</w>
转 送</w>
转 向</w>
身份 证明</w>
跨 境</w>
趋 于</w>
资源 分配</w>
资 制度</w>
赁 费</w>
财 物</w>
负 责任</w>
说 服</w>
误 捕</w>
详 见</w>
该 股</w>
该 地</w>
诉 人</w>
证 言</w>
议 长</w>
议 性</w>
订 有</w>
计划 生育</w>
计 薪</w>
见 诸</w>
西 北</w>
表 述</w>
表 见</w>
行使 主权</w>
藏 身</w>
蒙 古
航 运业</w>
航 天
自由 贸易</w>
自 闭症</w>
自 营</w>
自 第</w>
自 杀</w>
聘 请</w>
联合 宣言</w>
耐 性</w>
而 来</w>
而 上</w>
考 绩</w>
罗 内</w>
缺 口</w>
编 入</w>
统一 标准</w>
经济 损失</w>
经济 制裁</w>
经济 体制</w>
经济 上</w>
经 费
经 委会</w>
细 目</w>
组织 者</w>
组 应</w>
纪念 碑</w>
纪念 物</w>
纪念 日</w>
繁 多</w>
素 姬</w>
粮食 供应</w>
米 切</w>
管理 机制</w>
简 短</w>
简 洁</w>
简 明</w>
第四十 六</w>
第四 轮</w>
第六 项</w>
第五十 六条</w>
第五十 一条</w>
第三十 条</w>
第三十 八条</w>
童 年</w>
童 兵</w>
空 军</w>
稳 妥</w>
积极 主动</w>
租 赁费</w>
私有 化</w>
离 婚</w>
离 乡</w>
研究 成果</w>
研 订</w>
相互 支持</w>
目 标
目标 群体</w>
目 前
目前 为止</w>
盗 窃</w>
监 察</w>
登记 手续</w>
申请 者</w>
申 诉人</w>
生活 费</w>
生活 状况</w>
生态 旅游</w>
瓦 利</w>
瑞士 政府</w>
现 目标</w>
现 共
现共 达</w>
独 自</w>
爱 滋
爱滋 病</w>
热 带
炸 毁</w>
灾 人
灾人 祸</w>
源 自</w>
源 源
源源 不
源源不 绝</w>
港 务</w>
渔 获量</w>
涉 案</w>
消 极</w>
浓 度</w>
注 销</w>
注 视</w>
注 射</w>
沿 线</w>
水文 气象</w>
民事 或</w>
残 害</w>
武装 力量</w>
此 人</w>
正 教</w>
款 所列</w>
欧 安
欧安 组织</w>
检 验</w>
案 情</w>
根本 上</w>
核 能力</w>
核 化</w>
标 示</w>
枢 密
枢密 院</w>
果 园</w>
极端 重要</w>
来 干涉</w>
村 级</w>
材 料库</w>
杂 项收入</w>
杀 戮</w>
本 位</w>
有所 提高</w>
有所 不同</w>
有 鉴于此</w>
有 规</w>
有 无</w>
有 损于</w>
有 别
有别 于</w>
最 早</w>
最 小</w>
曾 于</w>
暗 中</w>
智 能</w>
智 力</w>
时 新闻</w>
时 刻</w>
日 向</w>
无 理</w>
无 意</w>
无 形</w>
无 可
方 在</w>
斋 节</w>
散 页</w>
政 的</w>
支 持
摩洛 哥
摩洛哥 王国</w>
揽 子</w>
掩 饰</w>
捕 获量</w>
挥 官</w>
指 挥官</w>
拮 据</w>
报 销</w>
报 导</w>
投资 者</w>
投 标</w>
技术 人员</w>
承 包</w>
手 语</w>
手 法</w>
所 有者</w>
所 授</w>
所 处</w>
战 备</w>
或 视</w>
或 是</w>
成 比例</w>
成 因</w>
慈 善</w>
意大 利政府</w>
惧 怕</w>
恢复 性</w>
总体 目标</w>
总 预算</w>
总 书记</w>
性 传播</w>
急 剧</w>
快 速反应</w>
忠 诚</w>
忠 于</w>
心 理
录 像</w>
强 劲</w>
开 斋节</w>
应 邀
应 列</w>
庄 严
庄严 宣告</w>
广播 公司</w>
平 日</w>
常 务
已 为</w>
工业 部门</w>
工业 界</w>
工 资制度</w>
岁 者</w>
山 地</w>
届 满</w>
届 时</w>
尚 有</w>
尚 存</w>
尔 多</w>
对 塞米</w>
密切 配合</w>
家 乡</w>
宣 判</w>
审计 员</w>
审判 机关</w>
实施 者</w>
实 验室</w>
实 现目标</w>
实 效性</w>
实 基础</w>
定 位
定位 系统</w>
安全 网</w>
安全 意识</w>
安 集延</w>
存 放</w>
嫌疑 人</w>
娱乐 性</w>
如 有</w>
奥地 利政府</w>
天 灾人祸</w>
天 文学</w>
大 约</w>
大 增</w>
大 力
多面 性</w>
多 数票</w>
多 加</w>
多 人</w>
外 逃</w>
外 来干涉</w>
堵 塞</w>
基 斯</w>
培训 中心</w>
垃 圾</w>
坚 实基础</w>
地 貌</w>
地 区
地 以</w>
在此 期间</w>
在 职</w>
在 经济上</w>
土库 曼</w>
土 壤</w>
圆 桌</w>
国际 货物</w>
国民 军</w>
国 及</w>
善 治</w>
商业 界</w>
唯 有</w>
哈 博
哈博 罗内</w>
呼 吸
呼吸 系统</w>
周 全</w>
启 用</w>
同 其</w>
同 侪</w>
各 职</w>
可 为</w>
受 众</w>
发 育</w>
发 件人</w>
反倾 销</w>
及 本</w>
参 谋</w>
参 政</w>
压 迫</w>
压 载</w>
历 来</w>
即 时新闻</w>
印刷 版</w>
卫生 条件</w>
卡 塔</w>
协 作
北 南</w>
包 商</w>
势 力</w>
助 益</w>
加 倍</w>
力 行</w>
前 向</w>
制 性</w>
到 位</w>
利用 生物</w>
利 化</w>
判 定</w>
创新 性</w>
创 立</w>
划 一</w>
切 断</w>
分 组</w>
分 界线</w>
出 境</w>
几 千
减 均</w>
决策 层</w>
决 算</w>
农 产</w>
冒 险</w>
内政 部长</w>
内 乱</w>
养 活</w>
具体 做法</w>
其 惠益</w>
关 爱</w>
共 犯</w>
公开 处理</w>
公共 资源</w>
公 理</w>
公 债</w>
全面 实现</w>
全 会</w>
先 进武器</w>
充 任</w>
催 化
停 顿</w>
假 象</w>
倒 退</w>
信息 网络</w>
信 件</w>
保障 制度</w>
保持 联系</w>
便 利化</w>
侦 察</w>
依 上</w>
例 证</w>
伴 生</w>
伤亡 人数</w>
传统 媒体</w>
休 闲</w>
休 养</w>
任 务
以色列 空军</w>
以 善</w>
以 南</w>
令人 遗憾</w>
代 理</w>
付 出</w>
从 根本上</w>
介 绍
人 流</w>
人 应</w>
京 国际</w>
交 付给</w>
争 议性</w>
之 类</w>
之 时</w>
之 列</w>
之 以</w>
之 为</w>
主管 部门</w>
中 所提</w>
中 小企业</w>
东 道</w>
东 正教</w>
东 北</w>
东 京国际</w>
专 职</w>
不能 容忍</w>
不断 改进</w>
不分 青红皂白</w>
不 负责任</w>
不 成比例</w>
不 实</w>
下 而上</w>
下 半年</w>
下 任</w>
下 以</w>
上 半年</w>
上 午</w>
三十 三个</w>
七 千
一百零 三</w>
一百六 十</w>
一 有</w>
一 揽子</w>
一 个
un od
unod c</w>
t e
re l
rel i
reli efweb</w>
ir c.
e n</w>
d u
com e</w>
c tion</w>
c h
a l</w>
X I.5</w>
Rev .2</w>
MSP .4</w>
MSP .3</w>
L. 7</w>
L. 45</w>
L. 43</w>
L. 42</w>
L. 40</w>
L. 3</w>
L. 37</w>
L. 35</w>
L. 32</w>
L. 28</w>
L. 26</w>
L. 19</w>
L. 17</w>
L. 14</w>
In come</w>
GO V</w>
GC. 23</w>
E. 01</w>
C irc.
AC. 51</w>
A I</w>
90 9</w>
9 44</w>
9 14</w>
8 79</w>
8 75</w>
8 46</w>
8 40</w>
7 67</w>
7 42</w>
7 37</w>
7 10</w>
7 07</w>
6 65</w>
6 61</w>
6 57</w>
6 52</w>
6 49</w>
6 42</w>
6 31</w>
6 21</w>
6 20</w>
5 92</w>
5 88</w>
5 85</w>
5 6
5 55</w>
5 53</w>
5 33</w>
40 8</w>
4 739</w>
4 61</w>
4 16</w>
3 93</w>
3 76</w>
3 67</w>
3 66</w>
3 62</w>
3 53</w>
3 45</w>
3 36</w>
3 28</w>
3 24</w>
3 .1</w>
23 45</w>
19 65</w>
15 39</w>
14 29</w>
13 71</w>
13 446</w>
0 25</w>
.... ....
. 10</w>
龄 组</w>
黄 碱</w>
麻 黄碱</w>
麦 德
麦德 林</w>
鸦片 剂</w>
鲜 有</w>
鱼 体</w>
驱 逐
驱逐 出境</w>
首 相</w>
频 率</w>
预先 判断</w>
须 视</w>
项 中</w>
面 面</w>
非法 所得</w>
非 裔</w>
非 军事
非军事 化</w>
青 年
青年 一代</w>
需 为</w>
雷 场</w>
集中 营</w>
集中 力量</w>
集 型</w>
随 附</w>
除 贫</w>
限 定</w>
限 制性</w>
降 至</w>
附 近</w>
附 加
阿尔 塔</w>
阿 姆
阿姆 拉</w>
防 御</w>
长 久</w>
银行 贷款</w>
铁 路</w>
金 斯
金斯 敦</w>
重 于</w>
酸 液</w>
部 落</w>
遣 散</w>
通讯 社</w>
连 根
连根 拔
连根拔 起</w>
违 约</w>
远 洋</w>
近 地</w>
迈 进</w>
达 共和国</w>
边 远</w>
辞 职</w>
较 长</w>
较 易</w>
软 禁</w>
转 卖</w>
跟 进</w>
赶 出</w>
质量 标准</w>
账 下</w>
责任 者</w>
财政 年度</w>
财产 权利</w>
调 用</w>
调 控</w>
调 到</w>
读 者</w>
请求 书</w>
诱 因</w>
详细 情况</w>
诚 实</w>
试验 场</w>
诈 性</w>
识 字
识字 率</w>
评 注</w>
证 据
许 权</w>
讲 话</w>
记 忆</w>
计算机 犯罪</w>
警 觉</w>
警 务</w>
解放 阵线</w>
解 救</w>
视 角</w>
视 其为</w>
西 斯
西斯 主义</w>
表 已</w>
行动 队</w>
蒙 特</w>
葡萄牙 文</w>
萨 基
萨基 亚</w>
获得 最佳</w>
范 例</w>
苦 境</w>
节 请</w>
节 及</w>
至 多</w>
自 力</w>
腹 泻</w>
脚 注</w>
背 井
背井 离乡</w>
股 东</w>
聘 任</w>
联 运</w>
群 众</w>
署 名</w>
置 疑</w>
罪 之害</w>
罗 那</w>
罗 姆
罗姆 人</w>
网 目</w>
网 播</w>
网 关</w>
缉 获</w>
结 束
结束 语</w>
经费 有限</w>
经济 犯罪</w>
经 营
经 其</w>
纽约 市</w>
纳 戈
纳戈 尔</w>
纯 粹</w>
索 赔</w>
管 齐下</w>
等 待</w>
第四十 四条</w>
第四十 五</w>
第十五 章</w>
第十 八届</w>
第六十 三条</w>
第六 款</w>
第六 十六</w>
第五 轮</w>
第二 十</w>
第三十 四条</w>
第三十 九条</w>
第三 句</w>
第三 任</w>
第一 份</w>
第一 二</w>
第 十</w>
符合 国家</w>
空 前</w>
穆 德</w>
税 款</w>
移 徒</w>
科研 活动</w>
科 普
科普 里</w>
离 境</w>
禁 渔区</w>
社区 活动</w>
社会 阶层</w>
社会 福利</w>
示威 游行</w>
知识 产
知识产 权
知识产权 组织</w>
相关 者</w>
相互 配合</w>
监 护
监护 人</w>
百 名</w>
病 媒</w>
疾 疫苗</w>
疟 疾疫苗</w>
男女老 少</w>
电 厂</w>
用 具</w>
生殖 器</w>
瓦 加
瓦加 杜
瓦加杜 古</w>
瑙 河</w>
理 学</w>
现实 情况</w>
环 保</w>
特别 节目</w>
特 长</w>
特 遣队</w>
特 许权</w>
牧 民</w>
焦 点</w>
热 浪</w>
炸 弹</w>
激 情
激情 犯罪</w>
滴 滴
滴滴 涕</w>
滥 捕</w>
游 牧</w>
温 哥
温哥 华</w>
渗 透</w>
渔业 局</w>
渔 民</w>
深 深</w>
深 受</w>
海 湾</w>
法 西斯主义</w>
法 定
法定 人数</w>
求 学</w>
水 域</w>
民 航</w>
民 房</w>
毒 者</w>
每 项</w>
殖 地</w>
正 常
正常 化</w>
检查 和</w>
检 控</w>
梅 纳</w>
案 设计</w>
框 框</w>
格 外</w>
核 试验场</w>
标 识</w>
标 的</w>
查 寻</w>
某 个</w>
林 业</w>
极 度</w>
杰 宁</w>
条 所起</w>
杂 项</w>
杀 死</w>
本 质</w>
本 来</w>
期 盼</w>
期 所</w>
朝 鲜</w>
服务 处</w>
有所 区别</w>
有 何</w>
最 长</w>
最 穷</w>
暴力 行动</w>
暴 徒</w>
智 利政府</w>
普遍 化</w>
易 懂</w>
时 才</w>
时 常</w>
时 同</w>
早 育</w>
无可 否认</w>
无 论是</w>
无 罪</w>
无 力</w>
无 关</w>
无 从</w>
方 面面</w>
方 案设计</w>
方 方面面</w>
方 同意</w>
新闻 界</w>
新闻 来源</w>
新闻 处</w>
新加 坡
新 设</w>
斯 陆</w>
斯 科普里</w>
文件 汇编</w>
文 官</w>
救 援
救援 队</w>
敏感 性</w>
敌对 状态</w>
政治 上</w>
政 权</w>
政 改革</w>
政 务</w>
收 国</w>
支 机构</w>
操作 性</w>
提供 数据</w>
提 具</w>
推 销</w>
接 收国</w>
掌 控</w>
换 取</w>
持 不懈</w>
拉巴 赫</w>
拉 尼</w>
担 允</w>
抽 签</w>
报告 书</w>
折 算</w>
承 办</w>
托 法</w>
托 人</w>
打 捞</w>
打 乱</w>
所 长</w>
战斗 员</w>
或 应</w>
或 前</w>
或 准</w>
成 千
成千 上
成千上 万</w>
戈 兰
惠 互利</w>
情况 严重</w>
情 绪</w>
息 相关</w>
息 息相关</w>
恐怖 袭击</w>
总 理</w>
总 会</w>
性 分析</w>
急 迫</w>
急 行动</w>
德 奥</w>
得 出
得出 结论</w>
律 师
律师 协会</w>
当 兵</w>
当 今</w>
强 弱</w>
弗 朗
开发 署</w>
开 曼</w>
开 工</w>
建筑 业</w>
应邀 参加</w>
应用 领域</w>
应 能</w>
应 急行动</w>
应 居</w>
应 同</w>
应 作</w>
并 载</w>
并 同</w>
年 龄组</w>
年 计划</w>
年 时</w>
平 权</w>
常务 委员会</w>
常 用</w>
布 下</w>
市场 需求</w>
巴西 政府</w>
巴 塞
巴塞 罗那</w>
已 知</w>
已 予</w>
巨 额</w>
巨 大
峰 会</w>
展 览会</w>
展 司</w>
居 间</w>
尽 速</w>
尺 寸</w>
就业 网</w>
尤 以</w>
尚 需</w>
尔 格</w>
将 近</w>
导 向</w>
对 训</w>
对 美属</w>
密 集型</w>
容 恕</w>
宪 政改革</w>
审 批</w>
实质 问题</w>
定 稿</w>
定 性分析</w>
定 位</w>
存 储</w>
嫁 妆</w>
始 终
妇 孺</w>
如 实</w>
如 可</w>
女 囚</w>
奥 斯陆</w>
奥 德奥</w>
失 调</w>
天 赋</w>
大大 提高</w>
大 致</w>
大 气</w>
多 管齐下</w>
多 瑙河</w>
多 少</w>
多 变</w>
多 于</w>
外交 关系</w>
外交 代表</w>
外 汇
外 应</w>
外 展司</w>
复杂 程度</w>
复 犯</w>
复 文</w>
备 注</w>
处 长</w>
处 处</w>
声 誉</w>
增加 一倍</w>
增 长
增 派</w>
基督 徒</w>
型 号</w>
型 企业</w>
坚 持不懈</w>
坎 昆</w>
均 匀</w>
场 合</w>
地区 性</w>
在 政治上</w>
圣 何
圣何 塞</w>
圣 乔
圣乔 治</w>
土地 利用</w>
图 书</w>
国际 足球</w>
国家 标准</w>
国 境</w>
因 该</w>
因 性</w>
回 报</w>
回 复</w>
四 内</w>
善 大使</w>
喀尔巴阡 山脉</w>
商品 生产者</w>
和平 相处</w>
吸 毒者</w>
吸 引
后 经</w>
合法 化</w>
合 同
各 点</w>
各 方对</w>
各 年</w>
各 不
各不 相同</w>
司法 人员</w>
司 长</w>
司 同</w>
可信 赖</w>
可 逆</w>
可 得</w>
变 造</w>
变 为</w>
受 托人</w>
受 性</w>
取 证</w>
取 向</w>
发 起
发 电厂</w>
反 叛</w>
反 之
反之 亦
反之亦 然</w>
双 轨</w>
双 方同意</w>
及 次</w>
及 同</w>
参 观</w>
原 材料</w>
历 时</w>
卡 拉巴赫</w>
卡 尔</w>
南 非政府</w>
南 南</w>
协调 局</w>
十分 重视</w>
十 六个</w>
医疗 队</w>
区域 环境</w>
北 亚</w>
化 是</w>
务 人员</w>
加 拉</w>
割 裂</w>
制 改革</w>
到 来</w>
别 无
别 情况</w>
利 率</w>
分 销</w>
分 裂</w>
分 支机构</w>
分 拨</w>
出 资</w>
几千 人</w>
减 债</w>
农 民</w>
再次 出现</w>
内 战</w>
内 同</w>
内 及</w>
其 原</w>
其 前</w>
其 养</w>
共 助</w>
六 十</w>
公民 权利</w>
公共 开支</w>
公共 事业</w>
公 益</w>
公 司法</w>
全 民</w>
入 手</w>
党 派</w>
儿童 活动</w>
僵 局</w>
催化 作用</w>
催 化</w>
偏 袒</w>
债 权</w>
倡 仪</w>
借 助于</w>
候 任</w>
信 托法</w>
信 函</w>
保留 区</w>
保持 警惕</w>
保护 者</w>
侵 入</w>
依 法
供应 链</w>
例 子</w>
体 验</w>
体 制改革</w>
佐 证</w>
伦 理学</w>
伤 残</w>
会 期间</w>
优 良</w>
休 渔</w>
休 会期间</w>
以 非</w>
以 订</w>
以 换</w>
代表 大会</w>
代 替</w>
他 用</w>
仅 凭</w>
人口 普查</w>
人 平等</w>
人 人平等</w>
亲 自</w>
亲 善大使</w>
交通 事故</w>
交易 所</w>
亚 裔</w>
五 百</w>
五 年计划</w>
五 岁</w>
互动 关系</w>
互 联</w>
互 惠互利</w>
互 为
二 所列</w>
之 所以</w>
为数 不
为数不 多</w>
为 生</w>
中 点</w>
中 型企业</w>
中 受</w>
个 别情况</w>
东 北亚</w>
业 务
世界 知识产权组织</w>
专业 知识</w>
专 案</w>
专 为</w>
与此 有关</w>
不 驱</w>
不 足
不 妨</w>
不 力</w>
不 以</w>
下 于</w>
上 限</w>
上 载</w>
三十 日</w>
七千 五百</w>
一致 意见</w>
一 股</w>
一 款</w>
一 度</w>
一 千年</w>
一 分</w>
一 件</w>
vi i
vii i</w>
uni d
unid ro
unidro i
unidroi t</w>
unhc h
unhch r</w>
u ma
t in
ro du
rodu ction</w>
pa a</w>
p paa</w>
m in
i c
ar t</w>
WHA 58</w>
V. 2</w>
Sect. 28</w>
Sect .4</w>
SR. 35</w>
S S
SS IN
SSIN G</w>
R 830</w>
R 702</w>
PV. 4
N S</w>
MS C</w>
MI SSING</w>
M O</w>
L. 8</w>
L. 5</w>
L. 50</w>
L. 49</w>
L. 47</w>
L. 46</w>
L. 44</w>
L. 41</w>
L. 27</w>
L. 25</w>
L D
L C.2</w>
L .1</w>
J A</w>
Int roduction</w>
I MO</w>
I C
GE N</w>
FI E
FIE L</w>
E. 81</w>
Decl .6</w>
Decl .4</w>
Dec. 155</w>
Circ. 380</w>
COP .1</w>
CONF. 5</w>
A A</w>
90 6</w>
9 74</w>
9 56</w>
8 8
88 43</w>
8 66</w>
8 53</w>
7 85</w>
7 69</w>
6 85</w>
6 15</w>
6 12</w>
5 K</w>
5 99</w>
5 90</w>
5 8
5 68</w>
5 64</w>
5 14</w>
48 2</w>
46 2.
462. 88</w>
40 9</w>
40 906</w>
4 2
42 146</w>
4 18</w>
4 14</w>
4 .4</w>
37 605</w>
3 79</w>
3 72</w>
24 631</w>
23 49</w>
20 58</w>
2. 22</w>
2 296</w>
2 241</w>
2 153</w>
18 06</w>
16 51</w>
16 24</w>
15 56</w>
15 511</w>
15 47</w>
14 41</w>
14 16</w>
14 .
13 45</w>
13 02</w>
12 57</w>
12 42</w>
12 10</w>
11 43</w>
11 11</w>
10 37</w>
10 11</w>
1 1806</w>
. 14</w>
齐 头
齐头 并
齐头并 进</w>
鲨 业</w>
鲜 明</w>
高 职</w>
高 效能</w>
高 效益</w>
高 地</w>
高 危</w>
马 铃
马铃 薯</w>
马 六
马六 甲
马六甲 海峡</w>
风 暴</w>
额 度</w>
领 海</w>
预 设</w>
预 断</w>
颁 布
颁布 法律</w>
须 予</w>
非常 容易</w>
需 在</w>
雷 罗</w>
雷 斯</w>
难 重重</w>
难 所</w>
除 此
除此 之外</w>
降 到</w>
阿鲁 巴</w>
阿根 廷
阿根廷 政府</w>
阿 克
阿克 拉</w>
防 范
防范 措施</w>
防 污</w>
间 断</w>
长期 有效</w>
长期 性</w>
长 者</w>
长 崎</w>
铺 平</w>
铺 平
铺平 道路</w>
银 河</w>
金 枪
金枪 鱼</w>
量 化</w>
重要 文件</w>
采 购
配 剂</w>
部 在</w>
邦 节</w>
避 难所</w>
避 税</w>
遗 迹</w>
遗 留
遗 属</w>
遗 体</w>
道德 风险</w>
遇 险</w>
造 业</w>
通讯 设备</w>
通行 无阻</w>
通 道</w>
通 报
透 过</w>
适用 性</w>
适 度</w>
适 切</w>
送 还</w>
迪 拜</w>
连 选</w>
违 禁</w>
远 远</w>
运 转</w>
运 人</w>
达 累
达累 斯
达累斯 萨拉
达累斯萨拉 姆</w>
输 送</w>
辅 之以</w>
较 发达</w>
载 经</w>
转 民</w>
转 发</w>
转 作</w>
路 支</w>
足 球
足球 赛</w>
足 于</w>
超 支</w>
起 码</w>
起 始</w>
赦 免</w>
赠 者</w>
贾 梅纳</w>
贾 亚</w>
贸易 区</w>
贷 记</w>
贪污 腐败</w>
财务 监督</w>
貌 相</w>
象 征</w>
调查 报告</w>
诺贝 尔</w>
该 案</w>
试验 性</w>
试 行</w>
论 文</w>
讲 求</w>
记 录
讯 问</w>
议 院</w>
让 出</w>
计 入</w>
警 报
警报 系统</w>
警 务人员</w>
解 囊</w>
视 作</w>
覆盖 面</w>
裁 断</w>
裁 撤</w>
被 盗</w>
被 告</w>
表示 同情</w>
补 空缺</w>
行动 指南</w>
行 凶</w>
血 源
血源 性</w>
虫 灾</w>
虚 假</w>
藏 匿</w>
蕴 含
蕴含 着</w>
蓬 勃
蓬勃 发展</w>
落 后</w>
落 入</w>
萨 洛
萨洛 尼
萨洛尼 基</w>
营 企业</w>
荷 兰政府</w>
若干 个</w>
苛 刻</w>
苏 克
苏克 罗</w>
节 能</w>
航空 器</w>
致 命</w>
致 函</w>
自由 贸易区</w>
自 助</w>
能 效</w>
聚 集</w>
联络 小组</w>
职业 道德</w>
考 察</w>
美洲 国家</w>
罗 的
罗的 海</w>
罗 宣言</w>
编 外
编外 人员</w>
缔 约</w>
续 设</w>
绝 育</w>
绝 版</w>
绝 望</w>
结 为</w>
经济 波动</w>
经济 复原</w>
细 表</w>
纪念 奖</w>
约 组织</w>
累 累</w>
紫 色</w>
索 要</w>
系统 化</w>
精 心</w>
管辖 区</w>
签 字
第四十 条</w>
第四十 四</w>
第四十 七条</w>
第四十 一条</w>
第四 卷</w>
第四 十</w>
第二十 五条</w>
第二 副</w>
第三十 七条</w>
第三 十</w>
第一 百
符 其实</w>
立 足于</w>
窝 藏</w>
穆 苏克罗</w>
移 民法</w>
称 之为</w>
科学 认识</w>
科 隆</w>
种 子</w>
社会 秩序</w>
礼 品</w>
确 有</w>
确 保全</w>
硬 件</w>
砍 伐
砍伐 森林</w>
矿 物</w>
知识 分子</w>
眼 光</w>
真 实</w>
省 份</w>
相互 促进</w>
盲 文</w>
监测 员</w>
监测 中心</w>
登 船</w>
病 人</w>
留 用</w>
生活 中</w>
生产 商</w>
珠 尔</w>
率 先</w>
率 为</w>
犹太 教徒</w>
物质 条件</w>
物质 利益</w>
物 价
物价 指数</w>
燃 油</w>
熟 悉</w>
照 样</w>
热 情</w>
炮 击</w>
潮 汐</w>
潜 艇</w>
演 愈
演愈 烈</w>
满 活力</w>
渥 太
渥太 华</w>
渔 产品</w>
清 算</w>
济 品</w>
流 刺
流刺 网</w>
洋 公
洋公 约组织</w>
注 目</w>
注 明</w>
波 罗的海</w>
波 利斯</w>
法律 案</w>
法律 委员会</w>
法 典</w>
油 罐</w>
污染 物</w>
汇 总表</w>
水 层</w>
水 力</w>
水 上</w>
氛 围</w>
民 关系</w>
比 较发达</w>
比 性</w>
武器 弹药</w>
歉 收</w>
款 次</w>
欠 缺</w>
棱 晶</w>
森 林
检查 报告</w>
梅 耶</w>
桑 加
桑加 尼</w>
案 而</w>
案 研究</w>
格 雷罗</w>
根本 变化</w>
根 据
根据 上述</w>
核 算</w>
树 立</w>
栏 内</w>
查 封</w>
极 具</w>
来 文
条 同</w>
条 中</w>
杀 伤
杀伤 力</w>
杀 人
杀人 案件</w>
机 密</w>
本 节</w>
本 协定</w>
未 曾</w>
未 作</w>
未 予</w>
期 终</w>
服务 设施</w>
服务 中心</w>
服 刑</w>
有 酬</w>
最终 用户</w>
最 深</w>
更 能</w>
更 名</w>
普 特</w>
普 斯
普斯 卡</w>
显 改善</w>
星期 六</w>
星期 二</w>
星期 一</w>
明 细表</w>
明 显改善</w>
时 要</w>
时 即</w>
时 供</w>
日益 频繁</w>
日 核</w>
无 限期</w>
无 异议</w>
无 寸
无寸 铁</w>
施 用</w>
新加坡 海峡</w>
斯特 拉
斯特拉 斯堡</w>
斯坦 政府</w>
斯 塔
教育 界</w>
教 授</w>
教 学
救 济品</w>
敌 对</w>
政治 界</w>
政 界</w>
政 制</w>
放 射</w>
放 宽</w>
改 建</w>
改 善
改 叙
改叙 为</w>
改 划</w>
收 受</w>
支持 者</w>
操作 方法</w>
摈 弃</w>
携 弹</w>
提供 商</w>
提 早</w>
推 选</w>
推 动力</w>
控制 权</w>
控制 区</w>
接 种</w>
排 放
排 定</w>
捐 赠者</w>
挖 掘</w>
持久 性</w>
拒 斥</w>
拆 毁</w>
担 心</w>
抽 烟</w>
抵 偿</w>
报 刊</w>
护 人员</w>
抗 力</w>
技术 论坛</w>
技术 开发</w>
技术 培训</w>
承担 义务</w>
承 运人</w>
承 受
执 政</w>
托 马
托 尔
托尔 托</w>
扎 伊</w>
手 无寸铁</w>
所 载经</w>
所 知</w>
户 主</w>
或 许</w>
或 经</w>
戈兰 内</w>
慷 慨
慷慨 解囊</w>
愿 景</w>
感染 率</w>
愈 演愈烈</w>
惨 重</w>
情报 机构</w>
恩 贾梅纳</w>
急 需
忍 受</w>
必 然</w>
心 灵</w>
德 国
德国 科隆</w>
德 印</w>
微 生物</w>
彼此 间</w>
当 年</w>
当 前
强 征</w>
弹 性</w>
弗朗 西
开发 技术</w>
开 罗宣言</w>
开 立</w>
开 庭</w>
延 绳</w>
延 续性</w>
应 否</w>
应 使</w>
应 不分</w>
幼 儿</w>
并 行</w>
年 份</w>
市 政</w>
巴西 利亚</w>
巴基 斯坦政府</w>
巨大 贡献</w>
工 资</w>
工 商</w>
尼亚 美</w>
尤 甚</w>
尔 邦节</w>
寿 命</w>
对 人</w>
密 性</w>
家 务</w>
宪 制</w>
宣 称</w>
实际 行动</w>
定 量</w>
定 见</w>
定 型</w>
安全 法</w>
安全 可靠</w>
安 装</w>
守 法</w>
学术 研究</w>
学 徒</w>
孤 女</w>
孤 儿
孙 后代</w>
存 有</w>
存 入</w>
子 孙后代</w>
娱 乐</w>
委 派</w>
妥 当</w>
如 要</w>
如 经</w>
如 其</w>
失 控</w>
天 内</w>
大西 洋公约组织</w>
大 步</w>
大 多</w>
大 事</w>
外交 官</w>
外交 人员</w>
外 勤
外勤 人员</w>
声 望</w>
增长 率</w>
填 补空缺</w>
塞 萨洛尼基</w>
塞 族</w>
堵 截</w>
基 桑加尼</w>
地 使</w>
在 生活中</w>
在 押</w>
在 发言
在发言 中</w>
土地 改革</w>
图 象</w>
国际劳工 局</w>
国际 金融
国际 航空</w>
国家 广播</w>
国 时</w>
困 难重重</w>
困 苦</w>
团 于</w>
因 而是</w>
四十 六</w>
四十 五</w>
四 种</w>
噪 音</w>
器 具</w>
商 议</w>
咨询 组</w>
吸引 力</w>
听 闻</w>
含 水层</w>
后 期</w>
后 一致</w>
名 符其实</w>
名 人</w>
同 值</w>
同 于</w>
吉尔吉 斯</w>
吉 耶</w>
合同 条款</w>
各 组</w>
各 派</w>
司 所</w>
可 见</w>
可 比性</w>
可 操作性</w>
只 是</w>
古 尔邦节</w>
口 译员</w>
叛 乱
叛乱 分子</w>
叙 述</w>
受 苦</w>
受 损害</w>
取得 成效</w>
反 思</w>
及 仇外</w>
参 议院</w>
去 向</w>
原子 弹</w>
即 告</w>
危 难</w>
危 险
卫 星
卡纳 纳斯</w>
博 览会</w>
协调 系统</w>
协调 性</w>
协作 关系</w>
协 理</w>
千 千
千千 万
千千万 万</w>
十 名</w>
十 七届</w>
十 一个</w>
医 生</w>
医 护人员</w>
北 大西洋公约组织</w>
化 解</w>
勒 索</w>
势 必</w>
劳 役</w>
加勒比 地区</w>
劝 阻</w>
力 图</w>
割 取</w>
前 后一致</w>
制 造业</w>
别无 选择</w>
利害 攸关</w>
刑事 诉讼法</w>
刑事 警察</w>
切 身
切 入
切入 点</w>
分 布
分 居</w>
击 者</w>
出口 商</w>
出 任</w>
几 十年</w>
减 收</w>
净 增</w>
农 田</w>
农 作物</w>
军 转民</w>
军 民关系</w>
再次 发生</w>
内 应</w>
其 载</w>
其 经</w>
其 害</w>
关键 问题</w>
关键 性</w>
关 系
公平 合理</w>
公 路</w>
公 吨</w>
八 年</w>
全球 定位系统</w>
入 口</w>
克 隆</w>
克 伦
克伦 邦</w>
充分 就业</w>
充 资</w>
充 裕</w>
充 满活力</w>
僵 硬</w>
储 油罐</w>
偏 远地区</w>
债 换</w>
债 役</w>
俾 路支</w>
俾 克</w>
修订 本</w>
信 号</w>
侵权 行为</w>
侧 重于</w>
侦 破</w>
依 本</w>
供应 方</w>
供 参考</w>
佩 雷斯</w>
余 留</w>
体育 界</w>
体 内</w>
住 房
传染 性</w>
传 遍</w>
会 见</w>
优先 发展</w>
伊 始</w>
价 格
代表 权</w>
代 顿</w>
从 前</w>
仍 受</w>
介绍 所</w>
人民 意志</w>
人 时</w>
产 品
交 错</w>
亚 穆苏克罗</w>
五 次</w>
五 周年</w>
五 名</w>
互为 补充</w>
互 通</w>
二十 四</w>
二十 三</w>
二十 七个</w>
二 年</w>
事实 根据</w>
事 关</w>
九 年</w>
九 十
乘 数</w>
乌 卢</w>
之 上</w>
乃 至</w>
主席 国</w>
为 少</w>
中间 商</w>
中间 人</w>
中 曾</w>
中 断</w>
中 均</w>
个 案研究</w>
个 性</w>
严重 危害</w>
丝 毫</w>
世界 杯</w>
专题 性</w>
专 才</w>
不容 置疑</w>
不可 抗力</w>
不 管</w>
不 满</w>
不 宜</w>
不 定</w>
不 合
不 公</w>
不 便</w>
不 但</w>
下 调</w>
下 及</w>
上 网</w>
上 涨</w>
上 学</w>
三十 四个</w>
三十 二个</w>
三十 个</w>
三 组</w>
一百七 十三</w>
一百 多个</w>
一百 五十</w>
一个 多</w>
一 职</w>
一 经</w>
一 类</w>
一 生</w>
一 日</w>
一 整套</w>
一 批</w>
一 大步</w>
tin i</w>
su mp
sump tion</w>
se c</w>
s s
ro g
r p
rp t</w>
min o</w>
j u
im f</w>
en t</w>
en n
do mino</w>
d er
ber tini</w>
X L
W G
U JA</w>
Sect s.
SP S</w>
S E
Re sumption</w>
O AU</w>
MSP .5</w>
M E
LD C</w>
L. 56</w>
L. 55</w>
L. 54</w>
L. 53</w>
L. 51</w>
L. 48</w>
L. 29</w>
IC C</w>
I OC</w>
E. 97</w>
Dec. 138</w>
CP .8</w>
C.0 4</w>
C. 78</w>
C RP
B UJA</w>
Add. 32</w>
Add. 16</w>
Add. 15</w>
A. 11</w>
A W</w>
A BUJA</w>
9 87</w>
9 85</w>
9 80</w>
9 79</w>
9 55</w>
8 82</w>
8 67</w>
7 89</w>
7 77</w>
7 61</w>
7 35</w>
7 17</w>
7 13</w>
6 66</w>
6 59</w>
6 56</w>
6 46</w>
6 43</w>
6 .5</w>
56 .
50 36</w>
5 L</w>
5 42</w>
5 24</w>
5 16</w>
5 .5</w>
5 .1</w>
4 27</w>
4 13</w>
4 11</w>
4 .2</w>
313 64</w>
3 71</w>
3 69</w>
3 452</w>
3 42</w>
3 39</w>
3 201</w>
28 D</w>
27 C.
26 02</w>
25 974</w>
25 573</w>
2. 43</w>
2. 33</w>
2 5036</w>
2 286</w>
2 225</w>
19 59</w>
18 36</w>
15 06</w>
149 3</w>
14 90</w>
14 60</w>
13 79</w>
13 78</w>
13 41</w>
13 29</w>
11 45</w>
10 5.6</w>
10 24</w>
10 15</w>
1 281</w>
1 266</w>
1 203</w>
0 92</w>
0 31</w>
默 德</w>
黑 体
黑体 字</w>
黑 人</w>
高 风险</w>
高 水平</w>
高 居</w>
高 出</w>
高 于</w>
骇 人
骇人 听闻</w>
马 拉</w>
首要 条件</w>
馆 藏</w>
领土 毗连</w>
领 头</w>
领 受</w>
预 付</w>
顽 固</w>
须 加</w>
顺 从</w>
韦 纳</w>
面向 用户</w>
面 媒体</w>
非 贸易</w>
非 派</w>
非 关税</w>
非 人</w>
雷 特</w>
集 束</w>
难以 获得</w>
隐 藏</w>
随 之</w>
除 本</w>
陆 战</w>
附加 条件</w>
阿鲁 沙</w>
阿塞拜 疆
阿塞拜疆 共和国</w>
阿 韦纳</w>
阿 皮
阿皮 亚</w>
阿 泽
阿泽 里</w>
阿 以</w>
间 歇
间歇 性</w>
间 接
长期 债务</w>
长 远</w>
长 官</w>
锥 虫
锥虫 病</w>
链 中</w>
金融 风险</w>
金融 体系</w>
金融 业务</w>
野 生动物</w>
重大 成果</w>
重 重
重 设</w>
重 订</w>
重 演</w>
重 奏</w>
重 国籍</w>
里 蒂
里蒂 巴</w>
里 耶
里耶 尔</w>
里 亚
采购 网</w>
酸 化</w>
酒 精</w>
酌 情
酌情 处理</w>
那 天</w>
遵 重</w>
遥 远</w>
遗留 下来</w>
遗 址</w>
遗 传
逼 供</w>
速 开展</w>
通讯 联系</w>
通行 证</w>
通行 权</w>
通报 情况</w>
通 信
逐 步提高</w>
透 彻</w>
适 量</w>
述 及</w>
迫 在
迫在 眉
迫在眉 睫</w>
连 接
连接 起来</w>
违 规</w>
远 影响</w>
这 一有</w>
还 须</w>
近 几
近几 个月</w>
过渡 性</w>
过 高</w>
过 多</w>
过 后</w>
迅 速开展</w>
迅 捷</w>
边 地区</w>
较 大</w>
较 为</w>
载 运</w>
软 件</w>
转 载</w>
转 为</w>
身 受</w>
身 上</w>
跨 国性</w>
足 迹</w>
趋 同</w>
越 性</w>
超 越</w>
起 步</w>
赚 取</w>
资源 转移</w>
资 企业</w>
贷 方</w>
贫 铀</w>
贪污 贿赂</w>
质 疑</w>
账 内</w>
财务 管理</w>
财 团</w>
负 荷</w>
谋 福利</w>
调查 过程</w>
调查 员</w>
调 配</w>
课 题</w>
课 征</w>
诺贝 尔
诺贝尔 和平
诺贝尔和平 奖</w>
诸 多方面</w>
说 明
误 报</w>
语 音</w>
详细 审查</w>
详 情</w>
该 笔</w>
该 法</w>
该 局</w>
该 会</w>
证据 规则</w>
诀 窍</w>
论 述</w>
论 及</w>
记录 下来</w>
记 入</w>
议 事</w>
训练 班</w>
训练 有
训练有 素</w>
让 步</w>
认 真
认 清</w>
认 书</w>
订 定</w>
警 方</w>
誓 言</w>
言 和</w>
规 化</w>
规 划
见 性</w>
见 度</w>
要 约</w>
要 旨</w>
要 务</w>
装 运</w>
被 捕</w>
被 劫
被劫 走</w>
表示 祝贺</w>
表 以</w>
补 偿
衔 接</w>
衍 生</w>
行政 长官</w>
行使 权力</w>
行 列</w>
虽 有</w>
薪 级
薪级 表</w>
蔑 视</w>
蓝 图</w>
蒙特 苏</w>
蒙古 政府</w>
落 实
落实 工作</w>
萨 格
萨格 勒
萨格勒 布</w>
菲 济</w>
获 胜</w>
药 业</w>
英 文
苦 受难</w>
苏 非派</w>
花 园</w>
船 员</w>
航天 员</w>
航 道</w>
舒 适</w>
舍 不得</w>
致 相同</w>
致 敬</w>
至关 紧
至关紧 要</w>
自 律</w>
自 主
自主 性</w>
能源 技术</w>
能 厅</w>
能 不受</w>
背 离</w>
育 婴</w>
育 儿</w>
肯 尼亚
肯尼亚 政府</w>
聚 焦</w>
聚 力</w>
联合国 安全
联合国安全 理事会</w>
联合国 人权委员会</w>
联合 公报</w>
联 营</w>
联 性</w>
耗 用</w>
考 验</w>
美 化</w>
羁 留</w>
署 为</w>
罕 默德</w>
缺 点</w>
缺 席
缺席 判决</w>
缩 铀</w>
编 订</w>
编 排</w>
缔 定</w>
缅 怀</w>
结构 化</w>
结 盟
结盟 运动</w>
结 果
经济 周期</w>
终 结</w>
织 品</w>
细 分</w>
组织 名义</w>
组 都</w>
组 讨论</w>
组 别</w>
纽约 州</w>
纽 带</w>
纺 织品</w>
纷 争</w>
纳 波利斯</w>
约 翰</w>
繁 忙</w>
紧 靠</w>
米 兰</w>
管理 工具</w>
管理 信息系统</w>
签字 国</w>
等 性</w>
等 国</w>
等 同于</w>
等 同</w>
第四十 三条</w>
第十三 章</w>
第六 十二</w>
第五十 七条</w>
第二十 六次</w>
第二十 六条</w>
第二十 六</w>
第二十 二</w>
第二十 九条</w>
第二 年</w>
第三十 六条</w>
第三十 五条</w>
第三 号</w>
第七 项</w>
端 正</w>
竞 标</w>
穆 罕默德</w>
穆 拉</w>
税 项</w>
稍 后</w>
程序 性</w>
移 栖</w>
称 作</w>
积 物</w>
秒 钟</w>
科技 领域</w>
科 菲</w>
科 德</w>
私营 企业</w>
私人 机构</w>
私 有</w>
神 圣</w>
示威 者</w>
碰 到</w>
确 认书</w>
确 已</w>
石 油
短 语</w>
矢 志</w>
着 眼</w>
真 伪</w>
看 作</w>
相 连</w>
直接 费用</w>
百 年</w>
登 加拉</w>
疫 情</w>
疟 原
疟原 虫</w>
畜 牧</w>
留 居</w>
界 间</w>
男女老 幼</w>
男 性</w>
电视 会议</w>
电子 服务</w>
由 下而上</w>
用 航空</w>
用 事业</w>
生态 环境</w>
生产 方式</w>
生 气</w>
甚 众</w>
瓦 砾</w>
瑞士 联邦</w>
现 款</w>
环境 治理</w>
环境 因素</w>
环境 危害</w>
狭 窄</w>
独 特性</w>
犯罪 人</w>
特 拉</w>
物 权</w>
牢 不可
牢不可 破</w>
照 护</w>
然 而</w>
热 能</w>
热 线</w>
热 带</w>
灌 输</w>
激 情</w>
漫 长</w>
漏 报</w>
满 时</w>
源 头</w>
游 牧民</w>
温 和</w>
淹 没</w>
混 为
混为 一
混为一 谈</w>
深 远影响</w>
深 刻
消 耗</w>
消 息</w>
涅 斯</w>
海 区</w>
海 军</w>
浓 缩铀</w>
济 州
济州 岛</w>
测 试</w>
活动 分子</w>
注 资</w>
波 助
波助 澜</w>
法 理</w>
法 医</w>
法 人
沿 海地区</w>
油 轮</w>
河 道</w>
没 人</w>
沙 登加拉</w>
沙 漠</w>
沉 船</w>
沉 积物</w>
污 辱</w>
求 意见</w>
求 助于</w>
永 予</w>
水 管</w>
水 生动物</w>
气候 系统</w>
民族 平等</w>
民主 运动</w>
民 防</w>
民 用航空</w>
毫无 保留</w>
每 期</w>
每 天</w>
母 婴</w>
母 乳</w>
段 应</w>
段 幅</w>
殴 打</w>
殖 业</w>
残 破</w>
歪 曲</w>
正当 权益</w>
正 规化</w>
正 同</w>
正 以</w>
款 所作</w>
欺 诈</w>
欣 慰</w>
横 贯</w>
森林 资源</w>
检察 长</w>
检察 机关</w>
档案 资料</w>
档案 管理</w>
格 尔</w>
格 伦</w>
根本 性</w>
核 试爆</w>
核 拨</w>
核 反应堆</w>
核 事故</w>
样 品</w>
查 看</w>
查 出</w>
果 树</w>
林 顿</w>
构成 犯罪</w>
极 少</w>
松 森</w>
杰 斐
杰斐 逊</w>
杰 作</w>
来 访</w>
条 有</w>
权 利
权利 能力</w>
札 幌</w>
本 项</w>
本 可</w>
未 登记</w>
未 指定</w>
未 受
未受 教育</w>
期 该</w>
期 时</w>
期 新</w>
期 批款</w>
期 应</w>
服 装</w>
有利 可
有利可 图</w>
有 鳍</w>
有 时</w>
有 恋童</w>
有 史
有史 以来</w>
最 新进展</w>
更 快</w>
更 多</w>
暴 乱</w>
暗 杀</w>
暂 缓</w>
智 者</w>
明文 禁止</w>
明 白</w>
时 政府</w>
时 处理</w>
时 何地</w>
日益 加剧</w>
日 及</w>
既 有</w>
既 往</w>
既 定
既定 目标</w>
无论 如何</w>
无线 电台</w>
无 虞</w>
无 缺</w>
无 核</w>
无 权</w>
无 家
无家 可
无家可 归</w>
施 以</w>
方 设法</w>
新 途径</w>
新 近</w>
新 聘</w>
新 意</w>
新 娘</w>
新 举措</w>
斟 情</w>
数 年</w>
数 千
数 万</w>
教育 权</w>
教 派</w>
敌 意</w>
政治 性</w>
放 松</w>
放 入</w>
改善 生活</w>
收 足</w>
收 支</w>
收 并
收并 蓄</w>
撞 击</w>
摒 绝</w>
摊 算</w>
搜 查</w>
握 手
握手 言和</w>
提出 异议</w>
提 问</w>
提 款</w>
提 共和国</w>
描 绘</w>
掩 蔽</w>
推 波助澜</w>
推 崇</w>
控制 系统</w>
控制 措施</w>
控 告</w>
接受 者</w>
接 管</w>
排放 量</w>
损 害
损害 赔偿</w>
捐 给</w>
挽 回</w>
按 本</w>
指 在</w>
持 之以
持之以 恒</w>
拥 护</w>
拒绝 接受</w>
拒绝 执行</w>
拉丁 字母</w>
抵 抗</w>
抵 御</w>
报 率</w>
抢 掠</w>
抗 命</w>
抓 紧</w>
承受 能力</w>
批 评</w>
扩 大
执行 性</w>
扣 留</w>
托马 斯</w>
手 术</w>
手 头</w>
所 遇</w>
战略 重点</w>
战 事</w>
战 争
成 败</w>
感 受</w>
愈来 愈</w>
愈 益</w>
想 方设法</w>
患 有</w>
恶 毒</w>
恶 性</w>
恢复 能力</w>
总 共</w>
性 地</w>
急需 解决</w>
思 想
心理 治疗</w>
心 声</w>
德 罗</w>
德 涅斯</w>
德 巴</w>
徒 刑</w>
很 少</w>
待 审</w>
待 命
待命 状态</w>
征 求意见</w>
彻底 清除</w>
彻底 改变</w>
形 资产</w>
归 入</w>
归 于</w>
强 硬</w>
弗朗西 斯</w>
式 系统</w>
式 样</w>
弄 清</w>
开发 新</w>
开 辟</w>
开 讨论</w>
开 明</w>
开 拓
开 幕
开幕 式</w>
开 会
建 国</w>
廉 洁</w>
应 邀</w>
应 贷</w>
应 永予</w>
应 受</w>
库 里蒂巴</w>
广泛 应用</w>
广播 节目</w>
幼 童</w>
并 供</w>
年 费</w>
年 制</w>
平 面媒体</w>
巴 库</w>
已 故</w>
已 久</w>
工作 岗
工作岗 位</w>
工 艺</w>
山 崩</w>
属 实</w>
展 开讨论</w>
届 满时</w>
屈 服</w>
局 为</w>
就 近</w>
就 绪</w>
小 小</w>
将 予</w>
封 信</w>
家庭 幸福</w>
宣传 教育</w>
审 官</w>
实 用
实 例</w>
实 习
实习 生</w>
定 额</w>
定 论</w>
定 决心</w>
官 邸</w>
完整 无缺</w>
完全 同意</w>
安全 性</w>
安全 带</w>
安 纳波利斯</w>
安 插</w>
安 南</w>
宁 愿</w>
学 年</w>
孤儿 院</w>
字 样</w>
威 廉</w>
妨 阻</w>
妥 善
如 法外</w>
如 期</w>
奖 金</w>
太 重</w>
太 空</w>
大大 小小</w>
大力 协助</w>
大 致相同</w>
大 自然</w>
大 灾难</w>
大 政府</w>
大 学
大 可能</w>
大 受</w>
大 众
多 重国籍</w>
多 发
多发 性</w>
多 功
多功 能厅</w>
多 余</w>
外汇 收入</w>
外交 政策</w>
外 援</w>
复 制
复制 件</w>
复 健</w>
备 有</w>
处 遇</w>
处 理
墨西哥 政府</w>
增 益</w>
塔吉 克</w>
基 期</w>
基 加利</w>
埋 设</w>
垮 台</w>
垫 充</w>
垫 付</w>
垄 断</w>
坚 固</w>
地方 病</w>
地方 化</w>
地 热能</w>
地 热</w>
地 同</w>
在 世界
在世界 上</w>
圣 弗朗西斯</w>
图 像</w>
国际金融 组织</w>
国家 赔偿</w>
国 防</w>
囤 积</w>
因 上</w>
回 旋</w>
回 报率</w>
四 重奏</w>
四 所</w>
喉 舌</w>
善政 是</w>
商品 生产</w>
商 量</w>
商 谈</w>
商 界</w>
商 会</w>
哪 个</w>
和平 友好</w>
和 视</w>
周 边地区</w>
周 期
吸 取
吸 剂</w>
听 讯</w>
向 交流</w>
向 于</w>
后 该</w>
同 日</w>
同 新</w>
同 属</w>
同 反</w>
吉布 提共和国</w>
合法 权益</w>
合 资企业</w>
合 计</w>
合 用</w>
合 物</w>
合 乎</w>
各 界</w>
各 有</w>
可预 见性</w>
可信 性</w>
可 起</w>
可 据</w>
可 执行性</w>
可 怕</w>
可 及</w>
另 一人</w>
古 希腊</w>
变 性</w>
受 苦受难</w>
受 损</w>
受 命</w>
受 制
受制 于</w>
取 和平</w>
发起 者</w>
发生 率</w>
发 证</w>
发 照</w>
反 诉</w>
反 补贴</w>
反 击</w>
双 向交流</w>
及 时处理</w>
及 于</w>
原 来</w>
历 届</w>
厅 应</w>
即 该</w>
即 仇外</w>
印刷 品</w>
印 地</w>
卫生 领域</w>
卫生 标准</w>
卢旺 达共和国</w>
卡 拉</w>
单 元</w>
协 同
华 沙</w>
十 四个</w>
十 五个</w>
区域 化</w>
区 有</w>
化 石</w>
匀 支</w>
募 集</w>
勘 查</w>
勇 于</w>
勃 勃</w>
努 沙登加拉</w>
努 亚
努亚 岛</w>
助 行</w>
助 者</w>
助 产</w>
动 因</w>
加拿 大政府</w>
加 权</w>
加 宽</w>
办公 费</w>
办事 机构</w>
力 促</w>
力 争</w>
剧 增</w>
前 进</w>
前 去</w>
制 定
到 加</w>
别 国</w>
利 弊</w>
利 互惠</w>
刚果 河</w>
列 述</w>
列 载</w>
列 车</w>
划 进</w>
切身 利益</w>
切实 落实</w>
分配 制度</w>
分布 式系统</w>
分 组讨论</w>
分 包商</w>
出 海</w>
出 国</w>
出 产</w>
凸 显</w>
几 百名</w>
几 千</w>
凝 聚力</w>
减 该</w>
减 小</w>
减 员</w>
决 不</w>
农 用</w>
军事 援助</w>
再生 资源</w>
再 婚</w>
内 阁</w>
内 所列</w>
内 尽</w>
内 受</w>
内 以</w>
兼 收并蓄</w>
兼 容性</w>
养 殖业</w>
具体 任务</w>
其 间</w>
其 请</w>
其 自</w>
其 多</w>
其 外</w>
其 国</w>
关系 密切</w>
关 联性</w>
关 怀</w>
六 十四</w>
六 份</w>
公平 性</w>
公 用事业</w>
公 用</w>
公 信
公信 力</w>
全 职</w>
入 应</w>
入 侵</w>
免 职</w>
克 林顿</w>
克 制</w>
克 什</w>
先 遣</w>
充分 调动</w>
充分 认识</w>
兄 弟</w>
停 车</w>
做 礼拜</w>
假 设</w>
假 结婚</w>
倾 向</w>
修 缮</w>
保障 体系</w>
保障 人权</w>
保险 期</w>
保 密性</w>
依法 惩治</w>
使用 率</w>
使 非</w>
使 受</w>
使 之
作 此</w>
作 案</w>
何 时何地</w>
何 方</w>
体 格</w>
住 宅</w>
但 遇</w>
但 应</w>
伪 假</w>
传 承</w>
传 唤</w>
会议 主题</w>
会 计
优 越性</w>
优 点</w>
仿 冒</w>
份 子</w>
任务 说明</w>
以 较</w>
以 礼</w>
以 新</w>
以 应</w>
以 在国</w>
以 向</w>
以 人道</w>
令人 震惊</w>
令人 不安</w>
令 为</w>
代 人</w>
付 清</w>
他 论</w>
从 加</w>
仍 能</w>
人员 配备</w>
人口 众多</w>
人 能</w>
人 经</w>
人 物</w>
亲 人</w>
享 养</w>
产 业</w>
交通 管理</w>
交流 会</w>
些 则</w>
亚 松森</w>
亚 努亚岛</w>
五十 五</w>
五 位</w>
互相 联系</w>
互相 承认</w>
互 利互惠</w>
于 本</w>
二十 五个</w>
二十 二</w>
二 是</w>
二 十年</w>
二 人</w>
事务 股</w>
事务 管理</w>
事务 局</w>
事 例</w>
争 取和平</w>
书面 报告</w>
书 应</w>
书 写</w>
书 中</w>
九 十天</w>
九 十</w>
乏 力</w>
之 理</w>
之 多</w>
之 初</w>
主管 人员</w>
为 名</w>
丰 盛</w>
中 间</w>
中 小学</w>
中 列</w>
中 人</w>
两 点</w>
两 段</w>
两 条</w>
两 年制</w>
两 国政府</w>
两 倍</w>
东 盟</w>
专题 报告</w>
专业 性</w>
专 任</w>
丑 化</w>
与 否</w>
不足 之处</w>
不 间断</w>
不 结盟运动</w>
不 易</w>
不 时</w>
不 损</w>
不 如</w>
不 大可能</w>
不 准</w>
下 属</w>
下 定决心</w>
下 同</w>
上 用</w>
上 应</w>
上 以</w>
三十 六年</w>
三十 八个</w>
三十 一个</w>
三 边</w>
三 者</w>
三 所载</w>
三 大</w>
万 亿美元</w>
一百六 十六</w>
一百八 十九</w>
一百一 十二</w>
一百一 十</w>
一 部</w>
一 时间</w>
一 封信</w>
一 向</w>
一 些则</w>
w or
wor l
worl d
uma sse
umasse ss
umassess m
umassessm ent</w>
o ch
och a</w>
n s</w>
n al</w>
m il
mil l
mill enn
millenn i
millenni umassessment</w>
k ec
kec h
kech e
keche ir
kecheir i
kecheiri a</w>
ju d
jud ic
judic ar
judicar e</w>
is h
in de
inde x</w>
il c</w>
ia d
iad b</w>
i y
g efweb</w>
e s</w>
e e
der e</w>
de dere</w>
c e
XL VIII</w>
X III</w>
W P
W CM
WCM R
WCMR Y</w>
V. 9</w>
U T
UT I
UTI O
UTIO NS</w>
Sect. 29</w>
Sect. 14</w>
SOL UTIONS</w>
SOL A
SOLA S</w>
S ec
S N</w>
S .
Rev .6</w>
Res. 13
Res.13 56</w>
Res. 12
Res.12 25</w>
Res. 1153</w>
RE SOLUTIONS</w>
RE S.
R M</w>
R 765</w>
PV.4 589</w>
P C.1</w>
MSC. 167</w>
MSC. 155</w>
MSC. 153</w>
M MSP</w>
M C</w>
L. 57</w>
L. 52</w>
L IV</w>
IV. 10</w>
I A
IA E
IAE A</w>
H C
HC R</w>
FI RM</w>
F ish
F .1</w>
E. 8</w>
E. 06</w>
E. 05</w>
Decl .12</w>
DE OC</w>
D. 27</w>
Corr .4</w>
CP .6</w>
COP .5</w>
CON F.1</w>
CO DEOC</w>
CN. 9</w>
CL 128</w>
C. 85</w>
Add. 29</w>
Add. 17</w>
Add. 13</w>
AC. 268</w>
A.9 49</w>
A FS</w>
A C.1</w>
9 96</w>
9 83</w>
9 62</w>
9 57</w>
9 36</w>
9 33</w>
9 16</w>
9 .1</w>
8 91</w>
8 88</w>
8 83</w>
8 44</w>
8 27</w>
8 21</w>
8 17</w>
8 10</w>
7 87</w>
7 86</w>
7 75</w>
7 48</w>
7 22</w>
7 21</w>
7 18</w>
7 14</w>
7 08</w>
60 9</w>
60 4</w>
6 99</w>
6 92</w>
6 89</w>
6 78</w>
6 76</w>
6 64</w>
6 45</w>
6 35</w>
6 32</w>
6 24</w>
6 11</w>
5 41</w>
5 .3</w>
40 6</w>
4 .7</w>
33 57</w>
3 82</w>
3 48</w>
3 15</w>
3 .5</w>
29 B
29 11</w>
28 G</w>
28 E</w>
28 C</w>
28 32</w>
27 688</w>
25 567</w>
23 73</w>
23 177</w>
20 17</w>
20 13</w>
2. 41</w>
2. 35</w>
2. 24</w>
2. 19</w>
2. 17</w>
2 312</w>
2 2.
2 17
19 .7</w>
18 A.
18 .
16 43</w>
16 09</w>
15 66</w>
15 44</w>
14 59</w>
13 92</w>
13 83</w>
13 66</w>
13 33</w>
13 22</w>
13 19</w>
12 E</w>
12 58</w>
10 73</w>
10 52</w>
1. 0</w>
1 489</w>
1 217</w>
1 175</w>
1 133</w>
0. 75</w>
0. 36</w>
0 89</w>
0 66</w>
0 62</w>
0 20</w>
0 04</w>
黑 海地区</w>
鲸 目</w>
鱼 饵</w>
魁 北
魁北 克</w>
高 标准</w>
高 得</w>
高 层次</w>
高 加
驳 斥</w>
驳 回</w>
马 斯特
马斯特 里
马斯特里 赫
马斯特里赫 特</w>
马 扎
马扎 里
马扎里 沙
马扎里沙 里
马扎里沙里 夫</w>
饥 馑</w>
颇 感兴趣</w>
领导 者</w>
领 空</w>
领 地</w>
预 发</w>
预 付款</w>
颂 扬</w>
顿 市</w>
须 经</w>
面 貌</w>
靠 近</w>
非洲 地区</w>
非 商业</w>
非 分</w>
需 求
需求 量</w>
零 敲
零敲 碎
零敲碎 打</w>
集 装
集装 箱</w>
集 整理</w>
难民 署</w>
难以 解决</w>
难 题</w>
随 时
随时 随
随时随 地</w>
陪 同</w>
除 以</w>
陈 旧</w>
附 于</w>
阿 森
阿森 松
阿森松 岛</w>
阿 摩</w>
阻 截</w>
阶 梯</w>
间接 税</w>
长期 投资</w>
银行 行
银行行 长</w>
铁 路
釜 山</w>
金融 管理</w>
金刚 砂</w>
金 杜</w>
量 力
量力 而
量力而 行</w>
重新 考虑</w>
重大 损失</w>
重 罪</w>
重 算</w>
重 享</w>
重 下</w>
里亚 海</w>
里 科</w>
采 信</w>
醒 目</w>
酬 金</w>
配 以</w>
都 市</w>
部 为</w>
邮 寄</w>
那 时</w>
那 么</w>
遵 纪
遵纪 守法</w>
遵 守
遵守 规则</w>
遗 失</w>
逾 越</w>
通信 卫星</w>
通 性</w>
通 俗
通俗 易懂</w>
递 信息</w>
逐 届</w>
选 派</w>
选 任</w>
送 到</w>
退 还
退还 给</w>
追 踪
追踪 调查</w>
述 人</w>
迪 沙</w>
迟 缴</w>
违规 者</w>
违 犯</w>
进 来</w>
这 套</w>
这 会</w>
返 乡</w>
运输 船</w>
过 长</w>
边 防</w>
辩护 人</w>
辜 者</w>
辐 射
辐射 量</w>
载 述</w>
载 明</w>
载 录</w>
轻 易</w>
转 划</w>
路易 斯</w>
越 拉
越拉 越</w>
走 访</w>
走 上</w>
赤 字</w>
赠 与</w>
赞 许</w>
赞 助者</w>
资 本
资本 外逃</w>
资 料
资 历</w>
贫 富</w>
账 簿</w>
账 款</w>
财产 法</w>
贝 克</w>
谬 误</w>
谋 利益</w>
调 和</w>
请 愿</w>
该 署</w>
该 网</w>
诚 心
诚心 诚意</w>
识 别
识别 系统</w>
评 估
评估 所</w>
访 问
设 计
讲 演</w>
记 住</w>
议事 日程</w>
训 所</w>
认真 对待</w>
计算机 辅助</w>
计算机 系统</w>
计 酬</w>
计 票</w>
警 组织</w>
警 示</w>
警 戒</w>
詹 姆斯</w>
言 行</w>
触 及</w>
解 雇</w>
视 系统</w>
规划 系统</w>
规 格</w>
观察 站</w>
见 证人</w>
见 效</w>
要 件</w>
装 修</w>
被告 方</w>
被 诉</w>
衷 心
衷心 感谢</w>
表 前</w>
表 二所列</w>
表 一</w>
补偿 性</w>
行为 不
行 各
行各 业</w>
虽 非</w>
虽 经</w>
虫 害</w>
蒙古 国</w>
蒙 克</w>
著 作</w>
获得 性
获得性 免疫</w>
获 邀</w>
获 该</w>
草 签</w>
英文 字母</w>
若 能</w>
苏 瓦</w>
苏 木</w>
艺术 界</w>
艺 品</w>
色 色</w>
良 政</w>
船 骸</w>
船 主</w>
船 东</w>
航天 局</w>
舒 缓</w>
致 死</w>
自由 往来</w>
自然 光</w>
自 该</w>
自 给
自 满
自满 情绪</w>
自 本</w>
自 幼</w>
自 尊</w>
自 发</w>
自 参加</w>
自 下而上</w>
膏 肓</w>
脱 贫</w>
背 负</w>
肥 沃</w>
股 在</w>
股 及</w>
联合 阵线</w>
联 接</w>
联 席</w>
职 守</w>
耶 和
耶和 华</w>
耗 竭</w>
而 后</w>
罗 尔</w>
网络 空间</w>
网络 版</w>
网 等</w>
网 在</w>
缺 席</w>
缺 乏
缴 获</w>
缘 起</w>
缘 由</w>
编 目</w>
编 撰</w>
编 写
编写 程序</w>
缅甸 联邦</w>
绿 化</w>
维尔 纽
维尔纽 斯</w>
维 网</w>
维 修
维修 费</w>
继续 前进</w>
统一 规划</w>
结果 显示</w>
结 报告</w>
结 尾
结尾 处</w>
绑 架
经营 者</w>
经营 方式</w>
经济 负担</w>
经 考验</w>
经 审查</w>
终 局</w>
组织 系统</w>
组织 性</w>
纾 解</w>
纽 伦
纽伦 堡</w>
纸 张</w>
纤 维</w>
纠 纷</w>
系 以</w>
糟 蹋</w>
精神 压力</w>
粮 农</w>
类 情况</w>
米 歇
米歇 尔</w>
米 奇</w>
管理 程序</w>
管理 法</w>
管理 效率</w>
简 述</w>
简 编</w>
筹 得</w>
等 额</w>
第四十 二条</w>
第四 句</w>
第十二 章</w>
第十 七</w>
第六 十</w>
第八 十八</w>
第二十 次</w>
第二十 八条</w>
第二十 三</w>
第二十 七次</w>
第二十 七条</w>
第二 份</w>
第三十 八</w>
第一 种</w>
第一 年</w>
第一 天</w>
第一 副</w>
笔 勾销</w>
竟 然</w>
窗 口</w>
空 运</w>
空 袭</w>
空 气</w>
稳 定
稳定 局势</w>
稠 密</w>
税 后</w>
税 务</w>
移 居</w>
积极 关注</w>
积 欠</w>
科学 管理</w>
私 权</w>
私 下
私下 地</w>
离 国</w>
福 址</w>
禁 产</w>
社会 规范</w>
社 交
礼 宾</w>
礼 仪</w>
确 须</w>
确 属</w>
破 例</w>
砂 矿</w>
石油 换</w>
省 议会</w>
相互 竞争</w>
相 适应</w>
相 得
相得 益
相得益 彰</w>
相 似</w>
直 播</w>
目 击者</w>
监测 数据</w>
监 视系统</w>
百分 点</w>
百 四十六</w>
登记 员</w>
登 载</w>
登 临</w>
病 毒
病毒 传播</w>
病 患</w>
病 原</w>
病 原
病原 体</w>
病 入
病入 膏肓</w>
留 驻</w>
界 面</w>
界 人士</w>
男女 之间</w>
男 士</w>
电视 节目</w>
电子 政务</w>
电信 业</w>
电 讯</w>
电 脑
电 报</w>
申请 加入</w>
由 性</w>
由 受</w>
用 地</w>
生命 危险</w>
生 观</w>
生 气
生气 勃勃</w>
生 死</w>
甚 微</w>
理 性</w>
班 珠尔</w>
班 吉</w>
珍 藏</w>
现代 文明</w>
现 称</w>
现 占</w>
环 球</w>
玉 色</w>
狱 政</w>
牺 牲</w>
特 许</w>
特 工</w>
牵 连</w>
爆炸 事件</w>
熟 度</w>
热带 病</w>
热带 海洋</w>
灾 祸</w>
灵 通</w>
灭 贫</w>
火 箭</w>
激 进</w>
演 习</w>
滥用 职权</w>
溯 河</w>
渔 捞</w>
渔 场</w>
清 洁
清洁 卫生</w>
混 乱</w>
深表 同情</w>
深刻 影响</w>
深 知</w>
深 度</w>
淘 汰</w>
涛 动</w>
消 息
消息 灵通</w>
海 运业</w>
海 运</w>
海 洛
海洛 因</w>
海 岸
海岸 线</w>
济 及</w>
流 徙</w>
流 产</w>
活动 家</w>
活 率</w>
洁 净</w>
波 哥
波哥 大</w>
波 兰政府</w>
泛 滥</w>
法律 法规</w>
法人 资格</w>
法 尼亚
法尼亚 州</w>
法 学会</w>
法 在</w>
法 医学</w>
法 办</w>
法 则</w>
治 疗法</w>
油 类</w>
油 田</w>
油 污</w>
沉 没</w>
汇 总</w>
水 雷</w>
气象 卫星</w>
气 旋</w>
民间 团体</w>
民主 自由</w>
民 意</w>
民 俗</w>
比利 时政府</w>
比 照</w>
比 拉</w>
毒 害</w>
每 况
每况 愈
每况愈 下</w>
每 五</w>
段 时间</w>
残 障</w>
死 于</w>
武装 侵略</w>
此 类情况</w>
此 款</w>
正 由</w>
正 本</w>
款 待</w>
款 内</w>
欺 诈性</w>
欺 凌</w>
欧洲 航天局</w>
欧 佩
欧佩 克</w>
欢 庆</w>
欠 款项</w>
横 向</w>
榜 样</w>
植 树
植树 造林</w>
棱 柱</w>
棉 花</w>
检查 程序</w>
格 朗
格朗 德</w>
核 发</w>
树 木</w>
标 明</w>
枢 纽</w>
果 敢</w>
构 思</w>
极 有</w>
极 易</w>
杰 里科</w>
来文 后</w>
条 除</w>
条 见</w>
条 时</w>
条 使</w>
权 有</w>
权 所
权所 含</w>
机 票</w>
本 段</w>
本 应</w>
未 计</w>
未 见</w>
未 婚</w>
未 于</w>
木 材</w>
期 起</w>
期 由该</w>
期 为</w>
服务 提供商</w>
服 满</w>
有所 改进</w>
有 薪</w>
有 价
有价 证券</w>
月 间</w>
月 初</w>
最 多
更 进一步</w>
暴力 犯罪</w>
智 地</w>
智 囊
智囊 团</w>
景 观</w>
星期 三</w>
易 遭</w>
明确 提出</w>
明 智地</w>
时 需</w>
时 所作</w>
时 尽</w>
时 尚</w>
早 孕</w>
日 该</w>
日 落</w>
日 算</w>
日 常
日常 生活</w>
日 大</w>
日 多</w>
日 卡
日卡 纳</w>
日 刊</w>
无法 挽回</w>
无 辜者</w>
无 资格</w>
无 误</w>
无 疑</w>
无 损</w>
无 受</w>
无 偿</w>
旗 帜</w>
旅游 区</w>
方 会谈</w>
新 颖</w>
斯塔 尔</w>
文化 场所</w>
文件 翻译</w>
文 献
文 学
文学 遗产</w>
整 年</w>
整 天</w>
整 修</w>
敲 诈性</w>
数据 交换</w>
数 项</w>
数 十
数十 万</w>
数 份</w>
教学 方法</w>
教 改</w>
教 堂</w>
教 唆</w>
敏 锐</w>
敌对 行为</w>
政策 方针</w>
政治 危机</w>
政治 体制</w>
政 纲</w>
政 敌</w>
攻 势</w>
改 营</w>
改 用</w>
改 期</w>
改 成</w>
收 集整理</w>
收 获</w>
收 能力</w>
收 缩</w>
收 押</w>
收 录</w>
撤 除</w>
摩 加
摩加 迪沙</w>
摆 在</w>
摄 影</w>
搭 配</w>
搬 走</w>
提 纲</w>
提 示</w>
掺 拌</w>
推 荐</w>
推 及</w>
排 外</w>
授 标</w>
按 该</w>
指 令</w>
指 一国</w>
持续 时间</w>
持 有人</w>
拦 截</w>
招 标</w>
拖 欠款项</w>
拐 骗</w>
拉巴 特</w>
拉丁 文</w>
拉 迪</w>
拉 岛</w>
拉 姆</w>
拉 城</w>
拉 加</w>
报 纸</w>
报 称</w>
报 社</w>
报 人</w>
折 磨</w>
抗 御</w>
技术 革新</w>
技术 设备</w>
承 包商</w>
承 包
承包 者</w>
扶 助</w>
扩大 出口</w>
执法 机关</w>
执 业</w>
所在 区域</w>
所 生</w>
战争 罪犯</w>
战 术</w>
或 本</w>
或 人道</w>
成 熟度</w>
愤 慨</w>
感到 痛心</w>
愈 合</w>
惋 惜</w>
惊 悉</w>
情况 严峻</w>
患 病</w>
患 上</w>
恶 果</w>
总 裁</w>
总 结报告</w>
总 的
性 研究</w>
性 生活</w>
性 所</w>
性 取向</w>
怎 么</w>
忽 略</w>
必不可 缺</w>
必 定</w>
心 态</w>
微 观经济</w>
循 迹</w>
得 里亚海</w>
得 票</w>
得 注意</w>
得 力</w>
很 快</w>
征 召</w>
形 色色</w>
形 形色色</w>
当 值</w>
归 属</w>
强烈 建议</w>
弱 小</w>
引 擎</w>
引 人
引人 注目</w>
异 见</w>
开放 式</w>
开拓 市场</w>
开发 局</w>
建设 项目</w>
建筑 群</w>
应 请</w>
应 视</w>
应 经</w>
应 由
应 圣</w>
应 向</w>
应 变</w>
应 受
应受 谴责</w>
应 列明</w>
应 交</w>
庇护 权</w>
并 须</w>
并 纳</w>
并 发
并发 症</w>
年 纪念</w>
年 春</w>
年 届</w>
年 夏
年夏 天</w>
年 内</w>
平 稳</w>
平 原</w>
干 线</w>
干 净</w>
常 务</w>
帮 派</w>
帐 目</w>
希 尔</w>
师 资</w>
布 干
市 镇</w>
市 民</w>
市 政府</w>
巴 政府</w>
巴 拉迪</w>
已 领</w>
已 往</w>
已 以</w>
左 右</w>
工商 界</w>
工商 企业</w>
工业 品</w>
工 龄</w>
工 艺品</w>
工 流产</w>
工 厂</w>
工 农业</w>
崇 高</w>
山 日</w>
屏 蔽</w>
局 限于</w>
尽 职</w>
尽 可能
尽可能 减少</w>
尽 义务</w>
尼日 利亚
尼日利亚 政府</w>
尼 罗</w>
尸 体</w>
就 要</w>
尤 须</w>
尔 特</w>
尔 国</w>
少 有</w>
少 于</w>
小 生产者</w>
小 学生</w>
将 表</w>
射 器</w>
对 雷场</w>
富 裕</w>
宾 夕
宾夕 法尼亚州</w>
家 具</w>
害 怕</w>
宪 会议</w>
宣传 材料</w>
宣 示</w>
审计 工作</w>
审 校</w>
审 即</w>
实际 意义</w>
实 验</w>
实 时</w>
定 下</w>
完整 权</w>
完全 一致</w>
完 毕</w>
安圭 拉岛</w>
安全 区</w>
安 家</w>
安 宁</w>
安 卡拉</w>
存 活率</w>
存 款</w>
妇女 儿童</w>
如 既往</w>
奴隶 制度</w>
奥 运</w>
奉 献</w>
奉 召</w>
夺 走</w>
失 败</w>
失 衡</w>
失 检</w>
失 密</w>
天 灾</w>
大学 校长</w>
大众 传播</w>
大 额</w>
大 都</w>
大 家庭</w>
大 中
大中 小学生</w>
多 族</w>
多 式</w>
多 媒体</w>
多 国
多国 部队</w>
外交 部</w>
外 对</w>
外 向</w>
复 课</w>
复 性</w>
复 员
复员 军人</w>
复 制</w>
处 应</w>
增加 数</w>
增 减</w>
境 遇</w>
塑 造</w>
基础 科学</w>
基 思</w>
基 层
基 因
基因 组</w>
培训 教材</w>
城市 贫民</w>
埃 尔</w>
坊 式</w>
均 列</w>
地球 物理</w>
地方 性</w>
地 处</w>
地 制
地制 宜</w>
地 共
地共 挑</w>
地 下
地下 水</w>
在 校</w>
圣多 美</w>
圣 约翰</w>
圣 物</w>
圣 托马斯</w>
国际 刑
国际刑 警组织</w>
国际 交往</w>
国家 级</w>
国 防
国 某</w>
国 未于</w>
国 已</w>
国 将</w>
国 债</w>
围 困</w>
因 对</w>
因 地制宜</w>
回 购</w>
回 到</w>
四十 九</w>
四 国</w>
四 十周年</w>
嗣 后</w>
喜 爱</w>
商品 交易</w>
商业 化</w>
商 讨</w>
商 用</w>
哺 乳
哺乳 动物</w>
哪 些
哪些 方面</w>
哥伦 比亚政府</w>
品 种</w>
品 德</w>
哀 悼</w>
和平 统一</w>
命 名</w>
周期 性</w>
周 边</w>
周 年纪念</w>
周 岁</w>
吻 合</w>
吸取 经验</w>
吸 收能力</w>
听 到</w>
否 决</w>
向 易</w>
名 副
名副 其实</w>
名 为</w>
同 类</w>
同 步</w>
同 小</w>
同 位
同位 素</w>
同 业</w>
同 一个</w>
合理 要求</w>
合作 者</w>
合 算</w>
合 力</w>
各 设</w>
各 行各业</w>
各 省</w>
司法 部长</w>
司 有</w>
司 向</w>
司 为</w>
号 召</w>
叶 派</w>
可行 性研究</w>
可 选</w>
可 经</w>
可 大</w>
可 兑
古 迹</w>
古 达</w>
古 柯</w>
古 巴政府</w>
口 述</w>
变 相</w>
变 卖</w>
受灾 地区</w>
受到 重视</w>
受 训</w>
受 援</w>
受 托</w>
取得 联系</w>
取 出</w>
发展 趋势</w>
发展 局</w>
发 扬</w>
反 腐</w>
双边 条约</w>
双边 关系</w>
及 分</w>
参 阅</w>
参 战</w>
原 物</w>
原 样</w>
原 文</w>
原 已</w>
原 地</w>
即 能</w>
即 水</w>
即 同</w>
危险 性</w>
危地马 拉城</w>
印 本</w>
卫生 保健</w>
卫星 平台</w>
卡塔 尔国</w>
博 爱</w>
博 尼</w>
南 京
南京 市</w>
卓 绝</w>
协调 会议</w>
协商 会</w>
华盛 顿市</w>
华 人民
十分 必要</w>
十八 名</w>
十二 分</w>
十 大</w>
十 五条</w>
十 五
十五 日</w>
十 二名</w>
十 九个</w>
区域 保护</w>
北 美洲</w>
北 方</w>
包 机</w>
包 庇</w>
募 捐</w>
勒 斯</w>
劳 改营</w>
劳 动
努 巴</w>
努 埃尔</w>
动 议</w>
动 荡
动 作</w>
劣 势</w>
加 强
加 工
加 害</w>
劝 告</w>
割 切</w>
剩 余
剧 烈</w>
前 应</w>
前 塞米</w>
前 几次</w>
刻 不容
刻不容 缓</w>
制定 方案</w>
制 药业</w>
制 宪会议</w>
到 场</w>
利 润</w>
利 伯
利伯 维尔</w>
创造 性地</w>
创造 力</w>
创 始</w>
列 名</w>
切 望</w>
切 勿</w>
分配 情况</w>
分 级</w>
分 期</w>
分 支</w>
分 包</w>
出版 界</w>
出席 率</w>
凡 有</w>
几 组</w>
减 弱</w>
准 军事</w>
冷 藏</w>
决 定性</w>
冲 积</w>
军 舰</w>
写 入</w>
冗 余</w>
再 行</w>
再 生</w>
再 三</w>
内部 结构</w>
内 除</w>
内 称</w>
内 含</w>
典 范</w>
具体 表现</w>
具体 意见</w>
具体 实施</w>
其 次</w>
其 案</w>
其 新</w>
其 应</w>
其 同</w>
其 依</w>
其 以</w>
兴 办</w>
关键 所在</w>
关 照</w>
六 方会谈</w>
公平 地</w>
公共 利益</w>
公 营企业</w>
公 园</w>
公 允</w>
克罗地 亚
克罗地亚 共和国</w>
光 生</w>
光 学</w>
充分 说明</w>
充分 体现</w>
停火 协议</w>
停 职</w>
停 战</w>
做 时</w>
偏 重</w>
值 得注意</w>
候 补</w>
修订 稿</w>
修订 案</w>
信 使</w>
保留 地</w>
保卫 国家</w>
保 证
便 捷</w>
侵权 者</w>
侦 测</w>
依 第</w>
供应 船</w>
供 求</w>
供 此</w>
使 训</w>
作 成</w>
作 坊式</w>
住房 问题</w>
住 处</w>
伤 人</w>
传 递信息</w>
传 达</w>
传 票</w>
传 单</w>
会计 准则</w>
会 后</w>
优 异</w>
伊 格尔</w>
任务 区</w>
价值 体系</w>
件 报告</w>
仲裁 庭</w>
以 至</w>
以 收</w>
以 备</w>
以 为</w>
令 时</w>
代理 商</w>
代 议</w>
付诸 实践</w>
他 物</w>
从 此</w>
从 小</w>
从 全</w>
从 今</w>
仍 须</w>
仍 会</w>
今 年夏天</w>
仅 仅</w>
仁 爱</w>
什 叶派</w>
人身 自由权</w>
人身 攻击</w>
人口 迁移</w>
人口 稠密</w>
人 生观</w>
人 有</w>
人 文
人 才</w>
人 心</w>
人 工流产</w>
人 因</w>
亲 自参加</w>
产品 销售</w>
产 卵</w>
交通 工具</w>
交 织</w>
些 时候</w>
亚 述人</w>
亚 得里亚海</w>
五十 八</w>
五十 五个</w>
五 国</w>
五 人</w>
互相 交换</w>
二十 四名</w>
二十 八</w>
二十 五年</w>
二十 九个</w>
二十 个</w>
二 者</w>
二 线</w>
事实 陈述</w>
事 件报告</w>
买 得起</w>
书 状</w>
书 店</w>
九十 日</w>
九 次</w>
九 名</w>
乐 意</w>
乐 于</w>
乌 塔</w>
乌 乌</w>
之 日算</w>
之 声</w>
之 友</w>
之 分</w>
之 久</w>
久 经考验</w>
久 拖</w>
乃 是</w>
举 报人</w>
为 南</w>
临 战状态</w>
丰 博尼</w>
中央 银行</w>
中 未</w>
中 排</w>
中 拟</w>
中 所定</w>
中 应分</w>
中 国政府</w>
中 同</w>
中 华人民
中 则</w>
中 使</w>
中 介
中 不以</w>
个人 卫生</w>
两 方</w>
两 字</w>
两 场</w>
两 国
东 北部</w>
业务 范围</w>
专 有</w>
与此 相关</w>
与会 代表</w>
不得 已</w>
不 通</w>
不 确定性</w>
不 敢</w>
不 振</w>
不 成</w>
不 愿</w>
不 因</w>
不 善</w>
不 和睦</w>
不 公平地</w>
下 跌</w>
下 所作</w>
下 为</w>
下 一代</w>
上 级</w>
上 核</w>
上 报</w>
上 岸</w>
上 岗</w>
上 受</w>
上 下</w>
三 至</w>
三 周</w>
三 世</w>
万 维网</w>
七 名</w>
七 十四</w>
七 十七</w>
七 人</w>
一般 来说</w>
一百零 七</w>
一百二十 二个</w>
一百 五十五</w>
一百 二十</w>
一百 九十</w>
一 艘</w>
一 笔勾销</w>
一 秉</w>
一 段时间</w>
一 本</w>
一 是</w>
一 整天</w>
一 如既往</w>
一 如</w>
一 大部分</w>
一 两年</w>
world v
worldv ol
worldvol un
worldvolun te
worldvolunte er
worldvolunteer web</w>
v o
v e
ve y</w>
v 2001</w>
uni ce
unice f</w>
t r</w>
su b</w>
se r
ser vey</w>
s p
rog r
rogr am
p rogram
on s</w>
ol .1</w>
od e</w>
o v</w>
n c
iy v2001</w>
im f
imf servey</w>
ia e
iae a</w>
g ov</w>
g h
e kecheiria</w>
e d</w>
b sec</w>
X IX</w>
WP .2</w>
WHA 56</w>
WHA 5
WG .18</w>
V ol.1</w>
UN C
UNC TA
UNCTA D</w>
T F</w>
Sect. 31</w>
Sec t</w>
SR. 34</w>
SR .2</w>
SP CONF</w>
SE R</w>
Rev .4</w>
RPM .4</w>
RPM .3</w>
RPM .2</w>
RPM .1</w>
R T</w>
PV. 46
P CN
PCN ICC</w>
ME PC</w>
M .1</w>
L. 67</w>
L. 66</w>
L. 65</w>
L. 64</w>
L. 63</w>
L. 62</w>
L. 60</w>
L. 59</w>
L. 58</w>
L. 262</w>
L X</w>
K P</w>
J I
JI U</w>
IV. 7</w>
IV. 2</w>
I D
GE F</w>
Fish C
FishC ode</w>
Dec. 33</w>
Dec. 165</w>
D H
D AW</w>
Corr .5</w>
COP .6</w>
COP .4</w>
CONF. 210</w>
CN .6</w>
CN .5</w>
CM P</w>
CE DAW</w>
BW M</w>
B .4</w>
Add. 24</w>
A RT</w>
A M
90 3</w>
9 98</w>
9 93</w>
9 91</w>
9 69</w>
9 61</w>
9 60</w>
9 30</w>
9 25</w>
9 22</w>
9 12</w>
8. 18</w>
8 99</w>
8 92</w>
8 70</w>
8 69</w>
8 65</w>
8 63</w>
8 51</w>
8 49</w>
8 42</w>
8 41</w>
8 36</w>
8 35</w>
8 34</w>
8 19</w>
8 07</w>
8 04</w>
8 01</w>
7 83</w>
7 73</w>
7 70</w>
7 58</w>
7 47</w>
7 44</w>
7 43</w>
7 41</w>
7 38</w>
7 34</w>
7 27</w>
7 26</w>
7 25</w>
7 16</w>
7 15</w>
6 97</w>
6 94</w>
6 86</w>
6 84</w>
6 79</w>
6 72</w>
6 69</w>
6 55</w>
6 44</w>
6 29</w>
6 14</w>
6 13</w>
6 1.
61. 6</w>
58 .3</w>
5 J</w>
5 94</w>
5 27</w>
5 .8</w>
5 .4</w>
49 3</w>
48 60</w>
40 214</w>
4. 14</w>
4. 10</w>
4 45</w>
4 .3</w>
37 789</w>
33 91</w>
33 31</w>
30 26</w>
3. 9</w>
3 54</w>
3 502</w>
3 237</w>
3 208</w>
3 187</w>
3 148</w>
3 106</w>
3 .8</w>
29 G
29 F.
28 F</w>
28 38</w>
27 91</w>
27 28</w>
26 57</w>
26 56</w>
25 50</w>
25 14</w>
25 .
24 370</w>
23 26</w>
217 A</w>
2. 92</w>
2. 5</w>
2. 26</w>
2. 15</w>
2 263</w>
2 2514</w>
2 221</w>
2 163</w>
19. 9</w>
19 62</w>
19 04</w>
18. 767</w>
17 98</w>
17 54</w>
17 01</w>
16 78</w>
15 98</w>
15 91</w>
15 70</w>
15 42</w>
15 35</w>
15 28</w>
15 21</w>
15 12</w>
15 020</w>
14. 19</w>
14 40</w>
14 31</w>
14 10</w>
14 01</w>
14 .18</w>
13 90</w>
13 52</w>
13 43</w>
13 30</w>
13 12</w>
13 00</w>
12 79</w>
12 70</w>
11 A</w>
11 29</w>
11 .
10 53</w>
10 4.7</w>
10 23</w>
10 02</w>
10 .3</w>
10 .
1 4860</w>
1 .3</w>
0 85</w>
0 69</w>
0 61</w>
0 46</w>
0 45</w>
0 12</w>
0 07</w>
0 .4</w>
.. .</w>
. 13</w>
- --</w>
- ---</w>
龟 类</w>
龄 前</w>
龄 人</w>
齐心 合力</w>
鼓 动</w>
黯 淡</w>
黑 体</w>
黎 各</w>
黄 玉</w>
麻醉 药</w>
麻 醉</w>
鱼 苗</w>
高加 索
高加索 地区</w>
高 速
高速 公路</w>
高 达</w>
高 法院</w>
高 档</w>
高 技能</w>
高 峰
高峰 期</w>
高 官</w>
高 原
高原 地区</w>
骤 然</w>
骚 乱</w>
骗 性</w>
骄 傲</w>
驱 赶</w>
驱 散</w>
马尔 默</w>
马尔 罕</w>
马 查</w>
马 族</w>
马 塞
马塞 卢</w>
马 城</w>
马 利亚</w>
马 上</w>
首 领</w>
首 选</w>
首 当
首当 其
首当其 冲</w>
首 尔</w>
首 任</w>
饿 死</w>
饥 民</w>
风 能</w>
风 易
风易 俗</w>
频 遭</w>
频 道</w>
频 仍</w>
领 水</w>
领 事
领事 馆</w>
预先 规定</w>
预 选</w>
预 购</w>
预 审</w>
预 备
预 决</w>
预 作</w>
预 估</w>
顺利 开展</w>
项目 经理</w>
项目 区</w>
音 员</w>
面 纱</w>
非法 手段</w>
非常 重视</w>
非常 感激</w>
非 银行</w>
非 营利</w>
非 统
非统 组织</w>
非 经济</w>
非 曲
非曲 直</w>
非 凡</w>
非 供</w>
非 亚</w>
震 荡</w>
震 慑</w>
需 将</w>
需 对</w>
需 品</w>
需 以</w>
雷 险</w>
雷 格里
雷格里 港</w>
集中 精
集中精 力</w>
集 人</w>
雅 尔
雅尔 塔</w>
隶 属</w>
隐 私权</w>
隐 性</w>
随 意</w>
陷 入
陷入 困境</w>
险 害</w>
除 须</w>
除 名</w>
除 上</w>
陆 海
陆海 空</w>
附加 值</w>
附 随</w>
附 载</w>
附 则</w>
阿 马利亚</w>
阿 雷格里港</w>
阿 族</w>
阿 斯塔
阿斯塔 纳</w>
阿 坦
阿坦 布</w>
阴 道</w>
防 火</w>
防 控</w>
防 务</w>
间 或</w>
门 户
门户 网站</w>
长 足</w>
长 足
长足 进展</w>
长 短</w>
长 时间</w>
长 度</w>
长 年</w>
锥 体</w>
锡 拉</w>
错 综
错综 复杂</w>
销 其</w>
银行 界</w>
铁路 干线</w>
鉴定 结论</w>
金融 界</w>
金融 工具</w>
金 使</w>
量 标准</w>
量 权</w>
重重 困难</w>
重要 环节</w>
重新 得到</w>
重新 启动</w>
重 轰
重轰 炸
重轰炸 机</w>
重 男
重男 轻
重男轻 女</w>
重 用</w>
重 物品</w>
重 整</w>
重 开</w>
重 复性</w>
里 昂</w>
里 斯</w>
采 蝇</w>
酋 长</w>
都 是</w>
部 级</w>
部 内</w>
邦 巴</w>
那 不
那不 勒斯</w>
避 开</w>
遴 选</w>
遣 返
遣返 回
遣返回 国</w>
遗传 工程</w>
遗传 学</w>
遗 骨</w>
遗 物</w>
遗 漏</w>
遗 孀</w>
道德 观</w>
道 而
道而 驰</w>
道 歉</w>
遍 布</w>
遇 害</w>
遂 政
遂政 变</w>
逻 辑</w>
造 成
速 率</w>
通 盘
通盘 考虑</w>
通 巴</w>
递 增</w>
逐 例</w>
透 露</w>
选举 权</w>
选 连任</w>
选 活动</w>
选 之列</w>
适 应
适应 能力</w>
送 信息</w>
退休 者</w>
退休 年龄</w>
退 让</w>
退 步</w>
退 学</w>
追究 其</w>
追 诉</w>
追 索</w>
迫 不得已</w>
迟 迟</w>
迟 交
迟交 对</w>
连 通性</w>
连 通</w>
连 选连任</w>
远 处</w>
进 取
进取 精神</w>
这 大</w>
这 三名</w>
还 债</w>
运动 场</w>
运 离</w>
运 出</w>
运 入</w>
过 重</w>
过 该</w>
过 时</w>
过 境
过境 费</w>
过 半数</w>
过 于</w>
迁 至</w>
迁 离</w>
辨 识</w>
较 常</w>
载 军</w>
轻 重</w>
轻 微</w>
软 件
轮 换</w>
转 给</w>
转 口</w>
转 业</w>
轨 制</w>
车 速</w>
车 库</w>
躬 行</w>
身 体
踊 跃</w>
践 中</w>
路 标</w>
路 上</w>
足 轻重</w>
趋 向于</w>
趋 向</w>
越 发</w>
超 速</w>
起 用</w>
起 义</w>
赫 马族</w>
赫 里</w>
赫 拉特</w>
赢 利
赢利 性</w>
赠 予</w>
资金 短缺</w>
资金 投入</w>
资金 分配</w>
资金 不足</w>
资料 汇编</w>
资 深</w>
资 料库</w>
资 关系</w>
贸易 总协定</w>
贵 重物品</w>
购 买
购买 力</w>
质量 保证</w>
质量 上
质量上 乘</w>
货 运</w>
货 品</w>
货 交易</w>
账 外</w>
账 务</w>
财务 结构</w>
财务 数据</w>
财 税</w>
负责 制</w>
负 债
负债 累累</w>
负 众
负众 望</w>
贞 子</w>
贝 尔</w>
谢 意</w>
谈 到</w>
调查 表</w>
调 派</w>
调 取</w>
调 一致</w>
课 程
课程 内容</w>
诸 多</w>
请求 事项</w>
请 批</w>
请 养</w>
说明 性</w>
说明 会</w>
诱 使</w>
详 尽
详尽 资料</w>
该 类</w>
该 款</w>
该 岛</w>
该 墙</w>
该 人时</w>
该 书</w>
诞 生</w>
诞 生
诞生 地</w>
诚 布
诚布 公</w>
译 本</w>
诉讼 请求</w>
诉讼 时效</w>
证据 确
证据确 凿</w>
访问 期间</w>
访 客</w>
设计 图</w>
设 于</w>
讲习 会</w>
讲 师</w>
讯 逼供</w>
议 案</w>
议 庭</w>
认 同</w>
订 合同</w>
订 单</w>
计算机 相关</w>
计算 方法</w>
计算 中心</w>
计划 编制</w>
言 语</w>
触 发</w>
觉 察</w>
视 觉</w>
视 之为</w>
规范 化</w>
规 律</w>
见 同</w>
见 到</w>
覆盖 率</w>
要 挟</w>
要 么</w>
西 部</w>
西 欧国家</w>
西 太平洋</w>
裁 量权</w>
袭 击者</w>
被 打乱</w>
被 弃</w>
衰 退</w>
表示 慰
表示慰 问</w>
表 演
表演 艺术</w>
表 时</w>
表 为</w>
表 与</w>
表 上</w>
补 齐</w>
衣 着</w>
衡 量标准</w>
衡 算</w>
衡 得失</w>
行政 责任</w>
行政 法</w>
行政 命令</w>
行政 主管</w>
行为不 检</w>
行为 能力</w>
行 踪</w>
行 决定</w>
行 之害</w>
行 中</w>
虚 报</w>
虚 伪</w>
虚 会</w>
藏 书</w>
薪 额</w>
蔓 延
蒙 罗
蒙罗 维亚</w>
蒙 得
蒙得 维
蒙得维 的
蒙得维的 亚</w>
蒂 固</w>
著 名人士</w>
萨 特</w>
萨 文
萨文 比</w>
萨 德</w>
萨 尔</w>
营养 素</w>
营 业
获取 数据</w>
莱 明</w>
莱 尔</w>
荷 属</w>
药 包</w>
荣 誉</w>
荒 谬</w>
范 性</w>
若干 组</w>
若 纳斯</w>
若 泽</w>
苏 斯</w>
苏 尔特</w>
苏 姬</w>
节 点</w>
节 恶劣</w>
节 性</w>
节 制</w>
节 中</w>
艾 滋</w>
色 彩</w>
艰 巨</w>
良 机</w>
良 政
良政 对</w>
船 长</w>
船 籍</w>
船 上</w>
舱 位</w>
航空 安全</w>
航空 公司</w>
航 班</w>
舌 蝇</w>
至 终</w>
至 今
至今 已有</w>
自给 自
自给自 足</w>
自由 人</w>
自愿 地</w>
自 首</w>
自 重</w>
自 行决定</w>
自 管</w>
自 称</w>
自 杀
自杀 式</w>
自 我
自 始
自始 至终</w>
自 二</w>
臆 断</w>
膀 胱</w>
腾 出来</w>
腐败 问题</w>
腐 蚀</w>
腐 化</w>
脱 节</w>
能源 需求</w>
能 过</w>
能 见度</w>
能 应</w>
能 修</w>
胜 利</w>
背 道而驰</w>
肯 普敦</w>
肩 负</w>
肢 体</w>
股 票</w>
股 内</w>
肆 无
肆无 忌
肆无忌 惮</w>
肆 意</w>
聚 合物</w>
聚 会</w>
联邦 制</w>
联络 网</w>
联络 点</w>
联络 员</w>
联合 政府</w>
联 阿</w>
联 系
联系 点</w>
联 席
联席 会议</w>
联 大</w>
联 体</w>
聋 盲</w>
耶 稣</w>
耕 地</w>
耐 用</w>
而 无须</w>
而 成</w>
而 异</w>
而 已</w>
而 于</w>
翻 译成</w>
翻 新</w>
翌 日</w>
群 策
群策 群
群策群 力</w>
羞 辱</w>
美国 国会</w>
署 于</w>
罪 轻</w>
罪 案</w>
罪 恶</w>
罪 名</w>
缺乏 症</w>
缺 额</w>
编 汇</w>
编 报</w>
编 制
编制 工作</w>
缓 执行</w>
绿 色
绿 皮书</w>
绿 带</w>
综合 信息</w>
维 系</w>
续 任</w>
绪 方</w>
继承 者</w>
继 而</w>
绥 靖</w>
统计 局</w>
统计 分析</w>
绝 大部分</w>
绘 制</w>
绑架 人质</w>
经济 区</w>
经常 出现</w>
经 社</w>
经 查明</w>
经 本</w>
组织 部长</w>
组 所</w>
组 和</w>
组 为</w>
组 与</w>
线 路</w>
纽 埃</w>
纵 使</w>
纳 格</w>
纪念 堂</w>
纪 律
纪律 处分</w>
约 型</w>
约 国</w>
红 树
红树 林</w>
繁 重</w>
紧急 警报</w>
紧张 症</w>
紧 缩</w>
索 非亚</w>
索 系统</w>
系统 管理</w>
系统 分析</w>
系 争</w>
精神 病</w>
精 心
精心 设计</w>
类 人</w>
管理 所</w>
管理 制</w>
管 教</w>
算 起</w>
算 出</w>
签 约国</w>
筹 足</w>
筹 募</w>
筛 选</w>
等 易</w>
第四 季度</w>
第十 六</w>
第十 八
第十八 次</w>
第十 九次</w>
第六十 条</w>
第六十 八条</w>
第六十 九</w>
第六 轮</w>
第六 年</w>
第五十 四条</w>
第五十 三条</w>
第五 款</w>
第五 号</w>
第五 个</w>
第二十 四</w>
第二十 五次</w>
第二十 九</w>
第二十 一</w>
第二 段</w>
第二 天</w>
第二 号</w>
第二 任</w>
第九 款</w>
第三十 三</w>
第三 件</w>
第七 轮</w>
第七 句</w>
第七 十</w>
第一百 六十四</w>
第一 批</w>
第一 周</w>
端 科学</w>
竭 尽
竭尽 所能</w>
竞争 能力</w>
竞 选活动</w>
站 不
站不 住
站不住 脚</w>
突 发</w>
突 出
突出 重点</w>
穿 越</w>
空间 规划</w>
空间 数据</w>
空间 信息</w>
空 基</w>
空 地</w>
穷 尽</w>
穷 困</w>
税 费</w>
程序 法</w>
程序 执行</w>
程 图</w>
稀 少</w>
移 风易俗</w>
移 走</w>
移 管</w>
移 徒
移徒 者</w>
移 作</w>
称 道</w>
租 约</w>
租 后</w>
科研 工作</w>
科研 人员</w>
科学 论坛</w>
科学 基金</w>
科 罗尔</w>
科 斯</w>
科 区</w>
秋 季</w>
秉 公</w>
私有 财产</w>
离 主义</w>
禁 运</w>
禁 奴</w>
祝 大会</w>
社会 各界</w>
社会 变革</w>
社交 能力</w>
礼 品
礼品 店</w>
示 范性</w>
示 性</w>
确保 重点</w>
确 理解</w>
硬 拷
硬拷 贝</w>
硕 士</w>
研究 组</w>
研究 员</w>
矿 业</w>
短 时间</w>
矫 治</w>
知识 库</w>
着重 强调</w>
着 力</w>
看 来</w>
省 长</w>
相互 交织</w>
相 邻</w>
相 继</w>
相 待</w>
相 宜</w>
相 吻合</w>
相 关联</w>
直接 参与</w>
盲 目</w>
盲 率</w>
目 睹</w>
盛 行</w>
监 控</w>
监 押</w>
皇 家</w>
皆 准</w>
的 确</w>
的 放
的放 矢</w>
的 列
百 万计</w>
白 俄罗斯
白俄罗斯 共和国</w>
登记 号</w>
登 陆</w>
登 录</w>
癌 症</w>
症 状</w>
病 防治</w>
病 史</w>
疑 问</w>
疏 忽</w>
略 有</w>
留 出</w>
男女 双方</w>
电视 新闻</w>
电子 版</w>
电子 数据交换</w>
电子 信息</w>
电信 技术</w>
电 系统</w>
电 离</w>
甲 基</w>
用 处</w>
生物 性</w>
生态 灾难</w>
生态 学</w>
生命 安全</w>
生命 力</w>
生 素</w>
生 物质</w>
生 灵
生灵 涂
生灵涂 炭</w>
生 存
生存 能力</w>
甚 或</w>
甚 少</w>
瓦 里</w>
瓦 解</w>
琶 湖</w>
琵 琶湖</w>
理 赔</w>
班 费</w>
珍 稀</w>
珀 西</w>
现 行
现 时</w>
现 政府</w>
现 成</w>
环境 效益</w>
环 卫</w>
玛 雅</w>
率 时</w>
率 应</w>
率 会</w>
猛 然</w>
猛 烈</w>
独 联体</w>
犯罪 构成</w>
犯罪 学</w>
特殊 教育</w>
特 阿马利亚</w>
特 等</w>
特 此</w>
特 定
特定 条件</w>
特 写</w>
牲 节</w>
物 馆</w>
物 证</w>
牧 区</w>
烦 琐</w>
烟 草</w>
点 击</w>
炸 药</w>
灵活 处理</w>
灵 顿</w>
灵 感</w>
火 灾</w>
灌 溉</w>
濒 危</w>
潜 逃</w>
漂 白</w>
满 怀</w>
滑 坡</w>
滑 向</w>
溯 源</w>
湿 地</w>
湖 地区</w>
游 戏</w>
温 得
温得 和
温得和 克</w>
渗 入</w>
渔 网</w>
渔 户</w>
混 入</w>
深 造</w>
深 蒂固</w>
深 层</w>
深 受
深受 其害</w>
淫 业</w>
淀 川</w>
涉 毒</w>
消 化</w>
海 路</w>
海 草</w>
海 港</w>
海 岛</w>
海 山</w>
浮 动</w>
浑 然</w>
流行 性</w>
流 程图</w>
流 程</w>
流 失</w>
流 入
流入 量</w>
活动 区</w>
活 体</w>
洲 际</w>
洪 灾</w>
洪 涝</w>
洛 特阿马利亚</w>
洛 坎</w>
洋 洲</w>
注意 安全</w>
注 以</w>
波 尔多</w>
波 尔
波尔 图</w>
波 多
波多 黎各</w>
波 利
波利 尼西亚</w>
泛 美</w>
泛 神</w>
法 朗</w>
法 属
法属 波利尼西亚</w>
法 学
法学 家</w>
法 兰
法兰 克
法兰克 福</w>
沾 染</w>
沼 泽</w>
治 所</w>
沙 姆</w>
汶 东</w>
污染 者</w>
污染 源</w>
汉 城</w>
汇 聚</w>
汇 回</w>
求 是</w>
水文 局</w>
水 运</w>
水 生物</w>
水 生</w>
水 污染</w>
水 日</w>
水 合物</w>
水 事</w>
水 中</w>
气象 预报</w>
民间 文学</w>
民族 自决权</w>
民事 责任</w>
民 夫</w>
毫无 区别</w>
毫不 含
毫不含 糊</w>
毫不 动摇</w>
每 十年</w>
每 份</w>
每 人</w>
每 一国</w>
段 载述</w>
段 载列</w>
段 尾</w>
殴 击</w>
残 骸</w>
死 难者</w>
死 因</w>
死 囚</w>
武器 库</w>
步 阶段</w>
步 调一致</w>
此 病</w>
正当 防卫</w>
正当 性</w>
正 确理解</w>
正 时</w>
歌 颂</w>
款 均</w>
款 国</w>
款 为</w>
款 中</w>
欺 骗性</w>
欺 负</w>
欧 会议</w>
欣 悉</w>
欠 发达</w>
橄 榄
橄榄 树</w>
横 行</w>
横 扫</w>
概 数</w>
概 为</w>
楷 模</w>
楠 迪</w>
棘 手</w>
检查 员</w>
检察 人员</w>
检 索系统</w>
检 疫</w>
桥 本</w>
案文 为</w>
案 向</w>
格 乌乌</w>
根 深蒂固</w>
核 装置</w>
核 对</w>
核 对
核对 表</w>
核 区</w>
校 车</w>
校 区</w>
校 内</w>
标 签</w>
柬埔寨 王国</w>
查 至</w>
查 考</w>
查 清</w>
查 实</w>
查 勘</w>
某 类</w>
某 国</w>
析 方法</w>
构 建</w>
极 地</w>
来 同</w>
来 临</w>
条 未</w>
条 对</w>
条 及</w>
条 为</w>
杠 杆
杠杆 作用</w>
杜 阿
权 衡得失</w>
杂 志</w>
杀 虫</w>
本 金</w>
本 部</w>
本 诉</w>
本 表</w>
本 是</w>
本 处理</w>
本 地
本地 人</w>
末 期</w>
未 遂政变</w>
未 确定</w>
未 向</w>
未 作此</w>
期 满</w>
期 所提</w>
期 已</w>
期 在</w>
期 前</w>
朗 读</w>
服务 项目</w>
服务 行业</w>
服务 水平</w>
服务 局</w>
服务 供应商</w>
服 兵
服兵 役</w>
服 从</w>
有所 闻</w>
有 鉴于</w>
有 负众望</w>
有 碍</w>
有 的放矢</w>
有 意义</w>
有 形资产</w>
有 名
有名 无
有名无 实</w>
有 受</w>
月 经</w>
月 数</w>
月 异</w>
月 份</w>
最多 为</w>
最 高级</w>
最 高法院</w>
最 短</w>
最 强</w>
最 下</w>
替 换</w>
更 趋</w>
更 深</w>
更 有意义</w>
更 替</w>
更 强</w>
更 为
更为 严重</w>
暴力 手段</w>
暴 露</w>
暂 缓执行</w>
暂 时性</w>
暂 居</w>
暂 定</w>
智 慧</w>
景 气</w>
普通 教育</w>
普 罗</w>
普 世</w>
晚 些时候</w>
晚 于</w>
是 非曲直</w>
星期 日</w>
易 用</w>
易 发</w>
昂 贵</w>
时 须</w>
时 该</w>
时 段</w>
时 有所闻</w>
时 其</w>
时 使</w>
旱 情</w>
早 释</w>
旧 居</w>
日趋 完善</w>
日程 安排</w>
日 派</w>
日 时</w>
日 新
日新 月异</w>
日 四</w>
日 分</w>
日 值</w>
既 应</w>
既 广
既广 且</w>
无 间</w>
无 节制</w>
无 毒品</w>
无 核区</w>
无 损于</w>
无 形资产</w>
无 常</w>
无 差别</w>
无 偏</w>
无 不</w>
族 社</w>
族 人</w>
旅 客</w>
旁 人</w>
施 加
施加 压力</w>
方 省</w>
方 和
方和 有</w>
方 共同市场</w>
方 便
方便 使用</w>
新闻 宣传</w>
新 疗法</w>
新 生</w>
新 段</w>
新 机遇</w>
新 兴
新兴 国家</w>
新 世纪</w>
斯 班</w>
断 然</w>
斑 珠尔</w>
文献 资料</w>
文化 界</w>
文化 产业</w>
文 载</w>
文 种</w>
文 盲率</w>
文 理</w>
文 本处理</w>
文 为</w>
文 中</w>
整 笔</w>
整 体
整体 性</w>
数据 资料</w>
数千 枚</w>
数以 万计</w>
数 百名</w>
数 国</w>
数 十年</w>
数 化</w>
数 为</w>
数 中</w>
散 布</w>
散 会</w>
教育 部门</w>
教科 书</w>
教 士</w>
教 员</w>
教 会</w>
敏感 度</w>
敏 哥
敏哥 奈</w>
政治 指导</w>
政治 形势</w>
政府 部门</w>
政 见</w>
政 界人士</w>
政 是</w>
政 为</w>
放 逐</w>
放 慢</w>
改革 派</w>
改 由</w>
改 写</w>
收 放</w>
收 据</w>
收 入
收入 水平</w>
支持 性</w>
支 撑</w>
操作 程序</w>
播 音员</w>
播 送</w>
播 出</w>
撒 马尔罕</w>
摧 残</w>
摘 录</w>
搬 家</w>
搜 集</w>
援助 者</w>
援 救</w>
揭 幕</w>
提供 支援</w>
提 送</w>
提 要</w>
提 翁</w>
提 示性</w>
提 取</w>
掳 走</w>
措 词</w>
掩 盖</w>
控制 目标</w>
控 告
控告 人</w>
接 轨</w>
接 济</w>
接 待
接待 国</w>
接 任</w>
排 水
授 权代表</w>
掀 开</w>
换 文</w>
换 成</w>
换 性</w>
损 伤</w>
捐 出</w>
挽 救</w>
挫 败</w>
按 较</w>
按 计划</w>
按 职</w>
按 此</w>
指 认</w>
指 数化</w>
持 有者</w>
拿 骚</w>
拿 出</w>
拯 救</w>
拘 束</w>
拘 捕</w>
拖 长</w>
拖 网</w>
拖 拉</w>
拖 不
拖不 决</w>
拒绝 给予</w>
拒 缴</w>
拒 于</w>
拉 诺</w>
担 子</w>
抽 查</w>
抵 达</w>
抵 挡</w>
报告 期</w>
报 送</w>
护 士</w>
抢 救</w>
抚 育</w>
折 抵</w>
折 扣
折扣 率</w>
折 合</w>
抗 逆</w>
抗 反</w>
抗 击</w>
投票 选举</w>
投票 者</w>
投 掷</w>
抓 住</w>
抓 住
抓住 机遇</w>
技术 标准</w>
技术 改造</w>
承担 费用</w>
承 负</w>
承 印</w>
承 保</w>
扼 要</w>
扩 张</w>
扩 增</w>
执法 不公</w>
执 照</w>
托 尼</w>
托 付给</w>
打 造</w>
扎 实</w>
扎 勒</w>
才 华</w>
所在 位置</w>
所 选之列</w>
所 剩</w>
所 列述</w>
所 余</w>
所 付</w>
房 间</w>
房 产</w>
战略 方针</w>
战 士</w>
战 后</w>
战 前</w>
或 排</w>
或 同</w>
或 仅</w>
或 人
或人 盾</w>
成 本
成 学
成学 业</w>
成 功
成功 经验</w>
慎 重</w>
慈 悲</w>
意 在</w>
意 味</w>
愈 加</w>
惠 灵顿</w>
惠 泽</w>
惟 有</w>
惊 恐</w>
情 节恶劣</w>
情 理</w>
患 病率</w>
恶 癖</w>
恶 意</w>
恩 德
恩德 培</w>
恐怖 行动</w>
总的 来说</w>
总体 经济</w>
总 量</w>
总 趋势</w>
总 产
总产 值</w>
性别 差异</w>
性 能</w>
性 关系</w>
性 价
性价 比</w>
思想 家</w>
思想 体系</w>
思 考</w>
快 恢复</w>
快 乐</w>
必 需品</w>
必 能</w>
心 目</w>
心 协力</w>
德 高尚</w>
德 马
德 尔
德尔 博</w>
微 不足
微不足 道</w>
循 证</w>
得 堡</w>
得 于</w>
很 感兴趣</w>
征 用</w>
征 服</w>
往 访</w>
往 日</w>
往 届</w>
彼 得堡</w>
彼 得</w>
录 音</w>
录 音
当前 工作</w>
当 权</w>
当 期</w>
当 众</w>
归 档</w>
归 化</w>
弗 莱明</w>
引 致</w>
引 入</w>
异 族</w>
异 地</w>
开发 资源</w>
开发 利用</w>
开会 讨论</w>
开会 时间</w>
开 通</w>
开 诚布公</w>
开 庭
开庭 审理</w>
开 工
开工 日期</w>
开 国
开国 元
开国元 勋</w>
开 业</w>
建 人</w>
廷 布</w>
廉 价</w>
应 除</w>
应 载列</w>
应 比</w>
应 收</w>
应 循</w>
应 多加</w>
应 可</w>
应 不受</w>
应 不
应不 迟</w>
库 萨</w>
库 斯科</w>
库 克
库克 群岛</w>
庆 祝大会</w>
庄 稼</w>
广 度</w>
广 义</w>
并 联</w>
并 称</w>
并 用</w>
并 忆</w>
并 强</w>
并 准</w>
年 青</w>
年 长者</w>
年 虫</w>
年 犯</w>
年 东</w>
平等 互利</w>
平均 水平</w>
平 壤</w>
干 地</w>
帮 办</w>
带 见</w>
帝 汶
帕 尔
帕尔 马</w>
帐 内</w>
帐 下</w>
布里 斯班</w>
布干 维尔</w>
布 莱尔</w>
市场 运作</w>
市场 经济</w>
市 长</w>
市 内</w>
市 值</w>
巴拿 马城</w>
巴 里</w>
巴 德</w>
巴 塞尔</w>
巴 利亚</w>
巴 伦
巴伦 西亚</w>
已 达</w>
已 批</w>
已 到</w>
已 作</w>
差 额</w>
工程 项目</w>
工程 队</w>
工商 会</w>
工作 日程</w>
工 序</w>
崩 溃</w>
山 林</w>
履 历</w>
展 期</w>
展 品</w>
居住 权</w>
局 限</w>
尽 职守</w>
尽 快恢复</w>
尼 克</w>
尸 骨</w>
就 学</w>
就 任</w>
尤 然</w>
尝 试</w>
尖 端科学</w>
少 年犯</w>
少 年期</w>
少 人</w>
小组 活动</w>
小 鲸目</w>
小 时</w>
小 口
小口 径</w>
小 于</w>
将 视</w>
将 来临</w>
将 作</w>
封 不
封不 动</w>
寿 期</w>
寻 本</w>
寻 得</w>
对 称</w>
对 照</w>
对 易</w>
对 手</w>
密 集</w>
宽 恕</w>
容 纳</w>
家 长</w>
家 户</w>
家 居</w>
宰 牲节</w>
宣传 者</w>
客 运</w>
审 结</w>
实际 效果</w>
实际 操作</w>
实用 性</w>
实 践中</w>
实 力</w>
实 事
实事 求是</w>
实 为</w>
定 界</w>
定 本</w>
定 价</w>
官 式</w>
宏 大</w>
完全 相同</w>
完 成学业</w>
安全 设备</w>
安 的列
安 曼</w>
安 岛</w>
安 危</w>
学术 论文</w>
学 龄前</w>
学 士</w>
季 节性</w>
孟 邦</w>
孟 加拉</w>
孕 产</w>
嫌疑 犯</w>
嫌 犯</w>
婚 内</w>
威 吓</w>
始终 如
始终如 一</w>
始终 保持</w>
始 可</w>
妥善 处置</w>
妥善 处理</w>
如 该</w>
如 前
如前 所述</w>
如 以</w>
好 转</w>
好 几千</w>
女 士</w>
奥林匹克 运动</w>
奥 塞
奥塞 莎</w>
契 约型</w>
奇 金</w>
奇 科区</w>
头 盔</w>
天 然</w>
大幅 提高</w>
大大 降低</w>
大力 开展</w>
大不 相同</w>
大 面积</w>
大 阪</w>
大 量
大 赦</w>
大 片</w>
大 湖地区</w>
大 洋洲</w>
大 方向</w>
大 宗</w>
大 同</w>
夜 间</w>
夜 勤</w>
多 异</w>
多 变性</w>
多 及</w>
外汇 交易</w>
外交 界</w>
外交 特权</w>
外 面</w>
外 资</w>
外 贸</w>
外 请</w>
外 生</w>
外 汇</w>
外 是</w>
外 为</w>
夏 洛特阿马利亚</w>
复 查</w>
复 无常</w>
复 发</w>
备 基金</w>
备 受</w>
处 有</w>
处 方</w>
增加 值</w>
增 选</w>
增 添</w>
塔 瓦</w>
塔 洛坎</w>
基础 架构</w>
基层 组织</w>
基 辅</w>
埃维 安</w>
地 请</w>
地 被</w>
地 用</w>
地 有</w>
地 受</w>
地 不损</w>
在 野</w>
在 实践中</w>
在 下文</w>
圣 彼得堡</w>
土地 法</w>
图 谋</w>
图 片</w>
图 案</w>
国际 航运</w>
国际 协会</w>
国家 统计局</w>
国 香港</w>
国 语文</w>
国 徽</w>
国 年</w>
国 可</w>
国 加</w>
国 依</w>
国 以</w>
国 之</w>
国 不应</w>
困 扰</w>
团结 合作</w>
团 要</w>
团 员</w>
团 体
团体 之间</w>
因 能</w>
因 受</w>
因 于</w>
回 忆</w>
回 家</w>
回 去</w>
回 升</w>
四十 多年</w>
四十 四</w>
四十 六年</w>
四十 八条</w>
四十 八个</w>
四十 五年</w>
四十 七个</w>
四十 七</w>
四 海</w>
四 十年</w>
四 位</w>
四 中</w>
四 三</w>
囚 禁</w>
善 后
善后 工作</w>
喂 养</w>
喀尔巴阡 山</w>
商业 银行</w>
商 务
商 人</w>
唯 独</w>
唆 使</w>
哲 学</w>
哪 类</w>
哪 位</w>
哥 哥</w>
哈 特</w>
品 德高尚</w>
咨询 团</w>
和 经</w>
和 族社</w>
和 免</w>
周 末</w>
周 所作</w>
员 工</w>
呈 上升</w>
听 力</w>
含 量</w>
向 训</w>
向 经</w>
向 本</w>
后 尚</w>
后 同</w>
后 及</w>
后 加</w>
名 词</w>
名 药</w>
同 龄人</w>
同 龄</w>
同 谋</w>
同 训</w>
同 级</w>
同 等
同 盟</w>
同 未</w>
同 心协力</w>
同 受</w>
同 化</w>
同 其前</w>
同 享</w>
同 一天</w>
吊 销其</w>
吉尔吉斯 共和国</w>
合作 开发</w>
合 议庭</w>
合 营企业</w>
合 约</w>
各种 类型</w>
各 邦</w>
各 该</w>
各 章</w>
各 托存</w>
各 总部</w>
各 处</w>
各 代人</w>
司 是</w>
司 将</w>
司 及</w>
可兑 换性</w>
可 辩</w>
可 视</w>
可 见度</w>
可 属</w>
可 喜</w>
可 卡
可卡 因</w>
可 偿还</w>
召 集人</w>
另 一名</w>
句 子</w>
句 号</w>
口 服</w>
口 味</w>
口 号</w>
叛 国</w>
叙 级</w>
受到 谴责</w>
取 阅</w>
发起 国</w>
发生 变化</w>
发展 潜力</w>
发 送信息</w>
发 端</w>
发 明</w>
发 射器</w>
发 完</w>
发 回</w>
反 抗</w>
反 复无常</w>
反 复</w>
双 重
双 轨制</w>
及 贸易总协定</w>
及 视</w>
及 法外</w>
及 此</w>
及 受</w>
及 人道</w>
参 选</w>
参 考
原 订</w>
原 意</w>
原 封不动</w>
原 住</w>
原 产
原产 地</w>
历 项</w>
历 经</w>
历 日</w>
历 任</w>
即 除</w>
即 行</w>
即 将来临</w>
即 前</w>
即 供</w>
危险 废物</w>
印度 政府</w>
印 成</w>
卫生 部</w>
卫生 工作者</w>
卡 米</w>
卡 比拉</w>
卡 努</w>
占 用</w>
占 受</w>
博 物馆</w>
博 客</w>
南斯拉夫 政府</w>
南 方共同市场</w>
南 奥塞莎</w>
南 丹</w>
单 点</w>
单 据</w>
单 壳</w>
卓 越</w>
卓 识</w>
协同 效应</w>
协同 工作</w>
协作 性</w>
半 数票</w>
半 干旱</w>
半 天</w>
升 高</w>
千 年虫</w>
千 丝
千丝 万
千丝万 缕</w>
十二 项</w>
十二 块</w>
十 多</w>
十 四条</w>
十 四名</w>
十 周</w>
十 亿美元</w>
十 亿</w>
十 五天</w>
十 三名</w>
十 七个</w>
匿 名</w>
医 治</w>
医 护</w>
医 师</w>
医 卫</w>
医 务</w>
区域 气候</w>
区 及</w>
区 别
区别 对待</w>
北 海</w>
化学 物质</w>
勾 画</w>
勾 勒</w>
劳工 市场</w>
劳动 者</w>
劳 资关系</w>
劫 难</w>
助 其</w>
动荡 不安</w>
务 请</w>
务 虚会</w>
务 使</w>
加拉 加
加拉加 斯</w>
加强 监督</w>
加工 点</w>
加以 分析</w>
加以 克服</w>
加 通巴</w>
加 班费</w>
加 区分</w>
割 礼</w>
副 庭长</w>
剩余 时间</w>
剥 削
剥削 者</w>
前 项</w>
前 者</w>
前 夕</w>
前 后</w>
前 加</w>
制 剂</w>
制 下</w>
到 访</w>
到 期</w>
到 托存</w>
到 处</w>
到 养</w>
到 任</w>
别 处</w>
别 人</w>
利益 集团</w>
删 减</w>
初 步阶段</w>
创 建人</w>
创 伤
创伤 性</w>
列 本</w>
列 有</w>
列 席</w>
列 于</w>
划 分</w>
划 为</w>
刑事 管辖</w>
刑 讯逼供</w>
刑 法典</w>
刑 求</w>
刊 载</w>
刊 登</w>
切实 加强</w>
切实 做好</w>
切 尔</w>
分 钟</w>
分 部</w>
分 送</w>
分 立</w>
分 离主义</w>
分 析方法</w>
分 娩</w>
分 卷</w>
分 区</w>
分 册</w>
函 中</w>
出 该</w>
出 具</w>
出 其</w>
凶 犯</w>
几 类</w>
几 款</w>
几 份</w>
几 代人</w>
准 证</w>
决策 程序</w>
决策 权</w>
决策 人员</w>
决 窍</w>
农业 投入</w>
农 耕</w>
农 工</w>
农 基</w>
军 用</w>
军 民</w>
军 方</w>
写 明</w>
写 信
写信 给</w>
再 起</w>
再 续</w>
内 未</w>
内 新</w>
内 使</w>
内 于</w>
兽 医</w>
典 礼</w>
其 续</w>
其 欲免</w>
其 核</w>
其 本</w>
其 所负</w>
其 因</w>
其 准</w>
其 内</w>
其 仅</w>
其 人道</w>
其 于</w>
兵 力</w>
兴 起</w>
兴 建</w>
关键 在于</w>
关税 同盟</w>
关税 及贸易总协定</w>
关 活动</w>
共同 行动</w>
共同 之处</w>
共 谋</w>
共 拨出</w>
共 担</w>
六 栋</w>
六 大</w>
六 国加</w>
六 千
六 十年</w>
六 十六</w>
六 十五</w>
六 十个</w>
六 十三个</w>
六 十一</w>
六 位</w>
公民 道德</w>
公共 建筑</w>
公共 场所</w>
公 关活动</w>
公 众
公众 形象</w>
八 百年</w>
八 所</w>
八 天</w>
全面 完成</w>
全 过程</w>
全 时</w>
全 年</w>
全 寿期</w>
免 租</w>
克 里
克 族</w>
克 尽</w>
克 尔</w>
光 盘</w>
先 驱</w>
先 遣队</w>
先 租后</w>
充 公</w>
储 备金</w>
储 备基金</w>
偿 金</w>
偷 盗</w>
偏 少</w>
假 释</w>
假 定</w>
倾 斜</w>
债权 者</w>
债务 额</w>
借 重</w>
借 款国</w>
候选 国</w>
修订 版</w>
修 补</w>
修 毕</w>
信用 卡</w>
信息 量</w>
信息 内容</w>
信 誉</w>
信 条</w>
信 所作</w>
保险 套</w>
保险 单</w>
保证 金</w>
保留 条款</w>
保护 性</w>
保 理</w>
保 有</w>
俄 语</w>
促进 法</w>
侵 袭</w>
侵 吞</w>
依 赖
依 存
供 餐</w>
供 销</w>
供 资
供 美属</w>
供 给</w>
供 电系统</w>
供 电</w>
供 养</w>
使用 指南</w>
使之 能</w>
使 派</w>
使 因</w>
使 命</w>
佣 金</w>
作出 评价</w>
作 品</w>
何 时</w>
体育 竞赛</w>
体 力</w>
住房 贷款</w>
住 满</w>
住 家</w>
低 下</w>
但 本</w>
但 据报</w>
似 的</w>
似 未</w>
似 以</w>
伸 张</w>
伴 侣</w>
估 量</w>
伤亡 惨重</w>
传 输</w>
传 给</w>
传 真</w>
会 聚</w>
会 外</w>
会 因</w>
会 受</w>
众 不同</w>
休 会</w>
伊朗 人</w>
任何 理由</w>
任 由</w>
任 捕</w>
任 凭</w>
价格 调整</w>
价格 低廉</w>
价 钱</w>
价 调</w>
价 廉</w>
以 水</w>
以 有</w>
以 待</w>
以 同</w>
以 其</w>
代表 制</w>
代 号</w>
代 之以</w>
他 性</w>
从 重</w>
从 今
从今 以后</w>
从 业
从业 人员</w>
仍 旧</w>
仍 感</w>
仍 待</w>
仍 为</w>
介绍 性</w>
今 日</w>
今 天</w>
仅 为</w>
人身 保护</w>
人文 大学</w>
人力 资本</w>
人 须</w>
人 翁</w>
人 系</w>
人 生</w>
人 所知</w>
人 大</w>
人 向</w>
人 养</w>
人 仅</w>
人 事
产 假</w>
亦 可</w>
交互 性</w>
交 叠</w>
亚 欧会议</w>
五十 四年</w>
五十 六年</w>
五十 五年</w>
五十 二年</w>
五十 九</w>
五十 七年</w>
五十 七</w>
五 席</w>
互 连</w>
互 调</w>
互 敬</w>
互 为</w>
于 法</w>
于 众</w>
二十 六个</w>
二十 二个</w>
二十 九</w>
二十 三个</w>
二十 七</w>
二十 七
二十七 分</w>
事务 所</w>
事 发</w>
了 结</w>
买 断</w>
书面 发言</w>
书 后</w>
九 十七</w>
九 分</w>
乘 客</w>
乌干 达共和国</w>
乌兹别 克</w>
乌 戈</w>
之 订</w>
之 患</w>
之 大</w>
之 受</w>
之 功</w>
之 八</w>
之 于法</w>
义 不容
义不容 辞</w>
久 拖不决</w>
乃 系</w>
举 足轻重</w>
举 止</w>
举 例</w>
主 食</w>
主 机</w>
主 人翁</w>
为数 不少</w>
为 易</w>
为 度</w>
为 养</w>
为 人所知</w>
为 一体</w>
临 时性</w>
临 床</w>
中华人民 共和国政府</w>
中介 机构</w>
中 过</w>
中 误</w>
中 枢</w>
中 来</w>
中 是</w>
中 拨出</w>
中 国香港</w>
中 原</w>
中 养</w>
中 其</w>
个 股</w>
严重 困难</w>
严 酷</w>
严 肃</w>
严 正</w>
严 加</w>
两 组</w>
两 地</w>
丢 弃</w>
东南 部</w>
东 方省</w>
且 系</w>
专家 团</w>
专业 技能</w>
专 设</w>
专 属</w>
专 利</w>
与 众不同</w>
不断 更新</w>
不合 规定</w>
不合 标准</w>
不为 人知</w>
不 高</w>
不 许</w>
不 缴</w>
不 稳</w>
不 止</w>
不 景气</w>
不 幸</w>
不 妥</w>
不 好</w>
不 太</w>
不 在此
不 加区分</w>
不 佳</w>
不 以订</w>
不 为</w>
下 面</w>
下 过</w>
下 达</w>
下 设</w>
下 经</w>
下 应</w>
下 决心</w>
上 台</w>
上 任</w>
三十 卷</w>
三十 六个</w>
三 种</w>
三 月</w>
三 星期</w>
三 份</w>
万 象</w>
万 一</w>
七 百
七 天</w>
七 国集团</w>
七 十二个</w>
七 十个</w>
七 位</w>
一致 同意</w>
一百零 八个</w>
一百六 十多</w>
一百六 十个</w>
一百二十 六</w>
一百 四十一个</w>
一百 二十五</w>
一切 都是</w>
一 齐</w>
一 非</w>
一 间</w>
一 期</w>
一 座</w>
一 家</w>
一 大批</w>
一 场</w>
一 同</w>
一 任</w>
y ber
x t</w>
x t
xt er
xter nal</w>
w om
wom en
vo y</w>
vi i</w>
v en
ven tion</w>
un o
uno g</w>
uma n
uman r
umanr i
umanri gh
umanrigh ts</w>
ub s</w>
u s</w>
u ro
uro p
urop a</w>
ti on
tion al</w>
te xt</w>
te r</w>
t h
th ia
thia nc
thianc on
thiancon vention</w>
su m
sum m
summ ar
summar i
summari es</w>
sp on
spon s
spons e</w>
s ons</w>
s ect
sect s.1</w>
rog .1</w>
re v</w>
re sponse</w>
re g
reg is
regis ter</w>
r ic
ric a</w>
r a
program s</w>
pa thianconvention</w>
pa nal</w>
p sec</w>
p de
pde b
pdeb t</w>
p d
pd f</w>
on f
on e</w>
ol B
olB us</w>
o panal</w>
o olBus</w>
o f</w>
o 1</w>
n p</w>
n e
n a
na tional</w>
ma e</w>
is a
i S
iS ee
iSee k</w>
h umanrights</w>
er sons</w>
er national</w>
en g</w>
ect ed</w>
e xternal</w>
e uropa</w>
e u</w>
e a
d r</w>
d d
ch oolBus</w>
c r</w>
c psec</w>
c ar
car pathianconvention</w>
a y</w>
a dd
a cpsec</w>
XX .1</w>
XI V.4</w>
XI .1</w>
X T</w>
WHA5 5.
WHA 60</w>
V. 7</w>
V. 6</w>
UN I
UNI TA
UNITA I
UNITAI D</w>
T R
TR AW</w>
Sect. 27</w>
Sect. 19</w>
Sect .8</w>
Sect .3</w>
Sect .1</w>
SR. 27</w>
SR. 18</w>
SR. 15</w>
SR. 14</w>
SR. 13</w>
SR. 12</w>
SR. 10</w>
SR. 1
SR.1 486</w>
SR .4</w>
SE M
SEM BL
SEMBL Y</w>
S choolBus</w>
S TRAW</w>
S G</w>
S C
S A
SA I
SAI CM</w>
Res. 457</w>
RES. 27</w>
R AM
RAM E</w>
R 780</w>
Q .3</w>
Q .1</w>
PV.46 35</w>
PV. 72</w>
PV. 50
PV.50 66</w>
PV. 48
PV.48 52</w>
PV. 40</w>
PV. 39</w>
PR K</w>
PR C</w>
P ubs</w>
P rog.1</w>
P ersons</w>
P C.
O PRC</w>
N I</w>
MSP .6</w>
MSC. 202</w>
ME PC.
LE G
LEG .3</w>
L. 71</w>
L. 70</w>
L. 69</w>
L. 68</w>
L. 61</w>
L VI</w>
Int ernational</w>
IX .3</w>
IX .2</w>
IS D
ISD R</w>
IS 3.5</w>
IN STRAW</w>
ID B
IDB .
ICC M.1</w>
I. 16</w>
H NS</w>
G RAME</w>
G P</w>
G G
GG E</w>
F 8
E. 07</w>
E. 03</w>
E. 02</w>
E. 00</w>
E XT</w>
E M</w>
E C
E B</w>
Dec. 192</w>
Dec. 170</w>
Dec. 137</w>
Dec. 132</w>
Dec. 127</w>
DH A</w>
DE C.
D. 13</w>
D isa
D ay</w>
D D
Corr ected</w>
CRP .1</w>
CP .4</w>
COP .8</w>
CONF. 4</w>
CONF. 48</w>
CONF. 3</w>
CONF. 2</w>
CONF. 26</w>
C.9 8</w>
C.9 1</w>
C. 82</w>
C. 77</w>
C yber
C U
C G</w>
B .18</w>
Add. 35</w>
Add. 25</w>
Add. 23</w>
Add. 19</w>
Add. 18</w>
AS SEMBLY</w>
AH SG</w>
AC. 259</w>
AC. 254</w>
AC. 172</w>
A.9 74</w>
A.9 63</w>
A. 973</w>
A. 23</w>
A G</w>
A .2</w>
90 1</w>
9 97</w>
9 95</w>
9 92</w>
9 90</w>
9 88</w>
9 77</w>
9 75</w>
9 58</w>
9 49</w>
9 47</w>
9 43</w>
9 42</w>
9 40</w>
9 20</w>
9 .3</w>
8. 54</w>
8. 39</w>
8. 14</w>
8. 12</w>
8 96</w>
8 87</w>
8 85</w>
8 80</w>
8 78</w>
8 61</w>
8 58</w>
8 57</w>
8 55</w>
8 54</w>
8 39</w>
8 33</w>
8 28</w>
8 25</w>
8 20</w>
8 16</w>
8 12</w>
8 0.4</w>
8 .7</w>
8 .4</w>
7 98</w>
7 93</w>
7 92</w>
7 81</w>
7 74</w>
7 72</w>
7 71</w>
7 64</w>
7 49</w>
7 31</w>
7 30</w>
7 28</w>
7 09</w>
7 06</w>
7 .
60 7</w>
6 A</w>
6 93</w>
6 83</w>
6 75</w>
6 74</w>
6 70</w>
6 68</w>
6 63</w>
6 54</w>
6 47</w>
6 39</w>
6 193</w>
6 .6</w>
58 .2</w>
56. 29</w>
56. 28</w>
56 .1</w>
5. 9</w>
5. 39</w>
5. 29</w>
5 I</w>
5 H</w>
5 G</w>
5 F</w>
5 D</w>
5 C</w>
5 B</w>
5 A</w>
5 4.14</w>
49 03</w>
48 .13</w>
4. 9</w>
4. 0</w>
4 2.
4 .8</w>
4 .5</w>
4 .1</w>
39 486</w>
38 349</w>
37 733</w>
37 517</w>
30 865</w>
3. 44</w>
3 822</w>
3 27
327 24</w>
3 2.5</w>
3 1874</w>
3 166</w>
3 1.
3 .7</w>
3 .3</w>
29 E.
29 C.
29 A
29 004</w>
28. 22</w>
28 61</w>
27 C.5</w>
27 A</w>
27 49</w>
27 .5</w>
27 .2</w>
26 09</w>
25 42</w>
25 29</w>
25 .6</w>
25 .5</w>
25 .4</w>
248 4</w>
24. 39</w>
24. 15</w>
24 .8</w>
24 .3</w>
23 29</w>
23 .
22 .3</w>
22 .1</w>
21. 60</w>
21. 32</w>
20 89</w>
20 28</w>
20 16</w>
20 14</w>
2. 82</w>
2. 75</w>
2. 46</w>
2. 442</w>
2. 39</w>
2. 31</w>
2 502</w>
2 2609</w>
2 256</w>
2 2484</w>
2 226</w>
2 178</w>
2 170</w>
2 158</w>
2 149</w>
2 .3</w>
2 .2</w>
19. 18</w>
19. 17</w>
19. 16</w>
19. 15</w>
19. 13</w>
19. 12</w>
19. 11</w>
19. 10</w>
19 52</w>
19 26</w>
19 17</w>
19 11</w>
19 085</w>
19 .8</w>
19 .6</w>
19 .5</w>
19 .4</w>
19 .3</w>
19 .1</w>
18 69</w>
17. 13</w>
17 72</w>
17 46</w>
17 21</w>
17 15</w>
16 75</w>
16 59</w>
16 34</w>
16 25</w>
15 96</w>
15 93</w>
15 749</w>
15 65</w>
15 45</w>
15 43</w>
15 34</w>
15 29</w>
15 09</w>
15 .10</w>
14. 47</w>
14 61</w>
14 19</w>
14 09</w>
13 86</w>
13 76</w>
13 49</w>
13 40</w>
13 38</w>
13 09</w>
13 08</w>
13 01</w>
12. 29</w>
12. 10</w>
12 39</w>
12 .7</w>
12 .3</w>
12 .1</w>
11 A.
11 73</w>
11 60</w>
11 15</w>
11 13</w>
10. 49</w>
10 77</w>
10 46</w>
10 28</w>
10 09</w>
10 062</w>
10 04</w>
10 03</w>
10 .5</w>
10 .4</w>
10 .2</w>
1. 458</w>
1. 274</w>
1. 14</w>
1 483</w>
1 480</w>
1 291</w>
1 199</w>
1 179</w>
1 100</w>
1 .7</w>
1 .1</w>
0. 01</w>
0 98</w>
0 97</w>
0 96</w>
0 91</w>
0 81</w>
0 71</w>
0 64</w>
0 53</w>
0 51</w>
0 47</w>
0 39</w>
0 32</w>
0 27</w>
0 10</w>
0 06</w>
0 05</w>
........ ........
.. ..</w>
. 9</w>
