#version: 0.2
t h
t i
th e</w>
a n
r e
i n
o n
e n
o f</w>
o n</w>
t e
an d</w>
a ti
e r
o r
a l</w>
a r
t o</w>
i t
e s</w>
e c
i n</w>
in g</w>
a l
m en
r o
ati on</w>
s i
ati on
o m
s t
r i
e l
o u
a c
o l
e r</w>
o r</w>
ti on</w>
a n</w>
te d</w>
re s
r a
n i
c on
o p
e d</w>
b l
a t</w>
men t</w>
i c
p ro
e m
i s
ation s</w>
u r
e s
e v
t s</w>
t a
te r
c e</w>
f or</w>
i a</w>
s u
t e</w>
i l
p l
c i
a d
c om
U ni
f f
v i
p or
a s</w>
ti n
Uni ted</w>
u l
a p
i m
te s</w>
on s</w>
i c</w>
ation al</w>
q u
u n
th at</w>
n ational</w>
a s
2 0
p ar
a g
it s</w>
v e</w>
N ations</w>
c l
w it
ev el
o v
20 0
o s
wit h</w>
ol u
en er
S ta
b y</w>
it y</w>
g h
ener al</w>
G eneral</w>
evel op
b er</w>
si on</w>
i z
ou n
an ce</w>
ter national</w>
al l</w>
u d
a m
e p
res olu
th e
u m
e x
y -
Sta tes</w>
C om
al l
tin g</w>
re n
c o
f or
em ber</w>
por t</w>
e d
Com m
re l
C on
a t
u bl
ti es</w>
D ec
a te</w>
g i
t h</w>
d evelop
resolu tion</w>
men t
e n</w>
pl e
a r</w>
ti ons</w>
p ec
n e
I n
ubl ic</w>
t ar
m e
n o
d i
t ri
1 9
g an
th er</w>
or d
S ec
h a
in ternational</w>
er n
u s
i r
v en
i r</w>
e st
a bl
i s</w>
R ep
e ff
a in
gan iz
u g
cl ud
o c
the ir</w>
s em
Rep ublic</w>
A s
c oun
in clud
un d
m in
er ation</w>
re tar
w h
c h
gh ts</w>
bl y</w>
g ra
ar y</w>
ti c
i al</w>
Sec retar
sem bly</w>
u p
on al</w>
men ts</w>
As sembly</w>
ta k
p er
um an</w>
c all
s h
for m
d is
u c
p e
d e
p re
m a
it te
Dec ember</w>
w el
ov ern
te r</w>
i t</w>
en t</w>
includ ing</w>
itte e</w>
t r
re port</w>
re qu
i d
a b
b e
Secretar y-
im ple
develop ment</w>
an t</w>
Secretary- General</w>
o t
an d
s es
Comm ittee</w>
s o</w>
m m
l d</w>
ur e</w>
w or
en c
l a
en d
s ec
f e
19 9
p ri
tri es</w>
i g
ven tion</w>
com m
ment ation</w>
o b
i f
e ment</w>
abl e</w>
ti ve</w>
gra mm
ou r
pro vi
s te
ci al</w>
re gi
or ganiz
con tin
P ro
g es</w>
o ther</w>
m s</w>
contin u
s t</w>
A f
s o
i es</w>
qu ot
l y</w>
quot ;</w>
& quot;</w>
p res
re s</w>
men d
st r
coun tries</w>
ff ic
ri ghts</w>
m o
al so</w>
h uman</w>
l e</w>
b u
e w</w>
op eration</w>
ri c
ac c
e g
t y-
t u
i th
om ic</w>
ses sion</w>
t y</w>
a ff
com mend
imple mentation</w>
fe ren
su b
a ted</w>
b e</w>
o w
en ti
w e
ro m</w>
f rom</w>
d e</w>
organiz ations</w>
In ternational</w>
d ec
ic h</w>
l ar
wh ich</w>
r it
re commend
est s</w>
h i
requ ests</w>
ac e</w>
Con vention</w>
es s</w>
tic ul
ad op
p os
as si
ar e</w>
par ticul
s e
st an</w>
eff or
c h</w>
re d</w>
er s</w>
con c
re g
y ste
rel ev
on -
pro mo
re call
c es</w>
a y</w>
m an
v o
G overn
C h
con si
relev ant</w>
feren ce</w>
regi onal</w>
effor ts</w>
w ith
ou t</w>
S e
ap pro
su p
co operation</w>
u m</w>
c tion</w>
C oun
ar i
is sion</w>
wor k</w>
th is</w>
t ra
Af ric
si ons</w>
s pec
eff ec
s yste
ment al</w>
recall ing</w>
p r
ac ti
I s
por t
form ation</w>
particul ar</w>
t en
b ia</w>
is h
ec on
p on
D evelop
u ni
gramm e</w>
os e</w>
ur ity</w>
Con ference</w>
en s
f in
c ri
f ul
me e
es s
a su
g ni
P ar
G u
im port
an ia</w>
asu res</w>
an g
u s</w>
ati n
M al
continu e</w>
cl e
atin g</w>
me asures</w>
aff ir
st ance</w>
adop ted</w>
wel com
o g
s er
or y</w>
ou ra
b i
b o
ic ation</w>
u cle
s ti
d ing</w>
v er
wel l</w>
v es</w>
ati ve</w>
f ur
vi ties</w>
W or
ar d</w>
si a</w>
d uc
d s</w>
sup port</w>
T h
up on</w>
th ose</w>
Se e</w>
O r
i stan</w>
per s
en ce</w>
gh t</w>
Develop ment</w>
enc oura
all y</w>
tri bu
fur ther</w>
acti vities</w>
ou s</w>
assi stance</w>
ap os
& apos
re affir
bl e</w>
an n
Or ganiz
lar ation</w>
th ro
R i
co gni
resolu tions</w>
syste m</w>
in ter
ci l</w>
con tribu
st ain
Coun cil</w>
re cogni
e l</w>
d u
p ol
ain st</w>
ag ainst</w>
A d
in c
sti tu
O ffic
f ac
Comm ission</w>
g overn
&apos ;
econ omic</w>
i ties</w>
su ch</w>
re c
ic a</w>
call s</w>
pro c
r ati
recogni z
in formation</w>
consi d
al s</w>
Organiz ation</w>
a k
s es</w>
Dec laration</w>
5 5</w>
appro pri
ha ve</w>
il ity</w>
A ra
f i
re at
ou ld</w>
ren g
in g
ne ed</w>
develop ing</w>
om en</w>
on e</w>
res pec
und er</w>
N o
el d</w>
our ces</w>
ug h</w>
an c
M ember</w>
il l
ens ure</w>
g o
A g
tr an
No .</w>
I I</w>
thro ugh</w>
in to</w>
al ia</w>
st reng
import ance</w>
ur al</w>
em oc
op le</w>
in ation</w>
acc ord
ol l
Ri ghts</w>
est abl
appropri ate</w>
e qu
th er
ari an</w>
in te
la w</w>
Wor ld</w>
mee ting</w>
t l
al iz
n ucle
1 0</w>
Th e</w>
und er
k ing</w>
no te</w>
n on-
res s</w>
t ure</w>
i b
v ic
p a
be t
um an
A r
accord ance</w>
M on
encoura ges</w>
l and
ar ma
em b
ci p
H uman</w>
tak ing</w>
ra p
pro te
j ec
te m
P e
sh all</w>
5 7</w>
es ti
e ments</w>
effec tive</w>
b a
us e</w>
re a</w>
B el
el y</w>
Afric a</w>
en t
A l
w a
res ources</w>
m it</w>
arma ment</w>
200 0</w>
ad e</w>
vi ew</w>
in a</w>
govern mental</w>
f l
A n
en tr
d ra
m e</w>
if ty-
Pro gramme</w>
N ew</w>
te ch
reg ard</w>
tic al</w>
uman it
umanit arian</w>
&apos; s</w>
tak e</w>
ti cl
ov er
or r
T er
r on
welcom es</w>
sec urity</w>
i v
conc ern
C o
eg al</w>
un ity</w>
l and</w>
P al
e t</w>
stain able</w>
pro gramm
200 2</w>
ver s
in e</w>
5 6</w>
we en</w>
emoc rati
bet ween</w>
200 3</w>
ta in
f re
cri min
n ec
ag rap
par agrap
land s</w>
no t</w>
ch il
200 1</w>
2 0</w>
an ne
R es
u p</w>
f u
ap ons</w>
hi ev
ac hiev
Sta te</w>
p ur
1 2</w>
enc y</w>
emocrati c</w>
anne x</w>
programm es</w>
res pon
ag re
par ti
in es</w>
an cial</w>
ur ges</w>
Ara b</w>
w omen</w>
pe ace</w>
reat y</w>
ou t
5 8</w>
m ar
so ci
er ia</w>
with in</w>
Ter rit
g ro
1 5</w>
200 5</w>
si x
establ ish
on g</w>
6 0</w>
R e
i te
l ob
. 1</w>
in ci
dec id
h umanitarian</w>
il it
ti onal</w>
re as
t o
is m</w>
k e
ticl e</w>
fin ancial</w>
dra f
2 3</w>
A u
tran s
In d
f und
no ting</w>
si s</w>
ec h
S up
par ties</w>
ar ds</w>
p o
ex pres
an a</w>
o d</w>
G re
S pec
with out</w>
draf t</w>
nec ess
en h
parti cip
c ap
M ar
si ble</w>
N or
in e
Spec ial</w>
h e
S ou
sh ould</w>
I rel
promo te</w>
em p
F in
Irel and</w>
ful l</w>
nucle ar</w>
a v
respec t</w>
so cial</w>
5 9</w>
en ary</w>
par a</w>
s ing</w>
op er
inci pl
st res
g u
ple ment</w>
D emocratic</w>
1 4</w>
2 2</w>
spec ial</w>
in vi
an s</w>
provi de</w>
ord er</w>
decid es</w>
sh i
en ni
l es</w>
l e
E con
Econ omic</w>
no tes</w>
as t</w>
n er
vi ol
a u
re n</w>
S er
on ia</w>
Gu ine
pl enary</w>
oc c
d ren</w>
par t
inc reas
si ve</w>
ro le</w>
ann ex
ac coun
paragrap h</w>
re f
T reaty</w>
dec i
rel ated</w>
Govern ments</w>
1 1</w>
Govern ment</w>
vo te</w>
am ong</w>
necess ary</w>
Sup plement</w>
i ti
S o
D is
L e
m ade</w>
v ing</w>
i j
il e</w>
an y</w>
A ction</w>
w as</w>
S l
in stitu
es t</w>
Sl ov
m er
prote ction</w>
S al
f oll
v ol
pers ons</w>
pol ic
g en
ar ticle</w>
200 4</w>
g end
comm it
enni um</w>
or s</w>
is su
invi tes</w>
ad or</w>
m ing</w>
ag ement</w>
olu tion</w>
emp ha
Afric an</w>
ag u
h eld</w>
1 3</w>
pres ent</w>
recogniz ing</w>
g ress</w>
es sion</w>
So cial</w>
si z
ac tion</w>
N ov
it u
vi ron
t ural</w>
1 7</w>
c ha
Nov ember</w>
c ul
6 1</w>
the re
foll ow
co ord
m and
k s</w>
ord s</w>
g lob
comm unity</w>
il i
pr incipl
ci es</w>
r an
ri ght</w>
r u
dis armament</w>
Is ra
un d</w>
te x
re por
R ec
e ar
tl ed</w>
1 6</w>
er e</w>
s a
ur ing</w>
i tical</w>
ed uc
C am
enti tled</w>
b ud
st ri
Ad d
Sou th</w>
us t</w>
tak en</w>
st ra
C entr
cha p</w>
Offic e</w>
g n
ter s</w>
a m</w>
v is
recommend ation</w>
c al</w>
f ifty-
o m</w>
L a
ad a</w>
tex t</w>
empha siz
P er
annex .</w>
1 8</w>
con tain
F ed
reaffir ms</w>
cap ac
Sec urity</w>
pro gramme</w>
ol og
bo di
tak es</w>
chil dren</w>
f ir
ug e
Af gh
t w
A mer
Offic ial</w>
l ev
tar y</w>
g ol
g e</w>
fu l</w>
Guine a</w>
reaffir ming</w>
T o</w>
Rec ords</w>
en cies</w>
ar ter</w>
recommend ations</w>
or ies</w>
the n</w>
recommend ed</w>
ac e
pro gress</w>
g y
r ac
en e
ap pl
ra tes</w>
en ing</w>
streng then</w>
Ch arter</w>
enti f
accoun t</w>
S ession</w>
proc ess</w>
y a</w>
ac h</w>
ad d
su stainable</w>
pe ople</w>
ig h</w>
str uc
ag encies</w>
fl ic
anc ing</w>
bodi es</w>
5 4</w>
e sia</w>
Res olution</w>
man y</w>
end a</w>
m ain
a d</w>
consid er</w>
bu il
g o</w>
provi sions</w>
Mal a
in ter</w>
om e</w>
institu tions</w>
1 9</w>
ba sis</w>
shi p</w>
conc er
st and
we apons</w>
im pro
z er
pre ci
concern ed</w>
B ur
rel i
Con go</w>
ter al</w>
il ities</w>
K o
lev el</w>
ati ves</w>
O c
crimin ation</w>
ap preci
vo l</w>
b ility</w>
u b
g e
il and</w>
C ri
promo tion</w>
Ko rea</w>
ar r
ain t</w>
m ul
t ro
ser vic
1 0
te ri
man agement</w>
h as</w>
l evel
level s</w>
ic al</w>
S aint</w>
s el
2 1</w>
ou r</w>
con flic
N ig
I I
on d</w>
aliz ation</w>
emb ers</w>
ug os
ugos la
ad min
Y ugosla
am a
concer n</w>
il l</w>
2 5</w>
l if
J ama
s itu
199 9</w>
ol om
ab ility</w>
f -
stres ses</w>
streng th
ep tem
S eptem
per i
r ug
ac t</w>
Pe ople</w>
is si
s e</w>
Septem ber</w>
P ol
st a
com e</w>
in ing</w>
appreci ation</w>
S a
l i
L ib
op les</w>
f ra
th ir
al ity</w>
pl o
v ely</w>
contain ed</w>
o s</w>
T ur
non- governmental</w>
ar ing</w>
tech n
N e
F und</w>
or ity</w>
ne ed
in iti
s pon
principl es</w>
pur pos
bi d</w>
esti ni
Pal estini
pol itical</w>
fir st</w>
ob jec
a in</w>
S i
over ty</w>
p h
w ill</w>
fre ed
d ep
ma k
Palestini an</w>
6 2</w>
ul y</w>
w ay</w>
v ia</w>
y ing</w>
ol d
us ti
P re
P l
stra te
re view</w>
i str
on g
Afgh an
spon so
sponso red</w>
p ubl
or e</w>
Is lands</w>
C orr
Afghan istan</w>
b as
om in
ni cal</w>
g r
200 6</w>
su l
pos sible</w>
en th</w>
S um
iz e</w>
con text</w>
J un
B a
B ar
imple ment</w>
gi es</w>
V i
ite m</w>
bl ig
the m</w>
o blig
mak e</w>
viron ment</w>
soci e
pre ven
buil ding</w>
Sum mit</w>
mul ti
Par ties</w>
Jun e</w>
is h</w>
particip ation</w>
p overty</w>
pe ace
Isra el</w>
welcom ing</w>
str u
wor ld</w>
duc tion</w>
2 4</w>
Ba h
D omin
c u
F or
includ e</w>
p ublic</w>
I bid</w>
o ffic
regi on</w>
am bia</w>
J uly</w>
strength ening</w>
19 8
n at
N on-
uge es</w>
ter min
usti ce</w>
im p
ag e</w>
issi on
h is</w>
Amer ica</w>
e -
glob al</w>
ic an</w>
B ol
Bol iv
inte gr
I II</w>
r or
t ow
me work</w>
i gh
Comm ission
or t
ma y</w>
en sive</w>
fi eld</w>
ser v
repor ts</w>
pro pos
ri s
pre h
as ses
t al
oc u
F r
p s</w>
ec ted</w>
ful ly</w>
ar ia</w>
D e
educ ation</w>
H igh</w>
deci sion</w>
ill ennium</w>
de termin
ar m
2 6</w>
p ace</w>
ther n</w>
G ren
vi l</w>
polic ies</w>
in stru
Territ ories</w>
3 0</w>
st an
wh ere</w>
C ro
tow ards</w>
for m</w>
preh ensive</w>
m an</w>
i at</w>
s ev
a re
a ur
os t</w>
u e</w>
e al
re pres
min d</w>
T ra
six ty-
r in
f f</w>
contribu tions</w>
I tal
st s</w>
issu es</w>
Ital y</w>
reg ul
i ed</w>
p t</w>
ed onia</w>
a il
M illennium</w>
c or
I m
on ne
onne l</w>
need s</w>
bo d
ter rit
m ed
sub mit</w>
un g
Territ ory</w>
servic es</w>
tech nical</w>
rel ating</w>
th re
m embers</w>
ort ug
el i
P ortug
B ang
m it
si an</w>
l im
i l</w>
Commission er</w>
G er
promo ting</w>
ke y</w>
g y</w>
el im
Ger many</w>
viol ence</w>
Fr ance</w>
S ud
si gn
ex is
pr ac
c re
de b
con sul
coord ination</w>
in di
conflic t</w>
pre par
inter n
Au stri
Sud an</w>
Austri a</w>
bas ed</w>
ren t</w>
form er</w>
ec e</w>
Gre ece</w>
pro bl
fac ilit
Portug al</w>
5 3</w>
Ag ency</w>
a mental</w>
pa in</w>
S pain</w>
are as</w>
L i
dis as
acc ess</w>
2 9</w>
provi d
f ish
be aring</w>
la teral</w>
pl ac
E x
v ed</w>
consid eration</w>
a im
w s</w>
K ing
Gre at</w>
ech an
establish ment</w>
d om</w>
fund amental</w>
King dom</w>
C an
t or</w>
pe oples</w>
in v
e f</w>
rit ain</w>
Ne ther
Im ple
B ritain</w>
2 8</w>
recogniz es</w>
Nether lands</w>
mar k</w>
d ic
ar -
aliz ed</w>
es h</w>
res ul
m all</w>
import ant</w>
effec ti
publ ication</w>
si tion</w>
form s</w>
cl u
Nor thern</w>
Fin land</w>
S w
Can ada</w>
m at
M ex
ic o</w>
situ ation</w>
pers onnel</w>
gi um</w>
Mex ico</w>
Bel gium</w>
se t</w>
qu es
me ans</w>
asses s
Sw ed
La w</w>
D en
1 8
Swed en</w>
al a</w>
si onal</w>
L u
am e</w>
Den mark</w>
if ic</w>
J ap
requ i
d ol
ter ror
Jap an</w>
Nor way</w>
k no
comm uni
ag enda</w>
our g</w>
l ad
contribu te</w>
vis ory</w>
socie ty</w>
lad esh</w>
C y
Bang ladesh</w>
x emb
xemb ourg</w>
ne w</w>
Lu xembourg</w>
Imple mentation</w>
au th
ir e</w>
N o</w>
W e
kno w
3 1</w>
y ment</w>
k istan</w>
t a</w>
tr y</w>
5 0</w>
si bility</w>
com pl
Centr al</w>
l oc
thir d</w>
lar s</w>
com prehensive</w>
Re port</w>
pr us</w>
Cy prus</w>
ci entif
Coun tries</w>
Gu a
l egal</w>
vol un
f o
con ven
Ch ile</w>
cientif ic</w>
Gua tem
the y</w>
or ities</w>
m echan
Ind on
g et</w>
arr ang
Indon esia</w>
par t</w>
w e</w>
Guatem ala</w>
c el
5 1</w>
4 9</w>
com b
Sal es</w>
dol lars</w>
a tes</w>
M ac
2 7</w>
us sian</w>
199 8</w>
gy pt</w>
R ussian</w>
E gypt</w>
t ors</w>
lif eration</w>
Mal ta</w>
ati a</w>
Cro atia</w>
S en
R om
ti on
mand ate</w>
Pol and</w>
G ro
Fed eration</w>
Rom ania</w>
sa fe
Slov en
E n
dis crimination</w>
Sloven ia</w>
k ra
enh ance</w>
am ic</w>
U kra
I V</w>
E .
gen tin
eal and</w>
Z ealand</w>
Ar gentin
ar ms</w>
D i
B ra
Argentin a</w>
ex p
e ar</w>
In formation</w>
cu ador</w>
H ung
E cuador</w>
r ul
Yugosla v</w>
Sen egal</w>
de red</w>
Mac edonia</w>
tro l</w>
spec i
Ukra ine</w>
Bra z
establish ed</w>
S u
pur su
ec h</w>
exis ting</w>
con s
C ub
200 7</w>
M or
a z
for ce</w>
Is l
P an
E st
st a</w>
R ica</w>
Co sta</w>
coun try</w>
Braz il</w>
z ech</w>
c oll
C zech</w>
ten tion</w>
to co
toco l</w>
occ o</w>
iz ation</w>
gend er</w>
expres ses</w>
emphasiz es</w>
Mor occo</w>
b an
Hung ary</w>
E ast</w>
oblig ations</w>
co oper
con di
Cub a</w>
Gro up</w>
part ment</w>
y sia</w>
ti me</w>
Mala ysia</w>
se qu
De partment</w>
Al g
Isl amic</w>
Alg eria</w>
B ul
g aria</w>
T ha
Bul garia</w>
Tha iland</w>
Ag re
reli gi
Nig eria</w>
E l</w>
5 2</w>
ak ia</w>
Slov akia</w>
tra de</w>
al og
H er
mit ted</w>
u al</w>
Su stainable</w>
sec ond</w>
dep end
ad equ
a ta
Corr .1</w>
techn olog
f ication</w>
ic it</w>
ap por
m ig
u ania</w>
ith uania</w>
L ithuania</w>
S y
ar ly</w>
enti al</w>
Per u</w>
ha ving</w>
m ore</w>
capac ity</w>
M ad
M o
v al
cel and</w>
I celand</w>
du ra
ac ts</w>
st at
p p
l ed
Tur key</w>
str alia</w>
av ail
a it
Au stralia</w>
om s</w>
m i
Pro tocol</w>
1 7
consul t
hi gh
bod ia</w>
Cam bodia</w>
repres ent
m on
Secretar iat</w>
add ress</w>
provid ed</w>
alog ue</w>
T uni
tra ining</w>
ti m
know led
is e</w>
y an
pre vention</w>
M yan
ci vil</w>
E th
199 5</w>
vers al</w>
ri an</w>
Ch ina</w>
Add .1</w>
m ar</w>
Sal v
P h
Myan mar</w>
J ord
Agre ement</w>
Jord an</w>
Salv ador</w>
Sy rian</w>
A pri
s al
Bel ar
nat ural</w>
as c
arrang ements</w>
os ni
g ing</w>
B osni
in t</w>
ati s
speci alized</w>
am a</w>
z eg
zeg ov
zegov ina</w>
olom bia</w>
f ic
Her zegovina</w>
Domin ican</w>
C olombia</w>
Bosni a</w>
Belar us</w>
We apons</w>
Dis armament</w>
t ol
or g
o th
o p</w>
an u
F ifty-
Co operation</w>
en ty-
cul tural</w>
w id
im b
i ally</w>
ac o</w>
Mon aco</w>
requ est</w>
ov a</w>
old ova</w>
Mal i</w>
M oldova</w>
di tional</w>
R ev
it ation</w>
al th</w>
for c
op ia</w>
i opia</w>
Eth iopia</w>
vers ity</w>
og o</w>
t tl
pri v
er ad
am i
inter governmental</w>
en ya</w>
com ple
aim ed</w>
Tuni sia</w>
K enya</w>
tol er
ter ing</w>
ta in</w>
op ul
ti ves</w>
initi atives</w>
g s</w>
at via</w>
L atvia</w>
ffic king</w>
Pan ama</w>
rug u
j o
U rugu
econ om
fra mework</w>
er r
e m</w>
agre ed</w>
Est onia</w>
men ia</w>
eg is
continu ing</w>
P ow
Ar menia</w>
ref ugees</w>
at ory</w>
A ug
u t
purpos es</w>
tin gs</w>
n um
m is
ili pp
ami bia</w>
Ph ilipp
N amibia</w>
Apri l</w>
Philipp ines</w>
commit ment</w>
Urugu ay</w>
D j
ra in</w>
be en</w>
ul tural</w>
J o
k ina</w>
as o</w>
F aso</w>
Bur kina</w>
ten ste
tenste in</w>
out i</w>
ib outi</w>
ech tenstein</w>
Li echtenstein</w>
Dj ibouti</w>
T im
istr ative</w>
enc es</w>
develop ed</w>
go als</w>
C ha
increas e</w>
bud get</w>
C ap
pec ially</w>
es pecially</w>
C O
instru ments</w>
Mon gol
r an</w>
sta ff</w>
Tra de</w>
terror ism</w>
Pl an</w>
adequ ate</w>
condi tions</w>
volun tary</w>
ri ti
az ak
Mongol ia</w>
h stan</w>
azak hstan</w>
ac h
K azakhstan</w>
4 8</w>
orr a</w>
freed oms</w>
es tin
d uring</w>
d orra</w>
An dorra</w>
S an</w>
N ucle
we ap
continu ed</w>
1 3
e th</w>
qu e</w>
out come</w>
agre ements</w>
fre e</w>
er o
be ing</w>
E u
toler ance</w>
ques tion</w>
ait i</w>
agu a</w>
H aiti</w>
re ite
ne go
nego ti
P ak
I ran</w>
nucle ar-
sec t</w>
prote c
er ies</w>
Pak istan</w>
Boliv ia</w>
Add .
tic es</w>
X X
K u
d em
B r
Ind ia</w>
Cri me</w>
consi dered</w>
ang e</w>
aff ected</w>
A zer
z u
zu el
ij an</w>
ene zuel
ba ijan</w>
V enezuel
Azer baijan</w>
or ation</w>
es e</w>
up ied</w>
imp act</w>
ic ar
N icar
Eu ro
Nicar agua</w>
Venezuel a</w>
u r</w>
am bi
- up</w>
he alth</w>
err a</w>
t or
en d</w>
Si erra</w>
mee tings</w>
j ud
imple men
determin ation</w>
con trol</w>
y s</w>
peri od</w>
G e
to ber</w>
nuclear- weap
Oc tober</w>
Le one</w>
in o</w>
d ocu
an z
Mar ino</w>
G h
asc ar</w>
ag ascar</w>
T anz
Mad agascar</w>
multi lateral</w>
avail able</w>
or ial</w>
ata r</w>
priv ate</w>
Tanz ania</w>
ur g
e ach</w>
Le ban
s ed</w>
riti us</w>
our th</w>
is ms</w>
au ritius</w>
M auritius</w>
2 .</w>
sub mitted</w>
Ku wa
Gh ana</w>
o ff
concern ing</w>
Ser ies</w>
proc ed
facilit ate</w>
Q atar</w>
reite rates</w>
en in</w>
An gol
I vo
&apos; Ivo
ô te</w>
in vol
evel op</w>
c an</w>
a ir
Cam ero
C ôte</w>
org ia</w>
mechan isms</w>
Z ambia</w>
Ge orgia</w>
Angol a</w>
e igh
contribu tion</w>
Camero on</w>
1 4
&apos;Ivo ire</w>
jec t</w>
d evelop</w>
B enin</w>
W omen</w>
1 .</w>
sel f-
V er
preven t</w>
Kuwa it</w>
ab out</w>
Leban on</w>
In ter
fund s</w>
stat us</w>
tw enty-
stand ing</w>
as e</w>
communi c
si d
sev enth</w>
num ber</w>
Cap e</w>
it e</w>
b ene
cor ri
z ambi
Mo zambi
T ogo</w>
Mozambi que</w>
arm ed</w>
agu ay</w>
Par aguay</w>
tra fficking</w>
in ate</w>
corri gend
s atis
egis l
wh ile</w>
pri ority</w>
Ver de</w>
ma j
ij i</w>
F iji</w>
Pal estin
N F
s pace</w>
vi e
teri al</w>
prac tices</w>
dis plac
assi st</w>
technolog y</w>
B o
stitu te</w>
gu id
E rit
ob serv
D ar
sub stan
ing s</w>
a u</w>
Erit rea</w>
on dura
Jama ica</w>
ud i</w>
j ustice</w>
eigh th</w>
cooper ate</w>
Sa udi</w>
H ondura
Ara bia</w>
di alogue</w>
gro up
Hondura s</w>
t oc
Govern ing</w>
sub regional</w>
achiev e</w>
follow -up</w>
e i</w>
Mar ch</w>
en vironment</w>
em s</w>
us sal
ussal am</w>
un ei</w>
er ing</w>
Dar ussalam</w>
CO NF
Br unei</w>
CONF .
con struc
chil d</w>
c a
b ur
feren ces</w>
objec tives</w>
ner ship</w>
fu ture</w>
wit zer
ol on
S witzer
th ese</w>
appor te
Switzer land</w>
S -
R apporte
Ad visory</w>
2 4
y ana</w>
strate gies</w>
Gu yana</w>
res t</w>
em en</w>
C ultural</w>
bo th</w>
Y emen</w>
satis fac
integr ation</w>
ic i
ti eth</w>
provi sional</w>
i d</w>
ens uring</w>
admin is
w and
p opul
f av
R wand
y an</w>
ri ya</w>
hi riya</w>
Lib yan</w>
Jama hiriya</w>
f un
s c
An ti
Al b
k a</w>
indi vi
i ous</w>
pec ts</w>
j u
Alb ania</w>
Rapporte ur</w>
ci v
c ur
ac tions</w>
O man</w>
ep al</w>
N epal</w>
en able</w>
em er
b ad
Bar bad
n in
Fed er
S ur
S r
Centr e</w>
Bel ize</w>
adop tion</w>
M ay</w>
probl ems</w>
satisfac tion</w>
gro w
ha b
group s</w>
an ka</w>
Sr i</w>
L anka</w>
ec u
ab ilities</w>
ru g</w>
el ec
bi ennium</w>
S ing
nin th</w>
mi rates</w>
E mirates</w>
l egisl
Barbad os</w>
s w
ke ep
G en
particul arly</w>
n er</w>
Vi et</w>
K y
establ ish</w>
o w</w>
it ania</w>
aur itania</w>
S cientific</w>
M auritania</w>
por e</w>
t re
2 3
imb ab
Z imbab
Bah rain</w>
199 6</w>
six th</w>
s mall</w>
a pore</w>
Sing apore</w>
T ran
keep ing</w>
und i</w>
N am</w>
Bur undi</w>
gi r
provi ding</w>
Par ty</w>
vic ti
Ch il
respon sibility</w>
Com or
tw o</w>
Comor os</w>
Palestin e</w>
ol id
commit ments</w>
L es
re duction</w>
ill icit</w>
oth o</w>
S om
Les otho</w>
Aug ust</w>
under l
respec tive</w>
il y</w>
2 6
ag o</w>
us ed</w>
under taken</w>
ex per
de e
ap pe
Per s
sec tor</w>
syste ms</w>
199 7</w>
reg ar
emphasiz ing</w>
T a
A c
sw ana</w>
ot swana</w>
op h
Rwand a</w>
B otswana</w>
re t
in ame</w>
ad v
Sur iname</w>
maj or</w>
uc ia</w>
o ds</w>
L ucia</w>
Bo ard</w>
wh o</w>
d a</w>
Pe ace</w>
w ould</w>
t ly</w>
U gan
impro ve</w>
man ner</w>
appl ic
Ugan da</w>
S am
ste ps</w>
sec tion</w>
expres sing</w>
st -
consi st
Sam o
Nucle ar</w>
19 7
reat ment</w>
t ent</w>
s ome</w>
at tention</w>
T rin
T ob
m u
d el
adminis tering</w>
u res</w>
implemen ting</w>
id ad</w>
Trin idad</w>
Tob ago</w>
h ol
ma king</w>
Samo a</w>
ch ar
erad ication</w>
el f-
S elf-
p u
stres sing</w>
ad ditional</w>
Dec ade</w>
spec ific</w>
ol s</w>
E duc
en ts</w>
bene f
achiev ement</w>
Gren ada</w>
ta ble</w>
Rev i
fish eries</w>
v ari
P ublic</w>
safe ty</w>
trans f
ti c</w>
- L
Ad min
our t</w>
ap u
Cri min
2 7
Crimin al</w>
1 6
air s</w>
w i</w>
gu a</w>
con clu
Revi ew</w>
G ab
Anti gua</w>
r uc
est ruc
bud a</w>
Mala wi</w>
Bar buda</w>
199 4</w>
ul ner
eff ici
r gy
Ky rgy
ri b
effecti vely</w>
ul ture</w>
Gab on</w>
1 5
ag es</w>
indivi du
z stan</w>
wor king</w>
vie ws</w>
victi ms</w>
achiev ing</w>
Kyrgy zstan</w>
ex plo
an ts</w>
Som alia</w>
sup por
Re gi
Zimbab we</w>
La o</w>
self- determination</w>
in depend
d one</w>
m ost</w>
ess ential</w>
dis sem
v ulner
b be
ari bbe
C aribbe
4 6</w>
mu tu
l s</w>
mand ates</w>
trans pa
all en
add res
Pow er</w>
M e
0 0</w>
ex am
o od</w>
Tim or
uni versal</w>
ation ally</w>
apu a</w>
P apua</w>
provi sion</w>
ch ange</w>
Caribbe an</w>
g re
est e</w>
assess ment</w>
Timor -L
Timor-L este</w>
inte gra
p en
fin ancing</w>
vari ous</w>
requ es
am oun
M ission</w>
fun c
equ al</w>
Ser bia</w>
negoti ations</w>
anc ed</w>
M ic
r o</w>
displac ed</w>
si t</w>
j i
un al</w>
corrigend um</w>
ang u
am as</w>
Ta ji
Si x
Bah amas</w>
offic ial</w>
le ast</w>
it y-
estruc tion</w>
olog ical</w>
l angu
Q u
Pre vention</w>
p e</w>
mig r
comm on</w>
consist ent</w>
con f
as soci
se ttl
pl ace</w>
Taji kistan</w>
st en
regar ding</w>
in ce</w>
ge tary</w>
fav our</w>
c ent
loc al</w>
b ec
I .</w>
En vironment</w>
ob il
inc ent</w>
ad ines</w>
V incent</w>
Gren adines</w>
4 7</w>
su mm
ab sten
Self- Governing</w>
com pe
Non- Self-Governing</w>
si gni
signi fic
ron esia</w>
re ig
con ferences</w>
ch allen
Mic ronesia</w>
mis sions</w>
b ro
Feder ated</w>
peace ful</w>
elim ination</w>
y et</w>
olom on</w>
mar ine</w>
deci sions</w>
T rib
S olomon</w>
pro liferation</w>
f if
ut an</w>
sub ject</w>
rug s</w>
intern ationally</w>
ilit ary</w>
h utan</w>
ac knowled
B hutan</w>
ten eg
teneg ro</w>
su c
suc c
hab ilit
Mon tenegro</w>
d om
n o</w>
Al l</w>
z iland</w>
wa ziland</w>
proced ures</w>
deb t</w>
S waziland</w>
Gen ev
per ty</w>
oper ations</w>
con v
y ear</w>
protec t</w>
pl an</w>
Se a</w>
v ement</w>
as es</w>
Genev a</w>
propos als</w>
pro duc
equ ality</w>
s ince</w>
o c</w>
ex er
ter m</w>
med i
f y</w>
disas ter</w>
Par t</w>
re habilit
id entif
ven ess</w>
freed om</w>
Trib unal</w>
C .
A b
under standing</w>
C ourt</w>
cri me</w>
pers on</w>
inc ed</w>
emoc rac
con duc
m ilitary</w>
crimin al</w>
conv inced</w>
o gies</w>
di ves</w>
Mal dives</w>
o d
hi bi
go ing</w>
fi ed</w>
enh ancing</w>
purpos e</w>
gir ls</w>
rec ord
amoun t</w>
Euro pe</w>
Cha ir
tran sition</w>
jud ic
follow s</w>
i on</w>
construc tion</w>
comb at</w>
Fin al</w>
3 3</w>
appl ication</w>
Nig er</w>
Dis crimination</w>
f am
rec e
peace keeping</w>
oph ob
increas ed</w>
ac tive</w>
absten tions</w>
G lob
for e</w>
disas ters</w>
coord in
ati c</w>
Ag enda</w>
viol ations</w>
stand ards</w>
d on
record ed</w>
199 3</w>
ear ch</w>
I ra
on going</w>
Mar shall</w>
II .</w>
rehabilit ation</w>
oun d</w>
end or
ov en
C oven
as pects</w>
s s</w>
econom ies</w>
mon it
esti c</w>
dom estic</w>
thre at</w>
polic y</w>
ol ogies</w>
ab oration</w>
- B
ret ur
dis c
J ustice</w>
ses sions</w>
Pro te
issu e</w>
Regi onal</w>
represent atives</w>
en ophob
E lim
or ing</w>
com p
Wor king</w>
M in
ad s</w>
it al</w>
es tions</w>
appro ach</w>
Glob al</w>
i ance</w>
19 6
su stain
rec ent</w>
increas ing</w>
d rug</w>
F ood</w>
9 7
f oc
. I
H IV</w>
ou s
i f</w>
A I
ter n
bur g</w>
Jo h
or ig
H e
s en
ear ly</w>
follow ing</w>
a f
requi red</w>
es burg</w>
en viron
ann esburg</w>
Joh annesburg</w>
2 8
ser ious</w>
t reatment</w>
istr ation</w>
Ira q</w>
rul e</w>
respon se</w>
plo yment</w>
O p
N aur
urg ent</w>
th em
Naur u</w>
st ud
G ambia</w>
territ orial</w>
le ad
it able</w>
di versity</w>
gi ve</w>
ev er
Uni on</w>
wa ren
m ission</w>
Lib eria</w>
re alization</w>
con sequ
o ve</w>
AI D
- level</w>
sta te
ear s</w>
Co ord
po si
ab ove</w>
end ed</w>
emocrac y</w>
paragrap h
paragraph s</w>
y ears</w>
g ency</w>
di rec
anu ary</w>
J anuary</w>
4 5</w>
Yugosla via</w>
20 0</w>
acc ep
c y</w>
Prote ction</w>
transf er</w>
inte rest</w>
b il
Pers ons</w>
In stitute</w>
st ability</w>
pre vi
a waren
S ub
mat ter</w>
se e</w>
ong a</w>
er red</w>
toc ols</w>
techn ologies</w>
m ust</w>
l iv
id d
g eneral</w>
AID S</w>
d estruction</w>
st ric
en jo
z be
U zbe
h al
grow th</w>
rac ial</w>
f ourth</w>
b r
3 2</w>
ric ulture</w>
exer c
Ser vic
gen ous</w>
wh en</w>
th -
eli ef</w>
en forc
pro perty</w>
A ff
us es</w>
reques ted</w>
ov er</w>
challen ges</w>
Uzbe kistan</w>
fac ilities</w>
enophob ia</w>
a i
effecti veness</w>
esti g
c arr
pl y</w>
h ar
gra ph
awaren ess</w>
wa ys</w>
pl ans</w>
particip ate</w>
Qu estions</w>
i ter
ann ual</w>
Admin istrative</w>
wor k
pursu ant</w>
du e</w>
B e
in ten
for ty-
ti l
m obil
up tion</w>
stain ing</w>
d o</w>
ac k</w>
Ab staining</w>
3 4</w>
per form
compl iance</w>
bil a
re ad
ity- building</w>
d ev
U n
Elim ination</w>
fif th</w>
objec tive</w>
glob alization</w>
m as
Min is
Me e
Tur k
agre ement</w>
Pro liferation</w>
ran ts</w>
coll ec
anc ement</w>
af ter</w>
there on</w>
Oc c
O ther</w>
7 7</w>
p er</w>
R ac
ess es</w>
E. 0
T onga</w>
Occ upied</w>
ff e
k ed</w>
disc us
a rea</w>
S t
ris k</w>
regul ar</w>
popul ation</w>
rul es</w>
reli ef</w>
nuclear-weap on</w>
men istan</w>
a te
Turk menistan</w>
sid ent</w>
sec u
s p
rac ism</w>
fin al</w>
fifty- ninth</w>
e an</w>
civ ili
idd le</w>
mat ters</w>
bila teral</w>
auth orities</w>
S pace</w>
in tolerance</w>
g ener
M iddle</w>
y ch
u gh
tu ni
substan tive</w>
por tuni
g ic</w>
con stitu
Y ear</w>
Isra el
ren cy</w>
cons olid
Israel i</w>
er -
conf id
J er
six tieth</w>
shi ps</w>
ov e
ex tra
capac ity-building</w>
ugh out</w>
thro ughout</w>
religi on</w>
re main
consequ ences</w>
Non- Proliferation</w>
vi sion</w>
us al
usal em</w>
sub sequ
res ol
propos ed</w>
previ ous</w>
Jer usalem</w>
form ity</w>
Re f
P ac
is ing</w>
jec ts</w>
Boliv arian</w>
portuni ties</w>
fo od</w>
encoura ge</w>
ci r
cent res</w>
B ud
tor ture</w>
territ ory</w>
l l
addres sing</w>
n ess</w>
fish ing</w>
fac t</w>
7 5</w>
a w
Educ ational</w>
occ up
en g
l in
consult ation</w>
Par t
D ocu
o -
wid e</w>
probl em</w>
mee t</w>
Pac ific</w>
re construction</w>
organiz ation</w>
du ce</w>
4 4</w>
n ing</w>
equ itable</w>
c ent</w>
m ov
II .
s ur
po sition</w>
environ mental</w>
Chair man</w>
res ent
al y
s ex
h er</w>
con formity</w>
Mee ting</w>
h el
- term</w>
gan s</w>
fifty- seventh</w>
entr y</w>
end ing</w>
at a</w>
S tra
recall s</w>
op portunities</w>
e ed
Rep resent
L .
tim ely</w>
m es</w>
comb ating</w>
d ate</w>
uge e</w>
olu tions</w>
n ers</w>
al u
al e</w>
Docu ment</w>
ref erred</w>
enjo yment</w>
d es
Ref ugees</w>
subsequ ent</w>
religi ous</w>
A d</w>
reig n</w>
iz ed</w>
cur rent</w>
3 8</w>
requi re
ij ing</w>
H oc</w>
Be ijing</w>
ne t</w>
S mall</w>
Domin ica</w>
struc ture</w>
dis abilities</w>
di ffe
admin istrative</w>
199 2</w>
ther e</w>
si b
ous ly</w>
b an</w>
4 1</w>
t reaty</w>
st oc
serv ation</w>
principl e</w>
el ines</w>
consid ering</w>
a ts</w>
Aff airs</w>
ref ugee</w>
en ted</w>
communic ation</w>
cl os
aff ec
e ther</w>
d emocracy</w>
d ata</w>
a ter</w>
For um</w>
lif e</w>
ent ly</w>
con ference</w>
C olon
sixty- first</w>
R el
3 6</w>
ou ter</w>
at t
h igh</w>
fifty- eighth</w>
effec ts</w>
6 -
se e
op e</w>
in form
l ong
V .
Represent ative</w>
Bud getary</w>
re sts</w>
orig in</w>
inv estig
inten si
P r
ep end
F ra
there to</w>
ren ce</w>
o k
integra ted</w>
ex change</w>
Tran s
transpa rency</w>
po in
non- proliferation</w>
elim inate</w>
comm ittee</w>
Ind epend
n ation
l -
impro ving</w>
exerc ise</w>
consult ations</w>
sa u</w>
ev alu
d er
c ould</w>
XX I</w>
sign ed</w>
sec retar
perform ance</w>
cul ture</w>
Pal au</w>
situ ations</w>
is sau</w>
ar ri
a -B
Part nership</w>
E. 9
3 0
3 .</w>
settl ement</w>
l ing</w>
h ost</w>
a-B issau</w>
Guine a-Bissau</w>
2 9
pri orities</w>
enti ties</w>
par ts</w>
conclu sions</w>
E qu
appro ved</w>
ab our</w>
Fin ancing</w>
occ upied</w>
ib er
hibi tion</w>
As si
signific ant</w>
per spec
th an</w>
pl ay</w>
langu ages</w>
anu at
V anuat
Sta tu
H ab
Fra mework</w>
liv ing</w>
legisl ation</w>
indi genous</w>
en n
e h
commit ted</w>
associ ated</w>
Hab it
monit oring</w>
gro up</w>
Vanuat u</w>
tain ing</w>
sib ilities</w>
is t</w>
go od</w>
ran ting</w>
proc esses</w>
Develop ing</w>
4 8
applic able</w>
Coven ant</w>
s ting</w>
regi ons</w>
re ach
enn a</w>
Vi enna</w>
Pol itical</w>
Habit at</w>
ti fication</w>
dissem ination</w>
de si
4 2</w>
196 7</w>
safe gu
resul ts</w>
oun d
or k</w>
ful fi
fulfi l</w>
commend s</w>
Y ork</w>
Ar ticle</w>
tar ge
prepar ation</w>
li ght</w>
V I</w>
pro duction</w>
in dic
ic ations</w>
fi el
explo itation</w>
aw are</w>
tu res</w>
nuclear-weap on-
emer gency</w>
develop ments</w>
cri mes</w>
Comm unity</w>
ter n</w>
ris dic
ma in</w>
expres sed</w>
Ex ecu
s ol
rel ations</w>
m ary</w>
em ployment</w>
Sou th-
or gans</w>
n ed</w>
me th
achiev ed</w>
Ag riculture</w>
4 -
fiel ds</w>
b al
3 5</w>
mutu al</w>
form ul
an aly
v en</w>
gre ater</w>
dee p</w>
Stra te
Jo int</w>
conc re
con tr
coll aboration</w>
1 -
concre te</w>
ur ban</w>
uni sh
acc ed
stan ces</w>
s ources</w>
pri mary</w>
hal f</w>
e th
ti v
oper ational</w>
mig rants</w>
cl ose</w>
benef its</w>
Pe oples</w>
Chil dren</w>
sex ual</w>
resul t</w>
conduc t</w>
admin istration</w>
U se</w>
t ot
ow n</w>
ann ing</w>
4 0</w>
res earch</w>
h arm
199 1</w>
ati es</w>
str ong
ne g
y si
inv est
fund ing</w>
conflic ts</w>
c entr
A .</w>
ver y</w>
judic ial</w>
in come</w>
ci ence</w>
bet ter</w>
appe als</w>
M an
x enophobia</w>
oblig ation</w>
Amer ican</w>
st re
ju risdic
dis crimin
capac ities</w>
4 3</w>
stud y</w>
pro jects</w>
nat ure</w>
e b
2 200</w>
syste m
de f
at or</w>
under take</w>
in tro
c er
m p
intern ally</w>
c orr
ar an
T ok
Pre sident</w>
ten ance</w>
retur n</w>
preven ting</w>
o graph
il iz
vulner able</w>
ex ecu
docu ments</w>
z one</w>
ysi cal</w>
thre e</w>
part ners</w>
ex peri
D rugs</w>
. II.
prac tical</w>
exper ts</w>
For ms</w>
s cientific</w>
ap ter</w>
M embers</w>
si c</w>
organiz ed</w>
a ir</w>
R E
med ia</w>
knowled ge</w>
re duc
in fra
at form</w>
require ments</w>
p ot
nuclear-weapon- free</w>
tre aties</w>
repor ting</w>
n s</w>
d emocratic</w>
comple te</w>
5 .</w>
pos ed</w>
go al</w>
com es</w>
ab use</w>
V II</w>
Independ ence</w>
effec t</w>
al i
U N
instru ment</w>
auth or
G ranting</w>
.II. A
sixty- second</w>
ex ten
Pr incipl
. 4</w>
in ion</w>
in d</w>
c are</w>
be fore</w>
Assi stance</w>
val u
sixty- third</w>
rece iv
high -level</w>
Coord ination</w>
Colon ial</w>
strate gy</w>
re duce</w>
govern ance</w>
Principl es</w>
F ourth</w>
in ed</w>
adop t</w>
proc eed
perspec tive</w>
tot al</w>
main tenance</w>
ac qu
ver si
ou th</w>
ill egal</w>
T r
t s
ner gy</w>
migr ation</w>
m al
gi ven</w>
don or</w>
succ ess
re d
in clu
endor ses</w>
b it
respon sible</w>
Pro tocols</w>
ra te</w>
eb ru
a mend
Minis terial</w>
F ebru
yste m</w>
fifty- sixth</w>
con dem
Pl atform</w>
Febru ary</w>
3 7</w>
mas s</w>
u til
read y</w>
legisl ative</w>
ac tors</w>
over y</w>
c ess</w>
b est</w>
2 -
re fl
pre pa
enforc ement</w>
com men
underl ines</w>
s ch
br ing</w>
st ak
al ready</w>
strong ly</w>
strate gic</w>
rin cip
rec ru
jurisdic tion</w>
Sa o</w>
P rincip
main tain</w>
iz ing</w>
econom y</w>
acti ce</w>
Uni versal</w>
T ome</w>
stak eh
stakeh old
it ment</w>
enh anced</w>
dee ply</w>
ar ies</w>
ai m</w>
ad visory</w>
Th ir
T ech
sc ale</w>
po st-
e ase</w>
bec ome</w>
la ws</w>
ful f
er ship</w>
bro ad
ar d
Princip e</w>
A t
respon sibilities</w>
respon d</w>
bit r
al ism</w>
Tok el
At omic</w>
ter ms</w>
n or
E nergy</w>
3 9</w>
qu ar
im medi
2 17</w>
id enti
char ac
B an
ticl es</w>
sa f
observ ance</w>
independ ent</w>
Tokel au</w>
Con ven
Rac ial</w>
min d
iliz ations</w>
f ish</w>
re v
re form</w>
intensi fy</w>
guid elines</w>
ex pl
T u
quar ters</w>
ever y</w>
out comes</w>
or i
mind ful</w>
there in</w>
ma terial</w>
m ed</w>
coordin ated</w>
pro f
i vil</w>
enc e-
ar co
an ti
C ivil</w>
eth ni
effici ency</w>
assi gn
ari time</w>
val u</w>
ph ysical</w>
g ed</w>
docu ment</w>
Tu valu</w>
man ent</w>
is land</w>
independ ence</w>
be half</w>
b elief</w>
ate ly</w>
Afgh an</w>
so on</w>
ner ships</w>
gra ding</w>
con nec
c ru
su s</w>
over all</w>
l ack</w>
Man agement</w>
Ban k</w>
sustain ed</w>
sel ves</w>
neg ative</w>
gra ve</w>
ex c
diffe rent</w>
ad quarters</w>
rec overy</w>
c arri
posi tive</w>
is sions</w>
individu als</w>
hel p</w>
ence- building</w>
Di vision</w>
unish ment</w>
on ly</w>
acknowled ging</w>
p il
op inion</w>
jo int</w>
l ess</w>
ba sic</w>
tion ing</w>
7 8
7 3</w>
gro ss</w>
ex tent</w>
e p</w>
F ish
saf e</w>
ra di
invol ved</w>
compe tent</w>
s ame</w>
al ities</w>
Sec ond</w>
G o
suppor ting</w>
m ember</w>
il ies</w>
he rence</w>
dis pu
ci ve</w>
ach es</w>
Res pon
7 th</w>
stri bu
ke ep</w>
k ind</w>
di stribu
confid ence-building</w>
acti vely</w>
Six ty-
impro vement</w>
corr uption</w>
conven ing</w>
pursu e</w>
communic ations</w>
ca uses</w>
c um
assess ments</w>
ab or
ta s
re in
part nerships</w>
ac y</w>
Execu tive</w>
evalu ation</w>
establish ing</w>
cir cum
carr y</w>
ation ship</w>
Uni t</w>
con servation</w>
agu e</w>
sub -
stakehold ers</w>
man if
benef it</w>
ar bitr
X V</w>
re y</w>
R educ
Pro mo
te red</w>
in ary</w>
Corr .
1 st</w>
wel l-
sec tors</w>
prepar atory</w>
inte rests</w>
ethni c</w>
ar ity</w>
Pro hibition</w>
ser ve</w>
iti g
invest ment</w>
in ating</w>
Dis as
te enth</w>
secretar iat</w>
pl anning</w>
main stre
in du
func tions</w>
circum stances</w>
V ic
R ome</w>
ter rey</w>
st ac
ob stac
invol vement</w>
as s
Strate gy</w>
Mon terrey</w>
A sia</w>
servic e</w>
aran te
B i
tion ed</w>
integr ity</w>
f os
er tification</w>
all oc
H umanitarian</w>
stoc ks</w>
recogniz ed</w>
r ace</w>
min e</w>
ili ation</w>
ic es</w>
func tioning</w>
carri ed</w>
Pro cess</w>
tic s</w>
teri als</w>
sem in
encoura ging</w>
ti vely</w>
sh aring</w>
our ce</w>
loc ked</w>
f ying</w>
en abl
assi sting</w>
C N
y outh</w>
on ce</w>
conven tions</w>
civili an</w>
c ases</w>
y oun
wa ter</w>
tor al</w>
tern al</w>
ge ograph
communi ties</w>
c ase</w>
c an
bu t</w>
Pow ers</w>
s ove
m uni
esti ma
effici ent</w>
dev o
dec laration</w>
cre ate</w>
a st
them selves</w>
targe ts</w>
identif y</w>
gn ity</w>
di gnity</w>
Sub committee</w>
Euro pe
Add. 2</w>
ta bility</w>
ren e
reg im
rati fication</w>
min im
hol d</w>
cri tical</w>
D urban</w>
Cha d</w>
summ its</w>
re iter
h uman
work ers</w>
sign at
migr ant</w>
ag ed</w>
ac ting</w>
re ach</w>
r ural</w>
li a
initi ative</w>
c all</w>
at orial</w>
O u
Europe an</w>
t ory</w>
el s</w>
comm issions</w>
auth ority</w>
ati n</w>
intro duc
con clud
Equ atorial</w>
Dec lar
u ght</w>
fo reign</w>
cre ation</w>
ap poin
youn g</w>
w ing</w>
op en</w>
i als</w>
twenty- third</w>
reiter ating</w>
infra structure</w>
L atin</w>
- based</w>
recommend s</w>
pot ential</w>
in ess</w>
harm on
g res
d o
d eli
4 9
underl ining</w>
ma terials</w>
ex i
anc tions</w>
Vi ol
soci o-
sc ope</w>
l o
gu arante
for th</w>
popul ations</w>
og ether</w>
meth ods</w>
individu al</w>
fi ght</w>
Op tional</w>
Inter -
Go als</w>
ych el
ychel les</w>
sign ing</w>
secu tion</w>
i ted</w>
d er</w>
call ed</w>
Tr ust</w>
Se ychelles</w>
socie ties</w>
see k</w>
i ent</w>
f air</w>
effor t</w>
w ar</w>
re vis
pr actice</w>
pl om
min es</w>
long -term</w>
gh ts
socio- economic</w>
s anctions</w>
manif est
fi ve</w>
Ou ter</w>
mutu ally</w>
l os
l ine</w>
con stitute</w>
He ads</w>
territ ories</w>
t ogether</w>
res ted</w>
I ll
si x</w>
res um
lead ing</w>
fe ty</w>
de fin
conclu sion</w>
appro aches</w>
Ar ms</w>
govern ment</w>
er v
d en
ten ce</w>
c our
and ing</w>
Servic e</w>
G C</w>
remain s</w>
n ations</w>
inter -
i p
hol ding</w>
Se ttl
S toc
Di rec
20 10</w>
ver if
resul ting</w>
p ay</w>
m en</w>
end ers</w>
connec tion</w>
w ere</w>
t ended</w>
olon ization</w>
offic ials</w>
need ed</w>
ar s</w>
Ill icit</w>
For ce</w>
4 .</w>
wel f
tran sit</w>
sub si
ques tions</w>
qu ality</w>
pl ications</w>
p at
k ill
exam ine</w>
emp ow
ar ising</w>
Declar ation
mechan ism</w>
ex ternal</w>
con vention</w>
co sts</w>
at ors</w>
ac compl
- S</w>
success ful</w>
se a</w>
regul ations</w>
introduc ed</w>
fam ilies</w>
compl y</w>
an other</w>
ad vers
Ri ghts
Pe ace
200 2-
thre ats</w>
institu tional</w>
ev er</w>
erad ic
ch apter</w>
ag ain</w>
5 0
per pe
m itig
m ill
enabl ing</w>
di tion</w>
Chil d</w>
200 8</w>
us ing</w>
sub- item</w>
re integration</w>
part nership</w>
d ro
Un ity</w>
ne t
manifest ations</w>
he ads</w>
en ed</w>
charac ter</w>
ar ticles</w>
, 0
se ts</w>
prepar e</w>
n ov
l iber
buil d</w>
appl y</w>
a vo
Th e
it ors</w>
forc ed</w>
fam ily</w>
distribu tion</w>
centr al</w>
Reduc tion</w>
safegu ards</w>
o k</w>
ment ary</w>
del ay</w>
ci de</w>
L egal</w>
in nov
ap p
C iv
geograph ical</w>
deli very</w>
dec olonization</w>
d rugs</w>
si tional</w>
sh are</w>
offic es</w>
aff airs</w>
E ra
6 3</w>
se t
il ment</w>
i ght</w>
du ty</w>
Au th
7 1</w>
r e</w>
s olution</w>
cl im
Settl ements</w>
In di
.I V.
s cience</w>
grow ing</w>
concern s</w>
S ystem</w>
As soci
viol ation</w>
v al</w>
reach ed</w>
obstac les</w>
acknowled ges</w>
Is land</w>
H igh
re ment</w>
fulf ilment</w>
cap ital</w>
ag ency</w>
Disas ter</w>
1 57</w>
los s</w>
ffic ul
di fficul
an ces</w>
S- 10</w>
substan ti
pl a
contribu ting</w>
clim ate</w>
civ ilizations</w>
Educ ation</w>
well- being</w>
t on</w>
state ments</w>
pro cl
occup ying</w>
ener gy</w>
el ements</w>
affir ms</w>
The ir</w>
Servic es</w>
- related</w>
ur y</w>
transpa rent</w>
repor ted</w>
mov ement</w>
men tioned</w>
exp ed
accoun tability</w>
uni lateral</w>
state ment</w>
recru itment</w>
e ing</w>
plom atic</w>
par ty</w>
it ts</w>
inte rested</w>
hi m</w>
ev is</w>
aliz e</w>
acc el
Res olutions</w>
N evis</w>
K itts</w>
CN .4</w>
vulner ability</w>
subsi di
dec lar
contain ing</w>
as ting</w>
ac ks</w>
Thir d</w>
y ed</w>
s ite</w>
e ans</w>
discrimin atory</w>
198 2</w>
tr on
proced ure</w>
perpe tra
k pil
es sional</w>
eg ul
e ases</w>
di men
bod y</w>
Sta ff</w>
R egul
Auth ority</w>
pos sibility</w>
oth ers</w>
high est</w>
elec tions</w>
continu es</w>
as tern</w>
affec t</w>
tra ding</w>
in f
b our
ac k
S itu
N ational</w>
ol e</w>
. 7</w>
tu al</w>
represent ation</w>
ni vers
ic s</w>
g n</w>
Vic e-
3 9
x im
um s</w>
str ong</w>
si on-
revis ed</w>
rel ation</w>
foc us</w>
facilit ating</w>
ess els</w>
educ ational</w>
devo ted</w>
d ang
cons ci
acqu i
Respon sible</w>
Con sul
s y
n am
l ow
Bi ological</w>
200 4-
w ise</w>
rel ationship</w>
post- conflict</w>
o ther
igh bour
deci sion-
bal ance</w>
Tech nical</w>
langu age</w>
intern al</w>
conven e</w>
ar ning</w>
Situ ation</w>
Sa fety</w>
R ed</w>
3 8
tron ic</w>
re main</w>
nivers ary</w>
necess ity</w>
h os
decision- making</w>
ch an
chan ges</w>
t -
regim e</w>
arco tic</w>
p unishment</w>
is tic</w>
cer tain</w>
summ ary</w>
olid arity</w>
o cide</w>
n d</w>
4 th</w>
2 nd</w>
ri end
pre dic
mo d
guid ed</w>
ten th</w>
rece i
pen di
op tions</w>
ol an</w>
l abour</w>
Uni versity</w>
RE S</w>
G olan</w>
9 th</w>
5 7
tim ate</w>
there fore</w>
st ence</w>
k et</w>
fre ely</w>
f und</w>
ex tre
de tention</w>
accel er
&apos ;</w>
thir ty-
n one</w>
discus sions</w>
ch em
Inter n
stitu tion</w>
ma xim
cre di
V III</w>
F ac
E.0 3
Aug u
v essels</w>
si de</w>
ris m</w>
per manent</w>
integra te</w>
decid ed</w>
ap pendi
M ed
Augu st-
th us</w>
ec os
a ud
y ond</w>
trans port</w>
o ods</w>
determin ed</w>
b el
author ized</w>
annex es</w>
aliz ing</w>
5 8
su ffic
reduc ing</w>
other wise</w>
im plications</w>
er ment</w>
c ore</w>
c am
analy sis</w>
C al
resol ve</w>
ig ned</w>
enh ancement</w>
applic ations</w>
accompl ish
Rev .1</w>
6 .</w>
w w
spec if
se as</w>
la te
exten d</w>
A C.
propos al</w>
o h
lar ge</w>
fin ance</w>
consci ous</w>
M aritime</w>
19 49</w>
ro b
prepar ations</w>
po sts</w>
mar ket</w>
d am
char ge</w>
bec om
D rug</w>
ou rism</w>
m il
inter depend
cri sis</w>
Non- Al
Gu id
7 6</w>
2004- 2005</w>
1 2
wh ose</w>
there of</w>
ris ks</w>
pu t</w>
conc iliation</w>
Ter ror
Non-Al igned</w>
August- 4</w>
97 3.</w>
200 6-
.I .
tain ed</w>
subsidi ary</w>
stri al</w>
min e-
le gi
im parti
ev ents</w>
co er
bud getary</w>
Intern al</w>
E.03 .II.A
tem por
re stric
mill ion</w>
in human</w>
f ar</w>
empow erment</w>
cul tures</w>
Nucle ar-
E.03.II.A .1</w>
6 8
198 0</w>
tiv ity</w>
represent ative</w>
mobil ize</w>
mal aria</w>
condem ns</w>
al tern
M ov
Fish eries</w>
Consul t
rati fying</w>
ou tl
mon e
clos ely</w>
arbitr ary</w>
an niversary</w>
I .
As pects</w>
s olutions</w>
att acks</w>
Trans national</w>
South- South</w>
z ation</w>
po int</w>
particip ating</w>
ow s</w>
don ors</w>
carr ying</w>
b us
assess ed</w>
Le ague</w>
Cal edonia</w>
199 0</w>
as sets</w>
Statu te</w>
7 8</w>
with dra
n ex
identi fied</w>
exper t</w>
de part
Statu s</w>
Mov ement</w>
wor l
there by</w>
res ource</w>
produc tive</w>
off ences</w>
occup ation</w>
elec tronic</w>
Ser ious</w>
Pre ven
un ti
th s</w>
s ych
re st
pre judic
la un
ip ment</w>
be yond</w>
Promo tion</w>
Op eration</w>
Con gress</w>
s ound</w>
f our</w>
ca used</w>
avo id</w>
ast al</w>
Organiz ed</w>
7 0</w>
6 5</w>
worl d
dura ble</w>
d ication</w>
Con trol</w>
main taining</w>
m emb
kpil ing</w>
er cial</w>
dispu tes</w>
Res earch</w>
15 14</w>
wor ks</w>
technolog ical</w>
prepa red</w>
prejudic e</w>
impro ved</w>
all ow</w>
Rel ated</w>
6 th</w>
6 0
2002- 2003</w>
s -
pa ig
o men
govern ing</w>
gend er-
for ces</w>
dis eases</w>
c en
Viol ations</w>
Six th</w>
Di versity</w>
world wide</w>
unti l</w>
ran ean</w>
oc eans</w>
o l</w>
nation ality</w>
m un
iter ranean</w>
it age</w>
cap abilities</w>
R elief</w>
Med iterranean</w>
L abour</w>
1 ,
vi g
sustain ability</w>
ha z
equ ipment</w>
Terror ism</w>
val ue</w>
tempor ary</w>
t ment</w>
s h</w>
off ence</w>
innov ative</w>
de sign
com ments</w>
accep t
w ish
w ard</w>
su ff
ref rain</w>
h ow</w>
de grading</w>
Pre par
2006- 2007</w>
m er</w>
it ted</w>
inter- agency</w>
empha sis</w>
di am
de plo
bas e</w>
M ig
ter -
pos e</w>
ni ti
min orities</w>
land locked</w>
l ec
ic ally</w>
g in
cru el</w>
compe tence</w>
comm ission</w>
anti -
Par is</w>
I niti
Comm itted</w>
6 8</w>
5 -
10 0</w>
por ts</w>
or por
immedi ate</w>
d ay</w>
H eal
9 0</w>
- ended</w>
welf th</w>
perpetra tors</w>
memb ership</w>
m ic
f ound
de al
civili ans</w>
appro ves</w>
Fifty- eighth</w>
Di alogue</w>
Com b
ten sion</w>
pri s
me as
experi ence</w>
de signed</w>
coord inate</w>
W ar</w>
Li ght</w>
E astern</w>
A ud
t y
t ation</w>
strength ened</w>
oh a</w>
medi um
l ed</w>
comple tion</w>
appendi x</w>
acc es
St anding</w>
Heal th</w>
Era dication</w>
D oha</w>
inform ed</w>
inc orpor
198 1</w>
t op
signat ure</w>
settl ements</w>
refl ec
inform al</w>
em ic</w>
b er
appro val</w>
and s</w>
Consult ative</w>
200 1-
l asting</w>
h und
continu ation</w>
co astal</w>
He adquarters</w>
D es
3 -
under ing</w>
tr ust</w>
sove reig
sovereig n
sovereign ty</w>
s ha
pro por
preven tive</w>
on es</w>
h ung
el ected</w>
comm od
affir ming</w>
Prepar atory</w>
s eg
pec ted</w>
par as</w>
h er
exp ens
ever y
d ated</w>
addres sed</w>
Tran sitional</w>
Le ast</w>
Develop ed</w>
struc tures</w>
rene w
la g</w>
dam age</w>
altern ative</w>
agre es</w>
Initi ative</w>
Fifty- fifth</w>
6 4</w>
suffic ient</w>
mod alities</w>
mic ro
meas ure</w>
in form</w>
g in</w>
fos ter</w>
ev i
0 -
wh e
util ization</w>
st ated</w>
sh rin
shrin ed</w>
sec ure</w>
s pe
ri v
ra is
integr al</w>
en shrined</w>
constitu tional</w>
c ro
bus iness</w>
ad d</w>
accept ance</w>
we b</w>
regul ated</w>
pro tocols</w>
mand ated</w>
implemen ted</w>
imp unity</w>
hung er</w>
for ward</w>
ff ic</w>
construc tive</w>
ar ance</w>
II I.</w>
Cro ss</w>
7 4</w>
v e
imp ed
i ri
foc al</w>
constitu tes</w>
acc ession</w>
O ut
E.0 2
20 15</w>
versi ght</w>
ta il
substanti al</w>
rein forc
p ow
non- discriminatory</w>
do es</w>
d ings</w>
d ates</w>
com pon
O versight</w>
Add. 1.</w>
receiv ed</w>
inter pre
inclu sive</w>
gro und
dis appe
direc tly</w>
corrigend a</w>
cons en
becom ing</w>
Rights Resolution</w>
E.9 6
E.96 .IV.
5 th</w>
1 1
p ir
mobil ization</w>
inclu sion</w>
gra tory</w>
f lag</w>
c ation</w>
200 9</w>
sub mission</w>
st or
riend ly</w>
po or</w>
le ad</w>
expl ore</w>
de al</w>
conven tional</w>
av ily</w>
all evi
aim s</w>
Regul ations</w>
P en
Oc ean</w>
Gu am</w>
Fifty- sixth</w>
CONF. 157</w>
str ation</w>
s olidarity</w>
pro gres
human ity</w>
Direc tor</w>
D ay</w>
Com prehensive</w>
requi res</w>
recogniz e</w>
op port
inte ri
he rent</w>
h oc</w>
fic i
exp and</w>
displac ement</w>
ac ro
Pen sion</w>
Fifty- seventh</w>
7 .</w>
v ital</w>
str y</w>
si on
pre ad</w>
p ending</w>
l u
expres sion</w>
expens es</w>
dis charge</w>
di plomatic</w>
con du
ar ch</w>
P opul
G ener
ug g
nex t</w>
multi -
min is
lim itation</w>
la undering</w>
interi m</w>
exp end
er al</w>
condu cive</w>
an e
ali enable</w>
I n</w>
Coven ants</w>
Conven tions</w>
Aud itors</w>
uni vers
trans national</w>
per si
olog y</w>
form al</w>
e as
comm ercial</w>
adv ance</w>
S- 23</w>
vi r
remain ing</w>
j ust</w>
cre ating</w>
Gener al
Fac ility</w>
E ff
volun te
provid es</w>
exped iti
execu tions</w>
el aboration</w>
depart ments</w>
P T</w>
N PT</w>
Corr. 1.</w>
8 -
10 5</w>
ju ri
di versi
amend ment</w>
advers e</w>
ad herence</w>
Con sen
Comb at</w>
Admin istration</w>
9 .</w>
tas ks</w>
stric t</w>
res erv
proceed ings</w>
p sych
p ast</w>
offic e</w>
observ ations</w>
non- nuclear-weapon</w>
inv itation</w>
ing ly</w>
identif ication</w>
ev ent</w>
deb ted</w>
contribu tes</w>
b ed</w>
a us
T or
4 0
te n</w>
rel ative</w>
protec ting</w>
nor ms</w>
mainstre am
lim ited</w>
iri t</w>
consolid ation</w>
Tor ture</w>
N ai
Eff ec
, 8
ti se</w>
semin ars</w>
s kill
requ ire</w>
red ness</w>
recogni tion</w>
ow ing</w>
ne ighbour
legi timate</w>
i sions</w>
ha d</w>
exper tise</w>
exis t</w>
en s</w>
c as
Vice- Chairman</w>
T reatment</w>
Secretary- General
For mer</w>
wh ole</w>
vi sit</w>
rev it
particip ants</w>
pa yment</w>
mit ting</w>
itte es</w>
ground s</w>
fl ows</w>
del iber
adop ting</w>
wh ether</w>
system atic</w>
sp irit</w>
pro ject</w>
predic table</w>
opport unity</w>
invol ving</w>
inci d
guarante e</w>
estima tes</w>
adv ancement</w>
S P
t ren
respec tively</w>
rati fied</w>
p ices</w>
o active</w>
mar ke
mainstream ing</w>
exc ep
emer ging</w>
direc t</w>
cu st
aus pices</w>
an ta
UN -
F if
se x</w>
rob i</w>
re conciliation</w>
pla yed</w>
nation als</w>
Rac ism</w>
Nai robi</w>
H y
Consen sus</w>
6 6</w>
10 6</w>
uni ties</w>
ord inary</w>
occ ur
ili an</w>
fin dings</w>
ex tended</w>
eradic ate</w>
credi t</w>
consen sus</w>
c at
appoin tment</w>
Inter governmental</w>
In teri
Co de</w>
Civ ilian</w>
v ity</w>
fav oura
ent al</w>
elim inating</w>
coun ter</w>
Preven t</w>
tra ditional</w>
refl ected</w>
ol un
extre me</w>
difficul ties</w>
dem and</w>
b y-
b or
adv anta
V olun
In tolerance</w>
I X</w>
under taking</w>
u te</w>
terror ist</w>
ri d</w>
pr in
ori ented</w>
m or
inv ite</w>
contr ary</w>
b y
acced ing</w>
Des ertification</w>
Dec isions</w>
us e
sel ec
re pat
repat ri
organiz ational</w>
laun ch
hund red</w>
gir l</w>
cam paig
W h
Sixty- second</w>
High -level</w>
Corr uption</w>
, 6
tar get</w>
ro ad</w>
reinforc ing</w>
produc ts</w>
ong ing</w>
no by
la ter</w>
identif ying</w>
er noby
consid er
a id</w>
Coord in
Ch ernoby
CONF. 19
18 9</w>
yste ms</w>
valu es</w>
ul es</w>
proc u
h in
go ods</w>
collec tion</w>
c ost</w>
Sixty- first</w>
pre c
le y</w>
l l</w>
endor sed</w>
dissem inate</w>
Tim e</w>
Out come</w>
Lib eration</w>
Associ ation</w>
se par
prepa redness</w>
op en
mone y-
her itage</w>
h e</w>
fac tors</w>
el abor
discus sion</w>
dis tin
collec tive</w>
cir cul
St reng
Ri o</w>
I mm
sti ll</w>
procu rement</w>
on ds</w>
immedi ately</w>
for ums</w>
exam ined</w>
en de
ende av
determin e</w>
def enders</w>
T enth</w>
In te
Fin ancial</w>
10 9</w>
ud e</w>
th ou
sh el
ric ultural</w>
ra ise</w>
pres er
p ite</w>
money- laundering</w>
m oun
la ter
coordin ating</w>
accord ing</w>
acced e</w>
W est</w>
Tra ining</w>
I ts</w>
y l
r ange</w>
progres sive</w>
id ation</w>
i i</w>
high ly</w>
exi stence</w>
es tern</w>
e ges</w>
continu ous</w>
can di
N arcotic</w>
F or</w>
F am
Declaration See</w>
9 0
7 7th</w>
3 3
us ted</w>
urg ently</w>
si mil
l ing
des pite</w>
dec la
c over
an sion</w>
Popul ation</w>
C C
5 9
tas k</w>
ste p</w>
repatri ation</w>
pro secu
minim ize</w>
im posed</w>
gen u
d d
consolid ate</w>
coer cive</w>
co herence</w>
b ack
Secretary-General A</w>
S T</w>
L and
Feder al</w>
6 9</w>
198 9</w>
twenty- first</w>
re vie
interpre tation</w>
i ther</w>
com ing</w>
bal anced</w>
as pir
UN- Habitat</w>
Inter- Agency</w>
Con ferences</w>
Chernoby l</w>
C op
valu able</w>
st atis
set ting</w>
recei ve</w>
rati fy</w>
pres s</w>
ove red</w>
out standing</w>
man ag
lia mentary</w>
il eges</w>
i alism</w>
formul ation</w>
exp ansion</w>
enh ag
enhag en</w>
dep o
defin ed</w>
coll abor
bel onging</w>
R ules</w>
Pro duction</w>
Inter net</w>
Cop enhagen</w>
respon ding</w>
l ess
ite ms</w>
fun ction</w>
ex pected</w>
bi o
Mon e
Mig r
7 2</w>
,0 00</w>
sha red</w>
ser i
ra ising</w>
pa id</w>
observ ers</w>
mo der
lo o
ir ing</w>
direc ted</w>
dd ling</w>
ci pl
c overed</w>
W estern</w>
Ex per
E S-10</w>
Develop ment
78 th</w>
we b
pres ented</w>
observ er</w>
in tim
he adquarters</w>
genu ine</w>
exam ination</w>
every one</w>
deal ing</w>
as yl
Sup port</w>
Interi m</w>
w arning</w>
trans mit</w>
trans l
se arch</w>
resum ed</w>
p es</w>
med ical</w>
mainstre am</w>
liber ty</w>
elec toral</w>
docu mentation</w>
consid ers</w>
b eli
alloc ation</w>
ab s
Gen ocide</w>
C ulture</w>
wish es</w>
we e
v el</w>
si vely</w>
reques ting</w>
reg re
re place</w>
o t</w>
minis terial</w>
ju st
i de
er y</w>
con stra
bro ad</w>
an tly</w>
Ri ght</w>
18 0</w>
10 1</w>
restric tions</w>
monit or</w>
lead ership</w>
fac ing</w>
enni al</w>
del eg
cri bed</w>
avail ability</w>
ag ricultural</w>
Stoc kpiling</w>
Sa har
Mad rid</w>
Ac ti
A p
, 7
tra ffic</w>
sup ple
rec ords</w>
r d</w>
prin cip
pol lu
investig ate</w>
discrimin ate</w>
declar ations</w>
X enophobia</w>
S em
Pro secution</w>
8 2</w>
3- 14</w>
27 5
18 2</w>
tra vel</w>
simil ar</w>
s m
re mov
publ ic
propor tion</w>
os .</w>
lead ers</w>
en ter</w>
cent ury</w>
aspir ations</w>
ad just
acti vity</w>
Tran sit</w>
Streng th
So ci
N os.</w>
Mone tary</w>
2001- 2010</w>
vi si
sen si
semin ar</w>
religi ons</w>
peri od
period ic</w>
ent ation</w>
diam onds</w>
comp an
co st-
c al
a vig
24 2</w>
sur ve
rel ease</w>
re mo
ph ere</w>
itu res</w>
intim idation</w>
guid ance</w>
gre at</w>
est -B
est-B an</w>
eng aged</w>
enforc ed</w>
dis cipl
de tail
T est-Ban</w>
Nuclear- Test-Ban</w>
Hy ogo</w>
Ex tension</w>
C hi
3 rd</w>
18 -
z ones</w>
sup ply</w>
skill s</w>
signific antly</w>
respec ting</w>
re ference</w>
rais al</w>
plac es</w>
o ff</w>
mer cen
medium -term</w>
la w
in ding</w>
gra d
g a
desi gn</w>
deb ate</w>
candi dates</w>
a ys</w>
We ap
Six tieth</w>
O l
Chi ef</w>
wid er</w>
prof essional</w>
outl ined</w>
old er</w>
nam ely</w>
men ting</w>
l eg
imb er
imber ley</w>
for um</w>
expend itures</w>
estima ted</w>
de fici
at tain
Ne ar</w>
K imberley</w>
C. 5</w>
197 3</w>
to ols</w>
sev eral</w>
e ty</w>
de l</w>
Strength ening</w>
Fifty- ninth</w>
B u
18- 22</w>
teri a</w>
stand ard</w>
reserv ations</w>
organiz e</w>
l ist</w>
issu ed</w>
har m</w>
ex clu
bro ught</w>
Tra fficking</w>
F ur
19 4</w>
0 .</w>
, 4
spec tion</w>
sel f</w>
s ou
re -
p ing</w>
conc ep
ar ound</w>
ar ch
ad dition</w>
T as
H el
- wide</w>
tren ds</w>
suppor ts</w>
si tes</w>
ret ton</w>
regi stration</w>
r ang
pri or</w>
pollu tion</w>
om muni
net work</w>
m issi
k ers</w>
inf ec
i ats</w>
gro und</w>
d oc
conduc ted</w>
b inding</w>
app raisal</w>
W oods</w>
South- Eastern</w>
Rel ations</w>
B retton</w>
8 8
198 6</w>
suppor ted</w>
indic ator</w>
includ ed</w>
hab it
gen cies</w>
fl ow</w>
c ease</w>
affec ting</w>
Wor ks</w>
P o
Fur ther</w>
F re
Acti vities</w>
19 60</w>
vic e</w>
ugg ling</w>
u tri
spe ed
multi later
mitig ate</w>
man kind</w>
li ves</w>
gi ving</w>
encoura ged</w>
de ployment</w>
conven ed</w>
R est
198 8</w>
, 5
vis its</w>
verif ication</w>
ty pes</w>
twenty- fourth</w>
tr acting</w>
rev er</w>
reaffir med</w>
pres sion</w>
pen sion</w>
f ail
extra dition</w>
emer gencies</w>
cru cial</w>
c o</w>
ag riculture</w>
un reported</w>
u ally</w>
to ol</w>
t ter</w>
stat ute</w>
st ations</w>
sev ere</w>
secretar iats</w>
repres ented</w>
princip al</w>
pow er</w>
pl ed
n utri
lim ate</w>
j usti
invi ted</w>
formul ate</w>
f riendly</w>
enti eth</w>
comp ati
R egis
C limate</w>
9 6</w>
9 4</w>
8 0</w>
2 22</w>
y mp
whe rever</w>
urg ency</w>
ren der</w>
reach ing</w>
r ary</w>
man u
le ar
extra judicial</w>
el ement</w>
e ither</w>
e .</w>
defici ency</w>
def ence</w>
cri teria</w>
commen c
Regis ter</w>
Ol ymp
O per
200 8-
tw entieth</w>
st able</w>
s an
ri d
qu al
plac ed</w>
ow nership</w>
on i
o deficiency</w>
ne es</w>
mobil izing</w>
im mun
i bid</w>
equ ity</w>
contr act</w>
bur den
acqui sition</w>
D estruction</w>
Con servation</w>
C. 2</w>
B e</w>
Ad v
198 5</w>
te g
seg ment</w>
ri s</w>
regul ation</w>
pos t</w>
p ap
out side</w>
mon ths</w>
ing ing</w>
immun odeficiency</w>
foll ow</w>
favoura ble</w>
el ev
ecos ystems</w>
coun tering</w>
coun t</w>
cor por
cooper ative</w>
ca teg
avig ation</w>
acceler ate</w>
P riv
Coordin ator</w>
Ch em
Al mat
1 20</w>
visi ting</w>
res e
posi tions</w>
mas ter</w>
indu strial</w>
includ es</w>
con t
comp ens
Tas k</w>
Ar rang
Almat y</w>
Ac tion
2 5
. 2</w>
z ens</w>
ver sion</w>
un regulated</w>
ter pri
sid es</w>
pl e</w>
o sis</w>
lin ks</w>
investig ation</w>
initi al</w>
i or</w>
explo sive</w>
cre d
cour se</w>
c y
assign ment</w>
Exper ts</w>
Est abl
C D</w>
seri ously</w>
off er</w>
mi gratory</w>
jec ted</w>
ish ment</w>
har ass
harass ment</w>
dep ri
centr e</w>
br inging</w>
be ings</w>
ass ure</w>
X I</w>
Par ts</w>
In v
For ty-
E.02 .II.A
E.02.II.A .7</w>
Chem ical</w>
78 .</w>
198 7</w>
them atic</w>
stric tly</w>
re views</w>
ph ase</w>
oc ean</w>
less ons</w>
indu stry</w>
in -
h ou
g ement</w>
fac ed</w>
es sive</w>
en terpri
eg ality</w>
e red</w>
comm it</w>
ch ang
acces sible</w>
23 5</w>
20 6</w>
t ur
pro spec
pro hibition</w>
p tion</w>
ob serve</w>
l a</w>
in ts</w>
ful l
diffe ren
dem obil
de grad
cul osis</w>
commend ing</w>
appe al</w>
agre e</w>
E.96.IV. 13</w>
4- 15</w>
2 10</w>
radi oactive</w>
proceed s</w>
pro per</w>
pris on
maxim um</w>
m aritime</w>
l ib
in fl
en omen
dispu te</w>
dimen sions</w>
con vic
co herent</w>
associ ation</w>
all eg
abl y</w>
Minis ters</w>
Imm unities</w>
6 7</w>
, 3
wid ely</w>
suppor tive</w>
sup pl
s s-
reaffir m</w>
re med
pres ence</w>
poin ts</w>
mercen aries</w>
inter related</w>
imp acts</w>
identi ty</w>
eng agement</w>
eli gi
deliber ations</w>
degrad ation</w>
call y</w>
achiev ements</w>
C .</w>
97 3</w>
8 1</w>
them e</w>
relev ance</w>
manu fac
b it</w>
arrang ement</w>
anti- personnel</w>
al i</w>
Tech n
Fif th</w>
C a
Ara b
Ac t</w>
v ail
uni sh</w>
succ ess</w>
no w</w>
ling u
high er</w>
deb ris</w>
clos er</w>
challen ge</w>
accep table</w>
Peace ful</w>
P -
Olymp ic</w>
1 28</w>
use ful</w>
up dated</w>
struc tion</w>
sove reign</w>
re alizing</w>
procl aimed</w>
pro mp
off ers</w>
leg ally</w>
ir o</w>
in tended</w>
in habit
inhabit ants</w>
in alienable</w>
ic e</w>
enti re</w>
en vis
en tered</w>
desi ra
c olon
bi ological</w>
be ar</w>
at h</w>
ane iro</w>
ad vice</w>
J aneiro</w>
Ch apter</w>
B .</w>
- building</w>
wid est</w>
uc h</w>
suff ering</w>
sal e</w>
orig in
ol co</w>
marke ts</w>
late l
latel olco</w>
interdepend ent</w>
increas ingly</w>
g h</w>
em or
de ath</w>
com position</w>
com par
ci d
call ing</w>
Th re
T latelolco</w>
Pro vi
F ish</w>
Conven tional</w>
Arrang ements</w>
A sian</w>
7 9th</w>
ww w
ur s</w>
un less</w>
ul ti
top ics</w>
system -wide</w>
ph enomen
it self</w>
hi stor
equ iv
ed ul
de tri
d en</w>
consul t</w>
comple x</w>
campaig ns</w>
asses s</w>
as su
al -
T ourism</w>
Ne t
In spection</w>
Adv ancement</w>
2 18</w>
work sh
sch o
reflec t</w>
publ ications</w>
fe a
eng age</w>
dem ands</w>
contribu ted</w>
bur den</w>
accoun table</w>
Indi genous</w>
Fr anc
Ad ditional</w>
8 .</w>
17 5
, 9
t uring</w>
st ate</w>
resol ved</w>
peace building</w>
lear ned</w>
le tter</w>
integr ating</w>
harmon ization</w>
em plo
dem on
assi g
aff ord
U ses</w>
Per manent</w>
O b
In stitu
C ar
www .
sec toral</w>
revit alization</w>
regul atory</w>
re si
pro m
our n
ord ers</w>
n avigation</w>
late st</w>
indic ators</w>
harm ful</w>
found ations</w>
elev enth</w>
compati ble</w>
Stoc ks</w>
Soci ety</w>
Land locked</w>
Indi an</w>
II I.
Ac count</w>
8 7
2008- 2009</w>
17 3</w>
16 9</w>
t welfth</w>
s port</w>
pro secution</w>
pres erv
preserv ation</w>
pl ication</w>
open -ended</w>
moun tain</w>
maj ority</w>
jud ici
is on</w>
inter action</w>
eradic ating</w>
er- General</w>
cour ses</w>
compon ents</w>
com plement</w>
ait h</w>
Pro perty</w>
D emocracy</w>
Con flic
Commission er-General</w>
3 .I.
3.I. 8</w>
t ourism</w>
pursu it</w>
pro stitution</w>
or d</w>
mar gin
ma p</w>
lin k
gra vely</w>
ga p</w>
f aith</w>
ev id
er ous</w>
envis aged</w>
distin ction</w>
constra ints</w>
compe ti
chang ing</w>
accep ted</w>
a -
Ag eing</w>
9 7</w>
8 1st</w>
substan ces</w>
regul arly</w>
reduc tions</w>
per mit</w>
nor m
mine- action</w>
me an
he avily</w>
full est</w>
es pread</w>
enc ing</w>
e f
deb tor</w>
comple ment
asc er
Oper ations</w>
Net work</w>
H ague</w>
Ch ange</w>
27 0</w>
23 7</w>
v ac
s ors</w>
ren tly</w>
promp tly</w>
preser ve</w>
polic e</w>
ne e</w>
liber alization</w>
judici ary</w>
interdepend ence</w>
fo rest</w>
des cribed</w>
dang er</w>
cle ar</w>
bo ok</w>
arco tics</w>
a .</w>
Pers onnel</w>
Pan el</w>
Chil d
8 7</w>
8 3</w>
19 8</w>
. V.
summ it</w>
s l
por ting</w>
pl ight</w>
mitig ation</w>
minim um</w>
mi ght</w>
li ve</w>
imparti al</w>
eli h
detail ed</w>
cover ing</w>
concer ted</w>
con fir
bio diversity</w>
ban ks</w>
b ound
ar t</w>
appor tion
appl ied</w>
ad j
V ir
In stru
E.9 3.I.8</w>
9 2</w>
7 A</w>
2 1
- sharing</w>
wid espread</w>
te ly</w>
ser ving</w>
sen ior</w>
revie wing</w>
re sident</w>
oph oni
ophoni e</w>
net works</w>
mo tiv
m acro
liv elih
launch ed</w>
ir st</w>
experi ences</w>
d ata
conclud e</w>
compens ation</w>
commod ity</w>
assig nee</w>
ak ing</w>
acqui red</w>
Thre at</w>
Institu tions</w>
Franc ophonie</w>
F irst</w>
Con stitution</w>
Ch am
Bang k
7 9</w>
197 8</w>
.I X
stand ard
s ing
retur nees</w>
p ens
os ov
macro economic</w>
incid ents</w>
id e</w>
hibi tions</w>
ear li
ear book</w>
dissem inating</w>
der iv
decla red</w>
conf is
advers ely</w>
Y earbook</w>
Vir gin</w>
P overty</w>
K osov
In du
Guid elines</w>
9 9</w>
24 3</w>
197 7</w>
1 62</w>
web site</w>
sub region</w>
sch edul
p ic</w>
out reach</w>
j ourn
imparti ality</w>
exten sive</w>
ex port</w>
ev en</w>
de x</w>
con temporary</w>
apportion ment</w>
Priv ileges</w>
O ff
Chair person</w>
Add. 3</w>
9 1</w>
10 7</w>
sh ar
san itation</w>
plac ement</w>
our teenth</w>
op s</w>
objec t</w>
nutri tion</w>
li k
in dis
gener ations</w>
fur ther
fl ying</w>
en ting</w>
ch o
ation s
acc u
7 29</w>
5 60</w>
14 6</w>
uni fication</w>
tw o-
trans mitted</w>
sy n
speed y</w>
reas on
psych ological</w>
ll ec
know n</w>
i tion</w>
ecos ystem</w>
du ties</w>
dis par
di ers</w>
depri ved</w>
confid ence</w>
con tro
categ ories</w>
ca use</w>
b ers</w>
ali sts</w>
Equ alization</w>
Conflic t</w>
8 5</w>
14 1</w>
10 48
univers ality</w>
stra ddling</w>
sol diers</w>
protec ted</w>
on s
o f
n ame</w>
im per
demobil ization</w>
chem ical</w>
bo ys</w>
ap s</w>
Mar ine</w>
CONF. 2000</w>
8 9</w>
3 1.</w>
1 11</w>
us sel
ussel s</w>
si ght</w>
ren dered</w>
rein force</w>
regar d
re forms</w>
peace -building</w>
over sight</w>
loo ks</w>
h t
h on
g g
fac tor</w>
convic tion</w>
b ound</w>
ati cally</w>
ar rest</w>
annex ed</w>
UN I
Peace keeping</w>
P unishment</w>
Kosov o</w>
Establ ishment</w>
En vo
Comm itment</w>
Br ussels</w>
Associ ated</w>
8 8</w>
2 20</w>
2 13</w>
10 2</w>
1 16</w>
see king</w>
pl ur
pen al
of ten</w>
jud ges</w>
in tention</w>
h at
hat red</w>
f em
execu tive</w>
elec tion</w>
conduc ting</w>
beli ev
Palestin e.</w>
Mal aria</w>
D E
8 6</w>
6 1st</w>
1 51</w>
withdra w
tr ac
thou ght</w>
pens able</w>
oper ating</w>
n e</w>
lik ely</w>
le -
indis pensable</w>
h om
dep os
cur rently</w>
cons ent</w>
cons cience</w>
ci ti
cat ch</w>
can not</w>
c ed</w>
appropri ation</w>
S uch</w>
Rest ric
Mo del</w>
Corr. 2</w>
C ru
7 5th</w>
2 14</w>
sensi tive</w>
s per
s ource</w>
rap id</w>
radi ation</w>
r ing</w>
por no
porno graph
pers onal</w>
negoti ation</w>
moder ni
llec tual</w>
lin k</w>
lev enth</w>
in debted</w>
consult ative</w>
conclud ed</w>
allevi ate</w>
acced ed</w>
a ve</w>
Volun tary</w>
Me asures</w>
L egality</w>
In human</w>
E leventh</w>
De grading</w>
Cru el</w>
68 th</w>
6- S</w>
2 .
15 77</w>
1 60</w>
t ude</w>
supple menting</w>
specif ically</w>
ro pic</w>
pu ts</w>
prom pt</w>
ov e-
ot ropic</w>
on d
o red</w>
non- discrimination</w>
manufac ture</w>
m id
it ary</w>
investig ations</w>
fulf ill
fin anced</w>
equ ally</w>
e ed</w>
dimen sion</w>
di ties</w>
d estin
consolid ated</w>
bound ary</w>
advanta ge</w>
ab ove-
Civ ilizations</w>
10 8</w>
sub missions</w>
sing le</w>
re ver
re cip
over come</w>
our s</w>
or t</w>
inter vention</w>
i sts</w>
hos til
h ope</w>
gen ocide</w>
enc ed</w>
du plication</w>
deleg ations</w>
d uly</w>
consul ar</w>
bud ge
ad vis
accu rate</w>
above- mentioned</w>
Restric tions</w>
Indu strial</w>
Guid ing</w>
E mer
Coun ter-
A si
suppl ies</w>
stud ies</w>
resul ted</w>
pot enti
phenomen on</w>
per taining</w>
p an
imper ative</w>
hos ting</w>
fail ure</w>
dro ught</w>
do ing</w>
di fication</w>
comm ittees</w>
appoin ted</w>
app ing</w>
amend ed</w>
adequ ately</w>
accomplish ments</w>
accomplish ment</w>
Sub commission</w>
Strate gic</w>
Secretar y</w>
Sahar a</w>
R ad
O pen
G az
Fam ily</w>
Execu tives</w>
B on
A C
97 0-
9 5</w>
tu ber
transl ation</w>
pornograph y</w>
o dities</w>
me works</w>
journ alists</w>
issi le</w>
indivi sible</w>
ill ance</w>
foc used</w>
f er</w>
f ace</w>
execu tion</w>
em bodi
diversi fication</w>
difficul t</w>
dev ices</w>
depo sit</w>
dep th</w>
cy cl
bi ennial</w>
as ed</w>
Tim or</w>
T w
S- 20</w>
Rad i
Pro hibitions</w>
Open -ended</w>
Con tracting</w>
Anti -
26 3</w>
20 8</w>
2 56</w>
1 58</w>
1 10</w>
we .</w>
transf ers</w>
tex ts</w>
sub jected</w>
su gg
siz e</w>
separ ate</w>
renew able</w>
in j
in d
id ity</w>
haz ards</w>
fic ations</w>
embodi ed</w>
em ed</w>
el low
c ourt</w>
be gin
asyl um</w>
assign or</w>
ar te
abs ence</w>
Zimbab we.</w>
T welfth</w>
Pro f
Gaz a</w>
Envo y</w>
Con c
Bon n</w>
9 -
7 4th</w>
5 .
275 31.</w>
27 3</w>
23 6</w>
2 26</w>
2 15</w>
16 4</w>
1 22</w>
struc tural</w>
specif ied</w>
signific ance</w>
servic ing</w>
respec ted</w>
rel y</w>
maxim ize</w>
im muni
gre ate
greate st</w>
fra meworks</w>
expediti ous</w>
ess ing</w>
enterpri ses</w>
conclud ing</w>
c ations</w>
ann ually</w>
Viol ence</w>
Trans port</w>
Ta x</w>
Pers onal</w>
In dex</w>
Ex pl
23 3</w>
1 27</w>
wee k</w>
w ron
wron g
tuber culosis</w>
ti ous</w>
ta bly</w>
stan bu
stanbu l</w>
respon ses</w>
prospec ts</w>
individu ally</w>
in t
fir e</w>
exclu sion</w>
cul tiv
begin ning</w>
S chem
Lib rary</w>
I stanbul</w>
Development Report</w>
B lack</w>
7 6th</w>
48 6-S</w>
26 560</w>
197 9</w>
we alth</w>
u es</w>
terror ists</w>
self- government</w>
selec tion</w>
ro ot</w>
regre t</w>
recip ient</w>
reason able</w>
rap e</w>
ograph ic</w>
n arcotic</w>
me t</w>
lim its</w>
infl u
il ization</w>
i ting</w>
expediti ously</w>
disappe arance</w>
design ated</w>
d est
consolid ating</w>
assign ed</w>
applic ability</w>
afford able</w>
W as
UNI SP
UNISP AC
UNISPAC E</w>
Migr ation</w>
Inv estig
F o
Expl oration</w>
DE C</w>
6 9th</w>
24 4</w>
tar c
t le</w>
sta tes</w>
st aff
sev en</w>
sch em
s ement</w>
proceed ing</w>
or g</w>
ol ving</w>
multi- year</w>
in adequate</w>
if ication</w>
entr usted</w>
end ang
deriv ed</w>
d emocrati
commen ce</w>
comm un
b orders</w>
as sur
ac compan
Emer gency</w>
E. 97
Direc tor
D .
An tarc
18 1</w>
. org</w>
te lec
sur vi
ses sional</w>
programm ing</w>
pre -
origin al</w>
oper ate</w>
men ted</w>
hi bit</w>
expl oration</w>
ev en
eas e
dis ability</w>
depend ent</w>
declar e</w>
d ays</w>
cro ss-
attain ment</w>
arma ments</w>
appropri ations</w>
T al
Prof essional</w>
Par liamentary</w>
M ines</w>
Con sid
CONF.19 2</w>
18 3</w>
- scale</w>
worksh ops</w>
vi able</w>
ti me
su nam
stri ve</w>
sen tence</w>
regard less</w>
rac ist</w>
occ a
no tification</w>
motiv ated</w>
loc ation</w>
inter regional</w>
in compatible</w>
im migration</w>
for th
ev el</w>
end er</w>
en force</w>
ease fire</w>
de te
dang ers</w>
commun ity-
commen su
clos ure</w>
aud it</w>
ard ous</w>
ard ed</w>
an tic</w>
amend ments</w>
Techn ology</w>
I -
Effec ts</w>
7 -
6 4th</w>
20 2</w>
2 27</w>
1 31</w>
. 3</w>
verif i
util ize</w>
underl ying</w>
te en</w>
targe ted</w>
sm uggling</w>
sixty- fourth</w>
reli able</w>
re ti
pl us</w>
micro finance</w>
law ful</w>
issu ance</w>
i ons</w>
hostil ities</w>
high -
fos tering</w>
deplo res</w>
democrati zation</w>
de teri
cultiv ation</w>
condi tion</w>
commensu rate</w>
charac teri
c ol
c es
appor tion</w>
appl ying</w>
adminis tered</w>
Po or</w>
P R
H am
Fifty- fourth</w>
C ity</w>
8 4</w>
30 4</w>
17 1</w>
vir tu
telec ommuni
standard ized</w>
resol ving</w>
renew ed</w>
remo ve</w>
pla ys</w>
od -
non- violence</w>
no ti
man -
li ence</w>
l ast</w>
invol ve</w>
incorpor ate</w>
exer t</w>
e- by-
e-by- case</w>
de ep
consider able</w>
cas e-by-case</w>
believ ing</w>
affec ts</w>
ab ide</w>
X X</w>
Tw enty-
Self- Government</w>
S h
Rel ationship</w>
P rac
Instru ments</w>
Ar ticles</w>
18 7</w>
withdra w</w>
ul ar</w>
te ment</w>
surve illance</w>
sper ity</w>
sou thern</w>
ro und</w>
re sid
pro hibi
penal ty</w>
p and
multilater alism</w>
lin ked</w>
he al
endeav our</w>
di version</w>
desira bility</w>
des ertification</w>
depos itary</w>
de a
con tent</w>
b order</w>
aran ces</w>
and ed</w>
adv oc
XX V</w>
W omen
M echan
E D</w>
Bangk ok</w>
welf are</w>
verifi able</w>
un able</w>
um -
sy m
sti mul
statis tics</w>
speci ally</w>
sp he
sphe res</w>
si gn</w>
resol ves</w>
require ment</w>
re mun
pa ren
org .</w>
negoti ating</w>
micro credit</w>
in- depth</w>
hin dered</w>
gen a</w>
found ation</w>
excep tional</w>
demon stra
confis cation</w>
collec t</w>
as sembly</w>
al armed</w>
acqu ire</w>
Trans fer</w>
Tal ib
Schem e</w>
M oun
Govern mental</w>
Ar med</w>
2 21</w>
19 7</w>
13 2</w>
1 23</w>
. org.</w>
uni que</w>
ta gena</w>
s la
s av
receiv ing</w>
qual if
pro v
pos sibilities</w>
pa y
no ted</w>
ide as</w>
harmon y</w>
fem ale</w>
discipl inary</w>
destin ation</w>
cor d</w>
cooper atives</w>
cle arance</w>
c t</w>
anc y</w>
PR ST</w>
In debted</w>
E lec
E ar
Comm ittees</w>
Colon ialism</w>
Car tagena</w>
CONF. 189</w>
A n</w>
23 4</w>
2 53</w>
, 200</w>
é a</w>
tri p</w>
tr y-
th reat
se l</w>
re feren
pro per
par lia
p ts</w>
ou m
oum éa</w>
op ening</w>
iz es</w>
it ations</w>
infra structures</w>
immuni ties</w>
hon our</w>
gh ting</w>
gener ous</w>
formul ating</w>
fo re
fir m</w>
facilit ation</w>
extra territorial</w>
extra budgetary</w>
dea ths</w>
cre ated</w>
corpor ate</w>
commenc ement</w>
at tem
asses sing</w>
arte t</w>
adjust ment</w>
a use</w>
Talib an</w>
Sta bility</w>
S trip</w>
Res ources</w>
Qu artet</w>
N ouméa</w>
Mechan ism</w>
Counter- Terrorism</w>
7 1st</w>
20 3
2 16</w>
16 7</w>
1 52</w>
- year</w>
withdraw al</w>
ut most</w>
ur ation</w>
tre at</w>
succ ession</w>
remov al</w>
referen d
receiv able</w>
pre cur
persi st
ori entation</w>
lingu istic</w>
ju ven
ish ed</w>
human kind</w>
exp anding</w>
evid ence</w>
ess ation</w>
eli -
eli- Palestinian</w>
ef s</w>
cu e</w>
coun try-
compon ent</w>
circul ation</w>
acro ss</w>
ac tual</w>
Isra eli-Palestinian</w>
Fish ing</w>
Con tribu
200 5-
11 25</w>
wh en
when ever</w>
viol ent</w>
victi m</w>
un hindered</w>
tran sitional</w>
t ack
produc tivity</w>
polic y-
ol es
ob ility</w>
o st
mar ri
j un
in vo
im in
haz ardous</w>
g ence</w>
endeav ours</w>
eed ing</w>
earli est</w>
de -
d ri
at ti
at ori
ann oun
ac cid
R ole</w>
M ulti
He avily</w>
Ear th</w>
Di plomatic</w>
D ro
CONF.19 1</w>
CONF. 1995</w>
Arab s</w>
197 0</w>
14 5</w>
1048 5.</w>
1 24</w>
0 .
,5 00</w>
wa st
wast e</w>
up date</w>
trans mitting</w>
tain s</w>
t p</w>
signat ories</w>
sec tions</w>
rest oration</w>
remed ies</w>
on ally</w>
jun ction</w>
intro duction</w>
inj ury</w>
ing ton</w>
id n
ht tp</w>
h ington</w>
gener ously</w>
en i
di g
coun ter-
concep t</w>
con junction</w>
c ity</w>
b ing</w>
ag ing</w>
ag eing</w>
ad oles
a il</w>
Was hington</w>
Rep er
M a
Is su
F ren
E specially</w>
D on
200 0-
20 5</w>
2 51</w>
10 4</w>
vir us</w>
val idity</w>
v ements</w>
up t</w>
th ous
sunam i</w>
sh e</w>
ses sion
ric h</w>
radi o</w>
pro duce</w>
pri mar
primar ily</w>
pos es</w>
policy- making</w>
p ul
occa sion</w>
occ ur</w>
lar g
k idn
invest ments</w>
inter ference</w>
in juri
in ar</w>
impro vements</w>
gender- based</w>
exi sts</w>
er c
dispar ities</w>
cont acts</w>
community- based</w>
alloc ate</w>
accompan ied</w>
Sem inar</w>
Rights See</w>
Ne ighbour
F i
E. 8
Dro ught</w>
D. C.</w>
Conc iliation</w>
9 8</w>
8 3rd</w>
23 2</w>
1 50</w>
1 25</w>
- General</w>
z ing</w>
w r
wr itte
writte n</w>
vers e</w>
us te
s mo
rel im
relim inary</w>
read ing</w>
prepar ing</w>
ment ally</w>
long er</w>
histor ical</w>
dic ate</w>
d ed</w>
contin ental</w>
colon ialism</w>
collabor ative</w>
collabor ate</w>
chil d
bec ause</w>
at forms</w>
analy tical</w>
ak ar</w>
ag e-
ach ing</w>
ac ad
Prac tices</w>
Pr actice</w>
Nuclear- Weap
L egisl
Issu es</w>
Ex peri
D akar</w>
C ertification</w>
970- 973.</w>
88 th</w>
24 5</w>
24 0</w>
2 50</w>
199 0
19 54</w>
virtu e</w>
under s
trans boundary</w>
te st</w>
sub paragraph</w>
statis tical</w>
s pread</w>
ri ch
resum ption</w>
repres enting</w>
reg is
re m
re au</w>
r aries</w>
prison ers</w>
pre am
p reliminary</w>
or ally</w>
op tim
loc ated</w>
l ong</w>
k e</w>
initi ate</w>
h y
fifty- fifth</w>
fea sible</w>
ex t
en act</w>
cost- effective</w>
consider ations</w>
complement arity</w>
comple mentary</w>
comm odities</w>
cl ar
c anc
Vic ti
H ave</w>
Experi encing</w>
Comm uni
Com pl
Al li
Ad vis
A vail
A bu
3 5
2 12</w>
19 55</w>
17 9</w>
17 2</w>
14 7</w>
wrong ful</w>
to ok</w>
staff ing</w>
pled ged</w>
peri o
perio dic
per form</w>
pap ers</w>
od ology</w>
neighbour ing</w>
mis use</w>
meth odology</w>
m ation</w>
kidn apping</w>
in puts</w>
hom es</w>
gr ant</w>
g rati
f requ
exc essive</w>
e- based</w>
commen d</w>
author izes</w>
ad ap
Victi ms</w>
Par ticul
Neighbour ing</w>
N arcotics</w>
Inter- Parliamentary</w>
Ex erc
Era dicate</w>
Elim inate</w>
D a
CO P</w>
Ac cord</w>
2 49</w>
2 48</w>
198 4</w>
19 9</w>
1 55</w>
1 29</w>
sur plus</w>
suff er</w>
sub mitting</w>
safegu ard</w>
resid ence</w>
produc t</w>
persist ent</w>
n ants</w>
link ages</w>
indu stri
high li
forty- third</w>
forty- sixth</w>
form at</w>
e- year</w>
dro me</w>
detri mental</w>
b arri
att ach
ad h
Volun te
Rwand an</w>
Pl enary</w>
P act</w>
M at
Exerc ise</w>
CC W</w>
An gu
Ad op
9 3</w>
20 7</w>
20 3</w>
2 25</w>
2 106</w>
18 5</w>
17 5</w>
16 5</w>
13 3</w>
1 1.</w>
z e</w>
ttl ement</w>
ter acy</w>
ten d</w>
system atically</w>
syn drome</w>
reas ons</w>
re pe
prec ed
paren ts</w>
on- oriented</w>
no tably</w>
m obility</w>
injuri es</w>
hou sing</w>
guid ing</w>
fl ag
expres s</w>
exped ite</w>
end s</w>
duc t</w>
dis pos
deteri oration</w>
coun ter
contain s</w>
ari ties</w>
a k</w>
Sup pression</w>
Sup press</w>
P unish</w>
N i
Fre e</w>
Con duct</w>
C er
Avail able</w>
Advis er</w>
AC. 105</w>
49 7</w>
2 19</w>
19 48</w>
1 30</w>
w all</w>
tl antic</w>
thous ands</w>
su per
siz ed</w>
sec uring</w>
s k
ro les</w>
remun eration</w>
rec ur
re commend</w>
r ation
over due</w>
organiz ing</w>
or al</w>
n ation</w>
mor atori
moderni zation</w>
m ach
mach in
gra du
fl exi
fin ding</w>
fic ial</w>
f issile</w>
ex ports</w>
evalu ate</w>
elabor ate</w>
doc tr
dec reas
corr upt</w>
clar if
bor ne</w>
b reach</w>
aud i
adv ancing</w>
accep t</w>
Wh ich</w>
Weap ons
Legisl ative</w>
Hel en
H ol
Director -General</w>
Cer tain</w>
C ities</w>
Angu ill
A tlantic</w>
26 6</w>
2 11</w>
1 19</w>
1 17</w>
1 13</w>
,6 00</w>
w ly</w>
un its</w>
substanti ally</w>
su itable</w>
stoc kpiling</w>
sol em
regim es</w>
reat ly</w>
re productive</w>
re imb
reimb ur
re al</w>
prof ound</w>
pro sperity</w>
pl atforms</w>
par liamentary</w>
or ph
mis sing</w>
lib raries</w>
juri ous</w>
in ad
id ly</w>
guid e</w>
grati tude</w>
g reatly</w>
flexi ble</w>
ev olving</w>
enti ty</w>
el l
di vi
de tained</w>
cri ses</w>
ces sively</w>
c ope</w>
bene ficial</w>
alleg ed</w>
ag g
S te
R econ
Particul arly</w>
Independ ent</w>
In jurious</w>
In discriminate</w>
Ex cessively</w>
De emed</w>
Anguill a</w>
AC. 109</w>
26 5</w>
20 1</w>
17 0</w>
15 41</w>
1 54</w>
1 14</w>
ul timate</w>
te am
shel ter</w>
rec ently</w>
read iness</w>
previ ously</w>
pres entation</w>
precur sors</w>
por te
od- neighbour
ob tain</w>
o gni
le arning</w>
land mines</w>
infec tious</w>
im pose</w>
gender- sensitive</w>
eas ed</w>
desi re</w>
der og
cred itors</w>
broad en</w>
b rid
b re
b ir
associ ations</w>
agg reg
Z one</w>
XX IX</w>
Som ali</w>
Regul ar</w>
Rec ogni
M i
Helen a</w>
Compl iance</w>
Amer ic
Add. 1-
28 3</w>
197 4</w>
19 .</w>
17 7</w>
14 4</w>
13 4</w>
v ast</w>
ur ging</w>
un authorized</w>
team s</w>
struc turing</w>
st age</w>
rese ttlement</w>
reg ards</w>
re ad</w>
rap porte
rap idly</w>
pursu ed</w>
procl am
proclam ation</w>
pro mul
promul g
ph ases</w>
p unish
ord er
op position</w>
occur red</w>
objec tivity</w>
negoti ated</w>
n ul
mean ing
juven ile</w>
indic ated</w>
imped e</w>
hin der</w>
gres sion</w>
emocrac ies</w>
ellow ship</w>
effici ently</w>
dra wing</w>
consist ency</w>
communic ate</w>
collec ting</w>
cle arly</w>
circul ate</w>
ar ily</w>
aim ing</w>
acceler ated</w>
UN E
Off enders</w>
Fren ch</w>
E.96.IV. 8</w>
Contribu tions</w>
Consid er</w>
C iti
Bu reau</w>
B er
6- 12</w>
6 2nd</w>
3 7
26 25</w>
24 1</w>
2 61</w>
14 2</w>
z ed</w>
vulner abilities</w>
volunte ering</w>
urg ed</w>
un sustainable</w>
um ping</w>
sch ol
s k</w>
re ars</w>
plur alism</w>
per mitted</w>
pa ying</w>
og is
meaning ful</w>
livelih oods</w>
kill ings</w>
is ed</w>
id ing</w>
fulfill ing</w>
forty- fifth</w>
f t</w>
dispos al</w>
dig ital</w>
contro ls</w>
cal end
c essation</w>
by- catch</w>
ar rears</w>
analy se</w>
all ing</w>
ac tu
ab duction</w>
UNE P</w>
RE M
Migr ant</w>
L im
In alienable</w>
Fre ed
Citi zens</w>
6 6th</w>
28 6</w>
,7 00</w>
, 100</w>
w ar
tri al</w>
top ic</w>
si m
sen als</w>
sem bl
s on
ro ph
re unification</w>
pursu ance</w>
prosecu te</w>
proc essing</w>
perspec tives</w>
on- Free</w>
oc al</w>
objec ts</w>
non- strategic</w>
n omin
manag ing</w>
m ess
l ine
inter sessional</w>
inci tement</w>
forty- fourth</w>
discus s</w>
d uration</w>
citi zens</w>
calend ar</w>
broad -based</w>
ar senals</w>
V ED</w>
T A
South- East</w>
S ol
REM O
REMO VED</w>
Nuclear-Weap on-Free</w>
Multi lateral</w>
Mat ters</w>
M ine</w>
Cha ir</w>
B ack</w>
Alli ance</w>
3 38</w>
1 21</w>
,8 00</w>
y- related</w>
whe re
w to
uni fied</w>
thir tieth</w>
ta bl
st ress</w>
son line
requ is
requis ite</w>
referend um</w>
p act</w>
offic ers</w>
off enders</w>
o th</w>
num bers</w>
multi ple</w>
mp tion</w>
mov ements</w>
lim itations</w>
lim it</w>
j a</w>
it ude</w>
ind ab
in herent</w>
forth coming</w>
err ing</w>
equiv al
eni potenti
en coun
el indab
e te</w>
doc sonline
den ial</w>
deb t-
cycl e</w>
cust om
broad er</w>
adjust ments</w>
Wor kers</w>
Tr uste
Ste ering</w>
R ol
P elindab
Mi gratory</w>
Aff ec
AC. 198</w>
6 7
203 78.</w>
2000- 2001</w>
20 9</w>
2 31</w>
198 3</w>
14 3</w>
1 61</w>
1 2.</w>
ven ues</w>
trans action</w>
ti veness</w>
tabl es</w>
st ant</w>
smo oth</w>
si ted</w>
sh own</w>
s tics</w>
respon sive</w>
promo ted</w>
particip atory</w>
pan el</w>
ou se</w>
on wealth</w>
occur rence</w>
missi les</w>
man age</w>
main tained</w>
l ies</w>
it oring</w>
invi ting</w>
fin alize</w>
fif tieth</w>
experi enced</w>
ep id
enipotenti aries</w>
docsonline .
docsonline. wto
differen ti
di re</w>
design ate</w>
depo sited</w>
d y
coordin ator</w>
characteri stics</w>
cer ti
c oura
at tend</w>
arbitr ation</w>
ar ding</w>
appreci ates</w>
ag n
adoles c
adh ere</w>
acti on-oriented</w>
ab ol
X II</w>
Rol l</w>
Mon itoring</w>
M ain</w>
Investig ate</w>
Effec tive</w>
E.9 4
Comm onwealth</w>
Affec ting</w>
Adop ted</w>
Abu ja</w>
6 7th</w>
6 34</w>
5 29</w>
200 0
1 26</w>
1 18</w>
1 15</w>
wish ing</w>
w ri
th ing</w>
teri ological</w>
sugg estions</w>
st roph
shel f</w>
ser t</w>
regre ts</w>
re present</w>
re ction</w>
re alize</w>
ou gh</w>
on om
od y</w>
o to</w>
missi bility</w>
mar ks</w>
in security</w>
guarante es</w>
gener ate</w>
g ran
g ain
ful ness</w>
fin d</w>
fi v
en rich
eligi ble</w>
du al-
dual- use</w>
doctr ines</w>
devo te</w>
determin ing</w>
de -related</w>
cust ody</w>
con su
c op
barri ers</w>
au tical</w>
ata stroph
appro ve</w>
an -
all ow
air o</w>
ag gression</w>
adv ances</w>
ac teriological</w>
ab uses</w>
a A</w>
Y outh</w>
Volunte ers</w>
Vice- Chairperson</w>
Provi sions</w>
F CC
FCC C</w>
Don or</w>
D em
C airo</w>
Asi a-
Ar m
Anti- personnel</w>
3 00</w>
2 55</w>
13 .</w>
12 49</w>
1 53</w>
x enophob
xenophob ic</w>
up d
upd ating</w>
under mine</w>
un ci
twenty- sixth</w>
tra di
ten -year</w>
tech ni
sti pul
so ever</w>
sev enty-
sec ond
ro wing</w>
re par
re p
port ation</w>
outl ine</w>
mor al</w>
machin ery</w>
ish ing</w>
ir y</w>
inter active</w>
g aps</w>
fo rese
f ourteenth</w>
emb ar
disappe arances</w>
dis ease</w>
dec ade</w>
d ed
collec tively</w>
asyl um-
accord ed</w>
XX X</w>
X IV</w>
W T</w>
S olidarity</w>
S G
SG B</w>
Promo te</w>
N ations
High ly</w>
C P</w>
29 6</w>
1990 s</w>
19 6</w>
13 8</w>
13 5</w>
v es
ul a</w>
u tes</w>
thou gh</w>
th or
success or</w>
seg ments</w>
se ized</w>
sal ary</w>
safegu arded</w>
rul e-based</w>
resum e</w>
requ iring</w>
rene ws</w>
rem nants</w>
produc ing</w>
pr int</w>
order ly</w>
marri age</w>
margin alization</w>
inte llectual</w>
initi ated</w>
in tly</w>
imped ing</w>
i on
hy dro
further ing</w>
func tional</w>
fra g
f ound</w>
f a
explo sions</w>
exp anded</w>
exc eeding</w>
endor sement</w>
emor and
emer gence</w>
di rection</w>
defin ition</w>
d es</w>
contin gency</w>
con tain</w>
cl aim</w>
c atastroph
au t
ati vely</w>
associ ate</w>
as set</w>
XX VI</w>
R C</w>
Pro ject</w>
Ni ñ
N eg
Ky oto</w>
7 2nd</w>
5 7th</w>
26 7</w>
18 6</w>
13 73</w>
10 -
val id</w>
v oc
voc ational</w>
tu tion</w>
su peri
stud ents</w>
sel ling</w>
ro r</w>
retur ning</w>
res cent</w>
re structuring</w>
rati fications</w>
qualif ied</w>
ph ased</w>
oc ation</w>
obstac le</w>
non- use</w>
ne ws</w>
ne ts</w>
mal nutrition</w>
jo intly</w>
ip al
ipal atin
ipalatin sk</w>
inter ven
ge -scale</w>
ext ending</w>
ep tion</w>
environ mentally</w>
en su
draf ting</w>
diam ond</w>
del iv
dang erous</w>
d umping</w>
conc ili
cogni z
cl us
burden s</w>
al ong</w>
acad emic</w>
Thir ty-
Sol ar</w>
Sem ipalatinsk</w>
S- 26</w>
Pol ic
L and</w>
E ight</w>
Declaration A</w>
Coun try</w>
C rescent</w>
C oll
7 0
2 62</w>
17 6</w>
10 3</w>
1 56</w>
x in</w>
wee ks</w>
w ed</w>
vol can
univers ally</w>
und ue</w>
twenty- seventh</w>
sm all
s ure</w>
ri se</w>
psych otropic</w>
pro tocol</w>
pro hibit</w>
persi stence</w>
lar ge-scale</w>
in qu
hol istic</w>
gran ted</w>
go od-neighbour
fo rests</w>
dev ast
conf ron
canc ell
c easefire</w>
c are
bir th</w>
adv anced</w>
Truste es</w>
Or gans</w>
Fo reign</w>
F ound
Con stitu
Asia- Pacific</w>
A P
2 58</w>
17 4</w>
16 6</w>
14 0</w>
13 7</w>
wri ting</w>
welcom ed</w>
vac ancy</w>
unders co
un equiv
unequiv ocal</w>
un accompanied</w>
ul t</w>
tri b
t ud
t ting</w>
sup pression</w>
spec ies</w>
sc our
sav ings</w>
pri or
pl ann
plann ed</w>
pap er</w>
orr o</w>
o ti
ner gies</w>
moratori um</w>
mo ve</w>
mo di
mis es</w>
m illennium</w>
it ative</w>
ir respective</w>
inad missibility</w>
in stances</w>
i um</w>
gra v
g l
foc using</w>
feren c
f air
excep t</w>
enjo y</w>
discipl ines</w>
dis aggreg
develop ment
decid e</w>
cor responding</w>
confir med</w>
compan ies</w>
cas h</w>
c reas
c over</w>
back ground</w>
atti tud
attach ed</w>
ambi a.</w>
ag grav
adj usted</w>
Z ambia.</w>
Wh ite</w>
Mon t
In creas
Ham mar
F riendly</w>
Cham orro</w>
Ca y
CONF. 206</w>
26 9</w>
2005- 2015</w>
19 5</w>
19 51</w>
18 8</w>
1 48</w>
1 12</w>
ö ld</w>
undersco res</w>
tre ated</w>
tradi tions</w>
t ob
succ essive</w>
sk j
skj öld</w>
s ent
rapporte urs</w>
qu es</w>
posi tively</w>
num erous</w>
n autical</w>
launch ing</w>
larg er</w>
itu al</w>
im pa
h old
gener ation</w>
ge ar</w>
f er
exten sion</w>
eng aging</w>
encoun tered</w>
em an
elec ommuni
eh ic
e es</w>
e astern</w>
contin ent</w>
condem nation</w>
compar able</w>
comm emor
attain able</w>
asylum- see
am muni
adolesc ents</w>
T elecommuni
St and
Promo ting</w>
Non- Violence</w>
Mont ser
Mig rants</w>
Hammar skjöld</w>
Fam ilies</w>
F oll
En h
Da g</w>
Conven tion
29 5</w>
17 8</w>
0 1</w>
- oriented</w>
us ers</w>
up hold</w>
uni t</w>
um ul
telecommuni cations</w>
techni ques</w>
stre am
selec tivity</w>
schol ar
re orientation</w>
proc eed</w>
pay ments</w>
par amount</w>
os a
o ting</w>
multilater ally</w>
moder n</w>
min ority</w>
mill ions</w>
mak es</w>
ma tely</w>
m os
m ort
lia ison</w>
lev i
laun ch</w>
l end</w>
hel ping</w>
ful l-
fiv e-year</w>
extra ordinary</w>
esti al</w>
endang er</w>
emphasiz e</w>
em ics</w>
disc ards</w>
disaggreg ated</w>
differen ces</w>
dep riv
data base</w>
consi sting</w>
cancell ation</w>
bel ow</w>
assur ances</w>
appropri ated</w>
all owing</w>
acqu iring</w>
Neg oti
Mo on</w>
L evel</w>
Inte gr
Found ation</w>
Antarc tic</w>
199 6-
13 6</w>
1 49</w>
. 5</w>
,9 00</w>
work lo
tra gic</w>
to -
thir teenth</w>
superi ority</w>
st ar
sol ving</w>
sla very</w>
sh ort
s phere</w>
riend ship</w>
red ress</w>
re pl
re convene</w>
pris on</w>
pos ses
polic y
op tion</w>
no thing</w>
n ine</w>
n ar
n amic</w>
mone tary</w>
mal ari
l es
ir rever
ion izing</w>
in sert</w>
in equality</w>
in consistent</w>
ic als</w>
heal th-
g rants</w>
g ranting</w>
frag ile</w>
exerc ised</w>
em is
dy namic</w>
design ation</w>
decla res</w>
deal t</w>
cur bing</w>
coun selling</w>
concep ts</w>
col our</w>
cogniz ant</w>
cal cul
c ture</w>
budge ts</w>
b ack</w>
av ana</w>
attitud es</w>
appor tioned</w>
acc umul
abl es</w>
a ver
a th
T ex
S R
Pl enipotentiaries</w>
Niñ o</w>
Montser ra
H avana</w>
Ex plo
Disas ters</w>
Dis abilities</w>
Comm on</w>
C B
CB D</w>
B ase</w>
9- 20</w>
8 7th</w>
23 9</w>
2 54</w>
197 5</w>
19 2</w>
16 8</w>
15 .</w>
,3 00</w>
un lawful</w>
ty pe</w>
twenty- second</w>
transf erred</w>
tal ks</w>
st ab
sim pl
riti sh</w>
reti rement</w>
rest ore</w>
res h
repar ation</w>
ra ted</w>
perform ing</w>
pand emic</w>
p unish</w>
off ered</w>
n ine
n esses</w>
min ds</w>
margin alized</w>
m agn
magn itude</w>
ite cture</w>
i ii</w>
i an</w>
h emis
glob alizing</w>
form ally</w>
fi ghting</w>
fac ts</w>
ex posed</w>
ex clud
end um</w>
emorand um</w>
e ight</w>
e an
divi de</w>
dis pat
di es</w>
d ow
commod ity-
com pri
ch ann
cam ps</w>
c asu
casu al
ber y</w>
beli efs</w>
at ural</w>
asylum-see kers</w>
add endum</w>
XX II</w>
Th ose</w>
Stra ddling</w>
St ud
S m
Pl anning</w>
N atural</w>
I- III</w>
Her itage</w>
F und
E m
E .</w>
Dec .
B ritish</w>
Arm y</w>
A mend
A ir</w>
275 31</w>
24 7</w>
24 .</w>
2 24</w>
2 23</w>
1996- 2005</w>
1- S</w>
,4 00</w>
w as
was tes</w>
ul ts</w>
two- State</w>
twenty- fifth</w>
tow n</w>
there after</w>
te sting</w>
t al</w>
su ffe
suffe red</w>
st op</w>
st ages</w>
ser ies</w>
schem e</w>
s A</w>
ro g
resi lience</w>
resh water</w>
r up
propos e</w>
promo tes</w>
priv ileges</w>
pil ot</w>
periodic ally</w>
pec t</w>
p ass
op les
non- selectivity</w>
manag ers</w>
m idd
initi ation</w>
infec tion</w>
h and</w>
forty- seventh</w>
equival ent</w>
dis man
depriv ation</w>
de pl
contribu tors</w>
coer ci
coerci on</w>
char ged</w>
cap able</w>
broad c
bor rowing</w>
ba tes</w>
arch itecture</w>
am p
al though</w>
a red</w>
Y a
Telecommuni cation</w>
Sta te
Sm uggling</w>
Sec t</w>
S- 24</w>
Re ports</w>
Radi oactive</w>
Peace building</w>
Montserra t</w>
Li a
Ap plications</w>
2002- 2005</w>
2 60</w>
2 52</w>
199 7-
199 3
16 3</w>
13 9</w>
.I. 18</w>
valu ation</w>
u tr
tri c</w>
time -
tic ally</w>
thir d
te ll
te levi
televi sion</w>
te aching</w>
tar ily</w>
sup press</w>
sub programme</w>
sid ential</w>
shar k</w>
schedul e</w>
ro us</w>
revie wed</w>
resul ts
repres ents</w>
recru ited</w>
recei ves</w>
pre mises</w>
por table</w>
ound é</w>
org an</w>
ne wly</w>
midd le-
middle- income</w>
mid term</w>
mer c
merc enary</w>
med ic
man- portable</w>
m ud
l legal</w>
l ining</w>
know -
k en</w>
it c
itc air
inten sive</w>
int enti
increas es</w>
im position</w>
group ings</w>
forty- ninth</w>
follow ed</w>
f ed
exam ining</w>
end emic</w>
elabor ating</w>
el ling</w>
del ete</w>
d imin
custom ary</w>
credi ble</w>
cour ts</w>
counter- terrorism</w>
coordin ators</w>
civ ilization</w>
chem icals</w>
cat aly
ar ise</w>
ap point</w>
ammuni tion</w>
al istic</w>
accord ingly</w>
absten tion</w>
abl ed</w>
a ug
Ya oundé</w>
Un der</w>
Tex ts</w>
R ound</w>
P itcair
Lia ison</w>
L C</w>
Inter- American</w>
Ind ic
I llegal</w>
Cay man</w>
Cap ital</w>
As sembl
8 4th</w>
4 6
30 3</w>
28 1</w>
196 3</w>
175 12</w>
0 7</w>
www. un
wid ening</w>
volcan ic</w>
v ehic
un employment</w>
tra ffic
tim es</w>
th ods</w>
t sunami</w>
sou ght</w>
solem n</w>
schedul ed</w>
rob bery</w>
rep rene
reduc ed</w>
publ ish</w>
prof es
preh en
paig n</w>
ou l
oper ation
ogis tics</w>
ne utr
min ent</w>
mar ked</w>
know- how</w>
intensi fied</w>
hol ds</w>
hemis phere</w>
gra ted</w>
glob ally</w>
forese en</w>
ent reprene
ec ological</w>
devast ating</w>
dest ro
cu tting</w>
cro p</w>
contr acts</w>
conc ur
com pu
cer pts</w>
casual ties</w>
broadc asting</w>
ascer taining</w>
ar ial</w>
allevi ating</w>
ak es</w>
acceler ating</w>
Twenty- first</w>
Sahar an</w>
Polic y</w>
Pe oples
Op inion</w>
Oc eans</w>
Mee tings</w>
Me thods</w>
G ender</w>
Ex cerpts</w>
E.97 .V.
E.97.V. 10</w>
Con tin
Comm unities</w>
Com pact</w>
Cam paign</w>
Ber mud
B rid
B acteriological</w>
Assembl y
An n
Add. 5</w>
9 1.</w>
3 4
2 2.</w>
197 2</w>
19 1</w>
- 28</w>
volun tarily</w>
vo id</w>
tr ack</w>
ti on-
ter ror</w>
survi val</w>
scour ge</w>
scholar ships</w>
s ports</w>
prior iti
prac tic
pos ing</w>
ow ever</w>
op ened</w>
nul l</w>
n ever</w>
li ability</w>
l- 6</w>
it ure</w>
inf ected</w>
incorpor ation</w>
im prison
im m
ic ated</w>
ha vi
h ur
h owever</w>
h ost
gl ish</w>
ge town</w>
fo oting</w>
emphasiz ed</w>
d er-
comp as
com prehen
co dification</w>
campaig n</w>
be havi
av y</w>
assi ve</w>
am es</w>
all istic</w>
Tra ffic</w>
S p
Re tur
Pitcair n</w>
M os
L ogistics</w>
J .</w>
En glish</w>
E.94 .I.18</w>
Dem and</w>
Brid getown</w>
Ba sic</w>
Apri l-6</w>
AP LC</w>
50 3</w>
5 4
39 4</w>
30 8
20 4</w>
2 28</w>
19 49
19 0</w>
15 0
vol s</w>
viol ate</w>
unci ation</w>
ti tution</w>
tell ite</w>
stipul ated</w>
sta in</w>
sp ace
shi p
serv ed</w>
ro ugh</w>
ric an
res titution</w>
regi onally</w>
red ou
reaffir mation</w>
reach es</w>
pre sidential</w>
pp ing</w>
ot onga</w>
osa fety</w>
open ness</w>
ob struc
noti fy</w>
non- compliance</w>
ner st
nation alities</w>
loc ally</w>
li teracy</w>
k -
imm unity</w>
h ome</w>
graph ic</w>
fi able</w>
en compas
en ch
ean ographic</w>
di verse</w>
develop mental</w>
desi rous</w>
de tain
de bates</w>
cross- cutting</w>
cor nerst
comp il
commodity- dependent</w>
co w</w>
co de</w>
bene fi
bas es</w>
b ench
attem pt</w>
ar otonga</w>
appl ies</w>
adj ac
adjac ent</w>
accoun ts</w>
acces sibility</w>
Tuni s</w>
Thir teenth</w>
S cience</w>
R eligi
R arotonga</w>
Moun tain</w>
Mos cow</w>
Im pro
F ourteenth</w>
Elec toral</w>
E.9 8
C el
Ac ts</w>
4 26</w>
3 6
1997- 2006</w>
with standing</w>
we a
w ish</w>
ves sel</w>
util ized</w>
tob er-
threat ening</w>
sup plement</w>
su stain</w>
sol id</w>
sign atory</w>
scho ols</w>
rever t</w>
regis tered</w>
recru it</w>
receiv ables</w>
reat y
radi ological</w>
propor tion
produc ed</w>
practic able</w>
pass age</w>
ous ness</w>
op ium</w>
o f-
mos phere</w>
mort ality</w>
l is
jud ge</w>
i ves</w>
hur rican
f ill</w>
ex ib
epid emic</w>
elabor ated</w>
el der
elder ly</w>
depend s</w>
decreas e</w>
d own</w>
cornerst one</w>
comple ted</w>
competi tiveness</w>
ca using</w>
burden -sharing</w>
bor n</w>
bo o
bene fici
back grounds</w>
b anning</w>
at taining</w>
at mosphere</w>
alloc ations</w>
alloc ated</w>
ak e</w>
aff ord</w>
ad mission</w>
XX VIII</w>
W id
V .</w>
Un der
T reaty
SR .
Pre sid
Oc tober-
N az
L us
Inte grated</w>
Ex pected</w>
Con struction</w>
Cel estial</w>
C. 6</w>
C ent
B ali</w>
67 -S</w>
6 5th</w>
4 7
33 48
29 2</w>
199 5-
18 4</w>
1 59</w>
. 8</w>
worklo ad</w>
wh om
vail ing</w>
util izing</w>
use fulness</w>
um p
trans actions</w>
til ation</w>
stoc kpil
stimul ate</w>
set tle</w>
sel ected</w>
second ary</w>
reli ance</w>
re vision</w>
re mp
re mit
qual itative</w>
qu o
pursu ing</w>
prov in
ow -up</w>
off ering</w>
non- State</w>
mu tilation</w>
m assive</w>
livelih ood</w>
is cal</w>
ili ated</w>
hos ted</w>
he avy</w>
harmon ize</w>
f riendship</w>
exam ple</w>
ex changes</w>
en lar
en ac
depl oring</w>
country- level</w>
cor al</w>
comprehen sively</w>
competi tive</w>
commenc ing</w>
colon ial</w>
co -
behavi our</w>
avo iding</w>
aut onom
att aches</w>
an im
amoun ts</w>
al ig
aff iliated</w>
accompl ish</w>
accid ental</w>
a qu
Un reported</w>
Un regulated</w>
T D</w>
Sub stances</w>
RE P</w>
N ation
Lus ak
Indic ators</w>
I d
Foll ow-up</w>
E.98 .V.
E.98.V. 11</w>
Con s
Bo dies</w>
Bermud a</w>
9 2nd</w>
50 8</w>
5 56</w>
4 43</w>
23 8</w>
2 30</w>
2 29</w>
1995- 2004</w>
17 71</w>
- raising</w>
& #
&# 9
wit nesses</w>
vo ters</w>
viol ating</w>
ven cy</w>
ugg le</w>
tr act</w>
thor ough</w>
tern s</w>
st all
sol vency</w>
sex ually</w>
res c
remo te</w>
remit t
reite rated</w>
re arms</w>
pre gn
policy making</w>
per secution</w>
p as
ow ners</w>
ow ned</w>
ow ards</w>
over coming</w>
olu te</w>
o il</w>
negoti ate</w>
multi lingu
multilingu alism</w>
mo del</w>
mess age</w>
ment ation
me ts</w>
lib rary</w>
l ines</w>
justi fied</w>
jo in</w>
itig ation</w>
interven tions</w>
institu tes</w>
indi rec
incorpor ating</w>
in ent</w>
hi st
he ad</w>
gres ses</w>
fund ed</w>
fl exib
fea sibility</w>
exerc ising</w>
ex ac
exac er
enrich ment</w>
en acting</w>
em oration</w>
em inent</w>
ed i
e ment
e See</w>
dra w</w>
disappe ared</w>
detri ment</w>
deplo yed</w>
de ple
consu mption</w>
ci ties</w>
chann els</w>
cha ir
bu re
becom es</w>
be gin</w>
b ular</w>
ak o</w>
Un der-
UN C
T owards</w>
Sub .2</w>
P a
Offic er</w>
Oc eanographic</w>
L if
I. C.
I.C. J.</w>
G ames</w>
Declaration Report</w>
De b
Child United</w>
Ch allen
Cap ac
CN .
C red
Al -
A H
58 3</w>
5 10</w>
4 5.</w>
4 4
29 0</w>
19 3</w>
1 .IX
y o</w>
y ers</w>
welcom e</w>
volunte er
v ill
ur ge</w>
under represented</w>
thir ds</w>
th y</w>
targe ting</w>
ta ge</w>
t ane
sych otropic</w>
suffic i
su sp
si veness</w>
remov ing</w>
reflec ting</w>
recei pt</w>
re venues</w>
re ci
pur ch
public ity</w>
public -
proper ly</w>
preser ving</w>
pream bular</w>
pre fer
prefer ably</w>
pre clud
pr one</w>
ph arm
pharm ace
pharmace u
perpetra ted</w>
pat terns</w>
min ors</w>
medi ation</w>
me asu
link age</w>
lin ess</w>
l ow</w>
inter religious</w>
indic ate</w>
in stall
in put</w>
histor ic</w>
health- care</w>
hal ve</w>
guarante ed</w>
fra me</w>
for tieth</w>
fed eral</w>
expend iture</w>
ex changing</w>
even tual</w>
enti als</w>
e- 17</w>
discus sed</w>
dest ab
deplo ying</w>
depart mental</w>
con gresses</w>
ch ed</w>
broad ening</w>
allevi ation</w>
alleg ations</w>
ac commod
X VIII</w>
W ater</w>
Under- Secretary-General</w>
Tok yo</w>
T ru
T T</w>
S- 27</w>
Recon struction</w>
R em
P sychotropic</w>
M SP
Jun e-17</w>
Id entif
I V.
G A
GA TT</w>
Fac ilit
En forced</w>
E.02 .I.
E.02.I. 5</w>
E.0 0
Dis appe
Child Resolution</w>
Bu il
50 9</w>
4 63</w>
28 7</w>
27 5</w>
1- 3</w>
- to-
withdra wing</w>
volunte er</w>
up grading</w>
ulti mately</w>
tri ennial</w>
tim acy</w>
stakehold er</w>
sev e
seve rely</w>
sequ ences</w>
sec ti
res cue</w>
rel atives</w>
ref oul
reci proc
ra ble</w>
punish ed</w>
pres sing</w>
pos session</w>
plac ing</w>
per tin
non- intervention</w>
legi timacy</w>
land -based</w>
inter cultural</w>
institu tion</w>
inc ur
in secti
ig ence</w>
ic os</w>
har d
forty- second</w>
formul ated</w>
fish ery</w>
favoura bly</w>
fair ness</w>
ess or</w>
er ial</w>
environ ments</w>
en e</w>
docsonline.wto .org.</w>
diversi fying</w>
de ad
cover age</w>
continu ity</w>
condem ning</w>
cent red</w>
ation A</w>
at tracting</w>
ascer tained</w>
announ ced</w>
am ako</w>
abs olute</w>
X III</w>
X III.
Weapons United</w>
Tur ks</w>
S port</w>
Ph ysical</w>
P ur
Ob jects</w>
N F</w>
Inte llectual</w>
Hel mets</w>
E.8 1.IX
E.81.IX .4</w>
D -
Constitu tional</w>
Con sequences</w>
Comm itte
Ca icos</w>
Bud get</w>
B amako</w>
Americ as</w>
Amend ed</w>
AH G</w>
87 1-S</w>
5- 13</w>
30 6
3 18</w>
26 8</w>
ã o</w>
wea ther</w>
w ill
vi sible</w>
un condi
th an
tack le</w>
t withstanding</w>
su spec
str uggle</w>
si mul
shi pping</w>
shar ks</w>
s ory</w>
s ens
redou ble</w>
proper ties</w>
prohibi ting</w>
prohibi ted</w>
profes sion
pre dec
popul ar</w>
p uni
o xin</w>
norm al</w>
no twithstanding</w>
multi- stakeholder</w>
multi dimen
mand u</w>
m ate</w>
it y
inform ation
inc enti
incenti ves</w>
in sufficient</w>
i stra
gra de</w>
gener ated</w>
gen ital</w>
ferenc e-
fam il
f our
every where</w>
esti mate</w>
emplo y
educ ators</w>
dec ent</w>
constitu tion</w>
co des</w>
ban king</w>
av ail</w>
author ize</w>
ath mandu</w>
anti cip
advanta ges</w>
Wid er</w>
T oxin</w>
Sou thern</w>
S ão</w>
S ig
Respon se</w>
Res cue</w>
Reper tory</w>
Pelindab a</w>
Pa ul
Min orities</w>
K athmandu</w>
Govern or</w>
Freed om</w>
Fifty- second</w>
Fi eld</w>
F u
E valuation</w>
Cri me
Challen ges</w>
Bi osafety</w>
Ann ual</w>
Action Report</w>
A rea</w>
90 th</w>
8 0
60 6</w>
4 62</w>
28 5</w>
197 1</w>
- setting</w>
volunteer ism</w>
vo ice</w>
v acc
un explo
unexplo ded</w>
ump ur</w>
tri ang
triang ular</w>
transl ate</w>
trans formation</w>
to ire</w>
tion- building</w>
the ast</w>
sy nergies</w>
success fully</w>
ste tric</w>
simul tane
safegu arding</w>
s uring</w>
ro utes</w>
ro o
reserv ation</w>
res er
repres sion</w>
rel eased</w>
re tention</w>
ran ch</w>
qu anti
prec au
pre vailing</w>
pertin ent</w>
particip ated</w>
over view</w>
op ard
om b
neighbour s</w>
n arcotics</w>
multidimen sional</w>
mo ment
moment um</w>
mar gin</w>
long -
j e
je opard
intensi fication</w>
information -sharing</w>
in discriminate</w>
hal t</w>
good-neighbour liness</w>
gol ese</w>
flexib ility</w>
fa ith
f ate</w>
exacer b
el ine</w>
econom ically</w>
e br
e A</w>
docu mented</w>
dis proportion
dis cre
di ff
cur b</w>
cu rement</w>
cri ption</w>
concur rence</w>
con ten
complement arities</w>
comm emoration</w>
clarif y</w>
budge ting</w>
brid ging</w>
b ul
al er
actu arial</w>
XIII. 18</w>
X VI</w>
Sou theast</w>
S ources</w>
Reper toire</w>
Regi stration</w>
Pro curement</w>
P- 4</w>
Off ensive</w>
Land -based</w>
L umpur</w>
Ku ala</w>
En suring</w>
En coura
E.9 5.
E.95. XIII.18</w>
Cred entials</w>
Con golese</w>
Cent ury</w>
Buil ding</w>
B W
60 2</w>
6 67-S</w>
5 59</w>
27 2</w>
25 45.</w>
200 3
1949 United</w>
17 60</w>
12 A</w>
10 71</w>
x .</w>
w ar-
viron mental</w>
ver ing</w>
under tak
undertak ings</w>
under st
u tion</w>
u ri
trans mission</w>
trac ted</w>
tl ement</w>
time- bound</w>
tack ling</w>
stric ken</w>
st ur
sp ou
spou ses</w>
signat ures</w>
scho ol</w>
schem es</w>
s ci
ri sing</w>
retur ns</w>
res ort</w>
rais ed</w>
pow ers</w>
pled ges</w>
per c
part ner</w>
orph ans</w>
on o</w>
off ender</w>
ob stetric</w>
min ing</w>
low -
lo g</w>
justi fy</w>
institu tion-building</w>
influ ence</w>
im posing</w>
g m
fra mes</w>
forty- eighth</w>
fore mentioned</w>
f it</w>
f iscal</w>
extre m
extra d
exc eed</w>
ero sion</w>
elim itation</w>
dis closure</w>
di stur
di plom
dev ise</w>
desira ble</w>
den unciation</w>
cro ps</w>
contro ll
consequ ent</w>
compl ain
cho ose</w>
certi fic
cel ebr
back log</w>
at tained</w>
appendi x.</w>
a forementioned</w>
St .</w>
Paul o</w>
P ort</w>
Moun tains</w>
M itigation</w>
M S
Lusak a</w>
J u
H ost</w>
En vironmental</w>
Dis pu
Ar bitr
Ab use</w>
8 2nd</w>
49 9</w>
4 59</w>
39 1</w>
3 -S</w>
27 6</w>
26 4</w>
200 4
196 8</w>
19 07</w>
10 .</w>
wh at</w>
tren d</w>
tion ally</w>
th qu
th ly</w>
sur ance</w>
stockpil es</w>
stoc k</w>
st ula</w>
sev en
scho ol
sc al
roo ts</w>
ren ew</w>
remitt ances</w>
re di
ra k
pri ces</w>
predec essor</w>
pon ents</w>
par ity</w>
mon thly</w>
mitig ating</w>
mil es</w>
medium -
medic ines</w>
malari a-
low est</w>
low er</w>
law yers</w>
kill ing</w>
imprison ment</w>
imb al
ilit y-
hou se
host age-
hostage- taking</w>
hist ory</w>
he art</w>
h ood</w>
gener ally</w>
fl oods</w>
ference- servicing</w>
ensu res</w>
eman ating</w>
eg e</w>
dispat ch</w>
de ter</w>
de an</w>
cust oms</w>
cor rec
cont act</w>
constitu ted</w>
connec ted</w>
con ver
con ference-servicing</w>
clus ter</w>
cl assi
cl aims</w>
citi z
cas ters</w>
c ing</w>
broad casters</w>
bil ization</w>
author ization</w>
aud ited</w>
au x</w>
att ending</w>
att ack</w>
at tribu
at tain</w>
at ro
assur ance</w>
assign ments</w>
arma ment
am per
ali ke</w>
affir med</w>
advoc acy</w>
add ed</w>
accep ting</w>
Women Resolution</w>
W all</w>
UNC TA
UNCTA D</w>
U r
Sta bilization</w>
S hi
Rest ored</w>
Regi on</w>
Re si
Preven ting</w>
Peoples .</w>
P oll
Minis ter</w>
F ono</w>
F ellowship</w>
Ex tra
E.97 .IV.
E.97.IV. 6</w>
D emocracies</w>
Coll ege</w>
Antarc tic
An dean</w>
40 2</w>
4 3
3 12</w>
27 9</w>
26 .</w>
23 .</w>
200 1
19 61</w>
. 6</w>
vig or
v ors</w>
v ail</w>
ug e</w>
ub er
uber culosis</w>
tro op</w>
third -
them es</w>
te or
teor ological</w>
sym posi
supple mentary</w>
super vision</w>
suffici ently</w>
st art</w>
sol e</w>
sh ore</w>
sc ene</w>
s our
ris k-
rin dis
rindis i</w>
regi stry</w>
refoul ement</w>
re vi
re port
re alized</w>
r ant</w>
qu é</w>
provin cial</w>
pre vail</w>
pr acti
pharmaceu tical</w>
our selves</w>
or bit</w>
op in
off shore</w>
nor thern</w>
neg lec
neglec t</w>
multi ling
multiling ual</w>
mis t</w>
man aged</w>
li sts</w>
l ic
l ate</w>
jec tion</w>
innov ations</w>
frequ ently</w>
flag rant</w>
extre mist</w>
explo it</w>
eth ical</w>
es See</w>
encoura gement</w>
enac tment</w>
el ess</w>
el ag
elag ic</w>
e ted</w>
dri f
distribu ted</w>
dete ction</w>
detain ees</w>
debt- servicing</w>
data bases</w>
d ical</w>
c il
bench marks</w>
b reaches</w>
assu med</w>
arch ives</w>
announ c
acc redi
acc ord</w>
ab u
Tru ce</w>
T uberculosis</w>
Se arch</w>
Respon sibility</w>
Resi lience</w>
Portug u
P V.
Ne ws</w>
Mar rak
M us
Ira q
Increas ed</w>
Explo itation</w>
Dis placement</w>
Cons olid
Communi cations</w>
Ch ri
BW C</w>
B rindisi</w>
Add. 4</w>
5 2nd</w>
5 .II.A
4 78</w>
27 4</w>
24 6</w>
2 2
13 25</w>
0 .7</w>
whom soever</w>
wh om</w>
vo ting</w>
tu red</w>
tion ary</w>
thirty- fifth</w>
there to
ten sions</w>
ta x</w>
star ting</w>
ss- roots</w>
sol ve</w>
se ments</w>
ro und
remp ha
rempha sized</w>
rel ates</w>
rel ate</w>
reflec ts</w>
red itation</w>
po o
pir acy</w>
peri ods</w>
pen al</w>
particip ant</w>
p op
ove remphasized</w>
our se</w>
oll ar</w>
o dol
odol ogies</w>
n ationally</w>
meth odologies</w>
medium- sized</w>
malaria- endemic</w>
loo king</w>
la id</w>
l at
lat ter</w>
juri dical</w>
it or</w>
istra tor</w>
is es</w>
incur red</w>
in stability</w>
imped i
human e</w>
hold ers</w>
gra ss-roots</w>
fur ni
full- scope</w>
fre e
facilit ated</w>
f are</w>
enti ally</w>
enforc ing</w>
em orial</w>
detail s</w>
desi st</w>
demonstra ted</w>
ded icated</w>
dec line</w>
d ollar</w>
cy ber
contr actual</w>
confid ential</w>
con tra
compl ex
cen tage</w>
celebr ation</w>
cataly tic</w>
calcul ated</w>
broad ly</w>
b ri
audi ences</w>
at al</w>
appreci ating</w>
all s</w>
al ist</w>
accredi ted</w>
acc reditation</w>
Stud y</w>
S ystems</w>
Presid ents</w>
K i
J ud
Inv est
Hol y</w>
High -L
High-L evel</w>
Deb t</w>
Coord inating</w>
Comm ercial</w>
Cham bers</w>
C P
Ap pe
Antarctic a</w>
Ag encies</w>
68 .</w>
4 12</w>
306 19.</w>
28 2</w>
26 -28</w>
2000 See</w>
200 5
200 2
2 57</w>
197 6</w>
1 29
vi du
v er</w>
underl ined</w>
under mining</w>
un safeguarded</w>
un represented</w>
u sion</w>
there from</w>
termin ation</w>
tar if
tarif f</w>
ta il</w>
t wel
survi vors</w>
subsidi es</w>
su ms</w>
strong er</w>
ste re
stere ot
stereot y
sp ir
six -
sha ble</w>
sh or
sensi ti
ration alization</w>
quo ta
puni shable</w>
public- private</w>
provid ers</w>
promo tional</w>
pres cribed</w>
pregn ant</w>
predic tability</w>
pream ble</w>
pop p
popp y</w>
per centage</w>
p elagic</w>
ord n
ordn ance</w>
optim um</w>
operation alization</w>
neutr ality</w>
ne o-
nar ro
n or</w>
multi- ethnic</w>
multi fac
multifac eted</w>
minim izing</w>
li qu
invo ked</w>
inc ite</w>
in solvency</w>
i red</w>
hol e</w>
fulfill ed</w>
fir m
fifty- second</w>
fe at
f al
ex od
er ce</w>
er a</w>
enlar gement</w>
ear thqu
e k</w>
drif t-
dra ws</w>
dra w
distin ct</w>
di d</w>
demonstra te</w>
d rin
d elimitation</w>
cur rency</w>
crimin ation
consul ting</w>
comp ul
char ging</w>
ate n</w>
at tract</w>
arch ing</w>
apu to</w>
ap pri
anu fac
anticip ated</w>
an ci
aggrav ated</w>
W hole</w>
V II.</w>
Ur ban</w>
Tra de-related</w>
T e
T aking</w>
Sub regional</w>
S- 22</w>
R ou
Poll ution</w>
Par ti
Mo der
M aputo</w>
M anufac
Lim itation</w>
Indi vidu
I C
Forty- ninth</w>
Forty- eighth</w>
Fif tieth</w>
Dis crimination
Corr. 1-3</w>
Chri sti
Al- Q
A .
4 39</w>
4 ,
308 22.</w>
1993 A</w>
19 47</w>
18 .</w>
- 30</w>
vis ual</w>
ur ship</w>
ur acy</w>
uni form</w>
thre aten</w>
telecommuni cation</w>
sub stance</w>
stres sed</w>
state less</w>
stat us
skill ed</w>
si bly</w>
sh ed</w>
school ing</w>
sc rup
scrup ul
s ending</w>
resc ind</w>
ren atal</w>
reimbur sements</w>
ref erring</w>
recur rent</w>
rec ord</w>
precau tionary</w>
plur alistic</w>
pand emics</w>
p renatal</w>
p ages</w>
opin ions</w>
mon th</w>
mine- clearance</w>
mid -term</w>
me an</w>
m emorandum</w>
ju red</w>
investig ative</w>
innov ation</w>
in ven
in jured</w>
in equ
inequ alities</w>
i ef</w>
hard ship</w>
gi ers</w>
fu elling</w>
fre e-
firm ly</w>
fif teenth</w>
fi stula</w>
expres sions</w>
ex emp
ev olution</w>
enterpri se</w>
drift- net</w>
dow ment</w>
disman tlement</w>
diff usion</w>
determin es</w>
des cent</w>
deliv er</w>
deb tors</w>
de em</w>
d ness</w>
d il
consult ants</w>
concili ator</w>
conc urs</w>
comb at
combat ants</w>
char ts</w>
bure aux</w>
arri ved</w>
an cies</w>
ali tion</w>
ali en</w>
accomplish ed</w>
acc uracy</w>
ab duc
a men
Thirty- first</w>
Th at</w>
Sur ve
S- IV</w>
R o
Pol ice</w>
Parti cip
Ob serv
Marrak esh</w>
Ko re
Iraq i</w>
Individu als</w>
In voluntary</w>
I f</w>
En dowment</w>
Dis placed</w>
D el
Assi stant</w>
Al giers</w>
90 68</w>
87 91.</w>
8 5th</w>
7 3rd</w>
5 ,
30 2</w>
2- E</w>
18 74</w>
worksh op</w>
work plan</w>
where by</w>
ver b
ut ting</w>
under water</w>
un even
trib unal</w>
transf erring</w>
to day</w>
th ings</w>
surve y</w>
subsequ ently</w>
stor age</w>
speed ily</w>
spe aking</w>
sib ility-
sibility- sharing</w>
scrupul ously</w>
sa tellite</w>
rib ery</w>
rib at
ribat i</w>
revit alize</w>
revis e</w>
rev olution</w>
respon sibility-sharing</w>
regul ate</w>
reg ret
reciproc al</w>
reas on</w>
re deployment</w>
re building</w>
ra ther</w>
public ize</w>
pro mis
pe op
peop le-
particul arities</w>
out sour
op ing</w>
non- interference</w>
non- formal</w>
mine- affected</w>
manag erial</w>
lim iting</w>
l ost</w>
justi fiable</w>
jurisdic tional</w>
investig ating</w>
investig ated</w>
im porting</w>
ill -
hal ving</w>
govern ed</w>
gen e
f ellowship</w>
f all</w>
ex ual</w>
emplo ying</w>
elec t</w>
el -
effec ted</w>
drin king</w>
di s</w>
defin ing</w>
de gre
d emocracies</w>
d ail
dail y</w>
cooper ating</w>
confron ted</w>
conc essional</w>
compil ation</w>
comb ination</w>
cel l
cel eb
burden -</w>
boo ks</w>
bi enni
ban k</w>
b ot
ation ships</w>
assi gn</w>
arbitr arily</w>
amper e</w>
accoun ting</w>
acces sions</w>
W e</w>
Uni vers
T ampere</w>
Stoc k
Stand ard</w>
Shi ps</w>
SP L
SPL O
SPLO S</w>
S exual</w>
Res pect</w>
R A
Pro secu
Pl an
Kore an</w>
Ki ribati</w>
K an
Invest ment</w>
I P
F ight</w>
Extra ordinary</w>
C easefire</w>
57 9</w>
5 6
49 .</w>
3348 0.</w>
28 8</w>
24 8
21 Report</w>
2 59</w>
16 .</w>
1 244</w>
yste m
x ed</w>
volunte ers</w>
vol ati
vi ability</w>
verif y</w>
up s</w>
uneven ly</w>
und imin
undimin ished</w>
un g</w>
un als</w>
twel ve</w>
traffic ked</w>
toc ol
than ks</w>
t an
syn the
sustain ing</w>
sub jects</w>
struc tured</w>
stand ings</w>
stab ilization</w>
sp ite</w>
s ted</w>
s porting</w>
s ac
rel ationships</w>
re verse</w>
re minds</w>
purch ase</w>
promulg ated</w>
produc ers</w>
procl aims</w>
pres sure</w>
potenti ally</w>
poo rest</w>
pen sion
parlia ment</w>
ost ation
ostation ary</w>
ol ability</w>
ok oh
okoh ama</w>
multi disciplinary</w>
moun tains</w>
marke t-
low -</w>
issu ing</w>
invi olability</w>
intenti onally</w>
inf anti
infanti cide</w>
indirec tly</w>
indic ating</w>
in struction</w>
in ated</w>
ill- treatment</w>
iliz ing</w>
il ing</w>
id a</w>
i v</w>
hurrican es</w>
hol m</w>
he re
haz ard</w>
guarante eing</w>
gener ating</w>
gene tic</w>
ge ostationary</w>
fos ters</w>
form ing</w>
forc ement</w>
f reshwater</w>
f alling</w>
ex porting</w>
ess entially</w>
es tion</w>
en tra
en ters</w>
en tail
earli er</w>
e al</w>
disas ter-
diplom acy</w>
dil igence</w>
deep ening</w>
cur ric
cred its</w>
coun sel</w>
conc entra
comple ting</w>
compar ative</w>
col d</w>
cap it
cap ability</w>
c ting</w>
bod ying</w>
benefi ting</w>
al one</w>
advis e</w>
adap t</w>
accumul ation</w>
Y okohama</w>
W H
Ver ification</w>
Su u</w>
Stock holm</w>
S hel
Retur n</w>
Re -
Pro vision</w>
Pro tocol
Pro gress</w>
Nor th</w>
Negoti ations</w>
Lif e</w>
Ky i</w>
In formal</w>
Gro ups</w>
Fund amental</w>
Forty- seventh</w>
Facilit ating</w>
Elec tronic</w>
CONF. 202</w>
CO P
An y</w>
Action Ibid</w>
Ac cess</w>
A ung</w>
A str
7 6
57 .</w>
5 6th</w>
5 3
3 57</w>
2 222</w>
196 9</w>
17 .</w>
1 .
- of-
y ou
vac ancies</w>
up coming</w>
un justifiable</w>
um be
tra um
tra ined</w>
tra in</w>
tra de-related</w>
thirty- seventh</w>
third- country</w>
subsi stence</w>
sub stitute</w>
spon sors</w>
spir itual</w>
small -scale</w>
six- week</w>
six ty</w>
sent ences</w>
s par
repe al</w>
remain ed</w>
rec ourse</w>
re build</w>
procl aiming</w>
pres enting</w>
post- disaster</w>
pl an
pers on
pen alize</w>
os en</w>
on ing</w>
og en
observ ation</w>
net working</w>
neo- Naz
n om
mak ers</w>
main ly</w>
low- income</w>
lo ans</w>
l eng
jud gement</w>
jud g
inter linked</w>
inter disciplinary</w>
infl ation</w>
in surance</w>
in ations</w>
imped es</w>
ill egality</w>
il le</w>
highli ghting</w>
harmon ious</w>
geograph ic</w>
free- zone</w>
fl o
fam ation</w>
f as
exod uses</w>
evalu ations</w>
entreprene urship</w>
end as</w>
en ship</w>
edi ate</w>
du al</w>
diversi fy</w>
dis charging</w>
dis advanta
disadvanta ged</w>
dis abled</w>
destro y</w>
des er
de famation</w>
d ers</w>
cre ative</w>
cop ies</w>
con version</w>
comp ile</w>
clarif ying</w>
char ges</w>
ch osen</w>
at omic</w>
appropri ately</w>
and a</w>
an- African</w>
alog ues</w>
allow ance</w>
ag endas</w>
acknowled ge</w>
W T
Techn ologies</w>
TA R
T sunami</w>
S TAR
M emorial</w>
Imm ediate</w>
Guid e</w>
For ces</w>
Fifty- third</w>
Encoura ging</w>
E.8 6
E.86 .IX
E.86.IX .7</w>
Development A</w>
Com ment</w>
C u
C or
C L</w>
Asi an-African</w>
9 ,
57 78.</w>
4 65</w>
38 7</w>
3 32</w>
28 .</w>
200 0.</w>
20 .</w>
2 173</w>
2 ,
19 .
you th-
wel l
well ers</w>
volati l
volatil ity</w>
v olu
under mines</w>
umbe red</w>
trac king</w>
th ers</w>
t ments</w>
sub vention</w>
su s
sl ow</w>
simultane ously</w>
satisfac tory</w>
ro economic</w>
res e</w>
remov ed</w>
remed y</w>
rel ocation</w>
re t</w>
re ferences</w>
qu iry</w>
prosecu ted</w>
progres sively</w>
profession als</w>
pro tracted</w>
pre rog
po k
pok es
pl ant</w>
pil lars</w>
people- centred</w>
pay able</w>
parlia ments</w>
p utting</w>
out bre
ou is</w>
os ting</w>
o rese</w>
nuclear-weapon- free-zone</w>
norm -setting</w>
nex es</w>
ne ar</w>
m al</w>
lu b</w>
l od
iter acy</w>
it ly</w>
irrever sibility</w>
inter medi
install ations</w>
ill iteracy</w>
ic itly</w>
high- quality</w>
he ta
he i
h and
h am
gi ble</w>
g an</w>
further ance</w>
form ed</w>
fin anci
financi ally</w>
fac to</w>
fac ility</w>
f ill
f ellow
expl oring</w>
excep tion</w>
ex cess</w>
en list</w>
embar go</w>
earthqu akes</w>
dem ographic</w>
deli vering</w>
degre e</w>
d wellers</w>
cred itor</w>
counter- narcotics</w>
constitu ting</w>
condem n</w>
compul sory</w>
compri sing</w>
comp any</w>
communi qué</w>
citiz enship</w>
certific ate</w>
cer tification</w>
b ill
ast e</w>
annex ation</w>
ang e
analy sing</w>
am e
all ows</w>
ag ents</w>
af ter
ad ult</w>
ad es</w>
a vi
XX VII</w>
X VII</w>
WT O</w>
W aste</w>
Tim orese</w>
S la
S har
Radi ation</w>
P- 5</w>
P- 3</w>
Nor th-
Mac roeconomic</w>
L ouis</w>
In come</w>
Identif y</w>
I CC
F S</w>
D- 2</w>
D u
D ig
Ch ange
C our
C lub</w>
C M</w>
An nexes</w>
Ac c
A t</w>
5 40</w>
5 36</w>
4 .
30 5</w>
3 11</w>
3 101</w>
27 8</w>
20 11</w>
2 5.</w>
2 24
2 171</w>
196 6</w>
14 65</w>
wh at
what soever</w>
we ak
ven ue</w>
ven t</w>
vari ety</w>
us er-
un anim
trac ing</w>
tr acks</w>
thirty- eighth</w>
t- finding</w>
suspec ted</w>
sub- Saharan</w>
st al</w>
soci ally</w>
sla ve</w>
simpl if
settl ers</w>
seri ousness</w>
sav ing</w>
s .</w>
risk- reduction</w>
rest ation</w>
repl en
repe ated</w>
reinforc ement</w>
protec tion
prosecu ting</w>
prof ile</w>
por ted</w>
par all
parall el</w>
pa red</w>
over arching</w>
oun ce</w>
offic ially</w>
occur ring</w>
o- visual</w>
non- agricultural</w>
nomin ated</w>
mul ticul
modi fied</w>
meth od</w>
maxim izing</w>
m its</w>
los ses</w>
li able</w>
leng th</w>
is ol
inter f
insecti ci
insectici de-
insecticide- treated</w>
inqu iry</w>
inf r
industri alization</w>
incorpor ated</w>
i es
i deal</w>
i alized</w>
hydro graphic</w>
he aring</w>
harmon izing</w>
hab itual</w>
formul a</w>
fe ar</w>
ex em
exem pl
es ted</w>
entr ust</w>
enh ances</w>
el iness</w>
distur bed</w>
dispar ity</w>
di alogues</w>
deep en</w>
de ems</w>
d ors</w>
cyber security</w>
condem ned</w>
conc entr
comple mented</w>
complain ts</w>
com pared</w>
categ ory</w>
catastroph e</w>
care er</w>
c ated</w>
bus in
b omb
aver t</w>
autonom y</w>
audi o-visual</w>
as sa
analy ses</w>
age- appropriate</w>
ag h
acti vi
abol ish</w>
W arning</w>
Spec ialized</w>
STAR T</w>
S- 19</w>
S S</w>
Res ults</w>
Religi on</w>
Rec overy</w>
Qu estion</w>
Prosecu tor</w>
Ob jec
K h
Isl am
Impro ving</w>
Hung er</w>
Glob alization</w>
Freed oms</w>
Fo rests</w>
F A
FA O</w>
En forcement</w>
Em ployment</w>
De ter</w>
D ep
Convention United</w>
Contin ental</w>
Comb ating</w>
C -
Bah a</w>
B ranch</w>
Arab ic</w>
Americ a.</w>
Ac tu
A mm
A U</w>
97 .</w>
59 -S</w>
4 22</w>
3 ,
28 4</w>
2 13
13 0
1048 5</w>
1, 9
1 ,0
0. 15</w>
wid en</w>
volu me</w>
vill ages</w>
vig il
vacc ines</w>
vac ant</w>
up -to-
up-to- date</w>
underst and</w>
under development</w>
um b
tl es</w>
ti ming</w>
ti al</w>
ter ally</w>
t ul
t ou
system ic</w>
surve ys</w>
stream lining</w>
st ly</w>
sl um</w>
se iz
s end</w>
s Ibid</w>
reli ability</w>
qu arter</w>
promulg ation</w>
pre requisite</w>
pen sions</w>
orph an
or n</w>
oc k</w>
observ ed</w>
ob taining</w>
ob e</w>
muni tions</w>
minis ters</w>
medium -</w>
mas sac
long er-
longer- term</w>
lis ted</w>
less ness</w>
le ave</w>
later ally</w>
ke k</w>
k h</w>
jeopard ize</w>
j ure</w>
ish kek</w>
irrever sible</w>
ir s</w>
ir ation</w>
invol ves</w>
intro duce</w>
interf ere</w>
incid ence</w>
in no
im port</w>
il ize</w>
i res</w>
hei kh</w>
gra tul
glob alized</w>
forty- first</w>
for ci
fifty- first</w>
fe ed
fail ed</w>
f ar-
far- reaching</w>
extrad ite</w>
exp iration</w>
evalu ating</w>
ev ant</w>
es e-
es cal
er uption</w>
enc umbered</w>
enabl ed</w>
ed s</w>
draw n</w>
dom ination</w>
differenti ated</w>
differenti al</w>
dev ising</w>
desi ring</w>
del ays</w>
def ending</w>
de emed</w>
crimin alize</w>
controll ed</w>
conten ts</w>
confis cated</w>
complex ity</w>
clos ed</w>
ch ec
cer tain
c e
bud s
bila terally</w>
benefici aries</w>
b ribery</w>
awaren ess
aver age</w>
att ach</w>
arm y</w>
appoin tments</w>
anne l</w>
amen d</w>
aler t</w>
adop ts</w>
ab ir
Z on
Tim ely</w>
Shar ks</w>
S- 25</w>
S heikh</w>
S harm</w>
Rel evant</w>
Rapporte urs</w>
Provi sional</w>
Prote ct</w>
Portugu ese-
Po stal</w>
P ress</w>
M issile</w>
M ain
M I
Li teracy</w>
Le ad
Instru ment</w>
IC T</w>
H orn</w>
Exper t</w>
E.0 5.II.A
E.05.II.A .4</w>
E vent</w>
Coun cil
Communi cation</w>
CONF. II</w>
CONF. 183</w>
C L
Bangk ok
B ishkek</w>
As ses
Admin istrator</w>
9 -S</w>
7 59-S</w>
7 4.</w>
60 -S</w>
6 00</w>
58 .</w>
4 24</w>
4 1.</w>
30 8</w>
3 30</w>
2 1.</w>
175 13.</w>
17 -
10- 14</w>
1, 7
- free</w>
wor st</w>
vehic les</w>
vehic le</w>
uri lateral</w>
univers alization</w>
uni tion</w>
uni mp
unimp ed
unimped ed</w>
un intended</w>
un encumbered</w>
u pro
u ghts</w>
to p</w>
tion Resolution</w>
tim eliness</w>
thirty- ninth</w>
thir teen</w>
te am</w>
t ful</w>
symposi um</w>
status -of-
space -based</w>
serv ants</w>
scal ing</w>
revi sions</w>
results -based</w>
rest ored</w>
replen ishment</w>
re- emphasizes</w>
re efs</w>
r un
procl aim</w>
pol i
po sia</w>
pl urilateral</w>
per mitting</w>
pension able</w>
pe er</w>
parlia ment
parliament ari
parliamentari ans</w>
pa tes</w>
or ating</w>
off set</w>
nomin ate</w>
mo stly</w>
mat h</w>
market- oriented</w>
manufac turing</w>
m ous</w>
m .</w>
le ft</w>
l ending</w>
invo ke</w>
inno cent</w>
infr ing
industri es</w>
in aug
im minent</w>
highli ghts</w>
hel p
heal thy</w>
furni sh</w>
fu el</w>
forth with</w>
fac t-finding</w>
extrem ely</w>
exclud ed</w>
eth ics</w>
es A</w>
enti ality</w>
entail s</w>
enc e
en os</w>
em y</w>
e ts</w>
dro ughts</w>
dri ven</w>
dra m
discre tion</w>
dis position</w>
development -oriented</w>
dete ct</w>
des cription</w>
deplo y</w>
demon str
deliber ate</w>
deleg ation</w>
dec lining</w>
counter measures</w>
contr acting</w>
continu ously</w>
construc tively</w>
consequ ence</w>
confid entiality</w>
con ta
com promis
com posed</w>
co alition</w>
ci pates</w>
child -
care fully</w>
busin esses</w>
bill ion</w>
be gan</w>
ar rested</w>
ar m</w>
announc ement</w>
actu ally</w>
abu l</w>
ab a</w>
W ays</w>
Univers ally</w>
Territ ori
Sur vi
Shel f</w>
S .
Ro ad</w>
Recogni zed</w>
R eli
Portuguese- speaking</w>
Plan Resolution</w>
Pelindab aA</w>
Or gan
October- 3</w>
O x
O ne</w>
North- South</w>
Nation s-
M er
La un
K obe</w>
K abul</w>
Ju risdic
J e
I- IV</w>
Hol ding</w>
H ouse</w>
H i
H RC</w>
Govern ors</w>
Fin ance</w>
Eth ics</w>
E.00 .I.
E.00.I. 3</w>
E l
E arly</w>
E -
Disappe arances</w>
Dis sem
Cu st
Cour t
Bu enos</w>
Bel ief</w>
Astr on
Asses s
An niversary</w>
Amm unition</w>
Agre ements</w>
Ad dis</w>
Ab aba</w>
A ires</w>
8 9th</w>
7 ,
5 20</w>
48 3</w>
4 25</w>
38 3</w>
3 17</w>
3 .
24 5.</w>
20 20</w>
2- S</w>
19 -30</w>
15 15</w>
13 -
11 54</w>
wit ness</w>
will ing
willing ness</w>
vis itors</w>
verif ied</w>
ur ban
up holding</w>
un even</w>
um ber</w>
u ty</w>
tur i</w>
tr u
toler ate</w>
stand s</w>
specif ic
sixty- fifth</w>
simpl ification</w>
ser ves</w>
self- reliance</w>
sec ret</w>
s or</w>
s m</w>
s See</w>
rehabilit ate</w>
regret ting</w>
ref er</w>
rec osting</w>
re tain</w>
re stra
prospec tive</w>
pre val
phenomen a</w>
on line</w>
on e-
oc ks</w>
ne x</w>
ne ither</w>
n ings</w>
mod es</w>
mine- type</w>
m buds
it ably</w>
intensi fying</w>
in side</w>
in her
house holds</w>
high- technology</w>
heta mine-type</w>
gain ed</w>
frequ ency</w>
for d</w>
fin alization</w>
fas hi
faith ful</w>
f ig
f ies</w>
ethni city</w>
empow er</w>
emplo yed</w>
deple tion</w>
defin i
def ences</w>
dec ades</w>
d rug
curric ula</w>
country- specific</w>
corpor ations</w>
con serve</w>
con gratul
competi tion</w>
ch annel</w>
catastroph ic</w>
c eased</w>
c ann
cann ab
cannab is</w>
b allistic</w>
atti tude</w>
att end
ate -
ascer tain</w>
arrang e</w>
ari ous</w>
ar ta</w>
appri sed</w>
am ble</w>
ak arta</w>
ad emy</w>
activi sts</w>
accid ent</w>
accep ts</w>
a sive</w>
Wor st</w>
Women United</w>
We ek</w>
W FS</w>
Trans pa
T re
Se as</w>
Re- establishment</w>
Re place</w>
Re form</w>
R ene
Pro c
Pre amble</w>
Part ners</w>
P ending</w>
P ap
Ox ford</w>
O mbuds
MI N</w>
Laun ched</w>
J akarta</w>
Imple menting</w>
ICC D</w>
I turi</w>
I NF</w>
Discrimination Resolution</w>
D estruc
D .</w>
Co dification</w>
C S</w>
An nex</w>
Ac ademy</w>
90 68.</w>
9 5
49 2</w>
48 1</w>
4 72</w>
3 56</w>
3 13
29 3</w>
27 1</w>
19 46</w>
175 13</w>
150 2</w>
13- 17</w>
where ab
whereab ou
whereabou ts</w>
wa ter
w ard
vers ity
v ers</w>
us sions</w>
us al</w>
uni laterally</w>
under representation</w>
uncondi tionally</w>
un preced
unpreced ented</w>
u ing</w>
to m</w>
synthe tic</w>
su n
stre et</w>
sol ely</w>
six teenth</w>
shel ters</w>
sh ort</w>
set tled</w>
sa id</w>
s ent</w>
restric ted</w>
rest oring</w>
re- establishment</w>
re perc
reperc ussions</w>
re jection</w>
r s</w>
r ation</w>
qualif ications</w>
qu ic
publ ished</w>
propos ing</w>
pro p
preced ent</w>
prec arious</w>
post- c
post-c old
post-cold -
post-cold- war</w>
p ack
outsour cing</w>
ophob ia</w>
op tional</w>
op ponents</w>
ond on</w>
o- Saharan</w>
non- post</w>
neg atively</w>
n ity</w>
multicul tural</w>
monit ored</w>
mo dification</w>
mess ages</w>
ma ternal</w>
m em
li abilities</w>
k ering</w>
ir ley</w>
inter dic
instru ment
institu te</w>
infec tions</w>
industri alized</w>
in voluntary</w>
in spection</w>
in gh
ingh e</w>
il ton</w>
i to</w>
hel o-Saharan</w>
he ar
flo or</w>
fi rearms</w>
ex ha
er ated</w>
empow ering</w>
emplo y</w>
eg ally</w>
ear nings</w>
docsonline.wto .org</w>
discus sing</w>
dis r
dis armament
dete cting</w>
deliv ered</w>
deci sive</w>
de par
cost- sharing</w>
con gress</w>
commemor ate</w>
ch es</w>
bro kering</w>
bot tom</w>
awareness -raising</w>
aw ard</w>
assu me</w>
as inghe</w>
ar ises</w>
advoc ates</w>
adap tation</w>
ac king</w>
abir ds</w>
ab ed</w>
Wor k</w>
W el
Treaty United</w>
Transpa rency</w>
Territori esSee</w>
T eh
Survi val</w>
Sig nat
Sh irley</w>
Sa helo-Saharan</w>
Reli able</w>
Par lia
P ri
O ver
Ma j
Leban ese</w>
L ondon</w>
Jurisdic tional</w>
Integr ation</w>
I NF
Ham ilton</w>
Gu arante
Em bodying</w>
Destruc tion
Cust oms</w>
Crime Resolution</w>
Chair man-
Ch in
Cam bodi
CONF. I</w>
CL CS</w>
Assess ment</w>
Appe als</w>
Ap pro
Amer asinghe</w>
Add. 6</w>
59 1</w>
5. 6</w>
48 8</w>
4- 7</w>
4 57</w>
4 17</w>
39 .</w>
3 ;</w>
3 61</w>
200 2.</w>
14 78.</w>
129 9.</w>
1 ;</w>
. ht
&#9 3;</w>
&#9 1;</w>
work place</w>
web sites</w>
war heads</w>
w ha
wha te
whate ver</w>
vo tes</w>
vigor ously</w>
vi ti
verif ying</w>
ven dors</w>
up tions</w>
uni formity</w>
under standings</w>
un e</w>
ub s</w>
twenty- eighth</w>
tro op
tra de-
time table</w>
th le
thle he
thlehe m</w>
t reat
stream line</w>
st ation
station ing</w>
spar e</w>
solem n
solemn ly</w>
sl um-
sh ocks</w>
set tings</w>
saf er</w>
ro credit</w>
restric t</w>
respon ded</w>
respon d
respec ts</w>
renew al</w>
reimbur sement</w>
regi on-
ref usal</w>
re fin
ra ge</w>
r .</w>
prop ag
propag anda</w>
programm atic</w>
proced ural</w>
pro jected</w>
preclud e</w>
preci ation</w>
pre feren
preferen tial</w>
poin ted</w>
po st
pat tern</w>
parti te</w>
par ame
parame ters</w>
p -
over thro
orphan ed</w>
om mend
nor mal
normal cy</w>
non- refoulement</w>
non- derog
non-derog able</w>
ne gi
negi e</w>
multi sectoral</w>
mil iti
mercen ar
manif est</w>
le ads</w>
k in
k i</w>
justi fication</w>
is in
inter departmental</w>
indic ates</w>
in s</w>
in effective</w>
impa ir</w>
im pl
ide ologies</w>
ide a</w>
hold ings</w>
hear ings</w>
he ad
h i</w>
flag s</w>
fin alizing</w>
fal se</w>
f arm
ex pec
ex hibit</w>
ever -
estruc tive</w>
er uptions</w>
ent ations</w>
en rich</w>
eigh ty-
e e</w>
disc oura
dis regard</w>
dimin ish</w>
depar ture</w>
defin e</w>
decid ing</w>
d y</w>
d estructive</w>
crimin ality</w>
constitu ent</w>
congratul ates</w>
compar ator</w>
cho ices</w>
chec k
celeb rate</w>
ca sion</w>
c ame</w>
bo ard</w>
ar ti
aqu ac
aquac ulture</w>
after math</w>
advis ers</w>
adequ acy</w>
acknowled ged</w>
accommod ate</w>
Wh ere</w>
WH A
Tre aties</w>
Teh ran</w>
Te aching</w>
Sy m
Surve y</w>
Sen ior</w>
Rou ge</w>
Reduc tions</w>
Rec ommend
Popul ations</w>
P u
Op portunities</w>
Ombuds man</w>
Oc casion</w>
Mic rocredit</w>
Main tenance</w>
Li ability</w>
L. 12</w>
Kh mer</w>
In quiry</w>
Imple mentation
I V.</w>
He ad</w>
Fi rearms</w>
F reshwater</w>
Ex pres
Euro -
En during</w>
En able</w>
E.02 .IV.
E.02.IV. 4</w>
Dissem ination</w>
Dis abled</w>
Di versity
Del hi</w>
Comm odities</w>
Car negie</w>
Bo dy</w>
Be thlehem</w>
B al
Ap preciation</w>
Afgh ans</w>
Aff ected</w>
Add. 7</w>
Add. 2.</w>
Acc ords</w>
970- 973</w>
90 4</w>
88 9-S</w>
8- 12</w>
6 3
58 0</w>
57 8</w>
57 4</w>
5 61</w>
5 32</w>
5 31</w>
3 37</w>
28 9</w>
199 4-7</w>
175 12.</w>
- contributing</w>
- E</w>
y .</w>
wor th</w>
war fare</w>
vo ys</w>
viol ates</w>
vic tim
uni ons</w>
unanim ous</w>
un foreseen</w>
um .</w>
troop -contributing</w>
trans portation</w>
tot alling</w>
threat ened</w>
thirty- sixth</w>
ther ap
ter ation</w>
tem isin
sus pension</w>
succ eeding</w>
stra r</w>
sti gm
sp ouse</w>
so -
so- called</w>
seven teenth</w>
session Official</w>
separ ated</w>
sens ing</w>
sec ur
s port
s pokes
s cri
revit alizing</w>
results -oriented</w>
resolu tely</w>
res sing</w>
rein after</w>
regi vers</w>
recur rence</w>
re ply</w>
re occupation</w>
re jects</w>
ra ft</w>
public ly</w>
prosecu tions</w>
prof it</w>
pro min
priv acy</w>
pri ce</w>
pres cri
pow er
power ful</w>
pol y
pl es</w>
pl atform</w>
persi st</w>
out puts</w>
on ization</w>
ob tained</w>
o u</w>
nul lif
mon y</w>
mo thers</w>
medi um</w>
m uch</w>
long- standing</w>
lod ge</w>
kin ds</w>
is ation</w>
inter sectoral</w>
intenti onal</w>
incid ental</w>
inc eption</w>
i ve</w>
i m</w>
highli gh
highligh ted</w>
high light</w>
he reinafter</w>
he igh
h op
gender- specific</w>
further more</w>
fund -raising</w>
fre eing</w>
forty- four</w>
fo ot
fif teen</w>
fellow ships</w>
farm ers</w>
facilit ates</w>
f alls</w>
exam inations</w>
es ting</w>
enti ous</w>
employ ees</w>
emer ged</w>
ear marked</w>
dram atically</w>
disproportion ately</w>
dis bur
destab ilizing</w>
den y</w>
dem anded</w>
deleg ates</w>
deep er</w>
d ering</w>
cre ates</w>
corrigend um.</w>
conta gi
consist ently</w>
consen su
condi tional</w>
concili ators</w>
con texts</w>
compl ying</w>
compl ies</w>
compati bility</w>
comm erce</w>
clud ing</w>
cle an
chair persons</w>
cha ired</w>
ca regivers</w>
c eases</w>
buil dings</w>
brid ge</w>
benefici ary</w>
avo id
attend ance</w>
are r</w>
ar temisin
appoin ting</w>
ann er</w>
ak s</w>
advis ing</w>
accumul ated</w>
accel eration</w>
acc used</w>
ac ute</w>
ac em
a ida</w>
Tr ace</w>
Soci e
Settl ement</w>
S ED</w>
Re ef</w>
RE P
REP H
REPH RA
REPHRA SED</w>
R P
Pap er</w>
P- 2</w>
Organiz ationA</w>
Ma terial</w>
M r.</w>
M emorandum</w>
M anner</w>
L akes</w>
Is land
Interi or</w>
Integr al</w>
II. B</w>
I. B</w>
I b
Fu ture</w>
Fu el</w>
Enh ancing</w>
E. 87
E n</w>
Dispu te</w>
Dig nity</w>
Dep uty</w>
Declaration Resolution</w>
Declar ations</w>
Consul ar</w>
Cambodi an</w>
CP .3</w>
C oral</w>
C ir
Bo ard
B us
B ased</w>
Al-Q aida</w>
Add.1- 3</w>
Action A</w>
Ab out</w>
9 8
7 5
6 60</w>
39 0</w>
3 18.</w>
3 16</w>
28 8.</w>
248 41.</w>
2 187</w>
18 99</w>
16 74.</w>
10 6
1, 4
withdraw n</w>
w ords</w>
w ards</w>
vis as</w>
viol ated</w>
vigil ance</w>
ut ation</w>
user- friendly</w>
unders cor
underscor ing</w>
under p
un intentional</w>
two- thirds</w>
twenty- ninth</w>
tw ice</w>
trib unals</w>
tou m</w>
ti rel
tirel ess</w>
thre e-year</w>
thre e-
tern ative</w>
te sti
te l
te dness</w>
t ters</w>
sy nergy</w>
suff rage</w>
ste p-
step- by-
step-by- step</w>
ste ad</w>
stand by</w>
slum- dwellers</w>
sion ally</w>
separ ately</w>
s ly</w>
s United</w>
round -
round- table</w>
restric ts</w>
respec tful</w>
resolu te</w>
rel atively</w>
ref uge</w>
rec ti
rec re
rec eption</w>
re pa
re opening</w>
re ject</w>
re ds</w>
re classi
re alities</w>
r ance</w>
quota -free</w>
psych os
psychos o
psychoso cial</w>
provi sionally</w>
prov ince</w>
prosecu tors</w>
pris ons</w>
prioriti ze</w>
preval ence</w>
prerog ative</w>
prec is
precis ely</w>
perform ed</w>
pe acem
peacem aking</w>
pack age</w>
p i
over capacity</w>
ot on
oton ou</w>
or mous</w>
ol d</w>
nine teenth</w>
neo-Naz ism</w>
narro wly</w>
modi fications</w>
mis sible</w>
min e
measu rement</w>
long line</w>
li m</w>
li fe
l in</w>
invo king</w>
institu tion
incid ent</w>
in stead</w>
impedi ment</w>
impa irs</w>
imbal ance</w>
ill icitly</w>
id es</w>
hund reds</w>
hi b
hib its</w>
har toum</w>
ham per</w>
gre enh
greenh ouse</w>
good-neighbour ly</w>
gener al-
general- purpose</w>
gain s</w>
foc uses</w>
fifty- fourth</w>
feat ures</w>
f ile</w>
expres sly</w>
execu te</w>
exclud e</w>
es Resolution</w>
er ies
en tering</w>
en ormous</w>
em issions</w>
el- Sheikh</w>
educ ate</w>
e y</w>
e u
e gi
e ast</w>
draf ts</w>
dom es
dissem inated</w>
disr uption</w>
dis pose</w>
dimin ishing</w>
deriv ing</w>
ded ication</w>
cost- effectiveness</w>
correc t</w>
constra ined</w>
confron ting</w>
conc eal
compu ter</w>
communic able</w>
coll ate</w>
clus ters</w>
cho ice</w>
child hood</w>
check points</w>
cha iring</w>
ch ron
ch ap
capit a</w>
bre aking</w>
bec ame</w>
aud iting</w>
attem pts</w>
ations See</w>
assu red</w>
assu mption</w>
amoun ting</w>
allow ances</w>
al teration</w>
al ter</w>
adop tions</w>
add ic
accommod ation</w>
a h</w>
XX IV</w>
Un lawful</w>
Treaty See</w>
Sta tement</w>
Sp ent</w>
Sing le</w>
Recogni zing</w>
Provi ding</w>
Parlia ment</w>
P C</w>
Organ isation</w>
Observ er</w>
Ne eds</w>
Mus lim</w>
Me teorological</w>
M ilitary</w>
Lim its</w>
K hartoum</w>
INF C
INFC I
INFCI RC</w>
I ran
Hy dro
Govern ance</w>
Expres ses</w>
Eu ra
E c
Director ate</w>
Cro ps</w>
Committe eA</w>
Co astal</w>
Change FCCC</w>
CONF. 172</w>
C otonou</w>
Ber lin</w>
Be yond</w>
Arab -
Arab- Israeli</w>
Al ternative</w>
Actu aries</w>
9 46
946 4.</w>
8 6
7 A.</w>
6 4
5 E</w>
5 37</w>
5 11</w>
4 28</w>
4 23</w>
3 60</w>
28 26</w>
21 31</w>
2001- 31</w>
200 ,000</w>
2 26.</w>
19 58</w>
19 25</w>
19 15</w>
17- 21</w>
17 .
10 0
1 197</w>
. un
. X
we ak</w>
war- stricken</w>
war- affected</w>
wa iv
w arr
vi sibility</w>
vi de
vi c</w>
versi ties</w>
ur o</w>
upro o
uproo ted</w>
uni versities</w>
under took</w>
uncondi tional</w>
ul sion</w>
ul ent</w>
ud ulent</w>
uc ha
ucha rest</w>
tre mend
tremend ous</w>
tre al</w>
traum a</w>
traffic kers</w>
tr ue</w>
to xin</w>
thirty- fourth</w>
thereto Ibid</w>
ther mal</w>
th eless</w>
te sts</w>
te -
sustain ably</w>
sub ord
su res</w>
su ited</w>
stri es</w>
stimul ating</w>
ste ad
state lessness</w>
short -term</w>
separ ation</w>
sec ts</w>
se amounts</w>
se a
sci enti
sci ences</w>
sal aries</w>
sa ve</w>
run s</w>
ro s
resi dual</w>
reser ved</w>
ren ov
reli ev
re e</w>
re alistic</w>
rap s</w>
rac ially</w>
ra gm
punish ing</w>
provid er</w>
prov ocation</w>
protection ism</w>
prom ise</w>
pro -
pre conditions</w>
post pon
posses s</w>
pled ge</w>
ph il
penal ties</w>
peace fully</w>
p ragm
over n</w>
ot al</w>
or ship</w>
oper ated</w>
ogis tical</w>
occur s</w>
o by</w>
norm ative</w>
non- threat</w>
n ever
never theless</w>
mor als</w>
moderni ze</w>
mine fields</w>
mean time</w>
m ur
loo ting</w>
lif el
lifel ong</w>
le tters</w>
l item</w>
l antic</w>
knowled ge
judg ements</w>
it h</w>
it ance</w>
ir regular</w>
instrument alities</w>
institu ted</w>
inher itance</w>
independ ently</w>
in flic
in deb
indeb tedness</w>
imbal ances</w>
il a</w>
hou se</w>
grad es</w>
gn on</w>
g overn</w>
fore st-
fif ty</w>
famil y-related</w>
experi ment</w>
exp ulsion</w>
ev ices</w>
ern ing</w>
er ts</w>
equ alization</w>
ep t</w>
enti c</w>
endang ered</w>
end a
emer ge</w>
embar k</w>
eligi bility</w>
el led</w>
du ty-
distribu te</w>
disproportion ate</w>
development -related</w>
derog ation</w>
deplo y
den ied</w>
demonstr ations</w>
dem ining</w>
def er</w>
deb ts</w>
dead line</w>
de signing</w>
data -
dam aged</w>
cycl es</w>
cor als</w>
cop ing</w>
convic ted</w>
cont entious</w>
consi st</w>
consci ousness</w>
confir ms</w>
confir ming</w>
conc ise</w>
comple menting</w>
commemor ative</w>
cle arer</w>
ci vic</w>
char ters</w>
ch aps</w>
certain ty</w>
c ards</w>
aw arded</w>
autonom ous</w>
au ts</w>
ati gnon</w>
at or
at lantic</w>
ar ticul
anti ago</w>
amend ing</w>
altern atives</w>
alig ning</w>
al tered</w>
al most</w>
aggrav ating</w>
ad ults</w>
acknowled gement</w>
ac tor</w>
abol ition</w>
a way</w>
W ith
T raps</w>
T em
Stud ies</w>
Stand ards</w>
St atis
Se abed</w>
S- 12</w>
S cope</w>
S antiago</w>
S S.
Retur nees</w>
Reduc ing</w>
R ace</w>
Pro bl
Pl ed
Part nerships</w>
Palestini ans</w>
Mon treal</w>
Moder n</w>
Manufac turing</w>
Man agua</w>
Ma terials</w>
M atignon</w>
Lead ers</w>
L E
II. A</w>
Hydro graphic</w>
For ced</w>
Ex am
Euro- Mediterranean</w>
Eura sian</w>
Ec os
Dispu tes</w>
Disappe arance</w>
Di am
Des erts</w>
Dec l
D evices</w>
Cub an</w>
Consolid ation</w>
Consolid ated</w>
CONF. III</w>
CONF. 164</w>
CO NF</w>
C re
Bo oby</w>
B ucharest</w>
Astron auts</w>
Assembly Resolution</w>
Action Resolution</w>
A id</w>
9 9
78 0</w>
6 6
58 2</w>
57 2</w>
50 2</w>
5 21</w>
4 74</w>
39 5</w>
3 63</w>
28 19</w>
2003 See</w>
20 12</w>
199 4
18 33</w>
16 12</w>
16 -
15 40</w>
15 20</w>
14 6
14 .</w>
10 19</w>
1, 8
0. 20</w>
.IX .1</w>
. .</w>
&apos; is</w>
z a</w>
www.un h
will ing</w>
w ars</w>
vill age</w>
us tic
un necessary</w>
un met</w>
un a</w>
u su
tribu te</w>
tri als</w>
tr uly</w>
top ical</w>
tin ational</w>
time tables</w>
threat ens</w>
thor ou
thorou gh
thorough ly</w>
th Resolution</w>
testi mony</w>
ten ure</w>
t ative</w>
sur render</w>
super visory</w>
sub paragraphs</w>
stimul ants</w>
ste mm
stemm ing</w>
spokes persons</w>
sh r
shr ines</w>
sex -
sex- disaggregated</w>
session See</w>
scienti sts</w>
san al</w>
s pr
spr ing</w>
ro s</w>
ri shed</w>
resi stance</w>
report A</w>
repl ies</w>
ren dering</w>
ren am
referend ums</w>
predic t</w>
pragm atic</w>
posses sing</w>
poli tically</w>
pl i
pa ed
paed oph
paedoph il
paedophil ia</w>
p ting</w>
p ical</w>
over l
outbre ak</w>
ou rished</w>
optim ize</w>
on n
om é</w>
ol ition</w>
off ensive</w>
objec tion</w>
nullif ies</w>
norm ally</w>
ne w
mur der</w>
mo del
model s</w>
missi le</w>
mer ly</w>
mer its</w>
mem ory</w>
mean while</w>
me teorological</w>
marri ages</w>
malari a
ma il</w>
long- lasting</w>
lis ting</w>
lin king</w>
lim s</w>
lear n</w>
la m</w>
l ogistical</w>
l acking</w>
it ory</w>
it -sharing</w>
isol ation</w>
inv alu
invalu able</w>
interpre ted</w>
intermedi aries</w>
interdic tion</w>
indivi sibility</w>
in struc
in sti
ill u
ic ate</w>
hos p
hop es</w>
h o
gni fied</w>
g ar
free zing</w>
fra udulent</w>
fore most</w>
for -
ff s</w>
fem in
feed back</w>
fe gu
fe es</w>
ext ends</w>
exclu siveness</w>
ex cell
establish es</w>
es United</w>
ens ing</w>
eng ine</w>
encompas sing</w>
ence -</w>
en za</w>
en ty</w>
e a
domes tically</w>
do or</w>
distin c
disarmament -related</w>
di vision</w>
di stor
di gnified</w>
deser ve</w>
deploy ments</w>
deliber ately</w>
declar ing</w>
dec entr
cross- sectoral</w>
corpor ation</w>
cooper atively</w>
contr actors</w>
compromis ed</w>
comple tely</w>
comb ine</w>
com ment</w>
com eSee</w>
co he
clos ing</w>
cl o
chap ters</w>
cat ches</w>
cam p</w>
c ar
broad est</w>
bri ef
bo ards</w>
bit ra
bio technology</w>
benefi ted</w>
auth entic</w>
ation See</w>
at ure</w>
assi sted</w>
arbitr al</w>
ar rests</w>
ar di
ar bitra
appro ving</w>
amp hetamine-type</w>
alig n</w>
agre eing</w>
accoun ted</w>
accept ances</w>
acc ru
ac ted</w>
ab iding</w>
a iti
a i</w>
a Ibid</w>
Zon e.</w>
XX XV</w>
W ar
V ulner
Trans boundary</w>
T ri
Sum mit
Streng then</w>
Socie ties</w>
Sa fegu
S ystem
S E
Rev olving</w>
Rep ubl
Regi strar</w>
Radi o</w>
Probl ems</w>
Priv ate</w>
Pre tor
Pled ging</w>
Out comeSee</w>
Organiz ations</w>
Offic ials</w>
Negoti ation</w>
Nations Resolution</w>
N avigation</w>
Mus lims</w>
Me ans</w>
M obil
L omé</w>
J ustic
Is lam</w>
Investig ation</w>
Im port</w>
I V
I T
H aiti
G ood</w>
For merly</w>
F air</w>
E.87 .IX
E.87.IX .8</w>
E ach</w>
E X
Coordin ation
Capac ity</w>
C E
Bel grade</w>
Bangkok Treaty</w>
Bal k
Ag enda
60 .</w>
59 3</w>
5 5.</w>
49 6</w>
4 53</w>
35 5
35 11.</w>
33 7
29 1</w>
29 .</w>
27 7</w>
203 78</w>
2 205</w>
2 1-
1, 5
0 ,000</w>
. ..</w>
wor ship</w>
weap onization</w>
wa ters</w>
vide o</w>
victim ization</w>
ver sions</w>
up dates</w>
und ern
undern ourished</w>
und e
un verified</w>
un accounted</w>
ul f</w>
u t</w>
tw enty</w>
ts See</w>
tri c
transl ating</w>
tra ps</w>
tr acts</w>
ti tion</w>
thirty- third</w>
termin ology</w>
teri al
tempor arily</w>
tar i
tari ffs</w>
tan gible</w>
t all
tall ic</w>
subord ination</w>
su itably</w>
spon s
sper ous</w>
simplif y</w>
sent encing</w>
sensiti zing</w>
sensi tivity</w>
seiz ure</w>
secu tive</w>
sec tor
se en</w>
s ity</w>
ro ute</w>
revis ing</w>
retur ned</w>
reser ve</w>
renam ed</w>
ren t-
remain der</w>
rel eases</w>
rein forced</w>
regis ter</w>
regard ed</w>
ref ra
refra ining</w>
read ily</w>
re- establish</w>
re vers
re tro
re side</w>
re es</w>
ran ges</w>
r y</w>
qu esti
prof ound
profound ly</w>
pro- poor</w>
pro sperous</w>
pro long
priv ate-
preven table</w>
pres um
predic ate</w>
preced ing</w>
prec ise</w>
persi sts</w>
pan ish</w>
pa th
ow ed</w>
oun ced</w>
os Report</w>
olog ically</w>
og ging</w>
offic er</w>
obstruc t</w>
noti fied</w>
non- tariff</w>
non- core</w>
nom ination</w>
ni zation</w>
neutr al</w>
multi pli
militi as</w>
ment Resolution</w>
measu rable</w>
me tallic</w>
massac res</w>
man ship</w>
life -
land mine</w>
jec ting</w>
ir ut</w>
introduc ing</w>
inter- sessional</w>
inter relationship</w>
inter act</w>
inten sity</w>
int ending</w>
ine ation</w>
ine .</w>
in tra
in stance</w>
in ous</w>
in door</w>
impedi ments</w>
imparti ally</w>
im ports</w>
im ply</w>
im age</w>
ill egally</w>
id s</w>
i stan
hurrican e</w>
hund red
hosp it
help ful</w>
heigh ten
he inous</w>
har sh</w>
habilit ation</w>
gu n</w>
gradu ating</w>
gradu al</w>
gra vity</w>
fu r</w>
frequ ent</w>
fre ed</w>
for ge</w>
fo restation</w>
fig ures</w>
fifty- third</w>
fair ly</w>
f ol
exer ted</w>
exempl if
exacerb ated</w>
exacerb ate</w>
evid enced</w>
escal ation</w>
epid emics</w>
ensu red</w>
ene tic</w>
en ess</w>
egi s</w>
eas ing</w>
e able</w>
e Official</w>
duty- free</w>
du pl
distinc tive</w>
des ec
del ineation</w>
defini tions</w>
de forestation</w>
data- collection</w>
cross- border</w>
cro s
crimin alization</w>
contagi on</w>
consequ ently</w>
concentra ted</w>
concentr ation</w>
con tem
con secutive</w>
comple ments</w>
communic ated</w>
co existence</w>
cl es</w>
ch i
carri es</w>
brief ing</w>
be gun</w>
auth or</w>
atro cities</w>
ati zation</w>
assu ming</w>
as pect</w>
as ing</w>
all -
al ways</w>
adoles cent</w>
addres ses</w>
ad he
accomplish ing</w>
acc essing</w>
abs or
ab and
a egis</w>
Vulner ability</w>
Ukra ine.</w>
Tran sition</w>
The y</w>
T ake</w>
T R
Sla very</w>
Sa tellite</w>
S panish</w>
S an
Res .
Rene w
Reduc tionResolution</w>
Recogni tion</w>
RE C</w>
R equ
Qu ito</w>
Pur pose</w>
Provi de</w>
Pro sperity</w>
Pretor ia</w>
Non- Governmental</w>
Moder nization</w>
Manufac ture</w>
Man ila</w>
MS P</w>
MS C.
M and
LE G</w>
Kan ak</w>
K ong</w>
Inter regional</w>
Im pact</w>
I S
H ong</w>
G enetic</w>
F ul
F .</w>
Ex COP</w>
Equ ality</w>
En try</w>
E minent</w>
Development See</w>
Develop ments</w>
Dar fur</w>
Court Official</w>
Counter- Narcotics</w>
Contin uing</w>
Con tracts</w>
Chin ese</w>
CN. 17</w>
C. 4</w>
C. 3</w>
C lar
Be irut</w>
Barbad osReport</w>
Arbitr ation</w>
Add. 8</w>
Add. 11</w>
A m
9 17
917 -S</w>
8 48</w>
8 15</w>
8 .
70 2</w>
6 58</w>
58 9</w>
54 4.</w>
50 1</w>
5 73</w>
5 71</w>
5 58</w>
5 49</w>
5 3rd</w>
5 34</w>
5 18</w>
4 32</w>
4 19</w>
4 15</w>
30 7</w>
3 23</w>
29 97</w>
2002 See</w>
2 ,600</w>
199 9
199 8
199 1
19 50</w>
. m.</w>
. 1.</w>
- American</w>
z av
zav ille</w>
we ight</w>
w th</w>
vigor ous</w>
us h
us er</w>
up ul
upul eg
upuleg a</w>
un paid</w>
un accep
ud s</w>
twenty- five</w>
tu ation</w>
trans la
trans atlantic</w>
tr ation</w>
ti tle</w>
thir ty</w>
ten tions</w>
te ach
tail ored</w>
t- Fin
t-Fin ding</w>
t end
sym posia</w>
sur ge</w>
stor ical</w>
stereoty pes</w>
sp ra
spra ying</w>
socie tal</w>
so far</w>
ship ment</w>
session Ibid</w>
secur ity-building</w>
se am
seam less</w>
se abirds</w>
s in
sin ki</w>
ron t</w>
respond ents</w>
renov ation</w>
ren ounce</w>
remed ial</w>
rel oc
regul ating</w>
recommend ing</w>
re venue</w>
re placement</w>
re integrate</w>
re convened</w>
re b</w>
quota s</w>
quot a</w>
quanti ties</w>
prolong ed</w>
private- sector</w>
prescri be</w>
pre ference</w>
posi tioning</w>
pos ting</w>
person ality</w>
perform anc
per v
pa redness</w>
p iv
piv otal</w>
overl apping</w>
orig inating</w>
ord ering</w>
optim al</w>
on ed</w>
on a</w>
ob serving</w>
nor th-
non- international</w>
no tions</w>
narro w</w>
nam es</w>
n ment</w>
motiv ation</w>
moratori ums</w>
mon u
mis cell
miscell ane
miscellane ous</w>
micro enterprises</w>
mercenar y-related</w>
mentation -related</w>
mat urity</w>
marke ting</w>
mand atory</w>
man- made</w>
m o</w>
m me
liqu idity</w>
li ke
like wise</w>
l og
k sh
k ept</w>
jo ining</w>
iti sm</w>
istr y</w>
is m
inv itations</w>
inter- Korean</w>
instruc tions</w>
ing -related</w>
ing -
inform ing</w>
influ enza</w>
influ ences</w>
inaug uration</w>
in toler
in sul
in sofar</w>
in hal
in dication</w>
in dex</w>
im um</w>
il ty</w>
il es</w>
id entities</w>
ic t</w>
ic k</w>
hom el
here in</w>
harmon ized</w>
habit ats</w>
h ol</w>
h ard</w>
gu ilty</w>
gradu ation</w>
gender- related</w>
gend er
gender -</w>
ge ous</w>
full er</w>
free ze</w>
form ats</w>
forci ble</w>
fl ogging</w>
fill ing</w>
femin ization</w>
feat ure</w>
famil y-
f ru
expl an
exemp tion</w>
exclu sive</w>
ex tric
ero -American</w>
er mo</w>
er ance</w>
equ i
enti rely</w>
endor se</w>
en tail</w>
en ough</w>
eman cip
ed ic
e tter</w>
don ed</w>
displac ements</w>
disaster- stricken</w>
dis engagement</w>
dis count</w>
direc tions</w>
dev olution</w>
desec ration</w>
deple ted</w>
decreas ed</w>
dead lines</w>
de ter
de tentions</w>
de tail</w>
de als</w>
coura ge</w>
counter parts</w>
cop y</w>
conver gence</w>
confid ence-</w>
conf erred</w>
conclud es</w>
concentra te</w>
con serving</w>
con doned</w>
compens ate</w>
compe ting</w>
commend able</w>
comm ission
coer ce</w>
co hol</w>
cl a
cla uses</w>
cir cles</w>
ci ous</w>
chang ed</w>
cha in</w>
ch e
ch arter</w>
ce re
calcul ation</w>
c ou
boo by</w>
bomb ings</w>
believ e</w>
bel ong</w>
be l</w>
bas s
b on</w>
b all
av ing</w>
ator CD</w>
ation -related</w>
assa ult</w>
are rs</w>
anti- Sem
anti-Sem itism</w>
am eli
am age</w>
am .</w>
al cohol</w>
agh reb</w>
aff lic
af arers</w>
ad mitted</w>
ad just</w>
ad i</w>
abol ished</w>
ab road</w>
ab ad</w>
a ire</w>
XX III</w>
Wor ksh
Women Report</w>
With out</w>
Wh en</w>
V essels</w>
Under standing</w>
U til
Sy nergies</w>
S ha
Renew able</w>
Religi ous</w>
Recon fir
Pro gramm
Pre paredness</w>
Pal ermo</w>
P unish
P ubl
Over seas</w>
Or der</w>
Ob servation</w>
O C-
Naz i</w>
N am.</w>
N adi</w>
Min imum</w>
Mand ate</w>
M it
M aghreb</w>
L is
L .</w>
K am
Jud ges</w>
J ab
In clu
Ib ero-American</w>
Hi storical</w>
Hel sinki</w>
H arm
Gro wth</w>
Fish eries
Fac t-Finding</w>
F I
Explo sive</w>
Equ itable</w>
Enh anced</w>
Effec tiveness</w>
EX .
EX. CL</w>
Dis armament
D amage</w>
Coordin atorCD</w>
Consult ation</w>
Con ferenc
Con f
Com ponents</w>
Christi ans</w>
Capac ity-building</w>
C essation</w>
C at
Bus iness</w>
Braz zaville</w>
Bi o
Balk ans</w>
B ill</w>
Assi sting</w>
Anti -B
Anti-B allistic</w>
Al l-
Agre ement
Agre ed</w>
Ac coun
Ab duction</w>
A waren
90 -S</w>
7 90-S</w>
68 7</w>
58 1</w>
57 3-S</w>
50 6</w>
5 65</w>
5 50</w>
5 5
5 47</w>
5 15</w>
5 -S</w>
49 4</w>
49 0</w>
48 4</w>
40 .</w>
4 46</w>
38 9</w>
3348 0</w>
30 th</w>
3 41</w>
3 38
3 31</w>
29 4</w>
26 70
21 .
200 7-
20 51</w>
20 10
2. 5</w>
2 ,6
1991 A</w>
199 2.</w>
15 2.</w>
14 56</w>
13 97</w>
12 5.</w>
12 .
11 1.</w>
10- 13</w>
1 194</w>
. 9</w>
,0 0
y- side</w>
wrong fulness</w>
wor s
wor d</w>
wid ows</w>
w led
w age</w>
vir al</w>
vi an</w>
ven ts</w>
v als</w>
ut ations</w>
us tices</w>
up bringing</w>
underp in
underpin ning</w>
unde si
undesi rable</w>
unci ated</w>
tu s</w>
trans -
tra in
tr um</w>
tr ace</w>
tion s.</w>
ti mately</w>
thirty- first</w>
ther ing</w>
the red</w>
te- sensing</w>
ta upulega</w>
t- providing</w>
sur round
surround ing</w>
suppl y-side</w>
sugg ested</w>
sub commissions</w>
stud ied</w>
strength ens</w>
stre ets</w>
stra its</w>
sti c</w>
st op
specific ity</w>
spec trum</w>
sion ed</w>
short falls</w>
shar p
separ able</w>
sens e</w>
sector -wide</w>
scri pts</w>
satis fy</w>
s ses</w>
ru n</w>
ro oms</w>
ro -
ri ties</w>
ri ghts
revers ing</w>
retro viral</w>
respon ds</w>
resi ding</w>
repe tition</w>
ren tal</w>
remo te-sensing</w>
rel ict</w>
rel ate
relate dness</w>
refin e</w>
recru iting</w>
recre ational</w>
rec ted</w>
reason ably</w>
re- elected</w>
re forming</w>
re ef</w>
re designated</w>
ration alize</w>
r ating</w>
questi onn
pur port</w>
pu che
puche a</w>
prof iling</w>
princip ally</w>
pres ences</w>
pre- eminent</w>
por tion</w>
poly metallic</w>
poin ting</w>
phil os
philos oph
periodic ity</w>
performanc e-based</w>
pe tus</w>
pe g</w>
over la
overla p</w>
ou an</w>
or ate</w>
operation alize</w>
olu tions.</w>
ogen ous</w>
obstruc ting</w>
o res</w>
noti ce</w>
non- Latin</w>
no wled
nine ty</w>
ni peg</w>
n on
multipli er</w>
mil est
mal treatment</w>
m ut
m s-
m aps</w>
lo an</w>
lic ensing</w>
liber ating</w>
lib eration</w>
legi timately</w>
larg ely</w>
la ying</w>
la an
laan ba
laanba atar</w>
l 9
k top</w>
k ly</w>
jo b</w>
j ev
jev o</w>
ite rates</w>
is k</w>
invest ors</w>
inv est</w>
inter relatedness</w>
inter linkages</w>
insul a</w>
inj ustices</w>
initi ally</w>
indirec t</w>
inc est</w>
inad missible</w>
in- Office</w>
in separable</w>
in nipeg</w>
in hibits</w>
in extric
import ation</w>
im petus</w>
illu stra
identi ary</w>
id ate</w>
hydro thermal</w>
house hold</w>
hi p</w>
he ard</w>
h ubs</w>
h or
h im
gradu ally</w>
gener ational</w>
g er</w>
g enc
genc y-related</w>
g ain</w>
fra structure</w>
four -year</w>
forty- one</w>
forest- related</w>
fl ight</w>
fl e
fill ed</w>
fashi on</w>
fac tual</w>
extrem ism</w>
expl ain
expens e</w>
exha usted</w>
exam ples</w>
ex portation</w>
ever- increasing</w>
ev identiary</w>
es hip</w>
er s
er ci
end ants</w>
encompas s</w>
en unciated</w>
empow ered</w>
employ er</w>
emer gency-related</w>
educ ated</w>
ed oni
ea si
e bl
disman tle</w>
discoura ge</w>
direc tional</w>
di ary</w>
develop s</w>
destab ilize</w>
derog ations</w>
derog ating</w>
def erred</w>
dam aging</w>
d ou
cust om</w>
credi ted</w>
cor respond</w>
contra vention</w>
contra ven
conten t-providing</w>
consult ancy</w>
construc ted</w>
constra int</w>
conflic t
confir mation</w>
con form</w>
compl aint</w>
comm erci
co- sponsors</w>
cl aim
claim ant</w>
chron ic</w>
chi ev
characteri zed</w>
chair manship</w>
cha e
certi fies</w>
candi date</w>
canc el</w>
c iliation</w>
buil t</w>
br ings</w>
bl ing</w>
bienni ums</w>
bi directional</w>
bi ased</w>
b acteriological</w>
aut om
aug ment</w>
attach ment</w>
atro sses</w>
ath le
as h</w>
arti sanal</w>
arte facts</w>
arbitra tors</w>
ar- Affected</w>
ar chae
ar a
ara jevo</w>
applic ant</w>
appl aud
anti- trafficking</w>
anti retroviral</w>
anti cipates</w>
and -
all i
af ah</w>
accompan ying</w>
ab e
XX XVI</w>
Wel comes</w>
Was tes</w>
W innipeg</w>
W ar-Affected</w>
U laanbaatar</w>
Th ere</w>
T own</w>
Sp ace
Soci alist</w>
Sh ould</w>
Sh an</w>
Sec ts</w>
SR. 30</w>
S cho
S arajevo</w>
Res olutions.</w>
Rem nants</w>
Ref uge
Recon ciliation</w>
RP M
R isk</w>
R afah</w>
Pu ebl
Programm es</w>
Po sition</w>
P C.2</w>
Objec tive</w>
Nations See</w>
Nations A</w>
Min istry</w>
M es
M S</w>
Lis bon</w>
Lim a</w>
Lif eline</w>
Lib er
Kam puchea</w>
K nowled
Inclu sive</w>
In frastructure</w>
Implementation Report</w>
IV. A</w>
II. C</w>
Haiti an</w>
H az
H .</w>
Exam ination</w>
Establ ishing</w>
Establ ish</w>
E.9 2
E. 7
E S-
Dec olonization</w>
De signing</w>
De f
D- 1</w>
Cre ating</w>
Constitu tive</w>
Comm erce</w>
Clar ification</w>
Can ouan</w>
Cal edoni
CP .
C .1</w>
Assembly See</w>
Am bass
Al-Q uds</w>
Afric aA</w>
Ac cid
A wards</w>
A chiev
A -
97 6</w>
9- E</w>
9 5.</w>
8 6th</w>
8 30</w>
76 3-S</w>
7 3.</w>
60 5</w>
6 90</w>
6 9
6 ,
59 6</w>
5- E</w>
5 66</w>
5 19</w>
48 0</w>
47 2-S</w>
40 5</w>
4 77</w>
4 76</w>
4 69</w>
4 60</w>
4 56</w>
4 48</w>
38 544.</w>
38 1</w>
37 9
3- E</w>
3 51</w>
3 2.</w>
3 10</w>
29 8</w>
28 .
2005 A</w>
2001- 2010
20 56</w>
2 ,7
2 ,4
2 ,200</w>
1994 A</w>
1993 See</w>
199 8-
198 4.</w>
11 .
10 01</w>
1- E</w>
1 Ibid</w>
1 ,000</w>
0- E</w>
0 ,
youth- led</w>
www.un .org</w>
wors ening</w>
weak ening</w>
ward -
ward- looking</w>
w nership</w>
w il
w er</w>
vers a</w>
verb ati
verbati m</w>
valu e-
value- added</w>
v ar
usu ally</w>
uri al</w>
uni versity</w>
underst ood</w>
under -
twenty- four
twenty-four thResolution</w>
tro ops</w>
transla ted</w>
tr uste
ti n</w>
ti ered</w>
ti ce</w>
three- tiered</w>
thereto Resolution</w>
there on
th A</w>
ter -related</w>
ten ess</w>
tel em
telem edic
telemedic ine</w>
te le-
t ends</w>
sym pa
sympa thy</w>
sw ing</w>
susp ended</w>
susp end</w>
sun ami
sunami -
sub sid
sub regions</w>
strong est</w>
strate g
stop ping</w>
status-of- mission</w>
status-of- forces</w>
stat utes</w>
standard -setting</w>
stab ilize</w>
st ren
stren u
st oning</w>
st ay</w>
sport -related</w>
six teen</w>
situ ated</w>
simil arly</w>
settl ing</w>
set -
session Resolution</w>
selec tive</w>
se afarers</w>
satis fying</w>
s Resolution</w>
rup ted</w>
ron ic
ronic le</w>
rog ate</w>
ro om</w>
ri x</w>
revit alized</w>
resum ing</w>
respon siveness</w>
res or
resor ting</w>
res ch
resch edul
repres sive</w>
repa ir</w>
ren umber</w>
rel ying</w>
rel etter</w>
region- specific</w>
ref use</w>
re taining</w>
re ality</w>
rais es</w>
ra se</w>
r a</w>
quic kly</w>
quanti tative</w>
qu ate</w>
pursu its</w>
publ ishing</w>
pro gra
prioriti zation</w>
preven ts</w>
pres entations</w>
precur sor</w>
practi se</w>
pp ed</w>
post- nat
post-nat al</w>
por ary</w>
ple mentary</w>
pl ated</w>
ph y
person alities</w>
pen insula</w>
pas sed</w>
p over
p age</w>
overthro wing</w>
over fishing</w>
outl ining</w>
or gan
or a</w>
opport une</w>
oph ysical</w>
oper ative</w>
off -
obstruc ts</w>
nutri tious</w>
nutri tional</w>
nuclear-weapon- test</w>
nuclear- arms</w>
n avig
navig ational</w>
mul tinational</w>
mov ing</w>
monu ments</w>
mis tice</w>
medic ine</w>
me rely</w>
mat rix</w>
marke t
malaria -related</w>
m ative</w>
liv est
livest ock</w>
lin ed</w>
life- cycle</w>
l icit</w>
kno w</w>
kill ed</w>
keep ers</w>
ity- related</w>
it orial</w>
is en</w>
inter faith</w>
inter actions</w>
int ends</w>
instru mental</w>
inhal ants</w>
infring e</w>
infra structural</w>
inextric ably</w>
inc umb
inc re
in equitable</w>
in accurate</w>
immuni zation</w>
iliz ational</w>
if ic
ici ous</w>
i ents</w>
i -
hundred th</w>
hibi ting</w>
head ed</w>
h uge</w>
h ind</w>
gro w</w>
ge ological</w>
ga thered</w>
g as</w>
fru it
fin ances</w>
fe w</w>
fe at</w>
extrad itable</w>
explo red</w>
explo iting</w>
expl icit</w>
excell ence</w>
ex tr
ev ic
esti tution</w>
environ ment
entreprene urial</w>
enjo ying</w>
endor sing</w>
encompas ses</w>
enabl es</w>
emb er-
ed itorial</w>
econom ics</w>
ec ologically</w>
easi ly</w>
e t
e iv
dis b
dis appointment</w>
deteri orating</w>
des cri
depri ve</w>
depend ency</w>
depend ants</w>
den ounce</w>
deliber ative</w>
de relict</w>
de quate</w>
de feat</w>
d oping</w>
cul ation</w>
cu ed</w>
coordin ates</w>
controll ing</w>
contraven e</w>
contem plated</w>
compri se</w>
compl ied</w>
commit ting</w>
commemor ated</w>
comm unal</w>
co di
civ ilizational</w>
cid es</w>
ch er
c raft</w>
c ep
c au
bul k</w>
bri ef</w>
bl ock</w>
benef it-sharing</w>
be hind</w>
b ranch</w>
b om
attem pting</w>
archae ological</w>
ar isen</w>
and .</w>
an thro
ak ry</w>
aggreg ate</w>
ag ement
ag e
afford ing</w>
affir mative</w>
affir mation</w>
adap ted</w>
accid ents</w>
acc o</w>
ac u
aband oned</w>
ab rogate</w>
a y.</w>
Worksh op</w>
Weapons See</w>
W ith</w>
W inter</w>
Urugu ay.</w>
Uni on-
UN- Oceans</w>
Tur tles</w>
Tri partite</w>
Tem porary</w>
Te am</w>
T -
Sup plementary</w>
Sud an
Sub ject</w>
Statis tics</w>
Sl ums</w>
Sha red</w>
Sa fer</w>
SS. VII</w>
Rev .1.</w>
Represent atives</w>
R I</w>
Protocol Ibid</w>
Pro hibiting</w>
Pl us</w>
Pers ons
Per form
Par king</w>
O wnership</w>
O ri
Nov ember-
N ag
M u
L ine</w>
K ar
Islam ophobia</w>
Islam abad</w>
Irel and.</w>
Iran ian</w>
Increas e</w>
In tro
II I
I M
H IP
Fra g
Fifty- first</w>
Ex port</w>
Enh ancement</w>
El aboration</w>
E.92 .IX.1</w>
E.00 .IV.
E.00.IV. 8</w>
Don ors</w>
Diam ond</w>
Di men
Destruction See</w>
Des cent</w>
Dec l</w>
D P</w>
Cy ber
Cri sis</w>
Cor rected</w>
Conc erning</w>
Con cluding</w>
Con clu
Con akry</w>
Christi an
Chairman- in-Office</w>
Chair men</w>
Ch ronicle</w>
Cap ture</w>
Ca uses</w>
CONF. 15</w>
C ase</w>
Awaren ess</w>
Aud it</w>
Arbitr al</w>
Ar mistice</w>
Appro pri
Appe al</w>
Agenda Report</w>
Ag ricultural</w>
Add. 4.</w>
Add. 12</w>
Acti viti
Ab olition</w>
A s</w>
A re
A dequate</w>
9 56</w>
80 th</w>
8 23</w>
7 63</w>
7 -S</w>
6- E</w>
6 3.</w>
6 25</w>
59 7</w>
57 6</w>
57 4.</w>
50 7</w>
5- 16</w>
5 L</w>
5 K</w>
5 9th</w>
5 63</w>
5 30</w>
48 9</w>
48 5</w>
40 1</w>
4 79</w>
4 73</w>
4 70</w>
4 64</w>
4 54</w>
4 21</w>
39 574.</w>
355 97.</w>
33 27</w>
30 .</w>
3 65</w>
3 49.</w>
3 34</w>
3 19</w>
28 0</w>
27 .</w>
26 363</w>
26 -S</w>
24 6
2004 Ibid</w>
2 167</w>
2 ,8
19 57</w>
16 2.</w>
15 -
14 -
13 77</w>
13 59</w>
10- 17</w>
. 18</w>
,8 50</w>
ó n</w>
youn ger</w>
y k
yk j
ykj avi
ykjavi k</w>
www.un ama
www.unama -
www.unama- af
www.unama-af g
www. uni
vo ke</w>
virtu ally</w>
vi et</w>
verb ale</w>
vari ability</w>
var ying</w>
ur ds</w>
unaccep tably</w>
un restricted</w>
un punished</w>
un likely</w>
un acceptable</w>
ub a</w>
u istic</w>
truste e</w>
treat y-
tol l</w>
ti gu
therap y</w>
th See</w>
th Ibid</w>
ten s</w>
t sunam
tsunam is</w>
t ories</w>
t om
symposi ums</w>
sym b
sw aps</w>
sugg ests</w>
su m</w>
stud ent</w>
str onom
stigm a</w>
state hood</w>
spons oring</w>
spe ed</w>
space -related</w>
sl ums</w>
sl ick</w>
simultane ous</w>
sim ple</w>
seventy- second</w>
set- off</w>
set back</w>
serv itude</w>
self- defence</w>
see ks</w>
secu rities</w>
sea -level</w>
se where</w>
se ats</w>
sc ar
s enti
s cientif
scientif ically</w>
rich ness</w>
ri g
restric tion</w>
respon sibly</w>
res urgent</w>
rent- free</w>
rene wing</w>
ren ds</w>
remun erated</w>
reliev e</w>
ref used</w>
recur ring</w>
recall ed</w>
re- establishing</w>
re uni
re structure</w>
re pris
re confirmed</w>
re conc
r and</w>
r .org.</w>
quo ted</w>
pur ported</w>
pu rely</w>
promin ently</w>
pro ved</w>
prioriti zed</w>
prin ted</w>
pre judge</w>
pre f
pref erred</w>
practi sed</w>
posi um</w>
pos ure</w>
pos ted</w>
pos sibly</w>
pl ed</w>
pl ace
pil ation</w>
ph ysi
ph rase</w>
ph ot
perv asive</w>
perpe tuation</w>
perpe tration</w>
perc eption</w>
per mits</w>
per man
perman ently</w>
pas sion</w>
particul ars</w>
parti cipates</w>
pa rent</w>
ov is
ovis ual</w>
outbre aks</w>
out put</w>
on set</w>
om issions</w>
ol erance</w>
ogen ic</w>
od-neighbour ly</w>
objec tions</w>
o restation</w>
o es</w>
o am
oam er
oamer ican</w>
non- traditional</w>
non- political</w>
non- commercial</w>
ni l</w>
ni c</w>
necess arily</w>
ne im</w>
nation alist</w>
n ur
muni cip
mov able</w>
mone y</w>
mine- awareness</w>
min g
men ace</w>
me ant</w>
mat ch</w>
manu als</w>
manag er</w>
man ual</w>
loc ate</w>
liqu idation</w>
lif ting</w>
lif t</w>
le a
juven iles</w>
judg ment</w>
iv u</w>
iv al</w>
it i</w>
it alization</w>
ir ls</w>
inven tory</w>
inven ting</w>
inv esting</w>
intra regional</w>
inter- governmental</w>
inter rupted</w>
inter rog
inter generational</w>
inter connected</w>
inten tions</w>
integra tes</w>
install ation</w>
insecti cides</w>
ing uistic</w>
incumb ent</w>
incre mental</w>
in si
in -based</w>
imprison ed</w>
ide ological</w>
hostil ity</w>
hospit als</w>
him self</w>
high- priority</w>
her self</w>
ha ven</w>
h ence</w>
guid eline</w>
gres sive</w>
gh ai</w>
gar age</w>
gain ing</w>
g ases</w>
g a</w>
forty- five</w>
forese eable</w>
forci bly</w>
fl uc
fl ora</w>
fin alized</w>
fe ws</w>
fe ed</w>
fam ine</w>
fac tions</w>
fa una</w>
f ron
f ly</w>
f arm</w>
extr a</w>
explain ed</w>
expl ain</w>
exerc ises</w>
exempl ary</w>
ex posure</w>
ex it</w>
ex -
enjo yed</w>
en voys</w>
em ia</w>
elim inated</w>
el sewhere</w>
eigh teen</w>
eed s</w>
eed ed</w>
ec ess
ear ch
dupl icate</w>
dol lar
diversi ties</w>
dispat ched</w>
discre te</w>
disaster- prone</w>
dis ab
direc ting</w>
differen tly</w>
di ver
deter ring</w>
detain ee</w>
des ktop</w>
des c
desc endants</w>
depos itory</w>
demobil ize</w>
decreas ing</w>
decentr alization</w>
de- Related</w>
de fra
d omin
cur fews</w>
cros s
cou pled</w>
contin g
conceal ment</w>
conc eal</w>
compu teri
compil ing</w>
coll ected</w>
cohe sion</w>
codi fied</w>
clo sures</w>
circul ated</w>
cho os
char ting</w>
certi fied</w>
cere mon
car go</w>
c table</w>
bure a
burea uc
bomb ard
bio di
bench mark</w>
bel ts</w>
ball ot</w>
back stopping</w>
b rid</w>
author izing</w>
attribu tion</w>
ations A</w>
ation .</w>
athle tes</w>
at ories</w>
assign ing</w>
assi sts</w>
artemisin in-based</w>
ardi an</w>
arch ival</w>
ar ming</w>
announc ements</w>
an ghai</w>
an g</w>
amp ala</w>
altern ate</w>
all ey</w>
aff ront</w>
advoc ate</w>
advis er</w>
acad emia</w>
ac i
abu sive</w>
a stronom
a S</w>
We b</w>
Vice- Chair</w>
V III.
U p
U N</w>
Turk men</w>
Trib unals</w>
Tra ditional</w>
Tra de-Related</w>
Thirty- fourth</w>
Territ orial</w>
T rends</w>
T olerance</w>
Sym posium</w>
Surve illance</w>
Sum mits</w>
So viet</w>
Sh anghai</w>
Sec tor</w>
Sec tion</w>
San itation</w>
S- 15</w>
S un
Rev italization</w>
Respon ses</w>
Requ ests</w>
Regi ons</w>
Refuge esUnited</w>
Recommend ations</w>
Re ykjavik</w>
Re inventing</w>
Re habilitation</w>
R s</w>
R C-
RC- 1</w>
Proc ed
Pro jects</w>
Pri me</w>
Perform ance</w>
Particip ants</w>
Ol der</w>
Nuclear-Weap on</w>
Nation als</w>
N umber</w>
N ecess
N E
Mobil ization</w>
Mit ch</w>
Mes oamerican</w>
Mar ket</w>
Man agement
M el
L. 9</w>
L ong
L inguistic</w>
Kuwa iti</w>
Knowled ge</w>
K urds</w>
K ivu</w>
K ampala</w>
Je ws</w>
Jab al</w>
J os
Investig ations</w>
Intro duction</w>
Intern ally</w>
Inter faith</w>
Inte rested</w>
In f
Impro ved</w>
IS B
ISB A</w>
Go od-neighbourly</w>
Gh neim</w>
G irls</w>
G E
Fund A</w>
Forty- fifth</w>
Foll ow</w>
Fish ery</w>
Fif teenth</w>
Eth nic</w>
En sure</w>
E vian</w>
Du rable</w>
Docu mentation</w>
Diversity See</w>
Dimen sion</w>
Def ence</w>
De te
Da w</w>
Cro s
Corr up
Consult ations</w>
Consid eration</w>
Com pilation</w>
Coll ec
Co -
Cir culation</w>
Cham ber</w>
Capac ities</w>
Ca used</w>
CN. 15</w>
CN .7</w>
Bel onging</w>
B agh
As sign
Are as</w>
Ap plication</w>
All- Inclusive</w>
Afric a
Add. 7.</w>
Add. 5.</w>
Add ressing</w>
Add ress</w>
Accid ent</w>
Ac tions</w>
Abu -
Abu- Ghneim</w>
95 6.</w>
9 86</w>
9 32</w>
8 ,
7 4
7 36</w>
6 A</w>
6 3rd</w>
6 26</w>
59 8</w>
58 4</w>
50 .</w>
5 44</w>
5 35</w>
5 12</w>
49 8</w>
40 th</w>
4 Rs</w>
38 6</w>
38 5</w>
38 0</w>
338 73.</w>
313 63</w>
308 22</w>
3 73</w>
3 58</w>
3 50</w>
3 21</w>
3 12.</w>
29 9</w>
27 7-S</w>
27 6
24 111.</w>
24 -28</w>
224 95.</w>
224 64</w>
213 60</w>
2001 See</w>
199 2
15 8.</w>
14 956.</w>
14 4
14 152.</w>
13 A</w>
13 68</w>
13 42</w>
10 4.</w>
10 26-S</w>
10 ,000</w>
1,7 00</w>
1 296</w>
1 19.</w>
1 125.</w>
0. 0
. Resolution</w>
. II</w>
z es</w>
z -
y- warning</w>
y les</w>
xim ity</w>
x i
www.unh c
www.unhc r.org.</w>
www. cep
www.cep .un
www.cep.un ep
whom ever</w>
well- coordinated</w>
weap on-
weapon- free</w>
waiv er</w>
w ide
w a</w>
vers ity-related</w>
ven ture</w>
us ting</w>
under signed</w>
un just</w>
un fol
unfol ding</w>
u tin
ty- related</w>
twenty- two</w>
twenty- third
tur ning</w>
tur bul
turbul ence</w>
tru th</w>
tru ce</w>
tron ically</w>
treat ments</w>
tre es</w>
trans- shipment</w>
trade- off</w>
trade- distor
trade-distor ting</w>
tow ns</w>
tot ally</w>
toler ated</w>
tob acco</w>
tion ers</w>
tion .</w>
tigu ity</w>
the ft</w>
termin ated</w>
t- rich</w>
t -up</w>
symb ols</w>
sw if
susp icious</w>
supple mented</w>
super vis
sul ph
sub jection</w>
su ic
suic ide</w>
stra ins</w>
stoc k
stock p
stockp ile</w>
stipul ating</w>
stereoty ping</w>
stead y</w>
star t-up</w>
stab ilizing</w>
st ories</w>
specific ities</w>
specif y</w>
sol icit</w>
small er</w>
sk in
skin head</w>
si ves</w>
sh ores</w>
seventy- five</w>
sent enced</w>
sen i
selec t</w>
secu red</w>
se as
schedul ing</w>
s- building</w>
s low
ru tal</w>
ros ter</w>
ro- industry</w>
ro utin
reti ring</w>
restra int</w>
rest all</w>
resi stant</w>
remp tory</w>
regis tering</w>
regi on
reflec tion</w>
recti fy</w>
record ing</w>
reconc ile</w>
reciproc ity</w>
re x
re organization</w>
re ments</w>
re memb
re bel</w>
re al
rati ves</w>
rapporte ur</w>
ra tely</w>
pul sory</w>
promp ted</w>
prof it
pro ximity</w>
pro ven</w>
presum ed</w>
preci ous</w>
preced ed</w>
pre ferences</w>
practi tioners</w>
pr on
portuni stic</w>
policy makers</w>
pl enipotentiaries</w>
physi cally</w>
persi sting</w>
perpetra te</w>
periodic als</w>
pe remptory</w>
pa ys</w>
p .m.</w>
p .</w>
ove rex
our ing</w>
ou tra
origin ally</w>
or ti
oper ator</w>
oper atives</w>
oper ates</w>
op portunistic</w>
one- time</w>
on y</w>
om ission</w>
om al
od will</w>
oc a
oca ust</w>
ob ile</w>
o be
north- east</w>
non- food</w>
ne arly</w>
nar rowing</w>
nar ratives</w>
n able</w>
municip al</w>
moun ting</w>
mor ally</w>
modi fy</w>
moderni zing</w>
mine- detection</w>
mee ts</w>
mean ing</w>
manifest ation</w>
manif ested</w>
machin eries</w>
m ers</w>
loc ations</w>
ll igence</w>
lif est
lifest yles</w>
leg acy</w>
le tin</w>
le aving</w>
l- related</w>
l y-warning</w>
istan .</w>
is s</w>
iri es</w>
invi g
inven tories</w>
inv al
interrog ation</w>
inte lligence</w>
inqu iries</w>
inform ational</w>
influ encing</w>
ine ering</w>
indic ative</w>
ind ex
in- country</w>
in tent</w>
in ha
inha bi
inhabi ted</w>
in coming</w>
imple mentation-related</w>
impl icated</w>
il -
identi fiable</w>
id ence-building</w>
hel ps</w>
har v
hand ling</w>
h oping</w>
h olid
h k
h iring</w>
h a</w>
guid es</w>
govern s</w>
ga thering</w>
g ers</w>
fra med</w>
found ed</w>
for ty</w>
fo restall</w>
fluc tu
fle et</w>
fir st
fi xed</w>
feren ces
fe wer</w>
fashi oning</w>
faith -based</w>
explan ation</w>
experi encing</w>
expec tation</w>
exemp t</w>
execu ted</w>
ex tor
even tu
esti ons
er ror</w>
equi pped</w>
enrich es</w>
enjo ys</w>
emb ership</w>
elev en</w>
elec tronically</w>
el u
effici encies</w>
ed ly</w>
ear ly-warning</w>
dol ences</w>
divi ded</w>
disbur sement</w>
dis gu
dis close</w>
dis charged</w>
di stress</w>
di agn
diagn os
destin y</w>
depri ving</w>
demon stration</w>
defici encies</w>
def end
def a
defa ult</w>
declar ation
declaration Resolution</w>
dec ree</w>
de taining</w>
de portation</w>
d ly</w>
d ad</w>
cur ring</w>
cur ative</w>
cru sts</w>
cross ings</w>
cre te</w>
counter act</w>
coun cil
council s</w>
cost- saving</w>
cor ners</w>
conting ent</w>
consu mers</w>
consensu s-building</w>
consensu al</w>
condem nable</w>
conc ession</w>
con tiguity</w>
con dolences</w>
compu ter-related</w>
compri sed</w>
comple teness</w>
commenc ed</w>
co bal
cobal t-rich</w>
cle an</w>
choos ing</w>
child care</w>
certific ates</w>
ce iling</w>
cau ght</w>
catastroph es</w>
c e-
c ast</w>
buil ds</w>
buil d
bre ak</w>
bound aries</w>
bir th
biodi versity-related</w>
bi as</w>
bas eline</w>
bal ancing</w>
b rutal</w>
b er-
avoid ed</w>
avoid ance</w>
aud its</w>
attribu tes</w>
as s</w>
arm s-
ar ization</w>
appri se</w>
appreci ative</w>
appe ar</w>
anti- corruption</w>
anim al</w>
and ment</w>
an omal
allow ed</w>
alloc ating</w>
alig nment</w>
air port</w>
ag ro-industry</w>
afford ed</w>
affir m</w>
adhe red</w>
adh ering</w>
ad judic
acti v
accru e</w>
ac company</w>
abe tes</w>
abduc te
a ids</w>
a head</w>
a erial</w>
XX XVII</w>
X .</w>
Volunte er</w>
Vi sion</w>
V alley</w>
Union- United</w>
Twenty- seventh</w>
Terror ist</w>
Tas hk
T B
TB T-
Sym posia</w>
Sw iss</w>
Sum mary</w>
Statu tes</w>
Sla ve</w>
Sh aring</w>
Secretary-General E</w>
S- 21</w>
S P</w>
S O
Regi stry</w>
Ref ugee</w>
Reconfir ming</w>
Re al</w>
R estitution</w>
Qu estions
Punish mentResolution</w>
Prac tical</w>
Portugu ese</w>
Polic ies</w>
Peoples Resolution</w>
Pe er</w>
Particip ation</w>
Pac ific
Organiz ational</w>
O o</w>
O n
Nuclear- weapon-free</w>
Nations- sponsored</w>
Mer ida</w>
Mer cen
Maj or</w>
M embership</w>
L. 34</w>
L. 10</w>
L XXII</w>
Jos é</w>
Indi as</w>
In solvency</w>
In cid
Identif ying</w>
IV .1</w>
III. D</w>
I. A</w>
Hy brid</w>
Hol ocaust</w>
HIP C</w>
Ge or
G C.
Fund s</w>
Forty- sixth</w>
Forty- fourth</w>
Fam ili
Ex ternal</w>
Effec tsSee</w>
E.94 .X
E.7 5.II.A
E.75.II.A .3</w>
E RE
Du ties</w>
Dis eases</w>
Dis ability</w>
Development Resolution</w>
Destruction United</w>
Del ete</w>
De tention</w>
Council A</w>
Conf idence-building</w>
Con text</w>
Con curring</w>
Con crete</w>
Com pulsory</w>
Christian ophobia</w>
Child Ibid</w>
Chairman- designate</w>
CONF. 203</w>
C l
C all</w>
C TBT-
C RC</w>
Bio diversity</w>
Bagh dad</w>
B ene
B allistic</w>
B MS</w>
Arbitr ary</w>
Anti- Discrimination</w>
An aly
Alli ances</w>
Ag e</w>
Add. 10</w>
Ad mission</w>
Action See</w>
AID S
AC. 154</w>
A pp
9 89</w>
9 28</w>
9 .
86 38
8 74</w>
8 5
7 9
7 65</w>
6 See</w>
6 48</w>
57 0</w>
50 ,000</w>
5 J</w>
5 28</w>
5 22</w>
5 17</w>
5 00</w>
49 5</w>
48 9.</w>
48 7</w>
44 6.</w>
43 5.</w>
4 3rd</w>
4 29</w>
4 20</w>
4 00</w>
4 ,6
39 8</w>
39 2</w>
38 8</w>
38 0.</w>
337 57.</w>
3 55</w>
3 281</w>
3 27</w>
3 235</w>
3 .1</w>
3 ,8
28 9.</w>
27 77</w>
2005 See</w>
2001- 2003</w>
2000 A</w>
200 7A</w>
20 9.</w>
20 -
2 58
199 5
198 0
1980 s</w>
197 1Ibid</w>
19 30</w>
146 91.</w>
144 58.</w>
14 95</w>
11 53</w>
106 4.</w>
1,9 00</w>
1, 600</w>
1 267</w>
1 24.</w>
1 196</w>
0. 5</w>
0 9</w>
.ht m
. See</w>
. 14</w>
- specific</w>
,4 50</w>
é co</w>
y e
y aqu
yaqu il</w>
xi ating</w>
well- targeted</w>
weap on</w>
water -related</w>
warr ing</w>
warr ant</w>
w points</w>
w om
wom an</w>
w ind</w>
w ant</w>
w ages</w>
vo king</w>
viti ate</w>
visi bly</w>
vie wpoints</w>
vi al</w>
ush an
ushan be</w>
us her</w>
urg ence</w>
urban izing</w>
und uly</w>
und ocu
undocu mented</w>
un justified</w>
un favourable</w>
un explained</w>
un al
umb rel
umbrel la</w>
um bur
umbur a</w>
um bling</w>
u ality</w>
ty See</w>
two- year</w>
two- track</w>
twenty-third Resolution</w>
tur tles</w>
tur n</w>
tri gg
trigg er</w>
tri ev
tri es
trans it
trans form</w>
train ing-related</w>
tra dition</w>
to x
tl ements</w>
tin y</w>
ti on-oriented</w>
thirty- three</w>
thereon See</w>
there for</w>
therap ies</w>
than king</w>
th in
terial -level</w>
ter sIbid</w>
ter med</w>
tend encies</w>
tele- education</w>
teach ers</w>
te dly</w>
ta ges</w>
t rel
trel s</w>
survi ving</w>
sur pri
surpri se</w>
suppl i
sup pres
suppres sed</w>
summ er</w>
summ aries</w>
sulph ides</w>
succ esses</w>
stud ying</w>
stru ed</w>
stri ving</w>
strenu ously</w>
strateg ically</w>
stan ts</w>
st umbling</w>
st ation</w>
st alling</w>
spe ech</w>
space Treaty</w>
sp ent</w>
sp ending</w>
soci al-
social- humanitarian</w>
sing le-
short com
shortcom ings</w>
shor tages</w>
ship -
ship- generated</w>
sh owing</w>
sh im
shim a</w>
sh ap
sex uality</w>
sev er
sever ity</w>
senti ments</w>
sensiti zed</w>
sem ble</w>
self- revision</w>
self- reli
self-reli ant</w>
self- regulation</w>
self- governing</w>
self- employment</w>
se wage</w>
se es</w>
se em
seem ingly</w>
scour ges</w>
scar city</w>
sc ru
scru tiny</w>
satis fied</w>
s- United</w>
s tive</w>
s lower</w>
s ely</w>
ru itment</w>
rob ust</w>
ro shima</w>
ri par
ripar ian</w>
ri day</w>
revi ved</w>
rev eal</w>
reti red</w>
restra ints</w>
resc ind
rescind ed</w>
res urgence</w>
res our
res ence</w>
res earch
repres sing</w>
repor tedly</w>
ren sic</w>
ren ders</w>
rememb rance</w>
rem ot
remot eness</w>
reite rate</w>
region- wide</w>
refl ag
reflag ging</w>
recti fying</w>
rec over</w>
read ers</w>
re- examination</w>
re voking</w>
re triev
re print</w>
re me</w>
re acting</w>
ration alizing</w>
ration ale</w>
rati c</w>
rang ing</w>
ra y</w>
r ational</w>
qu inqu
quinqu ennial</w>
provin ces</w>
protection ist</w>
protec tive</w>
protec tion-oriented</w>
prospec ting</w>
promulg ating</w>
promin ence</w>
progra mme
profession alism</w>
profes sions</w>
pro voke</w>
pro minent</w>
pro b
pri me</w>
preven ted</w>
prerog atives</w>
pre- emp
pre-emp t</w>
pr ud
post- Bonn</w>
posses sors</w>
posses sor</w>
por tions</w>
po ol</w>
plan et</w>
plan See</w>
place ment
placement E</w>
pla ying</w>
phy xiating</w>
philosoph ical</w>
ph asing</w>
per me
perme ate</w>
pen alized</w>
pat h</w>
pas sen
paren tal</w>
par king</w>
pan els</w>
ow ment</w>
ow al</w>
overthro w</w>
overex plo
over see</w>
over ing</w>
over -
outsour ced</w>
ound ed</w>
oun ding</w>
other mal</w>
oth ing</w>
os es</w>
orti um</w>
origin ator</w>
ori entations</w>
organiz ers</w>
ord ered</w>
or ros</w>
on ous</w>
oll ary</w>
occa sioned</w>
obe ying</w>
nuclear- related</w>
noti fications</w>
nor m</w>
non- trade</w>
non- legally</w>
non -</w>
no ble</w>
nine ty-
nex us</w>
need s-
n es
multi- hazard</w>
ms- Bur
ms-Bur ton</w>
mos qu
mort g
mis conduct</w>
minis terial-level</w>
mine- related</w>
mid point</w>
mi xed</w>
mi x</w>
med ication</w>
meas uring</w>
mar k
mal functions</w>
main tains</w>
ma im</w>
m ilit
milit arily</w>
ll ing</w>
lin ding</w>
li e</w>
le ase</w>
larg est</w>
land owners</w>
l ying</w>
l abor
knowledge -sharing</w>
k istan.</w>
k ill</w>
k haz
journ als</w>
j umbura</w>
iti s</w>
it ting</w>
is onous</w>
is c
ir -
ir- trigger</w>
inval idate</w>
inv asive</w>
inter vals</w>
int an
intan gible</w>
institution alize</w>
inflic ted</w>
ine teenth</w>
inaug ural</w>
in- off</w>
in spec
in sp
in humane</w>
in hibit</w>
in comes</w>
in adequacy</w>
im f
if es
ifes to</w>
id rand</w>
i at
homel and</w>
hol y</w>
help ed</w>
heighten ing</w>
health- related</w>
he ar</w>
harv est</w>
har ves
har ness</w>
hal ting</w>
ha ir-trigger</w>
h um
ground -based</w>
gradu ated</w>
geograph ically</w>
gen dered</w>
ge othermal</w>
g ulf</w>
g ate
gate way</w>
fos tered</w>
fo rensic</w>
fluctu ations</w>
fl u
fish ers</w>
fifty- five</w>
fe aring</w>
fail ures</w>
f ts</w>
expec t
exp ended</w>
exemplif ies</w>
exclu sively</w>
excep tions</w>
ex- combatants</w>
evic tions</w>
ev acu
evacu ation</w>
enlar ging</w>
endang erment</w>
end owment</w>
end ogenous</w>
end ices</w>
encoun ters</w>
enc eless</w>
enac ted</w>
en gendered</w>
emb rac
emancip ation</w>
em placement</w>
eli ophysical</w>
eigh teenth</w>
educ ating</w>
eas y</w>
e- mail</w>
e uro</w>
drug -related</w>
doctr ine</w>
distur b
disturb ance</w>
discipl ine</w>
disb andment</w>
dis may</w>
dis av
disav owal</w>
dig est</w>
diagnos tic</w>
di stance</w>
di ed</w>
di e</w>
destro yed</w>
der ives</w>
depend ence</w>
demonstra ble</w>
demobil ized</w>
def enceless</w>
de- alert</w>
de activ
deactiv ate</w>
d oses</w>
cycl ones</w>
custom ers</w>
cu ts</w>
coura geous</w>
coun cil</w>
corpor al</w>
cor ollary</w>
con voys</w>
con strued</w>
complex ities</w>
compar ison</w>
comp ounded</w>
communic ating</w>
com e-
coll isions</w>
classi fied</w>
cher ishing</w>
ch ase</w>
ceremon ies</w>
cen diary</w>
cel estial</w>
ca tering</w>
bureauc ratic</w>
bul letin</w>
build -up</w>
br on</w>
bombard ment</w>
bio tic</w>
be ach</w>
bas in</w>
barri er</w>
b ond
b est
b atrosses</w>
aw a</w>
avi an</w>
autom ated</w>
au t</w>
atori um</w>
assi stive</w>
ass uring</w>
as semble</w>
as h
as er</w>
articul ate</w>
artemisin in</w>
arms- limitation</w>
arm ly</w>
ar ray</w>
ar are</w>
aqu atic</w>
applaud ing</w>
app raise</w>
app endices</w>
ap se</w>
anti- dumping</w>
anomal y</w>
ane sian</w>
an y
all ay</w>
aler ts</w>
al batrosses</w>
agre ement
advoc ating</w>
adminis ter</w>
admin istrator</w>
adj usting</w>
addres see</w>
addic tion</w>
acqui es
accu rately</w>
abducte e</w>
abduc ting</w>
ab o</w>
a is</w>
a See</w>
Zon éco</w>
Z ones</w>
XX XIV</w>
X C
XC IV</w>
Women Ibid</w>
War fare</w>
W il
W armly</w>
W IT
WIT NE
WITNE SS</w>
V. B</w>
Under water</w>
Under taking</w>
Under standings</w>
UNI T
UNIT AI
UNITAI D</w>
Twenty- eighth</w>
Tur in</w>
Trib unal
Terror ism
Tashk ent</w>
TR IP
TRIP S</w>
T able</w>
Sup reme</w>
Sup porting</w>
Sudan ese</w>
Su stain
State less</w>
Spec ific</w>
Sp in-off</w>
South- West</w>
Six teenth</w>
Signat ures</w>
Signat ories</w>
Sig ning</w>
Septem ber-
Scho ol</w>
Safegu ards</w>
SO L
S tr
S U
Rou tes</w>
Republ ics</w>
Represent ation</w>
Rec tor</w>
Rec ruitment</w>
Re iterates</w>
R ural</w>
R ed
R D</w>
Pur chase</w>
Prote c
Priv ately</w>
Preven tion.</w>
Po isonous</w>
Particip ating</w>
Pal ais</w>
Pacific A</w>
P- 1</w>
P rism</w>
P resence</w>
Out reach</w>
Ori gin</w>
Organiz ation
Or ders</w>
Oper ationsSee</w>
Olymp i
Offic eOfficial</w>
Observ ance</w>
O F</w>
Non- Nuclear-Weapon</w>
Non- Dete
Non-Dete ctable</w>
No t</w>
No .
Necess ity</w>
N ineteenth</w>
Mor atorium</w>
Mercen aries</w>
Mel anesian</w>
Man ifesto</w>
Mal abo</w>
Maj uro</w>
MSP .2</w>
MSP .1</w>
M idrand</w>
M D
La w
L. 7</w>
L. 6</w>
L. 4</w>
L. 39</w>
L. 38</w>
L. 36</w>
L. 33</w>
L. 31</w>
L. 30</w>
L. 2</w>
L. 24</w>
L. 23</w>
L. 22</w>
L. 21</w>
L. 20</w>
L. 18</w>
L. 16</w>
L. 15</w>
L. 13</w>
L asting</w>
L aser</w>
Kuwa itis</w>
Je wish</w>
Island sA</w>
Island s-United</w>
Inter- Congolese</w>
Integr ating</w>
Increas ing</w>
In stitution</w>
In cendiary</w>
Impro vement</w>
Im portation</w>
IP L</w>
III. F</w>
III. A</w>
III .4</w>
II. A.</w>
I s</w>
I D</w>
Hi roshima</w>
Hel ms-Burton</w>
He bron</w>
Haz ardous</w>
H eliophysical</w>
H arare</w>
H RI</w>
H C
Guarante es</w>
Guarante eing</w>
Gua yaquil</w>
Gu ardian</w>
G ases</w>
G O
Frag ments</w>
Fish Code</w>
Fin anced</w>
F riendship</w>
F riday</w>
F IPL</w>
Ex portation</w>
Envo ys</w>
Enh ance</w>
Ecos ystem</w>
ES- V</w>
ERE OF</w>
E.0 4
E- VII</w>
E mp
E l-
E id</w>
Disas tersIbid</w>
Disarmament The</w>
Dis placementE</w>
Development Ibid</w>
Dem ining</w>
De sign
De fin
D ushanbe</w>
Cros sing</w>
Crime Formerly</w>
Cri mes</w>
Corr. 2.</w>
Coordination Official</w>
Contribu ting</w>
Consid ering</w>
Conclu sion</w>
Com ments</w>
Chernoby l-related</w>
Cham orros</w>
Cat ch</w>
Caledoni an</w>
CN. 10</w>
CE RD</w>
C M
Bu jumbura</w>
Board A</w>
Bangkok United</w>
B y</w>
B omb
B linding</w>
B ata</w>
B as
Assign ment</w>
Assi st</w>
As sure</w>
As phyxiating</w>
Appropri ation</w>
Appro ach</w>
Analy sis</w>
Ambass ador</w>
Add. 9</w>
Ac tivity</w>
Ab khaz
AP .II</w>
9- 162.</w>
9- 13</w>
9 United</w>
9 99</w>
9 84</w>
9 13</w>
9 ,4
8638 .</w>
8 9-E</w>
8 68
868 -S</w>
8 45</w>
8 -S</w>
75 15.</w>
7 24</w>
68 8</w>
68 7.</w>
60 th</w>
60 3</w>
6 51</w>
6 10</w>
6 1.</w>
6 ,8
59 5</w>
57 0
570 0.</w>
50 4</w>
5 62</w>
5 158.</w>
5 .IV.
5 .2</w>
48 6</w>
4. 25</w>
4- S</w>
4- E</w>
4 6th</w>
4 57.</w>
4 55</w>
4 51</w>
4 5
4 36</w>
4 33</w>
4 31</w>
38 1.</w>
35 457.</w>
34 74</w>
33 76</w>
33 75</w>
33 69</w>
30 9</w>
3 77</w>
3 70</w>
3 64</w>
3 5.</w>
3 499</w>
3 46</w>
3 263</w>
3 236</w>
3 .2</w>
3 ,6
2670 5</w>
26 21</w>
258 -S</w>
24 43</w>
23 41</w>
213 8.</w>
21- 28.</w>
21 14</w>
2001-2010 A</w>
2001 S</w>
200 9
200 3-
20- 24</w>
2 252</w>
2 237</w>
2 220</w>
2 ,500</w>
2 ,0
1998 See</w>
199 7
199 3-
197 2
196 9United</w>
1949 Ibid</w>
19 29</w>
19 0.</w>
19 0
16- 20</w>
16 53</w>
150 3</w>
15 82</w>
15 5
14 9-162.</w>
130 4</w>
1, 300</w>
1 284</w>
1 272</w>
1 265</w>
1 .2</w>
0.0 01</w>
0 .2</w>
.II. D.
. 12</w>
&apos; i</w>
é ration</w>
à -
à- vi
à-vi s</w>
ystem E</w>
yl um</w>
y- for-
y-for- performance</w>
x ious</w>
x es</w>
www.un od
www.unod c
www.unodc .org</w>
www. reli
www.reli ef
www.relief web
www.reliefweb .
www. i
wide -
wide- ranging</w>
well- informed</w>
water shed</w>
wa vering</w>
wa ive</w>
w rec
w omen
vol ving</w>
vo ter</w>
visi ted</w>
vis -
vis- à-vis</w>
vig our</w>
vi ii</w>
verb al</w>
ver ti
vacc ine</w>
v i</w>
v ary</w>
util ity</w>
us ations</w>
us a</w>
urban ization</w>
ur an
uran ium</w>
up ward</w>
underl ine</w>
und red</w>
un wavering</w>
un t</w>
un ite</w>
un controlled</w>
un certain
uncertain ties</w>
un biased</w>
um erated</w>
u sian</w>
tro le
trole um</w>
tri partite</w>
treaty- monitoring</w>
tre ating</w>
transit -related</w>
trans forming</w>
tran et</w>
tr active</w>
tom -up</w>
toler ant</w>
tol en</w>
tl ing</w>
ti sm</w>
thirty- four</w>
the ories</w>
th od
thod o
thodo x</w>
ta wa</w>
t ours</w>
t ant</w>
t .ht
system -based</w>
sym biotic</w>
suspec t</w>
super -
super- Powers</w>
sup pressing</w>
succ eed</w>
substan tively</w>
sub stitution</w>
sub s
sub programmes</w>
stri f
strif e</w>
stockpil ed</w>
ste ri
ste ering</w>
standard ization</w>
staff ed</w>
st reatment</w>
st ating</w>
st and</w>
speci alists</w>
spar sely</w>
sol ar</w>
so il</w>
sixty- six</w>
sign s</w>
shor tage</w>
ship ments</w>
shel ling</w>
sharp en</w>
sh ows</w>
sh ow</w>
sh as
shas a</w>
seventy- six</w>
set b
setb acks</w>
sembl ance</w>
self- sustainable</w>
seiz ures</w>
seg reg
second -
schol ars</w>
scal es</w>
s- breaking</w>
s outh</w>
s ake</w>
ros ters</w>
riv er</w>
rid gement</w>
reti rees</w>
resul tant</w>
research ers</w>
res pi
respi ra
respira tory</w>
res cued</w>
ren unciation</w>
ren cies</w>
reiter ation</w>
regret tably</w>
ref orestation</w>
ref ers</w>
red ressing</w>
reclassi fication</w>
rece ip
receip ts</w>
reas surance</w>
re rs</w>
re pos
re min
remin ding</w>
re marks</w>
re jecting</w>
re jected</w>
re formed</w>
re actors</w>
r arian</w>
r .
questionn aire</w>
punish ments</w>
pron ounced</w>
profit ability</w>
priv atization</w>
pri ce-
preser ved</w>
preclud ing</w>
preclud ed</w>
pover ty-related</w>
post- harvest</w>
por ters</w>
pol iti
pled ging</w>
ple b
pleb isc
plebisc ite</w>
pl undering</w>
pl ants</w>
pi ec
persist ently</w>
pens ation</w>
peace keepers</w>
pe aks</w>
path i
pas s</w>
pa y-for-performance</w>
p ogenic</w>
p ests</w>
ow ner</w>
over fish
overfish ed</w>
outra ge</w>
ou sing</w>
organ isms</w>
or ch
orch ards</w>
or ative</w>
optim izing</w>
op pression</w>
op i
ons -related</w>
on alities</w>
olu m
olum n</w>
of- living</w>
nuclear- weapons</w>
non- renewable</w>
nomin ating</w>
new s-breaking</w>
nation wide</w>
nation -building</w>
mp tions</w>
monit ors</w>
mod ality</w>
mo de</w>
mis used</w>
minim al</w>
mid -
mi streatment</w>
ment sA</w>
ment See</w>
men se</w>
ma tes</w>
ma il
mail -based</w>
m emorand
m apping</w>
m als</w>
m ale</w>
liqu id
legisl ature</w>
lea fl
leafl et</w>
law fully</w>
labor atories</w>
la y</w>
l ite
l an
ke ts</w>
jurisdic tions</w>
j an</w>
it r</w>
ir responsible</w>
inv ocation</w>
intoler able</w>
interven ing</w>
interpre t
inter- committee</w>
insti g
influ enced</w>
inflic t</w>
inf ant</w>
ine es</w>
indivi sibly</w>
indic ted</w>
indic es</w>
inc en
incen tive</w>
inc ar
in stant</w>
in shasa</w>
in jecting</w>
imped ed</w>
im possible</w>
im mense</w>
im ages</w>
illustra ted</w>
il iti
id .</w>
ic h
ib eration</w>
i x</w>
i ghts</w>
i ation</w>
i a.</w>
hydro meteorological</w>
host ages</w>
hor rent</w>
holid ays</w>
hin d
high- risk</w>
here by</w>
hand le</w>
h older</w>
h ence
hence forth</w>
h ands</w>
h all</w>
gu arding</w>
gender- equality</w>
furni shed</w>
full- time</w>
fruit ful</w>
four teen</w>
forty- nine</w>
forty- eight</w>
fore stry</w>
for ward-looking</w>
flag ship</w>
flag ged</w>
fiv e-
fin -
fin- fish</w>
fig ure</w>
fiel d
fic ient</w>
fer til
fellow s</w>
feed ing</w>
facilit ator</w>
fac es</w>
explo itative</w>
expl icitly</w>
exped ited</w>
exemp tions</w>
exclud ing</w>
ex porters</w>
ex hibitions</w>
evi sion</w>
ever- widening</w>
eventu ally</w>
ev ol
es sion
err al</w>
er- related</w>
er- profile</w>
equ itably</w>
entreprene urs</w>
enti tlements</w>
ent -
enrich ed</w>
enni um
eng ineering</w>
endang ers</w>
end uring</w>
ence- based</w>
en umerated</w>
en counter</w>
en ci
embrac ing</w>
em bodying</w>
em body</w>
em atic</w>
el l</w>
el evision</w>
eiv ables</w>
edi tions</w>
ec tious</w>
ear th</w>
drug -
dri ft</w>
dow n
don ation</w>
diversi fied</w>
dis su
dis harmony</w>
dis continue</w>
direc tives</w>
diplom ats</w>
di jan</w>
destab ilization</w>
descri bing</w>
der ive</w>
den ucle
dem and-
demand- driven</w>
del iberation</w>
defra ying</w>
defini tive</w>
dec rees</w>
dead ly</w>
de tract</w>
d ro</w>
cur rencies</w>
cro ss</w>
cri tically</w>
credi bility</w>
cover t</w>
cost- of-living</w>
correc ting</w>
conv ince</w>
conv ey</w>
construc t</w>
consi gn
concur rently</w>
con stant</w>
con fin
compromis ing</w>
complain ants</w>
comp act</w>
commission ed</w>
comm its</w>
coll apse</w>
clean sing</w>
cl arity</w>
citiz en</w>
ci ences</w>
ci ans</w>
child ren
ch ief</w>
ch am
centr ality</w>
celeb rated</w>
cataly st</w>
c olumn</w>
c a</w>
c .
bu reau</w>
bot tom-up</w>
bom bing</w>
bienni ally</w>
b ordering</w>
b ond</w>
b ona</w>
b old</w>
b is</w>
az awa</w>
attribu te</w>
att ended</w>
atro cious</w>
atin gs</w>
at tractive</w>
at tracted</w>
at ten
assu mptions</w>
assig nees</w>
as sembl
ap sing</w>
ap parent</w>
anthro pogenic</w>
amp utation</w>
ameli orating</w>
al- F
al-F itr</w>
al- Ad
al-Ad ha</w>
ak ers</w>
air craft</w>
ain s</w>
ai res</w>
adolesc ence</w>
addic tions</w>
adap ting</w>
acc usations</w>
abl ing</w>
abduc ted</w>
ab ridgement</w>
ab horrent</w>
a x
a wa
Yugosla vi
X IV.A</w>
Weapons A</w>
VIII. A.</w>
V ol</w>
Uzbe kistan.</w>
Util ization</w>
Tribunal SPLOS</w>
Thirty- third</w>
Thir tieth</w>
Th ematic</w>
Techn ological</w>
T ro
T elevision</w>
Summit See</w>
State lessness</w>
Space -
Space- system-based</w>
Sixty- third</w>
Secretar iat
Se abirds</w>
Sal e</w>
S tolen</w>
S pokes
S at
Rev .2</w>
Rec eivables</w>
Rec alls</w>
Pur su
Puebl a</w>
Pro duc
Pre ferences</w>
Persons Ibid</w>
Pan -
Pan- African</w>
P ris
Over all</w>
Ou tl
Or thodox</w>
Olympi ad</w>
October- 17</w>
OC- 16</w>
O n</w>
O C</w>
Negoti ate</w>
Mu tual</w>
Mongol ian</w>
Mon te
Min sk</w>
Mat ter</w>
MSP .4</w>
MSP .3</w>
M obility</w>
M obile</w>
M aking</w>
M E
Lu anda</w>
Long line</w>
Lead ership</w>
Le arning</w>
La ws</w>
La undering</w>
L. 5</w>
L. 45</w>
L. 43</w>
L. 42</w>
L. 40</w>
L. 3</w>
L. 37</w>
L. 35</w>
L. 32</w>
L. 28</w>
L. 26</w>
L. 19</w>
L. 17</w>
L. 14</w>
L. 11</w>
L ocal</w>
L a</w>
Kan azawa</w>
K is
K inshasa</w>
J A</w>
Inte rests</w>
Inf ectious</w>
Indu stry</w>
Incid ental</w>
In tranet</w>
In cluding</w>
Imm uni
III. F.</w>
II. E</w>
II. D</w>
II bid</w>
I t</w>
H undred</w>
Go ods</w>
Go al</w>
GO V</w>
GC. 23</w>
For um
For tieth</w>
Fisheries -
Fisheries- Related</w>
Equ ipment</w>
Ecos ystemE</w>
E.03 .V.
Diversity United</w>
Discrimination United</w>
Direc tory</w>
Design ates</w>
Dec. 531</w>
Deb ris</w>
D umping</w>
D ue</w>
D raft</w>
D oping</w>
Cri teria</w>
Corrup tionResolution</w>
Corr. 3</w>
Cor r</w>
Consul ting</w>
Consen sus
Conferenc e
Con go
Communi qué</w>
Com ple
Co- Chairmen</w>
Co alition</w>
Cir c.
Chair persons</w>
CTBT- Ar
COP .7</w>
CONF. V</w>
C anc
Belar usian</w>
B ak
Auth orities</w>
Assembly A</w>
As ylum</w>
An dijan</w>
Ag rarian</w>
Afric an-
Adv anced</w>
Adop tion</w>
Add.1- E</w>
Ad d</w>
Actu ary</w>
Achiev ing</w>
Abkhaz ia</w>
AC. 51</w>
A. 9
A rising</w>
A I</w>
99 9.</w>
9 50</w>
9 44</w>
9 3.</w>
9 1st</w>
80 9.</w>
8 9
8 8-
8 46</w>
8 26</w>
7 7
68 2</w>
68 1</w>
60 5.</w>
60 1</w>
6 53</w>
6 5
6 36</w>
6 30</w>
6 20</w>
6 2
6 16</w>
6 1-E</w>
59 2</w>
58 th</w>
58 6</w>
58 0
50 th</w>
50 5</w>
5- 9</w>
5 54</w>
5 52</w>
5 51</w>
5 48</w>
5 38</w>
5 13</w>
5 ,000</w>
49 1</w>
40 8</w>
40 7</w>
4 75</w>
4 71</w>
4 68</w>
4 67</w>
4 58</w>
4 50</w>
4 49</w>
4 40</w>
4 37</w>
4 ,8
39 th</w>
39 48
379 24</w>
34 7.</w>
30 6</w>
30 5-S</w>
30 1</w>
3 60.</w>
3 35</w>
3 26</w>
3 25</w>
3 14</w>
3 13</w>
29 8.</w>
29 7</w>
28 A</w>
276 27</w>
26 0
26 -30</w>
24 .
23 45</w>
23 2.</w>
2005- 2009</w>
2004- 2005A</w>
2000 Ibid</w>
2 ,5
1998- 1999</w>
1992 CD</w>
1990 A</w>
199 9.</w>
199 7A</w>
199 6
199 4.</w>
1972 Resolution</w>
196 5</w>
18 0
15 39</w>
15 3.</w>
14 6.</w>
14 29</w>
14 .
13 71</w>
13 ,
1,4 00</w>
1, 1
1 27
1 .5</w>
. g
. XIV</w>
. A</w>
,7 50</w>
,6 50</w>
,3 75</w>
, 250</w>
, 2
é d
éd ération</w>
z z
y- Kar
y-Kar ab
y-Karab ak
y-Karabak h</w>
y i
y cl
ycl ing</w>
www.uni dro
www.unidro it
www.unh ch
www.unhch r.
www.unhchr. ch
www.unhchr.ch .</w>
www.reliefweb. int</w>
www.cep.unep .org</w>
wrec ks</w>
worklo ads</w>
where in</w>
wh ol
well- regulated</w>
well- functioning</w>
wa ves</w>
w estern</w>
w arded</w>
vir tual</w>
vigil ant</w>
vic in
vicin ity</w>
ven s</w>
valu ed</w>
v or
v it
v ec
v age</w>
us age</w>
urban -
urban- rural</w>
ur ity
urity Food</w>
upro oting</w>
up surge</w>
up held</w>
uni on</w>
under- represented</w>
under age</w>
und eni
undeni ably</w>
unanim ously</w>
un remunerated</w>
un fair</w>
un equal</w>
un c
u sts</w>
u d</w>
u ce</w>
two- hundredth</w>
twenty- four</w>
trib al</w>
traum atic</w>
tor ate</w>
tl ess</w>
tin i</w>
tim al
til l
till ery</w>
tic ation</w>
tic als</w>
ti mul
timul ants</w>
ti gh
thous and</w>
thirty- six
thirty- nine</w>
third- party</w>
there upon</w>
the id</w>
th r
thr ust</w>
th ens</w>
teri ous</w>
ter ary</w>
ten cies</w>
tal ents</w>
ta xes</w>
t- water</w>
t- ID</w>
t une</w>
t sunami-
t A</w>
system See</w>
synthe sis</w>
susp ending</w>
suppli ers</w>
supervis ing</w>
suffici ency</w>
substanti ated</w>
subsid ized</w>
sub jec
strength s</w>
streng th</w>
stream lined</w>
stead ily</w>
stan t-water</w>
staff -
st on</w>
st ent</w>
sport s
sp ap
spap ers</w>
sol ic
smo oth
smooth ly</w>
sl o</w>
sl ides</w>
si te
si s-
si l</w>
si l
short fall</w>
sha re
share holders</w>
sh oul
shoul dered</w>
seventy- seven</w>
seven ty</w>
seni or
see ing</w>
sec rec
secrec y</w>
seas ons</w>
se ize</w>
se arching</w>
scholar ship</w>
san ction</w>
sal vage</w>
s pur
spur ring</w>
s po
s or
s functional</w>
s cre
s S</w>
rup tive</w>
ru ent</w>
ro l
ro c
ro ads</w>
rid ical</w>
reuni ting</w>
rest orative</w>
resid ed</w>
requi sites</w>
repl ied</w>
repatri ated</w>
repar able</w>
remitt ance</w>
rel ics</w>
rel easing</w>
rehabilit ative</w>
regi stries</w>
ref using</w>
reduc es</w>
recur sors</w>
recip ients</w>
rec overing</w>
real m</w>
re- election</w>
re structured</w>
re r</w>
re placed</w>
re invig
re appointed</w>
rac es</w>
ra w</w>
ra il</w>
r y-related</w>
r ine</w>
r and
quic k-
quick- impact</w>
qual ification</w>
qu or
quor um</w>
purch ases</w>
pur view</w>
puni tive</w>
public izing</w>
public ation-related</w>
prud ence</w>
promo tions</w>
programm ed</w>
prof essing</w>
pro ve</w>
pro mises</w>
pri cing</w>
pregn ancy</w>
pre- trial</w>
pre- sessional</w>
pre- construction</w>
pre- conflict</w>
pre tation</w>
pre requisites</w>
pre jud
prejud ging</w>
postpon ement</w>
post- Doha</w>
port al</w>
politi cians</w>
poli tics</w>
pol l</w>
pharmaceu ticals</w>
per ni
perni cious</w>
per forms</w>
pe troleum</w>
pe l</w>
passen gers</w>
parti ally</w>
parti al</w>
pa stor
pa a
paa .htm
p paa.htm
p alli
palli ative</w>
over seeing</w>
ov ers</w>
ou ver</w>
ou ling</w>
ou go
ougo u</w>
other ap
otherap ies</w>
osa fe
ort ality</w>
orph an</w>
orig inate</w>
or n
orn y-Karabakh</w>
or ification</w>
or able</w>
opi ate</w>
op j
opj e</w>
ond -
ond- producing</w>
ol k
ol a</w>
od- borne</w>
oc ulture</w>
oc ated</w>
o od-borne</w>
nur turing</w>
norm alization</w>
non- repetition</w>
non- public</w>
nom ad
nomad ic</w>
ni s</w>
new spapers</w>
neo-Naz is</w>
n essing</w>
mut ati
mutati s</w>
mut an
mutan dis</w>
mu d</w>
mp hetamine-type</w>
motiv ations</w>
mosqu ito</w>
mortg ages</w>
mon otherapies</w>
mon oculture</w>
mod al</w>
mo b</w>
ming led</w>
milest ones</w>
milest one</w>
mercenar ism</w>
men .</w>
memorand ums</w>
massac re</w>
mar king</w>
manifest ly</w>
man ian</w>
m esh</w>
m ag
low- cost</w>
li terary</w>
li st
lev ying</w>
lan es</w>
l it
knowledge -based</w>
know ing</w>
k opje</w>
k is</w>
ju l</w>
jeopard izing</w>
jeopard ized</w>
iv ing</w>
istr acy</w>
issi les</w>
isol ated</w>
is sing</w>
ir reparable</w>
ir ga</w>
introduc es</w>
interpret ation-related</w>
inter- State</w>
inter mingled</w>
inspec tors</w>
infring ed</w>
incur sions</w>
inclu siveness</w>
inci ting</w>
in- kind</w>
in tr
in s
in duce</w>
in come-
in appropriate</w>
imper atives</w>
impa iring</w>
impa ir
imp acted</w>
iliti esResolution</w>
ilit arization</w>
il a
ila teral</w>
igh th</w>
identif ies</w>
ide als</w>
ic ines</w>
i ovisual</w>
i o</w>
hydro log
ho eal</w>
hist ories</w>
heal ing</w>
harves ting</w>
har nessing</w>
ha vens</w>
h ed
hed rine</w>
h atically</w>
gl orification</w>
gi ves</w>
geograph y</w>
gener ic</w>
gender- balanced</w>
ge ared</w>
g ruent</w>
g al
fund a
funda mentally</w>
fu elled</w>
fron ts</w>
fra ud</w>
fos sil</w>
forty- six</w>
forty- seven</w>
for warded</w>
foot b
footb all</w>
follow -
follow- on</w>
fo rec
five- day</w>
fir ms</w>
family- centred</w>
fal si
f ide</w>
extor tion</w>
experi mental</w>
exp iry</w>
exha us
exemplif ied</w>
ex ported</w>
ex changed</w>
evid ent</w>
eu ros</w>
estin e</w>
ess ed</w>
escal ated</w>
es .</w>
ep hedrine</w>
environment -related</w>
entr usts</w>
enomen on</w>
eni ans</w>
ener gies</w>
end -
enci esResolution</w>
en ture</w>
employ ee</w>
emp hatically</w>
embar king</w>
emb rance</w>
em i
em be
embe zz
ell in</w>
el- Ham
el-Ham ra</w>
ed y</w>
ear -
e wing</w>
e terious</w>
e men.</w>
dy sfunctional</w>
drug -free</w>
dri ve</w>
draw down</w>
dow ry-related</w>
dou ble</w>
dollar ization</w>
distribu tes</w>
dis ruptive</w>
dis member</w>
dis integration</w>
dis cord</w>
direc ts</w>
direc tory</w>
differenti al-
differential- treatment</w>
diam ond-producing</w>
di vor
di stant-water</w>
di arr
diarr hoeal</w>
development A</w>
devast ation</w>
destro ying</w>
desi red</w>
depl orable</w>
depend ing</w>
dep end</w>
demonstr ating</w>
dem ilitarization</w>
del eterious</w>
de targeting</w>
de partment</w>
de ficient</w>
d aw
daw n</w>
curric ul
country- led</w>
coun tless</w>
coun ted</w>
cooper ated</w>
conver ted</w>
contra dic
consider ably</w>
cons cription</w>
connec tivity</w>
connec tions</w>
connec ting</w>
connec t</w>
conflict Resolution</w>
conflic t-
concili ate</w>
concentr ating</w>
con gruent</w>
computeri zing</w>
compe tencies</w>
community- level</w>
commerci alized</w>
comm and</w>
com promise</w>
coer ced</w>
co- chairpersons</w>
clean er</w>
cl ient</w>
cl aiming</w>
circum stance</w>
circul ar</w>
child bearing</w>
ch ol
ch ement</w>
cen sus</w>
cel ona</w>
cataly sing</w>
carri age</w>
capit alize</w>
cap ture</w>
c overs</w>
c ationSee</w>
bul lying</w>
br unt</w>
bor ro
bond age</w>
bo ost</w>
bo arding</w>
bl ood-borne</w>
bl e
birth right</w>
bienni alization</w>
bi osafety</w>
b reached</w>
b onds</w>
b ig
aw ards</w>
auth en
ati al</w>
at eness</w>
at -
asu rements</w>
astronom ical</w>
assess ment
assa ults</w>
ass ass
aspir ation</w>
asc ism</w>
as ks</w>
as kis</w>
ar tillery</w>
ar theid</w>
ar ks</w>
ar ized</w>
ar ize</w>
appropri ateness</w>
appe ars</w>
appe arance</w>
appe al
ap artheid</w>
anu be</w>
anticip ate</w>
anti- poverty</w>
anti- money-laundering</w>
anti- ballistic</w>
and er</w>
anc ouver</w>
an- focused</w>
an timal
an sw
an askis</w>
an .</w>
amp utations</w>
ameli orate</w>
alog uing</w>
alli ances</w>
alleg edly</w>
aliz ations</w>
ak i</w>
agu ia</w>
agreement sS</w>
age- sensitive</w>
ag ad
agad ougou</w>
afflic ting</w>
afflic t</w>
aff en</w>
advoc ated</w>
adjudic ating</w>
ad verti
ad mit</w>
ad ing</w>
acqui res</w>
accord s</w>
accompl ice</w>
acad emics</w>
ac id</w>
ac es</w>
absor p
abor ative</w>
ab users</w>
ab ilitiesResolution</w>
a ya</w>
a ren</w>
a -based</w>
Y emen.</w>
X IX</w>
Wh o</w>
WHA 58</w>
WH EREOF</w>
W affen</w>
V enture</w>
V ehic
V ancouver</w>
Uni lateral</w>
Uni fication</w>
UNC IT
UNCIT RA
UNCITRA L</w>
Tur tle</w>
Truste eship</w>
Tro pical</w>
Trans actions</w>
Thre e</w>
TR AI
TRAI N
TRAIN -
TRAIN- SE
TRAIN-SE A-
TRAIN-SEA- CO
TRAIN-SEA-CO A
TRAIN-SEA-COA ST</w>
T ogether</w>
T en
T ar
Summit Food</w>
Sub sequ
Sub committees</w>
State sSee</w>
State sIbid</w>
Secretariat A</w>
Sec urityFood</w>
Schem eSee</w>
Safegu arding</w>
SU A</w>
SR. 35</w>
S timulants</w>
S kopje</w>
S even</w>
S ev
S chol
S anctions</w>
S aguia</w>
Rights E</w>
Revi sion</w>
Revi ewing</w>
Rev ised</w>
Res e
Rene wing</w>
Rem embrance</w>
Rem arks</w>
Red uce</w>
Rec eption</w>
Re- emphasizing</w>
Re par
Re alization</w>
R ate</w>
R as</w>
R 830</w>
R 702</w>
Questions A</w>
Protec ted</w>
Prote cting</w>
Proced ures</w>
Proc eeds</w>
Pro gressive</w>
Popul ar</w>
Pl atforms</w>
Pl ant</w>
Ph enomenon</w>
Peace -building</w>
P recursors</w>
Ou agadougou</w>
Or o</w>
Objec t-ID</w>
O slo</w>
November- 20</w>
No tes</w>
Niñ a</w>
Nations ST</w>
Nag orny-Karabakh</w>
N u
Mone y</w>
Med icines</w>
Med ellin</w>
Me asurements</w>
Man ual</w>
Mad ang</w>
Ma terial
MS C</w>
M ortality</w>
M issing</w>
M issiles</w>
Lusak aS</w>
Li ve</w>
L. 8</w>
L. 50</w>
L. 49</w>
L. 47</w>
L. 46</w>
L. 44</w>
L. 41</w>
L. 27</w>
L. 25</w>
L ocated</w>
L D
L C.2</w>
L .1</w>
Kyrgy z</w>
King ston</w>
Kan anaskis</w>
K o</w>
K aren</w>
Justic eSee</w>
Jud g
Ju ridical</w>
J enin</w>
Inter- Virgin</w>
Inter pretation</w>
Ill egally</w>
IV -
IM O</w>
III. C.</w>
III. B
I. 5</w>
I d</w>
Hel enians</w>
Harm ony</w>
HC R</w>
H ousing</w>
H IV-
Geor ge</w>
Ge ographic</w>
GE N</w>
G ulf</w>
G rants</w>
G al
G N
Fren te</w>
Fi xed</w>
FI R
FI E
FIE L</w>
F édération</w>
F iscal</w>
Ex ported</w>
Ex p
En abling</w>
Emp ha
El- Sheikh</w>
E.94.X I.5</w>
E.03.V. 2</w>
E.0 4.
E- V</w>
E ighth</w>
E C
Dis cipl
Dis abilitiesResolution</w>
Defin ition</w>
Decl .6</w>
Dec. 155</w>
Da y
D anube</w>
D T</w>
D DT</w>
Cy cl
Coun tries
Convention sIbid</w>
Conven ing</w>
Cons ortium</w>
Conference BWC</w>
Communi cationSee</w>
Committe eOfficial</w>
Comm issions</w>
Comm emor
Com pensation</w>
Collec tive</w>
Coll aborative</w>
Chin a-
Child ren
Change United</w>
Cay manian</w>
Caribbe an-focused</w>
COP .1</w>
CONF. IV</w>
CONF. 5</w>
C ul
Board Official</w>
Bi osafe
Bi ennial</w>
Bene f
Bas in</w>
Bar celona</w>
Ban jul</w>
B ilateral</w>
B an</w>
Aud iovisual</w>
Astron autical</w>
Associ ations</w>
Assi stants</w>
As pec
Arrang ement</w>
Arm sSee</w>
Ar ta</w>
Anti- Personnel</w>
Amend ment</w>
Al- A
Al-A mud</w>
Al ps</w>
Ag enciesResolution</w>
Add.1- 7.</w>
Add.1- 4.</w>
Add. 6.</w>
Add. 3.</w>
Activiti esA</w>
Action Food</w>
AIDS Resolution</w>
A thens</w>
A mphetamine-type</w>
A A</w>
90 6.</w>
9 0-E</w>
9 ,0
88 43</w>
88 .
87 -E</w>
8 90</w>
8 6-E</w>
8 40</w>
7- E</w>
7 42</w>
7 33</w>
7 2-
7 10</w>
7 ,800</w>
7 ,300</w>
63 7.</w>
60 8</w>
6 B</w>
6 5.</w>
6 33</w>
6 1
6 ,500</w>
58 7</w>
54 6.</w>
5 I</w>
5 G</w>
5 A</w>
5 78.</w>
5 69</w>
5 67</w>
5 57</w>
5 55</w>
5 53</w>
5 45</w>
5 4.</w>
5 26</w>
46 2.
462. 88.
43 6.</w>
40 906.</w>
40 ,000</w>
4 67-S</w>
4 61</w>
4 4th</w>
4 44</w>
4 38</w>
4 35</w>
4 2
4 ,7
4 ,5
39 9</w>
39 6</w>
38 544</w>
38 4</w>
37 605.</w>
36 7.</w>
313 63.</w>
306 19</w>
30 3.</w>
3- 21</w>
3- 10</w>
3 75</w>
3 5th</w>
3 47</w>
3 44</w>
3 4.</w>
3 39</w>
3 20</w>
3 1st</w>
3 11.</w>
3 1,700</w>
3 1,000</w>
3 ,5
3 ,0
29 4.</w>
28 D</w>
28 B</w>
28 5.</w>
27 C.
27 4.</w>
26 3.</w>
25 97
246 31.</w>
23 49</w>
22 1.</w>
21 53</w>
2008- 2011</w>
2008- 20
2006- 2010</w>
2006- 2007A</w>
2005 Ibid</w>
2004 World</w>
2004 See</w>
2003 A</w>
2002 Ibid</w>
2001- 2005</w>
20 58</w>
20 10-
2. 22</w>
2- 27</w>
2- 13</w>
2 296</w>
2 241</w>
2 2.
2 2-27</w>
2 15.</w>
2 ,3
1999 S</w>
1995 CD</w>
1990 sResolution</w>
18 2.</w>
17 5.</w>
16- 25</w>
16 51</w>
16 24</w>
16 1.</w>
150 6</w>
15 ,6
14 956</w>
14 78</w>
14 16</w>
14 ,
130 2</w>
13 45</w>
12 10</w>
12 1.</w>
12 ,
11 B</w>
11 11</w>
106 1.</w>
10 B</w>
10 4
10 37</w>
10 11.</w>
1, 3
1 242</w>
1 23
1 20.</w>
1 180
1 15
1 143</w>
1 1-
0- series</w>
0 5</w>
0 3</w>
.un .org</w>
. 2.</w>
. 11</w>
. 10</w>
- h
- friendly</w>
ú n</w>
z- Gu
z-Gu er
z-Guer re
z-Guerre ro</w>
z ai</w>
ystem -based</w>
youth- specific</w>
youth- related</w>
yi eld</w>
ye h</w>
y- to-
y- based</w>
y al</w>
y Resolution</w>
y -</w>
www.unama-afg .org</w>
www.unama-afg .org.</w>
www. imf
www.imf .org</w>
wor thy</w>
well- qualified</w>
web .org.</w>
web -based</w>
weak ness</w>
wea ther
weather -related</w>
ward ship</w>
waiv ed</w>
wa p</w>
w are</w>
vis itation</w>
ven u
venu e-
ven tures</w>
vec tor</w>
v an
van ize</w>
user- oriented</w>
ur day</w>
up holds</w>
uni ted</w>
underp in</w>
under utilize</w>
under served</w>
under sc
undersc ore</w>
unc tioning</w>
un satisfactory</w>
un resolved</w>
un reasonable</w>
un balanced</w>
un ab
unab ated</w>
um ption</w>
ul ting</w>
ul e</w>
ugg led</w>
ub mit</w>
u vial</w>
u te
ute Resolution</w>
u plo
uplo ading</w>
u n</w>
two- week</w>
two- way</w>
twenty- three</w>
twenty- seven</w>
tw are</w>
tur tle</w>
tur ally</w>
tu als</w>
tsunami- affected</w>
ts United</w>
tro pical</w>
tri enni
trans porting</w>
trans formed</w>
tradi tionally</w>
tra j
traj aya</w>
tra inees</w>
tox ic</w>
tou ri
tor ne
torne ys</w>
tion- related</w>
tion Report</w>
tic eship</w>
ti ed</w>
ti d
tid al</w>
ti bility</w>
three- day</w>
thirty- two</w>
thirty- second</w>
thirty- one</w>
thirty- eight</w>
ther -to-
ther-to- child</w>
the ory</w>
th Official</w>
termin ate</w>
ter ity</w>
ten ing</w>
tem ized</w>
tel li
telli tes</w>
teach er</w>
te sted</w>
te es</w>
tan ks</w>
ta to</w>
t.ht m</w>
t tawa</w>
t ons</w>
t fully</w>
t .XIV</w>
system ically</w>
swif t</w>
suspec ts</w>
sur rendered</w>
sunami- Affected</w>
succ eeded</w>
subs cribed</w>
subjec t-
sub mar
su ses</w>
su re
sure .</w>
steri l
steril ization</w>
stat uteResolution</w>
staff- intensive</w>
st ret
specif ication</w>
speci alist</w>
spe ak</w>
sou k
souk ro</w>
solic itation</w>
so f
sof tware</w>
smo king</w>
sm uggled</w>
slow ed</w>
sixty- sixth</w>
sixty- first
simplif ying</w>
simplif ied</w>
sil ia</w>
si vity</w>
si tions</w>
short -</w>
shor test</w>
shor ter</w>
shor tening</w>
sharp ening</w>
sh if
seventy- three</w>
seventy- four</w>
session s
ses s</w>
servic ed</w>
sens ed</w>
senior -level</w>
self- help</w>
segreg ation</w>
se at</w>
scri pt</w>
satis fies</w>
sa w</w>
s wap</w>
s olu
solu ble</w>
s ka</w>
s itting</w>
s b
sb ourg</w>
s anc
s Report</w>
routin e</w>
rol ment</w>
ro man
roman gan
romangan ese</w>
ro bi
rit e</w>
ris k
rig or
rigor ous</w>
ri um</w>
ri gi
ri gh
righ tful</w>
rev ocation</w>
reti re</w>
results -
respec tfully</w>
resi li
resili ent</w>
res ubmit</w>
repris als</w>
repris al</w>
represent ations</w>
represent ational</w>
repa iring</w>
rep utations</w>
ren ts</w>
ren ticeship</w>
remo tely</w>
reloc ated</w>
reli ed</w>
reimbur sing</w>
reimbur sed</w>
refoul er</w>
ref erral</w>
red und
recru its</w>
recre ation</w>
rec ycling</w>
reas sess</w>
re- emerging</w>
re z-Guerrero</w>
re volving</w>
re venue-
re sides</w>
re produced</w>
re form
re deploy</w>
re convening</w>
re b
reb els</w>
re appraisal</w>
re allocate</w>
re A</w>
rap pro
rappro chement</w>
rand om</w>
ran ts
rac k
rack dow
rackdow ns</w>
r y
r p
rp t.htm</w>
r atings</w>
r anc
questionn aires</w>
quanti ty</w>
quanti fiable</w>
qu i
qu an
quan tification</w>
propor tional</w>
promis ing</w>
prohibi tive</w>
prob ability</w>
pro of</w>
pro hibits</w>
pro hibitions</w>
priv ately</w>
prioriti zing</w>
prin ting</w>
pri m
prim acy</w>
presum ption</w>
pres sures</w>
preclud es</w>
precau tions</w>
pre mis
premis ed</w>
pre mat
premat ure</w>
pre condition</w>
pr o</w>
post- emergency</w>
port fol
portfol io</w>
pollu ted</w>
phot ographic</w>
per sion</w>
pension ers</w>
pathi ans</w>
part ner
par a
pan el
panel lists</w>
p ska</w>
p raises</w>
overexplo ited</w>
over utilization</w>
outl ets</w>
out ward</w>
ous soukro</w>
ourn al</w>
oun ds</w>
ou red</w>
ot withstanding</w>
os tering</w>
os sible</w>
ort ola</w>
origin s</w>
or one</w>
or ated</w>
oper ators</w>
op ens</w>
op a
opa z</w>
oni ki</w>
ong side</w>
on i</w>
om ass</w>
om as</w>
olog ne</w>
ol is</w>
oblig ed</w>
ob struction</w>
ob s</w>
o ok</w>
o ing</w>
o .un.org</w>
nutri tionReport</w>
non- target</w>
non- member</w>
non- family</w>
non- earmarked</w>
non- documented</w>
non- directed</w>
non- United</w>
no xious</w>
no te
no ise</w>
no -
no- objection</w>
nivers aries</w>
nine teen</w>
ni est
niest rian</w>
net ting</w>
nes ties</w>
negoti able</w>
neg ation</w>
nam ed</w>
n i</w>
multi tude</w>
mo ther-to-child</w>
mo ment</w>
mitig ated</w>
mit tent</w>
mis reported</w>
mis management</w>
mis appropriation</w>
min utes</w>
min ed</w>
militi a</w>
mig rants
micro enterprise</w>
ment .</w>
measu red</w>
me tric</w>
market -related</w>
market -based</w>
maj e
maje ure</w>
m emorial</w>
m ap
[...]
