#version: 0.2
t ;</w>
q u
qu o
quo t;</w>
& quot;</w>
国 家</w>
美 国</w>
经 济</w>
一 个</w>
我 们</w>
政 府</w>
可 能</w>
他 们</w>
中 国</w>
问 题</w>
可 以</w>
这 些</w>
政 策</w>
没 有</w>
2 0
欧 洲</w>
需 要</w>
已 经</w>
世 界</w>
政 治</w>
增 长</w>
如 果</w>
全 球</w>
因 为</w>
主 义</w>
必 须</w>
其 他</w>
市 场</w>
这 一</w>
以 及</w>
欧 盟</w>
应 该</w>
但 是</w>
不 是</w>
因 此</w>
它 们</w>
社 会</w>
地 区</w>
这 样</w>
重 要</w>
银 行</w>
危 机</w>
通 过</w>
认 为</w>
经 济
投 资</w>
支 持</w>
发 展</w>
影 响</w>
方 面</w>
实 现</w>
成 为</w>
能 够</w>
无 法</w>
同 时</w>
提 供</w>
许 多</w>
总 统</w>
自 己</w>
这 个</w>
国 际</w>
尽 管</w>
导 致</w>
这 种</w>
美 元</w>
部 分</w>
目 标</w>
情 况</w>
现 在</w>
20 1
1 9
进 行</w>
20 0
计 划</w>
人 们</w>
开 始</w>
增 加</w>
罗 斯</w>
领 导
所 有</w>
俄 罗斯</w>
正 在</w>
改 革</w>
组 织</w>
事 实
企 业</w>
带 来</w>
如 此</w>
特 朗
特朗 普</w>
公 司</w>
机 构</w>
英 国</w>
事实 上</w>
未 来</w>
一 些</w>
就 是</w>
金 融
贸 易</w>
民 主</w>
收 入</w>
风 险</w>
技 术</w>
安 全</w>
之 间</w>
结 果</w>
那 么</w>
存 在</w>
债 务</w>
行 动</w>
获 得</w>
要 求</w>
主 要</w>
领导 人</w>
什 么</w>
那 些</w>
日 本</w>
变 化</w>
发 生</w>
更 加</w>
不 会</w>
解 决</w>
德 国</w>
任 何</w>
关 系</w>
世 纪</w>
包 括</w>
2 0</w>
0 0</w>
作 为</w>
印 度</w>
造 成</w>
成 功</w>
伊 朗</w>
一 直</w>
一 种</w>
如 何</w>
持 续</w>
工 作</w>
长 期</w>
过 去</w>
挑 战</w>
面 临</w>
建 立</w>
目 前</w>
不 同</w>
能 力</w>
威 胁</w>
而 且</w>
对 于</w>
金 融</w>
此 外</w>
出 现</w>
利 益</w>
货 币</w>
时 间</w>
同 样</w>
产 生</w>
以 色
国 内</w>
作 用</w>
甚 至</w>
措 施</w>
以 来</w>
不 能</w>
继 续</w>
稳 定</w>
教 育</w>
十 年</w>
选 择</w>
采 取</w>
以色 列</w>
合 作</w>
决 定</w>
意 味
意味 着</w>
得 到</w>
价 格</w>
战 争</w>
利 亚</w>
希 望</w>
规 模</w>
只 有</w>
自 由</w>
提 高</w>
协 议</w>
来 说</w>
机 会</w>
最 终</w>
生 活</w>
如 今</w>
成 本</w>
表 明</w>
最 近</w>
行 为</w>
拥 有</w>
水 平</w>
资 本</w>
西 方</w>
研 究</w>
实 施</w>
仍 然</w>
巨 大</w>
一 步</w>
原 因</w>
下 降</w>
严 重</w>
方 案</w>
环 境</w>
法 国</w>
选 举</w>
欧 洲
似 乎</w>
部 门</w>
斯 坦</w>
央 行</w>
改 变</w>
是 否</w>
需 求</w>
特 别</w>
利 率</w>
并 且</w>
当 然</w>
保 护</w>
多 数</w>
方 式</w>
使 用</w>
拉 克</w>
制 度</w>
承 诺</w>
系 统</w>
接 受</w>
能 源</w>
战 略</w>
为 了</w>
时 候</w>
联 合
体 系</w>
随 着</w>
各 国</w>
一 样</w>
欧 元
欧元 区</w>
受 到</w>
亿 美元</w>
G D
其 中</w>
财 政</w>
即 使</w>
减 少</w>
程 度</w>
谈 判</w>
确 保</w>
GD P</w>
历 史</w>
资 产</w>
还 是</w>
冲 突</w>
人 口</w>
有 效</w>
货 币
资 源</w>
非 洲</w>
由 于</w>
移 民</w>
年 代</w>
伊 斯
一 次</w>
亚 洲</w>
降 低</w>
真 正</w>
几 乎</w>
从 而</w>
考 虑</w>
因 素</w>
相 反</w>
项 目</w>
完 全</w>
资 金</w>
来 自</w>
控 制</w>
虽 然</w>
自 身</w>
权 力</w>
一 点</w>
那 样</w>
服 务</w>
经济 体</w>
阿 拉
避 免</w>
奥 巴
力 量</w>
帮 助</w>
基 础</w>
今 天</w>
奥巴 马</w>
大 部分</w>
观 点</w>
生 产
变 得</w>
劳 动
越 来
进 一步</w>
领 域</w>
和 平</w>
联 盟</w>
也 许</w>
学 家</w>
土 耳
非 常</w>
管 理</w>
投 资
保 持</w>
伊 拉克</w>
在 于</w>
利 用</w>
世 界
限 制</w>
比 如</w>
越来 越</w>
不 断</w>
或 者</w>
类 似</w>
民 众</w>
叙 利亚</w>
就 业</w>
模 式</w>
自 由
某 些</w>
还 有</w>
只 是</w>
提 出</w>
反 对</w>
国 际
土耳 其</w>
设 施</w>
最 大</w>
改 善</w>
地 位</w>
做 出</w>
员 国</w>
成 员国</w>
创 造</w>
破 坏</w>
最 后</w>
活 动</w>
希 腊</w>
重 新</w>
监 管</w>
领 导</w>
之 一</w>
方 法</w>
地 方</w>
表 现</w>
援 助</w>
努 力</w>
有 人</w>
大 量</w>
仅 仅</w>
过 程</w>
推 动</w>
状 况</w>
委 员
刺 激</w>
首 先</w>
具 有</w>
关 注</w>
委员 会</w>
起 来</w>
共 同</w>
朝 鲜</w>
阿拉 伯</w>
武 器</w>
全 球
超 过</w>
显 然</w>
出 口</w>
规 则</w>
知 道</w>
数 据</w>
法 律</w>
很 多</w>
条 件</w>
当 前</w>
公 共</w>
不 仅</w>
联合 国</w>
应 对</w>
上 述</w>
责 任</w>
达 到</w>
家 庭</w>
投资 者</w>
赤 字</w>
传 统</w>
欧 元</w>
相 对</w>
支 出</w>
制 定</w>
结 束</w>
参 与</w>
危 险</w>
人 民</w>
压 力</w>
普 京</w>
不 再</w>
公 民</w>
这 是</w>
取 得</w>
关 于</w>
运 动</w>
而 是</w>
巴 勒
创 新</w>
伊斯 兰</w>
城 市</w>
发 展
事 件</w>
人 类</w>
价 值</w>
将 会</w>
基 础
全 世界</w>
共 和
关 键</w>
的 话</w>
维 持</w>
与 此
政 治
时 代</w>
平 衡</w>
美 国
选 民</w>
发 现</w>
整 个</w>
机 制</w>
证 明</w>
相 关</w>
才 能</w>
5 0</w>
竞 争</w>
公 众</w>
试 图</w>
3 0</w>
而 言</w>
现 实</w>
基础 设施</w>
贸 易
劳动 力</w>
事 实</w>
之 后</w>
一 场</w>
繁 荣</w>
扩 大</w>
0 00</w>
石 油</w>
与此 同时</w>
贷 款</w>
后 果</w>
新 兴</w>
及 其</w>
乌 克
1 0</w>
认 识</w>
形 成</w>
联 储</w>
平 等</w>
军 事</w>
19 9
官 员</w>
基 本</w>
理 解</w>
之 前</w>
上 升</w>
进 步</w>
相 信</w>
报 告</w>
恐 怖
健 康</w>
信 息</w>
两 个</w>
至 少</w>
私 人</w>
通 胀</w>
革 命</w>
美 联储</w>
一 项</w>
政 权</w>
令 人</w>
错 误</w>
气 候
直 接</w>
理 由</w>
气候 变化</w>
应 当</w>
产 品</w>
意 大
唯 一</w>
乌克 兰</w>
大 多数</w>
陷 入</w>
担 心</w>
或 许</w>
意 义</w>
媒 体</w>
文 化</w>
解 决
大 规模</w>
消 费</w>
贫 困</w>
失 败</w>
个 人</w>
生 产</w>
发展 中
发展中 国家</w>
暴 力</w>
明 确</w>
实 际</w>
民 主
财 政
解 释</w>
独 立</w>
进 入</w>
数 字</w>
尤 其</w>
分 子</w>
难 民</w>
趋 势</w>
视 为</w>
全球 化</w>
实 际
依 然</w>
中 东</w>
达 成</w>
意大 利</w>
容 易</w>
更 好</w>
准 备</w>
指 出</w>
缺 乏</w>
权 利</w>
代 表</w>
根 据</w>
日 益</w>
损 失</w>
面 对</w>
愿 意</w>
只 能</w>
内 部</w>
预 算</w>
预 测</w>
行 业</w>
爆 发</w>
不 可
协 定</w>
巴 基
重 大</w>
数 量</w>
承 认</w>
强 大</w>
领 袖</w>
穆 斯
必 要</w>
引 发</w>
标 准</w>
穆斯 林</w>
一 切</w>
足 够</w>
融 资</w>
巴基 斯坦</w>
会 议</w>
主 权</w>
经 历</w>
今 年</w>
助 于</w>
过 度</w>
并 非</w>
埃 及</w>
阻 止</w>
针 对</w>
医 疗</w>
金融 危机</w>
用 于</w>
消 费
十 分</w>
税 收</w>
手 段</w>
干 预</w>
加 入</w>
然 而</w>
外 交
往 往</w>
儿 童</w>
讨 论</w>
允 许</w>
衰 退</w>
令 人
核 心</w>
更 为</w>
债 券</w>
代 价</w>
欧洲 央行</w>
期 间</w>
看 到</w>
一 位</w>
根 本</w>
结 构</w>
反 应</w>
原 则</w>
200 8</w>
积 极</w>
总 理</w>
正 确</w>
广 泛</w>
决 策
促 进</w>
依 赖</w>
范 围</w>
科 学</w>
目 的</w>
人 民
拒 绝</w>
定 性</w>
韩 国</w>
每 年</w>
工 人</w>
进 程</w>
很 大</w>
正 如</w>
调 整</w>
办 法</w>
时 期</w>
工 资</w>
女 性</w>
公 共
一 致</w>
迅 速</w>
有 助于</w>
货币 政策</w>
经济 学家</w>
外 国</w>
决 策</w>
财 富</w>
感 到</w>
预 期</w>
第 二
汇 率</w>
宣 布</w>
反 映</w>
基 金</w>
联 系</w>
开 放</w>
实 力</w>
复 杂</w>
去 年</w>
相 当</w>
任 务</w>
不 到</w>
阿 富
不 过</w>
竞 争
复 苏</w>
治 理</w>
所 以</w>
更 大</w>
实际 上</w>
完 成</w>
基 于</w>
削 减</w>
袭 击</w>
之 外</w>
一 定</w>
这 场</w>
民 族
布 什</w>
决策 者</w>
议 会</w>
效 果</w>
成 员</w>
肯 定</w>
好 处</w>
潜 在</w>
加 强</w>
确 定</w>
外 交</w>
商 品</w>
优 势</w>
态 度</w>
保 证</w>
阿富 汗</w>
鼓 励</w>
粹 主义</w>
社 会
毕 竟</w>
尼 亚</w>
疾 病</w>
找 到</w>
网 络</w>
短 期</w>
巴勒 斯坦</w>
工 具</w>
大 幅</w>
确 实</w>
腐 败</w>
所 谓</w>
经 常</w>
其 实</w>
正 是</w>
困 难</w>
通 常</w>
赢 得</w>
极 端</w>
形 式</w>
妇 女</w>
大 学</w>
民 粹主义</w>
失 去</w>
排 放</w>
框 架</w>
宗 教</w>
8 0</w>
该 国</w>
角 色</w>
交 易</w>
显 示</w>
达 国家</w>
立 场</w>
崩 溃</w>
发 达国家</w>
生产 率</w>
有 关</w>
墨 西
评 估</w>
即 便</w>
合 理</w>
简 单</w>
当 时</w>
增 长
消费 者</w>
本 身</w>
效 率</w>
气 候</w>
政 党</w>
处 于</w>
国 会</w>
经 验</w>
条 约</w>
建 设</w>
为 什么</w>
不 可</w>
一 部分</w>
比 亚</w>
承 担</w>
人 员</w>
是 因为</w>
转 移</w>
储 蓄</w>
紧 缩</w>
有 所</w>
明 显</w>
秩 序</w>
曾 经</w>
商 业</w>
几 个</w>
技 能</w>
遭 到</w>
强 调</w>
调 查</w>
收 益</w>
建 议</w>
寻 求</w>
制 裁</w>
共和 党</w>
影 响
影响 力</w>
防 止</w>
转 变</w>
群 体</w>
统 治</w>
执 行</w>
只 要</w>
支 持
巴 西</w>
几 年</w>
证 据</w>
削 弱</w>
军 队</w>
道 德</w>
反 对
想 要</w>
不 管</w>
宪 法</w>
分 配</w>
再 次</w>
苏 联</w>
有 些</w>
支 付</w>
强 化</w>
公 平</w>
除 了</w>
能 性</w>
崛 起</w>
国 人</w>
表 示</w>
多 年</w>
中 国
开 发</w>
使 得</w>
伙 伴</w>
逐 渐</w>
策 略</w>
恢 复</w>
制 造</w>
事 情</w>
可 能性</w>
7 0</w>
金融 市场</w>
处 理</w>
一 起</w>
追 求</w>
负 责</w>
恶 化</w>
墨西 哥</w>
农 业</w>
投 票</w>
同 意</w>
加 剧</w>
专 家</w>
速 度</w>
放 弃</w>
情 绪</w>
当 局</w>
集 团</w>
难 以</w>
坚 持</w>
遏 制</w>
补 贴</w>
比 例</w>
核 武器</w>
担 忧</w>
公 开</w>
福 利</w>
引 起</w>
死 亡</w>
快 速</w>
外 部</w>
信 心</w>
俄 国</w>
东 西</w>
满 足</w>
意 识</w>
动 性</w>
理 论</w>
中 心</w>
三 个</w>
打 击</w>
扩 张</w>
取 决
取决 于</w>
做 法</w>
例 子</w>
1 1</w>
治 疗</w>
北 约</w>
进 展</w>
前 景</w>
人 士</w>
利 于</w>
军 事
1 2</w>
转 型</w>
几 十年</w>
不 幸</w>
足 以</w>
永 远</w>
所 有人</w>
人 权</w>
糟 糕</w>
现 有</w>
思 想</w>
动 荡</w>
储 备</w>
购 买</w>
充 分</w>
贬 值</w>
解决 方案</w>
批 评</w>
分 裂</w>
I M
方 向</w>
基 金
出 来</w>
共 产
要 性</w>
执 政</w>
6 0</w>
精 英</w>
方 针</w>
全 面</w>
知 识</w>
现 代</w>
举 行</w>
道 路</w>
IM F</w>
障 碍</w>
毫 无
政 客</w>
势 力</w>
为 止</w>
空 间</w>
增长 率</w>
了 解</w>
至 关
至关 重要</w>
现 象</w>
集 中</w>
清 楚</w>
成 立</w>
大 国</w>
局 面</w>
失 业
信 任</w>
迫 使</w>
有 着</w>
主 义
退 出</w>
负 担</w>
常 常</w>
对 此</w>
主 席</w>
统 一</w>
利 润</w>
主义 者</w>
民 族</w>
大 约</w>
以 上</w>
4 0</w>
灾 难</w>
发 达</w>
中 央
采 取
西 班
燃 料</w>
吸 引</w>
年 轻
失 业</w>
大 选</w>
201 5</w>
设 计</w>
并 未</w>
体 制</w>
状 态</w>
提 升</w>
即 将</w>
这 方面</w>
民族 主义</w>
9 0</w>
竞争 力</w>
正 式</w>
学 生</w>
阶 段</w>
总 是</w>
峰 会</w>
制 造
分 析</w>
他 人</w>
结 构
系 列</w>
不 但</w>
胜 利</w>
市 场
人民 币</w>
不 足</w>
符 合</w>
不 仅仅</w>
阶 级</w>
每 个</w>
最 新</w>
外交 政策</w>
保 护
年轻 人</w>
局 势</w>
一 年</w>
盟 友</w>
激 励</w>
部 长</w>
身 份</w>
本 国</w>
之 中</w>
社 区</w>
天 然
变 成</w>
冲 击</w>
例 如</w>
采 用</w>
资 本
经济 学</w>
各 种</w>
选 人</w>
平 均</w>
质 量</w>
消 息</w>
天然 气</w>
岗 位</w>
西班 牙</w>
孩 子</w>
发 挥</w>
流 动性</w>
未 能</w>
摆 脱</w>
怀 疑</w>
多 少</w>
支持 者</w>
停 止</w>
2 5</w>
真 的</w>
波 兰</w>
卫 生</w>
一 系列</w>
民主 党</w>
忽 视</w>
具 体</w>
二 十
百 万</w>
候 选人</w>
效 应</w>
差 异</w>
依 靠</w>
为 何</w>
联 网</w>
欧洲 人</w>
否 则</w>
值 得</w>
价 值
1 5</w>
联 邦</w>
教 训</w>
投 入</w>
生 命</w>
想 象</w>
关 键
体 化</w>
. 5</w>
转 向</w>
失业 率</w>
看 来</w>
指 责</w>
区 域</w>
预 计</w>
进 口</w>
相 比</w>
根 本
斗 争</w>
取 代</w>
事 务</w>
一 份</w>
这 项</w>
贡 献</w>
结构 性</w>
很 快</w>
年 来</w>
呼 吁</w>
双 方</w>
一 旦</w>
最 高</w>
回 报</w>
分 歧</w>
关 税</w>
不 得
合 法
保 险</w>
从 未</w>
规 定</w>
左 右</w>
一 方面</w>
一 体化</w>
201 0</w>
变 革</w>
马 斯</w>
远 远</w>
科 技</w>
消 除</w>
欢 迎</w>
潜 力</w>
近 平</w>
自 然</w>
精 神</w>
确 定性</w>
新 闻</w>
土 地</w>
习 近平</w>
法 院</w>
有 限</w>
显 著</w>
学 校</w>
随 后</w>
有 利于</w>
团 结</w>
工 业
取 消</w>
力 于</w>
致 力于</w>
无 论</w>
攻 击</w>
邻 国</w>
起 到</w>
疑 问</w>
持 续
下 跌</w>
阻 碍</w>
良 好</w>
联 合</w>
强 烈</w>
伤 害</w>
阿 根
质 疑</w>
直 到</w>
痛 苦</w>
恐怖 主义</w>
宽 松</w>
而 易
斯 坦
膨 胀</w>
竞 选</w>
当 选</w>
地 缘</w>
之 下</w>
黎 巴
答 案</w>
怎 样</w>
工 业</w>
安 全
基金 组织</w>
两 国</w>
学 习</w>
克 里
上 涨</w>
这 次</w>
某 种</w>
极 大</w>
推 进</w>
后 者</w>
共 识</w>
停 滞</w>
过 于</w>
辩 论</w>
最 佳</w>
差 距</w>
多 边</w>
哈 马斯</w>
分 之一</w>
彻 底</w>
可 靠</w>
保 守
争 论</w>
万 亿美元</w>
阿根 廷</w>
重 要性</w>
要 么</w>
普 遍</w>
产 业</w>
领 土</w>
体 现</w>
互 联网</w>
言 之</w>
不 确定性</w>
禁 止</w>
流 动</w>
最 好</w>
信 用</w>
一 半</w>
当 今</w>
地 球</w>
警 告</w>
泡 沫</w>
对 手</w>
201 4</w>
200 9</w>
程 序</w>
工 作
层 面</w>
少 数</w>
除 非</w>
还 要</w>
官 方</w>
大 陆</w>
遭 受</w>
基 本
克 尔</w>
黎巴 嫩</w>
破 产</w>
最 为</w>
寻 找</w>
右 翼</w>
冷 战</w>
不得 不</w>
部 队</w>
汽 车</w>
实 行</w>
国际 货币
单 一</w>
价值 观</w>
201 3</w>
201 2</w>
19 8
理 性</w>
发 表</w>
1 00</w>
通 货
明 白</w>
政治 家</w>
放 缓</w>
批 准</w>
基 因</w>
困 境</w>
伊斯 兰
美 洲</w>
盈 余</w>
报 道</w>
国际货币 基金组织</w>
假 设</w>
供 给</w>
很 少</w>
对 话</w>
印 度
适 应</w>
构 成</w>
团 体</w>
倾 向</w>
萧 条</w>
自 我</w>
混 乱</w>
成 果</w>
得 以</w>
巴勒 斯坦
对 抗</w>
付 出</w>
下 去</w>
重 点</w>
被 迫</w>
真 实</w>
指 标</w>
协 调</w>
生 存</w>
构 建</w>
加 速</w>
说 法</w>
角 度</w>
开 支</w>
制造 业</w>
严 格</w>
长 期
背 景</w>
而易 见</w>
缓 慢</w>
显 而易见</w>
持 有</w>
在 内</w>
保 障</w>
艾 滋
的 确</w>
概 念</w>
告 诉</w>
债 权
管 如此</w>
矛 盾</w>
尽 管如此</w>
另 外</w>
动 力</w>
众 多</w>
一 条</w>
那 里</w>
脆 弱</w>
相 同</w>
沙 特</w>
毫无 疑问</w>
能 否</w>
比 较</w>
平 等
供 应</w>
估 计</w>
这 里</w>
说 明</w>
无 论
提 振</w>
尊 重</w>
富 裕</w>
中央 银行</w>
世界 银行</w>
犹 太
旨 在</w>
总 体</w>
当 地</w>
妥 协</w>
内 容</w>
产 阶级</w>
现 状</w>
氧 化
接 近</w>
安 排</w>
多 样
参 与
共 同
下 来</w>
边 境</w>
缺 陷</w>
约 束</w>
替 代</w>
巴 黎</w>
增 强</w>
具 备</w>
作 出</w>
首 相</w>
这 么</w>
自 然
给 予</w>
很 难</w>
宣 称</w>
其 它</w>
19 7
重 建</w>
深 刻</w>
思 维</w>
年 前</w>
地 产</w>
反对 派</w>
充 满</w>
至 于</w>
缺 少</w>
立 法</w>
然 后</w>
成 就</w>
升 值</w>
波 动</w>
委 内
委内 瑞
其 次</w>
传 播</w>
资本 主义</w>
损 害</w>
意 愿</w>
账 户</w>
以 前</w>
食 品</w>
常 规</w>
合法 性</w>
克 服</w>
重 组</w>
贫 穷</w>
有 力</w>
思 考</w>
形 势</w>
工 程</w>
乐 观</w>
中 产阶级</w>
以 后</w>
不 愿</w>
5 00</w>
由 此</w>
平等 性</w>
对 待</w>
默 克尔</w>
管 制</w>
生 物</w>
早 期</w>
捍 卫</w>
五 年</w>
采取 行动</w>
种 族</w>
不 要</w>
1 .
签 署</w>
信 贷</w>
二 战</w>
201 1</w>
年 轻</w>
低 于</w>
主 导</w>
究 竟</w>
疫 苗</w>
现 代
正 常</w>
抵 制</w>
利 比亚</w>
二 氧化
言 论</w>
结 论</w>
相 当
目 前
目前 为止</w>
特 征</w>
时 刻</w>
恐 惧</w>
各 地</w>
信 号</w>
争 议</w>
举 措</w>
银 行
鉴 于</w>
第 一
穷 人</w>
模 型</w>
扮 演</w>
房 地产</w>
变 暖</w>
公 投</w>
事 会</w>
个 月</w>
不 够</w>
记 者</w>
记 录</w>
喜 欢</w>
药 物</w>
扩 散</w>
巩 固</w>
属 于</w>
定 义</w>
国 外</w>
出 于</w>
保护 主义</w>
二氧化 碳</w>
金融 机构</w>
研 究
看 法</w>
患 者</w>
引 力</w>
委内瑞 拉</w>
商 业
合 作
历 史
伊斯兰 教</w>
结 合</w>
活 力</w>
担 任</w>
展 开</w>
培 训</w>
不可 避免</w>
201 6</w>
高 于</w>
走 向</w>
组 成</w>
爱 尔
无 疑</w>
到 来</w>
维 亚</w>
理 念</w>
日 程</w>
按 照</w>
幸 运</w>
左 翼</w>
可 行</w>
全 部</w>
产 出</w>
中 东
遭 遇</w>
国 家
却 是</w>
不 满</w>
观 经济</w>
背 后</w>
普 通</w>
克 林
激 进</w>
意 见</w>
回 到</w>
入 侵</w>
不 平等性</w>
议 院</w>
议 员</w>
表 达</w>
萨 德</w>
相当 于</w>
平 台</w>
她 们</w>
200 0</w>
病 毒</w>
涉 及</w>
条 款</w>
感 觉</w>
回 应</w>
产 量</w>
难 以
看 起来</w>
沙 特
形 态</w>
引 入</w>
声 称</w>
基 地</w>
两 年</w>
负 债
武 装</w>
整 体</w>
操 纵</w>
所 未
启 动</w>
人 数</w>
200 7</w>
研 发</w>
极 端
占 据</w>
党 派</w>
促 使</w>
身 上</w>
称 为</w>
特 殊</w>
流 入</w>
导 弹</w>
实 体</w>
国 民</w>
医 疗
其 他人</w>
任 期</w>
之 所以</w>
污 染</w>
支 撑</w>
抗 议</w>
应 用</w>
吸 引力</w>
共产 主义</w>
债权 人</w>
一 名</w>
沙特 阿拉伯</w>
手 中</w>
巴勒斯坦 人</w>
奇 怪</w>
大 型</w>
只 会</w>
兴 趣</w>
之 上</w>
能 源
管 理
帝 国</w>
尼 亚
尝 试</w>
宏 观经济</w>
前 所未
内 战</w>
衡 量</w>
脱 欧</w>
第 三
理 想</w>
油 价</w>
尚 未</w>
尔 多</w>
农 村</w>
紧 张</w>
爱尔 兰</w>
月 份</w>
回 归</w>
升 级</w>
加 沙</w>
克林 顿</w>
200 5</w>
高 达</w>
阿 萨德</w>
维 护</w>
来 源</w>
明 智</w>
技 术
想 法</w>
库 尔
凯 恩
农 民</w>
主 张</w>
科 学家</w>
监 督</w>
有 时</w>
推 翻</w>
大 大</w>
受 益</w>
驱 动</w>
此 前</w>
意 识
逻 辑</w>
议 程</w>
犹太 人</w>
法 案</w>
法 庭</w>
拉 丁
意识 形态</w>
尼 派</w>
发 动</w>
南 非</w>
动 物</w>
2 1</w>
高 度</w>
逊 尼派</w>
股 市</w>
缅 甸</w>
绝 不</w>
有 利</w>
叶 派</w>
化 石</w>
决 心</w>
什 叶派</w>
财政 政策</w>
艾滋 病</w>
第 一次</w>
推 行</w>
拯 救</w>
受 害
共和 国</w>
第 一个</w>
毫 无</w>
服 务
强 劲</w>
员 工</w>
中 期</w>
一 代</w>
一 下</w>
马 克</w>
贸易 协定</w>
负债 表</w>
独 裁
指 数</w>
拉丁 美洲</w>
安 理
合 法</w>
以 往</w>
中国 政府</w>
与 其</w>
难 性</w>
量 化</w>
访 问</w>
联合 国
盟 委员会</w>
欧 盟委员会</w>
故 事</w>
抑 制</w>
命 运</w>
前所未 有</w>
公 正</w>
借 贷</w>
伦 敦</w>
于 是</w>
第二 个</w>
承 受</w>
第 三</w>
惩 罚</w>
性 别</w>
减 税</w>
粮 食</w>
相 互</w>
用 来</w>
激 烈</w>
渴 望</w>
智 能</w>
掌 握</w>
孤 立</w>
加 拿
一 家</w>
集 体</w>
透 明</w>
观 察</w>
税 率</w>
某 种
否 认</w>
通货 膨胀</w>
适 用</w>
打 破</w>
愤 怒</w>
宣 传</w>
动 机</w>
动 员</w>
充 分
200 1</w>
运 作</w>
诸 多</w>
测 试</w>
循 环</w>
人 物</w>
两 大</w>
迹 象</w>
说 服</w>
试 验</w>
突 然</w>
早 已</w>
巨 额</w>
周 期</w>
发 行</w>
高 效</w>
资 格</w>
灾 难性</w>
并 不
出 口
违 约</w>
过 来</w>
纳 入</w>
注 意
最 初</w>
受害 者</w>
卫 生
加拿 大</w>
主 流</w>
逆 转</w>
计 算</w>
温 和</w>
杠 杆</w>
庞 大</w>
声 明</w>
非 法</w>
限 于</w>
镇 压</w>
释 放</w>
违 反</w>
西 洋</w>
艰 难</w>
知 识
相 似</w>
日 本
数 百万</w>
份 额</w>
一 般</w>
诚 然</w>
注意 力</w>
来 看</w>
描 述</w>
大 西洋</w>
另 一方面</w>
产 权</w>
0 .
超 越</w>
规 划</w>
石 油
消 灭</w>
华 盛
刚 刚</w>
全 国</w>
业 务</w>
预 防</w>
面 前</w>
谴 责</w>
消 失</w>
换 句
巴 拉克</w>
国 有
义 务</w>
不 足以</w>
一 天</w>
200 6</w>
通 缩</w>
荷 兰</w>
恐怖 分子</w>
幅 度</w>
发 布</w>
协 助</w>
伴 随</w>
为 此</w>
非 洲
退 休</w>
自由 贸易</w>
美国 政府</w>
屠 杀</w>
居 民</w>
做 好</w>
阶 层</w>
金融 体系</w>
绝 大多数</w>
紧 密</w>
森 林</w>
更 具</w>
摧 毁</w>
持续 性</w>
当 中</w>
安理 会</w>
失 衡</w>
包 含</w>
判 断</w>
不 太
一 套</w>
绿 色</w>
短 缺</w>
澳 大
期 望</w>
参与 者</w>
伙 伴
金 正
认 定</w>
获 益</w>
自由 化</w>
段 时间</w>
有 权</w>
名 义</w>
企 业
人 道
边 界</w>
负 债</w>
观 念</w>
第 二</w>
独 裁</w>
极 为</w>
放 在</w>
性 质</w>
哪 些</w>
全球 性</w>
低 收入</w>
任 命</w>
以 此</w>
重 塑</w>
股 票</w>
经济 危机</w>
组 合</w>
男 性</w>
现代 化</w>
牺 牲</w>
整 合</w>
必 然</w>
大 会</w>
国 政府</w>
占 领</w>
医 生</w>
人道 主义</w>
事 业</w>
两 种</w>
遵 守</w>
还 会</w>
紧 迫</w>
离 开</w>
疲 软</w>
恐 慌</w>
外 汇
克里 姆
供 应
进 口
文 明</w>
官 僚</w>
伟 大</w>
人 群</w>
一 国</w>
话 说</w>
气 体</w>
本 人</w>
无 力</w>
哥 伦
各 自</w>
观 察
破 坏
根 源</w>
新 闻
数 十
换句 话说</w>
工业 化</w>
加 以</w>
阵 营</w>
渠 道</w>
此 次</w>
款 人</w>
有 所
情 形</w>
参 加</w>
半 岛</w>
创 造
信 誉</w>
位 于</w>
运 行</w>
绝 对</w>
监 管
瑞 典</w>
指 控</w>
指 导</w>
战 略
就 业
安 倍</w>
双 边</w>
200 4</w>
额 外</w>
这 位</w>
澳大 利亚</w>
林 宫</w>
减 轻</w>
信 仰</w>
逐 步</w>
运 用</w>
赋 予</w>
谨 慎</w>
规 范</w>
行 长</w>
拿 出</w>
所 在</w>
廉 价</w>
全 新</w>
保 留</w>
2 .
语 言</w>
设 备</w>
注 意</w>
某种 程度</w>
扭 曲</w>
年 间</w>
平 均
失 望</w>
再 生
公 约</w>
19 6
特 定</w>
比 率</w>
做 到</w>
低 估</w>
下 滑</w>
201 7</w>
. .</w>
. ..</w>
费 用</w>
现 金</w>
法 治</w>
歧 视</w>
华盛 顿</w>
加 上</w>
出 售</w>
再生 能源</w>
个 体</w>
世界 各地</w>
200 3</w>
首 次</w>
要 素</w>
莫 迪</w>
疟 疾</w>
温 室</w>
清 洁</w>
格 鲁
朋 友</w>
敌 人</w>
授 权</w>
怎 么</w>
层 次</w>
塔 利
塔利 班</w>
基 督
反 而</w>
原 本</w>
包 容</w>
党 人</w>
人 才</w>
享 受</w>
近 期</w>
股 东</w>
缓 解</w>
经 过</w>
第 一</w>
积 累</w>
百 分
尼 日
多 地</w>
分 享</w>
共产 党</w>
优 先</w>
以 便</w>
上 去</w>
顾 问</w>
获 取</w>
脱 离</w>
种 族
相 互
监管 者</w>
犯 罪</w>
灵 活</w>
深 度</w>
浪 费</w>
新 加
排 除</w>
持 久</w>
忽 略</w>
四 个</w>
升 高</w>
加 大</w>
例 外</w>
以 下</w>
专 注</w>
部 署</w>
格鲁 吉
机 器</w>
实 验</w>
季 度</w>
好 消息</w>
多 么</w>
反 过来</w>
区 别</w>
制 约</w>
二十 世纪</w>
严 峻</w>
1 9</w>
阿 尔
那 种</w>
边 缘</w>
距 离</w>
简 言之</w>
某 个</w>
昂 贵</w>
年 龄</w>
克里姆 林宫</w>
中东 地区</w>
1 8</w>
香 港</w>
选 票</w>
系 统
新加 坡</w>
放 松</w>
心 理</w>
定 者</w>
坚 定</w>
合作 伙伴</w>
可 怕</w>
受 欢迎</w>
前 进</w>
制 定者</w>
麻 烦</w>
贫 困
论 坛</w>
显 得</w>
改 进</w>
愿 景</w>
各 方</w>
司 法</w>
到 底</w>
不太 可能</w>
20 0</w>
退 休
越 南</w>
著 名</w>
沙 尔</w>
格鲁吉 亚</w>
标 志</w>
富 人</w>
困 扰</w>
争 取</w>
19 4
赖 于</w>
致 命</w>
海 外</w>
格 兰</w>
恰 恰</w>
形 象</w>
强 硬</w>
开 展</w>
巴 沙尔</w>
契 约</w>
共 享</w>
住 房</w>
人 均</w>
互 相</w>
不 少</w>
货币 联盟</w>
留 在</w>
电 力</w>
暂 时</w>
批 评
市场 经济</w>
壁 垒</w>
一 轮</w>
一 段时间</w>
199 0</w>
震 惊</w>
立 刻</w>
武 力</w>
无论 如何</w>
文 章</w>
接 触</w>
抓 住</w>
忧 虑</w>
劳 动</w>
准 确</w>
像 是</w>
交 易
中 有</w>
道 理</w>
终 结</w>
独 立
日 渐</w>
操 作</w>
恰 当</w>
恐 怖</w>
多样 性</w>
助 长</w>
决 议</w>
低 利率</w>
人 工
落 后</w>
示 威</w>
犹 太</w>
更 是</w>
接 着</w>
拉 美</w>
抵 消</w>
发 起</w>
丰 富</w>
领导 层</w>
金正 恩</w>
认 真</w>
经 营</w>
等 待</w>
施 加</w>
干 涉</w>
尼亚 胡</w>
客 户</w>
塔 尼亚胡</w>
台 湾</w>
内 塔尼亚胡</w>
全 力</w>
传 染
也 门</w>
不 了</w>
警 察</w>
胀 率</w>
考 验</w>
海 洋</w>
此 后</w>
动 作</w>
加 拉
前 提</w>
兑 现</w>
位 置</w>
两 者</w>
东 盟</w>
不 必</w>
不 久
万 人</w>
饱 受</w>
转 化</w>
衰 落</w>
融 合</w>
自由 主义</w>
肯 尼亚</w>
群 众</w>
终 于</w>
纳 税
纳 德</w>
本 质</w>
战 后</w>
平 民</w>
团 队</w>
匈 牙
途 径</w>
资 助</w>
融 入</w>
突 破</w>
社 交</w>
生产 力</w>
演 讲</w>
法 官</w>
案 例</w>
材 料</w>
明 年</w>
得 成功</w>
引 导</w>
容 性</w>
塞 尔</w>
回 答</w>
合 适</w>
可 持续性</w>
任 何
价 格
不 利</w>
长期 以来</w>
近 几
过 渡</w>
觉 得</w>
获 胜</w>
花 费</w>
纳税 人</w>
纠 正</w>
用 户</w>
控 制
抛 弃</w>
情 景</w>
审 查</w>
发 出</w>
修 改</w>
职 业</w>
结 核
相 应</w>
留 下</w>
生 物
流 向</w>
根本 性</w>
得 多</w>
害 怕</w>
垄 断</w>
南 部</w>
减 速</w>
专 业
重 新
计 算
结核 病</w>
纽 约</w>
每 天</w>
本 地</w>
期 待</w>
最 高
拉 夫</w>
成 熟</w>
悲 剧</w>
国 务
和 平
召 开</w>
作 物</w>
丧 失</w>
严 重
透 明
运 转</w>
覆 盖</w>
系统 性</w>
立 即</w>
破坏 性</w>
看 似</w>
电 视
理 事会</w>
注 定</w>
感 染</w>
小 时</w>
富 有</w>
完 美</w>
大 战</w>
多 个</w>
印 象</w>
前 任</w>
人工 智能</w>
东 欧</w>
专 业</w>
不久 前</w>
补 偿</w>
至 今</w>
真 相</w>
白 宫</w>
电 视</w>
漫 长</w>
毫 不</w>
机 遇</w>
急 需</w>
尼 斯</w>
包 容性</w>
劳动 者</w>
退 欧</w>
联 邦
绝 非</w>
来 讲</w>
总 量</w>
年 底</w>
对 外</w>
定 价</w>
哪 里</w>
吸 收</w>
合 同</w>
人 口
1 4</w>
领导 者</w>
配 置</w>
解 体</w>
税 收
比 方
比方 说</w>
机 器
提 议</w>
投 票
已 有</w>
尼日 利亚</w>
在 线</w>
国 债</w>
依 赖于</w>
何 种</w>
介 入</w>
选 项</w>
跨 国</w>
生 素</w>
物 质</w>
流 行</w>
权 威</w>
机器 人</w>
最 低</w>
太 平
声 音</w>
十 年代</w>
匈牙 利</w>
信 息
伙伴 关系</w>
马 里</w>
长 时间</w>
诊 断</w>
索 沃</w>
科 索沃</w>
私 营
改 革
或 是</w>
弱 点</w>
年 人</w>
南 亚</w>
功 能</w>
出 台</w>
关 心</w>
企业 家</w>
从 事</w>
予 以</w>
三 年</w>
三 分之一</w>
1 7</w>
限 度</w>
评 论</w>
残 酷</w>
士 兵</w>
响 应</w>
充 足</w>
偿 还</w>
保守 派</w>
以 至于</w>
中 间</w>
预 算
讽 刺</w>
让 步</w>
落 实</w>
菲 律
而 论</w>
而 已</w>
统 计</w>
经济 衰退</w>
源 于</w>
泰 国</w>
双 边
侵 犯</w>
从 来</w>
个 人
一 边</w>
走 上</w>
西 亚</w>
稳 定性</w>
看 上去</w>
深 入</w>
注 入</w>
极端 主义</w>
战 斗</w>
总 需求</w>
得 不到</w>
征 收</w>
少 数
对 象</w>
学 院</w>
太 阳
哥伦 比亚</w>
可 信</w>
催 生</w>
保 持
伊 朗
代 人</w>
世 贸
雇 主</w>
防 务</w>
评 级</w>
认 可</w>
职 位</w>
细 胞</w>
紧 急</w>
真 主
真主 党</w>
监 控</w>
独裁 者</w>
深 远</w>
推 迟</w>
推 广</w>
意 外</w>
工 会</w>
城 市
各 个</w>
反 弹</w>
分 别</w>
军事 行动</w>
二 十年</w>
中 央</w>
青 年</w>
那 个</w>
适 当</w>
财 务</w>
讲 话</w>
萨 达
舞 台</w>
网 络
统 治
纷 纷</w>
确 认</w>
物 种</w>
正 义</w>
感 受</w>
总 体
开 发
存 款</w>
复 兴</w>
国有 企业</w>
哪 个</w>
凯恩 斯</w>
交 通</w>
严 肃</w>
世贸 组织</w>
世 俗</w>
专 制</w>
不 上</w>
一 方</w>
训 练</w>
药 品</w>
类 型</w>
热 情</w>
游 说</w>
清 晰</w>
沦 为</w>
核 计划</w>
服务 业</w>
智 利</w>
教 授</w>
提 到</w>
强 势</w>
废 除</w>
国 民
古 巴</w>
印 尼</w>
不 用
不 久</w>
S D
黄 金</w>
适 合</w>
设 立</w>
自 动</w>
自 从</w>
煤 炭</w>
步 骤</w>
欧洲 议会</w>
普 及</w>
批评 者</w>
建 设
外 围</w>
和 解</w>
关 闭</w>
僵 局</w>
为 例</w>
两 次</w>
不 安</w>
高 昂</w>
陷 阱</w>
野 心</w>
那 时</w>
透明 度</w>
这 笔</w>
诺 贝
解决 问题</w>
薪 酬</w>
罗 斯
精 神
百分 点</w>
然 不同</w>
此 类</w>
果 断</w>
斯 主义</w>
延 长</w>
太平 洋</w>
外汇 储备</w>
商 品
北 部</w>
借 口</w>
一 小
G 20</w>
20 20</w>
1 8
领导 力</w>
预算 赤字</w>
跨 境</w>
菲律 宾</w>
自 动
约 旦</w>
焦 点</w>
无 可
数 十年</w>
报 纸</w>
扭 转</w>
愿 望</w>
恐怖 袭击</w>
心 而论</w>
平 心而论</w>
处 在</w>
剥 夺</w>
养 老
争 端</w>
过 剩</w>
美国 国会</w>
石油 价格</w>
知识 产权</w>
正 常
抵 抗</w>
德 国
引 擎</w>
容 忍</w>
大 胆</w>
大 屠杀</w>
大 多</w>
加 快</w>
公共 部门</w>
债 务
之 为</w>
东 亚</w>
不用 说</w>
1 6</w>
难 题</w>
阻 挠</w>
迄 今
自然 资源</w>
盟 国</w>
狭 隘</w>
煽 动</w>
游 戏</w>
朝 鲜
所 说</w>
忘 记</w>
开 启</w>
年 度</w>
席 位</w>
布 鲁
尽 可能</w>
导 向</w>
密 集
审 判</w>
好 像</w>
女 孩</w>
太阳 能</w>
多样 化</w>
外 国人</w>
军 方</w>
仇 恨</w>
20 30</w>
饥 饿</w>
销 售</w>
迄今 为止</w>
葡 萄
苏 格兰</w>
艰 巨</w>
罗 姆
病 人</w>
生 态
沉 重</w>
暴 露</w>
政 变</w>
撒 哈
提 醒</w>
担 保</w>
总 值</w>
布 莱
妨 碍</w>
圣 战</w>
四 年</w>
只 不过</w>
以 外</w>
交 流</w>
之 处</w>
丹 麦</w>
1 3</w>
滥 用</w>
披 露</w>
抗 生素</w>
律 师</w>
当 年</w>
大 大
大 众</w>
填 补</w>
国 主义</w>
反对 者</w>
养老 金</w>
倒 闭</w>
保 守</w>
保 健</w>
使 命</w>
二十 一</w>
a m
3 5</w>
3 .
首 要</w>
霸 权</w>
里 根</w>
给 出</w>
经 合
经合 组织</w>
看 作</w>
狂 热</w>
母 亲</w>
提 供
掌 权</w>
主 宰</w>
重 视</w>
统治 者</w>
米 亚</w>
第 三个</w>
电 脑</w>
浦 路
沮 丧</w>
正常 化</w>
斯 特
强 制</w>
弥 补</w>
庇 护</w>
小 组</w>
家 族</w>
完 整</w>
大 化</w>
塞 浦路
塞 尔
坚 决</w>
北 京</w>
分 析
分 散</w>
分 之
冒 险</w>
公 布</w>
借 助</w>
今 后</w>
乃 至</w>
严 厉</w>
万 美元</w>
一 再</w>
诱 惑</w>
而 来</w>
生 涯</w>
瑞 士</w>
独立 性</w>
极 其</w>
无 所
新 兴
排 放
急 剧</w>
彼 此</w>
库尔 德
展 示</w>
就业 机会</w>
学 者</w>
后 来</w>
办 公
信 念</w>
会 谈</w>
不 足
三 十年</w>
19 5
遗 产</w>
言 论
自动 化</w>
而 言之</w>
突 尼斯</w>
离 失
离失 所</w>
流 离失所</w>
梦 想</w>
撒哈 拉</w>
提 案</w>
排放 量</w>
抵 押</w>
总 额</w>
年 初</w>
密 切</w>
夏 天</w>
基本 上</w>
否 决</w>
压 制</w>
决 定性</w>
依 旧</w>
中 等</w>
a c
阿拉 伯
遇 到</w>
言论 自由</w>
维 奇</w>
纠 纷</w>
米 尔</w>
科 学
相 比
榜 样</w>
检 查</w>
普 遍
政治 上</w>
掩 盖</w>
换 取</w>
审 慎</w>
奥 斯
在 政治上</w>
国际 法</w>
发 电</w>
单 方面</w>
医 院</w>
勃 勃</w>
势 头</w>
先 例</w>
偏 好</w>
便 是</w>
企 图</w>
以 南</w>
举 动</w>
为 重要</w>
苏 丹</w>
罪 行</w>
细 节</w>
癌 症</w>
数 百
截 然不同</w>
成 长</w>
快 速
巴 斯</w>
尽 全力</w>
外 界</w>
塞尔 维亚</w>
受 过</w>
取 得成功</w>
医 学</w>
区 分</w>
利 益
先 进</w>
偏 见</w>
些 时候</w>
亚 人</w>
马 上</w>
首 席</w>
软 件</w>
超 出</w>
财政 赤字</w>
证 实</w>
自由 民主</w>
自 愿</w>
缩 小</w>
突 出</w>
穆 巴拉克</w>
短 期
相比 之下</w>
申 请</w>
最 大化</w>
最 低
智 慧</w>
无论 是</w>
建设 性</w>
在 此
国 防</w>
发 明</w>
参 议院</w>
十 分
动 用</w>
出 色</w>
典 型</w>
兰 人</w>
克里 米亚</w>
今 日</w>
产 能</w>
么 样</w>
不 良</w>
201 8</w>
食 物</w>
频 繁</w>
认 同</w>
补 充</w>
街 头</w>
蔓 延</w>
英 国人</w>
绝 望</w>
称 之为</w>
私营 部门</w>
电 话</w>
生态 系统</w>
现 实
更 高</w>
暗 示</w>
无 法
新 政府</w>
斯 科</w>
收 缩</w>
所 得
工 厂</w>
将 来</w>
宣 言</w>
宏 观</w>
完 善</w>
孟 加拉
均 衡</w>
商品 价格</w>
唐 纳德</w>
反 恐</w>
制 药</w>
利 息</w>
低 迷</w>
亿 人</w>
之 际</w>
主 导
临 时</w>
不 如</w>
一 致
a r
a p
近 年来</w>
起 诉</w>
课 程</w>
表 面</w>
行 事</w>
董 事会</w>
营 养</w>
监 狱</w>
盈 利</w>
物 价</w>
活 跃</w>
毫 不
早 就</w>
敦 促</w>
教 徒</w>
敏 感</w>
战 胜</w>
必 要性</w>
建 筑</w>
延 续</w>
布莱 尔</w>
履 行</w>
多 元
后 代</w>
口 号</w>
共和 党人</w>
事 故</w>
3 00</w>
高 级</w>
银行 家</w>
进 而</w>
这 类</w>
自由 派</w>
缓 和</w>
电 影</w>
现 任</w>
核 能</w>
有 用</w>
更 多地</w>
探 讨</w>
快速 增长</w>
得 出</w>
库尔 德</w>
工 党</w>
寿 命</w>
大 宗</w>
塔 尔</w>
固 定</w>
可 见</w>
发 射</w>
动 摇</w>
创 新
估 算</w>
从 中</w>
人 为</w>
专 利</w>
飙 升</w>
随 之</w>
英 国
置 于</w>
缺 口</w>
签 订</w>
看 待</w>
深 层次</w>
比 重</w>
树 立</w>
时 机</w>
无 数</w>
斯 基</w>
投 机</w>
意 料</w>
巴 尔
对 立</w>
密集 型</w>
孟加拉 国</w>
多元 化</w>
复 杂
哈 尼</w>
可 谓</w>
动 态</w>
办公 室</w>
减 排</w>
修 正</w>
人 会</w>
之 急</w>
世界 大战</w>
一 件</w>
2 2</w>
防 御</w>
轻 易</w>
负 面</w>
谷 歌</w>
解决 办法</w>
行 政</w>
联合国 安理会</w>
立 法
眼 下</w>
理 应</w>
深 化</w>
水 资源</w>
斯 大
推 出</w>
总 统
归 咎
归咎 于</w>
姿 态</w>
商 界</w>
发 放</w>
友 好</w>
卡 梅
份 子</w>
任何 人</w>
不 前</w>
4 00</w>
198 9</w>
预 见</w>
非 政府</w>
通 胀率</w>
这 会</w>
身 为</w>
跨 国
贾 德</w>
贸易 战</w>
财政 部</w>
西 欧</w>
裁 决</w>
莫 斯科</w>
股 权</w>
组 成
组成 部分</w>
约 翰</w>
穷 国</w>
私 有
生产 总值</w>
激 发</w>
涌 入</w>
武 装
新兴 国家</w>
斯大 林</w>
救 助</w>
效 益</w>
所 赐</w>
惊 人</w>
强 有力</w>
库尔德 人</w>
小 企业</w>
对 付</w>
始 于</w>
四 分之一</w>
内 贾德</w>
一 大</w>
e r
龄 化</w>
驱 逐</w>
风 暴</w>
革 命
难 度</w>
金融 部门</w>
退休 金</w>
连 接</w>
超 级</w>
贸易 赤字</w>
记 忆</w>
议 题</w>
葡萄 牙</w>
药 性</w>
老 龄化</w>
美 军</w>
竭 尽全力</w>
独 特</w>
漏 洞</w>
沟 通</w>
毒 品</w>
殖 民
死 刑</w>
支持 率</w>
排 斥</w>
排 名</w>
意 图</w>
情 报
布鲁 塞尔</w>
基金 会</w>
地 中
卡 塔尔</w>
之 道</w>
中 共</w>
不 想</w>
不 应</w>
一 道</w>
20 50</w>
19 80</w>
页 岩</w>
面 积</w>
集 中
隔 离</w>
萨达 姆</w>
积 极
瘫 痪</w>
灵 活
消 耗</w>
法 塔
法塔 赫</w>
未 必</w>
教 师</w>
撤 军</w>
拉 斯</w>
恰 相反</w>
恰 恰相反</w>
当 务
当务 之急</w>
尊 严</w>
定 居
婴 儿</w>
堪 称</w>
国 防
力 度</w>
分 离</w>
分 化</w>
内 阁</w>
全 民</w>
修 订</w>
促 成</w>
交 换</w>
不 利于</w>
o s
P P</w>
199 9</w>
19 3
领 先</w>
非 常规</w>
这 份</w>
近几 年来</w>
迈 向</w>
统 计
法 规</w>
收 集</w>
所得 税</w>
所 有权</w>
慷 慨</w>
德 里</w>
德 国人</w>
强 迫</w>
弱 势</w>
工作 岗位</w>
塞浦路 斯</w>
培 养</w>
因 而</w>
公 民
人 力
不 见</w>
4 .
鼓 吹</w>
身 体</w>
走 出</w>
短期 内</w>
特 点</w>
流 失</w>
有 望</w>
日 益
掌 控</w>
挽 救</w>
挪 威</w>
指 望</w>
情 报</w>
强 国</w>
境 内</w>
国际 贸易</w>
厌 恶</w>
压 迫</w>
千 年</w>
伦 理</w>
上 个月</w>
三 大</w>
设 定</w>
解 放</w>
营 养
第 一步</w>
秘 密</w>
演 变</w>
源 自</w>
永 久</w>
死 亡
更 新</w>
收 益
拖 累</w>
悲 观</w>
巨 头</w>
将 军</w>
对 比</w>
国务 卿</w>
危 害</w>
华 尔
务 实</w>
剩 下</w>
兴 起</w>
保守 党</w>
依 据</w>
享 有</w>
两 倍</w>
丑 闻</w>
一 路</w>
一 代人</w>
o o
2 7</w>
难 道</w>
阿 巴斯</w>
问 责</w>
重 重</w>
运 输</w>
迈 出</w>
罗 马</w>
移 动</w>
种 植</w>
祖 国</w>
法 国人</w>
毁 灭</w>
日 元</w>
无 人
授 予</w>
抱 怨</w>
引 人
建 造</w>
工作 者</w>
居 住</w>
地中 海</w>
反 思</w>
勇 气</w>
凯恩 斯主义</w>
充 斥</w>
修 复</w>
低 成本</w>
五 个</w>
7 5</w>
高 速</w>
高 质量</w>
马 来
马 克
颠 覆</w>
金 砖</w>
赢 家</w>
贷 款人</w>
财政 部长</w>
角 度
角度 看</w>
综 合</w>
继 任
绝 大部分</w>
纯 粹</w>
示 威
眼 中</w>
父 母</w>
灵活 性</w>
灭 绝</w>
替 代
收益 率</w>
手 机</w>
家 庭
实 践</w>
塞 俄
埃 塞俄
地 带</w>
哪 怕</w>
南 海</w>
劳 工</w>
剧 烈</w>
出 生</w>
兄 弟</w>
便 利</w>
你 们</w>
低 下</w>
传染 病</w>
人民 银行</w>
互 动</w>
不 止</w>
上 台</w>
e r</w>
2 4</w>
连 任</w>
话 题</w>
证 券</w>
虐 待</w>
约 束
索 马里</w>
竞 赛</w>
秘 书
私有 化</w>
看 看</w>
犯 罪
波 斯
案 件</w>
更 强</w>
无 视</w>
新 一轮</w>
敌 意</w>
打 造</w>
希 腊
差 别</w>
尔 西</w>
如 说</w>
大 于</w>
基督 教</w>
地 说</w>
国 王</w>
发 生
博 拉</w>
单 位</w>
充 当</w>
什 么样</w>
主 题</w>
下 台</w>
一 面</w>
2 8</w>
通 往</w>
逃 离</w>
迫 切
进 化</w>
迎 来</w>
诺贝 尔
观察 家</w>
英 镑</w>
科 奇</w>
福 祉</w>
环 境
海 军</w>
永 久
梅 内
根本 无法</w>
最 有</w>
日 子</w>
数 据
改 造</w>
持续 增长</w>
扩 展</w>
或 缺</w>
成 绩</w>
恢 复
态 势</w>
待 遇</w>
征 税</w>
就 要</w>
对 策</w>
威 慑</w>
大 家</w>
前 往</w>
切 实</w>
出 资</w>
兄 弟
仔 细</w>
不可 或缺</w>
2 3</w>
飞 机</w>
采 购</w>
遥 远</w>
识 别</w>
股 票
第 四</w>
理 学</w>
特 权</w>
焦 虑</w>
海 啸</w>
梅内 伊</w>
攀 升</w>
报 复</w>
扼 杀</w>
强 制
建 筑
幻 想</w>
干 扰</w>
学 术</w>
天 主
哈 梅内伊</w>
反 抗</w>
化 学
加 深</w>
军事 力量</w>
公 路</w>
充 满
保 险
供应 链</w>
仅 如此</w>
亦 然</w>
争 夺</w>
两 党</w>
不 论</w>
不 仅如此</w>
上 限</w>
1 .5</w>
高 级
风 格</w>
非 正式</w>
雄 心
随 时</w>
邪 恶</w>
辞 职</w>
谈 论</w>
继任 者</w>
纳 粹</w>
滞 不前</w>
浪 潮</w>
民 调</w>
本 哈
本哈 根</w>
有 者</w>
最高 法院</w>
普 通
是 说</w>
提 名</w>
拉 克
扩 张
所 作
所作 所
所作所 为</w>
惊 讶</w>
总统 大选</w>
崩 盘</w>
如 同</w>
多 大</w>
地 理</w>
哥 本哈根</w>
否 定</w>
同 事</w>
反 应
北 方</w>
前 者</w>
创 建</w>
分之 二</w>
停 滞不前</w>
何 时</w>
代 表
习 惯</w>
乔 治</w>
不 难
197 9</w>
首 脑</w>
非 常
遵 循</w>
路 撒
路撒 冷</w>
路 径</w>
诚 实</w>
计 价</w>
联邦 政府</w>
职 业
耶 路撒冷</w>
穆 尔西</w>
父 亲</w>
死亡 率</w>
本 月</w>
揭 示</w>
控制 权</w>
抵 御</w>
抨 击</w>
总体 而言</w>
广 告</w>
工 程
小 国</w>
大 概</w>
多 种</w>
埃塞俄 比亚</w>
卡梅 伦</w>
华尔 街</w>
减 弱</w>
准 则</w>
写 道</w>
众 议院</w>
之 春</w>
不 断
三 分之二</w>
T PP</w>
高 企</w>
雇 员</w>
跨国 公司</w>
超 级
象 征</w>
诞 生</w>
论 点</w>
认 知</w>
触 发</w>
解 放
能 量</w>
紧 张
消 极</w>
注 重</w>
民 间</w>
民 意
模 糊</w>
核 不
有 点</w>
有 害</w>
无 能</w>
收 到</w>
支 柱</w>
房 价</w>
年 增长率</w>
子 女</w>
司 法
制 衡</w>
免 受</w>
今 年
为 时
两 国
两 位</w>
一 片</w>
一 大
a n
200 2</w>
2 .5</w>
飓 风</w>
韦 斯</w>
铁 路</w>
采取 措施</w>
运 营</w>
边 缘
谈 判
自 信</w>
聪 明</w>
网 站</w>
缺 失</w>
缩 减</w>
秘书 长</w>
目 睹</w>
电 子
洛 哥</w>
核不 扩散</w>
查 韦斯</w>
来 到</w>
杀 害</w>
暴 跌</w>
早 些时候</w>
摩 洛哥</w>
探 索</w>
投资 银行</w>
左 派</w>
定 期</w>
学 会</w>
基本 面</w>
含 义</w>
同 于</w>
全 体</w>
中央 政府</w>
东 南亚</w>
随 之
随之 而来</w>
金 钱</w>
邀 请</w>
迫切 需要</w>
路 线</w>
赞 成</w>
资 金
设 置</w>
肯 尼
累 积</w>
精 力</w>
穆 沙
穆沙 拉夫</w>
社会 主义</w>
百 年</w>
电 站</w>
生产 者</w>
灾 害</w>
激 增</w>
满 意</w>
沉 默</w>
本 来</w>
本 土</w>
易 事</w>
收 紧</w>
提 前</w>
扎 菲</w>
强 力</w>
小 型</w>
定居 点</w>
大 脑</w>
叛 乱</w>
反 复</w>
卷 入</w>
卡 扎菲</w>
南 欧</w>
别 无
决 不能</w>
公共 卫生</w>
兄弟 会</w>
信 服</w>
侵 蚀</w>
事 态</w>
一 支</w>
os ;</w>
ap os;</w>
199 7</w>
& apos;</w>
鼓 舞</w>
高 科技</w>
预 言</w>
间 接</w>
采 纳</w>
邓 小
过 分</w>
转 而</w>
计算 机</w>
蒂 固</w>
股 价</w>
组 建</w>
深 蒂固</w>
比 赛</w>
欧 国家</w>
棘 手</w>
根 深蒂固</w>
极 有</w>
是 从</w>
族 裔</w>
新 增</w>
效 仿</w>
撤 出</w>
打 开</w>
性 循环</w>
好 事</w>
多 元</w>
听 到</w>
反应 堆</w>
医疗 保健</w>
判 决</w>
几 周</w>
免 疫</w>
从 前</w>
个 世纪</w>
2 9</w>
阿尔 及
里 兰
遗 憾</w>
达 成
边缘 化</w>
足 球</w>
诸 如</w>
自由 市场</w>
肯尼 迪</w>
紧 急
空 气</w>
税收 收入</w>
私 人
研究 所</w>
游 行</w>
流 程</w>
果 说</w>
旅 行</w>
政 坛</w>
推 移</w>
接 下来</w>
想 起</w>
怀 疑
当 今
当今 世界</w>
如 果说</w>
大 幅度</w>
大 力</w>
受 益
制 度
免 费</w>
作 者</w>
体 面</w>
会 晤</w>
事实 证明</w>
之 路</w>
专 门</w>
不 起</w>
6 5</w>
6 00</w>
马来 西亚</w>
首 都</w>
除 此
过 时</w>
轻 松</w>
超级 大国</w>
起 义</w>
萨 尔</w>
粮 食
第二 次</w>
竞争 对手</w>
社会 福利</w>
社会 保障</w>
生 命
特 勒</w>
爆 炸</w>
毛 泽
期 性</w>
时 性</w>
政 体</w>
房 屋</w>
愚 蠢</w>
德国 总理</w>
当 代</w>
建 国</w>
幸 福</w>
实 验
实 质</w>
奥 运
大 党</w>
周 期性</w>
同 盟</w>
参 议员</w>
印度 人</w>
具 体
公 决</w>
偿 付</w>
借 款</w>
便 宜</w>
传 递</w>
e b
高 等
高 涨</w>
高 出</w>
邓小 平</w>
选 战</w>
达成 协议</w>
财 产</w>
调 查
说 是</w>
议 定
议定 书</w>
罗斯 福</w>
罗 马
短 短</w>
症 状</w>
犯 下</w>
次 世界大战</w>
极端 分子</w>
权 衡</w>
有 益</w>
推 高</w>
很 长</w>
并 非
希 特勒</w>
布 什
宣 扬</w>
官 僚
历史 性</w>
匹 配</w>
北 朝鲜</w>
凭 借</w>
减 免</w>
再 度</w>
充分 就业</w>
主导 地位</w>
中国 人民银行</w>
F ac
魅 力</w>
雇 用</w>
附 近</w>
金融 业</w>
逮 捕</w>
见 到</w>
苦 难</w>
舆 论</w>
相 结合</w>
白 人</w>
疯 狂</w>
界 限</w>
猜 测</w>
炸 弹</w>
毛泽 东</w>
根本 上</w>
架 构</w>
有 趣</w>
旺 达</w>
接 种</w>
拖 延</w>
拒 绝
执 法</w>
成 千
成千 上
成千上 万</w>
平均 水平</w>
局 限于</w>
富 国</w>
奥运 会</w>
奖 励</w>
增长 速度</w>
均 收入</w>
国 有</w>
围 绕</w>
团 结
周 围</w>
卢 旺达</w>
前 沿</w>
制 止</w>
到 达</w>
出 人
储 量</w>
俱 乐
俱乐 部</w>
使 用
伊 拉克
从 根本上</w>
人 心</w>
人 均收入</w>
世 纪
不 容
不 及</w>
一 番</w>
oo k</w>
eb ook</w>
Fac ebook</w>
高 管</w>
颇 为</w>
雄心 勃勃</w>
难 民
银 行业</w>
选 出</w>
过 多</w>
达 尔
质 性</w>
诉 讼</w>
评 论
解 读</w>
西 部</w>
西 岸</w>
萎 缩</w>
莫 过于</w>
职 责</w>
研究 者</w>
瞩 目</w>
激 起</w>
沙 龙</w>
是 不是</w>
既 然</w>
新 型</w>
文 件</w>
布什 总统</w>
就 算</w>
宏 大</w>
始 终</w>
外交 官</w>
基 因
周 边</w>
古 老</w>
原 教
原 子
压 倒
击 败</w>
全 民
储 蓄
令人 担忧</w>
京 都</w>
主 动</w>
N A</w>
6 .
2 6</w>
预 防
预 示</w>
隐 私</w>
除此 之外</w>
阿尔及 利亚</w>
重 复</w>
远 离</w>
负 责任</w>
议 会
警 惕</w>
解 除</w>
萎 靡</w>
范 畴</w>
聚 力</w>
美国 公司</w>
结 盟</w>
纪 念</w>
紧张 局势</w>
紧 要</w>
简 而言之</w>
电 厂</w>
生产 商</w>
比 如说</w>
欺 骗</w>
有 史
有史 以来</w>
更 糟</w>
旨 主义</w>
无 效</w>
斯 里兰
文 化
放 任</w>
收 购</w>
提 交</w>
据 说</w>
招 募</w>
感 兴趣</w>
归 根
常 态</w>
尼 克
尼克 松</w>
就 是说</w>
失 灵</w>
太 多</w>
地 震</w>
同 情</w>
吉 尔</w>
叙 事</w>
原教 旨主义</w>
化学 武器</w>
券 市场</w>
分 布</w>
关 联</w>
修 建</w>
优 惠</w>
令人 震惊</w>
不 错</w>
不 负责任</w>
一小 部分</w>
一 无
一 倍</w>
I S
4 5</w>
随 者</w>
里 斯
迫 切</w>
负 面
评 价</w>
行 列</w>
英 国政府</w>
约束 力</w>
等 于</w>
示威 者</w>
着 眼
百 上
百上 千</w>
电 子</w>
玻 利
激 进
民族 主义者</w>
民主 化</w>
柏 林</w>
极 度</w>
机 关</w>
朝 着</w>
晋 三</w>
无 关</w>
无 关
斯里兰 卡</w>
放 大</w>
挣 扎</w>
指 引</w>
拉 里</w>
打 算</w>
成 百上千</w>
意 味</w>
干 旱</w>
常 见</w>
希 拉里</w>
对 方</w>
安 倍
安倍 晋三</w>
奥 地
固 然</w>
名 单</w>
及 时</w>
博 弈</w>
切 尔</w>
凝 聚力</w>
再 也</w>
内 外</w>
关键 问题</w>
公共 政策</w>
借 款人</w>
倒 退</w>
作 战</w>
令人 信服</w>
世 行</w>
不 变</w>
一 座</w>
I C
199 8</w>
199 1</w>
1 50</w>
顺 差</w>
重 振</w>
追 随者</w>
远 远
边 际</w>
辛 格</w>
西 藏</w>
行 动
破 裂</w>
生 态</w>
烟 草</w>
没 能</w>
永久 性</w>
植 物</w>
格 兰
极 化</w>
权 主义</w>
朗 德</w>
更 为重要</w>
忠 诚</w>
必 要
很 小</w>
当 作</w>
并不 一定</w>
工程 师</w>
工作 人员</w>
小 心</w>
奠 定</w>
失 误</w>
太 过</w>
地 下</w>
吞 并</w>
后 续</w>
名 字</w>
各 样</w>
受益 者</w>
切 断</w>
出口 国</w>
农 场</w>
免 于</w>
倒 台</w>
作 家</w>
之 内</w>
临 近</w>
两 人</w>
不 良
颇 具</w>
阿拉伯 人</w>
迫 害</w>
连 续</w>
过 早</w>
较 为</w>
英 雄</w>
芬 兰</w>
自 我
美 好</w>
罗姆 尼</w>
结 底</w>
经济 上</w>
纪 录</w>
稳 步</w>
监 禁</w>
电视 台</w>
熟 悉</w>
演 化</w>
涵 盖</w>
沃 尔
最 坏</w>
显 出</w>
时 报</w>
既 得
无人 机</w>
无 辜</w>
施 压</w>
斯 科
搜 集</w>
提 及</w>
接 收</w>
挑 衅</w>
执 行
必 需</w>
归根 结底</w>
引 用</w>
家 人</w>
宪 章</w>
实验 室</w>
实 质性</w>
奥地 利</w>
大 肆</w>
增 加
塑 造</w>
城市 化</w>
在此 期间</w>
在 经济上</w>
在 短期内</w>
固 定
别无 选择</w>
创 业</w>
分 担</w>
代 替</w>
之 势</w>
中 小企业</w>
不 相同</w>
i t
1 7
零 售</w>
重 大
逆 差</w>
近 乎</w>
贫困 人口</w>
设 法</w>
设 想</w>
营养 不良</w>
荒 谬</w>
艾滋 病毒</w>
自 杀</w>
胜 出</w>
继 承</w>
等 国</w>
稳 定
神 经
疗 法</w>
清 算</w>
时 任</w>
恶 劣</w>
忍 受</w>
应 有</w>
宝 贵</w>
大 幅
多 次</w>
声 誉</w>
增 进</w>
土耳 其
回 合</w>
命 令</w>
即 便
即便 如此</w>
加 纳</w>
关 注
共同 利益</w>
克 斯</w>
储 存</w>
信 奉</w>
传 染</w>
买 入</w>
不 顾</w>
不 太</w>
三 倍</w>
黑 暗</w>
高 层</w>
露 出</w>
隐 藏</w>
长 远</w>
金 本
通 信</w>
轨 道</w>
购 买
说 服
说服 力</w>
著 作</w>
脆 弱
职 务</w>
罗马 尼亚</w>
罕 见</w>
维 尔</w>
经 受</w>
空 气
用 水</w>
环 保</w>
物 理</w>
测 量</w>
注 目</w>
有 序</w>
无关 紧要</w>
教 皇</w>
救 援</w>
按 揭</w>
拒绝 接受</w>
当 下</w>
异 常</w>
广 大</w>
寻 常</w>
实 在</w>
大 程度</w>
国 大党</w>
商业 银行</w>
发 言
双边 关系</w>
内 在</w>
关键 性</w>
产 物</w>
东 部</w>
丘 吉尔</w>
一 段</w>
一 带</w>
19 70</w>
1 60</w>
阵 线</w>
野 蛮</w>
重 申</w>
重 启</w>
部 落</w>
谎 言</w>
虚 假</w>
英 格兰
致 使</w>
自 主</w>
缓 冲</w>
续 下去</w>
管理 者</w>
着眼 于</w>
留 给</w>
溢 价</w>
没 什么</w>
民意 调查</w>
步 伐</w>
概 率</w>
杂 志</w>
最低 工资</w>
最 快</w>
显 现</w>
数 学</w>
数 千
效 力</w>
故 意</w>
捕 捞</w>
拓 展</w>
必 不可
必不可 少</w>
微 不足
微不足 道</w>
强 硬
开 放
已 久</w>
工业 革命</w>
小 布什</w>
宗 教
学 科</w>
奇 迹</w>
多 久</w>
外 国
土 壤</w>
国 集团</w>
周 年</w>
各 州</w>
可 是</w>
可 不是</w>
十 九
医疗 保险</w>
别 人</w>
初 期</w>
几 天</w>
军 力</w>
公 私</w>
储蓄 率</w>
健 康
修 正
侵 略</w>
优 秀</w>
人力 资本</w>
交 通
也 就是说</w>
中 断</w>
不 必要</w>
不 当</w>
一 群</w>
5 .
194 5</w>
默 德</w>
高 估</w>
阿 卜
负面 影响</w>
贝 卢
豁 免</w>
警 方</w>
视 而
视而 不见</w>
英格兰 银行</w>
节 约</w>
自 豪</w>
脆弱 性</w>
背 叛</w>
耐 药性</w>
经济 繁荣</w>
纽 约
第 四
竭 力</w>
稳 健</w>
真 空</w>
电 网</w>
现 出</w>
温 和
温和 派</w>
清 除</w>
法 西
此 举</w>
欧洲 各国</w>
朝鲜 半岛</w>
更 长</w>
旅 游
斯科 尼</w>
收 入
推 向</w>
指 向</w>
挂 钩</w>
折 磨</w>
扩张 性</w>
性 恋</w>
德 斯</w>
得 其
形 容</w>
强制 性</w>
引 出</w>
宽 容</w>
安 抚</w>
孙 后代</w>
子 孙后代</w>
失 控</w>
多 尔</w>
坚 挺</w>
反对 党</w>
双 重</w>
卫 队</w>
协 作</w>
半 数</w>
半 个世纪</w>
北 美</w>
劣 势</w>
冻 结</w>
儿 子</w>
体 验</w>
伯 特</w>
人民 党</w>
不 得</w>
一 贯</w>
一 篇</w>
一 新</w>
o n
e n
199 5</w>
199 2</w>
1 000</w>
高 风险</w>
顽 固</w>
重 来</w>
遗 传</w>
道 德
通 讯</w>
适 得其
适得其 反</w>
远 比</w>
辩 护</w>
起 点</w>
贸易 谈判</w>
记 住</w>
议会 选举</w>
英国 首相</w>
考 察</w>
置 疑</w>
精 确</w>
简 直</w>
短 视</w>
着 手</w>
疫 情</w>
潮 流</w>
清 醒</w>
海 平
海平 面</w>
治 下</w>
正 面</w>
有 效
有 意</w>
暂 停</w>
斯 洛
数 以
收 回</w>
撤 离</w>
挥 作用</w>
指 定</w>
成 分</w>
引人 注目</w>
开 采</w>
广 场</w>
巨 大
威 尔</w>
奥 尔
大 使</w>
境 地</w>
场 合</w>
哲 学</w>
周 知</w>
叛 军</w>
发 挥作用</w>
制造 商</w>
出人 意料</w>
几 十
冲 动</w>
元 素</w>
值 得
债 券市场</w>
位 数</w>
估 值</w>
众 所
亚 洲
事 关</w>
事 先</w>
中 间
东 道
专业 人士</w>
不 去</w>
鲜 有</w>
马 拉
配 额</w>
道 而
远远 不够</w>
货币 贬值</w>
耐 心</w>
而 出</w>
纪 律</w>
管 道</w>
秘 鲁</w>
私 有</w>
着 陆</w>
瓦 解</w>
玻利 维亚</w>
现 行</w>
照 顾</w>
海 湾</w>
海 上</w>
汲 取</w>
比 利
正 好</w>
极 权</w>
杀 死</w>
机 场</w>
有所 不同</w>
最 多</w>
更 快</w>
敌 对</w>
报 率</w>
成 年人</w>
恐 怕</w>
必 将</w>
弹 性</w>
平 息</w>
尽 快</w>
密 切
它 会</w>
夸 大</w>
大 门</w>
多 哈</w>
土 重来</w>
回 报率</w>
各 大</w>
卷 土重来</w>
协 会</w>
剩 余</w>
前 途</w>
创造 力</w>
凸 显</w>
全民 公决</w>
克 斯坦</w>
众所 周知</w>
价格 上涨</w>
代 理</w>
九 十年代</w>
不 好</w>
万 亿</w>
一 词</w>
一 批</w>
一 张</w>
面 向</w>
非洲 大陆</w>
集 体
陷 于</w>
降 到</w>
选 区</w>
逃 避</w>
这 样
迎 接</w>
过 渡
轰 炸</w>
象 征
谋 杀</w>
详 细</w>
言 辞</w>
纪 念
种 种</w>
知识 分子</w>
真 理</w>
用 途</w>
甘 地</w>
犹 豫</w>
爆 炸
治 国</w>
气 温</w>
民 选</w>
模 仿</w>
核 电站</w>
无 需</w>
无 知</w>
数十 亿美元</w>
教 育
支 配</w>
撰 写</w>
接 管</w>
成 效</w>
意 志</w>
恢复 力</w>
总 结</w>
德 拉
希腊 政府</w>
就 此</w>
尔 斯</w>
小 学</w>
密 集</w>
天 气</w>
复杂 性</w>
墨西 哥
境 况</w>
商 人</w>
同 性恋</w>
变 为</w>
反 驳</w>
单 独</w>
区 域
动 乱</w>
创新 性</w>
准 入</w>
内 需</w>
其 后</w>
共同 体</w>
入 盟</w>
保守 主义</w>
低 效</w>
亚 太
之 地</w>
为 首</w>
不 公</w>
高等 教育</w>
顶 层</w>
雇 佣</w>
阿卜 杜
长 达</w>
里斯 本</w>
论 者</w>
论 文</w>
艺 术</w>
聚 集</w>
耗 费</w>
简 化</w>
科 维奇</w>
种族 主义</w>
种 子</w>
益 于</w>
生 计</w>
独 一无
独一无 二</w>
源 泉</w>
温 度</w>
深 陷</w>
波斯 尼亚</w>
期 限</w>
有效 性</w>
既得 利益</w>
教 科
政 府
收入 水平</w>
撒 切尔</w>
掀 起</w>
技术 创新</w>
开 来</w>
延 伸</w>
应 付</w>
展 现</w>
尼 泊
尤 为</w>
对 冲</w>
宗 派</w>
奏 效</w>
夺 走</w>
头 上</w>
天 然</w>
增 税</w>
堕 胎</w>
反 腐</w>
卫生 组织</w>
南 方</w>
单 纯</w>
十九 世纪</w>
化 学</w>
勇 敢</w>
出 版</w>
出 手</w>
农 产品</w>
公共 服务</w>
公 平
全 国
债务 国</w>
借 此</w>
信息 技术</w>
主 持</w>
主 意</w>
D NA</w>
顶 峰</w>
阻 力</w>
钢 铁</w>
金融 监管</w>
追 踪</w>
这 部分</w>
输 家</w>
跨 越</w>
趋 同</w>
起 草</w>
资 源
贝卢 斯科尼</w>
说 到底</w>
观察 者</w>
裨 益</w>
行 使</w>
落 入</w>
联合国 大会</w>
等 等</w>
稀 缺</w>
禁 令</w>
破 灭</w>
短 暂</w>
眼 前</w>
格 局</w>
核 武</w>
林 斯
来 源于</w>
束 缚</w>
本 次</w>
更 能</w>
春 天</w>
斯 拉夫</w>
教 派</w>
撤 销</w>
技 巧</w>
战 场</w>
意大 利
总 部</w>
总 数</w>
德拉 吉</w>
德 拉</w>
影 子</w>
弥 合</w>
引 领</w>
广 义</w>
布 雷
外国 投资</w>
增 速</w>
囚 犯</w>
名 声</w>
合 物</w>
可 信
卫 星</w>
半 年</w>
加 利
剧 性</w>
创造 性</w>
列 为</w>
减 小</w>
偏 离</w>
债务 人</w>
债 权</w>
体 育</w>
住 脚</w>
以 为
世界 杯</w>
与 其
不 用</w>
一 届</w>
SD R</w>
SD G</w>
8 00</w>
阴 谋</w>
这 座</w>
还 价</w>
近 来</w>
较 大</w>
转 换</w>
论 调</w>
讨 价
讨价 还价</w>
视 角</w>
行 为
血 腥</w>
薄 弱</w>
草 案</w>
英 里</w>
自 治</w>
联合 政府</w>
耗 尽</w>
神 经</w>
生 育
生 效</w>
溢 出</w>
混 合</w>
海 地</w>
派 系</w>
活 动
氛 围</w>
毕 业
毁 灭
正 确
正 因
正因 如此</w>
根 除</w>
杰 夫</w>
本 应</w>
有 待</w>
最 具</w>
暴 力
日 常</w>
方 人</w>
政治 化</w>
拉 美
报 酬</w>
战 士</w>
悬 崖</w>
急 切</w>
必要 条件</w>
心 态</w>
微 小</w>
建 制</w>
封 闭</w>
寡 头</w>
奉 行</w>
多 人</w>
复 制</w>
国 界</w>
同 等</w>
合法 化</w>
各 种
历史 学家</w>
几 次</w>
公 里</w>
公 然</w>
住 宅</w>
伊拉克 人</w>
以 致</w>
令人 不安</w>
人 选</w>
交 给</w>
两 项</w>
世界 卫生组织</w>
不难 理解</w>
不 清</w>
不 大
不 复
不 力</w>
不 出</w>
一 块</w>
20 25</w>
高 兴</w>
马 拉</w>
雷 曼</w>
进 攻</w>
转 折
转折 点</w>
路 上</w>
越 发</w>
该 党</w>
解 雇</w>
裁 军</w>
补 助</w>
行 性</w>
营 造</w>
老 年人</w>
竞争 性</w>
立法 者</w>
空气 污染</w>
真 是</w>
直 面</w>
目 光</w>
生 意</w>
理 人</w>
王 国</w>
注 册</w>
毕业 生</w>
毁灭 性</w>
村 庄</w>
明 天</w>
数 字
教 会</w>
据 此</w>
拨 款</w>
意 思</w>
意 在</w>
想 到</w>
恶 性循环</w>
开 端</w>
并非 如此</w>
平 稳</w>
帝 国主义</w>
尖 锐</w>
审 视</w>
宝 座</w>
安全 网</w>
天主 教</w>
国民 收入</w>
呼 声</w>
叶 利
叶利 钦</w>
受 损</w>
发生 变化</w>
危 及</w>
升 息</w>
加利 福
分 割</w>
关键 因素</w>
关注 点</w>
债权 国</w>
倡 议</w>
供应 商</w>
传染 性</w>
人 能</w>
人 力</w>
亚 于</w>
中 欧</w>
中 学</w>
东 京</w>
不大 可能</w>
不 敢</w>
不 下</w>
上 海</w>
一 部</w>
一 句</w>
i c
C E
7 00</w>
3 4</w>
黑 人</w>
高 额</w>
陷 入
金本 位</w>
采 访</w>
道而 驰</w>
达 沃
达沃 斯</w>
路 线
路线 图</w>
贪 婪</w>
误 导</w>
葛 兰</w>
苹 果</w>
艾 哈
能源 价格</w>
背 道而驰</w>
股票 市场</w>
股 本</w>
绝 不会</w>
终 止</w>
红 利</w>
策 划</w>
等 到</w>
稳 固</w>
真 如此</w>
生物 学</w>
渐 进</w>
法 则</w>
毫无 意义</w>
核 化</w>
果 真如此</w>
极 限</w>
本 周</w>
最 小
更 少</w>
明 证</w>
旅游 业</w>
旅 游</w>
方 济
教科 书</w>
描 绘</w>
捐 赠</w>
找 出</w>
所 处</w>
战略 性</w>
战 术</w>
想 想</w>
恐怖 组织</w>
巴 布
局 限</w>
夫 人</w>
大 军</w>
地 图</w>
国际 化</w>
回 事</w>
压倒 性</w>
南 克</w>
十 多年</w>
准 备
僵 化</w>
假 定</w>
借 钱</w>
保 罗</w>
作 品</w>
会 面</w>
以 为</w>
之 以</w>
中 美</w>
世界 秩序</w>
不断 扩大</w>
不 乏</w>
上 演</w>
一小 撮</w>
一 任</w>
i n
199 6</w>
高级 官员</w>
颁 布</w>
非洲 人</w>
金融 服务</w>
金 额</w>
选 活动</w>
这 套</w>
运 动员</w>
迈 进</w>
转 让</w>
身 处</w>
赞 扬</w>
赞 同</w>
贸易 壁垒</w>
认 真
蓬 勃
范 式</w>
色 彩</w>
能 为</w>
职 能</w>
缴 纳</w>
缩 短</w>
绑 架</w>
经 典</w>
筹 集</w>
竞 选活动</w>
种族 灭绝</w>
私 营</w>
电 动
生 育</w>
特 尔</w>
溯 到</w>
港 口</w>
清 洗</w>
流 出</w>
派 遣</w>
洪 水</w>
法 特</w>
比利 时</w>
每 次</w>
欧洲 理事会</w>
柬 埔
权 国家</w>
杀 伤
未 知</w>
最小 化</w>
曝 光</w>
暴 行</w>
无 意</w>
捷 克</w>
据 估计</w>
所 有者</w>
强硬 派</w>
底 层</w>
平 价</w>
已 然</w>
尼泊 尔</w>
少数 派</w>
尊 敬</w>
容 克</w>
家 长</w>
家 园</w>
定 向</w>
存 量</w>
大 致</w>
大 批</w>
多 边
基督 徒</w>
坏 消息</w>
回 避</w>
同 一</w>
发展 趋势</w>
原 来</w>
十分 困难</w>
加 密</w>
副 作用</w>
凸 显出</w>
关 押</w>
克 制</w>
充分 利用</w>
健康 状况</w>
伙伴 国</w>
产 业
交 道</w>
亚 美
亚 努</w>
丝 毫</w>
不 让</w>
不 像</w>
一致 性</w>
M D
I P
199 4</w>
19 30</w>
预 测
非 易事</w>
非 国家</w>
阿拉 法特</w>
队 伍</w>
造 就</w>
近 几年</w>
过 高</w>
购买 力</w>
诺贝尔 奖</w>
误 解</w>
诉 求</w>
西 方人</w>
被 忽视</w>
蓬勃 发展</w>
绝 非易事</w>
算 法</w>
算 不上</w>
等 同于</w>
确 立</w>
确 信</w>
研究 成果</w>
真 实
看 成</w>
相 似
盖 茨</w>
病 例</w>
界 线</w>
生产 性</w>
燃 烧</w>
民 党</w>
比 尔</w>
格 林斯
格林斯 潘</w>
杀 戮</w>
有 时候</w>
更 进一步</w>
更 深</w>
日本 政府</w>
方济 各</w>
揽 子</w>
捐 助
挑 起</w>
指 挥</w>
投 机
承 担
房 子</w>
战 斗
情 感</w>
归 因
归因 于</w>
强 加</w>
开发 银行</w>
平 静</w>
干 达</w>
布 朗</w>
尼 古
尴 尬</w>
尔 德</w>
婚 姻</w>
娱 乐</w>
妻 子</w>
大 气</w>
外 债</w>
坚 信</w>
地 点</w>
可 用</w>
反 馈</w>
原 理</w>
原 油</w>
北 非</w>
包 围</w>
加 州</w>
公 债</w>
克 里</w>
储 户</w>
停 留</w>
修正 案</w>
低 碳</w>
传 达</w>
会 令</w>
伊朗 核</w>
令人 瞩目</w>
事 物</w>
乌 干达</w>
举 例</w>
中 亚</w>
不复 存在</w>
不 论
不 相
不 多</w>
不 堪</w>
不 亚于</w>
上 周</w>
一 揽子</w>
一 周</w>
i l
am p
199 3</w>
19 60</w>
高 速
髓 灰
髓灰 质
髓灰质 炎</w>
驱 使</w>
饥 荒</w>
食 品
风 险
顶 尖</w>
雄 心</w>
限 性</w>
防 卫</w>
通货 膨
通货膨 胀率</w>
追 溯到</w>
赶 超</w>
贸易 组织</w>
许 可</w>
计 划
西 非</w>
裁 定</w>
衍 生
衍生 品</w>
蔓 延
蔓延 到</w>
蔑 视</w>
营 商</w>
英 语</w>
脊 髓灰质炎</w>
而 后</w>
罗姆 人</w>
约 翰
穆 罕
社会 党</w>
百 万
理 想
特 里
演 着</w>
清 单</w>
法 德</w>
殖 民</w>
次 级</w>
检 察
梅 德
梅德 韦</w>
标 签</w>
杜 罗</w>
机 械</w>
本 币</w>
有 没有</w>
有 利
替代 品</w>
无 动
无动 于
无动于 衷</w>
方 便</w>
斯 蒂
数字 化</w>
数 年</w>
拉 登</w>
抵 达</w>
扮 演着</w>
房 产</w>
惠 及</w>
弱 势
弱势 群体</w>
庆 祝</w>
年 内</w>
带 有</w>
布雷 顿</w>
对 称</w>
大 得多</w>
外 流</w>
外 汇</w>
地 面</w>
国家 主权</w>
哥伦 比
和 谐</w>
告 终</w>
否 决
合 成</w>
受 到
南 斯拉夫</w>
医 保</w>
初 级</w>
分析 家</w>
决 条件</w>
六 年</w>
公 司
克 鲁
先 决条件</w>
伤 亡</w>
以 巴</w>
之 力</w>
世纪 末</w>
不 振</w>
不 已</w>
不 出
上 帝</w>
一 个
8 5</w>
高 得</w>
马 尔
首 位</w>
预 料
金 氏</w>
道 导弹</w>
退 化</w>
远 见</w>
进 来</w>
迁 徙</w>
赚 取</w>
赌 注</w>
财政 状况</w>
评论 家</w>
行 政
花 钱</w>
节 目</w>
艾哈 迈
艺 术
结 核</w>
约 旦
紧 迫
站 不
穆罕 默德</w>
科 尔</w>
看 不到</w>
相 提
相提 并
相提并 论</w>
现实 主义</w>
王 朝</w>
特 色</w>
特 性</w>
深 受</w>
浓 缩</w>
活动 家</w>
桥 梁</w>
极 高</w>
杀伤 性</w>
数十 万</w>
教 堂</w>
摩 尔
据 称</w>
护 理</w>
慈 善</w>
德 国政府</w>
微 妙</w>
弹 道导弹</w>
庸 置疑</w>
布 尔</w>
屈 服</w>
居 高
宣 告</w>
大 体
多 项</w>
多 于</w>
商业 模式</w>
品 牌</w>
告 知</w>
呈 现</w>
吸 取</w>
向 前</w>
可 观</w>
变 迁</w>
反 击</w>
参与 率</w>
原 材料</w>
千 万</w>
化 合物</w>
包 装</w>
利益 集团</w>
创 伤</w>
分析 师</w>
出 席</w>
出 代价</w>
其 所</w>
充满 活力</w>
价值 链</w>
以色 列
付 出代价</w>
人 权
亚 地区</w>
事 项</w>
为 奇</w>
中间 派</w>
不足 为奇</w>
不可 逆转</w>
不 定</w>
不 如
不 受</w>
上 加
三 种</w>
七 年</w>
一 幕</w>
o r
o l
a s
Q E</w>
C A
驾 驶</w>
风 能</w>
雷 斯</w>
长 久</w>
重 演</w>
邻 居</w>
适 应
贸易 顺差</w>
设 在</w>
被 捕</w>
行 者</w>
艰 苦</w>
胜 任</w>
羞 辱</w>
继 续下去</w>
经济 制裁</w>
终 极</w>
竞争 者</w>
站不 住脚</w>
科 齐</w>
种 类</w>
神 话</w>
直 觉</w>
益 处</w>
生育 率</w>
照 片</w>
演 说</w>
清 理</w>
深 深</w>
淘 汰</w>
涌 现</w>
比 特</w>
正 统</w>
柬埔 寨</w>
极 少</w>
极 右翼</w>
极 分化</w>
本 世纪</w>
服 从</w>
明 星</w>
无 情</w>
收 支</w>
推 特</w>
指 令</w>
抬 头</w>
打 交道</w>
手 术</w>
悲 观
恐 吓</w>
忙 于</w>
心 理
年 里</w>
巴尔 干</w>
就业 率</w>
尔 巴
小 规模</w>
小 儿
对 性</w>
安全 性</w>
安 置</w>
宇 宙</w>
大幅 提高</w>
大大 增加</w>
多 重</w>
场 所</w>
在 外</w>
国防 部长</w>
国 内外</w>
回 来</w>
品 质</w>
合 约</w>
各 类</w>
可 图</w>
压 低</w>
印度 洋</w>
印度 政府</w>
医疗 卫生</w>
区域 性</w>
化 解</w>
动 议</w>
加 勒
制度 性</w>
制 作</w>
利 亚人</w>
初 衷</w>
减 缓</w>
军 官</w>
军 事实
军事实 力</w>
兰 克
公共 财政</w>
公共 品</w>
偏 向</w>
保 住</w>
余 地</w>
低 水平</w>
伯 南克</w>
人 人</w>
亲 密</w>
之 争</w>
主 体</w>
中 止</w>
中 低收入</w>
两 极分化</w>
世界 贸易组织</w>
世 人</w>
不良 贷款</w>
不 在</w>
下 一代</w>
上 任</w>
上 下</w>
一 般
a t
N C
I T</w>
7 .
3 7</w>
2 50</w>
齐 下</w>
高 技能</w>
骚 扰</w>
骚 乱</w>
顾 虑</w>
革命 性</w>
隐 含</w>
阴 影</w>
阅 读</w>
金融 中心</w>
退休 年龄</w>
迫 在
迫在 眉
迫在眉 睫</w>
这 部</w>
近几 个月</w>
软 弱</w>
轨 迹</w>
越来 越
诊 所</w>
记 得</w>
规 避</w>
装 备</w>
自 民党</w>
肆 虐</w>
罗 尼亚</w>
结 局</w>
经 费</w>
经 理</w>
经 常
管 齐下</w>
签 证</w>
第二 种</w>
眼 光</w>
监 督
男 孩</w>
电 力
甚 远</w>
物 理学</w>
泰 罗尼亚</w>
民 用</w>
民 兵</w>
比 喻</w>
殖民 地</w>
正 规</w>
正 义
歇 尔</w>
检 测</w>
根 基</w>
核 心
核 弹</w>
极 权主义</w>
本 能</w>
有 过</w>
普遍 认为</w>
普通 人</w>
无 从</w>
搁 置</w>
提 款
推 动力</w>
拙 劣</w>
报 导</w>
情 愿</w>
总 和</w>
得 益于</w>
建筑 业</w>
年 份</w>
岛 屿</w>
居高 不下</w>
局 限性</w>
少数 民族</w>
对 峙</w>
实 践
实 实
实实 在
实实在 在</w>
定 位</w>
安全 感</w>
委 员</w>
女 童</w>
夫 斯基</w>
大 面积</w>
大 而</w>
大 笔</w>
大 城市</w>
多 瓦</w>
基 石</w>
地 区
回 忆</w>
咨 询</w>
名 为</w>
各种 各样</w>
可信 度</w>
可 言</w>
可 行性</w>
北 美
劳动 密集型</w>
加 泰罗尼亚</w>
加 息</w>
别 的</w>
利 比
刑 事
决 裂</w>
兼 并</w>
其 余</w>
关键 作用</w>
公 开
八 年</w>
光 明</w>
傲 慢</w>
做 些</w>
倡 导</w>
俄 罗斯
依 存</w>
低 廉</w>
任 由</w>
代 理人</w>
今年 夏天</w>
互 换</w>
举 办</w>
主 权国家</w>
不 该</w>
不 知</w>
上 面</w>
一 是</w>
一 个月</w>
a l
T A</w>
C P
C C</w>
鲁 莽</w>
高 水平</w>
预 料</w>
顺 利</w>
靠 拢</w>
零 售
阿尔 巴
长期 存在</w>
重 创</w>
重 于</w>
配 合</w>
避 难</w>
送 到</w>
访 者</w>
若 干</w>
般 的</w>
臭 名
臭名 昭
臭名昭 著</w>
经 验
糖 尿
糖尿 病</w>
相 符</w>
百 姓</w>
略 微</w>
申 科</w>
炮 制</w>
激 怒</w>
测 算</w>
津 巴布
津巴布 韦</w>
法 律
法 定</w>
汽 车
民主 党人</w>
欺 诈</w>
核 武
核 国家</w>
有利 可图</w>
有 毒</w>
既 有</w>
新 一代</w>
文 主义</w>
政治 体制</w>
收 获</w>
摩尔 多瓦</w>
摩 擦</w>
提款 权</w>
提供 者</w>
挤 出</w>
挑 战
持 有人</w>
拿 到</w>
拉 圭</w>
开 创</w>
年 均</w>
市场 份额</w>
巴尔 干
巴勒斯坦 国</w>
小儿 麻
完 全
威 尔
夸 张</w>
大 相
大 小</w>
多 万</w>
增 大</w>
增 值
垮 台</w>
国务 院</w>
同 行</w>
反 常</w>
原 有</w>
协 商</w>
升 温</w>
十 字
北 欧</w>
剧 变</w>
划 定</w>
刑 事</w>
出 去</w>
党 内</w>
光 是</w>
倾 斜</w>
信 用
为 人
中国 共产党</w>
东道 国</w>
不 能
一 看</w>
一 来</w>
一 切
e s
A R
9 .
196 7</w>
19 14</w>
0 .5</w>
黎 各</w>
骄 傲</w>
预防 性</w>
音 乐</w>
集 权</w>
阿 里</w>
门 槛</w>
销 毁</w>
针 对性</w>
违 背</w>
这 条</w>
身 边</w>
货 物</w>
负 责
读 者</w>
观 众</w>
表 态</w>
行 径</w>
良 机</w>
致 死</w>
能源 安全</w>
肺 结核</w>
聚 焦</w>
翻 番</w>
编 辑</w>
综 合
维 艰</w>
绕 过</w>
级 别</w>
第二 轮</w>
硅 谷</w>
的 是</w>
登 上</w>
疑 虑</w>
生 存
理 所
版 本</w>
波 多
波多 黎各</w>
沿 着</w>
治 愈</w>
死 去</w>
次 要</w>
检 验</w>
核 试验</w>
核 电</w>
样 子</w>
标 题</w>
最 强</w>
智 力</w>
星 期</w>
明 智
日本 银行</w>
新 任</w>
数 额</w>
改革 方案</w>
挫 败</w>
挤 兑</w>
执行 官</w>
所 在
戈 尔巴
戈尔巴 乔
戈尔巴乔 夫</w>
惊 奇</w>
怎 么
径 庭</w>
弗 朗
弗 拉
席 卷</w>
带 给</w>
工 资
尼 西亚</w>
将 近</w>
安 南</w>
学 界</w>
孤 立
大相 径庭</w>
多边 贸易</w>
增值 税</w>
基 准</w>
培 育</w>
国有 化</w>
否决 权</w>
右 派</w>
压 倒</w>
印度 尼西亚</w>
匮 乏</w>
北美 自由
出 资
农 业
共 有</w>
使 馆</w>
何 处</w>
会 计</w>
亚美 尼亚</w>
亚太 地区</w>
主 席
为 期</w>
中 立</w>
不 移</w>
不 容</w>
上 来</w>
一 如</w>
am p</w>
E C
CE O</w>
4 2</w>
201 9</w>
198 1</w>
非 理性</w>
阻 挡</w>
间 谍</w>
金 属</w>
通货 紧缩</w>
迁 移</w>
转 基因</w>
赶 上</w>
贸易 逆差</w>
谋 求</w>
讲 述</w>
认真 对待</w>
计算 机
解决 之道</w>
解 散</w>
见 证</w>
萨 科齐</w>
节 奏</w>
航 空
罪 犯</w>
罗 伯特</w>
网 上</w>
结 果
粮食 安全</w>
目 的
痹 症</w>
独裁 统治</w>
燃 煤</w>
激 情</w>
满 情绪</w>
海 岸</w>
浮 现</w>
流 动
泛 滥</w>
法 外</w>
比 起</w>
毁 掉</w>
残 忍</w>
欧 亚</w>
植 根
植根 于</w>
智 能
昔 日</w>
明 确
日 常
日 内
日内 瓦</w>
无 比</w>
数十 亿</w>
放 眼</w>
收 取</w>
搜 索</w>
接 入</w>
掠 夺</w>
捷 克
挑 选</w>
戏 剧性</w>
惯 于</w>
思 想
心 目</w>
德 尔</w>
微 弱</w>
得 起</w>
归 功
归功 于</w>
库 存</w>
市场 准入</w>
市 长</w>
小儿麻 痹症</w>
定 居</w>
孤立 主义</w>
奥斯 陆</w>
头 脑</w>
大体 上</w>
大 有
外交 关系</w>
外 逃</w>
壮 大</w>
坚 定
在 历史
在历史 上</w>
回 国</w>
商 店</w>
哈 萨
同 步</w>
号 召</w>
受 伤</w>
原 始</w>
协 力</w>
勉 强</w>
别 国</w>
创 立</w>
出 路</w>
出 国</w>
出 发</w>
凯 恩</w>
信 任
保险 公司</w>
体 育
亚 马
主席 国</w>
两 岸</w>
东 方</w>
与 否</w>
不 管
不 惜</w>
不 合理</w>
下 行</w>
三 国</w>
一 笔</w>
一 战</w>
o u
3 6</w>
鲜 明</w>
高 峰</w>
高 利率</w>
验 证</w>
靠 近</w>
附 加
金融 风险</w>
金融 资产</w>
那 次</w>
通 用</w>
跟 踪</w>
走 私</w>
赋 权</w>
调 和</w>
说 出</w>
覆 辙</w>
节 省</w>
耻 辱</w>
考 量</w>
老 板</w>
罗 德</w>
结 婚</w>
篮 子</w>
离 析</w>
离 岸</w>
确 切</w>
硬 着陆</w>
看 护</w>
看 出</w>
直 升
监 测</w>
男 人</w>
瓦 尔</w>
独 自</w>
物 流</w>
温 家
温家 宝</w>
波 兰人</w>
法 法院</w>
民 意</w>
毕 业</w>
正 当</w>
欧 美</w>
检察 官</w>
格 达</w>
核武 库</w>
枯 竭</w>
暴 露出</w>
景 气</w>
时 间
时 所</w>
日益 增长</w>
无 处
无 前
无前 例</w>
旁 观</w>
斯洛 伐
斯 特</w>
救 济</w>
接 纳</w>
抵 挡</w>
手 里</w>
所 得</w>
意大利 人</w>
心 协力</w>
开 罗</w>
开 战</w>
幻 觉</w>
幕 后</w>
希 拉克</w>
崩 离析</w>
岌 岌
岌岌 可
岌岌可 危</w>
尔 顿</w>
导 者</w>
宪 法法院</w>
学 位</w>
女 儿</w>
外 来</w>
基 点</w>
团结 起来</w>
商 务</w>
吞 噬</w>
同 期</w>
史 无前例</w>
可 疑</w>
口 气</w>
北美自由 贸易协定</w>
分 钟</w>
分 崩离析</w>
几 百年</w>
凌 驾
准备 金</w>
冷 静</w>
再 次
全 面
先 前</w>
侮 辱</w>
伊朗 人</w>
仪 式</w>
人 性</w>
五 分之一</w>
世界 观</w>
世 卫</w>
不如 说是</w>
不 懈</w>
不 堪
一 百万</w>
一 次
i r
N A
F D
9 5</w>
5 000</w>
3 8</w>
3 3</w>
1 0
麦 凯恩</w>
鸿 沟</w>
高 乐</w>
首 脑
革 新</w>
陷入 困境</w>
锦 涛</w>
透 露</w>
这 家</w>
这 使</w>
轴 心</w>
赛 因</w>
贿 赂</w>
贫困 线</w>
财 阀</w>
触 及</w>
规 律</w>
蓝 图</w>
蒙 受</w>
萨 科奇</w>
艾哈迈 迪</w>
自然 灾害</w>
胡 锦涛</w>
者 之间</w>
美 日</w>
罪 羊</w>
统计 数据</w>
细 菌</w>
纲 领</w>
第二 次世界大战</w>
第一 次世界大战</w>
第 一位</w>
穿 越</w>
祸 首</w>
矛 头</w>
相 近</w>
相 矛盾</w>
相 关
白 俄罗斯</w>
略 有</w>
界 定</w>
理所 当然</w>
理 智</w>
现 成</w>
潜 能</w>
游 戏
海 洋
流 血</w>
洞 见</w>
河 流</w>
武装 冲突</w>
欧 尔</w>
核 子</w>
权 势</w>
权 力
未 经</w>
替 罪羊</w>
无 非</w>
无 限
新 高</w>
新 药</w>
斯 达
文 在
整 整</w>
携 手</w>
提 起</w>
捕 获</w>
振 奋</w>
指 挥
投票 权</w>
把 握</w>
截 止</w>
我 看来</w>
慈 善
愉 快</w>
总 裁</w>
总 的
急 于</w>
怎么 办</w>
德 曼</w>
得 主</w>
当 成</w>
平 常</w>
市场 化</w>
巴 格达</w>
巧 妙</w>
少 年</w>
宣 传
安全 部队</w>
学 术
大 革命</w>
大 为</w>
多 数
多 德</w>
处 境</w>
堕 落</w>
城 镇</w>
坚定 不移</w>
坏 事</w>
困 惑</w>
四 十年</w>
器 官</w>
哈萨 克斯坦</w>
听 取</w>
向 来</w>
同 一个</w>
司 机</w>
召 集</w>
受 困</w>
原 则
危 险
勘 探</w>
勒 庞</w>
助 推</w>
刚 开始</w>
刚 刚开始</w>
出口 商</w>
凌驾 于</w>
冰 川</w>
关 系
六 个</w>
公 认</w>
八 个</w>
克 什
光 靠</w>
保 卫</w>
俄 国人</w>
侯 赛因</w>
侨 汇</w>
会 为</w>
仅 限于</w>
交易 所</w>
买 单</w>
书 籍</w>
九 个</w>
不 善</w>
上 市</w>
万 个</w>
一 度</w>
a n</w>
MD G</w>
3 1</w>
1 20</w>
鼓 吹
鼓吹 者</w>
魁 祸首</w>
高速 公路</w>
高 价</w>
骗 局</w>
饮 食</w>
预 见到</w>
集体 行动</w>
难民 营</w>
随 处
随处 可见</w>
降 至</w>
长 久
野 生
里 亚</w>
道 歉</w>
逃 税</w>
远 高于</w>
这 件</w>
输 出</w>
赤 裸
赤裸 裸</w>
赞 助</w>
询 问</w>
评 判</w>
论 证</w>
议 者</w>
议 案</w>
要 点</w>
表 演</w>
虚 拟</w>
营 销</w>
获 得成功</w>
获 利</w>
莱 坞</w>
莫 拉
至 今日</w>
自 私</w>
职业 生涯</w>
耶 伦</w>
罪 魁祸首</w>
罚 款</w>
罗 兴
维 持
约旦 河
约旦河 西岸</w>
筹 码</w>
筛 查</w>
第 一种</w>
空 白</w>
空 中</w>
种族 隔离</w>
社会 民主党</w>
社 团</w>
相似 之处</w>
相 去
相去 甚远</w>
目的 地</w>
电动 汽车</w>
由 此
现 场</w>
灵 魂</w>
火 箭</w>
澄 清</w>
演 愈
演愈 烈</w>
沿 海</w>
汽 油</w>
正义 党</w>
桑 德斯</w>
格 曼</w>
来 不</w>
朴 槿
有 机</w>
替 换</w>
暂 时性</w>
时 至今日</w>
日本 首相</w>
无 限</w>
无 不</w>
新闻 自由</w>
新闻 媒体</w>
斯洛伐 克</w>
攻 势</w>
提供 援助</w>
挫 折</w>
拉美 国家</w>
抗 药性</w>
所 能</w>
所 知</w>
戴 高乐</w>
截 至</w>
战 役</w>
或 少</w>
或 多
或多 或少</w>
愈 演愈烈</w>
总 而言之</w>
怀 孕</w>
微 软</w>
开 明</w>
并不 比</w>
巴 塞尔</w>
工 人
尽 力</w>
尼亚 州</w>
尼 加拉
尼加拉 瓜</w>
审 议</w>
好 比</w>
太 大而</w>
大 麻</w>
外 长</w>
坚 守</w>
在 我看来</w>
土耳其 人</w>
唯 有</w>
和平 谈判</w>
启 发</w>
合 理性</w>
各 不相同</w>
可 知</w>
发 动
印度 教</w>
卡 尔</w>
北 极</w>
加 利亚</w>
初 始</w>
列 强</w>
分 类</w>
冷 漠</w>
典 范</w>
其 量</w>
关键 在于</w>
兰 克</w>
六 个月</w>
公民 自由</w>
八 十年代</w>
入 学
兑 换</w>
克鲁 格曼</w>
充 其量</w>
健 全</w>
停 火</w>
倒 塌</w>
保 加利亚</w>
侵 略
侵 害</w>
会 以</w>
以色列 政府</w>
令人 鼓舞</w>
从 来不</w>
亚马 逊</w>
于 事</w>
买 家</w>
买 卖</w>
之 重</w>
临 时性</w>
中东 欧</w>
中 美
中 所</w>
中 叶</w>
丧 生</w>
严重 威胁</w>
两 难</w>
两 者之间</w>
两 名</w>
与 会
上 学</w>
一 点
一 月</w>
一 回</w>
o n</w>
W T
O M
6 3</w>
5 9</w>
黑 客</w>
黎 加</w>
马 杜罗</w>
马 德里</w>
饮 用水</w>
预料 到</w>
非洲 地区</w>
集 会</w>
隐 瞒</w>
银行 贷款</w>
重新 考虑</w>
里 程
里 夫</w>
通 道</w>
远 程</w>
进口 关税</w>
进 行
达尔 富
达尔富 尔</w>
轻 而易
轻而易 举</w>
起 初</w>
负 着</w>
装 置</w>
衷 于</w>
街 道</w>
莫拉 莱</w>
范 例</w>
英 格兰</w>
良 多</w>
航 空</w>
肥 胖</w>
美国 财政部</w>
网络 安全</w>
纳 米
约翰 逊</w>
累 计</w>
紧迫 性</w>
精 心</w>
算 是</w>
空 袭</w>
税收 制度</w>
福 特</w>
神 圣</w>
砍 伐</w>
相互 依赖</w>
相互 依存</w>
直 接
用 作</w>
球 员</w>
现 金
独裁 政权</w>
独 有</w>
牺 牲
热 衷于</w>
热 烈</w>
激 励
激励 机制</w>
演 习</w>
游戏 规则</w>
渔 业</w>
海 域</w>
流 行
步 入</w>
此 时</w>
欧洲 委员会</w>
核 扩散</w>
来 者</w>
权 者</w>
权 益</w>
朴槿 惠</w>
智能 手机</w>
景 象</w>
时 才</w>
日 俱
无 尽</w>
无 家
无家 可
方 位</w>
文在 寅</w>
数 千</w>
政 界</w>
政 局</w>
改 变
收 拾</w>
擅 长</w>
揭 露</w>
拉 动</w>
拉 低</w>
抵 押
抗 拒</w>
投票 率</w>
所 欲</w>
所 料</w>
怨 恨</w>
忌 惮</w>
废 墟</w>
并不 需要</w>
年 时</w>
希 尔</w>
差 不多</w>
峰 值</w>
屈 从</w>
局 部</w>
小 说</w>
学 派</w>
学 到</w>
姆 斯</w>
好 得多</w>
奋 斗</w>
大 楼</w>
外汇 市场</w>
复杂 化</w>
地区 性</w>
国防 部</w>
回 顾</w>
哲 学家</w>
周 边
吸 纳</w>
后 期</w>
同 胞</w>
合 格</w>
受 访者</w>
发言 权</w>
厄 瓜
十 二
加 重</w>
剥 削</w>
到 期</w>
利 差</w>
分 支</w>
农 作物</w>
军事 冲突</w>
兴 奋</w>
全 方位</w>
克什 米尔</w>
克 罗
假 装</w>
值得 注意</w>
优 质</w>
优 点</w>
以 内</w>
他 信</w>
人 体</w>
亏 损</w>
事 后</w>
乐 于</w>
乌 拉圭</w>
主 管</w>
不 满情绪</w>
下 令</w>
一 百
一 步
一 本</w>
t er</w>
WT O</w>
F TA</w>
6 6</w>
197 1</w>
19 29</w>
鹰 派</w>
鱼 类</w>
高 油价</w>
高 位</w>
马克 思</w>
首 尔</w>
风险 管理</w>
阐 述</w>
长 远
错 过</w>
金正 日</w>
重 负</w>
重 回</w>
采取 任何</w>
郁 症</w>
避 开</w>
遗 留
遗 忘</w>
遗 传
选 择
进行 谈判</w>
进口 国</w>
轮 值</w>
车 臣</w>
身 后</w>
践 踏</w>
足 联</w>
足 球
资源 配置</w>
贸易 区</w>
货币 基金</w>
责 任
象征 性</w>
谈判 者</w>
请 求</w>
许 诺</w>
讨 厌</w>
视 作</w>
表 决</w>
虚 弱</w>
药 方</w>
船 只</w>
自 发</w>
脱 节</w>
耐 药</w>
罪 名</w>
绸 之路</w>
维 和</w>
精神 病</w>
算 盘</w>
第三 方</w>
突 破
移 动
禁 运</w>
直升 机</w>
盯 住</w>
疏 远</w>
男 女</w>
理 论
环境 保护</w>
猖 獗</w>
特 质</w>
渺 茫</w>
海 湾
没 错</w>
此 事</w>
正 教</w>
桑 尼亚</w>
格 勃</w>
核 裁军</w>
核 查</w>
核 反应堆</w>
构 想</w>
权 重</w>
本 书</w>
有所 增加</w>
曼 德拉</w>
普 世</w>
是 如此</w>
是 否
是否 是</w>
星 球</w>
明智 地</w>
日常 生活</w>
日俱 增</w>
无 助于</w>
新 生
斯达 黎加</w>
数 亿</w>
教 条</w>
改革 者</w>
改革 派</w>
摆 在</w>
提供 商</w>
振 兴</w>
抗 击</w>
执 政党</w>
成 年</w>
意 料
悲 惨</w>
悖 论</w>
总 收入</w>
总 会</w>
性 化</w>
思想 家</w>
快 乐</w>
弗拉 基
弗拉基 米尔</w>
弗 里
引 向</w>
异 见</w>
开 辟</w>
延 迟</w>
市 政</w>
崇 拜</w>
封 锁</w>
对 华</w>
富 豪</w>
客 观</w>
定 律</w>
官僚 机构</w>
安全 部门</w>
存 活</w>
大 部</w>
大 米</w>
处 决</w>
基因 组</w>
坦 桑尼亚</w>
坚 实</w>
在 世界
在世界 上</w>
国际 事务</w>
国 籍</w>
国 度</w>
哥伦比 亚
哥 斯达黎加</w>
和 谈</w>
名 言</w>
各 项</w>
吃 惊</w>
另 一
取 向</w>
原则 上</w>
厄瓜 多尔</w>
单 靠</w>
劳动 生产率</w>
动 者</w>
利益 冲突</w>
利 基</w>
初 创</w>
创 纪录</w>
几 位</w>
关 税
克 格勃</w>
假 新闻</w>
倡 导者</w>
余 额</w>
体 内</w>
伊 始</w>
五 年
习 惯于</w>
乌 托
之 不
为 主</w>
临 床</w>
临 床
中 美洲</w>
个 别</w>
丝 绸之路</w>
东 海</w>
专 制
与其 说是</w>
与 日俱增</w>
不出 所料</w>
不 通</w>
不 入</w>
下 属</w>
上 将</w>
一致 意见</w>
一 生</w>
NC D</w>
I P</w>
9 00</w>
6 2</w>
4 4</w>
198 6</w>
198 2</w>
197 3</w>
齐 心协力</w>
鼓 动</w>
默 许</w>
鲁 晓
鲁晓 夫</w>
高 官</w>
高 加
首脑 会议</w>
领 地</w>
领 取</w>
顾 客</w>
青 少年</w>
霍 乱</w>
隐 性</w>
随 意</w>
降 临</w>
阿 布
问 责
销 售
野生 动物</w>
重 现</w>
重 中
重中 之重</w>
里 斯</w>
部 族</w>
邮 件</w>
那 场</w>
选 手</w>
迷 失</w>
跻 身</w>
走 势</w>
赫 鲁晓夫</w>
资本 外逃</w>
资 料</w>
调 节</w>
诱 人</w>
证 券
论 据</w>
解放 军</w>
觉 醒</w>
观 看</w>
西班 牙
被 控</w>
行动 计划</w>
萨 尔
茨 基</w>
芝 加
自 力
自力 更
自力更 生</w>
自 为
能源 需求</w>
而 下</w>
美 金</w>
缺 点</w>
结 为</w>
终 身</w>
纽约 时报</w>
纳 税</w>
素 质</w>
管理 层</w>
第 五</w>
立 学校</w>
税 基</w>
移动 电话</w>
科学 研究</w>
科 斯</w>
科 威
私 下</w>
知 名</w>
瞻 性</w>
直 至</w>
盛 行</w>
犹 主义</w>
牵 涉
牵涉 到</w>
演 变成</w>
渗 透</w>
渐 进
消 极
济 于事</w>
流 通</w>
流 感</w>
沙 文主义</w>
殆 尽</w>
欠 缺</w>
某种 意义</w>
极 少数</w>
极 具</w>
有 损
有损 于</w>
无法 控制</w>
无处 不在</w>
无可 避免</w>
无可 否认</w>
无 穷
无 济于事</w>
无 序</w>
施 罗德</w>
新 近</w>
新 西
新 政</w>
教 义</w>
改 良</w>
撤 退</w>
摇 摇
推 理</w>
掣 肘</w>
捐 款</w>
捐 助</w>
招 聘</w>
抵押 品</w>
把 持</w>
我 国</w>
成 人</w>
慢 慢</w>
惯 例</w>
总 人口</w>
忠 实</w>
必 定</w>
德 黑
徘 徊</w>
征 服</w>
弱 化</w>
建 成</w>
度 过</w>
带 到</w>
布 拉
布 托</w>
已 知</w>
巨 量</w>
巨 型</w>
小 泉</w>
小 心
导 性</w>
家 中</w>
宗教 信仰</w>
孟 买</w>
奥 塞
夺 回</w>
失 踪</w>
天 才</w>
大大 降低</w>
大 使馆</w>
多 达</w>
外 部
外 人</w>
备 受</w>
坦 克</w>
坚 持
国际 金融</w>
固定 汇率</w>
四 分
四分 五
四分五 裂</w>
听 说</w>
同 情
各 自为
变 动</w>
发动 战争</w>
发 电厂</w>
发 电
发 制
发制 人</w>
反 犹主义</w>
参 考</w>
医 药</w>
加 尔</w>
前 瞻性</w>
制 品</w>
别 处</w>
利比 里亚</w>
初 选</w>
减 贫</w>
养 活</w>
其 二</w>
其 一</w>
关 切</w>
共同 点</w>
共 鸣</w>
全国 性</w>
偶 然</w>
偶 尔</w>
借 鉴</w>
佩 克</w>
低 工资</w>
伎 俩</w>
伊斯兰 共和国</w>
任 职</w>
乘 数</w>
乌托 邦</w>
之 手</w>
丰 厚</w>
中 位</w>
世 俗
不论 是</w>
不 快</w>
不 同于</w>
不 同
不 合
上 风</w>
上 而下</w>
a r</w>
a d
T w
T T
I S</w>
C D
A f
A I</w>
5 5</w>
4 8</w>
4 7</w>
3 9</w>
3 50</w>
默 斯</w>
驾 驭</w>
马 其
频 率</w>
霸 主</w>
难 免</w>
随 心
随心 所欲</w>
降 低利率</w>
阿尔巴 尼亚</w>
阿卜杜 拉</w>
长久 以来</w>
酒 店</w>
避 税</w>
逃 脱</w>
适应 性</w>
追 加</w>
进口 品</w>
还 给</w>
近 一半</w>
辩 解</w>
输 送</w>
辅 之以</w>
超 低</w>
负 担
貌 似</w>
谈 到</w>
调 动</w>
说 话</w>
词 汇</w>
认 清</w>
观 主义</w>
西 奈
薪 水</w>
萨 默斯</w>
获 得
自 称</w>
腺 癌</w>
而 代
而代 之</w>
老 布什</w>
群 岛</w>
美 欧</w>
罹 患</w>
罗 夫</w>
继 承
经济 区</w>
线 索</w>
纪念 日</w>
粒 子</w>
穆 勒</w>
税 制</w>
秋 天</w>
福 音</w>
祖 先</w>
破 产
看 着</w>
登 记</w>
生 长</w>
生 殖</w>
甚 微</w>
现 目标</w>
环 保
爱 国主义</w>
点 燃</w>
源 头</w>
游 客</w>
消极 影响</w>
海 地区</w>
法西 斯主义</w>
油 气</w>
求 助</w>
气 氛</w>
民主 选举</w>
民主 政体</w>
毫不 犹豫</w>
武装 力量</w>
欲 坠</w>
标 志
柏 林
柏林 墙</w>
枪 支</w>
枢 纽</w>
来 临</w>
束 手
杀 手</w>
未 决</w>
望 于</w>
服 用</w>
有 余</w>
更 有
更 广</w>
显 露</w>
星 期
时 常</w>
无 休
无 人</w>
新西 兰</w>
政治 经济</w>
摇摇 欲坠</w>
掩 饰</w>
换 言之</w>
持 久
抗 议者</w>
投 行</w>
抑 郁症</w>
抑 郁</w>
承担 责任</w>
戈 登</w>
惨 重</w>
德黑 兰</w>
弹 劾</w>
弗 兰克</w>
弊 端</w>
常 任
常任 理
希 望于</w>
巧 合</w>
展 望</w>
就 职</w>
将 要</w>
寄 希望于</w>
家庭 收入</w>
宪 政</w>
审 核</w>
实 现目标</w>
实 时</w>
官僚 主义</w>
孟 加
孟加 拉</w>
头 条</w>
失业 者</w>
夫 妇</w>
太 空</w>
天 安
大 不相同</w>
外交 部长</w>
增 值</w>
地 被</w>
国 会
国 企</w>
四 大</w>
善 意</w>
哈 佛
听 闻</w>
后 面</w>
名 词</w>
合 力</w>
可 比</w>
另 有</w>
叙 利亚人</w>
变 异</w>
取 而代之</w>
取 缔</w>
发 酵</w>
发 现
原 料</w>
卡 尔
单 边</w>
半 叶</w>
前 夕</w>
创 始
刚 果</w>
出 身</w>
军 政府</w>
冒 犯</w>
再 生</w>
内 政</w>
关键 点</w>
兰 政府</w>
公共 利益</w>
公 务
党 员</w>
先 发制人</w>
偏 执</w>
伸 出</w>
仲 裁</w>
代 际</w>
仅 靠</w>
仅 为</w>
亿 吨</w>
人口 数量</w>
产 妇</w>
产 品
互 联</w>
之 多</w>
之 以
中 起</w>
中 介</w>
严重 后果</w>
两 位数</w>
东 非</w>
东 正教</w>
东 扩</w>
东 北
业 已</w>
专 政</w>
不可 及</w>
不 难</w>
不 感兴趣</w>
不 惜
三 次</w>
一次 性</w>
一 股</w>
一 类</w>
一 夜
r e
i a</w>
a l</w>
H I
A M
8 .
6 7</w>
197 2</w>
1 30</w>
黯 淡</w>
鸦 片</w>
高 盛</w>
高 中</w>
驻 军</w>
马 车</w>
领 土
预 想</w>
预 先</w>
顾 及</w>
非 法
雪 上加
雪上加 霜</w>
限 定</w>
防 范</w>
闹 剧</w>
里 克</w>
递 交</w>
迷 于</w>
迟 早</w>
连 贯</w>
进口 商品</w>
这样 一来</w>
这 句</w>
返 回</w>
运 气</w>
迎 合</w>
过渡 期</w>
过 大</w>
轻 微</w>
跟 进</w>
起 着</w>
赞 赏</w>
赞 美</w>
谬 误</w>
谈 话</w>
课 堂</w>
说 辞</w>
角 落</w>
西奈 半岛</w>
蚊 帐</w>
营 企业</w>
获 全
获全 胜</w>
自 治
自 有</w>
自 上而下</w>
脚 步</w>
胚 胎</w>
而 生</w>
而 未决</w>
翻 一番</w>
罗 纳德</w>
维 利</w>
经济 收益</w>
纺 织
纯 属</w>
精 明</w>
突破 性</w>
突 变</w>
私人 资本</w>
碰 到</w>
碎 片</w>
相 对
男 子</w>
生产 国</w>
生 活
现 今</w>
牺牲 品</w>
热 带</w>
灰 复
灰复 燃</w>
激进 分子</w>
添 加</w>
混 淆</w>
消 退</w>
波 动性</w>
法西 斯</w>
法 制</w>
没 人</w>
沉 迷于</w>
永 恒</w>
毋 庸置疑</w>
残 暴</w>
死 灰复燃</w>
步 维艰</w>
此 人</w>
欧洲 中央银行</w>
次 于</w>
核 设施</w>
某 人</w>
极 易</w>
本 国
本国 货币</w>
木 材</w>
最 能</w>
最 优</w>
暴 动</w>
普 尔</w>
时 日</w>
无 核化</w>
新 鲜</w>
新 鲜
数据 库</w>
数 万亿美元</w>
敏 感
放 心</w>
攫 取</w>
携 带</w>
援 引</w>
挽 回</w>
拥 挤</w>
拉 大</w>
技术 转让</w>
批 判</w>
打 败</w>
所 起</w>
愈 加</w>
悬 而未决</w>
总 能</w>
急 剧
急剧 下降</w>
怀疑 派</w>
心 脏
微 观</w>
当 权者</w>
归 结为</w>
弗里 德曼</w>
开放 市场</w>
延 缓</w>
布 雷</w>
布 勒</w>
就 任</w>
小 农</w>
宣 誓</w>
实 用</w>
安 慰</w>
学 历</w>
委 托</w>
好 转</w>
奖 金</w>
契 合</w>
夺 取</w>
大 获全胜</w>
大 片</w>
多 样</w>
外交 部</w>
坐 在</w>
在此 之前</w>
国际 足联</w>
喜 马拉
名 誉</w>
同 理</w>
各自为 政</w>
司法 部</w>
可 怜</w>
发现 自己</w>
反 感</w>
双边 贸易</w>
原子 弹</w>
历史 记录</w>
危险 性</w>
卫生 工作者</w>
南 中国
南中国 海</w>
协 调
区 块</w>
北 欧国家</w>
努 力
剂 量</w>
刻 意</w>
制度 化</w>
利 用
分 娩</w>
出 任</w>
农 地</w>
军事 政变</w>
公务 员</w>
八 国集团</w>
全 职</w>
入 狱</w>
催 化
偿 还
倾 听</w>
信用 卡</w>
信 徒</w>
保持 沉默</w>
侵 入</w>
伊朗 政府</w>
付 诸
从 那
仅 次于</w>
人 道</w>
人 听闻</w>
事 宜</w>
乐 观主义</w>
举 步维艰</w>
为时 过早</w>
临床 试验</w>
中美 关系</w>
中国 崛起</w>
严 苛</w>
两国 之间</w>
两 家</w>
世界 市场</w>
专业 化</w>
与会 者</w>
不 啻</w>
万 名</w>
一夜 之间</w>
一 组</w>
一 向</w>
r o
S A</w>
5 7</w>
3 .5</w>
196 8</w>
19 50</w>
麦 肯
高 度
驻 扎</w>
额 度</w>
领 先
青 睐</w>
零 利率</w>
随 机</w>
降 息</w>
防 御
闻 名</w>
闲 置</w>
问 题
野 生</w>
重新 分配</w>
重 返</w>
酝 酿</w>
适 度</w>
退 回</w>
迟 迟</w>
远 非</w>
这样 的话</w>
这 点</w>
过 热</w>
过 往</w>
迅 猛</w>
达尔 文</w>
轻 重</w>
转 为</w>
足 轻重</w>
越 大</w>
赔 偿</w>
课 税</w>
语 权</w>
话 语权</w>
设 计
许 下</w>
讨 好</w>
解 组织</w>
观察 员</w>
裂 痕</w>
被 动</w>
行 其
螺 旋</w>
虫 剂</w>
蒙 蒂</w>
萨达 特</w>
菲 尔德</w>
色 情</w>
自 相矛盾</w>
自 利</w>
能源 供应</w>
股 份</w>
肆 无
肆无 忌惮</w>
联合 行动</w>
联 手</w>
耗 资</w>
老 牌</w>
老 年</w>
老 人</w>
翼 翼</w>
美国 市场</w>
美 德</w>
罚 性</w>
缩 水</w>
绩 效</w>
统计 数字</w>
细 分</w>
红 线</w>
紧急 状态</w>
粗 暴</w>
等 级</w>
笔 者</w>
移 植</w>
积极 参与</w>
私人 企业</w>
福 岛</w>
禁 忌</w>
神 秘</w>
磋 商</w>
破坏 力</w>
省 份</w>
相关 性</w>
留 欧</w>
申 请
环 节</w>
特 拉
特 区</w>
法 令</w>
油 田</w>
沙 漠</w>
比 索</w>
每 桶</w>
正确 方向</w>
标志 性</w>
李 克
李克 强</w>
未 知
有所 提高</w>
月 底</w>
暴 政</w>
暗 中</w>
普遍 存在</w>
是 在</w>
明 朗</w>
时 会</w>
无 遗</w>
无 条件</w>
无 常</w>
无 可</w>
旗 帜</w>
斯特 罗</w>
敢 于</w>
敌 对
政治 危机</w>
改变 现状</w>
收 支
提 取</w>
提 倡</w>
招 致</w>
拉 利
拉利 昂</w>
抑 或</w>
技术 性</w>
批评 家</w>
打 消</w>
手 下</w>
慢 性</w>
感 谢</w>
惩 罚性</w>
情报 机构</w>
情报 局</w>
恐怖 活动</w>
性 别
忧 心
忧心 忡
忧心忡 忡</w>
强 奸</w>
强 人</w>
广 播</w>
广 受</w>
常 识</w>
带 领</w>
市 民</w>
巴 解组织</w>
巴 以</w>
州 长</w>
小心 翼翼</w>
小 于</w>
宣 战</w>
实 用
宁 愿</w>
威尔 逊</w>
失 调</w>
天 堂</w>
大 手
大 体</w>
多 种
多 名</w>
外 包</w>
声 望</w>
增 量</w>
塞 族</w>
塞 拉利昂</w>
塑 料</w>
在 实践
团结 一致</w>
回 购</w>
回 升</w>
四 分之
四分之 三</w>
哈佛 大学</w>
哈 里
吹 嘘</w>
名 列</w>
合作 社</w>
合 并</w>
叫 停</w>
另 一方</w>
变 量</w>
受 众</w>
反 美</w>
反 之</w>
双 重
去 世</w>
压 抑</w>
卸 任</w>
卡 特尔</w>
卡 斯特罗</w>
北 爱尔兰</w>
助 手</w>
加利福 尼亚</w>
力 气</w>
创始 人</w>
创 业
切 实际</w>
分 裂
分 为</w>
出 生
军 备</w>
写 入</w>
共同 努力</w>
公平 竞争</w>
入学 率</w>
入 境</w>
免 遭</w>
光 是在</w>
偿还 债务</w>
借 入</w>
佛 罗
低 效率</w>
伯 格</w>
会 见</w>
令人 振奋</w>
仍 能</w>
人 意</w>
亲 信</w>
交易 成本</w>
亚洲 地区</w>
于 零</w>
乳 腺癌</w>
乱 象</w>
也 好</w>
之 计</w>
之 初</w>
中 部</w>
个 性</w>
两 国政府</w>
业 绩</w>
世界 舞台</w>
不管 怎样</w>
不 道德</w>
不 景气</w>
不 切实际</w>
不 休</w>
下 面</w>
万 亿
一 只</w>
一 口气</w>
i s
e t</w>
e l</w>
TT IP</w>
HI V</w>
6 4</w>
4 3</w>
196 2</w>
194 7</w>
1. 6</w>
1. 2</w>
0. 7</w>
默 认</w>
魔 鬼</w>
高 尚</w>
高 回报</w>
马克 里</w>
马 歇尔</w>
首 要
顺 序</w>
韧 性</w>
难以 置
难以置 信</w>
陈 述</w>
阿 塞
锋 相对</w>
针 锋相对</w>
鉴 于
鉴于 此</w>
金融 工具</w>
重 重
重 蹈</w>
酒 精</w>
道德 风险</w>
通 知</w>
迷 惑</w>
远 大于</w>
这 能</w>
较 少</w>
身 而出</w>
蹂 躏</w>
越 长</w>
越 是</w>
超 额</w>
超 国家</w>
资金 来源</w>
购 物</w>
贬 低</w>
负 有</w>
谈判 桌</w>
订 立</w>
警 示</w>
覆 盖
袖 手
袖手 旁观</w>
融 化</w>
虚 伪</w>
虔 诚</w>
若 非</w>
艺术 家</w>
自然 而
自然而 然</w>
自 问</w>
自 杀
自 卫</w>
脱 维亚</w>
而 知</w>
美 好
缩 铀</w>
缔 造</w>
结构 调整</w>
纸 币</w>
繁 荣
类 别</w>
篇 文章</w>
管 辖</w>
第三 次</w>
竟 然</w>
科威 特</w>
种 群</w>
礼 物</w>
碰 撞</w>
甲 烷</w>
由 来
由来 已久</w>
珍 视</w>
玉 米</w>
猩 猩</w>
猛 烈</w>
物 品</w>
牢 记</w>
爱 沙
爱沙 尼亚</w>
演 进</w>
演 员</w>
滑 向</w>
游 击
深 渊</w>
消费 品</w>
浮 动</w>
浓 缩铀</w>
测 验</w>
流动 资金</w>
流 量</w>
流 氓</w>
波 及</w>
沿 岸</w>
没 法</w>
汇 款</w>
水 电</w>
民主 改革</w>
比 作</w>
每 当</w>
殖民 主义</w>
步 履
正 当
欧 派</w>
欧 佩克</w>
格 拉</w>
样 本</w>
树 木</w>
果 实</w>
构 成
杀 虫剂</w>
机 会
有 鉴于此</w>
最 早</w>
最 小</w>
最 受</w>
曼 帝国</w>
暴 乱</w>
晚 些时候</w>
日益 严重</w>
日 期</w>
无所 作为</w>
无家可 归</w>
无 与
无与 伦
无与伦 比</w>
族 群</w>
施 加
新生 儿</w>
斯 堪
整 套</w>
放 宽</w>
收支 平衡</w>
撤 回</w>
推 销</w>
推 断</w>
接 受
排 外</w>
挺 身而出</w>
挥 霍</w>
指 南</w>
拉 脱维亚</w>
拉 宾</w>
担 当</w>
护 者</w>
折 扣</w>
投机 者</w>
技术 上</w>
扫 清</w>
扣 除</w>
截 然</w>
慢 性
悲 哀</w>
恶 意</w>
总 之</w>
心 理学</w>
很 难
彼 此
影 片</w>
强 健</w>
弹 头</w>
年 龄
带 动</w>
巴 西
差 额</w>
届 时</w>
小 得多</w>
富 翁</w>
寄 望</w>
实 证</w>
子 公司</w>
奥斯 曼帝国</w>
头 寸</w>
天 生</w>
大 谈</w>
大 声</w>
外 表</w>
外 衣</w>
处 置</w>
塞 内
基本 权利</w>
基 辛格</w>
地 为</w>
国会 议员</w>
嘲 笑</w>
哈 维尔</w>
哈 佛</w>
呈 现出</w>
吸 烟</w>
同情 心</w>
同 比</w>
可 笑</w>
可 悲</w>
受 制
受制 于</w>
取 得
发言 人</w>
发 育</w>
反 犹</w>
原 先</w>
印度 人民党</w>
卢 拉</w>
占 领
十 足</w>
十 个</w>
加 工</w>
到 处</w>
列 出</w>
列 入</w>
划 分</w>
几 项</w>
军事 手段</w>
再 融资</w>
关 乎</w>
共 担</w>
共 处</w>
公民 权</w>
入 主</w>
免 除</w>
克罗 地
克 森</w>
偿 债</w>
倘 若</w>
保持 稳定</w>
佩 斯</w>
住 房
伪 善</w>
仿 效</w>
他 会</w>
人 才
亲 眼
产 值</w>
些 许</w>
亚 国家</w>
五 大</w>
乎 其
乌克 兰人</w>
之 比</w>
乃 是</w>
主 角</w>
为人 知</w>
两 天</w>
专业 知识</w>
不惜 一切</w>
不容 忽视</w>
不 及
不 决</w>
下 注</w>
三 角</w>
一大 半</w>
一 所</w>
it ter</w>
U b
Tw itter</w>
GD P
9 9</w>
7 6</w>
5 6</w>
5 4</w>
4 6</w>
0. 1</w>
麦肯 锡</w>
鲍 威尔</w>
鲁 兹</w>
高 薪</w>
高 点</w>
马 斯特
马斯特 里
马斯特里 赫
马斯特里赫 特</w>
预防 措施</w>
预 警</w>
顶 级</w>
面 目</w>
非 凡</w>
零售 商</w>
阿塞 拜
阿卜杜 勒</w>
阈 值</w>
铲 除</w>
钞 票</w>
采 伐</w>
遥 法外</w>
逍 遥法外</w>
选 举
退 缩</w>
迪 拜</w>
近 于零</w>
运 送</w>
边 主义</w>
辖 区</w>
较 弱</w>
越来越 少</w>
贩 毒</w>
贩 卖</w>
财政 收入</w>
负责 人</w>
谋 生</w>
诽 谤</w>
诱 使</w>
衍 生</w>
行动 者</w>
血 液</w>
董 事</w>
苦 苦</w>
良 性循环</w>
良 性</w>
自由 贸易区</w>
自 大</w>
自 卫队</w>
肆 意</w>
职 人员</w>
耶 克</w>
老 化</w>
美国 银行</w>
罪 恶</w>
网络 攻击</w>
维 克
维 也
维也 纳</w>
经济 秩序</w>
经济 效益</w>
纳 维亚</w>
筹 资</w>
第二 天</w>
第一 批</w>
符 合
童 工</w>
移 交</w>
积 压</w>
秘 密
科 技
科 夫斯基</w>
离 心
矿 产</w>
知 情</w>
真实 世界</w>
看 见</w>
相 邻</w>
皆 知</w>
的 纳维亚</w>
电 池</w>
电 信</w>
用 处</w>
现 时代</w>
现 已</w>
现 存</w>
犹太 教</w>
物 价
熟 虑</w>
然 大
激 活</w>
深 思
深思 熟虑</w>
波斯 湾</w>
波 士
法 国
泄 露</w>
没 完
没完 没
没完没 了</w>
水 源</w>
每 周</w>
格 格
格格 不入</w>
构成 威胁</w>
束手 无
束手无 策</w>
权 限</w>
本 地
更 迭</w>
更 替</w>
更 换</w>
更 为
更为 严重</w>
智 库</w>
旧 金
日 趋</w>
日 后</w>
无 异
无异 于</w>
新 来者</w>
斯堪 的纳维亚</w>
斯 密</w>
文 学</w>
整 性</w>
教 学</w>
政 见</w>
放 到</w>
捐助 国</w>
指 示</w>
持续 时间</w>
拼 命</w>
所 属</w>
戈 尔</w>
慢性 病</w>
悲 伤</w>
悠 久</w>
总的 来说</w>
总体 经济</w>
性 行为</w>
微 乎其
微乎其 微</w>
很难 说</w>
彻 底
彰 显</w>
应 得</w>
庄 稼</w>
广 告
幼 稚</w>
年 末</w>
席 之地</w>
市 值</w>
工资 水平</w>
尽 量</w>
就 让</w>
对 应</w>
家 里</w>
完 整性</w>
存 储</w>
媲 美</w>
委 会</w>
好 莱坞</w>
奴 役</w>
女 人</w>
奢 侈</w>
太 高</w>
太 阳</w>
太 大</w>
大 头</w>
塞内 加尔</w>
塞 夫</w>
塔 那
坦 布尔</w>
地 理
在 意</w>
国际 舞台</w>
囤 积</w>
哈 耶克</w>
吸 取
含 量</w>
含 糊</w>
向 型</w>
向 上</w>
后 尘</w>
同 僚</w>
各 个
叛 乱
反 响</w>
原 谅</w>
压 缩</w>
占 有</w>
南 北</w>
单 边主义</w>
十 倍</w>
十 亿</w>
劳 工
动 型</w>
加 紧</w>
剔 除</w>
前 辈</w>
出资 者</w>
凯 利</w>
凝 聚</w>
冠 军</w>
军 人</w>
内 心</w>
关 门</w>
关 塔那
公 职</w>
公 园</w>
克罗地 亚</w>
充满 希望</w>
元 首</w>
催化 剂</w>
停 顿</w>
偏 远</w>
倾 销</w>
信 条</w>
信 托</w>
保 密</w>
使用 者</w>
佛罗 里
余 力</w>
位 居</w>
伊斯 坦布尔</w>
以 免</w>
令 其</w>
付 费</w>
仇 视</w>
人力 资源</w>
人 来</w>
产业 政策</w>
五 岁</w>
互 相
事 务
事 例</w>
了 当</w>
之 大</w>
之 久</w>
严重 破坏</w>
严 格
丢 掉</w>
专 利
不 禁</w>
丈 夫</w>
一 波</w>
一 日</w>
一 无所
一 席之地</w>
一 季度</w>
t h
o s</w>
e s</w>
P E
IS IS</w>
I I</w>
B R
2. 7</w>
1 10</w>
高 地</w>
驳 斥</w>
驱 动力</w>
马克 思
颖 而出</w>
预 定</w>
面 貌</w>
隐 患</w>
降 级</w>
附加 值</w>
附 带</w>
阳 光</w>
长期 性</w>
铺 平</w>
银行 资本</w>
金融 时报</w>
重 获</w>
迟 早
迟早 会</w>
连 串</w>
输 入</w>
路 口</w>
赫 尔
赚 钱</w>
资 深</w>
贫 富
象 棋</w>
调查 局</w>
误 导性</w>
诉 诸</w>
训 练
让 位</w>
见 解</w>
行为 准则</w>
蚊 子</w>
薄 熙
薄熙 来</w>
萨尔 瓦
萨尔瓦 多</w>
萨 斯</w>
荣 誉</w>
苏 尔</w>
自我 实现</w>
自 主权</w>
腐 败
脱 颖而出</w>
胜 过</w>
胜 利
肮 脏</w>
者 说</w>
考 试</w>
美 元
美 丽</w>
置 身
罗 的
网络 空间</w>
维 系</w>
维 度</w>
维 克</w>
结 成</w>
经济 模型</w>
经 营
纵 观</w>
纳 粹
纠 结</w>
精神 疾病</w>
第 四个</w>
章 程</w>
窗 口</w>
窃 取</w>
空 洞</w>
租 车</w>
科 研</w>
直 截
直截 了当</w>
病 率</w>
瓦 哈
瓦哈 比</w>
理论 家</w>
球 迷</w>
犹 豫
物 理
牛 肉</w>
灵 丹</w>
激进 主义</w>
滋 生</w>
淡 化</w>
消费 量</w>
浮 动
浮动 汇率</w>
流行 病</w>
派 别</w>
波 罗的
水 域</w>
每 月</w>
此 刻</w>
橙 色</w>
模 糊
格 尔</w>
核 威胁</w>
杰 出</w>
术 语</w>
末 日</w>
有 一天</w>
最低 水平</w>
更 是如此</w>
晓 波</w>
旷 日
旷日 持久</w>
日 报</w>
无休 止</w>
无 误</w>
斯 克</w>
数 目</w>
操 作
摩 根</w>
推 论</w>
推 测</w>
排 挤</w>
捕 鱼</w>
捍 卫
捍卫 者</w>
挖 掘</w>
指挥 官</w>
拥 抱</w>
拘 留</w>
拉 加</w>
抹 黑</w>
投资 率</w>
投 入
批 判
扶 贫</w>
托 尼</w>
才 华</w>
战略 目标</w>
战 火</w>
或 者说</w>
成 本
憎 恨</w>
感 情</w>
情 合理</w>
总 有一天</w>
性 价
性价 比</w>
急 迫</w>
怀疑 论者</w>
强 行</w>
弱 小</w>
引 进</w>
式 各样</w>
废 止</w>
广 泛
幸 存
幸存 者</w>
年 会</w>
平 方
平 庸</w>
干 脆</w>
市场 竞争</w>
巴尔干 地区</w>
巴 罗</w>
巴 巴</w>
崭 新</w>
尼古 拉斯</w>
就 职
尚 早</w>
对 照</w>
对 华
富 兰克
富兰克 林</w>
宽 带</w>
安 装</w>
威 权</w>
大有 裨益</w>
大 臣</w>
大 有</w>
大 学
大 于
多 克</w>
埃 克森</w>
坐 视</w>
地 域</w>
在实践 中</w>
圣 诞
圣 地</w>
土耳其 政府</w>
国际 制裁</w>
国 土</w>
四 处</w>
噩 梦</w>
喇 嘛</w>
善 于</w>
启 示</w>
君 主</w>
向 下</w>
合 情合理</w>
各 式各样</w>
受到 限制</w>
双重 标准</w>
原子 能
厌 倦</w>
卡 钦
卖 出</w>
卓 越</w>
卓 著</w>
华盛 顿
包 商</w>
势 力
势力 范围</w>
劳动 法</w>
力 求</w>
割 裂</w>
前 面</w>
初 步</w>
创 出</w>
刘 晓波</w>
列 宁</w>
刊 登</w>
切 尔
分 销</w>
几 近</w>
冲 突
写 照</w>
养 老</w>
共 存</w>
全 都</w>
全 力
全 人类</w>
储 备
信任 度</w>
供应 量</w>
作 风</w>
低 位</w>
似 的</w>
传 统
优 化</w>
从 不</w>
人口 老龄化</w>
人 造</w>
人 则</w>
亨 利</w>
乍 一看</w>
之 苦</w>
为时 尚早</w>
中 来</w>
中 旬</w>
中 将</w>
丢 失</w>
东北 亚</w>
世界 级</w>
世俗 主义</w>
不 稳定性</w>
不 时</w>
不 佳</w>
下 半年</w>
上 诉</w>
三 驾</w>
三 项</w>
一 同</w>
一 刻</w>
e n</w>
e l
e d
a s</w>
Ub er</w>
N P
Af D</w>
A K
7 .5</w>
5 3</w>
4 1</w>
3 2</w>
3 000</w>
197 4</w>
19 0
黄 花</w>
麦 加</w>
首要 任务</w>
食品 安全</w>
食 用</w>
领 衔</w>
预测 性</w>
颁 发</w>
集中 营</w>
难以 实现</w>
阿塞拜 疆</w>
阳 性</w>
错 觉</w>
锁 定</w>
钢 铁
钓 鱼
重 心</w>
里 面</w>
里 奥</w>
部 件</w>
遗 余力</w>
遍 布</w>
通 向</w>
追 随</w>
这 才</w>
近 邻</w>
迁 往</w>
达 赖
达赖 喇嘛</w>
输 掉</w>
辅 助</w>
较 之</w>
躲 避</w>
身 体
跟 随</w>
赞 誉</w>
资本 家</w>
资 质</w>
贫富 差距</w>
财 长</w>
诱 惑
诱惑 力</w>
警 报</w>
视 频</w>
视 野</w>
西 尔</w>
行 星</w>
落 到</w>
芝加 哥</w>
致 富</w>
致 于</w>
自 负</w>
自 满</w>
脸 书</w>
脂 肪</w>
背 上</w>
肺 炎</w>
肉 类</w>
联邦 调查局</w>
美 韩</w>
美 俄</w>
罢 工</w>
维 和
维和 部队</w>
绝 对
结果 表明</w>
线 路</w>
约 国</w>
索 罗斯</w>
系 数</w>
算 计</w>
第 五
税 法</w>
程 序
科学 界</w>
科 夫</w>
种 姓</w>
私营 企业</w>
私 募</w>
破产 法</w>
着 重于</w>
眼 里</w>
眼 看</w>
真 寺</w>
看 不见</w>
相 连</w>
相 形
相 一致</w>
盟 军</w>
监 视</w>
盈 率</w>
百分 比</w>
生 动</w>
理想 主义</w>
球 队</w>
玩 笑</w>
犯罪 行为</w>
特 里</w>
物 资</w>
熟 练</w>
煽 动者</w>
热 门</w>
热 病</w>
热 浪</w>
灌 溉</w>
潘 基
潘基 文</w>
漠 不
漠不 关心</w>
滥 用
满 意
清 真寺</w>
流 亡</w>
活 着</w>
油 国</w>
沃尔 福</w>
水 准</w>
民主 人士</w>
民 间
氏 度</w>
每 位</w>
欲 望</w>
欣 赏</w>
格 鲁</w>
柴 油</w>
枪 匹
枪匹 马</w>
果 关系</w>
构 架</w>
极 低</w>
杜 绝</w>
杀 人</w>
杀 人
未 曾</w>
服务 提供商</w>
服 装</w>
服 于</w>
有 罪</w>
有 何</w>
月 度</w>
更 难</w>
暴 涨</w>
普遍 性</w>
既 定</w>
无限 期</w>
无 一
斡 旋</w>
敏感 性</w>
效 忠</w>
政 策
攸 关</w>
收 费</w>
收 容</w>
撒 谎</w>
摄 氏度</w>
搜 索
接 替</w>
挑战 性</w>
拿 不出</w>
拖 入</w>
抬 高</w>
抛 出</w>
投 向</w>
扶 持</w>
执 政
托 斯</w>
打 着</w>
扎 尔</w>
手 握</w>
所 用</w>
房 贷</w>
战 时</w>
感 染
想 一
想一 想</w>
恶 性</w>
忠 于</w>
心脏 病</w>
得 出
得出 结论</w>
彼此 之间</w>
当 地
开发 新</w>
开发 商</w>
开 出</w>
度 假</w>
应 急</w>
带 头</w>
帐 户</w>
市 盈率</w>
巴 林</w>
巴 塞
崇 高</w>
密切 相关</w>
家庭 成员</w>
室 内</w>
孕 育</w>
媒 体
媒体 报道</w>
威 茨</w>
天 真</w>
大手 笔</w>
大 受</w>
大 到</w>
多 方面</w>
多 家</w>
外 资</w>
士 气</w>
墨西哥 湾</w>
基 准
垃 圾</w>
地 步</w>
地 方
在 技术上</w>
圣 经</w>
图 景</w>
国际 收支</w>
国际 原子能
国际原子能 机构</w>
固 有</w>
困 局</w>
因 果关系</w>
回 落</w>
回 收</w>
四 倍</w>
嗤 之以
嗤之以 鼻</w>
和平 共处</w>
名 人</w>
叫 做</w>
受 灾</w>
受 害</w>
取 胜</w>
取 悦</w>
发 言</w>
发 行
双 管齐下</w>
友 好
即 可</w>
占 多数</w>
南 美</w>
单 枪匹马</w>
单 个</w>
十字 路口</w>
十 国集团</w>
区 间</w>
北 极
助 益</w>
动 产</w>
加利福 尼亚州</w>
力 图</w>
到 位</w>
利 性</w>
切 尼</w>
分 配
出 访</w>
出 租车</w>
出 版
几 内
减 支</w>
兴 建</w>
兰 经</w>
公 信
公信 力</w>
做 过</w>
修 补</w>
保持 警惕</w>
俘 虏</w>
作 业</w>
但 愿</w>
伦 齐</w>
伊 尔</w>
以 使</w>
代表 大会</w>
付 款</w>
仍 会</w>
仇 外</w>
人 类
人 工</w>
亲 自</w>
五 倍</w>
互 不</w>
争 辩</w>
了 不起</w>
之 行</w>
之 又
严 酷</w>
两国 关系</w>
两 院</w>
两 场</w>
不堪 重负</w>
不 遗余力</w>
不 适</w>
不 无
不 住</w>
下 调</w>
三 者</w>
一 连串</w>
一 线</w>
一 时</w>
一 整套</w>
i P
T C</w>
O A</w>
NP T</w>
J CP
JCP OA</w>
IP CC</w>
G N
C S</w>
3. 2</w>
3 D</w>
193 3</w>
1. 7</w>
1. 3</w>
麦 克</w>
鲜 明
高 潮</w>
骇 人听闻</w>
马其 顿</w>
马 哈
餐 馆</w>
飞 行
领土 完整</w>
预 知</w>
顶 端</w>
非 暴力</w>
露 无遗</w>
雅 典</w>
难民 潮</w>
难以 想象</w>
难 重重</w>
阿布 哈
阿布哈 兹</w>
阿富 汗
阿富汗 人</w>
长期 投资</w>
长 大</w>
错 配</w>
钓鱼 岛</w>
重 商
重商 主义</w>
里程 碑</w>
鄙 视</w>
都 市</w>
邮 报</w>
避 难
道 义</w>
通 勤</w>
透 过</w>
选择 性</w>
迟 缓</w>
违 法</w>
这 片</w>
这 块</w>
还 远</w>
运 输
迈 克尔</w>
达 州</w>
辉 煌</w>
车 辆</w>
越 南
走 到</w>
象征 意义</w>
象 力</w>
谢 里夫</w>
调 低</w>
诚 信</w>
论 断</w>
詹 姆斯</w>
西 斯</w>
表 述</w>
行 不通</w>
虚 构</w>
芯 片</w>
节 能</w>
航 班</w>
自 给
腰 包</w>
胜 者</w>
背 负着</w>
育 儿</w>
聚 变</w>
耶 夫</w>
美国 会</w>
绘 成</w>
经济 援助</w>
经济 损失</w>
经常 性</w>
终 点</w>
累 累</w>
精 心
米 洛
简 单
第三 种</w>
竞 相</w>
立 陶
税收 政策</w>
税 务</w>
福 克斯</w>
神 社</w>
碳 税</w>
碳 化</w>
破 碎</w>
研 制</w>
矿 业</w>
相 容</w>
皮 克
皮克 提</w>
百万 计</w>
白 质</w>
疑 惑</w>
电子 商务</w>
电 台</w>
班 加
玩 弄</w>
王 储</w>
犯罪 分子</w>
牵 头</w>
爱 国
濒 危</w>
激 动</w>
滞 后</w>
游击 队</w>
淹 没</w>
深 感</w>
海 量</w>
浓 度</w>
活 跃
洗 钱</w>
注 资</w>
波士 顿</w>
法 郎</w>
没 收</w>
汇 聚</w>
水 泥</w>
水 果</w>
毒 性</w>
每 人</w>
毁 坏</w>
殴 打</w>
此 以后</w>
款 项</w>
概 括</w>
格 莱
格 拉斯</w>
根本 原因</w>
样 才能</w>
果 真</w>
构 造</w>
极 为重要</w>
来 得</w>
李 光
李光 耀</w>
有所 改善</w>
有所 作为</w>
有 意识</w>
月 初</w>
曲 线</w>
暗 杀</w>
普 斯</w>
明 日
明日 黄花</w>
时间 表</w>
时 宜</w>
旧金 山</w>
无法 解释</w>
施 行</w>
新鲜 事</w>
新闻 报道</w>
新 生</w>
斯 诺</w>
断 言</w>
文 字</w>
整 顿</w>
数千 名</w>
数以 千
教 学
改 善
搜索 引擎</w>
提 高
描 绘成</w>
损 伤</w>
捕 捉</w>
挤 压</w>
拟 议</w>
拉 姆
抛 开</w>
抗 衡</w>
投 诉</w>
抉 择</w>
承 包商</w>
批判 性</w>
扫 地</w>
打 压</w>
打 下</w>
战 线</w>
感 知</w>
想 象力</w>
惨 痛</w>
患 有</w>
恰 逢</w>
怪 异</w>
思 议</w>
怎 样才能</w>
怀 旧</w>
忽 略
心 自问</w>
得 势</w>
很 强</w>
往 常</w>
彻 尾</w>
彻 头
彻头 彻尾</w>
当 事
强 烈
引 爆</w>
开 拓</w>
底 线</w>
广 岛</w>
并非 易事</w>
年龄 段</w>
干 细胞</w>
希腊 人</w>
工人 阶级</w>
屈 辱</w>
尽 头</w>
就 范</w>
少 于</w>
将 令</w>
对 外
密 尔顿</w>
容 纳</w>
实际 工资</w>
实 例</w>
学 奖</w>
委内瑞 拉
如 能</w>
如 下</w>
奴 隶</w>
套 利</w>
太 少</w>
天 赋</w>
大 惊
大 增</w>
大 厦</w>
大 事</w>
多 极</w>
多 得多</w>
复 原</w>
坐 等</w>
地 向</w>
在 一起</w>
土 著</w>
国际 主义</w>
困 难重重</w>
囚 禁</w>
喜马拉 雅
商业 活动</w>
咖 啡</w>
命 名</w>
听 众</w>
名 叫</w>
同 道</w>
吉 拉
可 预测性</w>
另 一边</w>
受 限制</w>
发 掘</w>
双 赢</w>
参 选</w>
印 证</w>
卡钦 斯基</w>
卡 特</w>
南 欧国家</w>
协 同</w>
半 球</w>
匿 名</w>
医 药
劫 持</w>
助 力</w>
加勒 比
加 盟</w>
加 以
制 订</w>
利益 者</w>
创 意</w>
刑事 法庭</w>
切尔 诺贝
分 权</w>
分 成</w>
分 开</w>
出 自</w>
几内 亚</w>
几 种</w>
几 率</w>
减 记</w>
决 意</w>
军事 基地</w>
再次 发生</w>
内 政
其 核</w>
共同 市场</w>
共 和</w>
公 斤</w>
公 式</w>
全 会</w>
入 学</w>
先 锋</w>
儿 童
僵 尸</w>
假 以
假以 时日</w>
保 费</w>
侵略 性</w>
佩 雷斯</w>
余 下</w>
体 重</w>
低 点</w>
位 列</w>
任 职
以 致于</w>
令人 遗憾</w>
代表 性</w>
代表 团</w>
人 手</w>
亲眼 目睹</w>
产 油国</w>
交易 员</w>
亚 尔</w>
亚 历
五年 计划</w>
五 十年</w>
乡 村</w>
之 高</w>
临 界
中 是</w>
中 全会</w>
中 世纪</w>
严重 性</w>
东 北部</w>
与此 相反</w>
与其 说</w>
不难 想象</w>
不无 道理</w>
不合 时宜</w>
不可 思议</w>
不 高</w>
不 谈</w>
不 成
不 屑
不 安全感</w>
不 动产</w>
上 层</w>
三 月</w>
万 灵丹</w>
七 个</w>
一致 同意</w>
一 门</w>
一 幅</w>
一 层</w>
c o
a v
a g
S h
IC T</w>
FD I</w>
E S
C B
AK P</w>
6 1</w>
6 .5</w>
2. 3</w>
19 40</w>
1. 8</w>
1 80</w>
黑 色</w>
黄 热病</w>
麻 疹</w>
鲜明 对比</w>
高 端</w>
马尔 代
马尔代 夫</w>
马克思 主义</w>
香 烟</w>
饭 店</w>
须 知</w>
靡 不振</w>
靠 性</w>
非 营
青 年人</w>
震 荡</w>
雨 林</w>
集中 精力</w>
陌 生
陌生 人</w>
陈 旧</w>
陈 光
陈光 诚</w>
陆 军</w>
附 加</w>
阿 里
阿 联
阿联 酋</w>
防 线</w>
阐 明</w>
错 失</w>
铭 记</w>
部 长
遣 返</w>
遇 刺</w>
逼 近</w>
迫 不及
迫不及 待</w>
远 地区</w>
这 两项</w>
边 境
边 倒</w>
辨 别</w>
转 折</w>
跟 上</w>
越 过</w>
起 源</w>
走 过</w>
走 廊</w>
赌 博</w>
贵 族</w>
贫困 率</w>
贫 民
货币 化</w>
败 者</w>
财 产
负担 得起</w>
调 停</w>
谁 知</w>
诠 释</w>
试 想</w>
论 述</w>
议 制</w>
让 渡</w>
认 证</w>
解决 不了</w>
见 绌</w>
要 是</w>
裁 员</w>
被 告</w>
被 占
被占 领土</w>
蛋 白质</w>
蔬 菜</w>
蒙 运动</w>
蒙 蔽</w>
蒙 受
蒙受 损失</w>
萎 靡不振</w>
莫 桑
莫桑 比
莫桑比 克</w>
英 法</w>
苏 维
苏 格
自给 自
自给自 足</w>
自 决</w>
脱 钩</w>
胜利 者</w>
聆 听</w>
老 师</w>
美国 股市</w>
美国 式</w>
罗兴 亚人</w>
综合 性</w>
结 算</w>
终 将</w>
组 织
类 比</w>
米 勒</w>
管 治</w>
筛 选</w>
第四 次</w>
第三 国</w>
符 号</w>
立法 机构</w>
稀 少</w>
租 金</w>
科 菲</w>
私 利</w>
社会 保险</w>
短 时间</w>
眼 睛</w>
真 诚</w>
相形 见绌</w>
直接 参与</w>
盎 格鲁</w>
症 候</w>
用 到</w>
生 机</w>
生 机
理 顺</w>
班 农</w>
现金 流</w>
玩 家</w>
王 室</w>
特 朗</w>
特 有</w>
特 例</w>
牵 涉</w>
爱 国</w>
煽 动性</w>
烂 摊
烂摊 子</w>
灵 感</w>
火 箭
灌 输</w>
温 床</w>
深 层</w>
淡 水</w>
消费 税</w>
消 亡</w>
波罗的 海</w>
法 兰克
法兰克 福</w>
泄 漏</w>
沉 重
污 染
汉 密尔顿</w>
汇 集</w>
水 面</w>
民 权</w>
比 其</w>
次 贷</w>
森 堡</w>
核 弹头</w>
核 威慑</w>
校 园</w>
来 袭</w>
权 宜
权宜 之计</w>
权 威
未 可知</w>
期 权</w>
朝鲜 战争</w>
朝鲜 人</w>
朝 向</w>
有 近</w>
有 失</w>
暴力 事件</w>
易 于</w>
旱 灾</w>
无穷 无尽</w>
无 能
无 望</w>
旗 号</w>
斯蒂 格</w>
斯 菲尔德</w>
文化 大革命</w>
文 献</w>
数以 百万计</w>
教 室</w>
收 买</w>
撼 动</w>
提 炼</w>
捷克 斯洛伐克</w>
指 导
拥 护</w>
拍 卖</w>
拉姆 斯菲尔德</w>
拉 斯
抵 抗
把 戏</w>
扪 心自问</w>
打 印</w>
打 入</w>
所在 地</w>
所 言</w>
战斗 机</w>
成 功
惯 性</w>
恐怖 份子</w>
性别 歧视</w>
急 速</w>
思 路</w>
怀 有</w>
德国 联邦</w>
德 隆</w>
德 克
当 初</w>
强 权</w>
开 设</w>
废 物</w>
广 播
年 长</w>
年 收入</w>
平 行</w>
常任理 事</w>
已 故</w>
巨 变</w>
工 薪
州 政府</w>
属 性</w>
屈 服于</w>
尼亚 人</w>
少数 几个</w>
少 女</w>
小 怪</w>
寻 租</w>
密切 合作</w>
安 德
子 弹</w>
如 此
奥塞 梯</w>
天主 教徒</w>
大惊 小怪</w>
大幅 度
大 都</w>
大 坝</w>
大 卫</w>
够 了</w>
多 米
外 币</w>
备 竞赛</w>
增加 收入</w>
增 添</w>
基 亚</w>
埃 尔</w>
地 马拉</w>
地 下
在 乎</w>
国民 议会</w>
回 流</w>
商业 化</w>
商业 利益</w>
商 务
命 题</w>
吸取 教训</w>
启 蒙运动</w>
听 从</w>
含 有</w>
合 体</w>
可 靠性</w>
可 控</w>
古 兰经</w>
古 代</w>
受 够了</w>
发 誓</w>
反 腐败</w>
反 叛</w>
友 谊</w>
卫生 设施</w>
卢 卡
卡尔 德隆</w>
助 者</w>
创 办</w>
出生 率</w>
出口 商品</w>
出 卖</w>
几 代人</w>
农 民
军 备竞赛</w>
内 部
关塔那 摩</w>
关 头</w>
共同 之处</w>
公 立学校</w>
克 隆</w>
克 劳
先 科</w>
假 说</w>
假 消息</w>
借 用</w>
信 赖</w>
保护 措施</w>
侨 民</w>
佛 教</w>
体 大</w>
低 级</w>
伴 侣</w>
估 量</w>
会 上</w>
优 先
休 假</w>
任职 期间</w>
任何 一方</w>
件 事</w>
代 议制</w>
代 孕</w>
从那 以后</w>
亿 万
交 谈</w>
亚 当</w>
亚 太</w>
争 相</w>
乱 局</w>
书 中</w>
为 一
中 日</w>
中 性</w>
中 华
个 性化</w>
两 百万</w>
专 长</w>
不屑 一
不屑一 顾</w>
不 起
不 计</w>
不 明</w>
不 尽
下 个月</w>
上 班</w>
上 半年</w>
三 名</w>
一无所 知</w>
一 边倒</w>
一 辆</w>
一 手</w>
一 员</w>
一 台</w>
一 击</w>
一 丝</w>
u r
o w
n b
c h
a z
a b
R e
P A</w>
NA FTA</w>
I F
D A</w>
C R
C A</w>
B C</w>
8 000</w>
7 2</w>
6 8</w>
4 9</w>
4 000</w>
198 4</w>
195 1</w>
193 1</w>
1 500</w>
0. 6</w>
默 多克</w>
黑 手
黑手 党</w>
鸽 派</w>
高加 索</w>
马 萨
首 个</w>
频 道</w>
领先 地位</w>
顺 从</w>
非常 简单</w>
集 资金</w>
难 怪</w>
难 免
难免 会</w>
随 其后</w>
险 恶</w>
阿里 巴巴</w>
阿拉 维</w>
阿 布</w>
问 鼎</w>
长远 看</w>
错 误
银行 存款</w>
钻 井</w>
遗传 学</w>
逼 人</w>
造 者</w>
造 福</w>
逐 出</w>
逆 转
追 溯</w>
远 见
远见 卓
远见卓 识</w>
这 比</w>
过 后</w>
辖 权</w>
较 量</w>
路 易
赤 贫</w>
赖 以</w>
资本 密集型</w>
资 不
资不 抵
资不抵 债</w>
费 开支</w>
费 尔</w>
贸易 量</w>
贯 彻</w>
账 单</w>
豪 感</w>
诺 言</w>
说 来</w>
证券 化</w>
议 价</w>
计划 生育</w>
警 觉</w>
要 说</w>
西 德</w>
被 判</w>
表 现
蛋 糕</w>
著 称</w>
萨 斯
萨 卡</w>
草 根</w>
英 联邦</w>
若 干
苛 刻</w>
苏维 埃</w>
节 制</w>
舒 适</w>
舍 维奇</w>
至 此</w>
自 豪感</w>
自 行
自 此</w>
自 拔</w>
腹 泻</w>
能源 技术</w>
能 比</w>
胃 口</w>
股票 价格</w>
聚 会</w>
联 络</w>
美元 汇率</w>
罪 魁</w>
罗 格</w>
缺 位</w>
缔 造者</w>
维持 现状</w>
统 一
结 盟
结盟 运动</w>
经济 周期</w>
组 装</w>
纵 容</w>
繁荣 期</w>
累 进</w>
紧 随其后</w>
紧 密
米洛 舍维奇</w>
管理 局</w>
管理 人员</w>
管 辖权</w>
管 用</w>
筹 集资金</w>
第三 条</w>
端 倪</w>
立陶 宛</w>
立 面</w>
稳定 局势</w>
科 研
离 婚</w>
社会 科学</w>
社会 化</w>
示 好</w>
碳 氢
碳氢 化合物</w>
硬 件</w>
破 仑</w>
石油 市场</w>
真 能</w>
真 心</w>
看 好</w>
相互 作用</w>
相 适应</w>
相 悖</w>
直 观</w>
盗 窃</w>
病 态</w>
略 高于</w>
由此 看来</w>
生机 勃勃</w>
生 理</w>
生 死
瑟 夫</w>
现实 情况</w>
率 先</w>
犹豫 不决</w>
特 使</w>
牲 畜</w>
物理 学家</w>
物 馆</w>
牧 师</w>
牢 牢</w>
爆炸 式</w>
燃 油</w>
热 带
漂 亮</w>
深 厚</w>
深 刻
涨 幅</w>
涌 向</w>
泥 潭</w>
法 兰
污 点</w>
永久 化</w>
民 营企业</w>
民 粹</w>
比 不上</w>
每 日</w>
残 局</w>
正 试图</w>
欧 地区</w>
梅 尼</w>
格 林</w>
核心 作用</w>
标 准
查 德</w>
柔 性</w>
构 筑</w>
村 民</w>
权力 斗争</w>
机 械
机 密</w>
本 世纪末</w>
末 期</w>
有 赖于</w>
有 效率</w>
曙 光</w>
暴 君</w>
普 拉斯</w>
普 及
无能 为
无能为 力</w>
无 足轻重</w>
无 政府
无政府 主义</w>
旅 行者</w>
施加 压力</w>
斯 顿</w>
数百 年</w>
救 命</w>
政治 权利</w>
放 开</w>
放 射
改善 生活</w>
收 场</w>
支 援</w>
摧 残</w>
摇 摆</w>
接 过</w>
掠 夺
据 点</w>
捐助 者</w>
挑战 者</w>
指 明</w>
持 有者</w>
拿 破仑</w>
拥 堵</w>
拉 拢</w>
抵 免</w>
护 士</w>
投 保</w>
扎 克</w>
手 脚</w>
战略 伙伴</w>
憧 憬</w>
慕 尼
慕尼 黑</w>
愿 者</w>
想 必</w>
惨 败</w>
惊 叹</w>
情报 部门</w>
情 境</w>
患 病</w>
悄 悄</w>
恰 好</w>
总 共</w>
思 索</w>
忘 录</w>
志 愿者</w>
心 里</w>
德 斯坦</w>
彼 得
归 于</w>
强 度</w>
开放 性</w>
康 复</w>
广告 商</w>
广 袤</w>
并不 认为</w>
平均 收入</w>
常 说</w>
带 入</w>
市场 需求</w>
巴塞 罗
巨 资</w>
巨 富</w>
屏 障</w>
层 级</w>
局 长</w>
尤 先科</w>
尖 端</w>
尔 特</w>
小 孩</w>
导 向型</w>
对 外部</w>
审 计</w>
实际 汇率</w>
实 物</w>
定 制</w>
定 决心</w>
宗 派
安全 局</w>
宁 可</w>
孱 弱</w>
学术 界</w>
始 作
始作 俑
始作俑 者</w>
如 其
好 战</w>
奢 侈
奢侈 品</w>
夺 去</w>
失 败者</w>
失 当</w>
太 久</w>
多 亏</w>
夏 季</w>
复 仇</w>
备 忘录</w>
处 理
墨西哥 人</w>
增加 值</w>
城市 居民</w>
坦 白
地 想</w>
图 书
图书 馆</w>
国家 级</w>
国家 元首</w>
国 与
国与 国</w>
园 区</w>
回 家</w>
哈 德</w>
和平 解决</w>
咄 逼人</w>
咄 咄逼人</w>
呼 吸</w>
吸 毒</w>
君 主
可 取</w>
可 卡
可卡 因</w>
召 力</w>
受 限</w>
受 阻</w>
受 人</w>
发 病率</w>
发 明
发 作</w>
反对 票</w>
反 正</w>
厢 情愿</w>
危 地马拉</w>
印 刷</w>
卫生 保健</w>
卢 森堡</w>
博 物馆</w>
博 客</w>
协调 一致</w>
华盛顿 邮报</w>
十分 复杂</w>
十 分之一</w>
十 五年</w>
医 改</w>
化 肥</w>
化 成</w>
勾 结</w>
加 税</w>
加 斯</w>
剧 增</w>
前 首相</w>
制造 者</w>
利 率
利 亚
切尔诺贝 利</w>
切 实
分 量</w>
分 散
击 者</w>
出口 导向型</w>
冲 击
军 阀</w>
军 费开支</w>
军 基地</w>
内 陆</w>
其 为</w>
兵 力</w>
兴 盛</w>
公 顷</w>
公 报</w>
免 不了</w>
克里姆 林</w>
充分 发挥</w>
储 藏</w>
停 火
做 生意</w>
信息 时代</w>
保护 环境</w>
保 证
保 有</w>
保 存</w>
俄罗斯 政府</w>
侵 占</w>
例 证</w>
体 制
低 调</w>
低 价</w>
众 不同</w>
伊拉克 政府</w>
仿 佛</w>
令人 满意</w>
令人 吃惊</w>
从 长远看</w>
从 未
介 绍</w>
今 时</w>
什 维利</w>
亿万 富翁</w>
人权 宣言</w>
人口 比例</w>
人 质</w>
亲 身</w>
二 是</w>
之 战</w>
举 债</w>
主 教</w>
为 数</w>
临界 点</w>
中东 国家</w>
个 州</w>
两 类</w>
两 点</w>
两 派</w>
东 欧国家</w>
世界 性</w>
与 众不同</w>
不得 而知</w>
不可 否认</w>
不 远</w>
不 行</w>
不 结盟运动</w>
不 算</w>
不 易</w>
不 明智</w>
不 均</w>
不 值
下 定决心</w>
上 要</w>
三 角
三 中全会</w>
一点 点</w>
一 枚</w>
一 封</w>
一 处</w>
一 去
一 厢情愿</w>
一 副</w>
一 人</w>
s p</w>
nb sp</w>
amp nbsp</w>
U N
OM T</w>
G 7</w>
EC B</w>
CD S</w>
B M</w>
AR C</w>
9 2</w>
7 8</w>
7 7</w>
7 3</w>
7 1</w>
7 000</w>
5 8</w>
4 .5</w>
2 500</w>
2 100</w>
195 3</w>
0. 3</w>
鼓 舞
黎巴 嫩
鲨 鱼</w>
高 调</w>
高 压</w>
马萨 诸
马萨诸 塞
马萨诸塞 州</w>
饲 养</w>
风 力</w>
颠 覆
颈 癌</w>
预测 者</w>
音 乐
面 面</w>
面 上</w>
非常 复杂</w>
非 金融</w>
非 同
靖 国
靖国 神社</w>
露 面</w>
雀 跃</w>
难 逃</w>
隔 绝</w>
降 低成本</w>
陈 词
陈词 滥
陈词滥 调</w>
陆 地</w>
阿 赫
问 及</w>
长 足</w>
长 寿</w>
长 官</w>
银行 业务</w>
金融 公司</w>
金融 交易</w>
量 级</w>
重 拾</w>
重 工业</w>
里 韦</w>
遵 从</w>
逊 尼</w>
迷 恋</w>
迪 克</w>
违 规</w>
远 影响</w>
进 一步
进一步 提高</w>
这 要</w>
还 牙</w>
辐 射</w>
辅 相
辅相 成</w>
蹒 跚</w>
跌 幅</w>
足 迹</w>
贫民 窟</w>
财 务
调查 结果</w>
调 解</w>
诺 基亚</w>
诸 国</w>
误 判</w>
该 项</w>
话 语</w>
角 大楼</w>
视 性</w>
规 划
要 不是</w>
表 达
行其 道</w>
行 之
行之 有效</w>
血 统</w>
蚕 食</w>
葬 礼</w>
菲 特</w>
菲 尔</w>
色 色</w>
航空 公司</w>
自然 选择</w>
臂 之力</w>
腾 飞</w>
能 以</w>
背 负</w>
耗 时</w>
署 国</w>
置身 事
置身事 外</w>
置 之不
置之不 理</w>
绿 党</w>
维 生素</w>
维 夫</w>
继承 人</w>
经营 者</w>
经济 学奖</w>
细 致</w>
纳粹 德国</w>
纳米 技术</w>
纳 粹主义</w>
纪念 碑</w>
约 瑟夫</w>
紧急 情况</w>
紧 紧</w>
精神 病
粉 碎</w>
签 署国</w>
空 调</w>
稀 缺
着 力</w>
看 齐</w>
相 辅相成</w>
盲 目</w>
白 白
疏 离</w>
畸 高</w>
番 话</w>
畏 惧</w>
界 人士</w>
电 话
电 报</w>
用 尽</w>
生产 能力</w>
生 于</w>
率 地</w>
献 者</w>
犯 错</w>
特拉 维夫</w>
特 网</w>
特 殊
特 人</w>
牢 固</w>
牛 奶</w>
牙 还牙</w>
爱 因
爱因 斯坦</w>
然 无
然 如此</w>
热 量</w>
灭 亡</w>
火 焰</w>
火 灾</w>
漠 视</w>
渐进 式</w>
渐 渐</w>
深 远影响</w>
深 入
液 压</w>
消 耗
涅 夫</w>
海 水</w>
浮 出</w>
浓 厚</w>
流 域</w>
派 出</w>
津 贴</w>
泰 米尔</w>
波 兰政府</w>
法 国政府</w>
沃尔 玛</w>
民意 测验</w>
民主 派</w>
民 心</w>
毫无 道理</w>
死 后</w>
歧 视性</w>
欧洲 法院</w>
次 数</w>
橄 榄
横 行</w>
棉 花</w>
档 案</w>
格 言</w>
格 斯</w>
核 能力</w>
核 战争</w>
栖 息
栖息 地</w>
标 记</w>
查 尔斯</w>
松 散</w>
本 该</w>
本 意</w>
朔 伊</w>
有 太多</w>
曾 几
曾几 何时</w>
暴力 行为</w>
普 什
普什 图</w>
昨 天</w>
昂 山</w>
无 须</w>
无 几</w>
施 展</w>
方 面面</w>
方 方面面</w>
新闻 业</w>
新 德里</w>
新 奥尔
新奥尔 良</w>
新 世界</w>
斯洛 文
斯 加</w>
教 练</w>
救 世
救世 主</w>
政治 势力</w>
放 慢</w>
放 下</w>
改 写</w>
操 控</w>
捷克 共和国</w>
换 成</w>
挨 饿</w>
挥 之
挥之 不去</w>
拉美 地区</w>
抱 负</w>
护 所</w>
抗 争</w>
投机 性</w>
投入 品</w>
投 降</w>
扰 乱</w>
执政 者</w>
扎 根</w>
手 法</w>
手 可
手 上</w>
所在 国</w>
所 受</w>
战 事</w>
慈善 机构</w>
意料 之外</w>
悲观 派</w>
息 相关</w>
息 息相关</w>
急 转
怎 么样</w>
必 定
必定 会</w>
心 脏</w>
心 中</w>
得 知</w>
得 分</w>
徒 劳
形 色色</w>
形 形色色</w>
当事 人</w>
当 政</w>
归 还</w>
引 诱</w>
式 化</w>
开 玩笑</w>
延 续下去</w>
庇 护所</w>
庆 幸</w>
广 阔</w>
常 规
市场 机制</w>
币 值</w>
巴尔干 半岛</w>
巴 希尔</w>
巨大 损失</w>
左 倾</w>
工薪 阶层</w>
工业 生产</w>
岁 月</w>
展 现出</w>
屏 幕</w>
居 然</w>
尼 尔</w>
尤 为重要</w>
小 麦</w>
小 额</w>
对 立面</w>
对 准</w>
密 特朗</w>
容 许</w>
家 乡</w>
宫 颈癌</w>
实际 收入</w>
定 论</w>
定 罪</w>
宗派 主义</w>
宏 伟</w>
安 哥
孤 独</w>
妄 想</w>
好 过</w>
头 巾</w>
失 落</w>
失 策</w>
失 效</w>
太 晚</w>
太 低</w>
大于 利</w>
大 通</w>
大 跌</w>
大 行其道</w>
大 自然</w>
大 火</w>
大 涨</w>
大 棒</w>
大 师</w>
大 局</w>
多数 派</w>
多 极化</w>
多 位</w>
增 多</w>
塞浦路 斯
堡 垒</w>
基准 利率</w>
基 辅</w>
垄 断
坦白 说</w>
坚 称</w>
坏 账</w>
场 景</w>
地理 位置</w>
圣诞 节</w>
国际 标准</w>
国家 主义</w>
固定 资产</w>
回 复</w>
嘲 讽</w>
哈里 发</w>
品 种</w>
和平 奖</w>
味 道</w>
周 末</w>
告 别</w>
向 着</w>
向 往</w>
后 悔</w>
同 仁</w>
合 规</w>
合 乎</w>
史 上</w>
可 证</w>
叛乱 分子</w>
取得 胜利</w>
发 端</w>
发 声</w>
反 倒</w>
双 手</w>
双 向</w>
参 谋
厘 清</w>
厄 运</w>
即 时</w>
南 奥塞梯</w>
卖 家</w>
华 沙</w>
医 学
动 植物</w>
加勒 比</w>
加 倍</w>
加 之</w>
前 线</w>
前 方</w>
前 后</w>
利 弊</w>
利 库
判 处</w>
出 面</w>
出 钱</w>
凯 蒂</w>
减 低</w>
决 非</w>
冲突 地区</w>
农 药</w>
兹 事
兹事 体大</w>
其 父</w>
六 十年</w>
公民 权利</w>
公共 交通</w>
全 额</w>
全 套</w>
兜 售</w>
免 疫
克 逊</w>
光 彩</w>
充分 认识</w>
做 会</w>
偏 袒</w>
偏 差</w>
借 债</w>
依 赖
使用 量</w>
使 人</w>
作 出
佛罗里 达州</w>
何 况</w>
传 输</w>
任 意</w>
价格 下降</w>
以 牙还牙</w>
以 求</w>
付 钱</w>
付 诸</w>
仓 促</w>
亿 多</w>
人 格</w>
人 文</w>
交 接</w>
五 角大楼</w>
互 利</w>
二 等</w>
争 斗</w>
争 吵</w>
书 记</w>
九 年</w>
乘 客</w>
乌 里韦</w>
之 源</w>
之 旅</w>
之 情</w>
之 交</w>
中 方</w>
中 为</w>
个人 所得税</w>
丧 命</w>
东道 主</w>
世纪 之交</w>
世界 主义</w>
丑 陋</w>
不值 一
不 言
不 至于</w>
不 知
不 如说</w>
下 一场</w>
上 扬</w>
三 点</w>
七 十年代</w>
一 颗</w>
一 臂之力</w>
一 百年</w>
一 对</w>
一 味</w>
一 分
一 例</w>
一 书</w>
l t;</w>
i s</w>
i n</w>
h on
g t;</w>
b e</w>
a k
S A
BR CA
AM R</w>
A A</w>
7 4</w>
6 9</w>
5 .5</w>
2. 4</w>
198 8</w>
195 6</w>
1. 9</w>
1. 4</w>
1 40</w>
& lt;</w>
& gt;</w>
鼓舞 人心</w>
黑 市</w>
黄 金
麻 风
麻 省
麻省 理
麦 克
高级 别</w>
高 墙</w>
驳 回</w>
首 选</w>
首 当
首当 其
颜 色</w>
革命 者</w>
非洲 联盟</w>
非洲 开发银行</w>
非 银行</w>
非 共和国</w>
非 传统</w>
霍 梅尼</w>
霍 夫</w>
震 动</w>
零 排放</w>
集 结</w>
难 度
随 地</w>
随 即</w>
院 校</w>
限 额</w>
阿赫 玛</w>
阿 勒
阿 亚
阿亚 图</w>
闻 名
问责 制</w>
长 崎</w>
铁 腕</w>
铁 幕</w>
钻 石</w>
金融 界</w>
金融 城</w>
重大 进展</w>
邻 邦</w>
邻 为
邻为 壑</w>
避难 所</w>
遴 选</w>
遗留 下来</w>
逝 世</w>
逃 亡</w>
退 步</w>
追 赶</w>
追 寻</w>
连 锁
远 不止</w>
这 番话</w>
这 令</w>
近 十年</w>
迅 速
输 出国</w>
辍 学</w>
轻 视</w>
软 性</w>
软 化</w>
车 道</w>
身 着</w>
越 少</w>
赶 下台</w>
走 进</w>
赖 以
赖以 生存</w>
资金 投入</w>
资 企业</w>
费 力</w>
贸易 额</w>
贫困 家庭</w>
贝 鲁
调 停
诺贝尔 经济学奖</w>
诺贝尔 和平奖</w>
该 州</w>
诚 意</w>
试 图
试图 用</w>
计 入</w>
言 巧
言巧 语</w>
解放 出来</w>
解 脱</w>
角 力</w>
视 同仁</w>
规 格</w>
见 效</w>
要 害</w>
西 伯
裁 量</w>
行政 命令</w>
血 管</w>
蒙 羞</w>
蒙 特
蒂 冈</w>
萨 利
萌 芽</w>
菲 德尔</w>
获得 者</w>
莫 迪
莫 申科</w>
茶 党</w>
英 美</w>
花 言巧语</w>
艾 森
色 革命</w>
舞 弊</w>
自治 权</w>
自杀 式</w>
自 尊</w>
自 下
自下 而
自下而 上</w>
臃 肿</w>
腐 蚀</w>
胎 儿</w>
肿 瘤</w>
肥 沃</w>
肤 浅</w>
肌 肉</w>
而 战</w>
老 兵</w>
翻 了
翻了 一番</w>
羡 慕</w>
羞 耻</w>
美国 联邦</w>
美 印</w>
美 分</w>
罢 了</w>
缠 身</w>
绿 色革命</w>
综合 症</w>
维克 托</w>
维 奥</w>
绥 靖</w>
绝 佳</w>
给 定</w>
结果 显示</w>
经验 丰富</w>
经济 指标</w>
线 性</w>
纺织 品</w>
纷 争</w>
紧密 联系</w>
精 通</w>
米 歇尔</w>
签 字</w>
第 六</w>
第 一条</w>
笨 拙</w>
童 婚</w>
立法 机关</w>
窘 境</w>
窒 息</w>
突 显出</w>
空 前</w>
空 军</w>
稳 步
税 后</w>
移 居</w>
称 赞</w>
秘密 警察</w>
科学 技术</w>
离 破碎</w>
神 奇</w>
祖 父</w>
祈 祷</w>
磷 虾</w>
确 诊</w>
石 化</w>
知 晓</w>
看 重</w>
相 较</w>
相 扑</w>
相 媲美</w>
直 下</w>
皇 帝</w>
电 气
电气 化</w>
申 根</w>
生产 成本</w>
瓶 颈</w>
瑚 礁</w>
理 查德</w>
珊 瑚礁</w>
现代 人</w>
狭 窄</w>
牧 民</w>
牛 津</w>
父 辈</w>
熟 练
熊 市</w>
煤 电</w>
热 爱</w>
火 上
火上 浇
火上浇 油</w>
滥用 权力</w>
温 暖</w>
渡 过</w>
渗 透
混 为一
混为一 谈</w>
海 盗</w>
海 峡</w>
活跃 分子</w>
洛 夫</w>
洛 佩斯</w>
泛 美</w>
沿 海地区</w>
汽车 业</w>
求 助于</w>
水 利</w>
每 隔</w>
死 于</w>
歪 曲</w>
正当 性</w>
正 像</w>
正 以</w>
欺 人</w>
欧 后</w>
欣 慰</w>
欢 呼</w>
欢 呼
欢呼 雀跃</w>
梵 蒂冈</w>
桑 托斯</w>
核 聚变</w>
核 燃料</w>
核 技术</w>
校 长</w>
栏 作家</w>
标准 化</w>
标 榜</w>
林 肯</w>
极 力</w>
李 明
李明 博</w>
机会 主义</w>
本 营</w>
未 艾</w>
期 盼</w>
期 刊</w>
望 而
服务 提供者</w>
最高 层</w>
更有 意义</w>
暴 徒</w>
明 晰</w>
时 不时</w>
早 先</w>
旧 有</w>
既 然如此</w>
无一 例外</w>
无 罪</w>
无 用</w>
无 权</w>
无 政府</w>
方 设法</w>
方 兴
方兴 未艾</w>
新 疆</w>
新 思维</w>
新 建</w>
斯洛文 尼亚</w>
整 体
数百 万美元</w>
数以千 计</w>
敏 锐</w>
敌 视</w>
政治 经济学</w>
政治 性</w>
政治 学家</w>
放 贷</w>
放 在
攻 击
支 离破碎</w>
支 票</w>
撕 毁</w>
摒 弃</w>
援 手</w>
措 辞</w>
推 崇</w>
拜 登</w>
拖 欠</w>
拉 拉
拉 德</w>
拉 动型</w>
披 上</w>
扩 充</w>
执 照</w>
扣 减</w>
打 出</w>
打 下
打下 基础</w>
扎 伊</w>
所 作</w>
戴 维</w>
战略 家</w>
战 前</w>
成 瘾</w>
成 因</w>
愚 弄</w>
想 方设法</w>
急转 直下</w>
怒 火</w>
怀 抱</w>
心理 学家</w>
德 里克</w>
得 益</w>
得 上</w>
归 属</w>
归 属
归属 感</w>
强制 执行</w>
引 来</w>
弊 大于利</w>
异 议</w>
序 列</w>
幻 灭</w>
幸 运
幸 福
幸 免</w>
年 纪念</w>
平方 公里</w>
平均 寿命</w>
常 用</w>
布拉 格</w>
市 中心</w>
巴塞罗 那</w>
巴基 斯坦
工 学院</w>
崩 瓦解</w>
崇 尚</w>
屋 顶</w>
尽 显</w>
小 行星</w>
小 步</w>
封 存</w>
对外 贸易</w>
审 理</w>
实用 主义</w>
实 地</w>
定居 者</w>
安哥 拉</w>
威 力</w>
奋 力</w>
夭 折</w>
大 肆
大 洲</w>
大 本营</w>
大 亨</w>
多 层次</w>
外部 性</w>
处 罚</w>
壮 观</w>
塔 纳</w>
基 什</w>
坚持 不懈</w>
场 主</w>
地 铁</w>
地 主</w>
在 位</w>
土 崩瓦解</w>
国际 劳工
国际劳工 组织</w>
国 旗</w>
因 特网</w>
四 国</w>
商 定</w>
哈 特</w>
周边 国家</w>
周 刊</w>
告 诫</w>
同 感</w>
合 理
各 级</w>
另 类</w>
古 怪</w>
古 希腊</w>
口 袋</w>
口 头</w>
变 数</w>
发生 冲突</w>
发 病</w>
发 点</w>
发 布
发 动机</w>
反 复
反 垄断</w>
双边 协议</w>
双 相</w>
参谋 长</w>
参与 方</w>
参与 度</w>
参 拜</w>
却 会</w>
即 刻</w>
危 机
卢 比</w>
卡 拉
卡 尔德</w>
单 极</w>
单 单</w>
半 个</w>
十 九</w>
医疗 系统</w>
医 学院</w>
区 区</w>
区 别
区别 对待</w>
化 身</w>
勿 庸置疑</w>
劳 力</w>
动 武</w>
加 倍
加倍 努力</w>
刺 杀</w>
到 访</w>
利 人</w>
创 性</w>
刚 果
列 举</w>
出 发点</w>
出 一
出一 辙</w>
准 确
冰 岛</w>
冬 天</w>
农民 工</w>
农 场主</w>
军事 演习</w>
军事 化</w>
军 国主义</w>
写 作</w>
冒 险
再次 出现</w>
再 也
内 尔</w>
兹 别
公共 开支</w>
克 莱
兄 会</w>
低 薪</w>
但 会</w>
传 说</w>
会 员</w>
优 越</w>
以 邻为壑</w>
令人 担心</w>
代 名词</w>
从未 有过</w>
从 业
今年 年底</w>
人民 共和国</w>
人 身
人 有</w>
人 中</w>
亲 属</w>
亚洲 各国</w>
亚 斯</w>
井 喷</w>
五 星</w>
互 惠</w>
二 次</w>
争 执</w>
书 面</w>
习 俗</w>
乏 力</w>
乌 兹别
之 春
主 办</w>
为 数
为 所
中央 集权</w>
中 非共和国</w>
中 心
中 印</w>
严重 不足</w>
两 起</w>
东 德</w>
东 亚地区</w>
专 栏作家</w>
不能 允许</w>
不 解</w>
不 明朗</w>
不 停</w>
上 调</w>
上 空</w>
上 个世纪</w>
三角 洲</w>
三 方</w>
三 位</w>
万 事
一个 多</w>
一 间</w>
一 言
一 视同仁</w>
一 刀
i t</w>
i g
i d
hon e</w>
amp ;</w>
a t</w>
Y ou
IS P</w>
I D</w>
G CC</w>
C N
C F
C CS</w>
8 8</w>
8 3</w>
8 1</w>
7 9</w>
6 000</w>
5 2</w>
3 0
2. 2</w>
198 7</w>
197 8</w>
197 5</w>
195 8</w>
194 8</w>
1 70</w>
& amp;</w>
齐 观</w>
默 特</w>
黑 猩猩</w>
黑 帮</w>
麻风 病</w>
高 超</w>
驯 服</w>
马 士
马士 革</w>
首 任</w>
饿 死</w>
饲 料</w>
飞行 员</w>
飞 区</w>
风 港</w>
颠覆 性</w>
非 地区</w>
静 悄悄</w>
震 慑</w>
需 求
零 碳</w>
集中 化</w>
难以 避免</w>
难以 为
难以为 继</w>
随 时
随时 随地</w>
降 雨</w>
附 属</w>
阿 尔</w>
问题 重重</w>
长期 趋势</w>
长 国</w>
长 于</w>
镜 子</w>
链 条</w>
铺 平
铺平 道路</w>
金 敬
金敬 姬</w>
量 齐观</w>
重 叠</w>
重 任</w>
酋 长国</w>
部长 级</w>
郊 区</w>
邻 近</w>
避 风港</w>
遥 不可及</w>
遗留 问题</w>
道 义
通 用
通 性</w>
连锁 反应</w>
连 锁</w>
连 通性</w>
远 超</w>
进 度</w>
进 出</w>
这 有</w>
这 一
还 债</w>
运 往</w>
过 滤</w>
过 快</w>
迅速 行动</w>
迄 今</w>
达 尔</w>
较 差</w>
跨国 企业</w>
趋 向</w>
趋 于</w>
超 乎</w>
起 步</w>
起 因</w>
贸易 条件</w>
贩 子</w>
质 问</w>
财政 危机</w>
负责 管理</w>
负 增长</w>
豪 威尔</w>
谷 物</w>
调查 者</w>
调 控</w>
诗 人</w>
试 点</w>
试 射</w>
诋 毁</w>
诅 咒</w>
评论 员</w>
许 可证</w>
训练 有
训练有 素</w>
让 给</w>
警 钟</w>
誓 言</w>
解 密</w>
西班牙 人</w>
西伯 利亚</w>
袭 击者</w>
被 困</w>
衰 老</w>
表 象</w>
蒂 勒</w>
萨利 赫</w>
萝 卜</w>
苹 果
若干 年</w>
节 节</w>
节 约
艾森 豪威尔</w>
至 上</w>
自由 放任</w>
自 恋</w>
能 令</w>
胡 萝卜</w>
胜 选</w>
职 场</w>
而 今</w>
而 不
老 百姓</w>
老 生
老生 常
老生常 谈</w>
老 挝</w>
美国 众议院</w>
美 的</w>
美 孚</w>
美 伊</w>
罗兴 亚</w>
缔 约国</w>
维 斯</w>
继 任</w>
组织 者</w>
纽 带</w>
纳米 比亚</w>
纠 缠</w>
繁 琐</w>
索 契</w>
素 季</w>
糊 口</w>
精 彩</w>
粮食 产量</w>
粉 丝</w>
等 量齐观</w>
第三 季度</w>
第一 季度</w>
第 一年</w>
突 发
空 谈</w>
空 缺</w>
穆 兄会</w>
称 作</w>
秘 诀</w>
离 谱</w>
离 职</w>
福 利
禁 飞区</w>
示威 游行</w>
破 败</w>
瞄 准</w>
着 实</w>
看 守</w>
看 一看</w>
相 左</w>
直 到
直到 现在</w>
皮 书</w>
百分 之
病 原
留 住</w>
电力 公司</w>
电 脑
电 影
瓦 尔
班 子</w>
现 阶段</w>
环保 主义者</w>
玩 世
玩世 不
玩世不 恭</w>
狼 藉</w>
狐 疑</w>
特里 谢</w>
特里 娜</w>
牵 扯</w>
牛 市</w>
爱国 者</w>
照 旧</w>
热带 雨林</w>
热 钱</w>
热 心</w>
火 车</w>
濒 临</w>
满意 度</w>
源 源
游 刃
游刃 有余</w>
清 晰
深 思</w>
深 地</w>
消 化</w>
海洋 法</w>
海 岸
海岸 线</w>
海 外
浩 劫</w>
派 对</w>
派 兵</w>
洪 灾</w>
波 斯</w>
沙 群岛</w>
沃 伦</w>
汇 总</w>
水 量</w>
民 兵
民兵 组织</w>
毛 里
毒 气</w>
残 疾</w>
武 器
正 统
欲 为</w>
模 拟</w>
检 讨</w>
检 查
某 位</w>
林 匹
板 球</w>
条 例</w>
本 着</w>
本 文</w>
未知 数</w>
有 之</w>
最 终
最 穷</w>
最 深</w>
最 先</w>
更 富</w>
暗 示
暗 淡</w>
明确 指出</w>
时 限</w>
时 尚</w>
日益 加剧</w>
日 涅夫</w>
既 往</w>
无人 驾驶</w>
无 益</w>
无 形</w>
旗 下</w>
新 教</w>
新 人</w>
斯 库</w>
斯 塔</w>
斗 士</w>
文 官</w>
数 次</w>
数 月</w>
数 不清</w>
政治 犯</w>
政府 部门</w>
放射 性</w>
放在 首位</w>
支 点</w>
撤 资</w>
摄 入</w>
握 住</w>
插 手</w>
推 荐</w>
推 卸</w>
接 待</w>
排 序</w>
捷 径</w>
捆 绑</w>
持续 上升</w>
拥 有者</w>
拉 夫
抹 杀</w>
抵 触</w>
投资 人</w>
投 给</w>
执 委会</w>
托 马斯</w>
扎 实</w>
手 册</w>
所 指</w>
战 败</w>
战 者</w>
懂 得</w>
感 到
意大利 政府</w>
意 欲</w>
想 像</w>
想 不到</w>
情 绪
悲 剧性</w>
恩 斯</w>
恩 怨</w>
恐 惧
总 有</w>
性 格</w>
心 灵</w>
德 罗</w>
微 生物</w>
得 当</w>
彻底 改变</w>
当 天</w>
当 做</w>
归 来</w>
强 加
弗 莱</w>
引人 瞩目</w>
开 销</w>
开 脱</w>
开 火</w>
开 城</w>
底 下</w>
广 度</w>
幽 灵</w>
年轻 一代</w>
平 衡
平 壤</w>
带 回</w>
市 公司</w>
巴 尔</w>
已 近</w>
已 晚</w>
峰 期</w>
履 新</w>
屋 主</w>
居 于</w>
尽 早</w>
尼日 尔</w>
就职 演说</w>
尤 科斯</w>
尔 森</w>
对 面</w>
寥 寥
富 于</w>
家庭 暴力</w>
家 属</w>
审 批</w>
安 定</w>
季 莫申科</w>
存 货</w>
存 有</w>
存 亡</w>
孔 子</w>
嫌 疑
委内瑞拉 人</w>
委 任</w>
如 出一辙</w>
好 奇
好奇 心</w>
好 坏</w>
女 权主义</w>
奥尔 默特</w>
奥 林匹
契 机</w>
天安 门</w>
天安 门
天 空</w>
大 马士革</w>
大 额</w>
大 桥</w>
大 佬</w>
多 出</w>
多 余</w>
复 国主义</w>
处 方</w>
壳 牌</w>
声 势</w>
增加 一倍</w>
增 兵</w>
塔 伊</w>
城 镇
垃 圾
坦 率地</w>
地 质</w>
地 狱</w>
在 职</w>
圣 战者</w>
国际 性</w>
国家 队</w>
国家 开发银行</w>
国 营</w>
回 忆
囊 括</w>
喜马拉雅 山</w>
喜 爱</w>
喀 布尔</w>
唤 醒</w>
响 亮</w>
和 普京</w>
后 裔</w>
后 腿</w>
名 副
名副 其实</w>
吉 尔
合 乎
可 不</w>
口 风</w>
受 精</w>
取 暖</w>
发布 会</w>
发 泄</w>
双 双</w>
参 半</w>
去 除</w>
去 向</w>
历 经</w>
厂 商</w>
卵 子</w>
印 巴</w>
卡 特里娜</w>
卡 恩</w>
卖 掉</w>
午 餐</w>
十 八</w>
十 二</w>
十 一月</w>
助 理</w>
加 权</w>
劝 说</w>
副 产品</w>
前 期</w>
刻 不容
刻不容 缓</w>
制造 品</w>
别 说</w>
利率 政策</w>
利 斯</w>
利 夫</w>
删 除</w>
创造 者</w>
列 日涅夫</w>
划 算</w>
切实 可行</w>
分 工</w>
出口 量</w>
几十 个</w>
几 千
冷 酷</w>
决策 权</w>
冰 盖</w>
军 费</w>
军 舰</w>
军 售</w>
兼 容</w>
养 殖</w>
其 新</w>
其 余
其余 部分</w>
兴 奋
关键 时刻</w>
关系 密切</w>
关税 壁垒</w>
关税 同盟</w>
共产 主义者</w>
公共 资源</w>
全球 战略</w>
免 税</w>
克 维尔</w>
先 生</w>
充 裕</w>
充 实</w>
儒 家</w>
停 战</w>
偏 远地区</w>
值得 一
借 款
倒 下</w>
倍 感</w>
保证 金</w>
保持 一致</w>
保护 主义者</w>
侵 袭</w>
供 电</w>
供 水</w>
何 在</w>
体制 改革</w>
体 会</w>
住房 价格</w>
住 所</w>
伪 装</w>
传 导</w>
传 媒</w>
会 因</w>
会 否</w>
优 越
任 性</w>
任 上</w>
付 给</w>
从 此</w>
仍 旧</w>
人 文
人 人
人 事</w>
交 织</w>
交 由</w>
亚历 山
五 分</w>
乏 味</w>
乌 有</w>
主 任</w>
为时 已晚</w>
为所 欲为</w>
临 时
中华 人民共和国</w>
中东 问题</w>
中 位数</w>
东 风</w>
东 欧地区</w>
专制 主义</w>
专 家
与 非</w>
不可 分割</w>
不值一 提</w>
不 诚实</w>
不 胜
不 然</w>
不 小</w>
不 妨</w>
不 在乎</w>
下 限</w>
下 议院</w>
上 瘾</w>
上 市公司</w>
七 十年</w>
一大 步</w>
一大 批</w>
一刀 切</w>
一 角</w>
一 艘</w>
一 股
一 时期</w>
一 斑</w>
一 把</w>
一 惊</w>
一 国
n d
l e</w>
iP hone</w>
i e
d e</w>
a d</w>
S t
R E
O DA</w>
N G
NG O</w>
J P</w>
IP L</w>
F P</w>
F C
E C</w>
A ir
A AA</w>
8 9</w>
8 2</w>
3. 6</w>
3. 4</w>
20 40</w>
2 20</w>
194 9</w>
0. 4</w>
鲜 血</w>
鲁 棒</w>
魔 化</w>
高 峰期</w>
高 举</w>
骗 子</w>
骄 傲
马 纳</w>
马 基
马基 雅</w>
首当其 冲</w>
饭 碗</w>
餐 厅</w>
频 发</w>
预 兆</w>
顽 强</w>
顺 风</w>
面 包</w>
非 正规</w>
非 但</w>
非 人</w>
集中 度</w>
集 合</w>
雅 克</w>
雄 甘地</w>
雄 厚</w>
难以 获得</w>
难以 承受</w>
难 堪</w>
除 去</w>
降 水</w>
阵 痛</w>
防御 性</w>
防 治</w>
队 员</w>
间 歇
问 问</w>
门 外</w>
门 口</w>
长期 债务</w>
镜 头</w>
锻 炼</w>
锚 定</w>
错 综
错综 复杂</w>
错 特
错特 错</w>
销 量</w>
钉 钉</w>
金融 家</w>
量 标准</w>
重重 的</w>
重 量</w>
里 拉</w>
配 给</w>
都 是</w>
遥 遥
道义 上</w>
逼 迫</w>
通 过
选 定</w>
逆转 录</w>
逃 往</w>
退休 者</w>
追 逐</w>
迟 疑</w>
远 东</w>
进 化
这 篇</w>
这 段</w>
这 本</w>
这 为</w>
达 卡</w>
边 界
软 禁</w>
软 着陆</w>
转 化成</w>
轩 然大
轩然大 波</w>
身 陷</w>
踏 上</w>
越南 战争</w>
越 高</w>
越 远</w>
起 源于</w>
走 高</w>
走 得</w>
走 强</w>
赫尔 辛
赫 鲁</w>
赦 免</w>
赞 成
赞成 票</w>
赛 事</w>
贯 穿</w>
责任 感</w>
财政 负担</w>
财政 纪律</w>
贝 尔
诸 多方面</w>
诱 导</w>
误 读</w>
词 语</w>
评 分</w>
证 会</w>
设计 师</w>
警 官</w>
解 答</w>
见 惯</w>
见 一斑</w>
西班牙 政府</w>
装 作</w>
衰 弱</w>
表 露无遗</w>
表 示
行 示威</w>
行 将</w>
蛋 白</w>
虚 幻</w>
萨斯 州</w>
获 胜者</w>
获 准</w>
苹果 公司</w>
英国 议会</w>
苗 头</w>
节 点</w>
航 天</w>
自由 党</w>
自然 环境</w>
自 行</w>
自 欺
自欺 欺人</w>
自 明</w>
自 喜</w>
脱 贫</w>
脱 碳</w>
胡 同</w>
胁 迫</w>
肥 胖
股 份
股份 公司</w>
联邦 制</w>
联合国 儿童
联合国儿童 基金会</w>
联 赛</w>
联 盟
联盟 党</w>
联 大</w>
职业 培训</w>
职 员</w>
而 至</w>
翻 倍</w>
美 中</w>
羁 押</w>
罗 毕</w>
缺 乏
缓 冲
绝 不能</w>
红 海</w>
繁 殖</w>
索 瓦</w>
索 尔
粮 农
粮农 组织</w>
简单 化</w>
等 教育</w>
第二 年</w>
突 袭</w>
空 见惯</w>
空 中
穆 拉</w>
礼 貌</w>
矫 正</w>
睁 睁</w>
眼 睁睁</w>
相互 之间</w>
相 匹配</w>
目 张
目张 胆</w>
监督 机构</w>
监 察</w>
皇 室</w>
白白 浪费</w>
癌 细胞</w>
瘟 疫</w>
痕 迹</w>
疲 弱</w>
留 出</w>
画 面</w>
电视 节目</w>
电动 车</w>
电力 供应</w>
生物 医学</w>
生物 体</w>
生 出</w>
甚 者</w>
甚 少</w>
理 会</w>
现 身</w>
献 金</w>
猛 增</w>
犯 人</w>
犬 儒
犬儒 主义</w>
特 邦</w>
物价 指数</w>
物 体</w>
牙 齿</w>
版 图</w>
爆炸 性</w>
燃 起</w>
热 点</w>
烙 印</w>
火箭 弹</w>
激 动
潜 艇</w>
漩 涡</w>
滑 落</w>
源源 不断</w>
源 国</w>
溃 败</w>
游 行示威</w>
深 信</w>
涉 嫌</w>
海湾 战争</w>
流 传</w>
泰 勒</w>
注 射</w>
沾 自喜</w>
沾 沾自喜</w>
油 井</w>
沙 皇</w>
汹 涌</w>
水 岭</w>
水 坝</w>
气 质</w>
民间 团体</w>
民族 权力
民族权力 机构</w>
民主 联盟</w>
民主 共和国</w>
毛 拉</w>
比 方</w>
母 国</w>
残 余</w>
死 胡同</w>
歧 途</w>
步履 蹒跚</w>
此 项</w>
正 逢</w>
歉 收</w>
横 扫</w>
模糊 不清</w>
榨 取</w>
检 视</w>
案 子</w>
校 友</w>
染 上</w>
某 项</w>
某 一</w>
极端 化</w>
极 世界</w>
来 源国</w>
未 免</w>
望 未来</w>
有 损</w>
有 个</w>
更有 甚者</w>
暗示 着</w>
晋 升</w>
是 非</w>
明 目张胆</w>
时 光</w>
日本 央行</w>
无所 不能</w>
无 风险</w>
施 密
施密 特</w>
施 以</w>
新 书</w>
新 一届</w>
斯特 恩</w>
断 层</w>
数百 名</w>
数千 万</w>
数 周</w>
敬 仰</w>
敞 口</w>
教 士</w>
效 用</w>
政治 局</w>
政 界人士</w>
改革 开放</w>
撕 裂</w>
撒 钱</w>
撑 腰</w>
摆 布</w>
提 条件</w>
推 到</w>
接 收
接 壤</w>
掠夺 性</w>
换句 话</w>
换 来</w>
损 失
按 计划</w>
持久 和平</w>
拿 马</w>
拉 底</w>
拉 尔</w>
拆 除</w>
抽 象</w>
抽 取</w>
抵 扣</w>
护 照</w>
抛 售</w>
抓 住
抓住 机会</w>
技术 支持</w>
打 赢</w>
打 折扣</w>
打 仗</w>
手可 得</w>
所 述</w>
房 地
战 机</w>
战 区</w>
战 争
成 败</w>
成 熟
意 想不到</w>
惨 遭</w>
惟 其</w>
患 上</w>
恪 守</w>
总 支出</w>
总 成本</w>
怪 的是</w>
性 骚扰</w>
怀 着</w>
忽略 不计</w>
忧 心</w>
志 愿</w>
志 向</w>
必要 措施</w>
微 调</w>
往 来</w>
归 类</w>
弥 漫</w>
弗朗 索瓦</w>
弗朗 哥</w>
开 创性</w>
建 树</w>
延 期</w>
应 用
应 为</w>
庇 隆</w>
幸福 感</w>
并 用</w>
并 会</w>
年 级</w>
年 期</w>
年 化</w>
平 权</w>
平 时</w>
干 净</w>
常 便
常便 饭</w>
带 走</w>
巴西 政府</w>
巴基斯坦 政府</w>
巴勒斯坦 民族权力机构</w>
巴 拿马</w>
巴 伐
已 成</w>
巨大 变化</w>
巨 人</w>
工作 组</w>
工业 园区</w>
展 览</w>
展 望未来</w>
居 民
局 外人</w>
尼 赫鲁</w>
尼 克</w>
就 读</w>
少 之又
少之又 少</w>
密 度</w>
寄 生
家 常便饭</w>
审 讯</w>
实际 操作</w>
实际 意义</w>
宗教 团体</w>
完全 正确</w>
安 格拉</w>
学 费</w>
威 慑
妖 魔化</w>
妊 娠</w>
妈 妈</w>
如 是说</w>
如 既往</w>
女 生</w>
奇 怪的是</w>
失 能</w>
失 利</w>
太 子
天安门 广场</w>
大大 提高</w>
大 错特错</w>
大 旗</w>
多 极世界</w>
多 方</w>
外部 环境</w>
外交 事务</w>
备 选</w>
增 至</w>
增 幅</w>
基因 工程</w>
坦 率</w>
在 所
圣 雄甘地</w>
图 像</w>
国际 联盟</w>
国际 法庭</w>
回 击</w>
四 伏</w>
善 可
善可 陈</w>
商 讨</w>
商 榷</w>
哪 种</w>
哥伦比 亚人</w>
哀 叹</w>
周 年纪念</w>
听 证会</w>
听 证</w>
后 盾</w>
同 志</w>
同 化</w>
吉拉 特邦</w>
合作 者</w>
各 有</w>
各 异</w>
司 空见惯</w>
司 令</w>
台 湾
可 再生</w>
另一 端</w>
古 吉拉特邦</w>
古 典</w>
口 味</w>
发电 量</w>
反复 无常</w>
反 制</w>
参 观</w>
参 照</w>
原 子</w>
印 有</w>
卫 星
卢卡 申科</w>
卡 车</w>
卡 德
卡 尼</w>
博 士
南 极</w>
单 元</w>
十 年间</w>
十 八
十八 世纪</w>
北 方
包 袱</w>
勒 曼</w>
前 来</w>
前 列</w>
利 特</w>
判 定</w>
初 中</w>
创造 条件</w>
创新 者</w>
分 离
分 界线</w>
分 水岭</w>
分 数</w>
出资 人</w>
出 新</w>
出 乎
凶 手</w>
几十 亿美元</w>
几 百
几 分</w>
减 产</w>
冷 却</w>
冲 销</w>
冲 绳</w>
冰 箱</w>
农业 部门</w>
农 田</w>
农 户</w>
军事 优势</w>
再 者</w>
再 三</w>
内部 事务</w>
内 罗毕</w>
内 涵</w>
共同 化</w>
公司 债务</w>
公 关</w>
全 美</w>
党 制</w>
免疫 系统</w>
克 林</w>
光 景</w>
先 知</w>
傀 儡</w>
停火 协议</w>
偏 颇</w>
假 期</w>
修正 主义</w>
修 宪</w>
依 照</w>
供 需</w>
供 养</w>
佩 林</w>
作 弊</w>
余 波</w>
传 闻</w>
会 议
优 雅</w>
任 地</w>
价格 水平</w>
以 期</w>
令人 惊叹</w>
从 头
今年 年初</w>
仅 凭</w>
亿 美金</w>
人 种</w>
人 皆知</w>
人 气</w>
人 想</w>
交 往</w>
亚洲 开发银行</w>
五 月</w>
互 信</w>
于 世</w>
二 月</w>
事 国</w>
乏 善可陈</w>
乎 寻常</w>
之 意</w>
举 止</w>
为 生</w>
丰 裕</w>
中 长期</w>
中 亚地区</w>
两 条</w>
两 座</w>
两 周</w>
两 件事</w>
两 代</w>
东 亚国家</w>
业 主</w>
与 会</w>
不相 容</w>
不出 意外</w>
不 返</w>
不 开</w>
不 妙</w>
下 一
下一 阶段</w>
三 家</w>
三 十
万亿 日元</w>
一去 不返</w>
一切 照旧</w>
一 级</w>
一 环</w>
一 根</w>
一 架</w>
一 如既往</w>
一 堂</w>
一 千万</w>
一 体</w>
s t
r a</w>
o m
il l
i S</w>
en t
P iS</w>
OM C</w>
O P
I R
H C</w>
F S
F OMC</w>
F ARC</w>
D D
9 8</w>
9 1</w>
8 4</w>
7 50</w>
5. 1</w>
4. 8</w>
4. 7</w>
3. 8</w>
2. 6</w>
198 5</w>
196 9</w>
195 7</w>
1. 1</w>
1 5
0. 9</w>
黎巴嫩 真主党</w>
黄 豆</w>
麻省理 工学院</w>
高加 索
高加索 地区</w>
高 血
高血 压</w>
餐 桌</w>
飞 行</w>
飞 地</w>
风 顺</w>
风 电</w>
风 潮</w>
风 波</w>
颓 势</w>
面 纱</w>
非营 利</w>
非法 行为</w>
非同 寻常</w>
非 经济</w>
震 撼</w>
需求 量</w>
雷 达</w>
难 事</w>
陶 醉</w>
限 制
陌 生</w>
陈 水
陈水 扁</w>
阵 地</w>
防 空</w>
问题 所在</w>
长远 利益</w>
长 者</w>
长 度</w>
错 乱</w>
销售 额</w>
销售 税</w>
银行 行长</w>
金本 位
金本位 制</w>
金 色</w>
金 日
金日 成</w>
金 斯</w>
野 心
野心 勃勃</w>
重 量级</w>
重 生</w>
里程 碑
里程碑 式</w>
采取 相应</w>
采 矿</w>
酷 无情</w>
邮 政</w>
那 维亚</w>
那 段</w>
那 天</w>
避 险</w>
道 扬
道扬 镳</w>
通 话</w>
通 讯
途 中</w>
递 减</w>
迷 你</w>
迫 者</w>
远 景</w>
进化 论</w>
进 方向</w>
这 时</w>
过 重</w>
过 活</w>
过 低</w>
过 且
过且 过</w>
辕 北
辕北 辙</w>
输 血</w>
转 机</w>
蹶 不振</w>
跨 过</w>
跟 不上</w>
起 飞</w>
起 义
赵 紫
赵紫 阳</w>
走 低</w>
赫尔辛 基</w>
赠 者</w>
赎 回</w>
费 解</w>
贯 性</w>
贫 富</w>
责 怪</w>
负债 累累</w>
负 数</w>
负 值</w>
贝鲁 特</w>
象 牙</w>
谦 卑</w>
调停 人</w>
调 整
诺贝 尔</w>
诺 夫</w>
诺 华</w>
说 道</w>
诚 合作</w>
识 别
评 议</w>
议 长</w>
议 事
议事 日程</w>
警 醒</w>
誓 旦
誓旦 旦</w>
言 不
触 动</w>
解放 运动</w>
规 模
覆盖 面</w>
要 职</w>
要 少</w>
要 务</w>
西 撒哈拉</w>
裙 带
裙带 关系</w>
裂 缝</w>
裂 法</w>
表 情</w>
衡 量标准</w>
虚 拟
薪 资</w>
蓝 领</w>
蒸 发</w>
蒂 斯</w>
落 定</w>
莱 斯</w>
荷 兰人</w>
荣 耀</w>
荒 唐</w>
茨 瓦
茨瓦 纳</w>
英 尺</w>
花 掉</w>
艾 伦</w>
艰 辛</w>
良 方</w>
船 高</w>
舒 服</w>
致 裂法</w>
致 歉</w>
自由 民主党</w>
自 贸</w>
自 此以后</w>
自 以为
自以为 是</w>
脱 身</w>
脱 盟</w>
脚 跟</w>
能源 消耗</w>
能 耗</w>
能 效</w>
肩 负着</w>
肥 料</w>
股 息</w>
聘 用</w>
而 语</w>
而 止</w>
而 栗</w>
老 路</w>
美国 参议院</w>
美 英</w>
美 苏</w>
美 方</w>
美 式</w>
罚 金</w>
罗 索</w>
编 制</w>
维 基</w>
给 与</w>
经验 教训</w>
经济 社会</w>
经济 总量</w>
经常 帐户</w>
终 极
终极 目标</w>
纽约 市</w>
纽 尔</w>
约束 条件</w>
红 色
紧 缺</w>
索尔 仁</w>
紊 乱</w>
精 诚合作</w>
粗 略</w>
粉 饰</w>
米 特里</w>
管理 机构</w>
管 们</w>
算 术</w>
简 报</w>
笼 罩</w>
第二 点</w>
第三 项</w>
第三 世界</w>
笑 话</w>
童 年</w>
稳定 器</w>
称 道</w>
称 得上</w>
积极 性</w>
科学 知识</w>
科 雷
离 任</w>
禁 烟</w>
神 圣
祖 玛</w>
社 保</w>
睿 智</w>
着 重</w>
真 心
看 清</w>
相似 性</w>
相 继</w>
相 处</w>
痴 迷</w>
症 结</w>
病原 体</w>
病 菌</w>
病 症</w>
病 患</w>
疲 劳</w>
疗 效</w>
留 任</w>
电子 邮件</w>
电 池
由此 可见</w>
用 词</w>
用 品</w>
用 力</w>
用 以</w>
生存 率</w>
生命 线</w>
生命 危险</w>
生命 力</w>
生 根</w>
生 俱
琐 碎</w>
理想 化</w>
班 人</w>
玷 污</w>
现 行
独 行</w>
狡 猾</w>
犯罪 率</w>
特 立
特 加</w>
爱 戴</w>
爆炸 事件</w>
烟 雾</w>
烟 草
点 火</w>
炫 耀</w>
灾 乐
灾乐 祸</w>
灯 塔</w>
激动 人心</w>
漠 化</w>
演 讲
满 满
滋 长</w>
源 地</w>
渴 求</w>
渲 染</w>
渡 边</w>
渗透 到</w>
渔 民</w>
深 深地</w>
深 海</w>
消 防
消 说</w>
流 言</w>
流 放</w>
流 产</w>
派 驻</w>
洲 际</w>
洁 净</w>
波 助
波助 澜</w>
法 典</w>
油 税</w>
油 价格</w>
没 人能</w>
汉 森</w>
求 是</w>
永 逸</w>
水 灾</w>
水 库</w>
民 营</w>
毫不 含糊</w>
每 一项</w>
步 子</w>
此 时
此 基础</w>
正确 性</w>
正 轨</w>
欺 骗
欣 鼓舞</w>
欣 欣
欣欣 向
欣欣向 荣</w>
欢 欣鼓舞</w>
次 大战</w>
桌 上</w>
格 利
格利 茨</w>
核 打击</w>
核 危机</w>
核 力量</w>
查 理</w>
枪 击</w>
极 富</w>
板 上
板上 钉钉</w>
条 路</w>
杜 马</w>
杀人 犯</w>
本地 化</w>
期 货
朝 圣</w>
有 过
有 益于</w>
有 的是</w>
有 理</w>
有 形</w>
有 幸</w>
有 不同</w>
月 异</w>
最终 目标</w>
最 富</w>
替代 者</w>
曼 谷</w>
曼 纽尔</w>
曼 彻
曼彻 斯特</w>
曼 努
曼努 埃尔</w>
更 近</w>
更 何况</w>
普 罗
易 感</w>
明 知</w>
时 说</w>
早 前</w>
日 而语</w>
日 新
日新 月异</w>
日 增</w>
无所 不在</w>
无 耻</w>
无 穷</w>
无 核</w>
无 果</w>
无 度</w>
无 国界</w>
旋 余地</w>
旅 程</w>
方 会谈</w>
新 晋</w>
新 教徒</w>
新 年</w>
斯蒂 格利茨</w>
斯 堡</w>
断 然</w>
文 凭</w>
数据 分析</w>
散 播</w>
散 布</w>
教 益</w>
救 灾</w>
效 能</w>
政治 学</w>
放 出</w>
摩 苏尔</w>
摊 牌</w>
握 有</w>
提高 产量</w>
提 的是</w>
掩 护</w>
推 特
推 波助澜</w>
推 入</w>
接 班人</w>
接 到</w>
探 究</w>
掌 管</w>
损 坏</w>
捐 赠者</w>
持 平</w>
拿 走</w>
抱 有
把 握住</w>
扩 大
执 着</w>
执 狂</w>
执 掌</w>
打 动</w>
所 犯</w>
成 型</w>
慷 慨
意料 之中</w>
意 志
想 当然</w>
情 节</w>
悲观 者</w>
恶 果</w>
总 书记</w>
性 命</w>
怀疑 论</w>
忏 悔</w>
心 安理
心安理 得</w>
微 观经济</w>
微 笑</w>
微 型</w>
得 逞</w>
得 过且过</w>
徒 劳</w>
很 多年</w>
很 久
影 像</w>
当地 政府</w>
强 者</w>
弗 吉
引 起
引 以为
弄 巧
异 乎寻常</w>
开 花</w>
开 枪</w>
开 展
开展 业务</w>
建 模</w>
库尔德 斯坦</w>
幸 灾乐祸</w>
幸 存</w>
并 购</w>
并 发
并发 症</w>
平均 年龄</w>
幕 式</w>
幕 僚</w>
帕 拉</w>
帆 风顺</w>
布 独立</w>
差 劲</w>
左 右
工 具
巡 逻</w>
岸 地区</w>
岛 国</w>
山 一角</w>
展 期</w>
尽 量
尼古 丁</w>
尼 系数</w>
尼 加</w>
尸 体</w>
就 位</w>
少 量</w>
小 岛</w>
小 事</w>
导 体</w>
对 美</w>
寥寥 无几</w>
寒 而栗</w>
寄生 虫</w>
宿 命</w>
宽 泛</w>
宣 布独立</w>
客 观
实际 行动</w>
实 事
实事 求是</w>
定 量</w>
安 心</w>
安 东
孕 妇</w>
子 里</w>
媒 介</w>
妓 女</w>
好 运</w>
好 日子</w>
女 权
奥斯 本</w>
奥 萨
太子 党</w>
太 远</w>
大 道</w>
大 打折扣</w>
大 崩盘</w>
大 学生</w>
大 力
大 众
大 不
多数 票</w>
多 钱</w>
多 管齐下</w>
多 亿美元</w>
外 科
增长 势头</w>
境 外</w>
塞浦路斯 人</w>
堵 住</w>
堆 积</w>
基 调</w>
基 尼系数</w>
坎 坷</w>
地下 水</w>
地 表</w>
地 盘</w>
地 是</w>
在 家</w>
圣 保罗</w>
土 地
圈 子</w>
图 谋</w>
国民 大会</w>
国民 党</w>
国 库</w>
团 伙</w>
回 旋余地</w>
四 海
四 次</w>
囊 中
善 举</w>
哈 利
呼 应</w>
吞 没</w>
吝 啬</w>
名 列
同 日而语</w>
同 性</w>
合理 化</w>
号 召力</w>
右 倾</w>
史 蒂
史 密
可 见一斑</w>
可 耻</w>
只 眼</w>
古 巴
受害 人</w>
受 控</w>
发展 前景</w>
发 送</w>
反 民主</w>
反 日</w>
反 向</w>
反 动</w>
反 之
反之 亦然</w>
友好 关系</w>
友 善</w>
压倒 一切</w>
压 迫者</w>
危机 四伏</w>
卡梅 隆</w>
占领 者</w>
博 茨瓦纳</w>
南 辕北辙</w>
南 沙群岛</w>
南 亚地区</w>
单 身</w>
升 至</w>
千 禧</w>
千 百万</w>
十 万</w>
勾 勒</w>
劳 永逸</w>
劳 尔</w>
加 码</w>
办 事</w>
办 事
力 争</w>
前 进方向</w>
前 行</w>
前 提条件</w>
刹 车</w>
利 害
初 级
创造 财富</w>
创 下</w>
刚果 民主共和国</w>
刑 讯</w>
刑 法</w>
分散 化</w>
分 道扬镳</w>
分 明</w>
分 发</w>
击 中</w>
出口 品</w>
出 租</w>
出 对</w>
出 不
凶 险</w>
凶 残</w>
凭 空</w>
净 资产</w>
净 值</w>
冰 山一角</w>
其 时</w>
关注 度</w>
关 进</w>
六 方会谈</w>
公平 性</w>
公司 债券</w>
公共 事务</w>
公 用
全力 支持</w>
全 局</w>
兑 换
光 荣</w>
光 有</w>
先 行</w>
先 后</w>
先 兆</w>
做 事</w>
偏 隘</w>
偏 执狂</w>
值得一 提的是</w>
借 给</w>
候 选</w>
候 选
俯 首
信息 战</w>
信 誓旦旦</w>
信 心
保护 区</w>
保护 伞</w>
便 于</w>
使用 暴力</w>
伦 特</w>
伦 堡</w>
优 惠
休 闲</w>
伊 曼纽尔</w>
企业 界</w>
以 防</w>
代 码</w>
付诸 实施</w>
仍 远</w>
人人 平等</w>
人 员
产 生
交通 工具</w>
交易 量</w>
交 换
交 出</w>
亚历山 大</w>
互 补</w>
二十 五年</w>
二 次大战</w>
二 十</w>
二 世</w>
争 议
买 房</w>
书 名</w>
乘 坐</w>
乐 趣</w>
乌兹别 克斯坦</w>
之不 易</w>
之 类</w>
之 策</w>
之 物</w>
之 时</w>
之 差</w>
之 声</w>
之 举</w>
主 人</w>
为 重</w>
中 风</w>
中 亚国家</w>
个人 主义</w>
严 密</w>
两 面
东 西方</w>
东 耶路撒冷</w>
世界 人权宣言</w>
世 代</w>
不起 作用</w>
不言 自明</w>
不成 比例</w>
不 详</w>
不 经
不 消说</w>
不 尽</w>
不 寒而栗</w>
不 大</w>
不 动</w>
不 丹</w>
下 游</w>
下 次</w>
上 次</w>
三 条</w>
万 年</w>
万 一</w>
七 月</w>
一切 都是</w>
一分 钱</w>
一 蹶不振</w>
一 心</w>
一 心
一 帆风顺</w>
一 地</w>
一 劳永逸</w>
一 党</w>
u n
t r
n b</w>
i p
i f
i b
b nb</w>
T u
S N
S EC</w>
M F
M E
GN P</w>
Air bnb</w>
9 7</w>
5. 6</w>
5 1</w>
4. 9</w>
4. 2</w>
3 30</w>
20 35</w>
20 22</w>
198 3</w>
197 6</w>
196 3</w>
196 1</w>
193 8</w>
17 00</w>
龙 头</w>
齐 驱</w>
齐 奥塞
齐奥塞 斯库</w>
默 默
鲁 大学</w>
高度 集中</w>
高 龄</w>
高 原</w>
骤 降</w>
骄傲 地</w>
驾 齐驱</w>
驱 逐
马拉 维</w>
马哈 茂
马哈茂 德</w>
马 里奥</w>
马 戏
马戏 团</w>
马 当
马当 先</w>
首 领</w>
饮 水</w>
饮 料</w>
风 点火</w>
颗 粒
频 频</w>
领 头
顿 政府</w>
顿 巴斯</w>
顽 疾</w>
音乐 会</w>
革命 武装力量</w>
面 对面</w>
面 孔</w>
非常 容易</w>
非 关税壁垒</w>
青 年
零 部件</w>
雨 绸
雨绸 缪</w>
集体 利益</w>
集 群</w>
雅 尔</w>
雅 图</w>
雄心 壮
雄心壮 志</w>
雄 辩</w>
难度 很大</w>
难 上加
难上加 难</w>
隔 离
隔 夜</w>
隐 蔽</w>
隐 形</w>
限制 性</w>
阿拉伯 联盟</w>
阿拉伯 地区</w>
阿 曼</w>
阿 姆
阴 暗</w>
防 火
防火 墙</w>
队 长</w>
间歇 性</w>
间 断</w>
问责 性</w>
问 道</w>
门 类</w>
镕 基</w>
锐 减</w>
钥 匙</w>
针 灸</w>
金 库</w>
金 价</w>
金 主</w>
量 权</w>
量 子</w>
重新 配置</w>
重新 加入</w>
重 蹈
重蹈 覆辙</w>
重 整</w>
重 夺</w>
那 套</w>
那 一刻</w>
避 孕
避 免
遗 漏</w>
道 合</w>
逾 越</w>
通 货</w>
通 行</w>
通 力
通力 合作</w>
逐 年</w>
逐 一</w>
追 捕</w>
迥 然不同</w>
连 贯性</w>
违 法
进 步
进 去</w>
进 出口</w>
进 军</w>
这 起</w>
这 帮</w>
还 款</w>
运 而生</w>
过渡 性</w>
过 激</w>
过 少</w>
过 关</w>
辟 蹊
辟蹊 径</w>
辞 去</w>
辜 负</w>
轻 蔑</w>
转 播</w>
身体 健康</w>
身 亡</w>
路易 斯</w>
跛 脚</w>
跋 涉</w>
越 走
越走 越远</w>
越 久</w>
赶 出</w>
赶 不上</w>
赛 尔</w>
赖 斯</w>
资本 金</w>
费 舍
费舍 尔</w>
购 物
贫 苦</w>
贫 民</w>
贪 污</w>
败 坏</w>
责 难</w>
财政 预算</w>
财 年</w>
贝 基</w>
谨 小
谨小 慎
谨小慎 微</w>
谈判 代表</w>
调 节
谁 来</w>
诱 因</w>
证 词</w>
访 华</w>
设计 者</w>
记 忆
记 分
让 出</w>
让 人</w>
讨 会</w>
认 知
认 同感</w>
计划 经济</w>
警 察
誉 为</w>
解 冻</w>
视 线</w>
观 望</w>
西 雅图</w>
裙 带</w>
装 饰</w>
裁 量权</w>
裁 者</w>
衰 竭</w>
表现 出色</w>
表 格</w>
补 性</w>
衣 主教</w>
行政 长官</w>
行 贿</w>
行 使
藩 篱</w>
藐 视</w>
藏 身</w>
蕴 含</w>
蓬 佩
蓄 意</w>
蒸 汽
蒸汽 机</w>
蒂 尔</w>
萨 缪
萨 哈</w>
菲 利
菅 直</w>
莱 希</w>
草 率</w>
英 文</w>
英 帝国</w>
苏格 兰人</w>
苏 丹
花 大</w>
节 省
节 日</w>
节 俭</w>
良 知</w>
船 上</w>
航 行</w>
航 线</w>
自行 车</w>
自然 科学</w>
自然 界</w>
自 称为</w>
自 来
自来 水</w>
脾 气</w>
脚 石</w>
能 详</w>
胞 胎</w>
背 心</w>
股票 交易</w>
股 公司</w>
肉 食</w>
聘 请</w>
联邦 储备
联合 声明</w>
联合 会</w>
耶 鲁大学</w>
耳 熟
耳熟 能详</w>
耕 种</w>
而 非</w>
而 行</w>
而 终</w>
而 无
而 应</w>
考 虑
老 练</w>
耀 武
耀武 扬
耀武扬 威</w>
美好 未来</w>
美国 士兵</w>
美国 国务院</w>
美国 共和党</w>
美 洲
罗 德里克</w>
罗 尔</w>
缴 税</w>
缩 影</w>
缛 节</w>
绿 灯</w>
维持 下去</w>
绝对 多数</w>
绝 缘</w>
经济 负担</w>
经济 成就</w>
经济 基础</w>
经济 体制</w>
终 生</w>
细 胞
纽约 州</w>
纽 伦堡</w>
纳 吉
红 衣主教</w>
红 色</w>
繁 重</w>
繁 文
繁文 缛节</w>
紧迫 感</w>
精神病 学</w>
精 准</w>
算 银行</w>
算 得</w>
策 略
等 候</w>
第二 季度</w>
第一 轮</w>
第一 届</w>
第一 夫人</w>
第 六
第 一项</w>
笔 记
立 足</w>
立 足
穿 过</w>
究 其
究其 原因</w>
穆 特</w>
稽 之
稽之 谈</w>
稳步 增长</w>
稳定 下来</w>
税 金</w>
稍 微</w>
程序 员</w>
移 除</w>
积 聚</w>
秘 书</w>
种族 歧视</w>
私人 机构</w>
私 立学校</w>
离 奇</w>
离 不开</w>
福利 制度</w>
票 据</w>
神经 元</w>
神 权</w>
祝 贺</w>
社会 秩序</w>
硬 性</w>
研究 员</w>
研 讨会</w>
矿 物</w>
知 之
知之 甚少</w>
睦 邻
着 迷</w>
眼 球</w>
眼 前
真心 实
真心实 意</w>
真实 情况</w>
看 电视</w>
相对 来说</w>
相 称</w>
相 冲突</w>
直接 对话</w>
直 白</w>
直 指</w>
监督 者</w>
盈 利性</w>
皇 家</w>
皆 准</w>
百 出</w>
痢 疾</w>
痛 恨</w>
疼 痛</w>
疲 力
畅 销</w>
电池 板</w>
电力 系统</w>
由 谁来</w>
用 场</w>
生俱 来</w>
甚 广</w>
甚 于</w>
瓦 罗</w>
瑞 典
班加 西</w>
珍 珠
现实 主义者</w>
现 出来</w>
环 绕</w>
率 领</w>
狂 欢</w>
特立 独行</w>
特 雷斯</w>
特 工</w>
牵 连</w>
牛 津
牛津 大学</w>
爱尔 兰人</w>
熟 知</w>
煽 风点火</w>
照 看</w>
照 此</w>
然 而止</w>
灾 区</w>
火 药
火 星</w>
激 素</w>
激 化</w>
潘 多
潘多 拉</w>
漫 画</w>
滑 稽</w>
溺 于</w>
渔 船</w>
渐 行</w>
清 算银行</w>
深 重</w>
深 感
涨 船高</w>
涉 足</w>
消费 水平</w>
消 弭</w>
海湾 地区</w>
海洋 生物</w>
海 洛
海洛 因</w>
海 报</w>
流 逝</w>
洪 森</w>
泥 淖</w>
波 特</w>
法律 效力</w>
法 语</w>
没 有
没 人会</w>
沉重 打击</w>
沉 闷</w>
沉 溺于</w>
污染 物</w>
水 涨船高</w>
民族 团结</w>
民族 党</w>
民主 运动</w>
民 生</w>
民 事</w>
毫无 用处</w>
比 较
毒 者</w>
每 种</w>
毁 于
毁于 一旦</w>
武装 部队</w>
步履 维艰</w>
正 直</w>
止 期</w>
欺骗 性</w>
欺 凌</w>
欧洲 式</w>
欧洲 共同</w>
欧 安
欧安 组织</w>
欧 亚
欧亚 大陆</w>
次 大陆</w>
横 跨</w>
模 一样</w>
植 树</w>
植 入</w>
格 雷
核 实</w>
标 本</w>
极 洲</w>
极 尽</w>
来 迟</w>
来 之不易</w>
权 贵</w>
朱 镕基</w>
本地 人</w>
本 性</w>
本 届</w>
本 加
本加 厉</w>
未知 领域</w>
未 雨绸缪</w>
期 货</w>
朝 一日</w>
服 饰</w>
有 远见</w>
有 见</w>
有 机
有 朝一日</w>
有 势</w>
最高 峰</w>
最低 点</w>
最 惠
最惠 国</w>
替代 性</w>
曾 任</w>
更 改</w>
更 差</w>
智 商</w>
晚 上</w>
显 现出来</w>
时 起</w>
时 数</w>
时 为</w>
日 程
无 缝</w>
无 稽之谈</w>
无 怪
无怪 乎</w>
无 害</w>
无 上</w>
旗 鼓</w>
旁 边</w>
新闻 网</w>
新闻 界</w>
新 能源</w>
斯 拉</w>
斯 托
斯 尼</w>
斯 堪</w>
文 斯</w>
整 场</w>
敲 响</w>
数百 人</w>
数 个</w>
敞 开</w>
教 材</w>
教 导</w>
救 药</w>
敌对 行动</w>
效 甚微</w>
政治 立场</w>
政府 首脑</w>
攻击 性</w>
攻 讦</w>
收 效甚微</w>
收 成</w>
支 机构</w>
操作 系统</w>
撬 动</w>
撤 走</w>
搜 查</w>
援 国</w>
揭 开</w>
提 拔</w>
措 手
措手 不及</w>
控制 线</w>
控制 力</w>
控 股公司</w>
接收 国</w>
接 踵
接 种
排 量</w>
排 在</w>
据 信</w>
损失 惨重</w>
捐 献者</w>
指 派</w>
指 掌</w>
拥 护者</w>
拜 访</w>
拜 者</w>
拘 禁</w>
拉拉 邦</w>
拉 马</w>
担 负</w>
抵抗 力</w>
护 人员</w>
折 衷</w>
抗 体</w>
投资 额</w>
投票 者</w>
投票 箱</w>
投票 站</w>
投 放</w>
投 射</w>
投 了</w>
承担 风险</w>
承 受
扫 除</w>
扑 灭</w>
所 要</w>
所 致</w>
所 持</w>
所 学</w>
户 口</w>
截 止期</w>
戛 然而止</w>
战 壕</w>
战 乱</w>
我 会</w>
成 拙</w>
憎 恶</w>
意 赅</w>
想 见</w>
情 局</w>
悲观 主义</w>
恶 行</w>
恶 棍</w>
总统 制</w>
总 干
总干 事</w>
快 要</w>
志 同
志同 道合</w>
心理 健康</w>
心 血管</w>
心 怀
德国 马克</w>
得 来</w>
徒劳 地</w>
很 久</w>
彼得 堡</w>
彼 特</w>
彼 得</w>
形 资产</w>
录 得</w>
归 入</w>
弱 者</w>
引 渡</w>
弈 论</w>
弄巧 成拙</w>
弄 清楚</w>
弄 清</w>
开 车</w>
开 张</w>
开 办</w>
延 误</w>
度 量</w>
废 弃</w>
底 部</w>
应 运而生</w>
序 幕</w>
庆 典</w>
幼 儿
幸运 地</w>
并 驾齐驱</w>
并 存</w>
并 于</w>
年 纪</w>
年 同期</w>
平 板</w>
平 坦</w>
平 地</w>
帮 凶</w>
希 霍夫</w>
布 里</w>
市 政府</w>
巴西 人</w>
巴伐 利亚</w>
巴 菲特</w>
工具 箱</w>
工业 部门</w>
工业 国</w>
工 艺</w>
嵌 入</w>
崇 拜者</w>
岛 上</w>
山 脉</w>
屠 宰</w>
居 住
层 出不
层出不 穷</w>
尾 声</w>
尽量 减少</w>
尼古 拉</w>
尼 罗
尼 琴</w>
尼 察</w>
小 镇</w>
小 川</w>
尊 重
对华 贸易</w>
对 错</w>
宾 夕
宾夕 法
容 量</w>
宣传 攻势</w>
客 人</w>
定 为</w>
学 前
字 母</w>
威 望</w>
威 廉</w>
姗 来迟</w>
姗 姗来迟</w>
姐 妹</w>
姆 林宫</w>
如 若</w>
如 指掌</w>
如 山</w>
好 意</w>
好 好</w>
好 几个</w>
奶 牛</w>
奴 隶
女 子</w>
奥萨 马</w>
奥尔 特加</w>
奥 运</w>
奥 会</w>
夷 为
夷为 平地</w>
失 序</w>
太平 洋
太 小</w>
天 鹅</w>
天 皇</w>
天 文
大幅度 降低</w>
大 象</w>
大 街</w>
大 英帝国</w>
大 权</w>
大 同
大 加</w>
夜 晚</w>
多 国</w>
外科 手术</w>
外交 家</w>
外 贸</w>
外 受精</w>
处 处</w>
塔 米</w>
塔 吉
塔 克</w>
基本 原理</w>
基 建</w>
坡 路</w>
坚 固</w>
坐 下</w>
地 要</w>
地 用</w>
地 会</w>
在 场</w>
图 片</w>
国际 清算银行</w>
国家 银行</w>
国 在</w>
国 力</w>
国 内
固 醇</w>
固 执</w>
回 想</w>
回 头</w>
四 季度</w>
四 天</w>
喘 息</w>
喀 拉拉邦</w>
唤 起</w>
哥伦比亚 革命武装力量</w>
哈 塔米</w>
咋 舌</w>
周边 地区</w>
周 小川</w>
吻 合</w>
吸 收
含 糊
向 性</w>
同 类</w>
同 侪</w>
合乎 逻辑</w>
合 谋</w>
合 计</w>
各 界</w>
各 有不同</w>
台 风</w>
台 面</w>
可 恶</w>
可 喜</w>
叫 嚣</w>
只 得</w>
另 辟蹊径</w>
另 一面</w>
古 典
口 头上</w>
口 中</w>
变 本加厉</w>
变 更</w>
受 援国</w>
受 挫</w>
发 表
发 人
反 面</w>
反 省</w>
反 犹太</w>
反 差</w>
反 倾销</w>
参 数</w>
去 年同期</w>
历 届</w>
印 钞
卢 布</w>
卡德 罗夫</w>
卡 拉</w>
博 弈论</w>
博 尔顿</w>
南 韩</w>
南 极洲</w>
协 同
半 导体</w>
千 亿美元</w>
十 大</w>
十 几
医 护人员</w>
北 非地区</w>
化 为
勒 索</w>
加勒比 地区</w>
加以 解决</w>
功 劳</w>
办事 处</w>
副 手</w>
前所未 见</w>
前 瞻</w>
前 几次</w>
前 一天</w>
制 药
制 成</w>
利用 率</w>
利比 亚人</w>
利 息
初级 阶段</w>
创新 能力</w>
创新 型</w>
创 设</w>
创 始</w>
分析 表明</w>
分 解</w>
分 红</w>
分 支机构</w>
出乎 意料</w>
出 境</w>
凸 现</w>
冲 浪</w>
军事 援助</w>
军 演</w>
冗 长</w>
再也 不能</w>
内 讧</w>
内 向</w>
兴 旺
共 进</w>
共 事</w>
六 百万</w>
六 月</w>
六 十年代</w>
公民 投票</w>
公开 市场</w>
公开 化</w>
公共 安全</w>
公 营</w>
公 立</w>
八 国</w>
全面 禁止</w>
全力 以
全力以 赴</w>
全 书</w>
克林 顿政府</w>
光 伏</w>
先 驱</w>
先 天</w>
兆 头</w>
僧 侣</w>
催 生出</w>
偿 付
偿付 能力</w>
停 电</w>
停 下来</w>
偏 爱</w>
假 想</w>
信 贷
信 守</w>
信 仰
信 中</w>
保护 者</w>
保守 势力</w>
保 留
俄 军</w>
侧 重于</w>
依赖 性</w>
依 法</w>
佩 尔</w>
作 恶</w>
作 何</w>
佛 山</w>
余 年</w>
体 外受精</w>
低 得</w>
但 用</w>
伤 口</w>
伤 及</w>
传统 媒体</w>
传 言</w>
伟 大
会 计
会 儿</w>
优 待</w>
优 于</w>
伊 玛
仰 仗</w>
以为 常</w>
令人 费解</w>
他 国</w>
仔 细
从 政</w>
从 容</w>
从 中
仁 慈</w>
亿 英镑</w>
人权 委员会</w>
人才 流失</w>
人口 构成</w>
人 造
人 大</w>
亲 王</w>
亲 欧</w>
亲 密
产 税</w>
产 地</w>
交易 者</w>
交易 税</w>
交 战</w>
交 到</w>
些 则</w>
互 补性</w>
二十 多年</w>
二 季度</w>
争 夺
了 如指掌</w>
习 以为常</w>
乐 意</w>
乐 团</w>
之 遥</w>
之 梦</w>
之 年</w>
举 个</w>
主 持
主 宰
主 因</w>
为人 所知</w>
中 西部</w>
中 情局</w>
中 介
个人 消费</w>
个人 利益</w>
严 谨</w>
两 可</w>
世 袭</w>
专制 政府</w>
与 生俱来</w>
不尽 相同</w>
不容 乐观</w>
不同 寻常</w>
不可 耐</w>
不可 同日而语</w>
不 符</w>
不 疑</w>
不 合</w>
不 仁</w>
上 述
上 半叶</w>
三 重</w>
三 季度</w>
三 人</w>
万亿 元</w>
万 能</w>
万 吨</w>
一百 多万</w>
一心 一
一心一 意</w>
一大 堆</w>
一 马当先</w>
一 等</w>
一 端</w>
一 百万
一 流</w>
一 模一样</w>
一 月份</w>
一 律</w>
一 己</w>
一 团
一 变</w>
一 半
一 会儿</w>
一 些则</w>
v er
s on</w>
o z
in d
il l</w>
f o</w>
en d
e x
e t
e et</w>
co m</w>
ar g
T FP</w>
S W
S P
P R</w>
N D
L O</w>
IS A</w>
I fo</w>
I BM</w>
I A</w>
G I</w>
ES G</w>
DD T</w>
D V
C h
B BC</w>
B A</w>
A CA</w>
5. 8</w>
3. 7</w>
3. 3</w>
3. 1</w>
2. 9</w>
2. 8</w>
2. 1</w>
2 70</w>
197 7</w>
194 4</w>
193 2</w>
19 00</w>
1. 25</w>
1 300</w>
0. 8</w>
0. 25</w>
默 罕</w>
黑 洞</w>
黎 明</w>
麻 木
麻木 不仁</w>
麦 当
鸟 类</w>
鲁 门</w>
魔 法</w>
高 阁</w>
高 谈
高谈 阔
高谈阔 论</w>
高 棉</w>
高 性价比</w>
高 危</w>
高 分</w>
高 企
马 首
马首 是
马首是 瞻</w>
马 力</w>
香 港
颗粒 物</w>
颇 受欢迎</w>
领 海</w>
领 会</w>
领 事
领事 馆</w>
预 警
预警 系统</w>
预 见
预见 性</w>
顶 点</w>
韩 朝</w>
韩 国政府</w>
面 额</w>
面 部队</w>
面 子</w>
面 值</w>
非法 活动</w>
非 贸易</w>
非 西方</w>
非 盟</w>
非 军事</w>
霍 华
霍华 德</w>
零售 业</w>
零 星</w>
雕 像</w>
集 团
雅 得</w>
难以 预料</w>
难以 忍受</w>
隧 道</w>
隐 秘</w>
随 便</w>
陷入 僵局</w>
陪 审
降 幅</w>
陆 上</w>
阿根 廷
阿尔巴 尼亚人</w>
阿勒 颇</w>
阿 鲁
阿 斯
阿 德
阿 列
阿 克
阴 谋
阴谋 论</w>
防 护</w>
闭 门</w>
门 户</w>
长 途
销 往</w>
销 商</w>
银行 信用</w>
铁 路
钦 佩</w>
金融 资本</w>
金 字
金字 塔</w>
重新 启动</w>
重 油</w>
重 担</w>
重 归</w>
重 写</w>
里 尼</w>
释 放
采取 有效</w>
都 柏林</w>
邦 联</w>
那 年</w>
那 州</w>
避免 出现</w>
避 孕</w>
遵 守
遵守 规则</w>
遗 留</w>
遍 布
通 吃</w>
通 关</w>
途 经</w>
透 支</w>
选 中</w>
逃 生</w>
适 龄</w>
适 用
适 宜</w>
送 给</w>
迫 于</w>
迪 瓦</w>
迪 人</w>
迥 异</w>
连 接
连 同</w>
违 规
违 宪</w>
远 大</w>
进口 量</w>
这 边</w>
这 股</w>
运 河</w>
过 敏</w>
过 山
过山 车</w>
过 境</w>
达 佩斯</w>
辽 阔</w>
边境 线</w>
辛 苦</w>
输 入
输入 国</w>
辈 子</w>
较 长</w>
载 体</w>
软 肋</w>
轮 流</w>
转 变成</w>
车 之
车之 鉴</w>
身 高</w>
身 影</w>
身 于</w>
身 一变</w>
蹴 而
蹴而 就</w>
跟 着</w>
跃 进</w>
足 额</w>
趋 向
趋向 于</w>
越来越 低</w>
超 市</w>
起义 军</w>
起 效</w>
赶 紧</w>
走 极端</w>
走 入</w>
走 下
赫 勒</w>
赢 回</w>
资金 流</w>
贷 给</w>
贷 款
贯 之</w>
购物 中心</w>
贫困 地区</w>
贪 污
账 目</w>
财政 支出</w>
财政 困难</w>
财 产权</w>
负 起</w>
负 荷</w>
负 有
负有 责任</w>
贝 鲁</w>
贝 尔斯</w>
贝 克</w>
谣 言</w>
谈 起</w>
谅 解</w>
调节 税</w>
诸 如
诸如 此类</w>
说 明
诱 发</w>
该 市</w>
该 地</w>
该 书</w>
诟 病</w>
诛 笔
诛笔 伐</w>
诊 疗</w>
识别 区</w>
识 字</w>
证 券市场</w>
讲 座</w>
记 账</w>
议 席</w>
讨 论
言 简
言简 意赅</w>
言 人</w>
触 目
触目 惊
触目惊 心</w>
触 底</w>
视 听</w>
视 之为</w>
规模 较</w>
规划 者</w>
规 范
观 者</w>
观 政策</w>
见 肘</w>
覆 灭</w>
要 数</w>
要 挟</w>
西 岸地区</w>
襟 见肘</w>
裂 变</w>
裁 判</w>
裁 减</w>
被 誉为</w>
衰 败</w>
补 救
补救 措施</w>
补 充
行政 部门</w>
行其 是</w>
行 程</w>
行 了</w>
衅 性</w>
蛊 惑</w>
虚 设</w>
虚 张
虚张 声势</w>
虚 乌有</w>
薄 冰</w>
蓬佩 奥</w>
蒙 混
蒙混 过关</w>
葬 送</w>
落 幕</w>
落 后
落 于</w>
萨 赫勒</w>
萨 维</w>
萨 拉
莱 特</w>
英 勇</w>
花 旗
节 性</w>
艺术 品</w>
船 长</w>
舰 队</w>
般 地</w>
致 命
自治 区</w>
自 诩</w>
自 灭</w>
自 作
臣 民</w>
腾 挪</w>
腾 出</w>
腰 带</w>
脱 口
胜 负</w>
背 离</w>
背 弃</w>
胆 敢</w>
肾 脏</w>
肥胖 率</w>
肚 明</w>
联邦储备 委员会</w>
联 想起</w>
聒 噪</w>
耕 地</w>
耐 烦</w>
而 皆准</w>
而 同</w>
而 合</w>
考虑 一下</w>
老 鼠</w>
老 一
老一 辈</w>
翻 版</w>
美国 联邦储备委员会</w>
美国 大使馆</w>
美国 国防部</w>
美 墨</w>
美 中
美中 关系</w>
罗 亚尔</w>
缺乏 经验</w>
缺 水</w>
缺 席</w>
编 程</w>
编 码</w>
维 护
维 加斯</w>
续 性</w>
继 续
继 之</w>
绘 制</w>
经济 特区</w>
经济 大国</w>
终 正
终正 寝</w>
纵 使</w>
纳 瓦尔</w>
纳 斯
纳 尔
纳尔 逊</w>
纪 录
纪录 片</w>
约 而同</w>
红色 高棉</w>
繁 衍</w>
精 密</w>
粮食 价格</w>
粗 俗</w>
米 哈
米哈 伊尔</w>
米 切尔</w>
管 控</w>
筹 措</w>
筹 划</w>
等 级
第二 阶段</w>
第二 位</w>
第一 线</w>
第一 类</w>
符合 中国</w>
笃 定</w>
笃 信</w>
竞 标</w>
立 特里
立特里 亚</w>
立 方
窃 听</w>
突 如其
突如其 来</w>
突 击</w>
穿 着</w>
空气 质量</w>
空 穴
空穴 来
空穴来 风</w>
穆 加
穆加 贝</w>
稻 草</w>
税 负</w>
税 款</w>
稀 释</w>
称 职</w>
积极 主动</w>
积 蓄</w>
科技 进步</w>
科 特
科特 迪瓦</w>
科 巴</w>
科 学院</w>
种 植
秉 承</w>
禁 毒</w>
禁 区</w>
神圣 不可</w>
社会 规范</w>
社会 学家</w>
社会 主义者</w>
硬 币</w>
矿 石</w>
石 头
石头 砸</w>
短 浅</w>
短 信</w>
知 觉</w>
知 肚明</w>
相 等</w>
相 差</w>
目 了
目了 然</w>
盗 取</w>
登 陆</w>
登 盛</w>
病 情</w>
疯 子</w>
疏 忽</w>
畸 形</w>
留 情</w>
留 学</w>
畅 通</w>
电 器</w>
甩 卖</w>
生命 周期</w>
生产 方式</w>
生 畏</w>
生 生</w>
生 殖
生 成</w>
瓦 尔斯</w>
瑞 士
琼 斯</w>
班加 罗尔</w>
珍珠 港</w>
玻利 瓦尔</w>
现代 科学</w>
现代 性</w>
现 政府</w>
环境 影响</w>
玩 具</w>
猛 进</w>
狱 中</w>
独立 战争</w>
独立 国家</w>
独 家</w>
狂 澜</w>
犯 有</w>
特 鲁
特 雷
特 纳</w>
物 质
牧 业</w>
版 权</w>
父 母亲</w>
燃 气</w>
煤 矿</w>
烈 士</w>
点 对
点对 点</w>
点 击</w>
炸 毁</w>
灾 后</w>
火药 桶</w>
火 车
漏 税</w>
满 怀
温 斯顿</w>
渐 远</w>
渎 职</w>
清晰 可见</w>
深 省</w>
涵 义</w>
涨 势</w>
涨 价</w>
消费 市场</w>
消耗 量</w>
海 牙</w>
波 利</w>
泡 影</w>
法国 社会党</w>
法兰 西</w>
沿 线</w>
治 安</w>
沥 青</w>
沃 夫</w>
江 山</w>
汉 堡</w>
汇 报</w>
求 职</w>
求 斯</w>
水 污染</w>
气 象
毫无 希望</w>
毫不 掩饰</w>
毛里 求斯</w>
比 前</w>
毒 枭</w>
毒 剂</w>
每 况
每况 愈
每况愈 下</w>
殖民 化</w>
残 留</w>
武 断</w>
此时 此刻</w>
此 为止</w>
正 视</w>
欣 喜</w>
模 范</w>
森 林
梳 理</w>
梅 德</w>
梅 尔</w>
桑 乔</w>
某 国</w>
果 敢</w>
枚 举</w>
极 难</w>
极 小</w>
束 之
束之 高阁</w>
杜 鲁门</w>
机 动
机动 车</w>
本 轮</w>
本 拉登</w>
期货 市场</w>
服 刑</w>
有 误</w>
有 线
有 成效</w>
有 多
有 可
有 制</w>
最 重</w>
最 差</w>
最 少</w>
最 出色</w>
替代 物</w>
曼 斯坦</w>
更 佳</w>
曲 解</w>
暗 物质</w>
晦 涩</w>
显 眼</w>
显 现出</w>
显 例</w>
是 处</w>
易 接受</w>
时间 推移</w>
时 髦</w>
日本 自卫队</w>
日 前</w>
日 关系</w>
既得 利益者</w>
既 成</w>
既 定
无限 量</w>
无穷 的</w>
无法 忍受</w>
无 补</w>
无 聊</w>
无 线
无 意识</w>
无 情
无 助</w>
方 才</w>
新 车</w>
新 低</w>
斯 雷</w>
斯 瓦
斯 宾
断 定</w>
文化 遗产</w>
文 职</w>
文 本</w>
数千 亿美元</w>
数十 个</w>
数 千年</w>
数 以</w>
数 万</w>
敌对 势力</w>
故 乡</w>
政治 舞台</w>
政治 局面</w>
放 过</w>
放 贷款</w>
放 之
放之 四海
放之四海 而皆准</w>
改 观</w>
支持 性</w>
播 放</w>
摩 湾</w>
摇 身一变</w>
摇 摆
摇摆 不定</w>
搭 建</w>
插 曲</w>
提 问</w>
提 振
推特 上</w>
推 算</w>
推 文</w>
推 动者</w>
接 手</w>
接 任</w>
捷 夫</w>
捐 献</w>
捉 襟见肘</w>
捉 摸</w>
挥 霍
挥 舞</w>
挣 钱</w>
挑 衅性</w>
按 时</w>
拷 打</w>
拱 手</w>
拨 付</w>
拨 乱
拨乱 反正</w>
拒 之
拒之 门外</w>
拉斯 维加斯</w>
拆 分</w>
抚 养</w>
抗 抑郁</w>
投票 表决</w>
抓 捕</w>
扩张 政策</w>
执行 者</w>
打 电话</w>
打 断</w>
手 机
手 指</w>
手 持</w>
所得 税率</w>
所 欠</w>
所 幸</w>
房地 产业</w>
房 间</w>
房 者</w>
战 俘</w>
成 不变</w>
戈 兰
戈兰 高地</w>
懦 弱</w>
愤 慨</w>
感染 者</w>
感 器</w>
愚 昧</w>
愚 不可及</w>
惧 怕</w>
惊 喜</w>
悬 念</w>
总 产值</w>
怪 诞</w>
怨 气</w>
性 地</w>
性 取向</w>
急 不可耐</w>
思 潮</w>
怀疑 者</w>
心怀 不满</w>
心 知肚明</w>
心 声</w>
德克 萨斯州</w>
德 米特里</w>
德 意志
得 意</w>
得 不
得不 偿
得不偿 失</w>
很久 以前</w>
很 深</w>
征 兆</w>
往 返</w>
往 事</w>
形 虫</w>
形 同
形同 虚设</w>
当地 人</w>
当 真</w>
当 权</w>
归 为</w>
弱 国</w>
引起 争议</w>
引人 入
引人入 胜</w>
弓 形虫</w>
异 教徒</w>
开 幕式</w>
建 国
廷 顿</w>
废 料</w>
底 里</w>
库 曼斯坦</w>
广泛 应用</w>
广 为</w>
幽 默</w>
幼 儿</w>
并 进</w>
并 肩
年 度
平 和</w>
干 部</w>
幌 子</w>
常任理 事国</w>
帷 幕</w>
希 曼</w>
希 德</w>
布 达佩斯</w>
布 斯</w>
巴 切</w>
巨大 进步</w>
工 厂
岁 入</w>
山 区</w>
履 薄冰</w>
尽 所能</w>
尽 其
尼罗 河</w>
就 行了</w>
尘 埃
尘埃 落定</w>
尔 邦</w>
小 的</w>
小 异</w>
小 小的</w>
尊重 人权</w>
将 领</w>
封 禁</w>
封 信</w>
寿 终正寝</w>
导 火
导 演</w>
导 师</w>
对 朝</w>
密集 度</w>
宽 恕</w>
容 易接受</w>
家 长
家 糊口</w>
家 务</w>
家 伙</w>
家 们</w>
宣 判</w>
实 话</w>
实 权</w>
宝 莱坞</w>
定 权</w>
定 于</w>
官 司</w>
宗 旨</w>
宏 观政策</w>
完 毕</w>
完 工</w>
安理 会
安理会 常任理事国</w>
安全 措施</w>
安 然</w>
安 娜</w>
安 保</w>
安 乐
安乐 死</w>
学前 教育</w>
学 金</w>
孤 儿</w>
字 眼</w>
子 虚乌有</w>
嫌疑 人</w>
嫌 疑</w>
始 终
妇 女
如 履薄冰</w>
好 斗</w>
好 友</w>
好 几
奴隶 制</w>
女 王</w>
奥巴 桑乔</w>
头 痛</w>
太 迟</w>
太 快</w>
天 平</w>
天 下</w>
大同 小异</w>
大 都市</w>
大 豆</w>
大 获</w>
大 法官</w>
大 气
大 哥</w>
大 吉</w>
大 吃
大吃 一惊</w>
大 受欢迎</w>
大 力度</w>
大 举</w>
多 条</w>
多 岁</w>
多 变</w>
复 国</w>
复 发</w>
墨西哥 城</w>
基础 性</w>
基督 教徒</w>
基督 教
基本 法</w>
基 斯</w>
城市 规划</w>
城市 群</w>
埋 葬</w>
垫 底</w>
坚 韧</w>
坏 处</w>
地 面部队</w>
地 质
地 站</w>
地 址</w>
在 必
圣 诞</w>
圣 彼得堡</w>
土 豆</w>
土 库曼斯坦</w>
图 斯</w>
国民 会议</w>
国有 银行</w>
国 境</w>
困 难性</w>
回 头
四 川</w>
四 名</w>
喜 不
喜不 喜欢</w>
喂 养</w>
唾 手可得</w>
唾 弃</w>
唯 恐</w>
哪 条</w>
哥伦比亚 政府</w>
哥伦比亚 大学</w>
哈里 里</w>
哈利 波</w>
呼 吸
周 旋</w>
告 急</w>
吸 毒者</w>
启 蒙</w>
听 任</w>
同 步
吉尔 吉
各 层次</w>
吃 紧</w>
可信 性</w>
可 惜</w>
可 兑换</w>
可 兑换
可兑换 性</w>
可 乐</w>
只 顾</w>
古 柯</w>
口 诛笔伐</w>
受 难</w>
发行 人</w>
发明 者</w>
发展 势头</w>
发人 深省</w>
发 觉</w>
发 放贷款</w>
反 转</w>
反 型</w>
双 胞胎</w>
友 人</w>
及 面</w>
去 核</w>
原 状</w>
原 定</w>
厉 害</w>
历 任</w>
厄 立特里亚</w>
印钞 机</w>
博士 学位</w>
博 科</w>
博 士</w>
卖 淫</w>
单 凭</w>
华 为</w>
千 里</w>
十分 相似</w>
十二 月</w>
十二 个</w>
十 月</w>
十 周年</w>
医 治</w>
医 师</w>
区 内</w>
匹 林</w>
匪 浅</w>
北 大西洋</w>
化 疗</w>
包 裹</w>
勒 冈
勒冈 州</w>
劳动 收入</w>
劳 资
劳 作</w>
加勒比 海</w>
加以 控制</w>
加 大力度</w>
办 公</w>
前 车之鉴</w>
刻 板</w>
刺 耳</w>
刺 激
制药 业</w>
制 片
到 此为止</w>
别 墅</w>
利亚 政府</w>
利 雅得</w>
利 润
利 桑
利 他
创造 性地</w>
创业 者</w>
创业 精神</w>
列 岛</w>
列 宁
切 割</w>
分裂 主义</w>
击 落</w>
出 错</w>
出 逃</w>
出 血</w>
出 名</w>
出 兵</w>
出 价</w>
凡 尔
几 无</w>
几 小时</w>
几 家</w>
几 千</w>
减 到</w>
决策 层</w>
决 定权</w>
决 不</w>
冰 雪</w>
农 村
内政 部长</w>
内政 部</w>
兼 顾</w>
兼 职</w>
养 家糊口</w>
兴旺 发达</w>
兴奋 剂</w>
兴 衰</w>
兴 旺</w>
关 上</w>
共同 行动</w>
共 产</w>
兰 德</w>
六 大</w>
六 倍</w>
公用 事业</w>
公开 信</w>
公 职人员</w>
公 益</w>
公 海</w>
公 告</w>
公 允</w>
全 能</w>
全 无</w>
全 年</w>
免 权</w>
克 曼</w>
光 辉</w>
先 是</w>
充分 条件</w>
充 沛</w>
假 象</w>
假 如</w>
债 国</w>
借款 者</w>
借 来</w>
信仰 者</w>
信 不疑</w>
保护 性</w>
保 全</w>
俄 勒冈州</w>
侧 面</w>
侥 幸</w>
依 存
作出 反应</w>
作 梗</w>
何 地</w>
体 量</w>
低 端</w>
低 劣</w>
伸 张</w>
伯 尼</w>
伤 痕</w>
传 播
传 感器</w>
会 起</w>
众 人</w>
休 战</w>
伊 核</w>
伊 德</w>
伊 利
伊 万</w>
任何 迹象</w>
任 人
价格 比</w>
价格 低廉</w>
仲 裁者</w>
以 较</w>
以 贯之</w>
以 待</w>
令人 窒息</w>
令人 激动</w>
令人 咋舌</w>
令人 厌恶</w>
代 谢</w>
代 言人</w>
仔细 观察</w>
从业 者</w>
介 意</w>
什 叶</w>
人权 记录</w>
人员 伤亡</w>
人 身</w>
人 生</w>
人 格
人 以</w>
亵 渎</w>
亮 点</w>
产业 界</w>
交通 运输</w>
交易 系统</w>
交换 条件</w>
亚 齐</w>
亚 利桑
亚 伯
五 国</w>
互 联
于 事
于事 无补</w>
二 者</w>
事 关
九 段</w>
乙 醇</w>
之 选</w>
之 窗</w>
之 最</w>
之 国</w>
之 三</w>
丹 尼尔</w>
临时 政府</w>
中间 人</w>
中国 银行</w>
中介 机构</w>
中 说</w>
中 等教育</w>
中 毒</w>
个人 电脑</w>
个人 化</w>
严 厉
两 样</w>
两 极</w>
两 度</w>
两 大
两 制</w>
两 份</w>
东 北</w>
世界 之最</w>
世 贸</w>
专家 组</w>
专 属</w>
不论 如何</w>
不胜 枚举</w>
不经 意</w>
不相 上下</w>
不堪 一击</w>
不同 之处</w>
不 约而同</w>
不 平</w>
不 为人知</w>
下 才</w>
下 层</w>
下 半叶</w>
下 决心</w>
下 会</w>
上 议院</w>
上 行</w>
上 游</w>
上 司</w>
三 十多年</w>
万 计</w>
七 国集团</w>
一般 而言</w>
一般 来说</w>
一般 性</w>
一无 是处</w>
一国 两制</w>
一 问</w>
一 蹴而就</w>
一 筹</w>
一 目了然</w>
一 段
一 桶</w>
一 栋</w>
一 旁</w>
一 成不变</w>
一 只眼</w>
一 千
一 则</w>
一 以贯之</w>
u m
u l
o v
o r</w>
l os</w>
i m</w>
g el</w>
av i</w>
ar i</w>
a y
a m</w>
You Tu
YouTu be</w>
SP D</w>
S T
Q E
PE C</w>
P r
P N
P ISA</w>
ME NA</w>
M e
M H
I II</w>
G 8</w>
FD P</w>
E n
E S</w>
CP I</w>
AM LO</w>
A l
A b
A C</w>
9. 11</w>
9 6</w>
9 11</w>
9 000</w>
8 7</w>
8 6</w>
6. 8</w>
2. 0</w>
2 40</w>
196 4</w>
17 0
0. 2</w>
齐 聚</w>
齐 头
齐头 并进</w>
齐 兹</w>
鼻 子</w>
黑 社会</w>
黑 天鹅</w>
黄金 价格</w>
鸡 蛋</w>
鲸 鱼</w>
鱼 群</w>
魔 咒</w>
高级 专
高 瞻
高瞻 远
高瞻远 瞩</w>
高 无上</w>
高 效率</w>
高 层
高 到</w>
高 低</w>
骚 动</w>
骑 士</w>
马尔 萨斯</w>
马其 顿
马 约</w>
马 格
马 古
马 佐
马佐 维
马佐维 耶
马佐维耶 茨基</w>
首 肯</w>
飞 速
颠 倒</w>
额 利润</w>
领导 权</w>
领头 羊</w>
领先 者</w>
领 教</w>
顾 忌</w>
顾 名
顾名 思
顾名思 义</w>
顺 应</w>
顺 便</w>
顶 部</w>
韦 捷夫</w>
靠 边
靠边 站</w>
非 正统</w>
非 为</w>
静 态</w>
震 中</w>
需 品</w>
雷 杰
雷杰 普</w>
雷 尔</w>
雨 水</w>
雇 佣
集 会
集会 自由</w>
雅 鲁
雅 虎</w>
雀 巢
雀巢 公司</w>
难以 预测</w>
难以 确定</w>
难以 克服</w>
难 过</w>
难 点</w>
难 得</w>
难 受</w>
难 关</w>
隐 喻</w>
陆 续</w>
阿鲁 纳</w>
阿根廷 政府</w>
阿拉伯 半岛</w>
阿姆 斯特
阿列 克
阿列克 谢</w>
阿 马</w>
阿 波
阿 以</w>
阻 击</w>
阶 梯</w>
防御 能力</w>
闻名 于世</w>
问 世</w>
问 一问</w>
门 人</w>
长 城</w>
铸 造</w>
钱 包</w>
钢铁 业</w>
钢 材</w>
鉴 定</w>
金 枪
金枪 鱼</w>
重重 困难</w>
重新 制定</w>
重大 损失</w>
重 型</w>
释放 出来</w>
采 集</w>
采 蝇</w>
酸 盐</w>
酷 刑</w>
配 偶</w>
都 拉斯</w>
那 般</w>
那 瓦</w>
那 儿</w>
那 位</w>
遵 照</w>
遮 羞
遮羞 布</w>
遗 症</w>
遗 址</w>
道德 观</w>
遍 地
遍地 开花</w>
遍 及</w>
逮 捕
造 出</w>
透明 化</w>
逊 于</w>
选举 人</w>
退 期</w>
追 究</w>
追 捧</w>
迫 辞职</w>
迪 奇</w>
迟 钝</w>
连 通</w>
违法 行为</w>
远 胜</w>
远 期</w>
远 之</w>
远 不如</w>
进口 商</w>
进口 产品</w>
进 税</w>
进 改革</w>
这 张</w>
这 则</w>
这 代人</w>
这 三大</w>
运输 成本</w>
运 动
迈 尔</w>
过 急</w>
过 得</w>
过 失</w>
过 多地</w>
达尔 文主义</w>
达 到
达 乌
达乌 德</w>
辩 称</w>
输 送到</w>
输 油
辅 导</w>
软 弱
软 件
轮 廓</w>
转 股</w>
转 嫁
转 到</w>
车 薪</w>
身 在</w>
踏 步</w>
踌 躇
跳 出</w>
路 里</w>
路 子</w>
跨 部门</w>
跨 越
跨越 国界</w>
跌 至</w>
跃 升</w>
足球 场</w>
趋 紧</w>
超 重</w>
起 始</w>
起 先</w>
起 伏</w>
赶 走</w>
走下 坡路</w>
走 弱</w>
赞 助者</w>
赛 义
资金 不足</w>
资源 管理</w>
资 银行</w>
费 尔
费尔 南
贴 现</w>
购买 者</w>
贫 乏</w>
货 运</w>
败 涂
败涂 地</w>
败 北</w>
财产 税</w>
负 反馈</w>
贝 隆</w>
贝 巴</w>
贝 尔</w>
豪 赌</w>
豁 免权</w>
谢 瓦尔
谢瓦尔 德
谢瓦尔德 纳
谢瓦尔德纳 泽</w>
谜 题</w>
谋 而合</w>
谋 划</w>
谈判 桌上</w>
谈 不上</w>
调查 报告</w>
调 研</w>
课 以</w>
说明 性</w>
说 纷
说纷 纭</w>
说 成</w>
说 家</w>
误 算</w>
该 行</w>
诗 歌</w>
评论 者</w>
证 书</w>
诀 窍</w>
论 不休</w>
许 多年</w>
记分 牌</w>
讯 息</w>
计划 署</w>
计 票</w>
计 时</w>
警 组织</w>
言不 讳</w>
言 乱
言乱 语</w>
言 下
言下 之意</w>
角 逐</w>
规 管</w>
规 矩</w>
观 测</w>
见 面</w>
见 影</w>
要 花</w>
西 方式</w>
西 太平洋</w>
西 北</w>
被 迫辞职</w>
衰 退期</w>
表 面
补 偿
街 日报</w>
行 驶</w>
血 红
蛊 惑
蛊惑 人心</w>
虫 病</w>
蕾 莎</w>
蕴 含
蕴含 着</w>
蓬 勃</w>
落后 地区</w>
落 落</w>
落 空</w>
落 体</w>
落 下</w>
萨 特</w>
营 业</w>
菲律 宾
菌 素</w>
莱 西</w>
莱 恩</w>
莫 测</w>
莫 拉</w>
莫 属</w>
英 雄
苦 果</w>
若 揭</w>
苏格 拉底</w>
花 园</w>
芝加 哥
节约 型</w>
艾哈迈 德</w>
良 心</w>
至 高无上</w>
至 终</w>
自由 落体</w>
自 私
自私 自利</w>
膳 食</w>
腐败 问题</w>
腐败 现象</w>
脱口 秀</w>
脑 儿</w>
能源 部</w>
能源 业</w>
胡 言乱语</w>
胡 斯尼</w>
胡 德</w>
胡 塞</w>
背 书</w>
胆 固醇</w>
肯 尼亚
肯尼亚 政府</w>
肤 色</w>
联合国 粮农组织</w>
联合 利
联合利 华</w>
联 动</w>
联 军</w>
职 工</w>
耶 西</w>
耳 不
耳不 闻</w>
耗 竭</w>
而无 不及</w>
而 远之</w>
而 返</w>
而 有之</w>
而 大受</w>
老 派</w>
群 众
羞 涩</w>
美好 生活</w>
美国 进口</w>
美国 法院</w>
美国 最高法院</w>
美国 司法部</w>
罗 姆</w>
网 页</w>
网 民</w>
缔 结</w>
缄 默</w>
绿 皮书</w>
维克 多</w>
维 茨基</w>
维 基
维 吾
统计 局</w>
统计 学家</w>
绝 无</w>
绕 开</w>
经济 学界</w>
经济 共同体</w>
经常 出现</w>
经 理人</w>
终 究</w>
纺 织</w>
纵 向</w>
纳吉 布</w>
纳 法
纳法 索</w>
约 定</w>
纤 维</w>
红 十字
红十字 会</w>
累 进税</w>
紧急 状况</w>
紧急 措施</w>
紧 紧
紧紧 抓住</w>
紧 接着</w>
精心 设计</w>
精 良</w>
精 简</w>
粗 鲁</w>
米 兰</w>
管理 体系</w>
签 名</w>
策略 性</w>
笼 子</w>
第二 步</w>
第二 条</w>
第三 支</w>
第一 手</w>
第一 家</w>
第 十
第 八</w>
第 七</w>
第 一份</w>
笔记 本
笔记本 电脑</w>
竿 见影</w>
竭 尽所能</w>
竞 技
竖 起</w>
立方 米</w>
立 竿见影</w>
窘 迫</w>
突 显</w>
突 发</w>
空 军基地</w>
穆 萨维</w>
稳 妥</w>
稀缺 资源</w>
稀缺 性</w>
稀 土</w>
称 霸</w>
称 性</w>
称 不上</w>
积极 支持</w>
积 如山</w>
科 米</w>
科 普
私 密</w>
私 下
私下 里</w>
禽 流感</w>
离心 离
离心离 德</w>
离心 机</w>
离 散</w>
禁 锢</w>
禀 赋</w>
祭 出</w>
票 数</w>
票 价</w>
神 宫</w>
社会 效益</w>
社会 变革</w>
社 区
礼 仪</w>
碳 化
碳化 物</w>
碰 巧</w>
研究 院</w>
石油 资源</w>
石油 工业</w>
知识 经济</w>
知 名
真实 性</w>
真 话</w>
真 菌</w>
看 得
盼 望</w>
相对 而言</w>
相关 者</w>
相 识</w>
相 伴</w>
直 言不讳</w>
盲 人</w>
目 光
目光 短浅</w>
盟 国家</w>
盛 会</w>
监管 部门</w>
盆 地</w>
皆 是</w>
的 斯
的斯 亚
的斯亚 贝巴</w>
白 色</w>
登 场</w>
病 痛</w>
疾 呼</w>
疏 散</w>
电子 游戏</w>
电子 产品</w>
电 能</w>
田 东</w>
用 意</w>
用 心</w>
生死 存亡</w>
生 性</w>
甜 叶
甜叶 菊</w>
甚 大</w>
瓜 葛</w>
理想 主义者</w>
球 菌</w>
珠 三角</w>
珍 妮
现实 生活</w>
现代 史</w>
玩 火</w>
猜 疑</w>
猛 然</w>
狮 子</w>
狂 潮</w>
犹太 复国</w>
状 病毒</w>
犯罪 集团</w>
犀 牛</w>
特鲁 多</w>
特雷 莎</w>
特殊 性</w>
特 许</w>
特 蕾莎</w>
特 律</w>
特 别
牢 靠</w>
牛 一
牛一 毛</w>
爸 爸</w>
爱 好
爱好 者</w>
爱 丽
爆炸 案</w>
熊 彼特</w>
照 明</w>
照 护</w>
煎 熬</w>
然 若揭</w>
然 拒绝</w>
焚 烧</w>
热 衷</w>
热 潮</w>
热 切
炸 机</w>
灵 巧</w>
灵 丹
灵丹 妙
灵丹妙 药</w>
灰 色</w>
潜 意识</w>
演 绎</w>
漏 洞
漏洞 百出</w>
满 足
滞 胀</w>
滔 滔
滑 入</w>
湄 公
湄公 河</w>
渐进 性</w>
渊 源</w>
清 醒
清 盘</w>
清 界限</w>
清 二
清二 楚</w>
混 合体</w>
深 受
深 化
深化 改革</w>
深 信不疑</w>
涉 及面</w>
消 融</w>
海 底</w>
海 军
海 中</w>
浪 费
流 血
流 派</w>
活 生生</w>
活 体</w>
洪 都拉斯</w>
洪 流</w>
洛 杉
洛 普</w>
洛 克
洗 衣
泽 民</w>
泰 党</w>
法兰 西
法 炮制</w>
沦 落</w>
沉重 负担</w>
沃 森</w>
江 泽民</w>
永 不</w>
水 车薪</w>
水 系统</w>
水 体</w>
氧化 剂</w>
氧 化</w>
民族 运动</w>
民族 英雄</w>
民族 自决</w>
民 事
氏 病</w>
毫不 留情</w>
比 皆是</w>
比 比皆是</w>
母 婴</w>
母 乳
母乳 喂养</w>
正 错误</w>
正 是如此</w>
正 向</w>
正 值</w>
歌 手</w>
歇 斯
歇斯 底里</w>
欧洲 经济共同体</w>
欧 文</w>
欢 庆</w>
模 棱
模棱 两可</w>
榜 首</w>
梅 纳德</w>
梅 内</w>
桎 梏</w>
格莱 布</w>
格 里</w>
核心 内容</w>
核 电厂</w>
柔 寡
柔寡 断</w>
枷 锁</w>
极 大
极 其
极其 重要</w>
板 块</w>
杰 哈德</w>
杰 克</w>
杯 水车薪</w>
权 有势</w>
杂 交</w>
机会 成本</w>
机 动</w>
本 年度</w>
本 可</w>
本 党</w>
末 尾</w>
末 尔</w>
未 有</w>
木 薯</w>
期 望
期望 值</w>
期 待
期待 已久</w>
期 内</w>
有过 之
有过之 而无不及</w>
有线 电视</w>
有 钱</w>
有 权有势</w>
有 敌意</w>
有 悖
有悖 于</w>
有 名</w>
最高 值</w>
最 长</w>
最 前沿</w>
曼 昆</w>
更 要</w>
更 慢</w>
更 多人</w>
暧 昧</w>
智 人</w>
景 观</w>
普遍 现象</w>
普通 百姓</w>
普及 率</w>
昭 然若揭</w>
时 代
早 晨</w>
早 年</w>
日程 表</w>
日本 式</w>
既 成
既成 事实</w>
无法 无
无法无 天</w>
无情 地</w>
无可 救药</w>
无 神
无 睹</w>
无 期</w>
无 懈
无懈 可
无懈可 击</w>
无 影
无 异</w>
无 奈</w>
无 功
无功 而返</w>
无 力
施 舍</w>
方 药</w>
新闻 标题</w>
新 颖</w>
斯宾 塞</w>
斯 斯坦</w>
斯 文
断 绝</w>
断 然拒绝</w>
断 力</w>
文化 差异</w>
文化 冲突</w>
文 盲</w>
文 明
敲 诈</w>
敲 定</w>
数百 亿美元</w>
数据 保护</w>
数以 亿
数以亿 计</w>
敬 而远之</w>
敬 畏</w>
散 发</w>
教育 领域</w>
敌 方</w>
效 法</w>
政治 局势</w>
政府 军</w>
政 敌</w>
改革 家</w>
收 窄</w>
收 税</w>
收 敛</w>
收 受</w>
支 付
播 下</w>
摩 天
搬 迁</w>
搞 错</w>
搜 寻</w>
援 助
援助 国</w>
握 手</w>
提 早</w>
提 上</w>
推 手</w>
推 定</w>
推 升</w>
推 举</w>
控制 系统</w>
控 股</w>
接受 者</w>
探 底</w>
排 外
排外 主义</w>
掌 声</w>
挽 狂澜</w>
挥霍 无度</w>
持久 战</w>
持 股</w>
拿 下</w>
拦 截</w>
拟 定</w>
拉克 马</w>
拉 开</w>
拉 合
拉合 尔</w>
拉 伊</w>
担 负起</w>
抽 象
抽 出</w>
押 注</w>
抱有 幻想</w>
抬 升</w>
折 旧</w>
折 不
抗 菌素</w>
抗 氧化剂</w>
投 身</w>
投 下</w>
抓 紧</w>
抑 制
承 载</w>
承 压</w>
扬 言</w>
扫 描</w>
扩张 主义</w>
执 业</w>
扣 押</w>
打 通</w>
打 击
手 表</w>
手 来</w>
所 称</w>
所 涉</w>
所 有制</w>
战略 武器</w>
战略 思维</w>
战略 地位</w>
战略 决策</w>
戒 烟</w>
成本 上升</w>
懒 惰</w>
懒 得</w>
慎 之又
慎之又 慎</w>
慈善 家</w>
愿 违</w>
愤 世
愤世 嫉
愤世嫉 俗</w>
感到 高兴</w>
感 冒</w>
愈 发</w>
惯 用</w>
情 商</w>
悄 然</w>
恶 魔</w>
恶 意
恰 如其
恰如其 分</w>
息 贷款</w>
恢复 过来</w>
恢复 正常</w>
恐惧 症</w>
总 司令</w>
总 协定</w>
总 供给</w>
怪 圈</w>
性 生活</w>
性 关系</w>
急 性</w>
怀 有敌意</w>
必 需品</w>
心 想</w>
德意志 银行</w>
德克 萨斯</w>
德 鲁兹</w>
德 集团</w>
德 拉克马</w>
得 利</w>
得 体</w>
很 能</w>
待 解决</w>
征 用</w>
彭 斯</w>
形 状</w>
录 音</w>
录 像</w>
当 属</w>
当 口</w>
强硬 态度</w>
强加 于</w>
强 人意</w>
强 于</w>
弗朗 西斯</w>
弗 林</w>
弊 病</w>
弄 错</w>
异 化</w>
开 除</w>
开 立</w>
开 幕</w>
开 口</w>
建筑 物</w>
建国 以来</w>
延 后</w>
废 气</w>
底 特律</w>
应 税</w>
庆 贺</w>
广泛 支持</w>
广 为人知</w>
并肩 作战</w>
并不 等于</w>
并不 知道</w>
并不 相同</w>
年 限</w>
年 长者</w>
年 薪</w>
年 率</w>
年 复
年复 一年</w>
平等 主义</w>
平均 工资</w>
平均 值</w>
平 民
平 凡</w>
帽 子</w>
常规 武器</w>
席 尔
席尔 瓦</w>
带 头
帖 子</w>
帕 特尔</w>
帕 斯
帕 克
布 尔
布 基
布基 纳法索</w>
巴 斯克</w>
巴 德</w>
巴 克</w>
已 达</w>
差 强人意</w>
工资 收入</w>
工厂 化</w>
工 会
巅 峰</w>
崩 塌</w>
居 尔</w>
尽 失</w>
尔 塔</w>
小 学生</w>
小 丑</w>
将 来临</w>
射 击</w>
导火 索</w>
对 话
对 称性</w>
对 前</w>
寡 人</w>
富 足</w>
密 不可
密不可 分</w>
家 门口</w>
家 畜</w>
家 政</w>
家 寡人</w>
家 具</w>
宪 会议</w>
宣 示</w>
实 属</w>
官 邸</w>
完全 相同</w>
完 美
安全 套</w>
安 纳
宇 航
学术 研究</w>
学 龄
学 说</w>
孤 家寡人</w>
孤 军
季 节性</w>
存 续</w>
嫉 妒</w>
威慑 力</w>
威 斯
威 夷</w>
姊 妹</w>
如 法炮制</w>
如 愿</w>
好 感</w>
好 奇</w>
好 人</w>
奥林匹 克
奥斯 曼</w>
奥 夫</w>
奢 望</w>
奢 华</w>
奋 起</w>
奋 战</w>
奇 特</w>
失业 工人</w>
失 学</w>
失 为</w>
天 赐</w>
天 花</w>
天 分</w>
天 候</w>
大肆 宣传</w>
大幅度 提高</w>
大大 减少</w>
大 胜</w>
大 灾难</w>
大 海</w>
大 户</w>
大 声
大声 疾呼</w>
大 同</w>
多种 形式</w>
多 长时间</w>
多 一点</w>
外汇 管制</w>
外交 活动</w>
外交 人员</w>
外 面</w>
外 援</w>
夏 威夷</w>
复 活</w>
复 性</w>
复 合</w>
复 兴
复 仇
复仇 主义</w>
处 死</w>
处 方药</w>
声 名
壮 举</w>
境 遇</w>
境 线</w>
塔吉 克斯坦</w>
堆 积如山</w>
基 线</w>
基 督</w>
城镇 化</w>
城 乡</w>
埋 下</w>
埃 沃</w>
埃 及
埃及 政府</w>
坦 然</w>
坦 承</w>
坚 强</w>
坎 帕拉</w>
坍 塌</w>
均 值</w>
地方 性</w>
地区 冲突</w>
地 球
地 处</w>
地 去</w>
地 以</w>
地 上</w>
在所 难免</w>
在必 行</w>
在 校</w>
土 著
圈 套</w>
国际 刑
国际刑 警组织</w>
国 营企业</w>
国 情
国 境线</w>
囹 圄</w>
围 墙</w>
困 于</w>
因 果</w>
回头 路</w>
回 暖</w>
回 响</w>
四 射</w>
囊中 羞涩</w>
噪 音</w>
嘲 弄</w>
喝 彩</w>
商务 旅行</w>
商业 机会</w>
商 学院</w>
售 出</w>
售 价</w>
哺 育</w>
哮 喘</w>
咨 文</w>
和平 时期</w>
咆 哮</w>
命 脉</w>
周 日</w>
启 发
君主 制</w>
君 子</w>
向 南</w>
向 东</w>
后 遗症</w>
后 天</w>
后 备</w>
名 额</w>
同 谋</w>
同 等
同 伴</w>
同 一
吉尔吉 斯斯坦</w>
合作 方</w>
合 资企业</w>
合 意</w>
合 众
合众 国</w>
各 路</w>
吃 掉</w>
司法 部长</w>
可 循</w>
可 供</w>
只 靠</w>
只 用</w>
另一 回事</w>
另 一家</w>
口 吻</w>
变 革
变 换</w>
变 坏</w>
受 雇</w>
受 贿</w>
受 灾
受 审</w>
受 助</w>
取 舍</w>
发表 意见</w>
发展 壮大</w>
发 起
发 出
反 革命</w>
反 托
反 射</w>
反 射
反 导</w>
反 其
反 作用</w>
双 轨</w>
双 眼</w>
参 战</w>
原子 能</w>
原 油价格</w>
压 得</w>
即 逝</w>
即 将来临</w>
即 使
即使 如此</w>
危 急</w>
印 记</w>
印 刷
卫生 部门</w>
卫生 部长</w>
卫星 电视</w>
卡拉 奇</w>
卡 路里</w>
卡 斯</w>
博 彩</w>
南 方
单 向</w>
协同 效应</w>
华尔 街日报</w>
华 州</w>
半 壁
升 迁</w>
十分 明确</w>
十 六</w>
医药 费</w>
北极 圈</w>
北 溪</w>
匆 忙</w>
勾 销</w>
募 集</w>
勇 于</w>
势 在必行</w>
劳 斯</w>
努 特</w>
动 辄</w>
动 荡
动 手</w>
动 向</w>
务 农</w>
加 尔
功 能性</w>
力 挽狂澜</w>
力 学</w>
割 礼</w>
副 行长</w>
剑 桥</w>
制 高点</w>
制 衣</w>
制 服</w>
制 宪会议</w>
别 提</w>
利库 德集团</w>
利库 德</w>
利害 关系</w>
列宁 主义</w>
列 颠</w>
列 车</w>
划 清界限</w>
划 时代</w>
刑 罚</w>
切 中
切中 要害</w>
分离 主义</w>
出版 物</w>
出 格</w>
出 力</w>
出 其</w>
出 众</w>
出 乎</w>
凯 末尔</w>
凯 南</w>
凡尔 赛</w>
几十 亿</w>
几 百万</w>
几 千年</w>
几 分钟</w>
减 速
减 灾</w>
冷 淡</w>
决策 机构</w>
冲击 波</w>
冬 奥会</w>
再 造</w>
再 有</w>
内 乱</w>
兼 而有之</w>
典 礼</w>
具体 措施</w>
具体 情况</w>
具体 地说</w>
其 间</w>
其 害</w>
其 咎</w>
关键 技术</w>
兰 特</w>
六 世纪</w>
公司 股票</w>
公共 场合</w>
公 交
全面 战争</w>
全 盘
全 权</w>
全 天候</w>
党 专政</w>
克里 斯</w>
克 雅</w>
光 鲜</w>
光 环</w>
先 行者</w>
充满 信心</w>
充分 考虑</w>
兀 鹫</w>
僵 硬</w>
债 转股</w>
修 辞</w>
信息 处理</w>
信心 危机</w>
信任 感</w>
信 件</w>
保持 良好</w>
保 单</w>
俄罗斯 联邦</w>
俄 语</w>
俄 美</w>
便 捷</w>
侯 选人</w>
依 附</w>
供 给
供 求</w>
使用 权</w>
佩 戴</w>
佣 金</w>
住 宿</w>
低 速</w>
低 息贷款</w>
低 头</w>
但 他
但他 却</w>
伪 造</w>
传 送</w>
伟 人</w>
优先 权</w>
优 步</w>
优 柔寡断</w>
众 说纷纭</w>
众 筹</w>
众 人皆知</w>
休 眠</w>
伊斯兰 堡</w>
伊 夫</w>
企业 主</w>
仿 制</w>
份 量</w>
以 至</w>
以 极</w>
令人 欣慰</w>
令人 兴奋</w>
代 之以</w>
付 息</w>
他 命</w>
从那 时起</w>
从 此以后</w>
人类 文明</w>
人民 代表大会</w>
人文 学科</w>
人 际
人 行</w>
人 流</w>
人 比</w>
人 死于</w>
人 性化</w>
人 一等</w>
亲密 关系</w>
亨 廷顿</w>
产 假</w>
交通 拥堵</w>
交 火</w>
交 付</w>
亟 待解决</w>
亟 待</w>
亚美 尼亚人</w>
亚太 经合组织</w>
亚 的斯亚贝巴</w>
五年 期</w>
五 十</w>
互相 冲突</w>
互 通</w>
互 相矛盾</w>
事关 重大</w>
事 者</w>
事 与
事与 愿违</w>
争议 性</w>
争夺 战</w>
争 论不休</w>
争 取
了 之</w>
乱 伦</w>
买 账</w>
买 得起</w>
买 不起</w>
九 牛一毛</w>
乍 得</w>
之 火</w>
之 母</w>
之 数</w>
之 士</w>
之 友</w>
之 低</w>
之 位</w>
举 足轻重</w>
主导 型</w>
主导 作用</w>
主 食</w>
主 观</w>
主 办
为 难</w>
为 过</w>
为 名</w>
中国 外交部</w>
中 非</w>
中 所起</w>
中 年</w>
中 小型</w>
个人 行为</w>
个 案</w>
严 肃
两大 阵营</w>
两 面</w>
两 轮</w>
两 端</w>
两 地</w>
东 盟国家</w>
专利 申请</w>
丑 恶</w>
不良 后果</w>
不能 不</w>
不相 干</w>
不得 已</w>
不尽 人意</w>
不同 点</w>
不可 不</w>
不 问</w>
不 谋而合</w>
不 见
不 罚</w>
不 绝</w>
不 稳</w>
不 曾</w>
不 失为</w>
不 便</w>
不 以为
不 以</w>
下 风</w>
下 落</w>
下 结论</w>
下 放</w>
下 挫</w>
下 周</w>
下 列</w>
上 街</w>
上 网</w>
上 升
三 天</w>
三 十</w>
万 张</w>
一股 脑儿</w>
一步 步</w>
一半 左右</w>
一 页</w>
一 面
一 败涂地</w>
一 职</w>
一 票</w>
一 清二楚</w>
一 派</w>
一 杯</w>
一 期</w>
一 扇</w>
一 愿景</w>
一 头</w>
一 千年</w>
一 剂</w>
一 到</w>
一 书中</w>
一 举</w>
u s
u l</w>
t o</w>
t a</w>
o h
l a</w>
ic a</w>
i m
i e</w>
i d</w>
an d
a h
U G
T r
SW IF
SWIF T</w>
S NC
SNC F</w>
S C
P S</w>
P R
P M
N TC</w>
H E</w>
G avi</w>
G A
EC T</w>
E M
E ID</w>
E A</w>
D F</w>
CR A</w>
CD U</w>
CB O</w>
CA FTA</w>
C as
C OP
BRCA 2</w>
BRCA 1</w>
B S</w>
A nd
A m
A S</w>
9 4</w>
9 3</w>
8 .5</w>
6. 9</w>
6. 7</w>
6. 4</w>
6. 3</w>
4. 6</w>
4 0
3 60</w>
3 20</w>
2 P</w>
196 6</w>
196 5</w>
193 7</w>
193 6</w>
190 7</w>
19 10</w>
19 0</w>
17 .
1 6
1 4
1 24</w>
1 200</w>
1 100</w>
0. 0
默默 无
默默无 闻</w>
默 默</w>
黑 海</w>
黄 禹
黄禹 锡</w>
黄 油</w>
麦 隆</w>
麦 迪
麦迪 逊</w>
麦 地
麦地 那</w>
麦 卡
鲜 为人知</w>
鲍 里斯</w>
鲁 莽
鲁 法</w>
鲁 拉</w>
魔 术</w>
魔 力</w>
鬼 城</w>
高 院</w>
高 附加值</w>
高 筑</w>
高 污染</w>
高 歌
高歌 猛进</w>
高 枕
高枕 无
高枕无 忧</w>
高 望
高望 重</w>
骨 头</w>
驾 车</w>
马古 富
马古富 力</w>
马 达
马达 加
马达加 斯加</w>
马 琳</w>
马 格</w>
马 来</w>
马 尔</w>
马 丁</w>
香 肠</w>
首 屈
首屈 一
首屈一 指</w>
饮 酒</w>
饥 渴</w>
飞速 发展</w>
飞 速</w>
飞 跃</w>
飞 涨</w>
飞 往</w>
飘 忽
飘忽 不定</w>
风险 投资</w>
风 度</w>
颠 簸</w>
颇 受</w>
领土 问题</w>
领 略</w>
预测 值</w>
预 备</w>
预 估</w>
顿 大学</w>
音 机</w>
鞑 靼
鞑靼 人</w>
革 热</w>
面 向
非营 利性</w>
非洲 之
非洲之 角</w>
非常 明显</w>
非 盈利</w>
静 默</w>
静 下来</w>
青 蒿
青蒿 素</w>
雷 茨</w>
零 点</w>
集团 公司</w>
难以 解决</w>
难以 捉摸</w>
隆 迪</w>
陷 囹圄</w>
险 胜</w>
附 庸</w>
阿波 罗</w>
阿拉 斯加</w>
阿尔 茨
阿尔茨 海
阿尔茨海 默</w>
阿姆斯特 丹</w>
阿 齐兹</w>
阿 瑟</w>
阿 基
阿基 诺</w>
阿 利</w>
阿 什</w>
阴 云</w>
防 范
防范 措施</w>
门 事件</w>
长途 跋涉</w>
长 途</w>
长 足
长 篇
长 串</w>
锦 标
锦标 赛</w>
错 位</w>
锈 带</w>
链 接</w>
铺 张
铺张 浪费</w>
铁 杆</w>
钱 来</w>
金 森
重 金</w>
重 道
重道 远</w>
重 开</w>
重 庆</w>
重 合</w>
重 力</w>
重 债国</w>
里 斯坦</w>
里 德</w>
里 尔</w>
里 士
里士 多德</w>
采 掘</w>
醒 悟</w>
酸 化</w>
酷 热</w>
酗 酒</w>
酒 吧</w>
酒 令</w>
配 套</w>
配 备</w>
酋 长</w>
郎 普</w>
邪 恶
遥遥 无期</w>
道而 行
道而行 之</w>
道德 规范</w>
道 院</w>
遏 止</w>
遍布 全国</w>
遍 地</w>
逮捕 令</w>
造 访</w>
造 船</w>
造 势</w>
通用 汽车</w>
通 牒</w>
递 增</w>
逐 流</w>
透明 性</w>
透 顶</w>
选举 权</w>
逃 出</w>
适用 范围</w>
适应 力</w>
适 于</w>
退 去</w>
迷 信</w>
迷 人</w>
迪 顿</w>
迪 拉</w>
迟 到</w>
连接 起来</w>
连 海</w>
远 处</w>
远 古</w>
远 为</w>
进口 税</w>
进 驻</w>
进 取
这 波</w>
这 批</w>
这 么
这 两点</w>
这 一下</w>
返 还</w>
近 距离</w>
近 在
迈 克</w>
过渡 政府</w>
过 错</w>
过 量</w>
过 早
过早 地</w>
过 其实</w>
辛 勤
输 给</w>
输 电</w>
载 道</w>
轻 率</w>
轰 炸机</w>
轮 状病毒</w>
轮 机</w>
转 账</w>
转 动</w>
车 祸</w>
身 陷囹圄</w>
身 手</w>
身 患</w>
身 心</w>
踪 影</w>
路 障</w>
路 德</w>
距 今</w>
跌 去</w>
跌 价</w>
足球 比赛</w>
足 量</w>
越 境</w>
超 然</w>
超 标</w>
超 强</w>
超 前</w>
起 起
起起 落落</w>
起 家</w>
赵 连海</w>
走 路</w>
走 私
走 投
走投 无
走投无 路</w>
赫 尔</w>
赞 比亚</w>
赞 助
赛 克斯</w>
赎 金</w>
资本 积累</w>
资 历</w>
贾 帕克
贾帕克 萨</w>
贾 尼</w>
贸 总协定</w>
贸 区</w>
贴 近</w>
购 房者</w>
货币 主义</w>
货 运
财 力</w>
贝尔 格莱
贝尔格莱 德</w>
贝 京</w>
豪 华</w>
豪 华
谬 论</w>
谋 杀
谈 成</w>
调 解
谁 错</w>
课 本</w>
读 过</w>
诺 斯
诺斯 艾
诺斯艾 利斯</w>
诸 脑</w>
请 愿</w>
请 愿
请愿 书</w>
说 教</w>
误 差</w>
语 调</w>
语 气</w>
该 片</w>
试 验
试 问</w>
试 者</w>
试 探</w>
词 典</w>
识 字
识字 率</w>
证 件</w>
证 人</w>
许 多
记忆 犹
记忆犹 新</w>
议 论</w>
讨论 会</w>
计算机 技术</w>
计算 能力</w>
计 数</w>
警 卫队</w>
誉 度</w>
言 过其实</w>
言 耸
言耸 听</w>
解 救</w>
觊 觎</w>
觉 到</w>
视 觉</w>
规 章</w>
见 于</w>
见 不
见不 鲜</w>
覆盖 范围</w>
要 紧</w>
西 半球</w>
裤 腰带</w>
被 忽略
被忽略 了</w>
表 演
补 救</w>
行使 权力</w>
行为 人</w>
行 榜</w>
行 将
行 凶</w>
血红 蛋白</w>
蜜 月</w>
蛮 横</w>
藉 此</w>
蕴 藏</w>
蒙 上</w>
葡萄 酒</w>
落 千
落千 丈</w>
萨拉 热
萨拉热 窝</w>
萨 林</w>
萨 拉</w>
萦 绕</w>
营 运</w>
营 地</w>
菲律宾 人</w>
菲 兹</w>
获得 胜利</w>
获 释</w>
获 益
莱 茵
莱茵 河</w>
莫 不</w>
药 物
荡 然无
荡然无 存</w>
荒 芜</w>
茁 壮
茁壮 成长</w>
英 迪拉</w>
英 拉</w>
英 吉
英吉 利
英吉利 海峡</w>
苦 涩</w>
花 八
花八 门</w>
芝加哥 大学</w>
节省 下来</w>
节 节
艳 羡</w>
良 药</w>
舰 艇</w>
航空 母
航空母 舰</w>
航空 业</w>
航 母</w>
舞 蹈</w>
致命 性</w>
致 敬</w>
致 力</w>
自 贸区</w>
自 认</w>
自 行其是</w>
自 生
自生 自灭</w>
自 救</w>
自 律</w>
自 卫
膏 肓</w>
腐 烂</w>
腐 朽</w>
脸 面</w>
脱 轨</w>
脚 下</w>
胡 作
胡作 非为</w>
胡 佛</w>
胜 仗</w>
胜 于</w>
胜 于
胜 一筹</w>
肩 上</w>
肥 皂
肇 事者</w>
联合 体</w>
职 权</w>
耸 人听闻</w>
耐 用</w>
而 成</w>
而 广
而广 之</w>
而 复
群 结
群结 队</w>
美国 电话
美国电话 电
美国电话电 报
美国电话电报 公司</w>
美国 民主党</w>
美国 大学</w>
美 妙</w>
美 以</w>
罪 于</w>
罢 免</w>
罗 拉
罔 顾</w>
网络 战</w>
罂 粟</w>
编 造</w>
编 写</w>
缓冲 国</w>
绿 化</w>
维基 百
维基百 科</w>
维吾 尔
结 出</w>
绑 定</w>
经济 运行</w>
经济 过热</w>
经济 带</w>
经济 史</w>
经 纪
经 由</w>
经 受
经受 考验</w>
经 久
经久 不
经 不起</w>
绅 士</w>
练 习</w>
线 教育</w>
纺织 业</w>
纳 赛尔</w>
纳 斯</w>
纯 一</w>
约 会</w>
纠 正错误</w>
索 赔</w>
索 偿</w>
素 食
系统 地</w>
糊 涂</w>
精神 领袖</w>
精神 障碍</w>
精神 分裂
精神分裂 症</w>
粗 放</w>
类 药物</w>
米 尔
篇 章</w>
管理 系统</w>
管理 模式</w>
管理 制度</w>
管 线</w>
签 订
签 发</w>
筹 备</w>
等级 制度</w>
等 同</w>
等 价</w>
第四 季度</w>
符 其实</w>
端 的</w>
竞技 场</w>
站 得
站得 住脚</w>
立 者</w>
立 大学</w>
突发 事件</w>
突 进</w>
穿 戴</w>
空 想</w>
稳定 增长</w>
税 项</w>
税 费</w>
稀 松</w>
积极 分子</w>
租 赁</w>
秘书 处</w>
秘 方</w>
科研 机构</w>
科 鲁兹</w>
科 罗拉
科 恩</w>
科 尔
种 部队</w>
种 下</w>
秋 季</w>
私 隐</w>
私 生活</w>
福 萨</w>
禁 酒令</w>
禁 脔</w>
禁 核</w>
神经 系统</w>
神 职人员</w>
神 学</w>
社会 群体</w>
社会 关系</w>
社 论</w>
示 弱</w>
确 有</w>
确 保
确保 安全</w>
破 除</w>
石油 业</w>
短 语</w>
矛 盾
瞬 间</w>
督 促</w>
着 想</w>
眼 镜</w>
真 有</w>
真 想</w>
真 切</w>
真 人
真人 秀</w>
看得 见</w>
看 过</w>
看 做</w>
看 不
相互 竞争</w>
相互 指责</w>
相互 影响</w>
相 貌</w>
相 向</w>
直 线</w>
直 击</w>
盲 点</w>
盲 从</w>
目 标
目 录</w>
盛 宴</w>
监 护</w>
盎 司</w>
皮 科</w>
百 计</w>
百 孔</w>
白 领</w>
登 革热</w>
痛 绝</w>
症 下
症下 药</w>
病 毒
病 入
病入 膏肓</w>
疲力 尽</w>
疲 于</w>
疮 百孔</w>
略 低于</w>
留 心</w>
留 学生</w>
留 下来</w>
畅 销
男 青年</w>
电视 机</w>
电视 屏幕</w>
电 气</w>
电 商</w>
电 价</w>
申请 者</w>
由 前</w>
用 武
用武 之地</w>
用 地</w>
生育 权</w>
生物 科技</w>
生物 学家</w>
生活 水准</w>
生存 环境</w>
生命 科学</w>
生产 线</w>
生 病</w>
生 之年</w>
甚 嚣
甚嚣 尘
甚嚣尘 上</w>
瓦 鲁法</w>
瓦 那</w>
瑞典 人</w>
琴 家</w>
理 石</w>
珍 贵</w>
现金 支付</w>
现行 制度</w>
现实 状况</w>
现实 意义</w>
现 正</w>
现 政权</w>
现 在
现在 起</w>
环境 因素</w>
玫 瑰</w>
王 毅</w>
献 身</w>
猜 想</w>
狭 义</w>
独立 党</w>
独 岛</w>
狐 狸</w>
犯罪 活动</w>
犬 类</w>
特 郎普</w>
特 赦</w>
特 许
特 种部队</w>
特 梅尔</w>
牲 口</w>
物 力</w>
牟 利</w>
片 中</w>
爱尔 兰
爱 泰党</w>
爱 德
燃 机</w>
熟练 工人</w>
照 搬</w>
然大 物</w>
焦 头
焦头 烂
焦头烂 额</w>
烹 饪</w>
热切 地</w>
热 点
热 息
热息 痛</w>
热 化</w>
烧 毁</w>
烟草 业</w>
烟 民</w>
烈 地</w>
点 位</w>
灾 民</w>
激进 派</w>
激 愤</w>
漫 着</w>
演 化
漓 尽
漓尽 致</w>
漏 油</w>
满怀 希望</w>
满 怀</w>
滞 留</w>
滞 涨</w>
滔滔 不绝</w>
湿 地</w>
游 离</w>
渭 分明</w>
温 室
温室 效应</w>
渗 入</w>
渔 利</w>
清 迈</w>
清 教徒</w>
深受 其害</w>
深入 人心</w>
深 恶
深恶 痛绝</w>
深 圳</w>
深 切</w>
淡 无
淋 漓尽致</w>
液 化</w>
液 体</w>
消费 国</w>
消 息
海湾 合作
海湾合作 委员会</w>
海 滩</w>
海 军基地</w>
海 事</w>
浦 东</w>
浓 厚
浓厚 兴趣</w>
浑 身
流动 资产</w>
洛杉 矶</w>
洋 洋
泾 渭分明</w>
泰 爱泰党</w>
泰 尔</w>
波 澜
波 恩</w>
波 利
法兰西 共和国</w>
法 学</w>
法 军</w>
沿 用</w>
油 砂</w>
没 多大</w>
沙 拉</w>
沉 睡</w>
沉 浸</w>
沉 沦</w>
沃尔 克</w>
汹 汹</w>
汇 率
求 学</w>
水 门事件</w>
水 电站</w>
水 火
水 文</w>
水 力</w>
水 中</w>
民间 组织</w>
民族 和解</w>
民主 思想</w>
民主 主义</w>
毫不 费力</w>
毗 邻</w>
比 为</w>
毒 瘾</w>
毒 害</w>
毒 品
毒品 走私</w>
母 鸡</w>
殖民 统治</w>
死 板</w>
歪 曲
歪曲 事实</w>
武器 化</w>
步 行</w>
止 痛
欠 发达国家</w>
橄榄 枝</w>
横 财</w>
横 溢</w>
模 块</w>
森林 保护</w>
棋 盘</w>
检察 长</w>
桑 迪</w>
桑 托</w>
格雷 厄
格雷厄 姆</w>
格 雷</w>
格 陵
格 哈德</w>
根本 就是</w>
核 算</w>
核 大国</w>
核 军备</w>
栖 身</w>
树 林</w>
标 的</w>
标 明</w>
柳 叶
柳叶 刀</w>
查 戈
查戈 斯</w>
染 指</w>
柏 拉
柏拉 图</w>
枪 决</w>
极大 地
极大地 提高</w>
极 快</w>
极 强</w>
极 了</w>
来 不及</w>
条 线</w>
条 新闻</w>
杜 达</w>
杜 瓦</w>
村 落</w>
李 嘉
权 保护</w>
机 票</w>
本 笃</w>
本 世纪
未 获</w>
未 晚</w>
未 受</w>
期 日</w>
朝鲜 政府</w>
朝 圣
朝圣 者</w>
有机 体</w>
有可 无</w>
有 钱
有 违</w>
有 色
有 生之年</w>
有 染</w>
有 三大</w>
月 间</w>
月 球</w>
最高 点</w>
最 慢</w>
最 后
最后 通牒</w>
曾 多次</w>
更 贵</w>
更 弱</w>
更 多
暴 露无遗</w>
暴 发</w>
智 利人</w>
普罗 迪</w>
普及 教育</w>
普 鲁
普 罗</w>
普 兰</w>
晚 近</w>
晚 期</w>
是 乎</w>
春 季</w>
星期 日</w>
昔 底</w>
易 得</w>
明智 之举</w>
明 了</w>
早 日</w>
日 美</w>
日 军</w>
日 产</w>
无法 自拔</w>
无影 无
无影无 踪</w>
无家可 归
无家可归 者</w>
无可 争议</w>
无 阻</w>
无 线</w>
无 私</w>
无 损</w>
无 形资产</w>
无 名</w>
无 价</w>
无 从
旋 律</w>
旁 观者</w>
施加 影响</w>
施 政</w>
方 程</w>
方 程
方 略</w>
新兴 力量</w>
新 机制</w>
新 意</w>
新 娘</w>
新 奇</w>
新 古典
新古典 主义</w>
新 债</w>
新 世纪</w>
斯文 森</w>
斯 麦</w>
斯 塔
斯 卡
斥 责</w>
料 到</w>
整体 而言</w>
整 理</w>
整 治</w>
数 学
教育 部长</w>
教育 者</w>
教 给</w>
救 命
政策 措施</w>
政治 形势</w>
政 教</w>
放 眼
放 权</w>
改 装</w>
改 为</w>
收 音机</w>
收 看</w>
收 拾
收拾 残局</w>
收 复</w>
支持 系统</w>
操 纵
操 之
操之 过急</w>
撒 克逊</w>
摸 不定</w>
摩 尔</w>
摇 滚
摆 在
摆 出</w>
摄 像
携 带
携带 者</w>
搅 乱</w>
揭 发</w>
提 示</w>
提 出
推 而广之</w>
推 上</w>
控制 区</w>
接踵 而至</w>
排 队</w>
排 行榜</w>
排 出</w>
排 他
排他 性</w>
掏 钱</w>
掏 空</w>
掏 出</w>
捕 鲸</w>
捐 款人</w>
捉 摸不定</w>
振 奋
指导 思想</w>
指 导性</w>
拿 来</w>
择 手段</w>
拍 摄</w>
拉 马拉</w>
拉 长</w>
拉 迪奇</w>
拉 近</w>
拉 罕</w>
拉 特</w>
拉 开
抵抗 运动</w>
报 应</w>
抢 占</w>
抢 劫</w>
投资 决策</w>
投 身于</w>
技术 升级</w>
扶 助</w>
扯 皮</w>
扭 转
扫 荡</w>
扩大 内需</w>
扩 建</w>
执 意</w>
打 折</w>
打 倒</w>
打 个
打个 比方</w>
扑 热息痛</w>
才 华
才华 横溢</w>
手 腕</w>
所 愿</w>
所 写</w>
房 屋
房屋 贷款</w>
戴 维
战斗 人员</w>
战 犯</w>
成功 经验</w>
成 见</w>
成 群结队</w>
成 品</w>
戏 剧</w>
慢 于</w>
慈善 事业</w>
愤 愤
愤愤 不平</w>
感染 率</w>
意 向</w>
惹 恼</w>
想 起来</w>
想 而知</w>
惰 性</w>
惯 常</w>
惨 状</w>
惨 剧</w>
惊 慌</w>
惊 异</w>
情绪 化</w>
情报 搜集</w>
情 理</w>
悄 悄
恶意 软件</w>
恶 劣
恰 尔邦</w>
总的 来讲</w>
总 资产</w>
怨 声
怨声 载道</w>
性 能</w>
性 侵犯</w>
怀 揣</w>
怀 念</w>
快 车道</w>
快 感</w>
忘 却</w>
必 然
心 思</w>
心 怀</w>
德 高望重</w>
德 语</w>
循 环
循 序
循序 渐进</w>
徒 刑</w>
很 差</w>
往 日</w>
彻底 消除</w>
当 量</w>
当 即</w>
当 前
当 一国</w>
归 罪于</w>
强烈 抗议</w>
弹 药</w>
弥 漫着</w>
张 旗鼓</w>
弗 洛
弗 利</w>
引 述</w>
式 微</w>
弃 物</w>
弃 权</w>
异 性</w>
异 型</w>
开发 者</w>
开 采
开 工</w>
开 去</w>
开 倒
开倒 车</w>
开 会</w>
建筑 材料</w>
建 起</w>
度 假
废 黜</w>
废 水</w>
废 弃物</w>
庞 然大物</w>
店 主</w>
应 验</w>
库 克</w>
庄 园</w>
广 东</w>
年度 预算</w>
平 滑</w>
干 系</w>
干 涉
干 什么</w>
常 设</w>
常 委</w>
帮 忙</w>
带头 作用</w>
带 薪</w>
帕 金森
帐 篷</w>
布尔 什
布尔什 维克</w>
布 隆迪</w>
布 提</w>
布 宜
布宜 诺斯艾利斯</w>
布 哈
布 伦特</w>
市场 导向</w>
巴 拉圭</w>
巨大 成功</w>
巨 星</w>
工程 技术</w>
工人 党</w>
山 地</w>
履 行
屡 见不鲜</w>
属 经济区</w>
屏 蔽</w>
居 留</w>
屁 股</w>
尽 如
尽如 人意</w>
尼 采</w>
尼 西
尼 茨基</w>
尼 拉</w>
就 绪</w>
尖 端
尔 克</w>
小 组
小 报</w>
小 团体</w>
射 出</w>
寻 觅</w>
对话 者</w>
对 非</w>
对 症下药</w>
对 接</w>
对 抗
对 一</w>
察 觉到</w>
察 觉</w>
密切 关系</w>
宿 主</w>
宽 带
害 性</w>
害 处</w>
室 外</w>
宣 读</w>
宣 告
实践 者</w>
实用 性</w>
实 效</w>
实 亡</w>
宗教 自由</w>
安德 鲁</w>
安全 隐患</w>
安全 形势</w>
安 第
安 拉</w>
守 法</w>
宇 宙
学 员</w>
学 习
学 业</w>
孤军 奋战</w>
存 实亡</w>
存 入</w>
孕 产妇</w>
嫌 犯</w>
婚 礼</w>
威 士
委 婉</w>
始 至终</w>
妄 为</w>
如此 一来</w>
好 歹</w>
好 几年</w>
好 似</w>
奶 制品</w>
女权 主义者</w>
女 士</w>
奥尔 班</w>
奥 班</w>
奖 赏</w>
奖 牌</w>
奖 学金</w>
奉 献</w>
奉 承</w>
夺 权</w>
夸 大
夸大 其
头 衔</w>
头 条新闻</w>
失业 问题</w>
失业 人数</w>
失 职</w>
失 明</w>
失 措</w>
失 常</w>
失 去
失 势</w>
夫 妻</w>
太平洋 地区</w>
太 郎</w>
太 平</w>
太 多人</w>
天文 学家</w>
天主 教会</w>
天 鹅
天 花
天 性</w>
大肆 宣扬</w>
大 雨</w>
大 都
大 跃进</w>
大 赦</w>
大 理石</w>
大 猩猩</w>
大 潮</w>
大 洋</w>
大 张旗鼓</w>
大 度</w>
大 家庭</w>
大 好
大 地</w>
多边 合作</w>
多种 多样</w>
多 时</w>
多 快</w>
多 巴
多 亿</w>
多 一倍</w>
外汇 交易</w>
外 资银行</w>
外 科</w>
外 相</w>
复兴 党</w>
声名 狼藉</w>
增 支</w>
增 发</w>
塞 西</w>
塑 料
堵 塞</w>
堪 忧</w>
基础 教育</w>
基因 突变</w>
基 层</w>
基 利</w>
型 企业</w>
垂 直</w>
坚持 下去</w>
坎 昆</w>
圭 亚
圭亚 那</w>
在 线教育</w>
在 握</w>
在 建</w>
圣 城</w>
圈 养</w>
圆 桌</w>
囿 于</w>
图 表</w>
图 案</w>
国际 象棋</w>
国际 法院</w>
国防 军</w>
国有 资产</w>
国情 咨文</w>
国 父</w>
国 情</w>
国 将</w>
国 债券</w>
国 中</w>
围 困</w>
回忆 起</w>
回忆 录</w>
回 顾
回 扣</w>
回 想起来</w>
回 去</w>
四 月份</w>
四 月</w>
囊 中</w>
喧 嚣</w>
喜马拉 雅</w>
喜 好</w>
喜 剧
喉 舌</w>
喀 麦隆</w>
啤 酒</w>
商品 化</w>
商业 贷款</w>
商业 行为</w>
哪 位</w>
哪 些
哈 菲兹</w>
哈 瓦那</w>
哈 尔</w>
哀 悼</w>
咒 语</w>
和 亲</w>
命 于</w>
呼 唤</w>
呼 之
呼之 欲
周 密</w>
吹 捧</w>
吸收 能力</w>
吸 烟
启发 性</w>
听 见</w>
听 命于</w>
后 退</w>
后 果
名 著</w>
名 符其实</w>
名 称</w>
名 流</w>
名 存实亡</w>
同 学</w>
吉 布提</w>
合作 项目</w>
合作 性</w>
合 著</w>
合 在一起</w>
合 同
合 共</w>
各个 部门</w>
各 派</w>
各 政党</w>
吃 饭</w>
司法 独立</w>
司 令
号 称</w>
史密 斯</w>
台 前</w>
可 预见性</w>
可 逆</w>
可 追溯</w>
可 贵</w>
可 有可无</w>
可 想而知</w>
只 想</w>
口 径</w>
叛 者</w>
叛 国</w>
变 种</w>
变 异型</w>
变 幻
受到 冲击</w>
受 骗</w>
受 命</w>
取 出</w>
发行 量</w>
发展 潜力</w>
发 芽</w>
发 式</w>
反射 率</w>
反其 道而行之</w>
反 共</w>
反 以</w>
双 面</w>
去 往</w>
原 型</w>
原 告</w>
厕 所</w>
压 垮</w>
历史 教训</w>
历 程</w>
历 次</w>
却 步</w>
即 期</w>
危 言耸听</w>
卫生 部</w>
卫生 系统</w>
卫 报</w>
卡 耶夫</w>
卡 斯
卡 内
卡内 基</w>
博 主</w>
南 朝鲜</w>
南 北
卖 力</w>
半壁 江山</w>
半 身
半 世纪</w>
升 势</w>
千 疮百孔</w>
千 丝
千丝 万
千丝万 缕</w>
十几 岁</w>
十 天</w>
十 六世纪</w>
十 七
区域 合作</w>
北极 熊</w>
北 非国家</w>
勤 奋</w>
募 捐</w>
勒 紧</w>
勒 姆</w>
势 汹汹</w>
努力 学习</w>
助 产
助产 士</w>
动荡 不安</w>
动 能</w>
动 物
劣 质</w>
加拿 大
加 速
加 州
功 效</w>
劝 告</w>
剥 离</w>
前 茅</w>
前 不久</w>
制片 人</w>
制 冷</w>
到 期日</w>
利用 效率</w>
利息 收入</w>
利他 主义</w>
利 马</w>
利 己</w>
利 尔</w>
利 克</w>
判 断力</w>
创 记录</w>
创 立者</w>
列 明</w>
划 归</w>
划 入</w>
刑事 犯罪</w>
刑 法典</w>
切 身
切 特</w>
分配 机制</w>
分 阶段</w>
分 法</w>
分 摊</w>
分 手</w>
分 内
出 局</w>
出 品</w>
出 击</w>
出 产</w>
凡 是</w>
几 轮</w>
几 名</w>
几 何</w>
减速 时</w>
减 退</w>
减 慢</w>
减 去</w>
减 半</w>
准确 性</w>
冷 酷无情</w>
冷 藏</w>
冷 落</w>
况 且</w>
决策 程序</w>
决 赛</w>
冲击 力</w>
冲 破</w>
冰 山</w>
写 手</w>
冗 余</w>
冒险 主义</w>
再 现</w>
内 生性</w>
内 燃机</w>
内 有</w>
内 幕</w>
养 鸡</w>
养 育</w>
养 殖
具体 来讲</w>
其 内</w>
关键 所在</w>
关 贸总协定</w>
关 联
公共 秩序</w>
公 正
公 有</w>
公 子</w>
公 元</w>
公 元
公元 前</w>
八 卦</w>
全球 股市</w>
全国 代表大会</w>
全国 人民代表大会</w>
入学 考试</w>
入 侵
入侵 者</w>
党 魁</w>
党 羽</w>
免 职</w>
克 努特</w>
克 伦</w>
光 芒</w>
光 明
充 耳不闻</w>
元 凶</w>
僵 持</w>
储 贷</w>
偷 猎</w>
偷 渡</w>
偶 像</w>
停 下</w>
做 饭</w>
做 能</w>
做 好事</w>
倾 向性</w>
值得 尊敬</w>
债 主</w>
借 着</w>
借 出</w>
候选 者</w>
俾 斯麦</w>
修 道院</w>
修 昔底</w>
信 誉度</w>
信 奉
保险 费</w>
保险 业</w>
保留 意见</w>
保 值</w>
俄罗斯 族</w>
俄 州</w>
俄 亥
侵略 者</w>
依存 度</w>
供应 者</w>
例 行
使 该</w>
使 出</w>
作出 贡献</w>
作 证</w>
佛罗里 达</w>
体育 赛事</w>
佐 科
佐 夫</w>
佐 利克</w>
低 落</w>
低 垂</w>
但 埃</w>
估 计
伯 伦</w>
伦 斯</w>
传 授</w>
传 奇</w>
传 出</w>
伟大 领袖</w>
优越 感</w>
优越 性</w>
优 良</w>
伊玛 姆</w>
伊朗 伊斯兰共和国</w>
伊 凡</w>
企业 倒闭</w>
任何 理由</w>
任人 唯
任 重道远</w>
任 总统</w>
任 内</w>
价格 指数</w>
以色列 国</w>
以 降</w>
以 供</w>
代表 权</w>
代 币</w>
从中 作梗</w>
从 现在起</w>
仍 有</w>
今 年初</w>
仅 存</w>
仅 以</w>
人民 解放军</w>
人 要</w>
人 用</w>
人 命</w>
人 为
亲 爱</w>
亨 萨林</w>
产 科</w>
亦 非</w>
交通 事故</w>
亟 需</w>
亚利桑 那州</w>
亚伯 拉罕</w>
亚 里士多德</w>
五 花八门</w>
五 百万</w>
五 常</w>
五 天</w>
五 名</w>
五 十万</w>
五 亿</w>
互 助</w>
于 是乎</w>
于 众</w>
二十 亿</w>
事务 所</w>
事 事</w>
争取 时间</w>
买 下</w>
书 店</w>
乐 土</w>
乌克 兰政府</w>
乌 斯</w>
乌 云</w>
之 风</w>
之 音</w>
之 若
之 痛</w>
之 灾</w>
之 机</w>
之 明</w>
之 心</w>
之 夜</w>
之 众</w>
之 事</w>
久 经
主持 人</w>
主 要
主 旨</w>
为时 未晚</w>
为数 众多</w>
为数 不多</w>
临 界</w>
中 日关系</w>
中 层</w>
中 型</w>
中 伤</w>
中 以</w>
中 仅</w>
个人 信息</w>
个 体
严格 遵守</w>
严厉 批评</w>
严 守</w>
两面 性</w>
两 极化</w>
两 性</w>
两 大党</w>
丝 路</w>
东 流</w>
丛 林</w>
业 界</w>
世 上</w>
专 门
专 属经济区</w>
不难 看出</w>
不起 眼</w>
不良 资产</w>
不断 涌现</w>
不太 会</w>
不可 收拾</w>
不可 估量</w>
不以为 然</w>
不久 以后</w>
不 齐</w>
不 靠</w>
不 计
不 耐烦</w>
不 绝
不 称职</w>
不 祥</w>
不 畅</w>
不 比</w>
不 放</w>
不 择手段</w>
不 折不
不 坏</w>
不 全</w>
不 光</w>
不 人道</w>
不 予</w>
不 为过</w>
不 为</w>
不 一致性</w>
不 一</w>
下 院</w>
下 达</w>
下 载</w>
下 届</w>
下 场</w>
下 任总统</w>
上述 情况</w>
上 级</w>
上 校</w>
上 旬</w>
三 难</w>
三 边</w>
三 管齐下</w>
三 月份</w>
三 周</w>
三 世</w>
万 桶</w>
七 月份</w>
丁 点</w>
一步 之遥</w>
一次 次</w>
一 阵</w>
一 长串</w>
一 身</w>
一 落千丈</w>
一 而
一 线
一 章</w>
一 窥</w>
一 空</w>
一 眼</w>
一 百</w>
一 现</w>
一 氧化
一 桩</w>
一 案</w>
一 帮</w>
一 对一</w>
一 大部分</w>
一 再
一 两个</w>
一 丁点</w>
z o</w>
w eet</w>
u s</w>
u p</w>
qu e</w>
oo g
oog le</w>
on zo</w>
o v</w>
o i</w>
o b
i v
i k
f f
es a</w>
e m
e c
as h
ar e</w>
V I</w>
UG HE</w>
SN B</w>
S p
S CA
SCA F</w>
RE D
RED D</w>
P ro
P esa</w>
O PEC</w>
M ed
M ar
M GI</w>
K ib
I n
I C</w>
H IC
GA VI</w>
G oogle</w>
G PS</w>
G 2</w>
FS B</w>
F C</w>
F A</w>
B T</w>
B JP</w>
A h
A I
9 50</w>
8 50</w>
7. 6</w>
7 500</w>
6. 6</w>
6. 1</w>
6 50</w>
5 50</w>
4. 1</w>
3 77</w>
3 70</w>
20 28</w>
2 10</w>
19 3</w>
19 2</w>
19 20</w>
19 17</w>
19 16</w>
19 13</w>
17 89</w>
1 600</w>
1 25</w>
齐 尔</w>
鼠 标</w>
鼓 相当</w>
黑 钱</w>
黑 石</w>
黑 熊</w>
黑 暗
黑 客
黑客 攻击</w>
黑 塞
黑塞 哥
黑塞哥 维
黑塞哥维 那</w>
黎 凡
黎凡 特</w>
黎 世</w>
黄金 时代</w>
麦卡 锡</w>
麦克 纳
麦克纳 马拉</w>
鸠 山</w>
魔 法
魄 力</w>
魁 北
魁北 克</w>
高速 铁路</w>
高等 级</w>
高等 法院</w>
高 高
高 管们</w>
高 时</w>
高 层次</w>
高 学历</w>
高 品质</w>
高 呼</w>
高 发</w>
高 产</w>
骨 牌</w>
驶 向</w>
驱逐 出境</w>
马格 里
马格里 布</w>
马来 亚</w>
马拉 喀
马拉喀 什</w>
马哈 蒂尔</w>
马其顿 共和国</w>
马 里兰
马 里
马 英
马英 九</w>
马 科斯</w>
马 斯克</w>
马 尼拉</w>
香 料</w>
首 批</w>
首 府</w>
首 付</w>
馅 饼</w>
饱 和</w>
饮 用</w>
餐 饮</w>
食品 行业</w>
食品 业</w>
食 言</w>
食 其
飞行 器</w>
飞 冲
飞冲 天</w>
风 起
风起 云
风起云 涌</w>
风 光</w>
颜 面
颜面 扫地</w>
颗 粒</w>
颇 丰</w>
领导 阶层</w>
领 头</w>
领 到</w>
预算 案</w>
预料 中</w>
预 订</w>
预 案</w>
预 感</w>
革命 派</w>
面 试</w>
面 世</w>
非 市场</w>
非 军事
非军事 区</w>
静 止</w>
青 藏
青藏 高原</w>
青 红
青红 皂
青红皂 白</w>
露 头
露头 角</w>
霍 布斯</w>
霍 尔</w>
霍 尔
雷 德</w>
雷 克斯</w>
零 时</w>
零 散</w>
雪 崩</w>
雏 形</w>
集 权主义</w>
集 体化</w>
雅鲁 藏
雅鲁藏 布
雅鲁藏布 江</w>
雅 加
雅加 达</w>
难以 自拔</w>
难 逢</w>
难 者</w>
难 看</w>
隶 属于</w>
隔离 墙</w>
隐 私
隐私 权</w>
隐 晦</w>
随 波
随波 逐流</w>
随 机
随 从</w>
陷 在</w>
陪审 团</w>
陡 峭</w>
限 量</w>
降 速</w>
降 格</w>
陋 习</w>
陆 架</w>
陆 战
陆战 队</w>
陆 克
陆克 文</w>
附加 税</w>
附 着</w>
附 和</w>
阿斯 匹林</w>
阿德 利</w>
阿勒 萨
阿勒萨 尼</w>
阿 隆</w>
阿 罗
阿罗 约</w>
阿 森
阿森 纳</w>
阿 帕
阿 亚</w>
阪 神</w>
阐 释</w>
间 谍
闭 嘴</w>
门 大吉</w>
门 前</w>
长 长
长 线</w>
长 程</w>
长 处</w>
锡 克
错误 信息</w>
铺 设</w>
铺 天
铺天 盖
铺天盖 地</w>
银行 界</w>
银 币</w>
铅 笔</w>
铁 了
铁了 心</w>
铁 丝
铁丝 网</w>
钻 探</w>
钢 琴家</w>
钟 摆</w>
针 头</w>
金融 风暴</w>
量 身</w>
重新 部署</w>
重大 突破</w>
重大 成就</w>
重大 意义</w>
重大 事件</w>
重 症</w>
重 燃</w>
重 构</w>
重 提</w>
重 围</w>
重 压</w>
里斯 班</w>
里 约
里约 热
里约热 内
里约热内 卢</w>
里 亚尔</w>
酿 成</w>
酵 母</w>
遭 殃</w>
遥遥 领先</w>
遗 产税</w>
道 琼斯</w>
遇 害</w>
通过 观察</w>
通 风</w>
通 论</w>
通 缉</w>
通 无阻</w>
通 报</w>
递 质</w>
逐 步
逊 色</w>
选择 权</w>
选举 法</w>
选 用</w>
选 拔</w>
选 情</w>
选 总统</w>
选 取</w>
逆 袭</w>
逆 向</w>
逃 避
逃 过</w>
适 耕</w>
适 从</w>
送 往</w>
送 入</w>
送 上</w>
退 让</w>
迷 离</w>
迪 尔
连 续性</w>
连 动</w>
违规 行为</w>
远 去</w>
进口 成本</w>
进取 心</w>
进 党</w>
这 颗</w>
这 正</w>
这 支</w>
这 回</w>
这 儿</w>
这 三项</w>
这 一点</w>
还 眼</w>
还 手</w>
近 年</w>
近 代</w>
运输 系统</w>
运 营商</w>
运 抵</w>
迈 得</w>
迈 勒</w>
迈 入</w>
过 大
迁 就</w>
达 赫</w>
达 伊</w>
边 防</w>
边 上</w>
辩 护者</w>
辨 认</w>
辞 令</w>
输油 管道</w>
较 高</w>
较 慢</w>
轿 车</w>
载 难逢</w>
轻 描
轻 信</w>
轰 动</w>
软弱 无力</w>
软 公司</w>
轮 车</w>
转 身</w>
转 瞬
转瞬 即逝</w>
转 嫁</w>
转 型
转型 期</w>
身 经历</w>
身 穿</w>
身 心
身 居</w>
蹩 脚</w>
踏 实地</w>
踌躇 满
踌躇满 志</w>
跨 界</w>
跑 道</w>
足 马力</w>
足 不前</w>
越 拉
越拉 越</w>
越 变</w>
超 凡</w>
赶 下</w>
走 狗</w>
赫 里斯</w>
赤 道</w>
赢 取</w>
赠 款</w>
赛义 德</w>
赔 款</w>
赔 付</w>
赌 局</w>
资 产阶级</w>
资 产
贸易 国</w>
贴 现
贴现 率</w>
贱 民</w>
贫 血</w>
贩 运</w>
货币 汇率</w>
账 号</w>
责任 心</w>
责任 人</w>
责 备</w>
财产 权利</w>
财 经</w>
财 物</w>
贡 献者</w>
负担 过重</w>
负 罪
负罪 感</w>
贝卢 斯</w>
贝 布托</w>
贝 塔</w>
贝 南克</w>
谨 守</w>
谢 钦</w>
谢 赫</w>
谢 尔
谢尔 盖</w>
谚 语</w>
谈 及</w>
调整 机制</w>
调 配</w>
课 题</w>
诺 骨牌</w>
诺 伊
诺伊 州</w>
说 谎</w>
说 梦</w>
说 得
说 客</w>
说 实话</w>
误 认为</w>
误 用</w>
误 导
误导 作用</w>
误 入
误入 歧途</w>
语 焉
语焉 不详</w>
该 法</w>
该 案</w>
该 报</w>
诚 布
诚布 公</w>
试 行</w>
试 探
试探 性</w>
词 来</w>
证券 交易</w>
访 问
访 美</w>
设 置
设置 障碍</w>
讽 刺
讲 授</w>
记 载</w>
议会 制</w>
训 令</w>
计算机 程序</w>
计算机 科学</w>
计算机 化</w>
计 量</w>
计 从</w>
警察 部队</w>
言 听
言听 计从</w>
解放 组织</w>
解 囊</w>
视 频
规划 署</w>
见 怪
见怪 不
见怪不 怪</w>
见 之明</w>
覆 无常</w>
覆 地</w>
要 花费</w>
西 欧国家</w>
西 州</w>
西 奥</w>
西 奈</w>
西 南部</w>
西 化</w>
襁 褓</w>
裹 足不前</w>
裕 仁</w>
衰 减</w>
表达 意见</w>
表 彰</w>
补 补</w>
补 给</w>
衣 钵</w>
衣 厂</w>
街 上</w>
行为 规范</w>
行 道</w>
行 我
行我 素</w>
行 医</w>
行 业
融 资
蜡 烛</w>
蜂 拥</w>
蚊 虫</w>
虚 与
虚与 委
虚与委 蛇</w>
蒸 蒸
蒸蒸 日
蒸蒸日 上</w>
蒸 汽</w>
蒙特 雷</w>
蒙 古</w>
蒙 代
蒙代 尔</w>
董 建
董建 华</w>
葡萄 牙
落 差</w>
萨缪 尔森</w>
营养 素</w>
菲利 普</w>
菜 单</w>
菌 株</w>
获 知</w>
获 奖</w>
莱 因
莱因 哈特</w>
莫 里斯</w>
莫 汉</w>
莫 斯</w>
莫 及</w>
荷 尔
荷尔 蒙</w>
药物 滥用</w>
药 店</w>
荒 漠化</w>
英 特尔</w>
英 明</w>
苦 恼</w>
若 想</w>
苏丹 政府</w>
苏 黎世</w>
苏 珊</w>
花 花
花花 公子</w>
花 缭
花缭 乱</w>
节 水</w>
艾 德
艾德 礼</w>
艾 什</w>
艺 复兴</w>
艰 苦
航 运</w>
航 海</w>
舍 宫</w>
致 病</w>
至 多</w>
臭 氧
臭氧 层</w>
自由 选择</w>
自由 言论</w>
自由 职业
自由职业 者</w>
自由 思想</w>
自杀 性</w>
自我 标榜</w>
自我 意识</w>
自作 自
自作自 受</w>
自 食其
自 给</w>
自 省</w>
自 居</w>
自 封</w>
自 始至终</w>
自 决
自决 权</w>
自 内心</w>
自 保</w>
自 传</w>
脸 上</w>
脱 困境</w>
脚 踏实地</w>
脑 部</w>
脑 袋</w>
脑 海中</w>
脑 汁</w>
能 靠</w>
能 用</w>
能 克服</w>
能 事</w>
胡 安</w>
背 井
背井 离
背井离 乡</w>
肺 癌</w>
肺 炎
肺炎 球菌</w>
育 出</w>
肩 负</w>
股 掌</w>
肝 脏</w>
聪 明
聚 合物</w>
聚 光
聚光 灯</w>
聚 一堂</w>
联合国 人权委员会</w>
联 通</w>
联 结</w>
联 想</w>
职业 道德</w>
职 者</w>
职 权
职权 范围</w>
耶 稣</w>
耶 娃</w>
耗 油</w>
而不 实</w>
而 起</w>
而 定</w>
而 动</w>
考 试
老 虎</w>
老 大哥</w>
老 大</w>
翻 新</w>
翻 天
翻天 覆地</w>
美国 陆军</w>
美国 国家
美国 化</w>
美 墨
美墨 加</w>
羁 绊</w>
置身 于</w>
罪 过</w>
罪 人</w>
罢 黜</w>
罗 宾
罗 伯
网络 化</w>
缠 不清</w>
缅 怀</w>
维护 和平</w>
维吾尔 族</w>
维 辛</w>
维 生</w>
维 希</w>
维 多
维多 利亚</w>
继 而</w>
继 位</w>
统计 学</w>
统 领</w>
绞 尽
绞尽 脑汁</w>
绝对 优势</w>
绝 路</w>
给 力</w>
结 尾</w>
经济 波动</w>
经济 实体</w>
经久不 衰</w>
经 销商</w>
绊 脚石</w>
细胞 株</w>
细 微</w>
组 阁</w>
线 上</w>
纾 解</w>
纸 质</w>
纸 空
纸空 文</w>
纳粹 党</w>
纳 西</w>
纳 维</w>
纳 伦</w>
纳 伊夫</w>
纯 洁</w>
约翰 内
约翰内 斯堡</w>
约束 性</w>
约旦 河</w>
红 衫</w>
纠 葛</w>
纠 缠不清</w>
紧张 状态</w>
紧 邻</w>
索 里尼</w>
索 尼
糖 价</w>
精神病 院</w>
精心 策划</w>
精 确
精 炼</w>
精 度</w>
粹 派</w>
粗 糙</w>
类 拔
类拔 萃</w>
类 人</w>
米 特</w>
米 洛</w>
简单 明了</w>
简 短</w>
签 定</w>
策 划
策划 者</w>
筋 疲力尽</w>
第四 条</w>
第二 代</w>
第三 类</w>
第三 代</w>
第一 波</w>
第一 任</w>
第 九</w>
第 一场</w>
笔 下</w>
笑 柄</w>
竞 天
竞天 择</w>
站 稳
站稳 脚跟</w>
站 点</w>
立足 点</w>
立 维</w>
立 宪</w>
窗 户</w>
突发 性</w>
突 然
突 击
空中 客
穷 苦</w>
穆斯 塔
穆斯塔 法</w>
穆 迪</w>
稳定 物价</w>
税 漏税</w>
税 来</w>
程 度
程度 较高</w>
积极 意义</w>
积 攒</w>
秒 钟</w>
科雷 拉</w>
科雷 亚</w>
科罗拉 多
科罗拉多 州</w>
科普 特人</w>
科技 领域</w>
科 赫</w>
科 幻
科幻 小说</w>
科 克伦</w>
种植 者</w>
私 企</w>
离 间</w>
福 尔</w>
禁 酒</w>
神经 递质</w>
神经 过敏</w>
神经 细胞</w>
神经 科学</w>
社会 科学家</w>
社会 各界</w>
社会 制度</w>
示 范</w>
磨 灭</w>
碳 排</w>
确 如此</w>
破产 案</w>
破 解</w>
破 纪录</w>
石油 部门</w>
石 头</w>
短 线</w>
短 处</w>
短 命</w>
知 论</w>
瞬 息
瞬息 万
瞬息万 变</w>
瞪 口
瞪口 呆</w>
睦邻 政策</w>
睡 觉</w>
睡 眠</w>
着眼 点</w>
着 鼻子</w>
眼前 一
眼前一 亮</w>
眼 还眼</w>
眼 花缭乱</w>
真 到</w>
省 级</w>
省 政府</w>
相当 严重</w>
相互 间</w>
相互 尊重</w>
相互 合作</w>
相 报</w>
直 通</w>
盲 率</w>
目 瞪口呆</w>
盛 时期</w>
盗 贼</w>
盗 版</w>
监督 机制</w>
皮 亚斯</w>
皈 依</w>
的 确如此</w>
的 放
的放 矢</w>
白 皮书</w>
白 热化</w>
白 沙
白沙 瓦</w>
白 手
白手 起家</w>
白 天</w>
登 月</w>
登 岛</w>
瘾 君子</w>
痼 疾</w>
痴 人
痴人 说梦</w>
痛 处</w>
痛 不
疾 人</w>
疟 俘</w>
疆 界</w>
畜 牧业</w>
留 存</w>
畅销 书</w>
畅 通无阻</w>
画 家</w>
画 像</w>
电视 频道</w>
电视 辩论</w>
电影 明星</w>
电子 货币</w>
电 磁
申请 人</w>
申请 专利</w>
申 诉</w>
用 语</w>
用 电器</w>
用 工</w>
生殖 细胞</w>
生死 攸关</w>
生存 能力</w>
生命 安全</w>
生产 资料</w>
生 死</w>
生 日</w>
生 土
生土 长</w>
甚 深</w>
甄 选</w>
瓶 子</w>
瓦 济</w>
瓦 文
瓦文 萨</w>
瓦 夫</w>
瓜 分</w>
瑞士 法郎</w>
理 睬</w>
理 清</w>
珍 惜</w>
现 有
现有 企业</w>
现 值</w>
环 球
玛 沙</w>
玛 丽</w>
王 子</w>
王 位</w>
率 高</w>
猥 亵</w>
独裁 政治</w>
独 断
独断 专
独断专 行</w>
独 斗</w>
狠 狠</w>
狂 飙</w>
狂 妄</w>
犹太 主义</w>
犹 如</w>
状 况
犯罪 者</w>
特别 法庭</w>
特 科夫</w>
特 种</w>
特 曼</w>
牵 着鼻子</w>
牵 强</w>
牵 制</w>
物价 上涨</w>
物 竞天择</w>
牧 场</w>
牢 房</w>
版 头条</w>
片 段</w>
爱德 华</w>
爱丽 舍宫</w>
爪 牙</w>
爆 破</w>
爆 发式</w>
燃 油税</w>
燃 料
照 样</w>
照 料</w>
然 一新</w>
焦 躁</w>
焕 然一新</w>
热 议</w>
热 忱</w>
烦 恼</w>
炉 子</w>
灭 火</w>
火箭 炮</w>
火 如
火如 荼</w>
火 力</w>
濒 临
澳大 利亚人</w>
潜 藏</w>
演讲 时</w>
演 出</w>
滥用 职权</w>
满足 感</w>
满满 地</w>
满意 足</w>
满 为
满为 患</w>
滑 坡</w>
滋 味</w>
湖 泊</w>
渺 小</w>
游 牧民</w>
游 击</w>
温 不
温不 火</w>
清 白</w>
清 洁
清洁 工</w>
混 合
混 凝
深感 忧虑</w>
深刻 理解</w>
深刻 影响</w>
深入 研究</w>
深 造</w>
深 知</w>
深 处</w>
淡 出</w>
涟 漪</w>
消 逝</w>
消 散</w>
海外 投资</w>
海军 陆战队</w>
海 边</w>
海 滨</w>
海 拔</w>
海 市
海 关</w>
浮 夸</w>
浪费 时间</w>
流 感
流 亡
活 率</w>
活 下去</w>
洞 察</w>
洛 克</w>
洗衣 机</w>
泽 纳维</w>
泰 晤
泰 姬
泰姬 陵</w>
注 脚</w>
波利 萨</w>
波 黑</w>
波 音</w>
波 立维</w>
泛 欧</w>
法 拉
泄 密</w>
沼 泽</w>
治 病</w>
河 水</w>
沦 陷</w>
沦 丧</w>
没 落</w>
沙特 政府</w>
沙 里夫</w>
沙 漠化</w>
沙 林</w>
沉 迷</w>
沉 没</w>
汽 油税</w>
汤 姆</w>
污染 者</w>
江 河
求 职者</w>
永 康</w>
气 息</w>
民主 权利</w>
民 选总统</w>
民 进党</w>
民 粹派</w>
民 法</w>
毫无 根据</w>
毫无 关系</w>
毛 派</w>
比 花</w>
比 性</w>
每 十年</w>
每 加
每 一</w>
母 校</w>
母 公司</w>
段 落</w>
残 疾人</w>
死 海</w>
武装 人员</w>
步 枪</w>
此 种</w>
正统 性</w>
正常 人</w>
正 规
止 境</w>
止 使用</w>
欧洲 联盟</w>
欧 者</w>
次 优</w>
欠 发达</w>
欠 佳</w>
欠 下</w>
模 特</w>
模 块
模块 化</w>
植 物
森 严</w>
棋 手</w>
棋 局</w>
梦 寐
梦寐 以求</w>
梅 隆</w>
桑 贾尼</w>
格 勒</w>
根 据
根据 地</w>
核 爆</w>
核 事故</w>
样 板</w>
标 语</w>
标 普</w>
染 色
架 屋</w>
枪 炮</w>
果 糖</w>
林斯 顿大学</w>
林 登</w>
极 左</w>
极 右</w>
极 佳</w>
松 懈</w>
松 弛</w>
杰 斐
杰斐 逊</w>
杰 作</w>
杯 赛</w>
杭 州</w>
来 回</w>
来 之际</w>
杜 赫</w>
杜 特</w>
杜 克</w>
杆 菌</w>
权威 性</w>
杂 烩</w>
机 能</w>
机 智</w>
术 性</w>
本世纪 初</w>
末 路</w>
朦 胧</w>
望而 生畏</w>
朔 迷离</w>
服 役</w>
有 增
有增 无
有增无 减</w>
有 别
有别 于</w>
最 让人</w>
最 新
最 合适</w>
最 令</w>
替 之以</w>
曾 相识</w>
曾 以</w>
曾 一度</w>
曼 联</w>
更 胜一筹</w>
更 坏</w>
更 优</w>
更 令</w>
曲 折</w>
曲 同
曲同 工</w>
暴力 行动</w>
暴 增</w>
暗 箱</w>
暗 流</w>
智 识</w>
智 囊
智囊 团</w>
智 力
普通 法</w>
普 金</w>
普 选</w>
普 林斯顿大学</w>
普 惠</w>
是 而非</w>
昭 示</w>
明确 规定</w>
明确 提出</w>
明 治</w>
明 明</w>
明 斯克</w>
时 要</w>
时 装</w>
时 点</w>
时 段</w>
时 有</w>
时 俱
时俱 进</w>
早 晚</w>
早 早</w>
日益 频繁</w>
日本 民主党</w>
日本 化</w>
日 间</w>
日 趋
日 无
日无 多</w>
日 托</w>
既定 目标</w>
无论 谁</w>
无论 怎样</w>
无神 论者</w>
无法 挽回</w>
无法 弥补</w>
无所 适从</w>
无所 事事</w>
无所 不
无所不 包</w>
无可 厚
无可厚 非</w>
无休 无
无休无 止</w>
无 谓</w>
无 薪</w>
无 脑</w>
无 缺</w>
无 所谓</w>
无 差别</w>
无 孔
无孔 不入</w>
无 党派</w>
无 余</w>
无 以为
无以为 继</w>
无 以</w>
无 产阶级</w>
旗 鼓相当</w>
族 企业</w>
族 人</w>
旅 客</w>
施 会</w>
施 令</w>
方 便
新 老</w>
新 篇章</w>
新 疆
新 理念</w>
新 法</w>
新 旧</w>
新 房</w>
新 华
新华 社</w>
新 几内亚</w>
斯蒂 芬</w>
斯特 劳斯</w>
斯托 克</w>
斯 曼</w>
斯 威士
斯威士 兰</w>
斯 图
斯 兰</w>
断 裂</w>
文化 背景</w>
文 艺复兴</w>
文 盲率</w>
文 中</w>
整体 利益</w>
数百 种</w>
数据 共享</w>
数千 个</w>
数十 名</w>
数 百</w>
数 化</w>
数 值</w>
敬 意</w>
散 居</w>
敞 开
敞开 大门</w>
教育 部</w>
教育 权</w>
教学 质量</w>
教学 法</w>
教 条
救命 稻草</w>
救 赎</w>
救 治</w>
敌 手</w>
故 障</w>
故 作
故作 姿态</w>
政策 方针</w>
政治 气候</w>
政治 信仰</w>
政 绩</w>
放 血</w>
放 任
改 编</w>
改 用</w>
改 弦
收 留</w>
支付 宝</w>
操作 性</w>
撰 文</w>
播 种</w>
撒哈 拉
撒哈拉 沙漠</w>
摩天 大楼</w>
摆在 面前</w>
摆 设</w>
摆 脱困境</w>
搭 便
搭便 车</w>
搬 起</w>
搬 到</w>
搞 清楚</w>
搅 局</w>
搁 浅</w>
提高 效率</w>
提 法</w>
提 价</w>
描 写</w>
掮 客</w>
推 敲</w>
推 导</w>
推 卸
推卸 责任</w>
推 倒</w>
控 诉</w>
接种 员</w>
接受 国</w>
接 班</w>
探 寻</w>
排 名
掏 腰包</w>
授 课</w>
授 粉</w>
掂 量</w>
换 届</w>
捕 杀</w>
捏 造</w>
振奋 人心</w>
挫 伤</w>
挑 拨</w>
指 数化</w>
指 手
挂 帅</w>
持 仓</w>
拼 图</w>
拱 手
拥 戴</w>
招 收</w>
拖 拉
拖拉 机</w>
拖 后腿</w>
拓 宽</w>
拉夫 罗夫</w>
拉夫 桑贾尼</w>
拉 氏</w>
拉 比</w>
拉 拉</w>
拉 姆</w>
拉 卡</w>
拉 丁</w>
抵 销</w>
抱 歉</w>
报 废</w>
报 以</w>
抢 眼</w>
抢 夺</w>
折 射出</w>
抗 药</w>
投资 界</w>
投票 决定</w>
投 钱</w>
投 产</w>
技术 革新</w>
技术 手段</w>
技术 人员</w>
承受 能力</w>
找 机会</w>
批 发</w>
扶 植</w>
扰 动</w>
扩 大化</w>
执 法
托 菲</w>
托 儿</w>
托 人</w>
打 造出</w>
打 赌</w>
打 独斗</w>
打 死</w>
打 扮</w>
打 手</w>
打 响</w>
打 乱</w>
打 个</w>
扑 朔迷离</w>
才 智</w>
才 干</w>
手 术
手 工</w>
所 见</w>
所 想</w>
所 困</w>
房 东</w>
戴维 营</w>
戚 相关</w>
战 术性</w>
战 协定</w>
戒 律</w>
我 要</w>
我 行我素</w>
我 者</w>
成熟 度</w>
成 风</w>
成 泽</w>
成 倍</w>
成 事</w>
戈 森</w>
慷慨 解囊</w>
慢 动作</w>
慌 失措</w>
感 觉
感 叹</w>
感 召力</w>
意 算盘</w>
意 妄为</w>
想 以</w>
惠 互利</w>
惑 不解</w>
惊 慌失措</w>
情 结</w>
悲 痛</w>
悍 然</w>
悄悄 地</w>
恳 请</w>
恰 到
恰到 好处</w>
恣 睢</w>
恐 后</w>
总体 上</w>
总 监</w>
总 局</w>
怪 事</w>
性 暴力</w>
性 伴侣</w>
急 切
急切 需要</w>
怒 不可
怒不可 遏</w>
怂 恿</w>
快 得多</w>
忧 天</w>
忙 不
忙不 迭</w>
忘 了</w>
忆 症</w>
必 备</w>
心理 疾病</w>
心 满意足</w>
心 智</w>
心 情</w>
心 存</w>
心 全
心全 意</w>
德 班</w>
德 尼</w>
微 软公司</w>
微 薄</w>
得 罪</w>
得 票</w>
得 病</w>
得 偿</w>
律 性</w>
待 毙</w>
往 后</w>
彼 时</w>
彩 票</w>
形 式化</w>
当 晚</w>
当 是</w>
归 还给</w>
归 结</w>
强烈 反应</w>
强加 在</w>
强 迫
强 心
张 扬</w>
弗吉 尼亚州</w>
弗吉 尼亚</w>
异 端</w>
异 曲同工</w>
开放 政策</w>
开发 计划</w>
开发 利用</w>
开 足马力</w>
开 诚布公</w>
开 关</w>
建筑 工人</w>
建 立
康 德</w>
康 奈
庭 审</w>
废 纸</w>
应用 程序</w>
应 是</w>
库 特</w>
库 券</w>
库 什</w>
床 架屋</w>
庄 严</w>
广播 电台</w>
幼儿 园</w>
并 称</w>
年 青</w>
年 秋</w>
年 春</w>
年 仅</w>
年 产量</w>
平衡 点</w>
平 线</w>
平 克</w>
幕 后
常 会</w>
帮 派</w>
带 上</w>
帕 尔</w>
布鲁 金斯</w>
布哈 林</w>
布 里斯班</w>
布 道</w>
布 兰
市场 营销</w>
市场 繁荣</w>
市 政
巴 马</w>
巴 赫</w>
巴 厘</w>
已 高达</w>
已 能</w>
巨 额利润</w>
巨 浪</w>
左右 为难</w>
工会 组织</w>
工业 园</w>
工 种</w>
工 商界</w>
崭 露头角</w>
岛 民</w>
山 姆</w>
屡 次</w>
居 所</w>
居 伦</w>
尽 职</w>
尽 皆知</w>
尼泊 尔
尼 诺</w>
尼 尔斯</w>
尼 奥</w>
就职 典礼</w>
就业 人数</w>
就业 人口</w>
尚 有</w>
尖 阁</w>
尖 锐
尔 比</w>
尔 本</w>
尔 文</w>
少 有</w>
少 不了</w>
小 说家</w>
小 生产者</w>
小 康
小 姐</w>
小 城镇</w>
射 杀</w>
导 航</w>
寻 找机会</w>
对抗 性</w>
对华 政策</w>
对华 关系</w>
对 台</w>
对 内</w>
寡 头
寡头 政治</w>
密 者</w>
寄 居</w>
宾夕法 尼亚州</w>
宽带 接入</w>
家 门</w>
家 用电器</w>
家 用</w>
家 族企业</w>
害 者</w>
宫 殿</w>
宪 性</w>
宣 讲</w>
客 机</w>
审 问</w>
实验 性</w>
实际 效果</w>
实 惠</w>
实 处</w>
宝 贵
宜 居</w>
定 点</w>
定 得</w>
定 局</w>
官 方
宗 主
宗主 国</w>
宏 伟
完美 无缺</w>
完全 恢复</w>
安全 区</w>
安东 尼奥</w>
安 逸</w>
安 然无
安 格尔</w>
学龄 儿童</w>
季 节</w>
存 款人</w>
存 放</w>
字 面上</w>
威斯 康
威尔 士</w>
威尔 克斯</w>
威 廉
威 尼斯</w>
委内瑞拉 政府</w>
委 托人</w>
姓 名</w>
姆 贝基</w>
妥 善</w>
妓 院</w>
妆 品</w>
妄 图</w>
如 火如荼</w>
如 意算盘</w>
好 象</w>
好 时机</w>
好 受</w>
好 不
好不 容易</w>
女 神</w>
奥林匹 克</w>
奥斯 维辛</w>
奥 马</w>
奥 特</w>
奥 多</w>
奥 古
套 现</w>
奖 项</w>
奔 波</w>
奇 达</w>
夸 夸
夸夸 其
夸夸其 谈</w>
头 顶</w>
头 绪</w>
头 版头条</w>
头 版</w>
失 算</w>
失 忆症</w>
失 地</w>
天鹅 绒</w>
天 文</w>
大都 会</w>
大有 希望</w>
大学 教授</w>
大力 支持</w>
大 降</w>
大 陆架</w>
大 纲</w>
大 湾</w>
大 杂烩</w>
大 方</w>
大 放
大 戏</w>
大 开
大 帝</w>
大 喊</w>
大 可</w>
夜 间</w>
多米 诺骨牌</w>
多米 尼加</w>
多巴 胺</w>
多 花</w>
多 美元</w>
多 多
外交 大臣</w>
外 籍</w>
外 太空</w>
外 向</w>
外 出</w>
复杂 程度</w>
备 用</w>
备 战</w>
处理 不当</w>
处 以</w>
声 讨</w>
声 言</w>
声 浪</w>
墨 索里尼</w>
墨 尔本</w>
增加 出口</w>
境 界</w>
填 写</w>
塔 尼亚</w>
堤 坝</w>
堂 皇</w>
基本 要素</w>
基 数</w>
基 奇</w>
基 加
基加 利</w>
城市 交通</w>
埃塞俄 比
埃 米尔</w>
垃圾 桶</w>
坦 诚</w>
坠 落</w>
坠 入</w>
坐 视
坏 人</w>
坎 波</w>
场 上</w>
地中 海地区</w>
地 踏步</w>
地 看</w>
地 理学</w>
地 毯</w>
在此 之后</w>
在 野</w>
圣 徒</w>
圣 人</w>
土 生土长</w>
土 壤
国际 主义者</w>
国家 补贴</w>
国 门</w>
国 库券</w>
回 路</w>
四 面
四 种</w>
四 百万</w>
四 周</w>
四 十</w>
四 人</w>
噱 头</w>
嗜 好</w>
嗅 觉</w>
喜马拉雅 山脉</w>
喜剧 演员</w>
喜 剧</w>
喇 叭</w>
善 变</w>
商务 部</w>
商业 地产</w>
商 谈</w>
商 一致</w>
唯 独</w>
哺 乳
哪 去</w>
哗 众
哗众 取
哗众取 宠</w>
哈 雷</w>
品 尝</w>
咖 啡
和平 利用</w>
和平 主义</w>
呼吸 系统</w>
周 永康</w>
周 到</w>
周 全</w>
员 公
员公 署</w>
告 人</w>
呈 上升</w>
吸 入</w>
吵 不休</w>
吴 登盛</w>
启 用</w>
含糊 不清</w>
否决 票</w>
后果 严重</w>
后 现代</w>
后 发
后发 优势</w>
名列 前茅</w>
同 心协力</w>
吉拉 尼</w>
吉 利</w>
合法 权利</w>
合法 政府</w>
合 资</w>
合 宪性</w>
合 之众</w>
各个 领域</w>
各个 方面</w>
各 项
各 邦</w>
各 处</w>
各 位</w>
司法 程序</w>
司法 制度</w>
号 施令</w>
史蒂 文斯</w>
台湾 人</w>
台 高筑</w>
台 阶</w>
台 词</w>
台 海</w>
台 上</w>
可 用
可 比性</w>
可 望</w>
可 口
可 变</w>
可 取
可取 之处</w>
可 为</w>
召 回</w>
只 能靠</w>
只 消</w>
只 字
另 一半</w>
古巴 人</w>
古 人</w>
口 服</w>
口 实</w>
叠 床架屋</w>
叛乱 者</w>
叛 徒</w>
变革 性</w>
变 慢</w>
变 弱</w>
变 化
变 体</w>
受益 匪浅</w>
受 苦</w>
受 约束</w>
受 惠</w>
受 压迫</w>
受 助者</w>
受 其</w>
发起 人</w>
发电 能力</w>
发电 机</w>
发展 部</w>
发 难</w>
发 自内心</w>
发 育
发 票</w>
发 热</w>
发 源地</w>
发 指</w>
发 号施令</w>
反 覆无常</w>
反 覆</w>
反 华</w>
友 邦</w>
去 何
去何 从</w>
原 地踏步</w>
原 创</w>
厌 烦</w>
压倒 多数</w>
历 练</w>
危险 区</w>
危 难</w>
印 钱</w>
卫生 界</w>
卫 士</w>
卢卡 斯</w>
卢 梭</w>
卢 斯科尼</w>
卡 罗
卡 绍</w>
卡 普兰</w>
卡 尼
卡 利</w>
占领 区</w>
占领 军</w>
占 优</w>
南方 共同市场</w>
南 美
单 打独斗</w>
协 商一致</w>
华 而不实</w>
华 丽</w>
半身 像</w>
半 段</w>
升 降</w>
升 职</w>
升 空</w>
千 载难逢</w>
千 名</w>
十二 五</w>
十七 世纪</w>
十 岁</w>
十 家</w>
十 余年</w>
十 个月</w>
医药 行业</w>
医药 公司</w>
医疗 界</w>
医学 杂志</w>
区 位</w>
匹 敌</w>
北方 邦</w>
北 韩</w>
北 半球</w>
化 武</w>
化 工</w>
化 工
化 妆品</w>
匈牙 利人</w>
勒 斯</w>
劳动 党</w>
劳 伦斯</w>
努 钦</w>
动 因</w>
劣 等</w>
加速 器</w>
加 征</w>
加 在一起</w>
功 绩</w>
功 利
劝 阻</w>
副 武装</w>
剧 院</w>
剧 本</w>
前 身</w>
前 置</w>
前 端</w>
前 台</w>
削 减到</w>
刻 画</w>
刺激 作用</w>
刺 猬</w>
制 衣厂</w>
制 宪</w>
到 来之际</w>
到 时候</w>
到 哪去</w>
别无 他
别无他 法</w>
别 斯兰</w>
别 忘了</w>
利润 率</w>
利 沃夫</w>
利 恒</w>
利 好</w>
利 兹</w>
初 次</w>
创新 力</w>
刚 性</w>
划 拨</w>
划 出</w>
刊 物</w>
切 换</w>
分 青红皂白</w>
分 隔</w>
分 辨</w>
分 立</w>
分 之</w>
函 数</w>
击 破</w>
击 毙</w>
击 手</w>
出生 地</w>
出版 商</w>
出口 额</w>
出口 税</w>
出 行</w>
出 类拔萃</w>
出 了
出了 名</w>
凯 撒</w>
几千 人</w>
减 债</w>
准备 就绪</w>
净 流入</w>
冷 静下来</w>
冷 血</w>
决 战</w>
冰 冷</w>
冬 季</w>
军事 设施</w>
军事 装备</w>
军事 战略</w>
军 火</w>
再 见</w>
再 用</w>
内 特</w>
内 斯</w>
内 华
内 债</w>
养 分</w>
具体 来说</w>
具体 内容</w>
其 能</w>
其 烦</w>
其 来</w>
其 净</w>
兴 业
兴业 银行</w>
关联 性</w>
关系 恶化</w>
关 门大吉</w>
共 谋</w>
共 生</w>
六 月份</w>
六 周</w>
六 分之一</w>
六 七
公正 性</w>
公开 场合</w>
公平 地</w>
公 寓</w>
公 事</w>
公 之
八 月</w>
八 成</w>
全民 教育</w>
全民 投票</w>
全 靠</w>
全 心全意</w>
全 副武装</w>
党 政府</w>
免 费
克劳 斯</w>
克 多</w>
克 劳</w>
光 谱</w>
光 纤</w>
先 见之明</w>
先 河</w>
先 期</w>
先 恐后</w>
先 于</w>
兆 瓦</w>
元 勋</w>
元 件</w>
儒 教</w>
儒 家
像 样</w>
催 泪
储备 基金</w>
傍 晚</w>
偷 税漏税</w>
偶 发</w>
停 车</w>
停 止使用</w>
停 战协定</w>
做 点</w>
做 来</w>
做 文章</w>
做 成</w>
偏 误</w>
倾 覆</w>
债 台高筑</w>
倒 霉</w>
倒 数</w>
倍 加</w>
俱 备</w>
修 订
修 补补</w>
修 修补补</w>
信用 等级</w>
信息 量</w>
信息 系统</w>
保持 联系</w>
保护 国</w>
保守 党政府</w>
保 安</w>
俄亥 俄州</w>
俄 国政府</w>
促 发</w>
供 资</w>
供 暖</w>
例行 公事</w>
例 行</w>
例 来说</w>
使 者</w>
使 团</w>
佩 里</w>
何 时
何 方</w>
何 塞</w>
何 去何从</w>
何 以</w>
体育 运动</w>
体育 场</w>
体 能</w>
佐科 维</w>
住 院</w>
低 质量</w>
似 曾相识</w>
似 是而非</w>
伴 有</w>
伯 利恒</w>
传统 观念</w>
传 来</w>
传 到</w>
会议 室</w>
优 异</w>
优 劣</w>
休 戚相关</w>
伍 德罗</w>
伊利 诺伊州</w>
企业 管理者</w>
任人唯 亲</w>
任 其</w>
价格 调整</w>
仰 慕</w>
以 示</w>
以 眼还眼</w>
以 比</w>
以 助</w>
令人 困惑</w>
令人 发指</w>
代 顿</w>
付诸 行动</w>
他 州</w>
从头 开始</w>
从业 人员</w>
从 这一点</w>
从 总体上</w>
从 小</w>
仍 不愿</w>
介 于</w>
今 秋</w>
今 春</w>
亿 比索</w>
亿 多美元</w>
亿 万</w>
人际 关系</w>
人身 攻击</w>
人身 安全</w>
人类 基因</w>
人民 民主党</w>
人口 众多</w>
人力 物力</w>
人 马</w>
人 际</w>
人 间</w>
人 满为患</w>
人 尽皆知</w>
人 头</w>
人 后</w>
亲 近</w>
亲 身经历</w>
亲 美</w>
亲 缘</w>
享 用</w>
产生 共鸣</w>
产品 价格</w>
交 纳</w>
交 界</w>
交 椅</w>
交 替</w>
交 叉</w>
交 付给</w>
些 年来</w>
些 年</w>
亚 诺夫</w>
互联 互通</w>
互相 联系</w>
互 惠互利</w>
二十 年代</w>
二 选</w>
二 致</w>
二 月份</w>
二 元</w>
二 人</w>
二 三十年</w>
事 长</w>
争 吵不休</w>
争 先恐后</w>
乳 房</w>
买 进</w>
乡 下</w>
乞 求</w>
九 百万</w>
九 月</w>
乐 施会</w>
乌 合之众</w>
之 锚</w>
之 辞</w>
之 谜</w>
之 能事</w>
之 用</w>
之 流</w>
之 比为</w>
之 巅</w>
之 少</w>
之 家</w>
之 光</w>
之 作</w>
之 于</w>
举 例来说</w>
主 编</w>
主 管
主 战场</w>
主 动性</w>
主 动
主 人
串 通</w>
中央 委员会</w>
中国 式</w>
中东 战争</w>
中 较</w>
中 肯</w>
中 立
中 产</w>
严肃 认真</w>
严格 控制</w>
严格 执行</w>
严 峻
两国 间</w>
两 部</w>
两 翼</w>
两 组</w>
两 百年</w>
两 番</w>
两 头</w>
两 件</w>
东 进</w>
东 南欧</w>
业 务
世界 杯赛</w>
世界 末日</w>
专利 权</w>
专业 技能</w>
专业 性</w>
专 用</w>
专 栏</w>
专 断</w>
与 时俱进</w>
不计 后果</w>
不能 容忍</w>
不管 怎么</w>
不相 称</w>
不断 进步</w>
不断 加强</w>
不折不 扣</w>
不成 文</w>
不容 许</w>
不容 置疑</w>
不合 逻辑</w>
不可 逾越</w>
不可 知论</w>
不 顾
不 需</w>
不 闻
不 间断</w>
不 菲</w>
不 知情</w>
不 灵</w>
不 温不火</w>
不 治
不 朽</w>
不 无</w>
不 提</w>
不 成</w>
不 怎么</w>
不 带</w>
不 屑</w>
不 好过</w>
不 复</w>
不 向</w>
不 厌
不 利
不 列颠</w>
不 分青红皂白</w>
不 公平地</w>
不 俗</w>
不 介意</w>
不 争</w>
不 一而
不一而 足</w>
下 流</w>
下 子</w>
下 任</w>
上 门</w>
上 移</w>
上 午</w>
上 会</w>
三 轮车</w>
三 维</w>
三 支</w>
三 思</w>
三 思
三 军</w>
三 件</w>
万事 俱备</w>
万 年前</w>
万 家</w>
万 多</w>
七 大</w>
七 分</w>
一面 镜子</w>
一般 地说</w>
一点 一
一点一 滴</w>
一再 强调</w>
一 飞冲天</w>
一 顿</w>
一 辈子</w>
一 读</w>
一 记</w>
一 纸空文</w>
一 秒</w>
一 气</w>
一 款</w>
一 文</w>
一 整</w>
一 招</w>
一 年
一 堆</w>
一 吨</w>
一 口</w>
一 侧</w>
一 两年</w>
一 下子</w>
一 一</w>
y a</w>
u g
u e
u c
th e</w>
t e
s k
s i</w>
s e</w>
ro be</w>
oz y</w>
or g</w>
ol a</w>
o l</w>
o d
o c
k ozy</w>
j ie
jie v</w>
it al</w>
ip robe</w>
in g</w>
in g
i on</w>
i k</w>
e d</w>
co m
at h
at e</w>
as k
an c
ag h
ad jiev</w>
U V</w>
T arg
SD S
S ar
S UV</w>
S S
S B
Re PE
RePE c</w>
R I</w>
R C
PN V</w>
P TA</w>
P PP</w>
P M</w>
P K
PK K</w>
P I
P E</w>
P DV
P C</w>
P AS</w>
P 5</w>
ND C</w>
N or
N H
MF F</w>
M a
L HC</w>
IS PR</w>
I NDC</w>
H e
H adjiev</w>
GN I</w>
G E</w>
F re
F N</w>
CR ISPR</w>
C T
C H
B P</w>
B IS</w>
B I</w>
A r
A n
A P</w>
A L
A BC</w>
9 .5</w>
7. 7</w>
7. 25</w>
6 10</w>
4 50</w>
4 30</w>
20 70</w>
20 23</w>
20 21</w>
2 45</w>
195 9</w>
195 5</w>
194 1</w>
193 9</w>
190 5</w>
19 22</w>
19 18</w>
18 00</w>
18 .
10 1</w>
1. 0
1 400</w>
1 2
0 7</w>
齐 达
齐达 内</w>
黯 然</w>
默 拉</w>
黑 色
黑 手</w>
黎巴嫩 人</w>
黎 波
黎波 里</w>
黄 岩
黄岩 岛</w>
麾 下</w>
麦当 娜</w>
麦当 劳</w>
鸣 得意</w>
鸠 山
鸠山 由
鸠山由 纪
鸠山由纪 夫</w>
鳕 鱼</w>
鲜 花</w>
鲜 活</w>
鲁莽 地</w>
鱼 肉</w>
魔 盒</w>
魔 爪</w>
高高 在
高高在 上</w>
高级专 员公署</w>
高度 重视</w>
高度 发达</w>
高 铁</w>
高 采
高采 烈</w>
高 素质</w>
高 糖</w>
高 等</w>
高 温</w>
高 档</w>
高 校</w>
高 明</w>
高 悬</w>
高 居</w>
高 尔
高 喊</w>
高 压
高 分子</w>
高 中
骨 悚
骨悚 然</w>
骗 术</w>
骆 驼</w>
驾 驶
驾 轻
驾轻 就
驾轻就 熟</w>
驻 外</w>
驻 地</w>
驶 入</w>
驳 倒</w>
驱逐 舰</w>
驱 赶</w>
马里兰 州</w>
马克 斯</w>
马 达</w>
马 解</w>
马 蒂斯</w>
马 苏</w>
马 脚</w>
马 耳
马耳 他</w>
马 斯
马 德
马 匹</w>
香港 政府</w>
香 蕉</w>
首脑 会晤</w>
首 轮</w>
首 访</w>
首 届</w>
首 发</w>
饱 私
饱私 囊</w>
饮 品</w>
饥 挨饿</w>
食 用
食 利</w>
飞 船</w>
飞 烟
飞烟 灭</w>
飘 摇</w>
风 雨</w>
风 雨
风雨 飘摇</w>
风 貌</w>
风 气</w>
风 暴
风 向</w>
风 使
风使 舵</w>
颤 抖</w>
额 贷款</w>
题 为</w>
领导 班子</w>
领导 小组</w>
领 空</w>
领 工人</w>
领 军
领军 人物</w>
领 养</w>
预料 之中</w>
预 言
预言 家</w>
预 报</w>
颁 奖
顽 固
顺 理
顺理 成
顺理成 章</w>
项 目
顶 住</w>
页 面</w>
韬 光
韬光 养
韬光养 晦</w>
韩 美军</w>
韩 美</w>
韩 日</w>
韩 三国</w>
韦 拉</w>
韦 兹</w>
韦 伯</w>
鞭 策</w>
靶 子</w>
面向 未来</w>
面 面
面面 俱
面面俱 到</w>
面 地</w>
靠 着</w>
非常 适合</w>
非常 少</w>
非常 低</w>
非 议</w>
非 线性</w>
非 盈利性</w>
非 核</w>
非 标准</w>
非 得</w>
非 官方</w>
非 国
非国 大</w>
非 关税</w>
非 专利</w>
静 观
静观 其
静观其 变</w>
青 春
青春 期</w>
震 耳
震耳 欲
震耳欲 聋</w>
零 下</w>
雪 佛
雨 表</w>
雌 性</w>
集体 主义</w>
集中 控制</w>
集中 力量</w>
集中 体现</w>
难民 事务
难民事务 高级专员公署</w>
难度 日</w>
难 返</w>
难 辞
难辞 其咎</w>
隔 阂</w>
隐 忧</w>
隐 忍</w>
险 些</w>
除此 以外</w>
除 武装</w>
除 掉</w>
院 长</w>
降 落</w>
降 温</w>
降 价</w>
降 为</w>
降 下来</w>
陈 腐</w>
陈 代谢</w>
附加 条件</w>
阿拉伯 语</w>
阿拉伯 联合
阿拉伯联合 酋长国</w>
阿布 扎
阿布扎 比</w>
阿尔 瓦罗</w>
阿克 拉</w>
阿 赫</w>
阿 盟</w>
阿 登
阿登 纳</w>
阿 特
阿 德</w>
阿 塔
阿塔 图
阿塔图 尔克</w>
阿 列</w>
阿 兰</w>
阿 伦特</w>
阿 什
阻 拦</w>
阶 段
阶段 性</w>
阵 脚</w>
防 火</w>
闻 所未
闻所未 闻</w>
间谍 活动</w>
闲 暇</w>
闯 入</w>
问 过</w>
问 询</w>
问 卷</w>
闭 一只眼</w>
门 户
门 可
门可 罗
门可罗 雀</w>
长长 的</w>
长足 进步</w>
长篇 大
长篇大 论</w>
长期 化</w>
长期 保持</w>
长 队</w>
长 袖
长袖 善
长袖善 舞</w>
长 袍</w>
长 类</w>
长 篇</w>
长 激素</w>
镜 像</w>
镀 金</w>
锡克 教</w>
锋 枪</w>
铺 就</w>
铸 币</w>
铸 就</w>
银行 信贷</w>
铁 托</w>
铁 律</w>
钦 奈</w>
钟 爱</w>
钟 情</w>
钉 截
钉截 铁</w>
金 边</w>
金 矿</w>
金 石</w>
金 白
金白 银</w>
金 牌</w>
金 墉</w>
量 子
量 元素</w>
野 田</w>
野 火</w>
重大 胜利</w>
重 难返</w>
重 缓
重缓 急</w>
重 税</w>
重 温</w>
重 复性</w>
重 估</w>
里 德尔</w>
里 州</w>
里 卡
里卡 多</w>
酵 母
酵母 菌</w>
酬 劳</w>
配 电</w>
部 位</w>
邪恶 轴心</w>
避难 权</w>
避孕 套</w>
遥 相
遥相 呼应</w>
遗 迹</w>
遗 孀</w>
道德 行为</w>
遑 论</w>
遂 政变</w>
速 率</w>
速 效</w>
通讯 业</w>
通 行
途 末路</w>
递 延</w>
选 购</w>
逆转 录
逆转录 酶</w>
逆 风</w>
逆 流</w>
逃避 现实</w>
逃 跑</w>
逃 到</w>
适 时</w>
送 回</w>
退 潮</w>
退 两难</w>
追 索</w>
追 求
迷 惑不解</w>
迫切 希望</w>
迫 不得已</w>
连 环</w>
远 征</w>
进步 性</w>
进口 额</w>
进 退两难</w>
进 攻
进攻 性</w>
进 作用</w>
这 门</w>
这 般</w>
这 群
这群 人</w>
这 番</w>
这 幅</w>
这 届</w>
这 名</w>
这 出</w>
这 倒</w>
近在 眼前</w>
近 利</w>
近 似</w>
运 载</w>
运 算</w>
过渡 时期</w>
过 难关</w>
过 猛</w>
过 犹
过犹 不及</w>
过 火</w>
过 桥</w>
过 于
迁 回</w>
迁 入</w>
达到 目标</w>
达 里</w>
达 米亚</w>
边界 争端</w>
边境 税</w>
边境 地区</w>
边 远地区</w>
边 界线</w>
辱 骂</w>
辛 斯基</w>
输 赢</w>
输 气
辅 助
辅助 性</w>
轻描 淡
轻描淡 写</w>
轻 重缓急</w>
轻 度</w>
轮 胎</w>
轮 美
轮美 奂</w>
转嫁 给</w>
转 运</w>
转 载</w>
转 换成</w>
转 弯</w>
转 变
转 发</w>
转 包</w>
轨 制</w>
车 司机</w>
身心 健康</w>
身体 状况</w>
身 材</w>
身 兼</w>
身 作
身作 则</w>
踊 跃</w>
践 行</w>
跳 舞</w>
跳 板</w>
路易 斯
路 面</w>
跑 步</w>
跌 落</w>
跌 眼镜</w>
跌 入</w>
足球 运动</w>
趋 之若
趋之若 鹜</w>
越 重</w>
越 近</w>
越 战</w>
超 高</w>
超 负荷</w>
起 色</w>
起 彼
起彼 伏</w>
走私 者</w>
走 马
赫 斯</w>
赠 与</w>
赖 性</w>
赐 予</w>
赎 罪</w>
赌 场</w>
资金 量</w>
资源 分配</w>
资产 负债</w>
资 方</w>
贾 南</w>
贾 利
贾利 勒</w>
费尔南 德斯</w>
费 苦
费苦 心</w>
费 林</w>
费 希尔</w>
贴 切</w>
贫 如
贫如 洗</w>
贪污 腐败</w>
质 子</w>
质 化</w>
货运 量</w>
货 车</w>
账 面</w>
财政 部门</w>
财政 年度</w>
财务 状况</w>
财 团</w>
贡 献
负面 效应</w>
负债 率</w>
贝 克尔</w>
豪 夺</w>
谦 逊</w>
谦 虚</w>
谋杀 案</w>
谋 取</w>
谋 利</w>
调解 人</w>
调查 员</w>
调 转</w>
调 一致</w>
谁 又
谁又 能</w>
课 程
读 一读</w>
诺 曼
诺曼 底</w>
诺 德</w>
诺 切特</w>
诺 克</w>
诸 武力</w>
说 错</w>
说 起</w>
说 自
说自 话</w>
说 八
说八 道</w>
语 言
语 境</w>
语 句</w>
详 尽</w>
该 药</w>
该 税</w>
该 是</w>
诚 度</w>
试验 场</w>
试 着</w>
试 水</w>
诉 诸武力</w>
诉 人</w>
评 定</w>
访 日</w>
讽刺 性</w>
论 战</w>
讹 诈</w>
记 录
议 定</w>
议 人士</w>
训练 营</w>
训 诫</w>
让 路</w>
认知 技能</w>
认真 思考</w>
认 购</w>
订 阅</w>
订 单</w>
警 卫</w>
誓 就职</w>
誉 扫地</w>
言 语</w>
言 行</w>
言 之
触 犯</w>
解 除武装</w>
解 锁</w>
解 职</w>
解 数</w>
视 无睹</w>
规范 性</w>
规范 化</w>
观 赏</w>
观 止</w>
观 感</w>
见 风使舵</w>
见 过</w>
见 所
见所 闻</w>
要 强</w>
要 员</w>
要 价</w>
西 非国家</w>
西 里</w>
西 蒙</w>
西 科尔
西科尔 斯基</w>
西 欧
西 山</w>
西 姆</w>
西 奥多</w>
西 南</w>
褪 去</w>
装 盒</w>
装 满</w>
装 水</w>
装 有</w>
装 扮</w>
装 扮
装扮 成</w>
装 成</w>
裁 军
裁军 谈判</w>
被 盗</w>
被 抛
被抛 弃
被抛弃 了</w>
被 压迫</w>
袋 鼠</w>
表面 文章</w>
表 露</w>
表 外</w>
补充 性</w>
补偿 性</w>
补 足</w>
补 牢</w>
补 助
补助 金</w>
补 习
补习 班</w>
衣 服</w>
街 区</w>
行将 就
行将就 木</w>
行 各
行各 业</w>
行 刑</w>
行 刑
行刑 队</w>
血 肉
蟒 蛇</w>
螺 旋
螺旋 式</w>
蜕 变</w>
蜃 楼</w>
蛇 头</w>
虫 害</w>
虚拟 现实</w>
虚 无
虚无 主义</w>
藏 匿</w>
藏 传
藏传 佛教</w>
薪 金</w>
薄 西山</w>
薄 弱
薄弱 环节</w>
蔽 之</w>
蓝 领工人</w>
蓄 水</w>
蒙特 州</w>
蒙特 利尔</w>
蒙 特</w>
蒙 德</w>
董 事长</w>
葛 兰
著 名
落 败</w>
落 石
落石 出</w>
萨缪 尔</w>
萨斯 城</w>
萨尔 维
萨尔维 尼</w>
萨 德尔</w>
萨 克逊</w>
营养 学</w>
营养 价值</w>
菲 永
获得 性</w>
获 奖
获奖 者</w>
获 取
莱 维</w>
莱 索
莱索 托</w>
莫 氏</w>
莫 大</w>
莫 名
莫名 其
莫名其 妙</w>
莎 白</w>
荷 马</w>
荷 比
荷比 卢</w>
荷 兰政府</w>
药 房</w>
药 厂</w>
药 价</w>
荣 光</w>
荡 荡</w>
荒 诞</w>
草 原</w>
茶 叶</w>
茅 斯</w>
英 属</w>
英 亩</w>
苦 于</w>
若 能</w>
若 罔
若罔 闻</w>
苏丹 人</w>
苏 里州</w>
苏 哈
苏哈 托</w>
苏 共</w>
苍 白
苍白 无力</w>
花旗 集团</w>
花旗 银行</w>
花 招</w>
芬 森</w>
艾 肯</w>
艺术 作品</w>
色 子</w>
艰 难度日</w>
艰 难
舶 来
舶来 品</w>
舰 船</w>
航空 航天</w>
航 天
航天 局</w>
舒 吉</w>
舌 战</w>
致 裂</w>
致 相同</w>
致 残</w>
至 沓
至沓 来</w>
至 伟</w>
自由 度</w>
自然 语言</w>
自然 哲学</w>
自我 批评</w>
自我 感觉</w>
自卫 权</w>
自 鸣得意</w>
自 说自话</w>
自 觉</w>
自 用</w>
自 焚</w>
自 满情绪</w>
自 流</w>
自 擂</w>
自 得</w>
自 家</w>
自 在</w>
自 吹
自吹 自擂</w>
自 助
自 主
腾 讯</w>
脸 色</w>
脸 皮</w>
脚 手
脚手 架</w>
脑 子</w>
脑 后</w>
能 活</w>
能 干</w>
胡 说八道</w>
胡 主席</w>
胜 算</w>
胜 地</w>
胆 怯</w>
胆 子</w>
育 种</w>
肥皂 泡</w>
股 市
股市 市值</w>
股 价
股价 指数</w>
股 东
肇 始</w>
聪明 才智</w>
聚 集
联合国 难民事务高级专员公署</w>
联合 开发</w>
联合 会
联合会 杯</w>
联 署</w>
联 席
联 名</w>
职业 技能</w>
职业 女性</w>
职业 化</w>
职 守</w>
耸 肩</w>
耶 鲁</w>
耳 道</w>
耳 恭
耳恭 听</w>
而 过</w>
而 用</w>
而 此</w>
而 梅</w>
而 广受</w>
而 喻</w>
而 后
而后 行</w>
而 会</w>
而 仿</w>
而 令</w>
而 仅</w>
考试 成绩</w>
考 古
老 龄</w>
老 话</w>
老 方</w>
老 手</w>
老 式</w>
老 年
老 一代</w>
翻 译</w>
翻 修</w>
翻 两番</w>
翘 首
羽 毛</w>
群众 运动</w>
群 情</w>
群 情
羞 于</w>
美国国家 安全局</w>
美国 能源部</w>
美国 能源</w>
美国 联邦政府</w>
美国 商务部</w>
美元 兑</w>
美 轮美奂</w>
美 索
美索 不
美索不 达米亚</w>
美 帝国主义</w>
美 利
羊 补牢</w>
置 身</w>
置 若罔闻</w>
置 喙</w>
罪 责</w>
罩 着</w>
罗马 帝国</w>
罗伯 茨</w>
罗 素</w>
罗 恩</w>
罗 兹</w>
网络 时代</w>
缺 钱</w>
缴 获</w>
缴 款</w>
缩 写</w>
缠 住</w>
编 织</w>
编 排</w>
缉 毒</w>
缅 甸
缅 因
缅因 州</w>
维持 秩序</w>
维 茨</w>
维 尔
维 坦</w>
维 修</w>
维 他命</w>
维 亚人</w>
绳 之以
绳之以 法</w>
续 续</w>
继续 前进</w>
继承 者</w>
继承 权</w>
继任 人</w>
统治 集团</w>
统治 阶级</w>
统一 行动</w>
统一 性</w>
统 帅</w>
绞 刑</w>
绝 无
绝无 仅
绝无仅 有</w>
给 钱</w>
绕 着</w>
结 社</w>
结 成
结成 联盟</w>
结 婚
绑 架
绑架 者</w>
经验 不足</w>
经济 部长</w>
经济 趋势</w>
经济 委员会</w>
终 身
终 究
终究 会</w>
线 阵</w>
线 粒
线粒 体</w>
纽 斯</w>
纸 上
纷 至沓来</w>
纵 火
纳斯 鲁拉</w>
纳 特</w>
纳 布
纳 州</w>
纳 塔
纪念 馆</w>
红 灯</w>
红 树林</w>
红 场</w>
繁荣 昌
繁荣昌 盛</w>
累 卵</w>
紧 随</w>
索尼 娅</w>
索 性</w>
索 引</w>
索 取</w>
素食 者</w>
素 福</w>
素 养</w>
糊 弄</w>
精神 科</w>
精神 失常</w>
精心 安排</w>
精 致</w>
精 力
精 于</w>
粪 便</w>
粉 墨
粉墨 登场</w>
篱 笆</w>
篮 球</w>
箴 言</w>
箱 子</w>
箭 牌</w>
管理 机制</w>
管理 体制</w>
算 作</w>
简 洁</w>
签 约国</w>
筹 款</w>
策 源地</w>
答 应</w>
等 式</w>
笼 罩着</w>
笼 箱</w>
第四 种</w>
第五 版</w>
第二 套</w>
第二 名</w>
第三 点</w>
第三 名</w>
第一 阶段</w>
第一 天</w>
第 比利
第比利 斯</w>
第 十二个</w>
第 九
第 七
笨 重</w>
笔 钱</w>
章 节</w>
站 边</w>
立法 会</w>
立 志</w>
立 下</w>
突 触</w>
突 出
空 话</w>
空 荡荡</w>
空 头
空头 支票</w>
穷 途末路</w>
穷 困</w>
稻 米</w>
稻 田</w>
稠 密</w>
税 额</w>
税 源</w>
税 则</w>
稍 稍</w>
程序 性</w>
移 民法</w>
移 居
移居 国外</w>
移 动性</w>
称 臣</w>
称 呼</w>
积极 行动</w>
积极 响应</w>
积 雪</w>
积 重难返</w>
积 月
积月 累</w>
积 分</w>
租 期</w>
科研 人员</w>
科学 依据</w>
科威 特人</w>
科 目</w>
科 拉</w>
科 全书</w>
种族 主义者</w>
私有 财产</w>
私 房</w>
离心 力</w>
离 网</w>
离 世</w>
禁 售</w>
祸 根</w>
票 仓</w>
神 父</w>
神 灵</w>
神 学院</w>
神 化</w>
祖 辈</w>
祖 父母</w>
祖 母</w>
社区 卫生</w>
社会 阶层</w>
社会 转型</w>
社会 联盟</w>
社会 活动</w>
社 群</w>
磷 酸盐</w>
磨 难</w>
碳 水
碳水 化合物</w>
碰 面</w>
碰 上</w>
硬 通货</w>
硬 派</w>
破坏 者</w>
破 绽</w>
破 天
研究 生</w>
砍 掉</w>
砍 伐
砍伐 森林</w>
码 事</w>
矿 产
矿产 资源</w>
矿 井</w>
石油 危机</w>
石 原
石原 慎
石原慎 太郎</w>
短期 投资</w>
短 短
短短 的</w>
知名 度</w>
矢 之
矢之 的</w>
睦邻 友好</w>
睁 一只眼</w>
着 眼</w>
眼前 利益</w>
眼 皮
眼皮 底下</w>
眼 旁观</w>
真 格</w>
真 像</w>
看 门人</w>
看 得</w>
看 不出</w>
省 下</w>
相对 论</w>
相互 理解</w>
相互 信任</w>
相 隔</w>
相 看</w>
相 差
相 助</w>
相 关联</w>
相 像</w>
直升 飞机</w>
直 言</w>
直 气
直气 壮</w>
目标 值</w>
目 相看</w>
盛 大</w>
盛 名</w>
盘 手</w>
盖 洛普</w>
皮 诺切特</w>
皮 肤</w>
皮 癣</w>
皮 球</w>
皮 涅
皮涅 拉</w>
皮 子</w>
皇 后</w>
皇 军</w>
的 黎波里</w>
百 科全书</w>
百 强</w>
百 名</w>
百 分之一</w>
白 白</w>
瘾 性</w>
痴 呆</w>
痛不 痒</w>
痛 斥</w>
病 虫害</w>
病 房</w>
疲 惫
疲惫 不堪</w>
疲 倦</w>
疲 于
疲于 奔
疲于奔 命</w>
疮 痍</w>
疑 欧</w>
略 显</w>
略 作</w>
留 权</w>
留 意</w>
畏 缩</w>
画 脚</w>
画 作</w>
画 上</w>
男 癌</w>
男 权</w>
电话 会议</w>
电 路</w>
电 动</w>
申请 加入</w>
申 明</w>
申 报</w>
由 州</w>
由 命</w>
由 之路</w>
田 地</w>
田 园</w>
用 量</w>
用 药</w>
用 电</w>
用 户
用 人</w>
生物 圈</w>
生物 化学</w>
生物 制药</w>
生存 空间</w>
生命 体</w>
生产 链</w>
生 长激素</w>
生 路</w>
生 子女</w>
生 子</w>
甚 众</w>
甘 愿</w>
甘 情愿</w>
甄 别</w>
瓶 装水</w>
瓦 蒂</w>
瓦 时</w>
瓦 拉</w>
瑞 安</w>
琴 科</w>
琢 磨</w>
理 直气壮</w>
理 有
理有 据</w>
理 性
理 发
理 事</w>
理 之中</w>
球 场上</w>
珠 宝</w>
珍妮 弗</w>
现行 政策</w>
现代 战争</w>
现代 主义</w>
现 货</w>
现 如今</w>
环球 时报</w>
环境 退化</w>
环境 署</w>
环境 友好</w>
环保 总局</w>
环保 局</w>
玩 得</w>
玛 雅</w>
玛 格
玛格 丽
玛格丽 特</w>
玛 丽
王 牌</w>
王 星</w>
猴 子</w>
猪 肉</w>
猛 虎</w>
猛 烈地</w>
猛 兽</w>
狼 狈</w>
狼 狈
狼狈 为
狼狈为 奸</w>
狱 之灾</w>
独 霸</w>
独 生子女</w>
独 断</w>
独 力</w>
狙 击手</w>
狗 狗</w>
狂 热
狂热 者</w>
狂 妄
狂妄 自大</w>
犹太 裔</w>
犹太 教徒</w>
犹 他州</w>
特许 权</w>
特拉 华州</w>
特 费林</w>
特 派
特派 团</w>
特 斯拉</w>
特 斯</w>
特 大</w>
牵 线</w>
物质 利益</w>
物 主义</w>
物 业</w>
牢 狱之灾</w>
牢 牢
牢牢 地</w>
牟 取</w>
片 面</w>
爱 荷
爱 心</w>
爱 好</w>
熟练 程度</w>
熟 视无睹</w>
熔 炉</w>
熄 火</w>
照 组</w>
煤 炭
煞 费苦心</w>
热点 问题</w>
热 情
热 切</w>
烟草 行业</w>
烟 消
烟消 云
烟消云 散</w>
炼 金
炼 油</w>
炼 油
炼油 厂</w>
点 头</w>
点 名</w>
炸 药</w>
炸 死</w>
炮 弹</w>
炒 作</w>
炎 热</w>
炉 灶</w>
灵 长类</w>
灵 通</w>
灰 飞烟灭</w>
灰 意
灰意 冷</w>
火车 站</w>
火车 头</w>
火 鸡</w>
火 花</w>
火 热</w>
灌 溉
灌溉 系统</w>
激进 份子</w>
澳大 利亚政府</w>
澡 水</w>
潜 质</w>
潜 在
潜 伏</w>
演化 出</w>
演 示</w>
漏 水</w>
满满 的</w>
满 满</w>
游 览</w>
游 行者</w>
游 泳</w>
温 州</w>
温 哥
温哥 华</w>
渐进 主义</w>
渐 长</w>
渊 博</w>
清醒 过来</w>
混凝 土</w>
混 淆
混淆 视听</w>
混 战</w>
深感 不安</w>
深刻 反思</w>
涣 散</w>
涡 轮机</w>
涓 滴</w>
涌 动</w>
消费 主义</w>
消耗 战</w>
消 解</w>
消 减</w>
涅 姆
涅姆 佐夫</w>
涂 成</w>
海洋 资源</w>
海洋 环境</w>
海市 蜃楼</w>
海 鲜</w>
海 豹</w>
浴 缸</w>
浩 大</w>
浑身 解数</w>
流 行性</w>
流 民</w>
活跃 度</w>
活 在</w>
洛 茨基</w>
洛 特</w>
洛 斯</w>
洗 耳恭听</w>
洗 礼</w>
洗 白</w>
洗 澡水</w>
洗 手</w>
洋洋 自得</w>
泰晤 士
注 视</w>
注 射
泥 炭</w>
波 浪</w>
波 尔</w>
波 利斯</w>
波 兹
波兹 南</w>
法拉 奇</w>
法律 界</w>
法律 法规</w>
法律 手段</w>
法律 义务</w>
法 论</w>
法 比
法比 尤
法比尤 斯</w>
法 尔</w>
法 学家</w>
沿 袭</w>
治 标
治标 不治
治标不治 本</w>
没有 勇气</w>
没 用</w>
没 想到</w>
沉 痛</w>
沉 寂</w>
沈 阳</w>
沃尔 芬森</w>
汽车 行业</w>
污 蔑</w>
江河 日
江河日 下</w>
江 湖</w>
江 户</w>
汉 班</w>
汉 娜</w>
汇 回</w>
汇 丰
汇丰 银行</w>
求 存</w>
永 生</w>
永 无休止</w>
水火 不容</w>
水 落石出</w>
水 管</w>
水 漂</w>
水 兵</w>
水 产</w>
氧 气</w>
氢 弹</w>
气 田</w>
气 旋</w>
气 愤</w>
气 冲
气冲 冲</w>
民主 自由</w>
民 航</w>
氏 症</w>
毫无 作用</w>
毫不 迟疑</w>
毫不 动摇</w>
毛里 塔尼亚</w>
毛 骨悚然</w>
比 肩</w>
比 用</w>
比 奥</w>
比 值</w>
比 上</w>
毒 药</w>
每加 仑</w>
每 逢</w>
每 条</w>
每 晚</w>
每 人
每人 每年</w>
母 猪</w>
毅 夫</w>
殖民 者</w>
残 酷无情</w>
残 杀</w>
殃 及</w>
死亡 威胁</w>
死 者</w>
死 硬派</w>
死 前</w>
死 伤</w>
武装 斗争</w>
武 铉</w>
步 调一致</w>
步 步
步 不前</w>
此 起彼伏</w>
此 番</w>
此 案</w>
此 处</w>
此 地</w>
此 列</w>
正统 思想</w>
正 站</w>
正 为</w>
止 步不前</w>
止 步</w>
歌 颂</w>
歌 剧</w>
欧洲 地区</w>
欧 美
欧 共
次 序</w>
次 年</w>
欠 款</w>
橡 皮
橄榄 球</w>
横 向</w>
横 亘</w>
概 念
楼 价</w>
楚 歌</w>
植 被</w>
棋 子</w>
棋 不定</w>
棉 兰</w>
梅 在</w>
桌 面上</w>
桌 面</w>
桌 会议</w>
桀 骜
根 性</w>
核心 理念</w>
核 试</w>
核 装置</w>
核 政策</w>
核 废料</w>
核 子
核子 武器</w>
标 杆</w>
柯 齐</w>
柯 比</w>
柯 拉</w>
柬埔 寨
查 看</w>
枯 萎</w>
枯 荣</w>
枪 击
枪击 案</w>
林 毅夫</w>
林 地</w>
林 书
林书 豪</w>
极端 困难</w>
极 点</w>
极 好</w>
极 右派</w>
杰 拉德</w>
杰 克逊</w>
来 面目</w>
来 访</w>
来 时</w>
来 势汹汹</w>
来 了</w>
条 文</w>
杞 人
杞人 忧天</w>
李嘉 图</w>
权威 人士</w>
权 谋</w>
权 行为</w>
权 宜</w>
机械 式</w>
机械 化</w>
机 率</w>
朱 莉</w>
本 金</w>
本 源</w>
本 案</w>
本 来面目</w>
本 是</w>
本 方</w>
未 遂政变</w>
未 确定</w>
未 成年</w>
期 徒刑</w>
朝 日
朝日 新闻</w>
望而 却步</w>
望而 不可及</w>
服务 质量</w>
服务 行业</w>
服务 供应商</w>
服务 体系</w>
朊 病毒</w>
有钱 人</w>
有所 区别</w>
有多 远</w>
有 用心</w>
有 理有据</w>
有 期</w>
有 意思</w>
有 意
有意 无意</w>
有 志
有志 于</w>
有 大</w>
有 句
有句 名言</w>
有 发生</w>
有 创造力</w>
月 末</w>
最 难</w>
最 糟</w>
最 热</w>
最 最</w>
最 弱</w>
替代 选择</w>
更 足</w>
更 让人</w>
更 张</w>
更 多</w>
曝 出</w>
曝 光
曝光 率</w>
暴力 犯罪</w>
暴 虐</w>
暴 富</w>
暗 指</w>
暗 含</w>
智力 测验</w>
智 胜</w>
晴 雨表</w>
景 色</w>
景 点</w>
普通 通</w>
普通 家庭</w>
普 里</w>
普 适</w>
普 查</w>
普 普通通</w>
普 拉
晚 餐</w>
晚 年</w>
显 露出</w>
显 身手</w>
星期 天</w>
星期 二</w>
星期 一</w>
易 如
易如 反
易如反 掌</w>
明确 要求</w>
明确 性</w>
明 显
明 州</w>
明 义</w>
昆 德拉</w>
昆 仑
昆仑 山</w>
旺 盛</w>
时 节</w>
时 滞</w>
时 有发生</w>
时 向</w>
早 该</w>
早 点</w>
早 于</w>
早 上</w>
旧 账</w>
旧 式</w>
旦 夕</w>
日趋 激烈</w>
日本 国会</w>
日 起</w>
日 薄西山</w>
日 积月累</w>
日 夜</w>
日 可
日可 待</w>
日 俄
日俄 战争</w>
日 中</w>
既 能</w>
无所 不用
无所不用 其
无所不用其 极</w>
无力 感</w>
无 证</w>
无 端</w>
无 理</w>
无 现金</w>
无 止境</w>
无 核国家</w>
无 数次</w>
无 故</w>
无 愧</w>
无 意
无 古人</w>
无 偿</w>
无 伤
无伤 大
无伤大 雅</w>
旗 手</w>
旅 途</w>
旅 行
旁 遮
施 瓦
施 工</w>
方程 组</w>
方 都</w>
方 法论</w>
方 来</w>
方 在</w>
方 同意</w>
新闻 频道</w>
新闻 台</w>
新 陈代谢</w>
新 词</w>
新 股</w>
新 版</w>
新 泽
新 技能</w>
新 手</w>
新 一波</w>
斯科 特</w>
斯瓦 特</w>
斯特 拉斯
斯特拉斯 堡</w>
斯特 拉
斯图 尔特</w>
斯 皮
斯 拉
斯 德
斯德 哥
斯德哥 尔
斯德哥尔 摩</w>
断 续续</w>
断 断续续</w>
断 供</w>
斩 钉截铁</w>
斩 获</w>
斥 性</w>
斥 为</w>
斟 酌</w>
斐 然</w>
文化 交流</w>
文 组织</w>
文 科</w>
文 档</w>
文 人</w>
文 书</w>
敷 出</w>
整 年</w>
数百 万个</w>
数据 流</w>
数以千 万计</w>
数以 万计</w>
数 码</w>
数 倍</w>
数 亿美元</w>
数 不胜
数不胜 数</w>
散 户</w>
教育 体制</w>
教科 文组织</w>
教条 主义</w>
教 诲</w>
教 父</w>
救 市</w>
救 出</w>
敏感 度</w>
故 事
政治 界</w>
政治 宣传</w>
政治 史</w>
政 要</w>
放眼 世界</w>
放任 自流</w>
放 进</w>
放 置</w>
放 款</w>
放 入</w>
改弦 更张</w>
改 组</w>
改 换</w>
改 名</w>
收入 者</w>
收 缴</w>
收 效</w>
收 割</w>
攀 爬</w>
操纵 者</w>
操 盘手</w>
操 心</w>
操 守</w>
播 出</w>
撞 击</w>
撒 旦</w>
撇 开</w>
摩 西</w>
摊 派</w>
摇滚 乐</w>
摇 篮</w>
摄像 头</w>
搭 乘</w>
搞 好
搞好 关系</w>
援 救</w>
揭 露出</w>
提 速</w>
提 前
推 选</w>
推 进改革</w>
推 向
推向 市场</w>
推 后</w>
控 方</w>
控 告</w>
接种 率</w>
接受 程度</w>
接 见</w>
接 地</w>
掠夺 者</w>
掘 出</w>
排名 第</w>
排 水系统</w>
排 斥性</w>
排 头
排头 兵</w>
排 列</w>
排 入</w>
排 位</w>
掌 舵</w>
掌 权者</w>
换 代</w>
捆 住</w>
振 作</w>
挫 折
挫折 感</w>
挪 用</w>
挣 到</w>
挡 箭牌</w>
挑 剔</w>
指挥 部</w>
指手 画脚</w>
指导 方针</w>
指导 意义</w>
指 日可待</w>
挂 牌</w>
持久 性</w>
拿 捏</w>
招 牌</w>
招 徕</w>
招 工</w>
拖 网</w>
拖 拉</w>
拖 垮</w>
拖 不决</w>
拔 弩
拔弩 张</w>
拒绝 给予</w>
拒 不
拍 照</w>
拉 纳</w>
拉 格</w>
拉 底
拉底 河</w>
拉 尼</w>
拆 毁</w>
担 责</w>
抽 走</w>
抱 定</w>
报 告
报 价</w>
抢 走</w>
抢 先</w>
抚 慰</w>
折 中</w>
抗 病毒</w>
抗 日
投资 收益</w>
投资 总额</w>
投票 选举</w>
投 送</w>
抑制 剂</w>
把 手</w>
把 交椅</w>
承担 者</w>
承 销</w>
承 办</w>
扬 光
扬光 大</w>
扫 盲</w>
扫 射</w>
执行 权</w>
托 洛茨基</w>
托 宾
托宾 税</w>
托 塔</w>
托 儿
托儿 所</w>
打 起</w>
打 理</w>
打 成
打 包</w>
打 分</w>
扎 卡
扎卡 维</w>
才 行</w>
手术 室</w>
手 铐</w>
手 臂</w>
所 见所闻</w>
所 获</w>
所 示</w>
所 望</w>
所 提</w>
戴 天</w>
战略 方针</w>
战略 意义</w>
战斗 部队</w>
战斗 力</w>
战 绩</w>
战 国</w>
或 用</w>
戒 严
戒严 令</w>
我 能</w>
我 以</w>
成本 增加</w>
成功 者</w>
成功 率</w>
成 问题</w>
成 绩
成 瘾性</w>
成 灾</w>
成 形</w>
成 就
成就 感</w>
成 像</w>
成 为
慎 重</w>
愿 景
感觉 良好</w>
感 激</w>
感 性</w>
感 召</w>
意 见
意 表</w>
意 指</w>
意 孤
意孤 行</w>
愎 自用</w>
愈 渐</w>
愈 合</w>
想 过</w>
想 敌</w>
想 不出</w>
惨 遭
惨 淡</w>
惨 不
惨不 忍
惨不忍 睹</w>
惊 险</w>
惊 恐</w>
惊 吓</w>
情绪 高涨</w>
情 理之中</w>
情 侣</w>
患 病率</w>
悉 尼</w>
恼 怒</w>
恶劣 影响</w>
恶 毒</w>
恶 梦</w>
恶 感</w>
恶 性
恶 名</w>
恶 习</w>
恭 顺</w>
恩 格尔</w>
恣 意妄为</w>
恒 定</w>
恐惧 感</w>
恐怖 行动</w>
恐怖 事件</w>
总 要</w>
总 督</w>
总 死亡率</w>
总 产量</w>
怯 懦</w>
怪 罪</w>
怪 人</w>
性别 角色</w>
性 虐待</w>
性 交</w>
急 跌</w>
怠 慢</w>
思 维
怒 气冲冲</w>
怎 能</w>
态 度
态度 强硬</w>
怀 特</w>
念 头</w>
快速 反应</w>
快 餐
忧 参半</w>
忠 诚度</w>
志 在</w>
忍 饥挨饿</w>
忍 度</w>
忍 受
必然 结果</w>
必 胜</w>
必 由之路</w>
心脏 地带</w>
心 腹</w>
心 甘情愿</w>
心 灰意冷</w>
心 二
心二 意</w>
德国 议会</w>
德 里
德 萨</w>
德 茜</w>
德 维尔</w>
德 温</w>
德 法</w>
德 林</w>
德 意志</w>
微 量元素</w>
微 量</w>
循环 系统</w>
得 通</w>
得 角</w>
得 税</w>
得 少</w>
很 棒</w>
待 见</w>
征 询</w>
征 得</w>
征 地</w>
彼 迪</w>
形 同</w>
录 取</w>
录 像
录像 带</w>
当 该</w>
当 头
当 场</w>
当 众</w>
当 之
当之 无愧</w>
强 项</w>
强 音</w>
强 盗</w>
强 壮</w>
张 贴</w>
弟 弟</w>
弗洛 伊德</w>
弗 雷</w>
弗 氏</w>
引人 关注</w>
异 议人士</w>
异 口
异口 同
异口同 声</w>
开 门</w>
开 邦</w>
开 源</w>
开 征</w>
开 宗
开宗 明义</w>
开 头</w>
开 国
开国 元勋</w>
开 动</w>
建设 项目</w>
建筑 商</w>
建 坝</w>
廉 洁</w>
康 拉德</w>
底 盘</w>
底 牌</w>
底 气</w>
应 变</w>
库 斯</w>
广播 公司</w>
广 东
幼 发
幼发 拉底河</w>
幻 象</w>
并不 大</w>
并 列</w>
年 任</w>
平民 百姓</w>
平方 米</w>
平均 温度</w>
平均 气温</w>
平均 主义</w>
平 平</w>
平 反</w>
干 涸</w>
干 干
干干 净
干干净 净</w>
幕后 操纵</w>
常规 战争</w>
常 驻</w>
常 现象</w>
常 年</w>
席 勒</w>
带 去</w>
帝 王</w>
帝 汶</w>
帖 耳</w>
帕斯 卡</w>
希 里</w>
希 波</w>
师 资</w>
布鲁 斯</w>
布莱 恩</w>
布拉 特</w>
布 隆</w>
布 赖
布 置</w>
布 林</w>
布 加勒
布加勒 斯特</w>
巴布 亚
巴布亚 新几内亚</w>
巴 达</w>
巴 萨</w>
巴 政府</w>
巴 拉
巴 厘
巴厘 岛</w>
巴 兰</w>
巴 东</w>
已 降</w>
已 有之</w>
已 是</w>
已 使</w>
已 于</w>
己 见</w>
己 方</w>
己 任</w>
己 主义</w>
差 点</w>
差 异化</w>
差 不齐</w>
巫 术</w>
巨 灾</w>
工程 学</w>
工作 量</w>
工作 效率</w>
工 科</w>
工 时</w>
工 地</w>
工 事</w>
岸 关系</w>
岸 信</w>
山 火</w>
山 坡</w>
履 历</w>
属 实</w>
属 国</w>
屈 膝</w>
屈 尊</w>
居民 区</w>
居住 地</w>
居 留权</w>
居 家</w>
居 功
居功 至伟</w>
局 性</w>
尾 部</w>
尽其 用</w>
尽其 所能</w>
尽 人皆知</w>
尼西 亚
尼西亚 联邦</w>
尼泊尔 人</w>
尼日 利亚政府</w>
尼日 利亚人</w>
尼 雷尔</w>
尼 维斯</w>
尼 安
尼安 德</w>
尺 度</w>
就 象</w>
就 会</w>
尤 利
尖端 科技</w>
尖 塔</w>
尔 斯
尔 库克</w>
尔 尼诺</w>
小康 之家</w>
小 额贷款</w>
小 觑</w>
小 男孩</w>
小 幅</w>
小 巷</w>
小 小</w>
小 城</w>
小 型企业</w>
射 程</w>
封 建</w>
封 建
封 堵</w>
寿 保险</w>
导 游</w>
寺 庙</w>
对 阵</w>
对 照组</w>
对 本</w>
对 局</w>
对 埃</w>
对 决</w>
寥 寥</w>
富 饶</w>
富 集</w>
富 有成效</w>
富 有
富 庶</w>
富 含</w>
密 苏里州</w>
密 歇
密 克罗
密克罗 尼西亚联邦</w>
寄 托</w>
寄 主</w>
宽 慰</w>
容 错过</w>
容 忍度</w>
家长 作风</w>
家 电</w>
宫 廷</w>
宣传 机构</w>
宣 誓就职</w>
宣 泄</w>
客观 性</w>
实际 成本</w>
实 录</w>
实 弹</w>
定 理</w>
定 时
定 势</w>
定 位
宙 斯</w>
官僚 作风</w>
官 兵</w>
宏伟 目标</w>
宏 愿</w>
完全 符合</w>
完 备</w>
安第 斯
安然无 恙</w>
安德 烈</w>
安德 森</w>
安全 阀</w>
安全 部</w>
安全 带</w>
安东 尼</w>
安 静</w>
安 纳</w>
安 局</w>
安 宁</w>
安 和
安 吉
安 上</w>
守 护者</w>
守 住</w>
宇航 局</w>
宇宙 学</w>
学习 成绩</w>
学 年</w>
季 奇</w>
孙 子</w>
存 活率</w>
存 储
孔 雀</w>
孔 乔</w>
子 孙</w>
嫌疑 犯</w>
嫁 接</w>
威廉 姆斯</w>
威 摄</w>
威 吓</w>
委 派</w>
姑 且</w>
如此 说来</w>
如 累卵</w>
如 是</w>
如 其</w>
好几 代</w>
好 恶</w>
好 客</w>
好 些</w>
女权 运动</w>
女 权</w>
女 孩子</w>
女 婿</w>
女 佣</w>
奥林匹克 委员会</w>
奥斯 卡</w>
奥 尼尔</w>
奥 尔</w>
奥 孔乔</w>
奥 威尔</w>
奥 委会</w>
套 餐</w>
奔 赴</w>
奇 高</w>
奇 点</w>
奄 奄
奄奄 一
奄奄一 息</w>
夺 得</w>
夹 击</w>
夸大其 词</w>
头 脑
头 疼</w>
头 来</w>
头 把交椅</w>
头 地</w>
头 号</w>
头 发</w>
失 血</w>
失 色</w>
失 所望</w>
失 之
太 早</w>
太 弱</w>
天花 板</w>
天 线阵</w>
天 由命</w>
天 敌</w>
天 天</w>
天 体</w>
天 下
天 上
天上 掉</w>
大放 厥
大放厥 词</w>
大手 大
大手大 脚</w>
大体 相当</w>
大众 公司</w>
大于 弊</w>
大 鱼</w>
大 错</w>
大 跌眼镜</w>
大 赢家</w>
大 计</w>
大 船</w>
大 致相同</w>
大 白</w>
大 牢</w>
大 炮</w>
大 洋
大 步</w>
大 案</w>
大 权
大 患</w>
大 失所望</w>
大 夫</w>
大 型
大 国家
大国家 党</w>
大 嘴
大嘴 巴</w>
大 减</w>
大 一
大一 统</w>
夥 伴</w>
多种 不同</w>
多 速</w>
多 迪克</w>
多 见</w>
多 疑</w>
多 来</w>
多 月</w>
多 公里</w>
多 党</w>
多 一些</w>
外 资企业</w>
外 来
外 向型</w>
外 加</w>
外 事</w>
处 事</w>
声 势
声势 浩大</w>
增长 量</w>
增长 幅度</w>
增 高</w>
增 长期</w>
增 产</w>
墓 地</w>
境 者</w>
填 满</w>
塞尔 维亚人</w>
塞 维奇</w>
塞 拉</w>
塔 拉特</w>
塑料 制品</w>
塌 糊涂</w>
堪 萨斯城</w>
基础 科学</w>
基督教 社会联盟</w>
基督教 民主联盟</w>
基督 教堂</w>
基本 知识</w>
基本 特征</w>
基本 技能</w>
基 要</w>
基 尔库克</w>
培 养
域 外</w>
城市 贫民</w>
埋 单</w>
埃 德</w>
埃 以</w>
垫 脚石</w>
垄断 权</w>
垂 死</w>
坦 白</w>
坟 墓</w>
坐视 不
坐视不 理</w>
坐 拥</w>
坐 以
坐以 待毙</w>
坏 名声</w>
坎 南</w>
均 匀</w>
场 馆</w>
地质 学家</w>
地理 分布</w>
地方 法院</w>
地 热</w>
地 使</w>
在所 不惜</w>
在 旦夕</w>
在 心</w>
在 世</w>
土著 居民</w>
土耳其 共和国</w>
圈 子里</w>
圆 满
圆 桌会议</w>
图 书</w>
国际 红十字会</w>
国际 竞争</w>
国际 石油</w>
国际 形势</w>
国际 奥林匹克委员会</w>
国际 公约</w>
国民 经济</w>
国家 计划</w>
国家 机器</w>
国家 所有</w>
国 罪</w>
国 立大学</w>
国 所</w>
固定 成本</w>
固 化</w>
围 攻</w>
困 苦</w>
园 丁</w>
因 国</w>
因 其</w>
回 首</w>
回 调</w>
回 潮</w>
回 溯</w>
回 想到</w>
四面 楚歌</w>
四 邻</w>
四 点</w>
四 日</w>
四 岛</w>
四 岁</w>
四 位</w>
噶 玛
噪 声</w>
嘴 里</w>
嘴 皮子</w>
嘉 吉</w>
嘈 杂</w>
喷 洒</w>
喜 悦</w>
喜 忧参半</w>
喇 昆仑山</w>
善 良</w>
喂 饱</w>
喀 喇昆仑山</w>
商业 价值</w>
唯 物主义</w>
唐 吉
唇 枪
哺乳 动物</w>
哪 家</w>
哪 儿</w>
哥 哥</w>
哈 顿</w>
哈 里</w>
哈 肖
哈 桑</w>
哈 斯</w>
哈 姆
哈 利</w>
品 牌
咳 嗽</w>
和平 部队</w>
和平 统一</w>
和 谐
和 约</w>
呼之欲 出</w>
呼 喊</w>
呵 护</w>
周边 环境</w>
周 转</w>
告 罄</w>
告 竭</w>
呈 交</w>
呆 板</w>
吸取 经验</w>
吸 引
启 迪</w>
听 天由命</w>
吞 下</w>
君主 国</w>
吐 温</w>
后 院</w>
后 门</w>
后 台</w>
后 勤</w>
后 人</w>
名 誉扫地</w>
名 状</w>
名 气</w>
名 录</w>
同等 条件</w>
同步 增长</w>
同情 者</w>
同一 时间</w>
同 质化</w>
同 质</w>
同 胞
同 时代</w>
同 属</w>
同 一天</w>
吉 米</w>
合法 利益</w>
合 实际</w>
各种 因素</w>
各个 击破</w>
各 部</w>
各 行各业</w>
各 省</w>
各 党</w>
叹 为
叹为 观止</w>
司法 机关</w>
司法 公正</w>
号 角</w>
史密 夫</w>
史 诗</w>
史 普</w>
史 学家</w>
史 为
台 北</w>
可口 可乐</w>
可 验证</w>
可 达</w>
可 行
可 望而不可及</w>
可 以
可以 信赖</w>
召 唤</w>
古 板</w>
叛 逆</w>
叛 国罪</w>
变幻 莫测</w>
变 质</w>
变 相</w>
变 现</w>
变 幻</w>
变 局</w>
变 富</w>
受灾 地区</w>
受到 破坏</w>
受 限于</w>
受 试者</w>
受 托</w>
受 伤害</w>
取得 成效</w>
取 豪夺</w>
取 回</w>
发育 不良</w>
发出 信号</w>
发 行者</w>
发 扬光大</w>
反托 拉斯</w>
反 问</w>
反 欧</w>
反 攻</w>
反 恐怖</w>
反 叛者</w>
反 分裂
反分裂 法</w>
双边 合作</w>
双边 协定</w>
双边 会谈</w>
双 轨制</w>
双 方同意</w>
双 倍</w>
友 爱</w>
及 早</w>
参 差不齐</w>
参 会</w>
参 众
参众 两院</w>
去 年底</w>
厨 师</w>
原 由</w>
原 住
原住 民</w>
原 产地</w>
厚 望</w>
压 裂</w>
压 榨</w>
历史 背景</w>
历史 渊源</w>
历史 悠久</w>
历 者</w>
厄 尔尼诺</w>
厂 房</w>
厂 家</w>
却 说</w>
却 没能</w>
却 成</w>
却 令</w>
危 急
危 如累卵</w>
印度 议会</w>
印度 河</w>
印 美</w>
印 第
卫生 领域</w>
卫生 条件</w>
卫生 机构</w>
卫 兵</w>
卢 武铉</w>
卢 斯</w>
卡罗 来
卡 通
卡 车司机</w>
卡 舒吉</w>
南美 国家</w>
南 美洲</w>
南 岸</w>
南 墙</w>
南 半球</w>
卖 方</w>
单 一
卓 有成效</w>
协 约</w>
华盛顿 州</w>
半 边</w>
半 后</w>
升 起</w>
十字 架</w>
十字 军</w>
十 次</w>
十 四</w>
十 名</w>
十 三个</w>
十 三</w>
医疗 机构</w>
医 务
医务 人员</w>
匹 兹
匹兹 堡</w>
北方 四岛</w>
北 海</w>
化工 产品</w>
化学 物质</w>
化为 泡影</w>
化为 乌有</w>
匈牙 利
匈牙利 政府</w>
包 装盒</w>
勒 德</w>
勉 力</w>
势 必</w>
势 不可
势不可 挡</w>
劳工 市场</w>
劳 方</w>
努力 提高</w>
努力 实现</w>
努力 争取</w>
劣 根性</w>
加拿大 人</w>
加拉 加斯</w>
加 里</w>
加 薪</w>
加 热</w>
加 总</w>
功利 主义</w>
功 课</w>
功 夫</w>
功 半</w>
劝 服</w>
剑 拔弩张</w>
前 路</w>
前 沿
前 无古人</w>
前 哨</w>
前 人</w>
前 些年</w>
刺 眼</w>
制 肘</w>
制 成品</w>
制 冷
到 如今</w>
刮 目相看</w>
别 有用心</w>
利 维坦</w>
利 得税</w>
利 己主义</w>
利 大于弊</w>
判 例</w>
初 现</w>
创造 物</w>
创业 家</w>
创 作</w>
刚 愎自用</w>
则 否</w>
划 界</w>
刑 期</w>
切 合实际</w>
分裂 性</w>
分离 出来</w>
分 野</w>
分 行</w>
分 组</w>
分 级</w>
分 清</w>
分 泌</w>
分 晓</w>
分 心</w>
击 碎</w>
出人 意表</w>
出人 头地</w>
出 走</w>
出 狱</w>
出 比</w>
出 柜</w>
出 场</w>
出 入</w>
出 以</w>
出 事</w>
凭 证</w>
凭 着</w>
几十 万</w>
几 英里</w>
几 点</w>
几 任</w>
几 代</w>
几 万</w>
减 薪</w>
凋 零</w>
准确 率</w>
准 军事</w>
冷 眼旁观</w>
决 选</w>
决 不可</w>
决 不会</w>
冲 锋枪</w>
冰 球</w>
冰 点</w>
冤 相报</w>
冤 冤相报</w>
农村 居民</w>
农业 生产者</w>
农 牧民</w>
农 庄</w>
军 警</w>
军 职</w>
军 工</w>
军 中</w>
写 给</w>
写 下</w>
再也 不会</w>
再 起</w>
再 保险</w>
内 疚</w>
内 生</w>
内 所</w>
内 含</w>
内 为</w>
兽 医</w>
兼 容
兼 具</w>
养殖 业</w>
具体 步骤</w>
具体 分析</w>
具体 任务</w>
其 身</w>
其 本质</w>
其 有</w>
其 子</w>
其 向</w>
其 以</w>
其 事</w>
其 上</w>
其 三</w>
兴 高采烈</w>
关键 步骤</w>
关系 史</w>
关塔那 摩湾</w>
关 怀</w>
关 停</w>
共产 党人</w>
共 通</w>
共 计</w>
共 戴天</w>
共 性</w>
兰 花</w>
兰 岛</w>
兰 尼加</w>
六 次</w>
六 日</w>
六 方</w>
公共 场所</w>
公共 关系</w>
公之 于众</w>
公 道</w>
公 路
公 理</w>
公 款</w>
公 审</w>
公 墓</w>
公 会</w>
公 交</w>
八 强</w>
八 名</w>
全面 性</w>
全面 实施</w>
全球 通</w>
全球 排名</w>
全 票</w>
全 盘</w>
全 是</w>
全 局性</w>
全 体
入 手</w>
入 境者</w>
入 不
入不 敷出</w>
克劳 德</w>
克 拉底</w>
克 拉
光 顾</w>
光 纤
先 验</w>
先 人</w>
充分 说明</w>
充分 证明</w>
充 栋</w>
兄弟 姐妹</w>
儿 科</w>
僧 伽
僧伽 罗</w>
催 化</w>
偷 走</w>
偷 懒</w>
停 用</w>
停 产</w>
偏 重于</w>
偏 低</w>
偏 不
偏不 倚</w>
假 肢</w>
假 想敌</w>
假 丝</w>
值 此</w>
倡 议者</w>
借 机</w>
倚 赖</w>
候选 国</w>
倒 计时</w>
倒 置</w>
倍 受</w>
倍 功半</w>
俯首 称臣</w>
俯首 帖耳</w>
修订 版</w>
修 饰</w>
修 课</w>
修 缮</w>
修 斯</w>
修 改
信贷 风险</w>
信用 风险</w>
信息 流</w>
信奉 宗教</w>
信 众</w>
保险 商</w>
保险 制度</w>
保险 人</w>
保持 高速</w>
保守 党人</w>
俄 政府</w>
俄 克拉
俄 中</w>
促 进作用</w>
侵 权行为</w>
侦 测</w>
供给 者</w>
供 职</w>
侍 者</w>
使 然</w>
佯 装</w>
作 用力</w>
作 法</w>
作 恶
佛 蒙特州</w>
佛 教徒</w>
佛 得角</w>
佛 伦</w>
体 面地</w>
佐 证</w>
低 至</w>
低 洼</w>
低 层</w>
低 人一等</w>
低 且</w>
但 近</w>
但 莫迪</w>
但 据</w>
但 光</w>
伸 手</w>
估 价</w>
伪 科学</w>
伦 敦
伤 痛</w>
伤 疤</w>
传染 给</w>
传 给</w>
传 教士</w>
传 教</w>
传 承</w>
会计 师</w>
会计 准则</w>
会 用</w>
会 拉低</w>
会 到</w>
优惠 条件</w>
优先 股</w>
优 美</w>
优 秀
优 渥</w>
众 矢之的</w>
休 斯</w>
伏 击</w>
伍 迪</w>
伊 本</w>
伊 斯</w>
伊 拉</w>
伊 克</w>
伊 丽
伊丽 莎白</w>
企业 债</w>
企 及</w>
仿 真</w>
价值 观念</w>
价 钱</w>
价 物</w>
以 身作则</w>
以 蔽之</w>
以 此
以 有</w>
以 新</w>
以 史为
以 军</w>
以 人为
以人为 本</w>
令人 钦佩</w>
代表 制</w>
仙 台</w>
付诸 东流</w>
付 之
他 本</w>
他 成</w>
从 以</w>
从 业</w>
介 质</w>
今 年底</w>
今 已是</w>
今 夏</w>
仅 只是</w>
仅 仅只是</w>
亿 元</w>
亿 个</w>
人造 卫星</w>
人类 学家</w>
人文 科学</w>
人才 外流</w>
人口 稠密</w>
人口 总数</w>
人 里</w>
人 花</w>
人 猿</w>
人 寿保险</w>
人 多
人 向</w>
亲 手</w>
亲 人</w>
享 有
产品 质量</w>
产品 开发</w>
产业 化</w>
产 阶层</w>
产 油</w>
产 后</w>
交通 系统</w>
交易 平台</w>
交 集</w>
交 锋</w>
交 还给</w>
交 响
亡 羊补牢</w>
亚历 克</w>
亚 非</w>
五 百</w>
五 月份</w>
五 家</w>
五 千</w>
五 十年代</w>
五 人</w>
互 赖性</w>
互 动
亏 钱</w>
亏 空</w>
于 耳</w>
二氧化 硫</w>
二 级</w>
二 手
事实 真相</w>
事 要</w>
事 前</w>
事 到如今</w>
事 倍功半</w>
事 上</w>
了 结</w>
了 个</w>
乳 腺</w>
书 写</w>
也 罢</w>
九 鼎</w>
九 月份</w>
九 倍</w>
乌 戈</w>
之春 所</w>
之春 中</w>
之 门</w>
之 词</w>
之 父</w>
之 星</w>
之 徒</w>
之 名</w>
之 人</w>
之 义</w>
义 词</w>
久经 考验</w>
久 拖不决</w>
举 棋不定</w>
举 世
主要 职责</w>
主管 部门</w>
主导 者</w>
主宰 世界</w>
主人 公</w>
主 旋律</w>
主 政</w>
主 妇</w>
主 力</w>
为 限</w>
为 傲</w>
为 一</w>
丹 尼尔斯</w>
丹 尼</w>
临时 工</w>
临 沂</w>
丰 收</w>
中美 合作</w>
中心 点</w>
中国 人民解放军</w>
中 饱私囊</w>
中 大获</w>
中 向</w>
中 产阶层</w>
个人 隐私</w>
个 例</w>
丧 钟</w>
严重 错误</w>
严峻 考验</w>
严 惩</w>
严 加</w>
严 刑
严 冬</w>
两国 人民</w>
两 边</w>
两 艘</w>
两 股</w>
两 枚</w>
两 方</w>
两 德</w>
两 岸关系</w>
两 届</w>
两 套</w>
两 分法</w>
东 方
东 帝汶</w>
东 南亚地区</w>
东 侧</w>
丛 生</w>
世界 领先</w>
世界 遗产</w>
世俗 化</w>
专利 制度</w>
专业 人才</w>
专 有</w>
专 员</w>
丑 化</w>
与此 相关</w>
与 世
不顾 一切</w>
不闻 不问</w>
不言 而喻</w>
不能 自拔</w>
不绝 于耳</w>
不知 所
不断 深入</w>
不太 好</w>
不可 磨灭</w>
不可 告人</w>
不厌 其烦</w>
不 连贯</w>
不 设</w>
不 觉</w>
不 致</w>
不 肯</w>
不 稳固</w>
不 着
不 痛不痒</w>
不 屈</w>
不 妥</w>
不 周</w>
不 单
不 准</w>
不 共戴天</w>
不 免</w>
不 偏不倚</w>
不 值</w>
不 信任感</w>
不 了
不 买账</w>
下 级</w>
下 水</w>
下 旬</w>
下 意识</w>
下 岗
下 一波</w>
上 海
上 持</w>
上 报</w>
上 所述</w>
上 届</w>
三思 而后行</w>
三 类</w>
三 百万</w>
三 百
三 心二意</w>
三 座</w>
万 里</w>
万 贯</w>
万 分</w>
万 例</w>
万 份</w>
七 成</w>
七 名</w>
七 十</w>
一言 以蔽之</w>
一言 九鼎</w>
一线 希望</w>
一百万 个</w>
一点 一点</w>
一无所 获</w>
一年 一度</w>
一团 糟</w>
一去 不复
一切 顺利</w>
一切 正常</w>
一切 办法</w>
一 针</w>
一 遍</w>
一 贫如洗</w>
一 英里</w>
一 缕</w>
一 瞬间</w>
一 盘
一 片
一 意孤行</w>
一 弹</w>
一 年级</w>
一 帖</w>
一 岁</w>
一 夫
一 塌糊涂</w>
一 千</w>
一 出</w>
一 具</w>
一 党制</w>
一 众</w>
一 串</w>
一 世</w>
一 万亿美元</w>
一 一
y n
ver S
verS weet</w>
ug ov
ugov oi</w>
u t
u el</w>
u d</w>
t t
t s
t e</w>
sk i</w>
s h
r e</w>
p p
p ol
p ar
ow er
or s</w>
on s
l t</w>
k onzo</w>
k ill
k ed
ked I
kedI n</w>
it y</w>
in kedIn</w>
in e</w>
ic le</w>
ic h
iP ad</w>
i x</w>
i r</w>
i o</w>
g u
g t</w>
es t</w>
es s
er t</w>
er g</w>
er a</w>
en b
ed ia</w>
e a
b ill</w>
at si</w>
as s
ar n
ar d</w>
ap p</w>
an g
an d</w>
amp lt</w>
amp gt</w>
al ud</w>
ak i</w>
agh icle</w>
ac h
a w
Y D</w>
W atsi</w>
W HC</w>
V C</w>
U PA</w>
Targ et</w>
T ig
T e
T Y</w>
T AR
Sar kozy</w>
ST E
STE M</w>
SDS N</w>
SB N</w>
SA ARC</w>
S n
S M</w>
S C</w>
S AR
SAR S</w>
Re id</w>
R T</w>
QE 3</w>
PR DF</w>
PM I</w>
PDV SA</w>
P ower
P ol
P o
P YD</w>
P V</w>
P P
P 2P</w>
O S</w>
O N</w>
NH S</w>
NA SA</w>
Me et
MH 17</w>
M aghicle</w>
M W</w>
M S</w>
M IT</w>
M B</w>
L ugovoi</w>
L inkedIn</w>
L S</w>
L F
LF PR</w>
Kib aki</w>
J oh
J PM</w>
IS T</w>
IR G
IRG C</w>
IC U</w>
IC TY</w>
IC O</w>
IC C</w>
I TC</w>
HIC C
HICC up</w>
H PV</w>
G GE</w>
FD IC</w>
FC I</w>
ES M</w>
EC CS</w>
E verSweet</w>
E l
E T
E PRDF</w>
E ITC</w>
E BM</w>
DV D</w>
D i
D R</w>
CP J</w>
COP 15</w>
CF T</w>
CB D</w>
CA PE</w>
C S
C P</w>
C O
C IA</w>
B LS</w>
B ECCS</w>
AR PA</w>
AL BA</w>
AI G</w>
A T
A D</w>
9. 6</w>
9. 2</w>
9. 1</w>
8 0
7. 8</w>
7. 2</w>
6. 2</w>
6 80</w>
6 40</w>
6 0
5. 7</w>
5. 2</w>
40 1
401 k</w>
4. 4</w>
3 80</w>
2 90</w>
2 80</w>
2 800</w>
195 4</w>
195 2</w>
194 6</w>
194 2</w>
19 5</w>
19 23</w>
19 1</w>
19 19</w>
19 15</w>
18 70</w>
18 5</w>
10 5</w>
10 4</w>
1. 65</w>
1 69</w>
1 3
1 2.5</w>
1 15</w>
0.0 5</w>
0 8</w>
0 20</w>
龙 佩</w>
鼠 疫</w>
鼓 里</w>
鼓 起
鼓起 勇气</w>
鼓 作
鼓作 气</w>
鼎 盛时期</w>
鼎 力
鼎力 支持</w>
黯 然
黯然 失色</w>
默默 地</w>
默 化</w>
黑暗 面</w>
黑 海地区</w>
黑 山</w>
黄 色</w>
黄 种</w>
麻省理 工</w>
麻 风</w>
麻 醉</w>
麻 木</w>
麦 田</w>
麦 康奈
麦康奈 尔</w>
麟 角</w>
鹤 立
鹤立 鸡
鹤立鸡 群</w>
鸦 片
鸦片 贸易</w>
鸡 窝</w>
鲜 见</w>
鲁 棒
鲁棒 性</w>
鲁 拉
鲁 宾</w>
鱼 鹰</w>
鱼 翅</w>
魔法 师</w>
魏 玛</w>
魅 力
魅力 四射</w>
高级专 员</w>
高级 将领</w>
高层 论坛</w>
高压 政策</w>
高 频</w>
高 贵</w>
高 能耗</w>
高 科技
高科技 产品</w>
高 碳</w>
高 标准</w>
高 手</w>
高 房价</w>
高 声</w>
高 利
高利 贷</w>
高 傲</w>
高 估计</w>
高 人一等</w>
高 于
高于 一切</w>
高 且</w>
高 下</w>
骨 骼</w>
骤 停</w>
骗 人</w>
骄 人</w>
驾驶 员</w>
驱 除</w>
驱 虫</w>
驱 散</w>
驱 动
驱动 器</w>
马里 人</w>
马来 人</w>
马拉 松</w>
马尔 默</w>
马哈 拉
马哈拉 施
马哈拉施 特拉
马哈拉施特拉 邦</w>
马 马
马 迹</w>
马 赛
马 蒂</w>
马 洪</w>
马 普
马 可</w>
马 利</w>
马 上会</w>
香 草</w>
首 度</w>
首 场</w>
饶 恕</w>
饵 料</w>
食 谱</w>
食 物
飞 快</w>
风险 性</w>
风 骚</w>
风 生
风生 水</w>
风 投</w>
风 平
风平 浪
风平浪 静</w>
风 头</w>
风 吹
额 制</w>
颜 面</w>
题 大
题大 做</w>
频 密</w>
频 仍</w>
领导 岗位</w>
领 风骚</w>
领 袖
领袖 人物</w>
领 悟</w>
领 会到</w>
领 事</w>
预 选</w>
预 想到</w>
预 制</w>
预 判</w>
预 先
颂 扬</w>
颁奖 仪式</w>
顿 涅
顿涅 茨
顿涅茨 克</w>
顾 拜
顾拜 旦</w>
顽 强
顽强 抵抗</w>
顺 着</w>
项目 管理</w>
项 资金</w>
项 背</w>
韩 国
韩 关系</w>
韦 尼</w>
鞋 子</w>
面 粉</w>
面 时</w>
面 会</w>
面 价值</w>
靠 山</w>
非常 任</w>
非 裔</w>
非 碳</w>
非 生产性</w>
非 派</w>
非 此
非此 即
非此即 彼</w>
非 技术性</w>
非 技术</w>
非 成员国</w>
非 必要</w>
非 典型</w>
非 典</w>
非 住宅</w>
非 人类</w>
静 坐</w>
静 候</w>
青 蛙</w>
霸 道</w>
霸 占</w>
露 西</w>
露 天</w>
霍尔 姆</w>
霍 伊</w>
雾 气</w>
雷 诺</w>
雷 布林</w>
雷 姆斯</w>
雷 声
雷 克
雷克 雅
雷克雅 未
雷克雅未 克</w>
零 增长</w>
零 净</w>
零 关税</w>
零 八</w>
零 件</w>
雨 欲
雨欲 来</w>
雨 果</w>
雨 季</w>
雨 后
雨后 春
雨后春 笋</w>
雇佣 工人</w>
雇 工</w>
雇 人</w>
集 装
集装 箱</w>
集 聚</w>
集 约</w>
集 散
集散 地</w>
雅 明</w>
雅 尔塔</w>
雅 塔</w>
难民 署</w>
难以 相处</w>
难以 名状</w>
难 解</w>
难 觅</w>
难 杂
难杂 症</w>
难 忘</w>
难 产</w>
隶 属</w>
隔 开</w>
随 身</w>
隆 姆</w>
陷 落</w>
陶 器</w>
陪审 员</w>
陪 衬</w>
陪 同</w>
陪 伴</w>
除 罪</w>
除 开</w>
除 少数</w>
除 以</w>
院 派</w>
院 治疗</w>
限 速</w>
降 临
降临 到</w>
陈 词</w>
陈 列</w>
陆 路</w>
附 庸
附庸 国</w>
附 带
附带 条件</w>
附 件</w>
阿特 拉斯</w>
阿斯 塔纳</w>
阿帕 约</w>
阿尔及 尔</w>
阿尔 塞</w>
阿尔 伯特</w>
阿卜 杜</w>
阿什 顿</w>
阿 里斯
阿里斯 蒂
阿里斯蒂 德</w>
阿 罗</w>
阿 片
阿片 类</w>
阿 比</w>
阿 杜
阿 族</w>
阿 密</w>
阿 塔</w>
阿 司
阿司 匹林</w>
阿 利
阿 克</w>
阿 伯特</w>
阿 伦</w>
阻 断</w>
阵 列</w>
防 灾</w>
防 洪</w>
防 止
防 暴
防暴 警察</w>
闻名 世界</w>
间 隔</w>
间 接
问 到</w>
问 候</w>
闭 幕</w>
闪 电
门户 网站</w>
门 面</w>
门 话题</w>
门 答
门答 腊</w>
门 特</w>
长期 贷款</w>
长久 之计</w>
长 老</w>
长 得</w>
长 子</w>
长 到</w>
镣 铐</w>
锡 金</w>
错 得</w>
错 事</w>
锐 意
锐 地</w>
锋 队</w>
销 路</w>
销 蚀</w>
销 声
销声 匿
销声匿 迹</w>
链 是</w>
铺 路</w>
银 河
银河 系</w>
铤 而
铤而 走
铤而走 险</w>
铃 木</w>
铁路 沿线</w>
铁 轨</w>
铁 蹄</w>
铁 矿石</w>
铁 板
钻 头</w>
钳 制</w>
钱 财</w>
钱 花</w>
钱 太多</w>
钢 性</w>
金融 学</w>
金 率</w>
金 沙
金 斯
金 币</w>
金 家</w>
金 大
金大 中</w>
金 主义</w>
野生 植物</w>
重新 认识</w>
重新 安排</w>
重新 估价</w>
重大 贡献</w>
重 镇</w>
重 要
重 置</w>
重 灾区</w>
重 根</w>
重 权</w>
重 掌</w>
重 振
重 实效</w>
重 圆</w>
里 萨</w>
里 安</w>
里 加</w>
采 访
采 矿业</w>
采 掘
采掘 业</w>
醒 目</w>
醒 来</w>
配 额制</w>
配 资</w>
配 给
配 方</w>
配 对</w>
配 件</w>
都 市
部 非洲</w>
部 委</w>
部 下</w>
邻 近
邻近 地区</w>
邻 居
邻居 们</w>
邦 政府</w>
那 股</w>
那 类</w>
那 条</w>
那 就是说</w>
那 亚</w>
那 一</w>
邓小 平
邓小平 理论</w>
避孕 措施</w>
避 讳</w>
避 而
避而 不谈</w>
遭 袭</w>
遭 致</w>
遗传 学家</w>
遗传 变异</w>
遗 毒</w>
遗 嘱</w>
道 士</w>
遇 难</w>
遇 见</w>
遇 袭</w>
造 极</w>
造 影</w>
造 化</w>
造 假</w>
通行 证</w>
通用 电气</w>
通用 汽车
通用汽车 公司</w>
通 车</w>
通 谕</w>
通 缉
通缉 令</w>
通 气</w>
通 八
通八 达</w>
通 俗</w>
通 俗
通 令</w>
途 而
途而 废</w>
途 同
途同 归</w>
逐步 提高</w>
逐 利</w>
透 彻</w>
选择 地</w>
选 他</w>
选 为</w>
适应 能力</w>
适 者
适者 生存</w>
适 时
适时 地</w>
适 性</w>
送 餐</w>
送 货</w>
送 交</w>
退 路</w>
退 役</w>
退 后</w>
退 却</w>
退 伍</w>
退 一步</w>
追 索
追索 权</w>
迹 般地</w>
迷 雾</w>
迷 惘</w>
迪尔 玛</w>
迪 尔</w>
迪 南</w>
迟 来</w>
连 连</w>
连 绵
连绵 不断</w>
连 成</w>
连 在一起</w>
连 其</w>
连 三</w>
违规 者</w>
违 抗</w>
远远 地</w>
远远 不如</w>
远 近</w>
远 距离</w>
远 超过</w>
远 好</w>
进 账</w>
进 犯</w>
进 度
进 型</w>
进 取</w>
进 到</w>
这么 久</w>
这 群</w>
这 绝</w>
这 极</w>
这 几
这 三条</w>
还 应</w>
返 了</w>
近 海</w>
近 期内</w>
近 年
近年 以来</w>
近 似
近 些年来</w>
近 两
近两 年来</w>
运动 场</w>
运动 会</w>
运 转
运转 不畅</w>
迎 刃
迎刃 而
迎刃而 解</w>
迈 阿密</w>
迈 兰</w>
过渡 阶段</w>
过大 时</w>
过于 自信</w>
过 高估计</w>
过 长</w>
过 正</w>
过 场</w>
过 人</w>
迅 猛
迅猛 发展</w>
迅 捷</w>
达到 高潮</w>
达 达</w>
达 赖</w>
达 特
达特 茅斯</w>
达 斯</w>
达 文</w>
达 拉斯</w>
达 吉
达吉 斯坦</w>
边界 问题</w>
边界 地区</w>
边 远</w>
边 球</w>
边 学</w>
辱 性</w>
辩 驳</w>
辩 词</w>
辩 护
辩护 律师</w>
辨 别
辛勤 工作</w>
输 往</w>
较 浅</w>
轻 点</w>
轻 型</w>
轰 轰
轰轰 烈
轰轰烈 烈</w>
轮 船</w>
轮 回</w>
轮 到</w>
转嫁 到</w>
转 移
车 队</w>
车 间</w>
车 手</w>
车 上</w>
躲 藏
身 而
身而 退</w>
身 立
身立 命</w>
踪 者</w>
踏 入</w>
跳 跃</w>
跳 水</w>
跳 峡</w>
跳 入</w>
路 边</w>
路 程</w>
路 标</w>
路 可
路可 走</w>
路 人</w>
跨 文化</w>
跨 度</w>
跨 学科</w>
跨 入</w>
跟 风</w>
跌 跌
跌跌 撞
跌跌撞 撞</w>
跌 破</w>
跌 得</w>
跌 到</w>
跌 倒</w>
跃 居</w>
足球 队</w>
足球 赛</w>
足 矣</w>
趋 缓</w>
越来越 重</w>
越南 人</w>
越 深</w>
越 强</w>
越 大
越大 越</w>
越 低</w>
超 群</w>
超 现实主义</w>
超 常</w>
超 导</w>
超 人</w>
起 见</w>
起 草
起草 者</w>
起 码</w>
起 死
起死 回
起死回 生</w>
起 大
起大 落</w>
起 势</w>
起 伏
起伏 不定</w>
赶 赴</w>
走马 上任</w>
走 近</w>
走 软</w>
走 来</w>
走 回头路</w>
走 动</w>
走 了之</w>
赫 迪</w>
赫 姆</w>
赫 伯特</w>
赢 利</w>
赞助 商</w>
赞助 人</w>
赛 场</w>
赛 亚</w>
赔 偿
赌 徒</w>
赈 灾</w>
资 讯</w>
资 信</w>
贾 比尔</w>
贾 布里</w>
贻 害</w>
费 率</w>
费 时
费 吹
费吹 灰
费吹灰 之力</w>
贸易 总额</w>
贸易 中心</w>
贸 然</w>
贷款 风险</w>
贷款 额</w>
贷 方</w>
贵 金属</w>
购买 量</w>
购 置</w>
购 入</w>
贬 损</w>
贫 瘠</w>
贪 欲</w>
贩 毒
贩毒 集团</w>
货币 量</w>
货币 制度</w>
货 品</w>
败 露</w>
败 退</w>
败 落</w>
败 俱
败俱 伤</w>
责任 制</w>
财政 管理</w>
财政 开支</w>
财务 顾问</w>
财务 管理</w>
财产 损失</w>
财 大气
财大气 粗</w>
贡献 力量</w>
负担 沉重</w>
负 相关</w>
负 疚</w>
贞 洁</w>
贝 马斯</w>
贝 格</w>
贝 拉</w>
贝 戈
贝戈 维奇</w>
贝 宁</w>
贝 娜
贝娜 齐尔</w>
贝 多
贝多 芬</w>
豪华 轿车</w>
豪 猪</w>
豪 斯曼</w>
豪 斯</w>
豢 养</w>
象 是</w>
谩 骂</w>
谨 记</w>
谢 谢</w>
谢 天
谢天 谢
谢天谢 地</w>
谜 团</w>
谋 深
谋深 算</w>
谈 兵</w>
谅 互
谅互 让</w>
谄 媚</w>
调整 计划</w>
调停 者</w>
调 遣</w>
读 卖
读卖 新闻</w>
读 书</w>
诺贝尔 文
诺贝尔文 学奖</w>
诸 位</w>
说 真的</w>
说 准</w>
说 不定</w>
说 不
说不 练</w>
误 会</w>
语 词典</w>
语 法</w>
语 义</w>
诧 异</w>
详 细
该 词</w>
该 死</w>
诡 云</w>
话 实
话实 说</w>
话 可
话可 说</w>
诚 挚</w>
诚 地</w>
诘 难</w>
试 金石</w>
译 成</w>
诉 苦</w>
评 述</w>
评 说</w>
评 审</w>
诃 德</w>
证 监
证监 会</w>
设 限</w>
论 道</w>
许多 倍</w>
讲 道德</w>
讲 课</w>
讲 解</w>
讲 师</w>
讲 台</w>
记忆 法</w>
记 述</w>
议会 下院</w>
训 斥</w>
讨 伐</w>
认 识
认 罪</w>
认 命</w>
计算机 芯片</w>
计 量
警 告
警 务</w>
警 力</w>
誓 词</w>
誓 要</w>
誉 感</w>
誉 参半</w>
誉 卓著</w>
触 面</w>
触 怒</w>
解放 阵线</w>
解决 目前</w>
解 构</w>
解 救
解救 出来</w>
览 无余</w>
览 器</w>
视 率</w>
视 察</w>
视 同</w>
规 律性</w>
观 点
观点 鲜明</w>
见 面会</w>
见 底</w>
见 分晓</w>
覆盖 率</w>
要 命</w>
西 西</w>
西 西
西 海岸</w>
西 式</w>
西 北
褪 色</w>
装 饰
装 模
装模 作
装模作 样</w>
装 备
装备 精良</w>
裁 撤</w>
袭 来</w>
被 选为</w>
被 诉</w>
被 访者</w>
被 称作</w>
被 扣</w>
被 害者</w>
衷 一是</w>
表达 方式</w>
表达 出来</w>
表示 遗憾</w>
表示 同意</w>
表现 形式</w>
表演 艺术</w>
表演 者</w>
表 面上</w>
表 水</w>
补偿 金</w>
补 给
衣 物</w>
衡 利弊</w>
衍 生物</w>
衍 塞
衍塞 责</w>
行政 当局</w>
行动 迟缓</w>
行使 主权</w>
行为 主体</w>
行业 协会</w>
行 进</w>
行 走</w>
行 情</w>
行 不
血 流
血流 成
血流成 河</w>
血 汗</w>
血 本</w>
蠢 地</w>
螺 丝</w>
融资 额</w>
融 为一
融为一 体</w>
蝗 虫</w>
蜿 蜒</w>
蜘 蛛</w>
蜂 蜜</w>
蛮 力</w>
蛛 丝
蛛丝 马迹</w>
虽 说</w>
虚 报</w>
虐 囚</w>
虐 俘</w>
虎 跳峡</w>
藏 人</w>
蕞 尔
蕞尔 小国</w>
蔡 美
蔡美 儿</w>
蒙 面</w>
蒙 巴萨</w>
蒙 塔
蒙塔 泽
蒙塔泽 里</w>
蒙 在
蒙在 鼓里</w>
蒋 介
蒋介 石</w>
蒂 萨</w>
蒂 玛</w>
蒂 亚</w>
葫 芦</w>
葡 萄</w>
葛兰 素</w>
葛 底
葛底 斯堡</w>
落 选</w>
落 地</w>
落 后者</w>
落 到
落到 实处</w>
落 了
落了 空</w>
萨 米</w>
萨 姆</w>
萨 克</w>
萨 克
萦 绕
萦绕 在</w>
营养 食品</w>
营 救</w>
营 收</w>
营 化</w>
营 利</w>
菲利 普斯</w>
菲 永</w>
菲 勒</w>
菲 亚</w>
菜 肴</w>
获益 匪浅</w>
获 选</w>
莱 茵</w>
莱 明</w>
莱 昂</w>
莱 文</w>
莱 尼</w>
莱 夫</w>
莫 雷尔</w>
莫 西</w>
莫 衷一是</w>
莫 能
莫 盖</w>
莫 尔</w>
莫 内</w>
莫 兰
莫兰 迪</w>
莫 伊</w>
莎 贝尔</w>
莎 莉</w>
莎 士
莎士 比亚</w>
荼 毒</w>
荷 枪
荷枪 实弹</w>
荷 兰
药 理</w>
药 片</w>
荧 屏</w>
荣 誉感</w>
荣 景</w>
荣 幸</w>
草 拟</w>
草 坪</w>
草 地</w>
范 龙佩</w>
英雄 主义</w>
英国 大学</w>
英 超</w>
英 语词典</w>
英 美
英美 两国</w>
英 德</w>
英 军</w>
苦 耐
苦耐 劳</w>
苦 痛</w>
苦 心
苦 受难</w>
若 要</w>
若 狂</w>
若 斯
若斯 潘</w>
苟 同</w>
苏 非派</w>
苏 门答腊</w>
苏 联
苏联 地区</w>
苏 伊
苍 蝇</w>
花 销</w>
花 朵</w>
花 一现</w>
芬 兰人</w>
节节 败退</w>
艾哈 德</w>
色 完成</w>
良 苦</w>
良 好
船 队</w>
船 舶</w>
航 导弹</w>
舒 适性</w>
舒 缓</w>
舒 瓦</w>
舒 曼</w>
舒 尔
舒尔 茨</w>
舍 克</w>
舆 论
致 癌</w>
致 死
致死 率</w>
致 意</w>
至 死</w>
自食其 果</w>
自由 职业</w>
自然 生态</w>
自杀 身亡</w>
自我 陶醉</w>
自我 管理</w>
自主 性</w>
自 营</w>
自 缚</w>
自 绝</w>
自 破</w>
自 相
自相 残杀</w>
自 洽</w>
自 残</w>
自 欺</w>
自 学</w>
自 取
自 助</w>
自 信心</w>
自 上</w>
臣 服</w>
臆 想</w>
膜 炎</w>
腺 素</w>
腹 大患</w>
腹 地</w>
腹 中</w>
腐败 无能</w>
脱 落</w>
脱 不了</w>
脑 膜炎</w>
脑 病</w>
脑 机</w>
脑 中</w>
能源 行业</w>
能源 危机</w>
能 幸免</w>
能 动性</w>
能 动</w>
能 力
能 体现</w>
胸 狭隘</w>
胸 怀</w>
胡 锡</w>
胡 尔</w>
胡 乱</w>
胜利 果实</w>
胜于 雄辩</w>
胜于 无</w>
胜 信念</w>
胎 死
胎死 腹中</w>
背 信
背信 弃
背信弃 义</w>
胆 量</w>
胆 小</w>
肾 上
肾上 腺素</w>
肺 部</w>
肯 尼斯</w>
肥胖 症</w>
股东 大会</w>
肚 子</w>
肌 体</w>
肉 牛</w>
肉 制品</w>
聚 首</w>
聚 居
聚居 区</w>
联席 会议</w>
联合国 教科文组织</w>
联合国 人口
联合国人口 基金</w>
联合 公报</w>
联 社</w>
联 姻</w>
联 动性</w>
职 工作</w>
聋 发
聋发 聩</w>
聊 胜于无</w>
聊 天</w>
耿 耿
耿耿 于
耿耿于 怀</w>
耸 耸肩</w>
耶 稣
耶 尔</w>
耳 边</w>
耳 目
耳目 一新</w>
耳 光</w>
耗 电</w>
耕 作</w>
耐 久</w>
而复 生</w>
而复 始</w>
而 论道</w>
而 视</w>
而 治
而治 之</w>
而 建</w>
而 去</w>
考古 学家</w>
考 证</w>
考 查</w>
考 克斯</w>
老 谋深算</w>
老 朋友</w>
老 把戏</w>
老 岛</w>
老 套</w>
老 一套</w>
耀 眼</w>
翻 译成</w>
翁 失
翁失 马</w>
羽 翼
群情 激愤</w>
群 之
群之 马</w>
美洲 国家</w>
美洲 国家
美洲国家 组织</w>
美国 队</w>
美国 军舰</w>
美国 使馆</w>
美国 中情局</w>
美利 坚</w>
美 联社</w>
美 沙
美沙 酮</w>
美 梦</w>
美 朝</w>
美 景</w>
羊 毛</w>
置 业</w>
罪 孽</w>
罪 从
罪从 无</w>
罩 袍</w>
罗宾 汉</w>
罗 默</w>
罗 申科</w>
罗 森
罗 棋
罗棋 布</w>
罗 曼</w>
罗 廖
罗廖 夫</w>
罗 尔斯</w>
罗 奔
罗奔 尼
罗奔尼 撒</w>
网络 连接</w>
网络 覆盖</w>
网 球</w>
网 点</w>
网 开
网开 一面</w>
缺 不全</w>
缘 无故</w>
缘 故</w>
编 辑
绿 地</w>
绵 状</w>
维 阿</w>
维 稳</w>
维 瑟
维瑟 尔</w>
维 特</w>
维 格</w>
维 昂</w>
维 斯塔</w>
维 护者</w>
维 塞尔</w>
维 勒</w>
绳 索</w>
绰 号</w>
续 约</w>
续 签</w>
继续 加强</w>
统一 指挥</w>
统 称</w>
绝对 值</w>
绝 少</w>
绝 境</w>
给 养</w>
给 人以</w>
结构 化</w>
结构 上</w>
结婚 年龄</w>
结 晶</w>
结 合体</w>
经营 权</w>
经纪 商</w>
经纪 人</w>
经济 落后</w>
经济 性</w>
经济 复原</w>
经 纪</w>
经 得起</w>
经 地
经地 义</w>
经 合</w>
经 典
经典 著作</w>
绍 伊
绍伊 古</w>
终 端</w>
终 端
终 其
终其 一生</w>
细 枝
细枝 末
细枝末 节</w>
细 微
细微 差别</w>
细 小</w>
细 化</w>
组 件</w>
纽 曼</w>
纸上 谈兵</w>
纸 面</w>
纸 老虎</w>
纸 媒</w>
纵火 犯</w>
纵 火</w>
纳布 卢斯</w>
纳 赫姆</w>
纳 罗</w>
纳 森</w>
纳 斯达
纳斯达 克</w>
纳 托
纳 扎
纳扎 尔巴
纳扎尔巴 耶夫</w>
纳 吉</w>
纳 克里</w>
纳 什</w>
纯 正</w>
纬 度</w>
纪 元</w>
约翰 尼</w>
约旦 人</w>
约 尔</w>
红 军</w>
繁 忙</w>
繁 多</w>
繁 复</w>
累 退</w>
累 牍</w>
累 斯顿</w>
累 加</w>
紧急 事件</w>
紧张 状况</w>
紧 箍
紧箍 咒</w>
紧 盯</w>
索 马里人</w>
索 要</w>
索 菲亚</w>
索 斯</w>
索 拉纳</w>
索 尔</w>
索 夫</w>
素 材</w>
素 姬</w>
系统 对</w>
系统 化</w>
系 亲属</w>
系 于</w>
糟 糕
糟糕 透顶</w>
糖 类</w>
糖 果</w>
精 竭
精竭 虑</w>
精 疲力
精疲力 竭</w>
精 巧</w>
精 妙</w>
精 卵</w>
粮食 作物</w>
粘 性</w>
类 人猿</w>
米 斯</w>
米 尔顿</w>
米 利
米利 班
米利班 德</w>
米 修斯</w>
簇 拥</w>
篇 幅</w>
管理 权</w>
管理 工具</w>
管理 工作</w>
管理 员</w>
管 辖区</w>
管 弦
管 制
算 账</w>
算 数</w>
算 出</w>
简 要</w>
简 易</w>
简 历</w>
签订 合同</w>
签订 协议</w>
签 字
筹 钱</w>
等 量</w>
等 待
等待 时间</w>
等 大事</w>
等 价物</w>
第四 项</w>
第四 阶段</w>
第四 代</w>
第六 次</w>
第二 类</w>
第二 支</w>
第三 阶段</w>
第一 周</w>
第一 副</w>
第一 代</w>
第 十九
第十九 次</w>
第 六个</w>
第 一点</w>
笨 蛋</w>
符合 国际</w>
符合 国家</w>
笔 勾销</w>
笑 容</w>
端 正</w>
竞 逐</w>
竞 技</w>
站 稳</w>
站 台</w>
立法 委员</w>
立 马</w>
立 芝</w>
立 盟</w>
立 场
立场 坚定</w>
窥 探</w>
窠 臼</w>
窃 贼</w>
突然 转向</w>
突击 队</w>
穿 梭</w>
空中客 车</w>
空中 交通</w>
空 间
空 置</w>
空 投</w>
空 子</w>
空 喊</w>
穷 尽</w>
穷 孩子</w>
穴 居
穴居 人</w>
穆 塞
穆塞 韦尼</w>
穆 伦</w>
稿 件</w>
稳步 前进</w>
稳定 剂</w>
稳 过渡</w>
稳 定期</w>
税 赋</w>
税 种</w>
税 是</w>
税 改</w>
税 务
税 会</w>
程 式化</w>
稀 有</w>
稀 奇</w>
移 默化</w>
移 出</w>
称 其为</w>
积极 因素</w>
积 虑</w>
租 用</w>
科研 经费</w>
科学 论文</w>
科学 杂志</w>
科 纳克里</w>
科 尼
科 娃</w>
种 株</w>
秉 持</w>
秃 鹫</w>
私营 经济</w>
私有 制</w>
私 自</w>
私 立</w>
私 底下</w>
私 家
私家 车</w>
离 心</w>
离 家</w>
离 去</w>
福 田</w>
福 斯</w>
禁 用</w>
禁 制</w>
祸 得
祸得 福</w>
祸 害</w>
票 面价值</w>
票 率</w>
神经 学</w>
神经 外科</w>
神 明</w>
神 户</w>
神 庙</w>
神 学家</w>
祝 福</w>
祝 愿</w>
祖 马</w>
祈 求</w>
社区 服务</w>
社会 科学院</w>
社会 意识</w>
社会 学</w>
社会 存在</w>
社会 党人</w>
社 民党</w>
社 团
社团 组织</w>
礼 拜</w>
示威 抗议</w>
示 范
礁 石</w>
磨 坊</w>
磐 石</w>
磁 石</w>
碰 头</w>
确 定
确定 无疑</w>
硬 脱</w>
硕 果</w>
硕 果
破 土
砥 柱</w>
研究 室</w>
研究 型</w>
码 头</w>
石油 换</w>
矮 小</w>
短期 贷款</w>
短 板</w>
短 于</w>
矫 枉
矫枉 过正</w>
知识 界</w>
知名 人士</w>
知 半
知半 解</w>
知 会</w>
知 事</w>
矛盾 性</w>
着 火</w>
着 力
着力 点</w>
眼 界</w>
眼 泪</w>
眼 巴巴</w>
眨 眼</w>
眠 状态</w>
真 纳</w>
真 相
真相 大白</w>
真 理
真 人</w>
真 万
真万 确</w>
看 透</w>
看 空</w>
眉 之急</w>
省 长</w>
省 钱</w>
省 略</w>
相当 程度</w>
相当 可观</w>
相 联</w>
相 权</w>
相 机</w>
相 撞</w>
相 投</w>
相 扣</w>
相 干</w>
相 吻合</w>
相 加</w>
相 仿</w>
直 系亲属</w>
直 男癌</w>
直 率</w>
直 播</w>
盯 上</w>
目的 性</w>
目 疮痍</w>
盛 产</w>
盛 事</w>
盖 子</w>
盒 子</w>
监督 权</w>
监督 员</w>
监 测
益 善</w>
益 事业</w>
盈 亏</w>
皮 肤
皮 带</w>
皮 埃尔</w>
皇 宫</w>
皆 大
皆大 欢
皆大欢 喜</w>
百万 富翁</w>
百 货
百 亿</w>
百 万美元</w>
白白 地</w>
白 鼠</w>
白 衣</w>
白 种</w>
白 痴</w>
白 旗</w>
白 喉</w>
登 峰
登峰 造极</w>
登 台</w>
瘦 身</w>
痴 呆
痴呆 症</w>
痛 痒</w>
痛 楚</w>
痕 累累</w>
病毒 感染</w>
病 学</w>
病 夫</w>
病 因</w>
疾 而终</w>
疗 程</w>
疑 难杂症</w>
疑 罪从无</w>
疏 漏</w>
疏 导</w>
疆 域</w>
略 地</w>
略 低</w>
略 为</w>
留 有</w>
留 恋</w>
留 待</w>
界 面</w>
画 皮</w>
男 子
男子 主义</w>
男 女
电视 转播</w>
电视 观众</w>
电视 网</w>
电视 广告</w>
电视 剧</w>
电子 表格</w>
电子 媒体</w>
电 量</w>
电 邮</w>
电 缆</w>
电 灯</w>
电 文</w>
电 工</w>
电 击</w>
申 斯</w>
由 该</w>
由 衷</w>
由 党</w>
甩 掉</w>
用 飞机</w>
用 钱</w>
用 过</w>
用 水量</w>
用 武</w>
用 心
[...]
