#version: 0.2
t h
i n
a n
th e</w>
r e
t i
e r
o n
e n
a r
o r
t o</w>
o u
in g</w>
e d</w>
an d</w>
e s</w>
o f</w>
o n</w>
l i
s t
r o
i n</w>
p o
i t
a l</w>
a t
e r</w>
i s</w>
a l
e c
a t</w>
o m
l y</w>
r i
a n</w>
a ti
s i
a c
a s</w>
o r</w>
d e
s t</w>
th at</w>
s u
i l
q u
po s
v e</w>
i c
l e
l o
th e
en t</w>
s e</w>
w h
o t
d i
& a
&a pos
&apos ;
u r
l d</w>
p ro
n o
&apos; s</w>
e n</w>
r a
u n
l e</w>
h a
t s</w>
f or</w>
c on
i t</w>
b u
a b
qu ot
quot ;</w>
& quot;</w>
c e</w>
a d
n e
c ou
v er
b e
ati on</w>
c i
e m
s e
s h
ar e</w>
a g
c om
b e</w>
e x
on s</w>
er s</w>
a m
a s
ti on</w>
v i
no t</w>
at e</w>
u l
e l
bu t</w>
w it
m o
c h
e s
wit h</w>
u c
f or
m a
i m
o l
a r</w>
o p
i g
m ent</w>
t er
s p
a p
v e
b y</w>
t r
ha ve</w>
h as</w>
ou ld</w>
p e
w or
il l</w>
cou n
ec on
po li
i s
it s</w>
p re
g o
f f
w ill</w>
th is</w>
or e</w>
er e</w>
t y</w>
econ om
th er</w>
t h</w>
i r</w>
k e
it y</w>
m an
en t
m ore</w>
p or
i c</w>
t ri
e v
st r
f ro
the ir</w>
u s
fro m</w>
ti c
re n
l a
t a
d s</w>
on al</w>
on e</w>
t o
i r
C h
ou t</w>
s o</w>
al ly</w>
the y</w>
u ro
m e
s s</w>
w ould</w>
p er
t ur
a li
g e</w>
d ing</w>
i li
al l</w>
g e
p ar
d e</w>
re c
t ed</w>
y e
k e</w>
w as</w>
Ch in
c re
a y</w>
en ts</w>
c h</w>
g i
ri s
f in
r u
t e
U S</w>
ab le</w>
ver n
E uro
c an</w>
o w
go vern
g h
p u
ti m
ar y</w>
a u
th an</w>
ou n
tri es</w>
p l
w e
coun tries</w>
s o
in g
ti ons</w>
m ar
ro w
an ce</w>
d uc
p ri
re d</w>
ig h
u st</w>
om e</w>
c o
t ra
t er</w>
n ati
at ed</w>
Chin a</w>
i st
at es</w>
en ti
h e
v er</w>
ic h</w>
c y</w>
m in
k s</w>
wh ich</w>
t u
un d
f u
ti es</w>
t ing</w>
c es</w>
o ther</w>
b ec
f e
su r
en ce</w>
m s</w>
2 0
w e</w>
ati ons</w>
ci al</w>
econom ic</w>
poli tic
w i
wor ld</w>
g row
i f</w>
s ti
be en</w>
man y</w>
d ec
an t</w>
m er
an s</w>
f o
si on</w>
k ing</w>
d ed</w>
d u
on g</w>
d o
f ac
lo b
g re
p a
ou s</w>
h o
l u
mo st</w>
si d
s er
in ter
i es</w>
g lob
ar s</w>
con t
at e
a d</w>
ag e</w>
st e
sh ould</w>
th ere</w>
on ly</w>
ne w</w>
al so</w>
no w</w>
nati onal</w>
mar ke
di s
n o</w>
s ec
u m
mer ic
A meric
es s</w>
m on
su ch</w>
il e</w>
ch an
ev en</w>
or s</w>
h is</w>
f a
politic al</w>
st s</w>
govern ment</w>
cou ld</w>
c e
g h</w>
ve lo
grow th</w>
b li
com p
p e</w>
ou gh</w>
lo w
the se</w>
o ver</w>
ti ve</w>
i d
v es</w>
u s</w>
wh en</w>
fin an
a in
al l
le ad
com m
n i
op le</w>
b an
de velo
ab out</w>
ff ic
h e</w>
glob al</w>
m ents</w>
c ur
su p
ex p
wh at</w>
ar d</w>
f ir
a f
pe ople</w>
po w
s y
tr y</w>
pu bli
in e</w>
t ec
ili ty</w>
in ve
c ap
por t
wh o</w>
tur e</w>
s ome</w>
in te
en er
s s
wh ile</w>
Euro pe</w>
sh i
be t
in c
develo p
em b
l ar
e f
b le</w>
u e</w>
t en
inve st
es s
o d</w>
in cre
o se</w>
ow n</w>
c r
g y</w>
m ust</w>
s in
coun try</w>
Euro pe
w ere</w>
se l
gh t</w>
re g
au se</w>
v ing</w>
at ing</w>
in f
re s</w>
1 9
or d
em p
le ss</w>
si a</w>
finan cial</w>
on g
al s</w>
en d
I n
ye ars</w>
g r
tim e</w>
d o</w>
am e</w>
ou r</w>
ma y</w>
ar i
it ed</w>
e st
poli cy</w>
em ent</w>
b o
t ary</w>
econom y</w>
w el
ec t</w>
t w
com e</w>
de b
cur ren
Europe an</w>
a se</w>
oun d</w>
i d</w>
pre s
in to</w>
f ic
ac c
d ic
ar ly</w>
un i
il li
ou r
wi th
pro b
ha d</w>
str uc
li ke</w>
for m
re sp
d ay</w>
o b
uc h</w>
re l
m uch</w>
pro duc
w ay</w>
und er
si ve</w>
s a
m p
ac h
u p</w>
R us
bec ause</w>
por t</w>
sti tu
a st</w>
g ra
ac k</w>
inte re
th re
m is
ac e</w>
f i
or y</w>
pow er</w>
E U</w>
af ter</w>
in de
il l
the m</w>
c ris
ver y</w>
ati ve</w>
g u
I s
tr an
st an
ac h</w>
s c
im p
c er
ma in
w a
chan ge</w>
le ar</w>
th ose</w>
ou t
si g
lo w</w>
publi c</w>
en d</w>
st ri
an y</w>
i l</w>
c al</w>
inter national</w>
el ec
ho w</w>
i z
ol l
t ly</w>
li m
y s</w>
h igh
r an
re ig
20 0
p s</w>
marke t</w>
a k
prob le
o c
fir st</w>
ci es</w>
re s
b i
y ing</w>
v ed</w>
20 1
wh ere</w>
re gi
de mo
ab ility</w>
ye ar</w>
ne ed</w>
l ong
e ff
igh t</w>
cont in
li c
incre as
cris is</w>
b ot
su l
o f
sur e</w>
ffic i
v ic
resp on
r on
ad e</w>
fu l</w>
c an
ne e
tra de</w>
v en
li ke
d re
re qu
c u
ali z
p le</w>
ev er</w>
ing s</w>
h el
e l</w>
we en</w>
e se</w>
demo cr
bet ween</w>
j ust</w>
Americ a</w>
en g
re for
ste m</w>
ac y</w>
ol u
sid ent</w>
illi on</w>
o ver
t re
shi p</w>
ff e
e qu
v en</w>
ru m
to day</w>
si ons</w>
con f
ti c</w>
mon e
inc lu
l ed</w>
wel l</w>
A f
cap it
a in</w>
tec h
su b
di a</w>
n ed</w>
at t
im port
T rum
tw o</w>
sy stem</w>
m e</w>
er n</w>
Trum p</w>
G er
J ap
it e</w>
ur e</w>
lead ers</w>
p ul
ati c</w>
enti al</w>
in i
k ers</w>
re ad
ap pro
c ed</w>
bot h</w>
re sul
ag re
vi e
l in
n ing</w>
ain st</w>
si ble</w>
U n
pro vi
l l</w>
t e</w>
wor k</w>
ag ainst</w>
po si
to o</w>
ou s
ter m</w>
ur ity</w>
ac t</w>
at er</w>
ma ke</w>
v al
th r
govern ments</w>
ad v
Rus sia</w>
en tr
sp ec
b en
Un ited</w>
p h
ic al</w>
al th</w>
su c
s en
f t</w>
so ci
eff ec
de m
invest ment</w>
c ent
w ard</w>
g ener
emp lo
ali ty</w>
m emb
t en</w>
t t
ye t</w>
th ing</w>
ti ci
g ing</w>
per i
c or
tech no
ch o
la st</w>
cou r
ti onal</w>
ma j
like ly</w>
m ili
bec ome</w>
p p
S t
p r
o re
f re
marke ts</w>
inde ed</w>
sup port</w>
or i
do es</w>
ex am
sin ce</w>
c ri
t or</w>
k ed</w>
in stitu
a v
ch all
st ate</w>
fo reig
di ffe
be ing</w>
ri c
f ar</w>
us ed</w>
s m</w>
diffe ren
d om
re as
deb t</w>
dec i
sti ll</w>
poli cies</w>
c ess</w>
po in
er al</w>
techno lo
m ent
em er
em s</w>
op er
i m</w>
read y</w>
l ong</w>
import ant</w>
ben ef
the n</w>
ge t</w>
t -
ta in
is su
po pul
r ate</w>
ord er</w>
ke y</w>
b as
s h</w>
c a
e p
ate ly</w>
ec ted</w>
develop ment</w>
intere st</w>
r ates</w>
h ar
str ate
en s</w>
Chin ese</w>
ban ks</w>
z e</w>
entr al</w>
Is ra
n uc
emplo y
wh e
rec ent</w>
sec urity</w>
se e
s ame</w>
le g
fu ture</w>
thr ough</w>
un ity</w>
w ar
ing ly</w>
Jap an</w>
mili tary</w>
pri v
w s</w>
w ar</w>
f ul
v ot
su m
ce p
P re
th ough</w>
e st</w>
l ing</w>
so cial</w>
is m</w>
ta ke</w>
exam ple</w>
tran s
ve ly</w>
ent ly</w>
ef for
b al
en ding</w>
h an
Americ an</w>
c y
r an</w>
ti on
b r
econom ies</w>
u se</w>
f l
al ready</w>
f un
bu sin
ig h</w>
with out</w>
a st
in du
com pe
sh or
m ight</w>
di vi
lo o
u d
e duc
st ar
m ade</w>
cour se</w>
se t</w>
nuc lear</w>
Pre sident</w>
K ore
an other</w>
rec o
p ur
i de
fa il
capit al</w>
re main
reg ul
gi ven</w>
In dia</w>
de p
f is
I ran</w>
p la
n s</w>
ma in</w>
d own</w>
cont ro
on -
j o
pro tec
k no
ener gy</w>
ri ght</w>
ab ly</w>
fac t</w>
bo o
be li
si m
r it
om e
go od</w>
0 0</w>
l es</w>
ac coun
d ra
h igh</w>
er ing</w>
G re
m i
foreig n</w>
in v
tur n</w>
i e
adv an
proble m</w>
bu il
o th
de sp
olu tion</w>
can not</w>
si an</w>
c oll
t al
h ist
Ger many</w>
si de</w>
g ed</w>
in come</w>
D P</w>
ris k</w>
pri ces</w>
hel p</w>
l ine</w>
di rec
h u
comp an
lar ge</w>
bet ter</w>
ur ing</w>
sh ed</w>
su st
si st
di d</w>
ta x</w>
im pro
re ly</w>
wa ys</w>
re a
N or
er ship</w>
m at
ou th</w>
or ity</w>
c lo
R e
y -
e i
b ility</w>
tic ul
li f
gre ss</w>
ta in</w>
ri gh
po t
G DP</w>
ra ther</w>
g er</w>
en cy</w>
employ ment</w>
qu es
id d
re al</w>
curren t</w>
du ce</w>
und er</w>
j ec
maj or</w>
pro f
resul t</w>
be g
ist s</w>
he alth</w>
fis cal</w>
al -
am ong</w>
st ates</w>
s ha
posi tion</w>
c ing</w>
mo d
St ates</w>
par t</w>
dem and</w>
ch il
pu t</w>
t ors</w>
ul t</w>
ac tion</w>
um b
re duc
pro gra
mo re
e -
of ten</w>
sel f</w>
e t</w>
more over</w>
an d
m an</w>
h ol
for e</w>
lar ge
l ab
c ar
con sid
wh y</w>
l s</w>
institu tions</w>
h um
l ation</w>
f ol
e d
ne ss</w>
s econ
be fore</w>
ser vic
par ticul
ti v
ru p
o ff
tt le</w>
z one</w>
c entral</w>
s m
f ur
ver s
si mp
r ul
min i
ap pe
appro ach</w>
re li
kno w
e uro
u es</w>
c ha
compan ies</w>
u m</w>
regi on</w>
c ul
g es</w>
au th
ti z
whe ther</w>
A ra
b ack</w>
soci e
op port
ar ound</w>
ar m
y p
sim il
long -
in t
an ti
b illion</w>
ve l</w>
fe w</w>
sec tor</w>
m ig
c lim
ma king</w>
g an
&apos; t</w>
Af ric
ir e</w>
h ow
sust ain
s ome
pos sible</w>
tur al</w>
lo c
d uring</w>
ag es</w>
con cer
en vi
u p
ro le</w>
requ i
pa st</w>
en ing</w>
how ever</w>
est ab
estab li
inclu ding</w>
pos ed</w>
nee ds</w>
mo de
in d</w>
ous ly</w>
our ces</w>
le v
Isra el</w>
B an
n ec
d ri
ne x
o ffici
li ttle</w>
fo c
sig ni
b ro
a re
em ents</w>
c lear</w>
bas ed</w>
hum an</w>
c ase</w>
w om
am a</w>
signi fic
di ffic
chall eng
U ni
I ra
pre v
c la
cre di
th in
t ar
an n
b or
ou ght</w>
priv ate</w>
incre ase</w>
nee ded</w>
li b
aliz ation</w>
s ci
high er</w>
compe ti
me a
dom es
c all
ad dre
o il</w>
euro zone</w>
y ri
se ar
a ff
P ar
reg im
n or
k es</w>
S outh</w>
thre e</w>
st -
E ast</w>
O b
C on
Afric a</w>
al e</w>
struc ture</w>
m illion</w>
por ts</w>
comm it
ci tiz
d er</w>
to ward</w>
idd le</w>
mini str
i a</w>
e li
Kore a</w>
envi ron
for ce</w>
ur y</w>
ha pp
remain s</w>
n umb
n at
man ag
el s</w>
democr acy</w>
Nor th</w>
poin t</w>
gr ou
educ ation</w>
ali sm</w>
ac ro
p at
develop ing</w>
c le
T ur
19 9
mone tary</w>
go ti
l am
with in</w>
nex t</w>
ne goti
li es</w>
d oll
g ni
do m</w>
de fic
le ast</w>
domes tic</w>
differen t</w>
se qu
a si
f ra
de f
comp le
an ts</w>
ri se</w>
p ec
gan iz
a il
A sia</w>
y o
secon d</w>
s ed</w>
sy st
contin ue</w>
tic al</w>
i ous</w>
vi ol
effor ts</w>
ati onal</w>
o ld</w>
conf lic
Ob ama</w>
oth ers</w>
c ess
pro cess</w>
h al
S yri
clim ate</w>
busin ess</w>
s k
e p</w>
proble ms</w>
mone y</w>
co sts</w>
at s</w>
fur ther</w>
c l
ris ing</w>
pot ential</w>
s es</w>
com es</w>
st ability</w>
ad es</w>
th us</w>
t n
ati on
ist an</w>
z ed</w>
in no
e ver
2 0</w>
pl ace</w>
str ong</w>
refor ms</w>
k en</w>
h op
us h</w>
i al</w>
st ra
is h</w>
ad ministr
wom en</w>
ac k
u ti
refor m</w>
me ans</w>
en ed</w>
c lu
st o
W or
W est</w>
righ ts</w>
form ation</w>
on d</w>
me di
m ul
l and</w>
reco gni
le a
pri ce</w>
inf lation</w>
e ar
re main</w>
g en
citiz ens</w>
s ing</w>
o ds</w>
tri bu
grow ing</w>
desp ite</w>
beli e
am ent
t ting</w>
th s</w>
c am
dec ades</w>
Uni on</w>
su res</w>
sp ending</w>
i ally</w>
diffic ult</w>
di tional</w>
ci vi
cent ury</w>
m as
di sp
agre ement</w>
n al</w>
h ou
en ough</w>
yo u</w>
r ance</w>
a m</w>
ist er</w>
long er</w>
tiv ity</w>
le vel</w>
Wor ld</w>
t or
vie w</w>
of f</w>
Ban k</w>
p ly</w>
be st</w>
as se
C om
inte gr
elec tion</w>
F rance</w>
ex peri
Ira q</w>
ou gh
d ly</w>
po or</w>
e very</w>
an y
P al
dre n</w>
pre ci
al most</w>
us ing</w>
ra p
ques tion</w>
ou b
effec tive</w>
h er</w>
se ems</w>
re pres
st ren
st ed</w>
long- term</w>
benef its</w>
ac ti
stren g
d es</w>
Pal est
tim es</w>
lab or</w>
chil dren</w>
it self</w>
inno v
ver age</w>
la w</w>
increas ingly</w>
sh are</w>
gre ater</w>
wor kers</w>
se ver
fac e</w>
de ter
ag o</w>
sear ch</w>
for m</w>
e ach</w>
politic s</w>
pe ace</w>
intere sts</w>
g ge
f und
cou ra
stan d
pro gress</w>
ic ally</w>
ne ver</w>
m or
co oper
av o
pec ially</w>
indu stri
es pecially</w>
r e</w>
th ir
nec ess
ic s</w>
g ic</w>
fol low
curren cy</w>
uni ties</w>
in ste
f am
ta x
fe ren
challeng es</w>
c are</w>
technolo gy</w>
reas on</w>
l an
le d
in ten
g o</w>
en ces</w>
contro l</w>
re fl
in ci
de n</w>
cer tain
regim e</w>
regi onal</w>
popul ation</w>
for t
administr ation</w>
provi de</w>
fre e</w>
sel ves</w>
res ources</w>
ever y
d at
servic es</w>
se e</w>
m y</w>
inste ad</w>
i st</w>
ch ar
numb er</w>
g ical</w>
ent ed</w>
emer ging</w>
W est
co st</w>
j ob
memb er</w>
pl an
lif e</w>
pre sid
ini ti
ban k</w>
in e
to ge
d an
toge ther</w>
ter r
in ed</w>
poli cy
h im</w>
in divi
uti n</w>
nati on
P utin</w>
indivi du
at ors</w>
democr atic</w>
socie ty</w>
d -
ur al</w>
st at
l ack</w>
invest ors</w>
con di
ac cep
gi es</w>
N e
we ak
re v
or ganiz
en se</w>
f ic</w>
exp an
a k</w>
the m
f -
en sure</w>
per s
Tur key</w>
imp le
d en
ma kers</w>
for ces</w>
M iddle</w>
simp ly</w>
bu d
ris ks</w>
ex tre
con sequ
acc ess</w>
publi c
n on-
ar gu
memb ers</w>
j u
issu es</w>
fi ed</w>
sh ing</w>
tr ac
inf ra
e vi
ter ms</w>
sp e
acc or
re duce</w>
pl ac
as es</w>
job s</w>
imp act</w>
ro w</w>
sm all</w>
g g
con tribu
W ar</w>
emb er</w>
syst ems</w>
poli tici
particul arly</w>
mul ti
inf lu
belie ve</w>
p end
on ce</w>
le ar
infra structure</w>
ho ld</w>
tu ally</w>
y ond</w>
re fu
j ect</w>
su gge
ser ious</w>
p er</w>
cre ate</w>
cl as
w ant</w>
re st</w>
ori ties</w>
accoun t</w>
di st
be yond</w>
su mp
ne w
In ter
me an
ffici ent</w>
Is lam
tic s</w>
strate gy</w>
ss ed</w>
, 0
low er</w>
b ar
West ern</w>
tr ue</w>
pur su
un ti
low s</w>
g ain
s ol
inde pend
unti l</w>
suc cess
anti -
fir ms</w>
it u
lead ership</w>
pre sident</w>
pos e</w>
le ad</w>
ag ain</w>
sh ar
ord in
st ing</w>
simil ar</w>
pa ig
lo cal</w>
at eral</w>
si bility</w>
rul es</w>
ow n
Palest ini
t ers</w>
er ity</w>
po ver
hist ory</w>
d y</w>
conflic t</w>
5 0</w>
le ft</w>
e arly</w>
cam paig
signific ant</w>
rec ently</w>
in s</w>
fort un
fin d</w>
ab ili
them selves</w>
mig r
b ur
thre at</w>
par tn
con sum
,0 00</w>
pro sp
k ra
gre at</w>
fund ament
val ue</w>
sen se</w>
ic e</w>
contin u
U kra
pro mis
p ed</w>
h ere</w>
h ard</w>
doll ar</w>
dat a</w>
en ge</w>
r y</w>
comm on</w>
lev els</w>
chall enge</w>
al th
st and</w>
ec e</w>
hu man
acro ss</w>
mea sures</w>
m ot
ur o</w>
pow er
al ways</w>
S o
L e
ta ken</w>
ex change</w>
bal ance</w>
ru n</w>
ment al</w>
Syri a</w>
g a
Rus sian</w>
ne t</w>
com b
Ara b</w>
u al</w>
ti sh</w>
requ ire</w>
k now</w>
equ ality</w>
de al</w>
comm unity</w>
y oun
re search</w>
lib er
tici p
mo ve</w>
call ed</w>
ach i
st ud
accor ding</w>
it al</w>
id enti
bal an
le ss
c tions</w>
we ap
us es</w>
in formation</w>
B ri
thir d</w>
l -
on e
g er
e as
y ed</w>
us ti
increas ed</w>
see m</w>
s w
issu e</w>
sh o
achi ev
t es</w>
p ing</w>
st er</w>
s cho
wi se</w>
tr u
sh e</w>
ill ing</w>
mis sion</w>
wi de</w>
i ly</w>
ac ks</w>
t ation</w>
ra is
en coura
d one</w>
con stitu
policy makers</w>
l li
fre e
credi t</w>
str y</w>
d a
cap ac
P ak
opport unity</w>
fin ance</w>
en ds</w>
B rit
s ay</w>
cor por
chan ges</w>
3 0</w>
s an
D e
sump tion</w>
M us
p ay</w>
n er
ful ly</w>
evi d
re ach
pover ty</w>
form er</w>
p ris
addre ss</w>
ss ing</w>
Gre ece</w>
refu ge
ha ps</w>
h i
sustain able</w>
per haps</w>
pre dic
o lo
ex ist
develop ed</w>
U N</w>
Bri tish</w>
ss es</w>
hou se
di es</w>
con v
t ari
stan ding</w>
Americ ans</w>
t able</w>
op en</w>
hal f</w>
e uro</w>
de ep
com ing</w>
al y
o l</w>
o -
bec om
F ren
foc us</w>
es sion</w>
de li
cla im
un employment</w>
ser ve</w>
sel f-
pr inci
pl om
E C
par ty</w>
respon se</w>
ru le</w>
politici ans</w>
cooper ation</w>
g ue</w>
inter ven
h ome</w>
ar ds</w>
S ec
suc cess</w>
di plom
me dia</w>
ad op
in es</w>
Ukra ine</w>
19 8
Fren ch</w>
Brit ain</w>
g yp
f all</w>
exp ected</w>
z ation</w>
ow ing</w>
ha ving</w>
g ence</w>
A r
youn g</w>
progra m</w>
E gyp
strate gic</w>
ser v
necess ary</w>
dec ade</w>
z ing</w>
ve reig
it ing</w>
thin k</w>
shor t</w>
par ties</w>
p i
consequ ences</w>
b on
u res</w>
know led
capac ity</w>
i se</w>
so vereig
mode l</w>
are as</w>
y n
pres sure</w>
he ad</w>
fortun ately</w>
cor rup
vi ous</w>
requi res</w>
progra ms</w>
d i</w>
consid er</w>
Mus li
produc tion</w>
offici als</w>
advan t
condi tions</w>
ate -
s ing
re turn</w>
leg al</w>
d ers</w>
con tra
coll ap
200 8</w>
gre s
deter min
ati ves</w>
B ush</w>
wh o
sa id</w>
lead ing</w>
produc tivity</w>
grou ps</w>
ill s</w>
Ger man</w>
sc ale</w>
mo v
hop e</w>
fo od</w>
ex per
em is
d am
al though</w>
vot ers</w>
ri ch</w>
a z
w r
re ad</w>
am oun
ol s</w>
loo k</w>
weap ons</w>
ti vely</w>
j usti
wor king</w>
al one</w>
hist or
fa v
impro ve</w>
fin ally</w>
de st
d oub
M in
tre at
rec ei
le gi
illi ons</w>
dec line</w>
ach ie
po l
em o
d on</w>
ab s
viol ence</w>
tran sp
ta king</w>
int el
achie ve</w>
o li
w ater</w>
sever al</w>
f y</w>
star t</w>
pa y
b an</w>
st oc
sci enti
bi a</w>
migr ation</w>
ei ther</w>
di stri
campaig n</w>
ren t</w>
pu li
po puli
increas ing</w>
di se
v ari
str u
er -
e th
do ing</w>
bud get</w>
t on</w>
large ly</w>
a verage</w>
t ot
s tim
inv ol
at ten
al low
a way</w>
rel ations</w>
pro mot
indu stry</w>
under min
tur ing</w>
defic it</w>
stim ul
es tim
power ful</w>
go ods</w>
di g
M o
F ed</w>
m ing</w>
U K</w>
ven ess</w>
influ ence</w>
al ter
se en</w>
ma kes</w>
g as</w>
l d
buil d</w>
bro ad
m it</w>
in ing</w>
in equality</w>
Af gh
spec i
s is</w>
inc enti
glob alization</w>
en sive</w>
vi sion</w>
tu al</w>
par ticip
effor t</w>
d er
conf id
c ause</w>
aliz ed</w>
man u
c ity</w>
ag end
reli gi
p as
n or</w>
el l</w>
thre at
fi ve</w>
con struc
c ro
n ot
de mon
t an
dom in
cle arly</w>
advan ced</w>
P ri
struc tural</w>
s itu
de sig
d ru
lo st</w>
effec ts</w>
u ally</w>
in dic
d ro
prev ent</w>
ne ws</w>
clo se</w>
br ing</w>
b rea
rel ation
cre ated</w>
c al
T O</w>
Min ister</w>
I M
B re
wor se</w>
t ren
legi tim
large st</w>
acti vi
se ly</w>
our ce</w>
ne igh
jo b</w>
govern ance</w>
avo id</w>
asse ts</w>
st re
go ing</w>
fail ed</w>
experi ence</w>
ac tions</w>
ste p</w>
de man
c us
be ha
t ory</w>
he alth
ful l</w>
maj ority</w>
ic k
emis sions</w>
distri bu
cer tain</w>
N A
wh ose</w>
popul ar</w>
pla y</w>
ne g
nat ural</w>
e asi
d ate</w>
ci r
beg an</w>
att emp
al low</w>
evid ence</w>
e k</w>
to p</w>
sup ply</w>
str ong
shi ft</w>
ex ten
con sumption</w>
Jap an
o s</w>
c es
a id</w>
we alth</w>
ge ts</w>
demon str
bi g</w>
al le
su ff
benef it</w>
ric ul
op position</w>
in ning</w>
high -
gi ve</w>
fail ure</w>
Pak istan</w>
t ro
s olution</w>
por ted</w>
fe ar</w>
environ ment</w>
ch ed</w>
be h
low -
li ving</w>
ban king</w>
IM F</w>
mon ths</w>
imple ment
deb ate</w>
a ir
ne arly</w>
lead er</w>
0 s</w>
terr or
k ind</w>
m om
he ad
opport unities</w>
lim ited</w>
de fin
busin ess
tra ditional</w>
ra z
m it
fo re
beha vi
ar -
mas sive</w>
ex ports</w>
en ter
elec tions</w>
an tly</w>
ag ing</w>
I tal
li ves</w>
ac e
Ital y</w>
ul tim
ro ad</w>
ex ic
M exic
manu fac
car b
L i
A sian</w>
jec ts</w>
coun ter
consid er
buil ding</w>
integr ation</w>
f ound</w>
alter nati
a de
vi s
s low
l ater</w>
con tr
ali st</w>
re ally</w>
b ad</w>
ati vely</w>
ac tually</w>
t om
po st-
oc cu
lin es</w>
f our</w>
ec ts</w>
b ig
so li
re ach</w>
ec han
conf ron
th er
m u
innov ation</w>
agend a</w>
v ol
v o
v ul
v al</w>
in sur
cre d
a vi
Japan ese</w>
pres sion</w>
ide a</w>
gu ar
c ru
So vie
th ings</w>
peri od</w>
beh ind</w>
19 7
li ty</w>
dis cus
val ues</w>
sh ow
Par ty</w>
A u
technolo gies</w>
sist ance</w>
eff ect</w>
ann ual</w>
C oun
invest ments</w>
ci l</w>
c ol
EC B</w>
si on
p en
ci ties</w>
know n</w>
ari an</w>
pr ac
mod ern</w>
m en</w>
m echan
ver se</w>
r un
lar ger</w>
ch e
at h</w>
pa red</w>
o k</w>
negoti ations</w>
le -
econom ists</w>
civi l</w>
stru gg
si b
re port</w>
b ri
S au
so on</w>
sing le</w>
con clu
M ar
some thing</w>
ke ep</w>
f all
vot e</w>
val u
st or
protec t</w>
pl an</w>
offici al</w>
no thing</w>
vers ity</w>
rap id</w>
ex ter
ter rit
reco very</w>
or t</w>
mod er
im medi
ev ent
eas y</w>
def ense</w>
corrup tion</w>
auth orities</w>
tax es</w>
ser ves</w>
sa fe
concer ns</w>
B raz
1 .
re ven
l ate</w>
d own
boo st</w>
Pri me</w>
clas s</w>
situ ation</w>
pl es</w>
h and</w>
particul ar</w>
ob jec
am ent</w>
Palestini an</w>
th ern</w>
fra me
for ced</w>
dan ger
cu t</w>
competi tion</w>
bec ame</w>
Sovie t</w>
vul ner
tri lli
san ctions</w>
ag ed</w>
ab o
Coun cil</w>
me an</w>
hol ds</w>
gr ound</w>
go al</w>
dic al</w>
ap p
Afgh an
ver s</w>
sub si
respon sibility</w>
iz ed</w>
fun ds</w>
follow ing</w>
certain ly</w>
wor ks</w>
st a
mi se</w>
an aly
de red</w>
b ack
tran si
ge o
dra w
c ally</w>
av ail
ag ricul
stat us</w>
shor t-
oun d
me e
li ve</w>
knowled ge</w>
reg ar
le t</w>
dep end
deci sion</w>
a im
ran ts</w>
ill ed</w>
i an</w>
high ly</w>
deci sions</w>
behavi or</w>
an sw
si ze</w>
ra ise</w>
pow ers</w>
c at
Afghan istan</w>
o ffic
en s
c um
N o
qu ar
olu tions</w>
manag ement</w>
equ i
c ases</w>
wor ld
tur ned</w>
success ful</w>
Egyp t</w>
re ality</w>
pro per
par ts</w>
ate st</w>
D emo
Bre x
qu ality</w>
pro pos
Demo cr
r ing</w>
er a</w>
direc t</w>
y a</w>
relation ship</w>
prob ably</w>
fundament al</w>
free dom</w>
exp ec
cre ating</w>
comm un
ali sts</w>
tot al</w>
te st</w>
sub stan
res ol
qu ick
p an
la un
ade qu
Ne w</w>
re f
ord ers</w>
contra st</w>
collap se</w>
business es</w>
A ss
u su
ti g
pro mise</w>
n ation</w>
li gh
b asi
Islam ic</w>
Con gress</w>
w illing</w>
refuge es</w>
Af ri
pro duce</w>
off er</w>
mat ter</w>
hu ge</w>
environ mental</w>
curren tly</w>
presid ential</w>
fic ation</w>
el se
aliz e</w>
ti veness</w>
r ac
li ght</w>
he ld</w>
b re
b l
atten tion</w>
m en
guar an
confid ence</w>
att acks</w>
A n
t em
su s</w>
it able</w>
individu al</w>
carb on</w>
bon ds</w>
as k</w>
quick ly</w>
produc ts</w>
out come</w>
m illions</w>
leg is
grou p</w>
feren ce</w>
dra m
reas ons</w>
per for
n ar
in t</w>
else where</w>
advant age</w>
sto p</w>
sti c</w>
rel atively</w>
mig rants</w>
in ation</w>
exter nal</w>
en ded</w>
C entral</w>
wor ds</w>
n -
me et</w>
finan cing</w>
b order</w>
sec u
reduc ing</w>
mon th</w>
for ward</w>
exist ing</w>
commit ment</w>
li n</w>
continu ed</w>
as h</w>
J e
gain s</w>
under stand</w>
suc ce
se em
resul ts</w>
par li
guaran te
f ron
exp la
corpor ate</w>
coll ec
can di
at ory</w>
ar t</w>
stand ards</w>
se tt
pat h</w>
f le
civi li
NA TO</w>
pp ed</w>
b ol
In di
vi r
trilli on</w>
to ok</w>
cri tical</w>
b er</w>
Mexic o</w>
uni on</w>
recogni ze</w>
bor row
w ed</w>
sur pl
sk ills</w>
perfor man
pa in</w>
danger ous</w>
avail able</w>
am bi
abo ve</w>
world wide</w>
sc en
it arian</w>
c ame</w>
z er
wor k
pre ce
f ri
cy c
Europe ans</w>
Afri can</w>
enti re</w>
e z
ver si
mean while</w>
j ud
ing dom</w>
201 5</w>
1 0</w>
we ak</w>
un fortunately</w>
sho w</w>
prosp erity</w>
ke p
comple x</w>
ati n</w>
Brex it</w>
sa v
rec or
performan ce</w>
inclu de</w>
f ight</w>
af for
Braz il</w>
su per
m ist
l ac
L atin</w>
B ar
w at
l ec
il ateral</w>
cri min
G e
wr ong</w>
posi tive</w>
ing -
in ev
h y
gra du
g ain</w>
c all</w>
M a
un likely</w>
pro jects</w>
ess ential</w>
develo p</w>
d yn
Com mission</w>
4 0</w>
whe re
industri al</w>
form ed</w>
basi c</w>
st able</w>
simil arly</w>
ri es</w>
main tain</w>
every one</w>
de ep</w>
becom ing</w>
st ly</w>
lib eral</w>
defic its</w>
x i
tu res</w>
substan ti
regul ation</w>
li qu
ad ju
sur vi
organiz ations</w>
frame work</w>
event ually</w>
beli ev
ann oun
a head</w>
Sau di</w>
K ingdom</w>
un d</w>
re new
con stra
al ong</w>
ad ditional</w>
ultim ately</w>
f lows</w>
ca re
c el
al ing</w>
t ations</w>
pur cha
p on
en ab
agre ements</w>
sh oc
on e-
li er</w>
r ough
min ister</w>
independ ence</w>
h er
fac ili
ex t
dri ven</w>
r ati
ge st</w>
fun c
el er
ca used</w>
sci ence</w>
rel ative</w>
h ous
ffe red</w>
ast ern</w>
Inter net</w>
main tain
int ro
hel ped</w>
establi shed</w>
answ er</w>
S u
st ag
ne t
mor al</w>
gener ation</w>
enti ally</w>
b ac
w in
re vi
iz e</w>
de si
d ar
att ers</w>
ati s
over all</w>
gener al</w>
exp lo
eli min
as set</w>
a red</w>
technolo gical</w>
incenti ves</w>
id ly</w>
ex ces
con serv
cla im</w>
accep t</w>
trans f
the less</w>
sc ri
s ource</w>
ro o
pre ss</w>
pers onal</w>
institu tional</w>
f arm
ec h</w>
beg inning</w>
b er
te sts</w>
s -
respon sible</w>
contin ues</w>
alternati ve</w>
al lies</w>
a i
O r
I I</w>
ati cally</w>
N ations</w>
sur ing</w>
su fficient</w>
sha red</w>
sh e
mo b
ho od</w>
f ig
ch em
al li
S h
re -
out side</w>
nor m
n er</w>
fun ding</w>
comm unities</w>
wel l-
ph y
ex ac
en cies</w>
effec tively</w>
cu ts</w>
H am
simp le</w>
rap idly</w>
mat er
la ws</w>
w on</w>
t yp
stoc k</w>
mov ement</w>
m atters</w>
gra ph
fa ir</w>
di tion</w>
X i</w>
thr ough
stimul us</w>
religi ous</w>
manufac turing</w>
j our
for ms</w>
f are</w>
elec ted</w>
rel ated</w>
re pe
qu e</w>
out put</w>
neg ative</w>
imp lic
Musli m</w>
Ge or
wi de
re stri
phy si
p ati
fu el</w>
da ys</w>
a ir</w>
n u
multi l
consum ers</w>
com mer
certain ty</w>
al d</w>
acc eler
F und</w>
the re
shor t
lea ve</w>
ide as</w>
ar ies</w>
agre ed</w>
agre e</w>
short- term</w>
shi f
lo t</w>
e y
dyn am
de ath</w>
ur g
servic e</w>
requi red</w>
pri me</w>
insur ance</w>
cred it
ar gue</w>
transi tion</w>
on es</w>
interven tion</w>
in al</w>
g s</w>
ex t</w>
Sec urity</w>
streng th
si vely</w>
rev olution</w>
reduc ed</w>
por ting</w>
op en
in a</w>
im ag
b ed</w>
individu als</w>
independ ent</w>
cho ice</w>
E n
ve red</w>
scho ol</w>
re si
fam ily</w>
fac tors</w>
comp any</w>
at or</w>
an ted</w>
tar get</w>
rec ession</w>
ob vious</w>
ne i
g ri
bas is</w>
amoun t</w>
201 0</w>
th ous
socie ties</w>
shi ps</w>
prece d
pa id</w>
ou ble</w>
nei ther</w>
adequ ate</w>
activi ties</w>
2 5</w>
strong er</w>
o h
g row</w>
con sist
claim s</w>
a sh
P e
sugge sts</w>
fac ing</w>
disp u
direc tion</w>
cre ation</w>
thin king</w>
reach ed</w>
p ment</w>
neigh b
nat ure</w>
m a</w>
industri es</w>
exp ect</w>
emp ha
dam age</w>
con c
b orders</w>
a w
re serves</w>
produc tive</w>
ic i
go als</w>
elec tri
Inter national</w>
6 0</w>
si onal</w>
m ess
f igh
extre me</w>
b loc
St ate</w>
ri ed</w>
resp ect</w>
pursu e</w>
ordin ary</w>
dise ase</w>
differen ce</w>
contr ary</w>
br ought</w>
ar ch
M ay</w>
1 5</w>
tur ns</w>
pro ject</w>
on ald</w>
fam ili
ex clu
establi sh</w>
au st
tr ust</w>
s af
provi ding</w>
protec tion</w>
com mod
co ordin
allow ed</w>
th ought</w>
port ers</w>
g ent
expan sion</w>
e ffici
boo k</w>
transp a
reduc tion</w>
poin ts</w>
le ment</w>
house holds</w>
ex cep
b ru
auth ority</w>
P ro
vic tory</w>
intel li
concer n</w>
char ac
mee ting</w>
e ts</w>
dic t
bo dy</w>
aust erity</w>
are a</w>
abili ties</w>
Isra el
199 0</w>
vulner able</w>
the refor
therefor e</w>
s olutions</w>
re feren
prac tic
m al
ex ec
elec tor
doll ars</w>
cris es</w>
as s
ari ly</w>
G o
wide ly</w>
w ants</w>
terror ism</w>
tal ks</w>
sec ure</w>
lo sses</w>
fu el
direc tly</w>
through out</w>
signific antly</w>
partn ers</w>
o s
mom ent</w>
encoura ge</w>
cul tural</w>
as soci
Kore an</w>
I ran
y ers</w>
u t
sa ving</w>
ex port</w>
econom ics</w>
easi ly</w>
sav ings</w>
produc ed</w>
mode ls</w>
g ame</w>
dest ro
att ack</w>
tra ding</w>
tr ying</w>
ste ps</w>
sen sus</w>
like wise</w>
h und
fa il</w>
ev ents</w>
enti onal</w>
emer g
construc tion</w>
w age</w>
tion ary</w>
re in
ques tions</w>
inter nal</w>
0 ,000</w>
rough ly</w>
politic ally</w>
min im
iz ation</w>
im possible</w>
foc used</w>
b i</w>
U S
vi ously</w>
there by</w>
st om
re lev
im migration</w>
ch ing</w>
argu ment</w>
un e</w>
sh ment</w>
s low</w>
promot e</w>
fra g
equ ity</w>
ar ing</w>
Le ban
ti ves</w>
sec tors</w>
scienti fic</w>
on ed</w>
er y</w>
cri tici
chan ging</w>
aim ed</w>
a -
S e
subsi dies</w>
m ed</w>
dig ital</w>
b ilateral</w>
ac qu
Re publi
P ol
D ec
. 5</w>
vie ws</w>
ten d</w>
sid es</w>
see king</w>
scen ari
pro posed</w>
oth er
m acro
liqu id
deman ds</w>
ch ance</w>
201 4</w>
w ages</w>
under standing</w>
ta il
e fficient</w>
conv entional</w>
ap pa
Israel i</w>
ori st</w>
or ies</w>
m id
fol low</w>
fe el</w>
cul ture</w>
con duc
beg in</w>
balan ces</w>
Indi an</w>
wh at
st u
repres ent
r ace</w>
populi st</w>
chan ged</w>
ce -
brea k</w>
auth or
appe ars</w>
Gre at</w>
Ar gent
war ds</w>
un certainty</w>
sum mit</w>
su me</w>
sm all
pre h
pat ter
oc cur
be low</w>
appro pri
F ran
Ara bia</w>
A l
201 3</w>
sp ace</w>
s al
provi ded</w>
pro -
pl ans</w>
ide olo
ep t
diplom atic</w>
ac ies</w>
see k</w>
op e</w>
mar k</w>
man i
man age</w>
j ected</w>
experi en
exces sive</w>
b it
an u
an im
a bu
200 9</w>
who le</w>
w ish</w>
or ig
g ate</w>
ce i
an ds</w>
201 2</w>
vers al</w>
sup p
streng then</w>
s qu
offic e</w>
ept ember</w>
d on
competi tive</w>
c ore</w>
S eptember</w>
M u
x im
ti ous</w>
surpl us</w>
speci fic</w>
s ou
respon d</w>
lo ss</w>
lo se</w>
gres sive</w>
co ali
au tom
al o
Ham as</w>
what ever</w>
terr orist</w>
r he
lo ans</w>
increas es</w>
health -
foreig n-
dis rup
dec lin
d ates</w>
treat ment</w>
tra ining</w>
st age</w>
s on</w>
hol ders</w>
end er</w>
en able</w>
distribu tion</w>
dis ast
cru cial</w>
b a
ab or
K im</w>
v acc
proper ty</w>
n ers</w>
hous ing</w>
doub t</w>
any thing</w>
adv oc
spec ts</w>
se par
ran ge</w>
promis es</w>
mar g
k o
ga p</w>
bur den</w>
uni st</w>
st y
histor ical</w>
gu i
c ra
ab and
w in</w>
s ources</w>
pos es</w>
p ush</w>
ear lier</w>
de scri
con si
appe ar</w>
Republi can</w>
M er
Li b
tren d</w>
thous ands</w>
stud y</w>
regi ons</w>
op tim
do c
consum er</w>
commit ted</w>
S pain</w>
M ac
wor th</w>
sur ve
stud ents</w>
ren min
reas on
public -
op s</w>
import ance</w>
imple ment</w>
im ports</w>
con sensus</w>
Gre ek</w>
C old</w>
A b
show s</w>
pri se</w>
pri m
jour n
happ en</w>
ff s</w>
ap preci
ac tive</w>
Bar ack</w>
un able</w>
ta li
stan ds</w>
reg ard</w>
recor d</w>
prof its</w>
other wise</w>
or m
op tion</w>
is ms</w>
in ts</w>
con trac
c ement</w>
Ass ad</w>
u se
sovereig n
per man
op ini
liquid ity</w>
justi ce</w>
deli ver</w>
cir cum
b om
ap er</w>
ad ap
a h
Re public
R o
un less</w>
tru th</w>
t in
sovereign ty</w>
so ft</w>
sh own</w>
safe ty</w>
ris k
refl ects</w>
referen du
princi ple</w>
ou se</w>
or -
differen ces</w>
vie wed</w>
v ital</w>
t y
lan ds</w>
immedi ate</w>
bu b
big gest</w>
ur ban</w>
ul ar</w>
s si
refl ect</w>
po ore
o bli
n one</w>
hou se</w>
cont ext</w>
Republic ans</w>
where as</w>
seem ed</w>
regul atory</w>
re ve
pro por
pre ssed</w>
n om
manag ed</w>
lim it</w>
legitim acy</w>
in comes</w>
h om
fac es</w>
ev olution</w>
el t</w>
w ars</w>
t ac
stan ces</w>
st ore</w>
st abili
spe ech</w>
sa ve</w>
pro ve</w>
presid ency</w>
lim its</w>
intro duc
fe d
fed eral</w>
fa ster</w>
f ru
de fl
vari ous</w>
to -
ta kes</w>
sy m
out comes</w>
eth n
cor rec
at trac
ar ran
a ke</w>
Palestini ans</w>
tw o-
sib ly</w>
s er</w>
reach ing</w>
oun ds</w>
op h
memb ership</w>
m iddle</w>
in si
fall ing</w>
dep end</w>
con ver
com pu
ban k
ab road</w>
st ate-
si x</w>
sever e</w>
princi ples</w>
health- care</w>
f er
en orm
e red</w>
R es
tar gets</w>
stand ard</w>
sp ir
relev ant</w>
referendu m</w>
multil ateral</w>
dep ends</w>
contin ent</w>
com par
chil d</w>
cent er</w>
broad er</w>
b ra
US -
Com m
war ming</w>
st ory</w>
sp read</w>
si on-
s po
renmin bi</w>
pro ce
norm al</w>
fle xi
e f</w>
c au
y our</w>
thre ats</w>
te dly</w>
su sp
re ali
rais ing</w>
protec tion
preci sely</w>
geo political</w>
en suring</w>
com pared</w>
bu l
bar ri
an -
Argent ina</w>
sto od</w>
st ment</w>
ser ved</w>
pre -
por ary</w>
plac ed</w>
is ol
follow ed</w>
fac ed</w>
M or
1 00</w>
pro spects</w>
par tly</w>
neighb ors</w>
mo ving</w>
min ist
hel ping</w>
form al</w>
f f</w>
el a</w>
com preh
Leban on</w>
vi a</w>
um ents</w>
saf e</w>
mo ved</w>
impro ving</w>
ext ent</w>
expec tations</w>
dan ger</w>
achiev ed</w>
T ra
D onald</w>
un like</w>
to ols</w>
sp i
rhe tor
en jo
bre ak
201 1</w>
w rit
ke l</w>
inve st</w>
intelli gence</w>
dru g</w>
arm ed</w>
G az
G -
re ds</w>
pos sibility</w>
min d</w>
becom es</w>
any one</w>
Mer kel</w>
Iran ian</w>
syst em
re m
promis ed</w>
i k
fav or</w>
ep ing</w>
de struc
arran g
R om
Musli ms</w>
wel fare</w>
v ast</w>
tar ge
some times</w>
loo king</w>
ge tting</w>
con om
commer cial</w>
No v
G ener
C lin
ti an</w>
s co
resul ting</w>
mess age</w>
intel lec
ic es</w>
dri ve</w>
cu stom
commun ic
b s</w>
b lo
as sistance</w>
S un
E conom
C an
B er
sugge st</w>
spec ial</w>
prof es
pre vious</w>
p ic
gi ving</w>
de fe
b att
Pol and</w>
F ed
w ing</w>
t ment</w>
scho ols</w>
prim ary</w>
l ending</w>
im pe
exper ts</w>
desig ned</w>
c er</w>
E astern</w>
201 6</w>
s mo
ri ch
nation alism</w>
n am
li ed</w>
legis lation</w>
gener ally</w>
effici ency</w>
deci sion-
ap poin
air s</w>
Clin ton</w>
sovereig n</w>
r ural</w>
po st
la y</w>
la m</w>
impro ved</w>
im self</w>
identi ty</w>
hund reds</w>
h or
h imself</w>
form ing</w>
facili t
er o
du e</w>
at ure</w>
appropri ate</w>
adop ted</w>
V en
Par is</w>
K en
w anted</w>
sp ent</w>
pe ace
on y</w>
happ ened</w>
exec u
announ ced</w>
al ed</w>
agricul tural</w>
Syri an</w>
Gener al</w>
t ou
so -
o d
m idd
lea ving</w>
h ur
gen u
fron t</w>
farm ers</w>
barri ers</w>
tari ffs</w>
succe ed</w>
substanti al</w>
star ted</w>
si ans</w>
recei ved</w>
fun d</w>
equ al</w>
ent ing</w>
conv inc
competi tiveness</w>
al loc
a y
N ational</w>
Is lam</w>
tur ning</w>
t- account</w>
re mar
r out
poli ce</w>
opini on</w>
me rely</w>
lear n</w>
in stability</w>
de gre
curren t-account</w>
contro l
consi dered</w>
coali tion</w>
ad ly</w>
P oli
Dec ember</w>
usu ally</w>
t ol
si t</w>
pon ents</w>
m ach
la h</w>
e ld</w>
dep lo
de fa
curren cies</w>
as ed</w>
up on</w>
sub ject</w>
regul ations</w>
r on</w>
provi des</w>
plac es</w>
macro economic</w>
initi ative</w>
i ed</w>
figh ting</w>
comp li
cho ose</w>
ad dition</w>
E r
we e
vol ati
v ement</w>
sur pris
s ound</w>
rhetor ic</w>
pers on</w>
per spec
fin al</w>
famili es</w>
appro ach
ac tors</w>
Nov ember</w>
H ouse</w>
si l
pl at
el se</w>
de a
ca uses</w>
ag gre
affor d</w>
C ol
- year</w>
uc r
strate gies</w>
or ing</w>
mechan isms</w>
mas s</w>
m er</w>
le ments</w>
la w
every thing</w>
develop ments</w>
con n
circum stances</w>
call s</w>
G u
with draw
th -
roo m</w>
recogni zed</w>
one theless</w>
ne ar</w>
n onetheless</w>
l ying</w>
it es</w>
h it</w>
ethn ic</w>
deep ly</w>
consider able</w>
con nec
collec tive</w>
charac ter
attemp t</w>
as sum
sup ported</w>
suff ering</w>
scenari o</w>
it er
han d
gen e
ez u
exp ensive</w>
el ds</w>
democr acies</w>
ak es</w>
adv ance</w>
accoun ts</w>
abs ence</w>
Ven ezu
T he</w>
S D
y i
ven tion</w>
undermin e</w>
tri ed</w>
the ory</w>
strugg le</w>
sp end</w>
remain ed</w>
pol lu
par ti
fo ssi
fi x
equ ally</w>
eng ine
dem ic</w>
at er
ar ms</w>
ac i
Tra de</w>
7 0</w>
v ast
re ment</w>
rais ed</w>
ful f
ac tivity</w>
Sec re
Fed eral</w>
200 5</w>
1 1</w>
sustain ed</w>
ss -
shar ing</w>
res olution</w>
r in
perman ent</w>
p ha
me th
go es</w>
fo rec
fe ars</w>
enti rely</w>
enorm ous</w>
d less</w>
contribu te</w>
buil t</w>
an ces</w>
8 0</w>
w ent</w>
ir ing</w>
he av
f ying</w>
f our
dise ases</w>
comp ens
bu rea
ag encies</w>
ad ded</w>
De velo
ti tu
su red</w>
so- called</w>
rea m</w>
re pre
pres ent</w>
pos ing</w>
ori al</w>
con cep
borrow ing</w>
boo m</w>
we ek</w>
tion ing</w>
ti gh
pri ority</w>
practic es</w>
ow ned</w>
me t</w>
k er</w>
ing ing</w>
inev itable</w>
he avi
g one</w>
establi shment</w>
dec la
credi bility</w>
con soli
comple te</w>
bu st</w>
b ase</w>
ari a</w>
Er do
200 0</w>
wi desp
widesp read</w>
to m</w>
s mar
reven ues</w>
regim es</w>
midd le-
implic ations</w>
estim ated</w>
el ling</w>
argu ed</w>
Or ganiz
trans formation</w>
tech n
t ask</w>
refuge e</w>
me dical</w>
g ir
clo ser</w>
cap e</w>
candi dates</w>
T h
I C
sty le</w>
re le
pro cess
mob ili
mis si
in st
conflic ts</w>
bi o
associ ated</w>
ad a</w>
a wa
J une</w>
Develo pment</w>
200 7</w>
sup posed</w>
streng th</w>
recei ve</w>
re sistance</w>
pla ying</w>
ot s</w>
lab or-
l atest</w>
im balances</w>
house hold</w>
har dly</w>
gre atest</w>
fir m</w>
f ound
estim ates</w>
er ve</w>
er ation</w>
d ge</w>
contro ls</w>
compreh ensive</w>
commit ments</w>
as p
Organiz ation</w>
Gaz a</w>
19 6
wor st</w>
strength ening</w>
ser i
ro r</w>
qu anti
particip ation</w>
p sy
n ings</w>
h un
at tr
as ser
allow ing</w>
Res erve</w>
F in
2 .
wor ked</w>
s kep
resol ve</w>
re ti
quar ter</w>
gener ate</w>
fac tor</w>
eli tes</w>
credi ble</w>
conc entr
co he
addre ssing</w>
A I
200 1</w>
who m</w>
vic e</w>
un preced
small er</w>
re store</w>
per f
oun ded</w>
jo in</w>
invol ved</w>
inten ded</w>
gu n</w>
for cing</w>
expla in</w>
ec ting</w>
diplom acy</w>
decla red</w>
cal cul
bu y</w>
b ing</w>
L on
G lob
ten sions</w>
rati o</w>
pre ssing</w>
pr acti
over come</w>
maintain ing</w>
ge -
ex er
dis co
deci de</w>
cu tting</w>
ar ti
aff airs</w>
F or
t al</w>
suff er</w>
run ning</w>
reven ue</w>
repre ne
le verage</w>
i or</w>
f requ
ent reprene
arm y</w>
S en
Erdo ğ
uni versal</w>
tu red</w>
tren ds</w>
re turns</w>
pro ved</w>
pre pared</w>
per su
exp and</w>
ex tra
b ound</w>
ast ro
Lon don</w>
J oh
Erdoğ an</w>
wh el
unpreced ented</w>
sig n</w>
scienti sts</w>
remar k
m ag
l and
bor n</w>
bl ame</w>
at ures</w>
and a</w>
ac ted</w>
0 .
zer o</w>
treat y</w>
tic ally</w>
territ ory</w>
slow down</w>
pay ments</w>
oper ations</w>
is tic</w>
imag ine</w>
h on
gre en
dru gs</w>
d ings</w>
cel l
bro ad</w>
believ ed</w>
as ked</w>
S a
te le
su d
st ac
re at
posi tions</w>
over whel
olu tionary</w>
numb ers</w>
n i</w>
me ly</w>
m es</w>
m atic</w>
hol ding</w>
fir e</w>
emplo ye
M al
K ur
to ld</w>
th y</w>
te ly</w>
tal k</w>
t op
t emp
st ream</w>
propos al</w>
objec tive</w>
m oun
li st</w>
im posed</w>
experien ced</w>
en han
disast er</w>
decision- making</w>
conserv ative</w>
c t</w>
T ha
S er
K rem
198 0</w>
sou thern</w>
sol ve</w>
sig ned</w>
pris es</w>
plan et</w>
occu p
o ffered</w>
necess arily</w>
im pose</w>
im migrants</w>
il ed</w>
econom ically</w>
comb ined</w>
ban kers</w>
aggre gate</w>
ac u
ac a
S ing
Ira q
I tali
Glob al</w>
Democr ats</w>
A be</w>
tro ops</w>
te en
sup porters</w>
sa w</w>
s ac
qu ali
plan ning</w>
op tions</w>
mechan ism</w>
mani pul
m ir</w>
inv es
heavi ly</w>
f alle
falle n</w>
enter prises</w>
eng age</w>
electri city</w>
dea ths</w>
cat astro
burea ucr
anu ary</w>
alli ance</w>
Y or
Krem lin</w>
J anuary</w>
w er</w>
spec ul
sha pe</w>
seri ously</w>
repres ents</w>
per cei
parli ament
me dic
ing ton</w>
inclu sive</w>
ili ties</w>
fi eld</w>
f ell</w>
e th</w>
agricul ture</w>
y es</w>
sec re
s atis
p ace</w>
oun ding</w>
neigh bor
lan gu
inves tig
determin ed</w>
d ent</w>
c ash</w>
analy sis</w>
ad d</w>
Mac ron</w>
En g
C am
tw enti
st op
ra dical</w>
pla yed</w>
per cent
on line</w>
mon it
mid -
initi atives</w>
implement ed</w>
finan ci
easi er</w>
d able</w>
credit ors</w>
capit a</w>
bo ard</w>
bank rup
an g
aff ect</w>
a p</w>
W h
V ie
J u
sust ain</w>
pursu ing</w>
pro v
pati ents</w>
on going</w>
mi tig
ke eping</w>
iz ing</w>
g ender</w>
f ar-
elector al</w>
di ed</w>
comp lic
ch ec
avo i
author itarian</w>
K o
vot ed</w>
um ul
te e</w>
te ach
rul ing</w>
pu tting</w>
pot entially</w>
p led
p ack
obli g
laun ched</w>
ex ce
ent y-
dri ving</w>
d ation</w>
ch es</w>
aff ected</w>
ad d
Tur k
Re public</w>
Lib ya</w>
C our
vic tim
te red</w>
regul ators</w>
qu ite</w>
pro tests</w>
physi cal</w>
perspec tive</w>
n ame</w>
mov ements</w>
mist ake</w>
lan tic</w>
ke t</w>
he art</w>
emer ged</w>
com promise</w>
capit alism</w>
achiev ing</w>
acc umul
z es</w>
star ters</w>
sib ilities</w>
ren ts</w>
produc ers</w>
ob stac
no w
l at
k in
im m
human itarian</w>
han ds</w>
ev ent</w>
degre e</w>
deb ts</w>
de preci
constitu tional</w>
as sume</w>
T reat
Isra eli
Geor ge</w>
C O
w on
viol ent</w>
use ful</w>
urg ent</w>
tru ly</w>
s ought</w>
off ers</w>
mo tiv
ma xim
lear ning</w>
fa st</w>
expan ding</w>
ent er</w>
e ds</w>
dar ity</w>
cri tics</w>
constra ints</w>
car ry</w>
Yor k</w>
W ash
Vie tn
Treat y</w>
200 6</w>
1 2</w>
transpa ren
se tting</w>
s la
net works</w>
less on</w>
ic ro
g or
ev ol
dram atically</w>
divi ded</w>
depend ence</w>
cyc le</w>
app lic
alo gue</w>
Cour t</w>
to wards</w>
prosp ect</w>
peace ful</w>
nation alist</w>
lear ned</w>
lead s</w>
k illed</w>
in sul
hop es</w>
gir ls</w>
gain ing</w>
dis crimin
coll abor
b ir
Wash ington</w>
tw enty-
s ch
resi li
re pu
popul ations</w>
less ons</w>
legitim ate</w>
immedi ately</w>
guarante e</w>
fre e-
fe wer</w>
ex plan
est ate</w>
emb ly</w>
ec tion</w>
dynam ic</w>
con ference</w>
ag ement</w>
M one
under lying</w>
ty pe</w>
th an
tan e
sup porting</w>
stra li
st ance</w>
shar ply</w>
shar p</w>
re alize</w>
r ound</w>
practi ce</w>
partn er</w>
parliament ary</w>
op ponents</w>
main ly</w>
j i
invest ing</w>
el ing</w>
dra w</w>
constitu tion</w>
co al</w>
an i</w>
a sion</w>
H e
D en
Au strali
un g
s ent</w>
pri mar
our s</w>
objec tives</w>
ob ser
mor t
ma li
m ur
ju dic
inclu des</w>
exper im
emer gence</w>
educ ated</w>
deci ded</w>
commod ity</w>
b ail
T ai
S we
Je wish</w>
Democr atic</w>
- scale</w>
z y</w>
usu al</w>
ie f</w>
happ ens</w>
go ld</w>
establi shing</w>
determin e</w>
desi re</w>
de vast
c k</w>
c ent</w>
appa rent</w>
19 4
th o
sh es</w>
s li
remain ing</w>
pp ing</w>
patter n</w>
inter pre
imp lies</w>
high est</w>
gre en</w>
depend ent</w>
corpor ations</w>
concer ned</w>
claim ed</w>
chan ne
ca using</w>
bac ked</w>
amoun ts</w>
ac ts</w>
I S
C o
wor ry</w>
w is
to cr
sp here</w>
produc t</w>
mea sure</w>
l er</w>
genu ine</w>
fuel ed</w>
fu els</w>
ex tr
diffic ul
deep er</w>
continu ing</w>
comb ination</w>
bot tom</w>
be gun</w>
b it</w>
as y
ag no
addre ssed</w>
S E
Islam ist</w>
200 4</w>
1 8
tion ally</w>
se ven</w>
pro lif
ou d</w>
loo ks</w>
it ably</w>
ig n
har d
ga ve</w>
eas ing</w>
dram atic</w>
di ver
defa ult</w>
cap able</w>
Turk ish</w>
Secre tary</w>
P aci
H I
. .
terror ists</w>
territ orial</w>
re be
promis ing</w>
poore st</w>
pa ying</w>
p rising</w>
kep t</w>
innov ative</w>
i shed</w>
f low</w>
di versity</w>
con tain
belie f</w>
adju stment</w>
Paci fic</w>
Mo di</w>
M e
w ill
tr ouble</w>
tr ack</w>
techn ical</w>
t ack
struc tures</w>
regar dless</w>
re struc
pres ence</w>
kno ws</w>
grow n</w>
f em
er b
disp lac
dis ci
de -
aliz ing</w>
a il</w>
R evolution</w>
Can ada</w>
we alth
versi ties</w>
uni versities</w>
tem porary</w>
ser ving</w>
sec ular</w>
oper ate</w>
mo stly</w>
me ant</w>
mater i
li fe
incenti ve</w>
in ess</w>
il lu
fru str
exac erb
en em
e ded</w>
disci pl
cho ices</w>
c ot
br inging</w>
be ar</w>
Venezu ela</w>
Tai w
Se a</w>
ve h
uni que</w>
transparen cy</w>
t ability</w>
star ting</w>
ro bust</w>
regar ded</w>
percent age</w>
eng agement</w>
employe es</w>
dro p</w>
di agno
defl ation</w>
conn ected</w>
chan ge-
candi date</w>
can cer</w>
at titu
arrang ements</w>
adop t</w>
ac ting</w>
D S</w>
Ch an
victim s</w>
under p
sur y</w>
stu dies</w>
sim ul
r ational</w>
qu o</w>
o t</w>
nar r
mort g
man date</w>
fa ir
ex change-
demonstr ated</w>
cour t</w>
b ond</w>
ar m</w>
af ter
T rea
N ig
Ch ris
200 3</w>
vi sit</w>
u r</w>
su ffered</w>
se x
propos als</w>
pos ite</w>
organiz ation</w>
n ity</w>
inten sive</w>
inf l
il -
gradu ally</w>
fri ends</w>
exchange- rate</w>
exac tly</w>
e ly</w>
def end</w>
cro ss-
col le
a di
Vietn am</w>
Mone tary</w>
C a
- up</w>
vir tually</w>
tre at</w>
transf er</w>
sub sequ
shoc ks</w>
sett lement</w>
sc ope</w>
s chem
restri ctions</w>
rel and</w>
re ments</w>
pri orities</w>
p es
nor ms</w>
ne y</w>
nati ons</w>
legis l
la di
journ alists</w>
exer ci
defin ed</w>
co stly</w>
S ar
H ong</w>
G- 20</w>
ver ing</w>
twenti eth</w>
tol er
sur prising</w>
soli darity</w>
sig ns</w>
op ening</w>
occu r</w>
negoti ate</w>
in adequate</w>
fo ot
eli te</w>
educ ational</w>
ch ers</w>
cap abilities</w>
I reland</w>
th ers</w>
tec h</w>
su rely</w>
stag nation</w>
st ers</w>
repres ent</w>
re ci
psy cho
promot ing</w>
pla yers</w>
pl ying</w>
pers on
parli ament</w>
min ority</w>
it h</w>
ho sti
histor ic</w>
graph ic</w>
fav or
every where</w>
di alogue</w>
an g</w>
ambi tious</w>
P h
In d
Econom ic</w>
201 7</w>
wee ks</w>
undermin ing</w>
threat ened</w>
sustain ability</w>
res ource</w>
re sid
re sear
over -
olo gical</w>
nu tri
mode st</w>
it ation</w>
intellec tual</w>
integr ated</w>
health y</w>
d r
contribu ted</w>
c s</w>
appe ared</w>
ag ue</w>
Par li
M ed
K ong</w>
Ind one
B ro
um -
typ ically</w>
than ks</w>
s en</w>
reli ef</w>
occur red</w>
m em
ie ld</w>
f la
extre mely</w>
exp end
es cal
entreprene ur
declin ing</w>
confron t</w>
comp on
boo sting</w>
b illions</w>
ation ary</w>
a i</w>
tr oub
th u
te am</w>
re ported</w>
ph il
per sist
p le
minist ers</w>
im per
ho st</w>
fig ure</w>
f elt</w>
employ ed</w>
emer ge</w>
desig n</w>
critici sm</w>
control led</w>
0 -
val ent</w>
un de
targe ted</w>
sum mer</w>
si ght</w>
process es</w>
pre viously</w>
mo di
m il
human s</w>
gener ations</w>
fig ures</w>
f lo
cont ent</w>
ar ri
CO 2</w>
we ight</w>
under stood</w>
sur prise</w>
st atis
sha re
protec ting</w>
pen sion</w>
oper ating</w>
o red</w>
langu age</w>
ho sp
g ment</w>
fail ing</w>
enab led</w>
emb race</w>
dist inc
d ouble</w>
consist ent</w>
cle an</w>
ch ron
ap ply</w>
ac compan
abs or
a ver
a im</w>
P er
wel come</w>
veh ic
un certain</w>
tra di
ten ing</w>
t ell</w>
sig n
sel l</w>
sc ar
reli able</w>
re sc
r s</w>
prof it</w>
peri ph
ni a</w>
mon o
moder ni
moder ate</w>
m ir
lo gical</w>
hal f-
f ate</w>
ess entially</w>
asse ss
approach es</w>
accep ted</w>
V ladi
T ali
Joh n</w>
Geor gi
Col om
B o
19 3
uc k</w>
t on
t ant</w>
surpris ingly</w>
spec ies</w>
so f
s we
ru s</w>
pur pose</w>
pos sibly</w>
pl ants</w>
oper ation</w>
op posite</w>
mom ent
lo gic</w>
laun ch</w>
issu ed</w>
inev itably</w>
g ers</w>
emerg ing-
emb rac
elimin ate</w>
discus sion</w>
convinc ed</w>
Rus sians</w>
Parli ament</w>
Palest ine</w>
Itali an</w>
volati lity</w>
survi val</w>
priv ate-
pa in
lo sing</w>
it y-
il ing</w>
ex ist</w>
en for
dist or
der i
conclu ded</w>
con ven
cent u
call ing</w>
Vladi mir</w>
Taiw an</w>
Ne t
M an
HI V</w>
D i
9 0</w>
vot es</w>
tari an</w>
tar y-
sen ior</w>
s enti
on ing</w>
obser vers</w>
implement ing</w>
implement ation</w>
ig no
high ligh
heav y</w>
deb t-
balan ced</w>
al u
Tali ban</w>
Ju ly</w>
Comm unist</w>
An g
y er</w>
ul f</w>
t- wing</w>
state- owned</w>
simul tane
rel uc
refl ected</w>
reason able</w>
re comm
pu shing</w>
pres sive</w>
mo bility</w>
liber alization</w>
identi fy</w>
i or
hel ps</w>
emerg ency</w>
e ight</w>
destruc tion</w>
cir c
c row
bub ble</w>
b in
ar ity</w>
ac compli
SE A
H ar
C u
A SEA
withdraw al</w>
we st</w>
w o
vari e
sy n
st e</w>
senti ment</w>
ren tly</w>
re sist
re al-
rais es</w>
ra dic
prev enting</w>
prac tical</w>
percei ved</w>
jo int</w>
ing u
ign ore</w>
gre w</w>
encoura ging</w>
domin ated</w>
co -
c k
batt le</w>
ar g
ad ed</w>
F e
weak ened</w>
wa it</w>
sta ke</w>
st er
smar t</w>
pu ts</w>
pu shed</w>
pre me</w>
pas sed</w>
marke t-
m y
lo g
in sist
il e
har der</w>
h ome
fin ding</w>
fi f
ec h
contrac ts</w>
compe te</w>
char ge</w>
bankrup t
b les</w>
ad s</w>
W .</w>
Nig er
strong ly</w>
ren ce</w>
primar ily</w>
pollu tion</w>
or ship</w>
ob viously</w>
leg acy</w>
large -scale</w>
har m</w>
h ours</w>
gain ed</w>
exp lic
es n</w>
es cape</w>
do esn</w>
deter ior
a side</w>
Mar ch</w>
H ung
ASEA N</w>
A l</w>
t ative</w>
resear chers</w>
requi rements</w>
recogni tion</w>
ra ble</w>
prof ound</w>
prev ail
per cep
pa rents</w>
ma r</w>
innov ations</w>
initi al</w>
in ated</w>
gene tic</w>
desp er
de tail
cri mes</w>
bo ld</w>
am es</w>
ali g
ag gressive</w>
acqu i
a h</w>
Trea sury</w>
A g
und oub
tax pay
stitu tion</w>
s ort</w>
net work</w>
ne sses</w>
mp i
ment -
mal aria</w>
main stream</w>
ent al</w>
effec tiveness</w>
centu ries</w>
appe al</w>
ap ore</w>
an ticip
al lows</w>
ad o
Y em
Wh ite</w>
Sun ni</w>
Sing apore</w>
Net any
C ha
B al
5 00</w>
y ield</w>
weak ness</w>
we a
w il
some one</w>
sol di
show ed</w>
sa ys</w>
s oph
religi on</w>
re vers
protection ism</w>
profes sional</w>
pro p
populi sm</w>
ori ented</w>
manag ing</w>
is tic
introduc ed</w>
il legal</w>
four th</w>
fail ures</w>
er r
coordin ation</w>
bud gets</w>
ah u</w>
ad vis
a ys</w>
Uni versity</w>
Netany ahu</w>
Indone sia</w>
F o
undoub tedly</w>
the ast</w>
tem per
soph istic
ro l
resol ved</w>
re verse</w>
re ports</w>
pro hi
pl ed</w>
p uni
negoti ating</w>
mean ing</w>
lin ked</w>
ko zy</w>
j e
ic k</w>
fri end
end ers</w>
empha si
cont em
con dem
ch ief</w>
ari ties</w>
an x
an t
ac cur
T i
T B</w>
Pak ist
J in
Ban g
AI DS</w>
197 0</w>
&apos ;</w>
will ing
willing ness</w>
wa ve</w>
subsi di
shif ting</w>
ri ties</w>
restruc turing</w>
resp ec
re min
purcha ses</w>
publi shed</w>
prolif eration</w>
produc ing</w>
ne ver
m ere</w>
frag ile</w>
fa ther</w>
explan ation</w>
eng aged</w>
enab ling</w>
emerging- market</w>
e u
dict at
clo sely</w>
clo sed</w>
che ap</w>
attrac tive</w>
Sar kozy</w>
O c
G ulf</w>
3 .
19 5
ve -
v o</w>
spe ak</w>
sk illed</w>
pre par
pre mi
inclu ded</w>
human ity</w>
gener ated</w>
fa ith</w>
f al
dispu tes</w>
dis h</w>
di ff
dec lar
car ried</w>
au tocr
attr act</w>
at tribu
C ri
Ass embly</w>
A h
weak er</w>
tra vel</w>
ten ed</w>
tele vision</w>
st ay</w>
sen si
sal es</w>
restri c
mit ted</w>
inf lows</w>
im port</w>
gui de</w>
g ro
en ty</w>
e ding</w>
aw are</w>
ann ually</w>
ali ties</w>
L ab
Iraq i</w>
I S</w>
y outh</w>
wi der</w>
substanti ally</w>
sel s</w>
re stor
re place</w>
re jected</w>
r ying</w>
pres sures</w>
nor thern</w>
new sp
mis sing</w>
medi um-
inter nation
form ul
ex cess</w>
el t
ear nings</w>
descri bed</w>
d il
civili an</w>
cha mpi
bor row</w>
balan cing</w>
ate dly</w>
accompan ied</w>
S ou
Q a
Q E</w>
P P</w>
K e
De pression</w>
A t
weak en</w>
th ri
shoc k</w>
se a</w>
ro te</w>
pos se
pha se</w>
per pe
ma y
li e</w>
in str
hom es</w>
flexi ble</w>
f er</w>
ex posed</w>
defe at</w>
coun ter</w>
condi tion</w>
comple tely</w>
co ver</w>
bu ying</w>
boo ks</w>
abu se</w>
Swe den</w>
Australi a</w>
wom an</w>
v an
transpa rent</w>
tra ge
t ough</w>
survi ve</w>
stri ke</w>
res tim
off set</w>
narr ative</w>
lin k</w>
in ce</w>
gres sional</w>
fund ed</w>
er ous</w>
ed a</w>
di e</w>
contra dic
challeng ing</w>
cent ers</w>
b -
arti fic
accep table</w>
Sh ia</w>
v ill
transf ers</w>
to ber</w>
t ap
respon ses</w>
reali stic</w>
re serve</w>
off ering</w>
mo il</w>
lear -
lat ter</w>
kin ds</w>
identi fied</w>
i er</w>
glob ally</w>
fac ts</w>
do w</w>
d ated</w>
cy ber</w>
cri me</w>
cre ates</w>
b lam
Oc tober</w>
L a
wealth y</w>
un sustainable</w>
tur moil</w>
threat en</w>
stitu te</w>
stag n
se -
s in</w>
remark able</w>
perf ect</w>
par tment</w>
p ru
p ra
om ing</w>
never theless</w>
mp ;</w>
mean ing
human -
gr ounds</w>
func tion</w>
fem ale</w>
emb ar
di verse</w>
destro y</w>
dest abili
de vi
de sh</w>
cross- border</w>
coun t</w>
correc t</w>
bankrupt cy</w>
arg uments</w>
acc ord
ac knowled
S um
B R
A pri
1 8</w>
&a mp;</w>
w rote</w>
ul ts</w>
threat ening</w>
ta il</w>
soldi ers</w>
ra rely</w>
r ation
po lar
now ad
nowad ays</w>
nom inal</w>
mat h</w>
in d
igh ts</w>
g al</w>
fossi l</w>
ez bol
er up
cre te</w>
concep t</w>
comm unist</w>
ag gres
W all</w>
Pe ople</w>
Je ws</w>
H ezbol
G s</w>
F re
1 4</w>
valu able</w>
under stand
supp lies</w>
subsequ ent</w>
sion ary</w>
missi le</w>
mis m</w>
loo ked</w>
interven tions</w>
h ance</w>
gre at
func tioning</w>
expan ded</w>
en hance</w>
e m</w>
don ors</w>
de pos
d ness</w>
conduc t</w>
comp la
ce le
aband on</w>
ab les</w>
S ch
Qa eda</w>
Niger ia</w>
Ger man
Fe bru
Apri l</w>
A d
- based</w>
us ers</w>
twenty- first</w>
stimul ate</w>
stat ement</w>
risk y</w>
reti rement</w>
repe atedly</w>
pro secu
private- sector</w>
predic t</w>
own ership</w>
om s</w>
n ine</w>
moment um</w>
lea ves</w>
l an</w>
inv asion</w>
happ y</w>
go t</w>
g ust</w>
finan ced</w>
f il
exten ded</w>
exten d</w>
execu tive</w>
ex it</w>
enfor cement</w>
ei j
down turn</w>
deli vered</w>
custom ers</w>
col on
cha ins</w>
c lin
bir th</w>
appro val</w>
and -
am s</w>
ag u
S pr
P or
J ord
Hezbol lah</w>
H a
E x
B ur
& #
&# 9
vi able</w>
transp ort</w>
sym bo
strugg ling</w>
sophistic ated</w>
simultane ously</w>
sa ying</w>
s ity</w>
re placed</w>
r i</w>
policy making</w>
pack age</w>
nuc lear-
n ine
la u
inten si
ine ly</w>
im peri
h i</w>
fur ther
fall s</w>
ec o
deci sive</w>
de als</w>
corrup t</w>
conduc ted</w>
attemp ts</w>
ap s</w>
ambi tions</w>
advan ces</w>
R ic
Georgi a</w>
Febru ary</w>
20 20</w>
1 7</w>
renew ed</w>
ref used</w>
re rs</w>
re action</w>
quar ters</w>
pro te
on ic</w>
oblig ations</w>
mat ch</w>
li st
head s</w>
further more</w>
exp ense</w>
eth ical</w>
equi valent</w>
divi de</w>
discrimin ation</w>
devast ating</w>
declin ed</w>
contribu tion</w>
ch i
capit al-
b adly</w>
advant ages</w>
ad ver
accoun tability</w>
acceler ate</w>
S tre
N az
Israeli s</w>
we red</w>
v ity</w>
uni versity</w>
un ited</w>
trans actions</w>
to w
tion ed</w>
stre ss</w>
soci al-
ra li
public ly</w>
ph arm
par alle
one- third</w>
of -
o g
new ly</w>
intere st-
gi ves</w>
g en</w>
fundament ally</w>
ful l-
facilit ate</w>
f e</w>
do z
discus sions</w>
depreci ation</w>
deman ding</w>
con tain</w>
compu ter</w>
compens ation</w>
W TO</w>
S in
P i
Ko so
IS IS</w>
ton om
system ic</w>
she et</w>
ser ies</w>
rul ed</w>
ro ot
propor tion
pro gressive</w>
populi sts</w>
pay ment</w>
ow ed</w>
op posed</w>
nine teen
multi ple</w>
mob ile</w>
mater ial</w>
mar ked</w>
la sting</w>
k new</w>
it ting</w>
institu tion</w>
ideolo gical</w>
frag ment
flexi bility</w>
exam ples</w>
ev alu
e lements</w>
consoli dation</w>
con crete</w>
com fort
be l</w>
appreci ation</w>
ap art</w>
an ism</w>
N ic
K ha
Egyp tian</w>
B r
199 0s</w>
taxpay ers</w>
t le</w>
sp ur
shif ts</w>
rev olutionary</w>
rele ased</w>
priv ile
predic ted</w>
pre dec
predec ess
phil os
partn ership</w>
ne ar-
migr ant</w>
lo y
li ter
im pressive</w>
igno red</w>
he ar
g l
found ation</w>
er ly</w>
cell or</w>
ce an</w>
au tonom
Su preme</w>
wor ried</w>
vol un
spe ed</w>
sol ar</w>
respon sibilities</w>
rec ru
read ing</w>
quanti tative</w>
pursu ed</w>
occu pi
m icro
li ve
less ly</w>
k a</w>
happ ening</w>
g em
f r
ey es</w>
em i
demonstr ate</w>
de pression</w>
counter parts</w>
assess ment</w>
ali ke</w>
aca demic</w>
Sa har
Ph ili
O l
M on
Bang la
B eij
1 0
y s
wa ke</w>
tre ated</w>
ta lity</w>
stop ped</w>
share holders</w>
secu rities</w>
row n</w>
plat form</w>
pain ful</w>
min ent</w>
l ash</w>
initi ally</w>
inclu sion</w>
igh t
ideolo gy</w>
foreign- exchange</w>
facili ties</w>
ex pressed</w>
encoura ged</w>
el low</w>
ed ly</w>
di mini
de liber
da ily</w>
cour ts</w>
conclu sion</w>
b ill</w>
al ty</w>
ag an</w>
Yem en</w>
Koso vo</w>
He alth</w>
B i
20 30</w>
wor d</w>
vot ing</w>
thu si
stor ies</w>
se ve
run s</w>
ro se</w>
righ t-wing</w>
predic table</w>
pol ls</w>
patter ns</w>
particip ants</w>
our selves</w>
n on
n e</w>
manag ers</w>
in sufficient</w>
im posing</w>
foc using</w>
far- reaching</w>
end or
en thusi
doc tr
dis coura
defin i
crimin al</w>
contribu tions</w>
comb at</w>
care ful</w>
Sen ate</w>
S cot
M y
K ey
Ch ile</w>
Au gust</w>
4 .
varie ty</w>
tack le</w>
t ty</w>
success fully</w>
st af
shi on</w>
she ets</w>
seve rely</w>
resi st</w>
renew able</w>
plac ing</w>
ph en
oc ca
obstac les</w>
nat ur
middle- income</w>
lo gy</w>
l acks</w>
interest- rate</w>
he gem
ha m
down ward</w>
dis mis
concer ning</w>
clas si
b ran
b lack</w>
asy lu
asp ir
an i
alternati ves</w>
affor dable</w>
accoun ting</w>
abs olu
Pakist ani</w>
O s</w>
C or
20 0</w>
tri b
t ance</w>
spe a
s end</w>
s an</w>
respon ded</w>
pro ven</w>
materi als</w>
ke ts</w>
g y-
g ement</w>
fix ed</w>
financi al-
e ag
draw n</w>
displac ed</w>
di versi
deb ates</w>
de aling</w>
dam aging</w>
d ents</w>
consist ently</w>
comm it</w>
cha os</w>
bin ding</w>
ati zation</w>
ac tual</w>
ac commod
W e
O EC
OEC D</w>
Key ne
Beij ing</w>
198 0s</w>
z z
wis dom</w>
wa iting</w>
vi sible</w>
tw ice</w>
trans formed</w>
trans form</w>
threat ens</w>
tax ation</w>
sp on
some what</w>
roo t</w>
reve aled</w>
re turned</w>
re p
presid ents</w>
pl ant</w>
periph ery</w>
p are</w>
p al</w>
ong -
om en
nor mali
nar row</w>
n an
minim um</w>
lim iting</w>
li ved</w>
li cal</w>
instr uments</w>
hun ger</w>
ho ods</w>
ha z
fi elds</w>
ex pl
equi pment</w>
empha sis</w>
dispu te</w>
demo graphic</w>
d ur
consid ering</w>
consequ ence</w>
care fully</w>
bro ken</w>
bloc k</w>
b y
att ac
after math</w>
adap t</w>
a str
Ken ya</w>
Jord an</w>
De partment</w>
Ch ur
Ch ar
201 8</w>
war ned</w>
v ent
ultim ate</w>
to ol</w>
sur ge</w>
stat ements</w>
sh rin
sel ling</w>
risk -
ri t</w>
re stra
re jec
poin ted</w>
phen omen
pas s</w>
particip ate</w>
p aper</w>
occupi ed</w>
o se
mu tual</w>
impro vement</w>
imp ly</w>
ig nor
govern ing</w>
g ot
friend ly</w>
fir st-
extra ordinary</w>
entrepreneur s</w>
engine ering</w>
domin ant</w>
discipl ine</w>
direc ted</w>
chron ic</w>
c ar</w>
blo od</w>
believ es</w>
be t</w>
ar bit
app lied</w>
an ia</w>
Y u
Phili pp
O s
B la
yi elds</w>
w inning</w>
un c
tri gge
trigge red</w>
tal ent</w>
su ffici
st ated</w>
slow ly</w>
sex ual</w>
s tic
s lu
rul ers</w>
pre pare</w>
pre fer</w>
pat ri
par aly
p h</w>
organiz ed</w>
neighbor ing</w>
n ur
mul tin
m ists</w>
long er-
le ver
invest ed</w>
fuel ing</w>
dro pped</w>
di men
bub bles</w>
broad ly</w>
br ings</w>
bo dies</w>
appa rently</w>
an ger</w>
activi sts</w>
T uni
C ar
won der</w>
weak ening</w>
surpl uses</w>
sugge sted</w>
staf f</w>
st ering</w>
sk ill</w>
sha res</w>
s i</w>
s cre
ris m</w>
reduc tions</w>
re view</w>
pro vo
plat forms</w>
open ly</w>
maintain ed</w>
justi fy</w>
histor ically</w>
ha b
gr y</w>
got ten</w>
g ger</w>
extre mists</w>
extr a</w>
enthusi as
ear n</w>
dis appoin
de par
confron tation</w>
co verage</w>
chil d
ba rely</w>
b lin
ar di
Spr ing</w>
S ud
Re agan</w>
Go og
German s</w>
Com mit
Bla ir</w>
At lantic</w>
2 2</w>
1. 5</w>
war ning</w>
vehic les</w>
v ements</w>
thir ds</w>
th i
ter ror</w>
so le
so ld</w>
recogni zing</w>
purcha se</w>
provi sion</w>
prosp erous</w>
parti san</w>
p he</w>
own ers</w>
ou ts</w>
op pose</w>
op ened</w>
on er</w>
mo ves</w>
mist akes</w>
min ds</w>
m un
le n</w>
impro vements</w>
gu ard</w>
fe atures</w>
er ships</w>
di str
cou p</w>
cho o
catastro phe</w>
acti vely</w>
Commit tee</w>
Colom bia</w>
Bangla desh</w>
.. .</w>
yn es</w>
w ind</w>
ti sm</w>
techno cr
sud den
sudden ly</w>
sub -
statis tics</w>
seem ingly</w>
s lower</w>
ris h</w>
rec k
re tain</w>
pro per</w>
pra g
pl enty</w>
pati ent</w>
nutri tion</w>
l en
jo ined</w>
ide al</w>
gui ded</w>
fer ti
f it</w>
exerci se</w>
do or</w>
dil em
desi rable</w>
cyc lical</w>
coordin ated</w>
con sul
compe t
comfort able</w>
character ized</w>
b lu
ar re
an ci
Stre et</w>
Sahar an</w>
S pan
Por tu
No bel</w>
Mu bar
M c
Ke ynes</w>
Jin ping</w>
D ef
C ali
Br us
3 5</w>
ye ar-
wi d
valu ation</w>
two- thirds</w>
tri als</w>
tri al</w>
ther lands</w>
t y-
sup pos
suppos edly</w>
stoc ks</w>
stoc k
spi rit</w>
secre t</w>
ris en</w>
re balancing</w>
protec ted</w>
negoti ated</w>
meaning ful</w>
mea sured</w>
ld n</w>
ir s</w>
imper ative</w>
im age</w>
frequ ently</w>
fe ed</w>
favor able</w>
exist ence</w>
ever -
enjo y</w>
e astern</w>
dist ingu
dis proportion
cre ative</w>
counter -
c op
attemp ting</w>
anx ie
anim als</w>
al leg
advoc ates</w>
ad or</w>
ac ci
S har
Ne therlands</w>
M ad
Goog le</w>
F T
Chan cellor</w>
B O
u n</w>
transp or
tic le</w>
ther hood</w>
sy mp
surve y</w>
stan tly</w>
st akes</w>
si x
sh owing</w>
res ort</w>
pris on</w>
pharm ace
pharmace u
no tion</w>
m ad
le ts</w>
insi st</w>
id es</w>
i ties</w>
gi ble</w>
foreign- policy</w>
fal se</w>
ex emp
en lar
e ase</w>
di o
destro yed</w>
cr iter
chem ical</w>
cha in</w>
c li
c ate
assum ed</w>
ad y</w>
ad vice</w>
T PP</w>
Mubar ak</w>
H o
Eng land</w>
E s</w>
Chris tian</w>
Cali for
Brus sels</w>
A I</w>
1 3</w>
work force</w>
w al
vir tu
vacc ines</w>
un g</w>
un fair</w>
trage dy</w>
ti se</w>
ti ans</w>
tain ed</w>
st ation</w>
sen sible</w>
sc ru
ro ads</w>
repres ented</w>
reluc tant</w>
protection ist</w>
prop ag
pro long
pre fer
pol ar</w>
po or
ph one</w>
pe ak</w>
partn erships</w>
par ado
overwhel ming</w>
olo gy</w>
ol der</w>
multi -
min ded</w>
meth ods</w>
m end
k illing</w>
ji ha
indic ators</w>
il and</w>
i x
govern mental</w>
g ent</w>
feren ces</w>
fail s</w>
f loo
f ill</w>
excep tion</w>
er ad
elector ate</w>
e ing</w>
determin ation</w>
contro versi
contr act</w>
consider ably</w>
con ci
con ces
claim ing</w>
civili ans</w>
c ars</w>
bru tal</w>
big ger</w>
benef ic
ati on-
arch it
aim s</w>
accord ingly</w>
Poli sh</w>
Philipp ines</w>
F ace
B el
198 9</w>
19 30</w>
1 6</w>
vers ary</w>
urg ently</w>
typ es</w>
tra -
tin y</w>
t ings</w>
sur r
success or</w>
succe eded</w>
stre ets</w>
speci fic
se ts</w>
resul ted</w>
represent atives</w>
relation ships</w>
re ver
propor tion</w>
prof ess
pre serve</w>
plan ned</w>
pic ture</w>
per si
motiv ated</w>
monit oring</w>
le f
labor- market</w>
l ag
is o
i ans</w>
foreig ners</w>
exper tise</w>
ex pression</w>
employ ers</w>
dre am</w>
complic ated</w>
commun ism</w>
cap ture</w>
c o</w>
brea king</w>
benefic ial</w>
b ab
ail s</w>
ag ues</w>
T o
Hung ary</w>
Face book</w>
C D
B as
A gre
- led</w>
writ ten</w>
wa ste</w>
ut ch</w>
un conventional</w>
tri gger</w>
tra p</w>
ter -
suffici ently</w>
sof tw
resili ence</w>
re member</w>
re conc
r at
pro mp
poor ly</w>
pla u
mitig ate</w>
man ner</w>
longer- term</w>
l ers</w>
je op
isol ation</w>
inf ec
id able</w>
free- trade</w>
erad ic
er on</w>
e an</w>
doc tors</w>
di d
cur e</w>
comm is
circ le</w>
at mo
artific ial</w>
an ni
Ukra ini
T im
R ec
N a
H oll
D utch</w>
Cam eron</w>
ur ban
undermin ed</w>
tradi tionally</w>
stabili ze</w>
st ant</w>
sp or
secon d
s ites</w>
root ed</w>
righ tly</w>
po ly</w>
pla ys</w>
on ia</w>
occup ation</w>
nu mer
min orities</w>
me a</w>
marg in
ill ance</w>
ha r</w>
gradu al</w>
g ar
ep i
e i</w>
domin ance</w>
comp elling</w>
char ges</w>
b loo
b as</w>
anti bio
add am</w>
ad verse</w>
accoun table</w>
S addam</w>
Cri mea</w>
C z
wh ite</w>
unde restim
surve illance</w>
sud den</w>
softw are</w>
schem e</w>
s y</w>
s outh</w>
resc ue</w>
repres sion</w>
reli ance</w>
ran ean</w>
por tra
open ness</w>
mono poly</w>
mee tings</w>
mach ines</w>
k o</w>
iter ranean</w>
it ly</w>
intere sted</w>
ine j
in side</w>
il ater
gra de</w>
ep iso
econom ist</w>
difficul ties</w>
den om
defin e</w>
de ad</w>
cri p
conci li
con vic
chan ces</w>
bur d
benef ited</w>
back lash</w>
b all</w>
avoi ded</w>
appe ar
ap ers</w>
an mar</w>
adop ting</w>
achiev ement</w>
Sud an</w>
My anmar</w>
Med iterranean</w>
Cu b
C E
7 5</w>
20 50</w>
2 8</w>
we igh
vi gor
vacc ine</w>
tri um
tor ies</w>
tho do
strength ened</w>
s ers</w>
restor ing</w>
regar ding</w>
re form
proper ly</w>
pro test</w>
orig inal</w>
no where</w>
ne u
ma p</w>
low er-
lin ed</w>
ligh tly</w>
k y</w>
jud gment</w>
is n</w>
inej ad</w>
in formal</w>
guarante ed</w>
g ically</w>
g ged</w>
fis h</w>
enhan cing</w>
de lay</w>
comm ent
collap sed</w>
collabor ation</w>
clim ate-
cle an
bra in</w>
as sumption</w>
analy sts</w>
ad ing</w>
Tha iland</w>
S ta
R a
P ow
J er
Def ense</w>
Califor nia</w>
C lim
B e
Agre ement</w>
ver sion</w>
uni ons</w>
tra v
to x
thre e-
ter ri
ste el</w>
separ ate</w>
secon d-
sco res</w>
revers ed</w>
regul ar</w>
provi sions</w>
poore r</w>
philos oph
ord erly</w>
nar row
mat ure</w>
is land</w>
ir man</w>
intro duce</w>
hur t</w>
head ed</w>
guarante es</w>
great ly</w>
gr anted</w>
f ran
evid ent</w>
er red</w>
ent ered</w>
detail s</w>
destruc tive</w>
construc tive</w>
con cei
com man
c ast</w>
c ab
borrow ers</w>
adver ti
R i
Q at
Mo sco
C C
A c
x y</w>
x ed</w>
wr ite</w>
weak nesses</w>
vo ice</w>
tra dition</w>
thi op
te sting</w>
tal king</w>
t less</w>
su peri
see ing</w>
second ary</w>
sac ri
resid ents</w>
proble matic</w>
pri cing</w>
ong side</w>
mobili ze</w>
men tion</w>
low- income</w>
loc k</w>
ko v
it ure</w>
ine fficient</w>
inc or
import antly</w>
il s</w>
ici de</w>
fe eling</w>
fe der
enem ies</w>
el led</w>
e able</w>
doctr ine</w>
did n</w>
deep ening</w>
d ys
d ow
controversi al</w>
confron ting</w>
conces sions</w>
compu ters</w>
au di
all -
al ongside</w>
Span ish</w>
Sou theast</w>
S om
Mosco w</w>
Lab our</w>
Kur dish</w>
Go vern
E thiop
Den mark</w>
Bro therhood</w>
un employed</w>
spec tac
sp ring</w>
sacri fic
ri c</w>
repu tation</w>
real- estate</w>
re ness</w>
re ject</w>
pur poses</w>
pres ented</w>
pr int</w>
persist ent</w>
percep tion</w>
me tri
low- carbon</w>
k i</w>
invol vement</w>
insur g
in spi
illu str
hy po
har mon
hal t</w>
geo graph
gener ating</w>
fossi l-
fo ld</w>
fir m
enti t
eng ine</w>
em be
du res</w>
dist re
dec ent</w>
de la
cro ps</w>
communic ation</w>
cohe rent</w>
clas ses</w>
catastro ph
c enter
bac king</w>
ar is
ad just</w>
accur ate</w>
acc used</w>
Tuni sia</w>
So cial</w>
F at
Clim ate</w>
199 9</w>
valu ed</w>
v it
up ward</w>
teach ers</w>
targe ting</w>
su n
sig nal</w>
se l</w>
rout e</w>
ro c
re move</w>
pharmaceu tical</w>
persu ade</w>
on to</w>
men ei</w>
k ill
internation ally</w>
in -
func tional</w>
fe ature</w>
f ies</w>
experien cing</w>
estim ate</w>
ef s</w>
dis astr
dilem ma</w>
cooper ate</w>
balan ce-
bail out</w>
b es</w>
awa reness</w>
arch y</w>
appro ved</w>
all s</w>
adop tion</w>
ac tor</w>
ac knowledge</w>
a sts</w>
Kha menei</w>
2 4</w>
y mp
wel l
un ilater
tigh tening</w>
th ering</w>
sensi tive</w>
ro ots</w>
rec over</w>
re pa
rali zed</w>
profes sion
popul arity</w>
p it
or gan
not ed</w>
mortg age</w>
mo tion</w>
medic ine</w>
mar ri
manipul ation</w>
m ale</w>
lin ks</w>
leg ally</w>
l a</w>
invol ve</w>
infl ationary</w>
inde x</w>
in he
in deb
imperi al</w>
fore most</w>
ex ists</w>
e lement</w>
dan gers</w>
conver gence</w>
con sci
compar is
challeng ed</w>
ch ose</w>
cau ght</w>
bri dge</w>
back ground</w>
attitu des</w>
asse ss</w>
as sa
argu es</w>
al es</w>
acceler ated</w>
a sive</w>
J ong-
Fin an
C ity</w>
Afric ans</w>
vol um
vi rus</w>
tou rism</w>
thre sh
th ro
te sted</w>
t su
str on
some how</w>
so oner</w>
see ks</w>
s ent
rich er</w>
regul ated</w>
ra di
prolong ed</w>
po wered</w>
po is
ol ing</w>
not ably</w>
ne o-
mem ory</w>
live li
justi fied</w>
jud ge</w>
invol ving</w>
inter -
integr ity</w>
in formed</w>
in duc
human- rights</w>
fundament als</w>
found ations</w>
for get</w>
fo ster</w>
fe a
ent ation</w>
en force</w>
dig nity</w>
deli very</w>
d is</w>
d d
con fin
c lar
avi d</w>
as c
ak ed</w>
U -
T e
S O
P lan</w>
N A</w>
M D
Islam ists</w>
Con serv
2 7</w>
vulner ability</w>
v il-
under way</w>
ud d
transpor tation</w>
t ter</w>
t elling</w>
su m</w>
sto red</w>
st uck</w>
st ern</w>
s or
respon ding</w>
requ iring</w>
reig n</w>
reali ties</w>
re moved</w>
re mot
qu ie
provi ders</w>
politici an</w>
p ill
ob se
numer ous</w>
neg l
middle- class</w>
mi st</w>
mach ine</w>
k il
inf lic
hol der</w>
h ot
fulf ill</w>
fac to</w>
exten sive</w>
expan sionary</w>
eag er</w>
divi sions</w>
dictat orship</w>
de gra
cooper ative</w>
concili ation</w>
colle agues</w>
ci vil-
c entr
b acks</w>
assum ing</w>
any where</w>
U N
Ser bia</w>
G 20</w>
Finan cial</w>
Cub a</w>
wea ther</w>
u t</w>
tsu nam
tri ght</w>
ten s</w>
su it</w>
stud ent</w>
struc k</w>
st ments</w>
short ages</w>
s at
ro ll</w>
res h</w>
repe ated</w>
rein force</w>
re alized</w>
ran ks</w>
pro jec
pre vention</w>
paralle l</w>
ou tright</w>
optim istic</w>
optim ism</w>
open ha
moun ting</w>
may be</w>
less ness</w>
lac king</w>
l enders</w>
k ill</w>
insul a</w>
indic ate</w>
i on</w>
hum ili
hosp it
g am
experi ences</w>
ex porters</w>
ex c
en try</w>
en ced</w>
embrac ed</w>
divi sion</w>
d a</w>
cou ple</w>
contem porary</w>
confid ent</w>
compon ent</w>
comm and</w>
brea ks</w>
bol ster</w>
be l
b- Saharan</w>
b ound
b low</w>
b low
atmo sphere</w>
asylu m</w>
argu ing</w>
ar th</w>
anxie ty</w>
an ch
am ple</w>
alloc ation</w>
ad ding</w>
acu te</w>
Su b-Saharan</w>
S al
Qat ar</w>
Portu gal</w>
Ol ymp
Mor si</w>
L an
Keyne sian</w>
Con stitution</w>
Bas har</w>
2 .5</w>
197 9</w>
y an</w>
well being</w>
ve z</w>
v ent</w>
us al
sup pl
suppl y-
specific ally</w>
sid ers</w>
se ats</w>
s lightly</w>
re conciliation</w>
r a</w>
qu ick</w>
qu est</w>
purcha sing</w>
phenomen on</w>
p il
m p</w>
l end</w>
house -
har d-
h at
green house-
finan ces</w>
fif th</w>
fi x</w>
fi red</w>
ey e</w>
excep t</w>
electri c</w>
dynam ics</w>
disp ens
de tec
criter ia</w>
constra ined</w>
conclu de</w>
con stantly</w>
compe ting</w>
commit tee</w>
com for
blam ed</w>
ad vi
absolu te</w>
Nor thern</w>
Jer usal
C openha
Ber lin</w>
A M
6 .
1 5
z a</w>
work er</w>
wor sen
we stern</w>
us al</w>
uni fication</w>
un ilateral</w>
t a</w>
stre et</w>
si gh
se ttle</w>
sc and
ro g
revi val</w>
resili ent</w>
proce dures</w>
pro jected</w>
prepar ing</w>
pi p
pe op
out break</w>
ous ness</w>
multil ater
lo west</w>
jeop ardi
it ors</w>
interven e</w>
integr ate</w>
in struc
in her
im plying</w>
ili bri
he igh
he ard</w>
greenhouse- gas</w>
g -
fossil- fuel</w>
famili ar</w>
fair ly</w>
f resh</w>
f an
extre mism</w>
expla ined</w>
expend iture</w>
ev olutionary</w>
el li
domin ate</w>
den ied</w>
dem ics</w>
de leg
cro p</w>
consider ation</w>
concentr ated</w>
con stant</w>
con gressional</w>
comp ati
cam p</w>
bom b</w>
bar gaining</w>
b ly</w>
avoi ding</w>
as king</w>
al- Assad</w>
aff ecting</w>
adju stments</w>
aband oned</w>
T ran
SD Gs</w>
P en
Nor way</w>
Kore ans</w>
Jerusal em</w>
J usti
I P</w>
H u
FT A</w>
Den g</w>
D avid</w>
Copenha gen</w>
2 1</w>
vic es</w>
ve stment</w>
up coming</w>
tra ined</w>
t ful</w>
t an</w>
susp ici
su icide</w>
stri kes</w>
ste ady</w>
sp ur</w>
soci ally</w>
sk y</w>
sh ou
sec tarian</w>
resist ant</w>
res ent
ra ge</w>
pru d
propag anda</w>
p ple</w>
ob tain</w>
n avi
mor tality</w>
mone tary-
moderni zation</w>
min u
li stic</w>
lever aging</w>
inspi red</w>
in et</w>
g aps</w>
fla wed</w>
fl uc
fam ous</w>
enlar gement</w>
ed ge</w>
do cum
discus s</w>
differen ti
d in
conven i
co st-
autom ation</w>
as ks</w>
applic ations</w>
al ties</w>
ag ency</w>
advis ers</w>
ac le</w>
R ights</w>
Kur ds</w>
In du
H um
For um</w>
Ethiop ia</w>
Eng li
D ar
Bi g</w>
Ang ela</w>
Ah mad
Afgh an</w>
Ab bas</w>
wor l
volati le</w>
tra jec
thresh old</w>
ste adi
steadi ly</w>
slow ed</w>
shif ted</w>
se x</w>
se as</w>
sch ol
res emb
reduc es</w>
ran ging</w>
pri or</w>
prev ented</w>
port fo
portfo li
por ter</w>
pl um
per form</w>
pec ts</w>
op ho
nineteen th</w>
mu tually</w>
mar ks</w>
liber ty</w>
it -
in ability</w>
imp ris
id ance</w>
gi ant</w>
gener ous</w>
fluc tu
fea sible</w>
f arm</w>
environ ment
enem y</w>
emp i
dispens able</w>
disastr ous</w>
differen tly</w>
di re</w>
deli vering</w>
contribu ting</w>
ch -
b ling</w>
attitu de</w>
as pects</w>
arrang ement</w>
ar sen
anni versary</w>
an a</w>
acc o</w>
acc ession</w>
T ru
Som ali
S il
Ahmad inejad</w>
wit zer
wa ves</w>
un rest</w>
tri p</w>
tre ati
tox ic</w>
the -
territ ories</w>
tari ff</w>
sump tions</w>
suc c
stri king</w>
ste red</w>
sta ke
st em
slow ing</w>
reli es</w>
refl ecting</w>
ra f</w>
profession als</w>
preced ent</w>
po sure</w>
ph ones</w>
nati on-
multin ational</w>
marri age</w>
itu res</w>
in security</w>
in cur
han i</w>
ha i</w>
fin dings</w>
fav ored</w>
expla ins</w>
enjo yed</w>
em in
elimin ated</w>
dom s</w>
difficul ty</w>
deman ded</w>
declar ation</w>
cyc les</w>
credit or</w>
convinc ing</w>
consider ations</w>
com modi
co de</w>
cho sen</w>
cele br
c ope</w>
break through</w>
b id</w>
appear ance</w>
anti- S
ali stic</w>
accoun ted</w>
abu ses</w>
ab und
ab oli
a po
Y e
Tim es</w>
S witzer
R ou
BR IC
200 2</w>
2 9</w>
zer o-
y en</w>
wor thy</w>
valu e-
v als</w>
v ali
ul ly</w>
ti a</w>
sup ports</w>
se es</w>
sa ved</w>
s ite</w>
rat ings</w>
pre ferences</w>
pr in
pip el
oun ced</w>
o il-
natur ally</w>
monetary- policy</w>
mi x</w>
meth od</w>
maxim ize</w>
manufac tu
mag n
lo an</w>
jo ining</w>
in dispensable</w>
ha u
green house</w>
g ments</w>
fulf illing</w>
fi shing</w>
f light</w>
expend itures</w>
equ ilibri
en acted</w>
el ect</w>
discus sed</w>
diplom ats</w>
def ending</w>
cra sh</w>
con ce
compon ents</w>
competi tors</w>
clo sing</w>
ch er</w>
center -
care er</w>
campaig ns</w>
as sumptions</w>
announ cement</w>
anim al</w>
all ed</w>
ad ults</w>
acqu ire</w>
acceler ating</w>
Switzer land</w>
Pe ace</w>
P o
Mu shar
Mal ay
Ken ne
Fat ah</w>
E bol
E U-
Bur ma</w>
A R
6 5</w>
1 ,000</w>
1 ,
u ght</w>
tri gg
tre mend
ter ly</w>
temp tation</w>
tem por
tan cy</w>
t ough
t ants</w>
stre t
stra ight
sp ar
so il</w>
sec uring</w>
s wa
ris dic
rel ying</w>
ra y</w>
psycho logical</w>
prov in
produc es</w>
pro minent</w>
pri de</w>
prevail ing</w>
pre sum
per mit</w>
p un
p al
o ci
man eu
jud ges</w>
ju risdic
intellec tu
incor por
ill en
ic -
hy per
hous es</w>
han g
gri ev
frequ ent</w>
fo rest</w>
exec uti
evi l</w>
enter ing</w>
enhan ced</w>
ener gy-
elec tr
el ed</w>
disrup tion</w>
desper ate</w>
depos its</w>
deplo y
defini tion</w>
dar k</w>
cra ft</w>
communic ations</w>
collec tion</w>
choo sing</w>
autonom y</w>
ari se</w>
achiev ements</w>
W W
Sum mit</w>
S tr
Mushar raf</w>
L u
Indi ans</w>
H it
F u
Ch á
Au stri
A s
3 00</w>
2 3</w>
0 0,000</w>
with draw</w>
understand able</w>
tra dable</w>
ti me
ther ap
tac tics</w>
sym pa
stri c
soli d</w>
sh ore</w>
ro les</w>
ri val</w>
remark ably</w>
pursu it</w>
peri ods</w>
obstac le</w>
n y</w>
multilater alism</w>
mi red</w>
me at</w>
mar i
mani fe
like li
investig ation</w>
inv o
introduc tion</w>
in spir
hosti le</w>
free ly</w>
ffic e</w>
fac tion</w>
executi ves</w>
event ual</w>
er t</w>
empha size</w>
disrup tive</w>
disast ers</w>
dis order</w>
den y</w>
de ad
conserv atives</w>
con sume</w>
channe ls</w>
centr al-
cel ls</w>
cab inet</w>
argu ably</w>
arbit r
am id</w>
absor b</w>
West er
Sta lin</w>
Sh in
R w
Mor oc
Ma o</w>
Justi ce</w>
Hit ler</w>
C P
Bal k
4 5</w>
19 60</w>
year- old</w>
y o</w>
y al</w>
xi de</w>
treati es</w>
trans late</w>
to b
tob acco</w>
ti er</w>
temper atures</w>
symbo li
straight forward</w>
st ain
scenari os</w>
s sion</w>
revi ve</w>
represent ative</w>
regul arly</w>
r ating</w>
prov oc
priv acy</w>
physi cs</w>
p t</w>
ot h</w>
orig in
neighb or</w>
n av
marg inal</w>
liveli hoods</w>
likeli hood</w>
liber als</w>
itu de</w>
isol ated</w>
influ ential</w>
in ned</w>
in k</w>
half- century</w>
h our</w>
frame works</w>
fa shion</w>
f low
f ellow</w>
erup ted</w>
ent ren
emb o
ed -
distribu ted</w>
de serve</w>
cul tures</w>
compati ble</w>
cohe sion</w>
cate g
bureaucr acy</w>
beg ins</w>
ati sm</w>
aspir ations</w>
appreci ate</w>
ali en
al arm
ag on
W o
Somali a</w>
P u
Mexic an</w>
Indu stri
I P
Chá vez</w>
B u
Ara bs</w>
Al ger
z e
work ing-
wit ne
v acu
typ ical</w>
tra ffic
ten sion</w>
tempor arily</w>
t el
stabili zing</w>
spea king</w>
sh el
ri gi
rev olutions</w>
re stored</w>
pul l</w>
predecess ors</w>
pled ge</w>
per formed</w>
pen sions</w>
od ds</w>
o tic</w>
o cr
o be
ne l</w>
minim ize</w>
mean time</w>
judic ial</w>
j um
interpre tation</w>
inten tion</w>
id den</w>
hosti lity</w>
her o
g as
explic it</w>
en -
doub ts</w>
don or</w>
disp arities</w>
defic i
de voted</w>
cy n
coura ge</w>
com plac
charac ter</w>
char ged</w>
catastroph ic</w>
c ard</w>
bro ke</w>
bi as</w>
b ills</w>
as si
an alo
af i</w>
Ro ad</w>
Par tn
N ix
Li ber
K u
F D
Ebol a</w>
E m
A le
weap on</w>
wat ch</w>
ver i
un willing</w>
ul tra-
trans mission</w>
trajec tory</w>
ti ble</w>
th or
ten ds</w>
t ons</w>
symp tom
stron gest</w>
st al
sol ving</w>
si veness</w>
sha ping</w>
ris es</w>
rejec tion</w>
rein forcing</w>
rein forced</w>
re ward</w>
re sur
re distribution</w>
r are</w>
quali fied</w>
public- sector</w>
per forming</w>
peop les</w>
not e</w>
no body</w>
mur der</w>
mit ting</w>
marg in</w>
land s
l or
ir relevant</w>
invol ves</w>
inno cent</w>
hy dro
he at</w>
he ar</w>
grow s</w>
gr and
frustr ation</w>
fin e</w>
fac tory</w>
f ounded</w>
extre mist</w>
explic itly</w>
exacerb ated</w>
equilibri um</w>
equi pped</w>
emp ire</w>
dist ant</w>
desper ately</w>
colon ial</w>
co inci
cat aly
cam ps</w>
c ens
bi an</w>
anci ent</w>
alli ances</w>
a th
W e</w>
T he
Scot land</w>
Nix on</w>
K ar
G r
D el
C I
A ct</w>
5 ,000</w>
yo to</w>
wor rying</w>
war fare</w>
undermin es</w>
u d</w>
trans forming</w>
tici sm</w>
tari ly</w>
sugge sting</w>
situ ations</w>
sign als</w>
short age</w>
sel ection</w>
s our
rele ase</w>
rec over
re r</w>
ra v
prohi b
prag matic</w>
pan ic</w>
out look</w>
or row</w>
ob served</w>
newsp aper</w>
mo ther</w>
missi les</w>
medic ines</w>
manufactu rers</w>
m -
loc ation</w>
lo oming</w>
li abilities</w>
legisl ative</w>
is tics</w>
hop e
hol dings</w>
gro ss</w>
gen es</w>
fr action</w>
forec ast</w>
f ought</w>
f laws</w>
explo it</w>
exist ential</w>
exces sively</w>
en ses</w>
elimin ating</w>
draw ing</w>
deplo yed</w>
denom inated</w>
de st</w>
conv ince</w>
constitu te</w>
commodi ties</w>
co smo
civil- society</w>
chec ks</w>
che aper</w>
bound aries</w>
bloc ked</w>
blo c</w>
b on</w>
b le
b and</w>
aff ects</w>
adap tation</w>
So ci
Shar on</w>
R onald</w>
Partn ership</w>
P E
N P</w>
N P
N G
Kenne dy</w>
K yoto</w>
K er
Fre e</w>
C A
BRIC S</w>
199 7</w>
199 1</w>
197 0s</w>
1 9</w>
1 7
yri ad</w>
x ity</w>
wid ening</w>
wh en
when ever</w>
w all</w>
volum e</w>
vis ited</w>
ve sted</w>
un necessary</w>
u ms</w>
tsunam i</w>
trans at
transat lantic</w>
tom orrow</w>
tol l</w>
ten d
sustain ing</w>
super vis
stru ment</w>
skep tics</w>
si a-
sh -
saf er</w>
s le
s ale</w>
ri val
re versal</w>
re turning</w>
pled ged</w>
pes si
occur s</w>
newsp apers</w>
medi um</w>
lo ve</w>
li fied</w>
inten se</w>
initi ated</w>
industri alization</w>
in strument</w>
head lines</w>
gra ve</w>
gr and</w>
glob alized</w>
g un
follow s</w>
ex posure</w>
en ko</w>
ec ture</w>
du ty</w>
dist ur
demonstr ations</w>
dec lines</w>
critici zed</w>
construc t</w>
connec tion</w>
compli ance</w>
cap tured</w>
calcul ations</w>
bureaucr atic</w>
benef ici
au g
applic ation</w>
anti-S emi
ambi tion</w>
ag o
advoc ate</w>
administr ative</w>
adju sted</w>
adequ ately</w>
S ri</w>
S hi
S hang
Rw anda</w>
P BO
PBO C</w>
Nic ol
Naz i</w>
G ol
F ir
Engli sh</w>
Con vention</w>
Con ference</w>
Braz ili
2 6</w>
194 5</w>
w ou
vir tual</w>
v a</w>
under take</w>
un ch</w>
un acceptable</w>
trans form
tow n</w>
tiz ation</w>
the tic</w>
the ore
tend ency</w>
t ext
t asks</w>
supply- side</w>
stri ct</w>
so ared</w>
signific ance</w>
sha ped</w>
sett lements</w>
sen ding</w>
secu red</w>
sc ore</w>
s p</w>
ro bo
ri d</w>
resol ving</w>
ren der</w>
ref usal</w>
rec es
rebe ls</w>
rati os</w>
ra se</w>
prev ail</w>
po c
plum me
pla yer</w>
persi st</w>
occur ring</w>
negoti ation</w>
n is</w>
medium- term</w>
magn itude</w>
m ers</w>
lo sers</w>
law yers</w>
lands cape</w>
lan ding</w>
l eng
indic ator</w>
indic ates</w>
inc umb
in sol
im migrant</w>
im ages</w>
i shing</w>
hon or</w>
happ iness</w>
ha bit
h es
h ence</w>
h ate</w>
govern ed</w>
g lo
fri end</w>
forec ast
fore ver</w>
fore see
fl ou
fin ds</w>
fe ared</w>
f at</w>
f at
exten ding</w>
exclu sively</w>
ex port
enthusias m</w>
enab les</w>
ear ned</w>
dra ft</w>
doub led</w>
distinc tion</w>
disco vered</w>
di v
deter rence</w>
destabili zing</w>
confron ted</w>
concentr ation</w>
con vers
comparis on</w>
compar able</w>
comp as
co ast
civili zation</w>
central- bank</w>
c ell</w>
an de</w>
al be
ad dic
accumul ation</w>
accor d</w>
Su stain
Shang hai</w>
S i
Rou hani</w>
Rom ney</w>
Malay sia</w>
Industri al</w>
In vestment</w>
I rish</w>
Holl ande</w>
F ri
E ner
C up</w>
B oli
199 8</w>
- and-
yp rus</w>
youn ger</w>
win ners</w>
value- added</w>
vacu um</w>
up hold</w>
un known</w>
un expected</w>
u ri
trium ph</w>
tremend ous</w>
tra um
tra in</w>
the red</w>
strugg les</w>
stor m</w>
st un
specul ative</w>
sol ved</w>
so aring</w>
shrin king</w>
sho t</w>
se ize</w>
s wit
rev ol
represent ation</w>
remot e</w>
reci pi
reason ably</w>
post- war</w>
pos sibilities</w>
poli o</w>
offic ers</w>
normali zation</w>
norm ally</w>
nor th</w>
ne ts</w>
mun ici
mortg ages</w>
mo thers</w>
mo od</w>
ministr y</w>
long- run</w>
list en</w>
li t</w>
la id</w>
l us
in equ
in effective</w>
hospit als</w>
highligh ts</w>
ha ven</w>
gi sts</w>
gen oci
g ar</w>
g an</w>
foresee able</w>
fi ve
fair ness</w>
experim ent</w>
exclu sive</w>
ex porting</w>
er ring</w>
epi demic</w>
enter prise</w>
el ings</w>
ear th</w>
dynam ism</w>
distingu ish</w>
dec reas
dec re
de vices</w>
de valuation</w>
de em
d ded</w>
cur b</w>
con i</w>
ch ill</w>
app lies</w>
anticip ated</w>
an o
aggres sion</w>
advan cing</w>
accep tance</w>
Ukraini an</w>
Sustain able</w>
S te
R ob
Q add
M ari
Hum an</w>
Gre en
G ü
G han
D o
C yprus</w>
B en
5 .
à -
wit ter</w>
we igh</w>
ver n</w>
urban ization</w>
un stable</w>
tu m
trac ted</w>
toler ance</w>
tain ing</w>
sur face</w>
super vision</w>
success es</w>
stake holders</w>
st ations</w>
st ages</w>
sp reading</w>
skep ticism</w>
sk i</w>
sha dow</w>
s wi
requ is
reg ain</w>
ra w</w>
ra il
r o</w>
prote sters</w>
priv atization</w>
pres ent
prefer red</w>
preci se</w>
polar ization</w>
pl ing</w>
pe ac
parti al</w>
orig in</w>
or thodo
nor m</w>
nation alists</w>
monit or</w>
m yriad</w>
li ers</w>
l are</w>
ik a</w>
hund red</w>
high er-
hel p
h in
go vern</w>
fun ctions</w>
fa ste
ex ag
exag ger
eth ics</w>
eng aging</w>
em ul
el u
effici ently</w>
e igh
doz ens</w>
dis pos
dis cre
diagno sis</w>
deploy ment</w>
defl ationary</w>
dec lare</w>
custom s</w>
cred ited</w>
confin ed</w>
cir cul
cap ability</w>
bul k</w>
bud ge
blin d</w>
bi ology</w>
as ci
archit ecture</w>
ar rest</w>
antibio tics</w>
an nex
am p
X i
W il
T V</w>
Str ate
SO Es</w>
M ic
Jong- un</w>
Israeli -
I F
G en
Fran c
Fo reign</w>
C s</w>
C C</w>
Ber lus
B os
B ill</w>
3 ;</w>
1 ;</w>
&#9 3;</w>
&#9 1;</w>
vic ious</w>
un lea
u ous</w>
treat ments</w>
tra de-
ti ed</w>
th ority</w>
te dness</w>
surr ounding</w>
sub stitute</w>
str an
specul ation</w>
sovereig n-
sett led</w>
sc ra
sat elli
s lo
rout inely</w>
refu se</w>
re tail</w>
re l</w>
ra in</w>
princi pal</w>
pre serving</w>
pr one</w>
plac ement</w>
pl un
on ically</w>
om ics</w>
o ve
mp ing</w>
min d
m elt
m as</w>
loc ated</w>
lif ting</w>
l y-
know ing</w>
invest or</w>
inst inc
insist ed</w>
im pover
im ported</w>
hop ed</w>
hist ori
har m
gu il
govern ment-
free doms</w>
fore sts</w>
for -
follow ers</w>
fa st-
fa i
f rac
exacerb ate</w>
ex changes</w>
escal ation</w>
entren ched</w>
end uring</w>
encoura ges</w>
ef ully</w>
dys functional</w>
depar ture</w>
cu se</w>
cont ag
comb ine</w>
coll ateral</w>
co vered</w>
capit alist</w>
bot s</w>
bloc k
beli efs</w>
be have</w>
bas s
b at
arm ament</w>
appe aling</w>
ap it
answ ers</w>
al together</w>
al ter</w>
a ul
Th ir
T witter</w>
Sau dis</w>
SD R</w>
S ha
Qadd afi</w>
L O</w>
K h
Fir st</w>
F i
Ener gy</w>
D ra
C y
Berlus coni</w>
Au thority</w>
Ag ency</w>
A pple</w>
A lli
7 -
1 6
- à-
win dow</w>
wat ers</w>
wat ching</w>
war d-
w an
v elt</w>
unilater ally</w>
underp inned</w>
un its</w>
tur n
trigg ering</w>
trib al</w>
ti de</w>
th ough
terri ble</w>
temp ted</w>
symptom s</w>
se in</w>
schem es</w>
ri vals</w>
ri st
resp ected</w>
recei ving</w>
rec all</w>
re tro
re porting</w>
protec tions</w>
pris on
prison ers</w>
pr oud</w>
paraly sis</w>
p ron
over sight</w>
ose velt</w>
n an</w>
minim al</w>
min ish</w>
mea su
impe de</w>
ill ary</w>
hon est</w>
highligh ted</w>
high- quality</w>
high- income</w>
har sh</w>
grow th-
gra sp</w>
gr ound
gh ter</w>
genu inely</w>
ga thering</w>
forec asts</w>
foc uses</w>
firm ly</w>
fil m</w>
expec tancy</w>
ex cuse</w>
enti ties</w>
en rol
eco system</w>
dis course</w>
dis agree</w>
di minish</w>
deri v
depend ency</w>
degra dation</w>
dat ory</w>
cul tiv
cr yp
con sent</w>
comple xity</w>
comfor t</w>
collec tively</w>
co gni
clin ical</w>
citiz en</w>
bor ne</w>
ati vity</w>
appro xim
an em
aff ir
acqui red</w>
accompli shed</w>
accep ting</w>
Ro osevelt</w>
O cean</w>
Moroc co</w>
Ma h
J i
G row
Franc is</w>
Cz ech</w>
Ar my</w>
199 2</w>
- market</w>
wi fe</w>
war nings</w>
vis -à-
vis-à- v
vis-à-v is</w>
vill ages</w>
ve to</w>
v oc
uni qu
trans l
tra gic</w>
to co
th- century</w>
th row</w>
t ments</w>
surpris ed</w>
stagn ant</w>
skep tical</w>
sil ent</w>
si de
se t
se st</w>
ri can
respec tively</w>
res our
recor ded</w>
reason ing</w>
re construction</w>
pu zz
por tedly</w>
pi ece</w>
perf ec
per v
pas sing</w>
par a
p und
oh a</w>
neighbor hood</w>
negoti ators</w>
n ight</w>
multi p
mu si
mis sions</w>
mis s</w>
mi xed</w>
medi an</w>
mas sac
low ering</w>
lob b
liqu id</w>
k ly</w>
k ings</w>
judic i
it ely</w>
intere sting</w>
inter n
inter im</w>
in tim
in puts</w>
imp unity</w>
im a</w>
illen ni
ill ness</w>
gu ards</w>
gen ous</w>
fragment ed</w>
fragment ation</w>
foot ball</w>
figh ters</w>
fi er
farm ing</w>
fam ously</w>
f led</w>
f asci
expec tation</w>
er ror</w>
emphasi zed</w>
em power</w>
doz en</w>
dis man
dis integration</w>
dio xide</w>
democr atically</w>
deem ed</w>
de v</w>
de al
d ying</w>
contain ed</w>
conn ect</w>
comple ment
comment ators</w>
co ld</w>
ch ur
cat ch</w>
carb on-
ca su
c tic</w>
br ink</w>
ben ch
b in</w>
au l</w>
attemp ted</w>
ass as
assas sin
arre sted</w>
ar ray</w>
approach ing</w>
appoin ted</w>
am big
ail ed</w>
aggres sively</w>
ag e-
acknowled ged</w>
acc us
ab sur
T a
Sin o-
Rom a</w>
Pen insula</w>
Lan ka</w>
L is
In stitute</w>
H us
Grow th</w>
E arth</w>
D oha</w>
Chur chill</w>
A y
199 5</w>
- minded</w>
yi el
wo od</w>
vo ices</w>
un clear</w>
tur bul
tt on</w>
toco l</w>
ti ght</w>
thri ve</w>
ter ing</w>
tech ni
superi or</w>
sole ly</w>
safe guard</w>
s- based</w>
s log
ri d
recomm end
re pay</w>
re build</w>
pund its</w>
prof itable</w>
premi um</w>
pre g
po st</w>
pat ent</w>
particip ating</w>
out siders</w>
out lets</w>
off s</w>
oblig ation</w>
o cean</w>
not es</w>
mu ch-
l o</w>
ir onically</w>
imm ense</w>
im pression</w>
illi b
illib eral</w>
ill -
ig n</w>
ho t</w>
high- level</w>
he dge</w>
h iring</w>
griev ances</w>
gr ant</w>
five -year</w>
exce ed</w>
enti ty</w>
econom ic-
ear th
dri ver</w>
distr ust</w>
disco very</w>
dis content</w>
deci sively</w>
counter productive</w>
coun tless</w>
cosmo poli
control ling</w>
contr action</w>
comple ted</w>
compet ent</w>
colle ge</w>
coll ect</w>
cl out</w>
car ries</w>
cal m</w>
bur ning</w>
bo x</w>
balance- sheet</w>
attac ked</w>
at o
asp ect</w>
am p</w>
albe it</w>
ad mit</w>
acc es
abs ent</w>
Ti bet</w>
Lis bon</w>
J o
Iraq is</w>
I T</w>
H illary</w>
Go als</w>
Ghan a</w>
Fran k
D u
Conserv ative</w>
1 2
z ones</w>
writ ing</w>
wat er-
war ded</w>
volun tary</w>
v ation</w>
v ary</w>
up gra
uni fied</w>
under -
un ting</w>
u sh
tr um</w>
to- GDP</w>
tic les</w>
ten ance</w>
suspici on</w>
surve ys</w>
suff ers</w>
stra in</w>
star ts</w>
st ems</w>
squ e
spir al</w>
sh r
san c
requis ite</w>
read s</w>
re in</w>
qu es</w>
prof ile</w>
pre mature</w>
plau sible</w>
para dig
ou tra
ol er
mo squ
medium- size</w>
mari time</w>
m us
m al</w>
it ations</w>
it ability</w>
inter ference</w>
int oler
insurg ency</w>
inequ alities</w>
indic ated</w>
in qu
in i</w>
identi ties</w>
hor iz
h ire</w>
g ol
g ation</w>
fu sion</w>
fluctu ations</w>
ff ic</w>
fe t
fac ility</w>
ex press</w>
er ial</w>
equi ties</w>
ent ails</w>
emo tional</w>
ech no
dru g-
dre w</w>
distre ss</w>
dismis sed</w>
dis armament</w>
destro ying</w>
dep ending</w>
defin ing</w>
defe ated</w>
de leveraging</w>
de adly</w>
dam aged</w>
d au
d ating</w>
contag ion</w>
conserv ation</w>
con fir
cle are
channe l</w>
burd ens</w>
bri d
boo sted</w>
bio diversity</w>
b ought</w>
autocr atic</w>
ant agon
alloc ated</w>
alleg ed</w>
ag h
aff lic
Tha k
T ay
Sun nis</w>
Par k</w>
P aul</w>
Hus sein</w>
Con stitu
C al
Brazili an</w>
20 25</w>
193 0s</w>
1 50</w>
&apos; re</w>
ó n</w>
with standing</w>
viol ations</w>
ve dev</w>
v ac
ul ed</w>
u red</w>
troub led</w>
tra ffic</w>
theore tical</w>
ter y</w>
tain ment</w>
susp ect</w>
spur red</w>
sp an</w>
sigh ted</w>
short com
shortcom ings</w>
sh ale</w>
se as
scar ce</w>
sa ke</w>
run -up</w>
rout ine</w>
repa ir</w>
regul ate</w>
recogni zes</w>
rac ial</w>
pu rely</w>
prof ession</w>
privile ged</w>
post war</w>
pl ur
philosoph y</w>
ph rase</w>
perpe tu
parado x
pa ys</w>
over ly</w>
ou l</w>
ob serv
n a
mist ak
mis sed</w>
m its</w>
lu x
loy alty</w>
loc ked</w>
life -
li ft</w>
l ately</w>
judici ary</w>
jiha di
inter medi
ing ent</w>
implic it</w>
im pa
ik tor</w>
high- tech</w>
hegem ony</w>
harm ful</w>
gi ants</w>
f ar
es cap
enti ve</w>
enti oned</w>
enti on
engine ers</w>
en su
en act</w>
emer ges</w>
em powered</w>
dro ve</w>
dri vers</w>
dra g</w>
do om
distor tions</w>
de regulation</w>
crimin als</w>
commis sion</w>
commer ce</w>
com position</w>
citiz en
chec k</w>
car rying</w>
bom bs</w>
blow n</w>
benef iting</w>
ben ign</w>
be au
bas ket</w>
at ri
associ ation</w>
anem ic</w>
an gry</w>
alle y</w>
Xi a
Venezu el
V iktor</w>
Thak sin</w>
Th at
T ony</w>
S qu
Re present
Poli cy</w>
Per u</w>
P s</w>
NG Os</w>
Med vedev</w>
Me dic
M il
Le ague</w>
Dra gh
D NA</w>
CC P</w>
Bo ard</w>
B a
Al i</w>
5 -
á n</w>
z ations</w>
wil d</w>
ven cy</w>
v y</w>
v ard</w>
under ground</w>
un anim
uc lear</w>
u ph
tre ating</w>
trans national</w>
top ic</w>
tim ing</w>
ti ce</w>
the ories</w>
th in</w>
ten -year</w>
t ex
su gar</w>
stor age</w>
stic k</w>
st ate
spo ke</w>
sp lit</w>
sion ed</w>
sil ence</w>
separ ation</w>
sa vers</w>
s adly</w>
ri st</w>
ri gor
ri ce</w>
reve als</w>
restric ted</w>
rebe lli
read y-
re wards</w>
re mit
pun ish</w>
promot ed</w>
pro tracted</w>
pro of</w>
po ll</w>
p ure</w>
overwhel m
overwhelm ingly</w>
over seas</w>
ou p</w>
ot ing</w>
oper ational</w>
on y
offici ally</w>
not withstanding</w>
not able</w>
no vel</w>
nan ke</w>
mis guided</w>
mili tants</w>
mil es</w>
liber ties</w>
liber alism</w>
li kes</w>
le tter</w>
le ari
laun ching</w>
l ender</w>
kil ome
justi fication</w>
journ alism</w>
ir responsible</w>
inter connected</w>
inten tions</w>
inten sity</w>
in ations</w>
ignor ing</w>
hop ing</w>
h man</w>
h idden</w>
gu es</w>
gr an
gh ts</w>
g are
g ames</w>
fortun ate</w>
for gotten</w>
fi sh
fe elings</w>
facilit ating</w>
fac tories</w>
f oun
f ed</w>
exper t</w>
exclu ded</w>
evol ved</w>
ero sion</w>
en rich
e ve</w>
distribu te</w>
distinc t</w>
dimini shed</w>
dimen sion</w>
diff er</w>
dep le
demonstr ates</w>
deci ding</w>
deb tor</w>
de duc
da unting</w>
cu ri
convic tion</w>
condem ned</w>
compar ative</w>
clo sest</w>
cent ered</w>
cens orship</w>
bureaucr ats</w>
bom bing</w>
bloo dy</w>
benefici aries</w>
bal lot</w>
avo idable</w>
attrac ted</w>
asy m
asse ssing</w>
anu kov
am in</w>
am ents</w>
alli ed</w>
ali ve</w>
alarm ing</w>
ad he
Y anukov
WW II</w>
Squ are</w>
K ing</w>
F S
E mp
E A</w>
D avo
Comm un
Chan ge</w>
Cha irman</w>
Cam bo
Ber nanke</w>
z o</w>
y ch</w>
vic ti
victi m</w>
vi de
urg ency</w>
underestim ated</w>
under stands</w>
troub ling</w>
tri ck
traffic king</w>
ti l
ten ure</w>
system atic</w>
supp liers</w>
sup pose</w>
sub jects</w>
spor ts</w>
spec trum</w>
sovereign- debt</w>
so c
scru tiny</w>
satis fied</w>
s cep
ru le
ro bots</w>
rich est</w>
restra int</w>
resent ment</w>
rel ation</w>
reces sions</w>
re forming</w>
re act</w>
ra id</w>
prud ential</w>
projec tions</w>
pro ponents</w>
presum ably</w>
op posing</w>
mono poli
main land</w>
ma d</w>
lin k
it i</w>
infec tious</w>
inf ected</w>
induc ed</w>
in ism</w>
imp ul
imm uni
hes it
he ating</w>
fic ations</w>
experim ents</w>
exclu sion</w>
ex cell
escal ating</w>
en opho
el der
educ ate</w>
disproportion ately</w>
dis agreements</w>
di r
descri be</w>
deplo y</w>
danger ously</w>
d rough
d ering</w>
cre ativity</w>
coun tr
contem pl
confir med</w>
comp are</w>
cent ralized</w>
ce a
bo ards</w>
be ars</w>
assa ult</w>
ass emb
al g
al a</w>
Yanukov ych</w>
US- led</w>
U g
To k
P ra
Or b
NP T</w>
Le hman</w>
Israeli- Palestinian</w>
Davo s</w>
Ch i
Bel gi
Alger ia</w>
A sia-
A K
x enopho
wor ries</w>
wal k</w>
ver sus</w>
ur ani
unc ker</w>
un ite</w>
th en-
te ams</w>
st one</w>
sque e
spectac ular</w>
sp ends</w>
soc cer</w>
so le</w>
sm u
sing le-
see kers</w>
se ized</w>
satis faction</w>
reve al</w>
res ha
rel ent
ref using</w>
reconc ile</w>
re treat</w>
re portedly</w>
re gre
qu ake</w>
puni shment</w>
progra m
pot ent</w>
ph ot
perfec tly</w>
paradig m</w>
ori th
ob ject</w>
o is</w>
mis leading</w>
melt down</w>
lu sion</w>
low- cost</w>
loc au
lif ted</w>
lac ked</w>
l uck</w>
is lands</w>
ir y</w>
inv ented</w>
inhe rent</w>
industri alized</w>
indeb ted</w>
in justice</w>
in complete</w>
i red</w>
hosp ital</w>
ho u</w>
hand le</w>
han g</w>
gra v
g ering</w>
g ases</w>
form ally</w>
for ge</w>
fo stering</w>
fin ished</w>
fi res</w>
fav ors</w>
fa ke</w>
f ounding</w>
f illed</w>
es tion</w>
equ itable</w>
entit led</w>
end less</w>
elder ly</w>
eco systems</w>
ec ho
disproportion ate</w>
dis s
deep en</w>
de sc
de pri
de pressed</w>
d rin
d ol
cru de</w>
contin ental</w>
connec tions</w>
conclu sions</w>
complac ency</w>
compens ate</w>
comp act</w>
co er
ci ally</w>
bu t
break down</w>
bon d
bl un
ber g</w>
be long
be half</w>
bass ador</w>
arri ve</w>
an ge
am end
alle vi
all ing</w>
ad mitted</w>
accompli sh</w>
Y elt
W H
Tok yo</w>
T C</w>
Pow er</w>
O ffice</w>
Nicol as</w>
NA FTA</w>
Le ad
J uncker</w>
Har vard</w>
H u</w>
G and
Dragh i</w>
Con gressional</w>
Chin a-
Bro thers</w>
3 4</w>
19 50</w>
win ds</w>
w ins</w>
vern ight</w>
un predictable</w>
un it</w>
tradi tions</w>
tra ders</w>
top -
ti s
thin ks</w>
th oli
technocr atic</w>
teach ing</w>
t ext</w>
t elec
super -
su scep
stabili zation</w>
squ are</w>
spo ken</w>
se at</w>
scen e</w>
s ke
ri cal</w>
requ est</w>
renew ables</w>
reco vered</w>
rec ord
reach es</w>
re tali
re di
re a</w>
ra mp
quar ter-
pu ty</w>
proce ed</w>
pro pose</w>
pro motion</w>
pre tty</w>
post pon
physi ci
percep tions</w>
p tion</w>
p light</w>
p es</w>
p act</w>
or dered</w>
o vernight</w>
o m</w>
no tic
min ing</w>
mer it</w>
maxim um</w>
locau st</w>
le st</w>
l ap
ke en</w>
issu ing</w>
ir rational</w>
inde fin
incumb ent</w>
inc lined</w>
in sp
in action</w>
imm une</w>
im balance</w>
heigh tened</w>
free- market</w>
ff ir
f ting</w>
exam ine</w>
entrepreneur ship</w>
eng ines</w>
en z
emp ty</w>
embrac ing</w>
embe dded</w>
ec ological</w>
e go
e g
e at</w>
dist ance</w>
disp lay</w>
dis appeared</w>
di c</w>
devi se</w>
demonstr ating</w>
dec ent
de dic
cur ricul
comb ating</w>
cogni tive</w>
cli ents</w>
clas s
certain ties</w>
ce iling</w>
buil dings</w>
b rate</w>
aver t</w>
attrac ting</w>
ar ticle</w>
ap plying</w>
an thro
alig ned</w>
alg orith
ag grav
acqui si
ach ment</w>
accumul ated</w>
acces sible</w>
Yelt sin</w>
Ye ar</w>
Q u
Orb án</w>
Le a
Ker ry</w>
K i
H i
Green span</w>
Gr oup</w>
Fin land</w>
D ay</w>
Char ter</w>
Ca tholi
C i
Balk ans</w>
5 0,000</w>
4 00</w>
199 6</w>
199 4</w>
199 3</w>
worl d-
where by</w>
well- being</w>
vehic le</w>
uti li
urani um</w>
ur ge</w>
under taken</w>
under scores</w>
uc leari
trans action</w>
tr um
thous and</w>
techni ques</w>
tan ces</w>
tac tical</w>
t ling</w>
symboli c</w>
succ ession</w>
suc ces
stre ssed</w>
stem ming</w>
star k</w>
satis fy</w>
revi sed</w>
recommend ations</w>
reck less</w>
rea p</w>
rea ffir
re think</w>
re sts</w>
re placing</w>
re medi
re la
pro xy</w>
prev entive</w>
pres crip
predic tions</w>
predecess or</w>
pre- crisis</w>
pp er</w>
posse ss</w>
pois ed</w>
pe tro
offic es</w>
o st
nav al</w>
mobili zed</w>
mo vi
margin alized</w>
mal a
maintain s</w>
ma them
m ess</w>
long- standing</w>
lim itations</w>
lab or
ke e
kee ps</w>
k i
it e
it ari
inv ent
inflic ted</w>
ine ffici
in e-
impover ished</w>
imag in
il lo
hun gry</w>
hor ri
help ful</w>
han ded</w>
gu idance</w>
go sla
genoci de</w>
gener ates</w>
gen e</w>
flow ing</w>
financi ally</w>
fa ult</w>
f ty</w>
f ted</w>
excep tional</w>
ero de</w>
episo de</w>
enrich ment</w>
en ri
en ligh
el l
dur able</w>
dimini shing</w>
dict ator</w>
detail ed</w>
declar ing</w>
constitu tes</w>
consoli date</w>
concei v
com mon
coali tions</w>
co in</w>
classi c</w>
civili zed</w>
child hood</w>
champi on</w>
cau tious</w>
calcul ation</w>
budge tary</w>
br and</w>
borrow ed</w>
bi ological</w>
believ ing</w>
be tra
be aring</w>
be an</w>
bar gain</w>
autom atically</w>
auth ors</w>
audi ence</w>
ati st</w>
asser t</w>
as s</w>
ari ous</w>
ar ticul
anticip ate</w>
an cy</w>
ail ing</w>
acci dent</w>
aband oning</w>
ab e
Yu gosla
Rec ession</w>
Olymp ic</w>
Mo on</w>
M it
La w</w>
L e</w>
Je an-
J P</w>
I B</w>
Gand hi</w>
G or
E S
Del hi</w>
D C</w>
Chris tians</w>
Bre tton</w>
Boli via</w>
B hu
Asia- Pacific</w>
As soci
Ara fat</w>
Ar men
Alli ance</w>
AK P</w>
7 .
vot er</w>
vent ure</w>
v ague</w>
up heav
tran sc
tough er</w>
titu de</w>
tion -
th rown</w>
temper ature</w>
technocr ats</w>
ta ught</w>
ta ke
strugg led</w>
str ang
stop ping</w>
st ro
st an</w>
sp reads</w>
so red</w>
smo oth</w>
si s-
sh ut</w>
sacrific e</w>
rever sible</w>
represent ing</w>
repe at</w>
renew al</w>
remin der</w>
re placement</w>
re ference</w>
re d
re ate</w>
pru dent</w>
prohi bi
prob ability</w>
pre judic
practic ally</w>
perman ently</w>
par ity</w>
pa th
over coming</w>
out flows</w>
os ity</w>
organiz e</w>
op ping</w>
on ment</w>
not ori
neu tr
ner v
motiv ation</w>
le y</w>
la ys</w>
inter rup
inter dependence</w>
inten ds</w>
intellectu als</w>
int ent</w>
insi ghts</w>
in di
illu sion</w>
illenni um</w>
ide lines</w>
hi ke</w>
hi er
gradu ates</w>
gg ish</w>
gener als</w>
g li
frustr ated</w>
fe es</w>
fe ed
explo iting</w>
evol ving</w>
ent -
en de
en cing</w>
empi rical</w>
emp t</w>
elimin ation</w>
el ations</w>
e rec
down side</w>
do ors</w>
displac ement</w>
determin ing</w>
deterior ation</w>
desig ning</w>
dep th</w>
den ucleari
democr atization</w>
degre es</w>
de ter</w>
cum ul
cri sis-
coordin ate</w>
consci ous</w>
con firm</w>
compet ence</w>
character istics</w>
ca p</w>
bond holders</w>
b ic</w>
autom ob
autom atic</w>
attr action</w>
atten d</w>
at ro
arsen al</w>
appreci ated</w>
ap ar
anti- corruption</w>
alloc ate</w>
ak er</w>
agend as</w>
adverti sing</w>
addre sses</w>
accus ations</w>
absur d</w>
Z e
WH O</w>
Shin zo</w>
Rob ert</w>
Pi S</w>
P A</w>
N uclear</w>
Mad uro</w>
La den</w>
K y
G ates</w>
Fran ç
FD I</w>
Constitu tional</w>
Co operation</w>
Chur ch</w>
C enter</w>
B I</w>
Ar ctic</w>
A ma
8 5</w>
8 00</w>
wis s</w>
wel com
welcom ed</w>
ward- looking</w>
w ary</w>
vill age</w>
ut terly</w>
ur ation</w>
unlea shed</w>
understand ably</w>
un usual</w>
twenty- first-
twenty-first- century</w>
tu i
tow ns</w>
the sis</w>
ten ded</w>
tan ks</w>
su gg
star t-
sp illo
sour cing</w>
short fall</w>
ser t</w>
scar city</w>
satelli te</w>
rigi d</w>
rep lic
remit tances</w>
reg ards</w>
rec apit
ration ale</w>
radic ally</w>
quie t</w>
public- health</w>
profess or</w>
posi tioned</w>
portfoli o</w>
pl u
pipel ine</w>
perv asive</w>
pas s
parado x</w>
p ac
over due</w>
oun dly</w>
oun ce</w>
organiz ational</w>
or ships</w>
olu tion
ol ding</w>
off ensive</w>
nuclear- armed</w>
nati ve</w>
n a</w>
musi c</w>
mind set</w>
manag eable</w>
lea k</w>
inv ited</w>
inv ari
invari ably</w>
indic ation</w>
in y</w>
in tru
in spec
imp lied</w>
ide als</w>
gener ational</w>
fu r</w>
free ze</w>
exten ds</w>
excep tions</w>
exce eded</w>
ex pe
ev a</w>
euro s</w>
en i
emplo y</w>
ec tive</w>
domes tically</w>
divi den
dividen ds</w>
dismis s</w>
dis cer
dis agreement</w>
den ial</w>
dem ago
dec ade
dd ling</w>
d ul
d ence</w>
crow d</w>
cro ss
cost- effective</w>
cor ner</w>
con spir
commit ting</w>
comm ents</w>
climate- change</w>
citizen ship</w>
cho ol</w>
char is
bu yers</w>
bu ff
be ings</w>
bar rel</w>
bab y</w>
b ers</w>
attribu ted</w>
arri ved</w>
ali tarian</w>
al ready-
aca demics</w>
ab rup
a o</w>
V alley</w>
Ug anda</w>
Thir d</w>
S wiss</w>
Rom ania</w>
PE C</w>
MD Gs</w>
M icro
Leban ese</w>
Le e</w>
Joh n
Iran ians</w>
Ho locaust</w>
Fri ed
Egyp tians</w>
Ch en</w>
C ro
B rown</w>
Austri a</w>
A m
1. 3</w>
with stand</w>
where ver</w>
w as
vulner abilities</w>
ver ies</w>
vast ly</w>
un equal</w>
un certainties</w>
u stom
ustom ed</w>
tri c
tou ch</w>
ti st</w>
th war
te ach</w>
tary- General</w>
t to</w>
succes sive</w>
su e</w>
statis tical</w>
stat es
st ar</w>
spo t</w>
sk y
sig ning</w>
she er</w>
scand al</w>
ro ad
ris is</w>
ri de</w>
ren dered</w>
reci pe</w>
ramp ant</w>
r ush</w>
quarter- century</w>
provo ke</w>
prof itability</w>
prin ting</w>
pri ori
prevail ed</w>
pres sions</w>
pre ference</w>
pre cau
poc kets</w>
pi one
persu aded</w>
perpe tr
or ation</w>
optim al</w>
oli g
ob s
no -
neutr al</w>
n ic
me tap
mar ine</w>
maneu ver</w>
mala ise</w>
main tenance</w>
m oud</w>
lux ury</w>
lar ation</w>
la ying</w>
j un
insp ire</w>
insist ence</w>
ini stry</w>
influ enced</w>
in jec
illustr ates</w>
il es</w>
hi kes</w>
health ier</w>
hat red</w>
hand ful</w>
ha w
form idable</w>
fore station</w>
floo ding</w>
fe els</w>
fe ar
err ors</w>
episo des</w>
ent ers</w>
endor sed</w>
en e
e se-
e le
dow ns</w>
disrup tions</w>
din avi
deterior ating</w>
defe ating</w>
d or
cy ber
cul min
constra int</w>
connec tivity</w>
con test</w>
con ditional</w>
cleare r</w>
cl er
cau tion</w>
can dinavi
can cel
bur st</w>
bi partisan</w>
bas es</w>
bail outs</w>
b ord
avail ability</w>
attac king</w>
asse t-
ass embly</w>
as ing</w>
approxim ately</w>
al co
air craft</w>
advant aged</w>
adv ent
ach ed</w>
acc ustomed</w>
ac ious</w>
ab le-
ab i
Yugosla via</w>
W en</w>
Secre tary-General</w>
S candinavi
S an</w>
S M
R ome</w>
Mah moud</w>
M inistry</w>
H er
E ur
E lec
Dec laration</w>
Cy pri
Can adi
Cambo dia</w>
C risis</w>
C at
Associ ation</w>
Ale x
A sians</w>
2 50</w>
196 7</w>
- year-old</w>
yi p</w>
wor th
war m</w>
virtu e</w>
viol ate</w>
vie w
valu ations</w>
v il
uni vers
two- state</w>
turn out</w>
tru sted</w>
tain s</w>
tack ling</w>
symbo l</w>
susp ended</w>
succe eds</w>
stu died</w>
sta ur
st ars</w>
sli de</w>
sig nat
si ded</w>
sh all</w>
sel ect</w>
sci ences</w>
scho ol
sch ed
ro oms</w>
restric ting</w>
resp ects</w>
requi rement</w>
reli ed</w>
refl ection</w>
re sum
re staur
re fra
r ant</w>
r ally</w>
provin ces</w>
profess ors</w>
prev ents</w>
preci pit
por tion</w>
p ound</w>
ound ation</w>
off shore</w>
o x
ne uro
ne ar
navi gate</w>
munici pal</w>
mor ally</w>
mo tives</w>
mid st</w>
me ga
mathem ati
manu el</w>
mal nutrition</w>
ma ster</w>
m udd
li ability</w>
legisl ators</w>
labor- intensive</w>
jud ging</w>
isol ation
intim id
inter action</w>
inter act</w>
ing redi
indu ce</w>
indi genous</w>
in aug
identi fying</w>
hyper -
hur rican
high light</w>
hard ship</w>
hab its</w>
gi ous</w>
g ay</w>
f righ
ex hau
evalu ate</w>
euro -
ep tion</w>
environment ally</w>
envi s
enligh tened</w>
emphasi zes</w>
el -
echno logy</w>
ear ning</w>
dri ves</w>
div or
disrup t</w>
dis appear</w>
dictat orships</w>
dict ators</w>
develop ing-
desi red</w>
deriv atives</w>
demo graph
debt- to-GDP</w>
deb tors</w>
de serves</w>
d ad</w>
com prise</w>
com e-
coast al</w>
co c
civi c</w>
center- left</w>
ce ly</w>
car ds</w>
capital- account</w>
c le</w>
bo om
be at</w>
batt le
bac ter
b y-
att le</w>
an z
air o</w>
ag ents</w>
advoc ating</w>
advi sed</w>
Wo ods</w>
We b</w>
Tay yip</w>
S and
R u
Pro tocol</w>
Ob am
M ol
Itali ans</w>
I s</w>
G od</w>
Franç ois</w>
F oundation</w>
Euro -
Emp ire</w>
Ch rist
Catholi c</w>
C airo</w>
Bos nia</w>
B JP</w>
B C</w>
Australi an</w>
3 6</w>
201 9</w>
10 0,000</w>
0 th</w>
0 0-
wou ldn</w>
withdraw ing</w>
was n</w>
war ran
wa sted</w>
viol ation</w>
vi br
vibr ant</w>
upgra ding</w>
under going</w>
u ps</w>
u li
tre es</w>
tre a
tor ture</w>
toler ate</w>
ti e</w>
ti as</w>
swe pt</w>
sw ing</w>
sub jected</w>
str ust</w>
sti f
state hood</w>
spea ks</w>
sec ul
scienti st</w>
san itation</w>
safe guards</w>
ron t</w>
rigor ous</w>
rev olution
respec tive</w>
resour ce-
resist ed</w>
relev ance</w>
rec ur
rebelli on</w>
reas suring</w>
re moving</w>
ran king</w>
public- private</w>
prov ince</w>
prof oundly</w>
pro claimed</w>
pow ering</w>
plumme ted</w>
pic k</w>
perspec tives</w>
periph eral</w>
per secu
parli aments</w>
p one</w>
p en</w>
ow s</w>
ow e</w>
or al</w>
op ing</w>
om in
om ic</w>
occa sion</w>
obe sity</w>
no tice</w>
near by</w>
nation- state</w>
mili tias</w>
mem ories</w>
marke dly</w>
lif f</w>
le an
l ing
kilome ters</w>
k es
jud ged</w>
jour ney</w>
itari anism</w>
interpre ted</w>
insi sts</w>
initi ate</w>
inher ited</w>
infec tions</w>
inf ection</w>
inci dent</w>
in ju
impro ves</w>
im minent</w>
i um</w>
head ing</w>
he ed</w>
gu idelines</w>
govern or</w>
fu ci
fru it</w>
fra ud</w>
flo or</w>
fir ing</w>
facilit ated</w>
f arms</w>
f ab
exp ects</w>
embar ra
electr onic</w>
du bi
doub le-
distribu tional</w>
dispos al</w>
discoura ge</w>
disappoin ting</w>
dis credited</w>
di sil
di abe
diabe tes</w>
dest ination</w>
dem ise</w>
decre ase</w>
cu shion</w>
cryp to
cou pled</w>
corpor ate-
convers ation</w>
consum ing</w>
com promises</w>
com promised</w>
co vering</w>
clu b</w>
clar ity</w>
clar i
ce d-
casu alties</w>
c on</w>
c liff</w>
c ali
bo ys</w>
bo y
autonom ous</w>
at ol
ast y</w>
an e</w>
alco ho
ak in</w>
ak h
aff lu
aff air</w>
accommod ate</w>
a x
W ol
That cher</w>
Strate gy</w>
St ability</w>
Scot tish</w>
S W
Rec ep</w>
Pi ke
Micro soft</w>
Mari o</w>
Lib yan</w>
L i</w>
K az
Is lands</w>
G ames</w>
Fin ance</w>
Econom y</w>
Di rec
Con fuci
B ul
A T</w>
19 14</w>
1. 6</w>
1. 2</w>
1 0,000</w>
win ner</w>
wil d
warran ted</w>
vo t</w>
viol ated</w>
vie wing</w>
v es
u pper</w>
transi tions</w>
tra pped</w>
tigh ter</w>
thir d-
tel ls</w>
tal ents</w>
super power</w>
sub- prime</w>
sub sid
su ited</w>
streng ths</w>
stock -market</w>
sto res</w>
sti l
ste ep</w>
stag gering</w>
st a</w>
spon sored</w>
sp ort</w>
smu gg
self- interest</w>
see ds</w>
sco red</w>
s itting</w>
rule s-based</w>
reve aling</w>
respon dents</w>
resid ential</w>
repe al</w>
reg ain
recor ds</w>
re tail
re serv
radi o</w>
psycho logy</w>
pre c
post pone</w>
posi t</w>
po ol</w>
pi vot</w>
person nel</w>
per mitted</w>
pen alty</w>
pe er</w>
pack ages</w>
p ter</w>
p in
over looked</w>
ou tw
ord on</w>
op a
om mun
ommun ic
new com
nam ed</w>
n ou
mi strust</w>
man datory</w>
m entioned</w>
link ages</w>
lif y</w>
li z
li sted</w>
le tting</w>
le th
le an</w>
la vi
l ou
it ems</w>
invest ment-
influ x</w>
indefin itely</w>
in ward</w>
in j
in come-
imp as
immuni zation</w>
im bab
ill nesses</w>
her o</w>
h ac
gu ess</w>
gu er
gri d</w>
gr ants</w>
ge st
g ging</w>
fron tier</w>
fre er</w>
four -
fortun e</w>
fore front</w>
fo ods</w>
flo od</w>
fi able</w>
f led
explo sive</w>
explo itation</w>
explan ations</w>
exerci ses</w>
execu ted</w>
ex hi
eradic ation</w>
er ies</w>
en ce-
dubi ous</w>
doub ling</w>
do g</w>
disp ar
di ly</w>
developing- country</w>
desp air</w>
den ying</w>
democr ats</w>
de v
de posit</w>
crow ded</w>
cro ssed</w>
coun ted</w>
contradic tory</w>
contain ment</w>
con ve
co ast</w>
clin ics</w>
clas h</w>
che ap
ch t</w>
cea se
bri ef</w>
b bed</w>
are n</w>
arbitr ary</w>
appoin tment</w>
appe als</w>
ap point</w>
amoun ted</w>
advoc ated</w>
activi st</w>
activi sm</w>
abor tion</w>
Z imbab
W at
T T
S ci
Rom an</w>
Pre sid
Pike tty</w>
P an
O M
N ep
N CD
Mol do
L en
Ha iti</w>
G- 8</w>
Em manuel</w>
D P
Cat al
C B
Belgi um</w>
B ud
Ar ticle</w>
An nan</w>
Ama z
Al ban
A ge</w>
9 .
3 7</w>
3 .5</w>
196 0s</w>
wr ong
worsen ing</w>
wor sen</w>
witne ssing</w>
win d
war -
w are</w>
w alls</w>
vi g
ve ge
vacc ination</w>
under taking</w>
u te</w>
tigh ten</w>
ti ze</w>
ten den
tenden cies</w>
telec ommunic
teen th</w>
t z</w>
t ably</w>
sub stance</w>
stre am
stran ge</w>
stimul ating</w>
ste pped</w>
spur ring</w>
spon s
smo king</w>
sign aled</w>
sen tim
sec ession</w>
se ven
scho oling</w>
sched uled</w>
scen es</w>
sal aries</w>
s tically</w>
s lows</w>
respon sive</w>
respon sibly</w>
res on
res olutions</w>
reluc tance</w>
ref erred</w>
record -
recei ves</w>
re acted</w>
rac ism</w>
ra c</w>
r ation</w>
quot as</w>
pron ounced</w>
produc er</w>
pro xim
pro position</w>
priv ately</w>
pre sti
pl agu
pill ars</w>
par at
pan el</w>
p -
origin ally</w>
on ian</w>
ob sole
non- proliferation</w>
nom ination</w>
negl ected</w>
necess ity</w>
mit h</w>
mir acle</w>
min or</w>
metri c</w>
me t
mater nal</w>
market- based</w>
marke ting</w>
marg ins</w>
mar ried</w>
man ship</w>
m el
loo sen
lin king</w>
life style</w>
lic op
la sted</w>
k -
iz es</w>
it ous</w>
it age</w>
ir reversible</w>
ir ony</w>
inter f
in hi
im poses</w>
hom o
hi j
her self</w>
he licop
glo be</w>
g man</w>
g ated</w>
g al
fu tures</w>
fu se</w>
formul a</w>
for ce
fix ing</w>
fi re
feed back</w>
feder ation</w>
fan ati
f ric
exter n
exten sion</w>
explo sion</w>
explo ited</w>
excell ent</w>
exce eds</w>
ex pressing</w>
er to</w>
enrol l
en shr
en ly</w>
elu sive</w>
earth quake</w>
e lev
du ties</w>
dre ams</w>
diversi fy</w>
diversi fication</w>
diver gence</w>
distur bing</w>
discus sing</w>
diff u
dic t</w>
destabili ze</w>
deliber ately</w>
deliber ate</w>
dela yed</w>
defici encies</w>
deep ened</w>
cur tail
cumul ative</w>
conveni ent</w>
continu ous</w>
concer ted</w>
collap sing</w>
coer ci
chem ic
cha irman</w>
ch er
can -
c rum
c lam
c ited</w>
bur g</w>
bo oming</w>
bloc king</w>
bl ack
ben omics</w>
be st-
ban ned</w>
b righ
b ols</w>
atol lah</w>
assum es</w>
as por
as cent</w>
aris es</w>
ari b
appe aring</w>
ap parat
analy tical</w>
am bassador</w>
alleg ations</w>
ag ent</w>
ac es</w>
a stri
a ren
V ice</w>
V er
US- China</w>
Se oul</w>
S y
S mith</w>
R ound</w>
R ed</w>
Pu erto</w>
Pri ze</w>
Pol es</w>
NCD s</w>
M illennium</w>
Lead er</w>
Lab or</w>
K ash
IP CC</w>
Hung arian</w>
Gre en</w>
Gen eva</w>
G ordon</w>
G aul
Fran co-
Eur a
D an
Chi rac</w>
Cal der
C arib
Bul g
B agh
Ay atollah</w>
Ac tion</w>
AI IB</w>
A benomics</w>
2 -
198 1</w>
0 .5</w>
. .</w>
zero- sum</w>
vis its</w>
val ence</w>
v owed</w>
up rising</w>
un surprisingly</w>
uc ky</w>
trilli ons</w>
tion ality</w>
ti bility</w>
ter min
t un
t ational</w>
t ables</w>
swa p</w>
suscep tible</w>
subsidi aries</w>
subsid y</w>
subsequ ently</w>
str ingent</w>
soci alist</w>
slu ggish</w>
slog an</w>
shou ldn</w>
sho oting</w>
s ement</w>
ri ding</w>
restri ct</w>
rejec ting</w>
reci pro
re mov
remov al</w>
re alizing</w>
re alization</w>
re actions</w>
ques tioning</w>
pri ze</w>
pri ced</w>
pres ents</w>
predic ament</w>
polar ized</w>
pl us</w>
pl as
pill ar</w>
pic ked</w>
pes sim
paradox ically</w>
pan -
pa res</w>
ost en
opa que</w>
op ted</w>
ony m
o d-
nur ture</w>
non- state</w>
nee dless</w>
n ai
metap h
materi alize</w>
mas ses</w>
market- oriented</w>
ma ker</w>
lobb ying</w>
lob by</w>
lo gi
lin ers</w>
ligh ts</w>
lau reate</w>
jud gments</w>
ir on</w>
introduc ing</w>
interven ing</w>
interpre t</w>
intensi fy</w>
intelli gent</w>
infl ation-
inf er
ind u</w>
in y
in tui
in capable</w>
impe ding</w>
imag ined</w>
ili con</w>
hol es</w>
hi de</w>
he v</w>
he ight</w>
har ness</w>
gun s</w>
gri p</w>
geograph y</w>
ga ther</w>
fulf illed</w>
forecast ing</w>
foot ing</w>
fix ed-
fall out</w>
f lu
ex cess
ex -
ev asion</w>
ero ded</w>
environ ments</w>
ent ang
ent able</w>
en sures</w>
en sion</w>
en forced</w>
emphasi zing</w>
emo tions</w>
el and</w>
e sts</w>
e ks</w>
drough ts</w>
dre ss</w>
doom ed</w>
do se</w>
dir ty</w>
dimen sions</w>
diffu sion</w>
de forestation</w>
dau ghter</w>
counter part</w>
coun ts</w>
cont act</w>
civili zations</w>
champi ons</w>
cha u
ce re
categ ory</w>
cat ch
capac ities</w>
campaig ning</w>
cal am
bal listic</w>
autom ated</w>
astri cht</w>
asser tive</w>
anthro p
annex ation</w>
anch or</w>
ak ia</w>
ag ers</w>
afflu ent</w>
af raid</w>
accumul ate</w>
ab y
Wester n-
V i
U ru
Tur ks</w>
Tru mp
Tha i</w>
TT IP</w>
T ri
Syri ans</w>
Sin ai</w>
S ilicon</w>
S ad
Ri ver</w>
Pro gra
P ope</w>
P R
Os lo</w>
Mor ales</w>
Mc C
Mal i</w>
Ma astricht</w>
M ik
L o
K ru
IC T</w>
H indu</w>
Euro bonds</w>
Ch ief</w>
Calder ón</w>
CE O</w>
Bagh dad</w>
B en</w>
B elt</w>
Ara b-
x ing</w>
vo cal</w>
vide o</w>
ven s</w>
uni verse</w>
tu m</w>
tt om
time -
ti p</w>
ti le</w>
ti ative</w>
th row
th ly</w>
te -
tax -
tan gible</w>
t i</w>
survi ved</w>
sup press</w>
su n</w>
su mer
su its</w>
stud ying</w>
sta ying</w>
st y</w>
spi ke</w>
sel ected</w>
se gments</w>
safe ly</w>
s cap
scap ego
robo tics</w>
recomm ended</w>
rebe l</w>
rea dily</w>
re unification</w>
re porters</w>
re building</w>
re b
re actor</w>
ran k</w>
quanti ty</w>
prohib ited</w>
proce eds</w>
pro ving</w>
pre requisite</w>
prag m
post- crisis</w>
pic king</w>
phil anthrop
pessi mis
pessimis tic</w>
person ality</w>
pati ence</w>
pa ths</w>
p lot</w>
ove restim
outra ge</w>
out set</w>
out dated</w>
orthodo xy</w>
ori entation</w>
or che
orche str
on a</w>
o ce
nom ine
nineteen th-century</w>
ni tiative</w>
nerv ous</w>
natur al-
nati vi
n ight
much- needed</w>
mor ality</w>
mon thly</w>
moder nity</w>
moder ates</w>
minu tes</w>
mili tarily</w>
massac re</w>
manufac tured</w>
lower- income</w>
lo ts</w>
life time</w>
leth al</w>
la g</w>
know -
jurisdic tions</w>
ite ers</w>
is ed</w>
intern ally</w>
inter actions</w>
intensi fying</w>
integr ating</w>
insi ght</w>
inhe rently</w>
indeb tedness</w>
impris oned</w>
implic ation</w>
imp lo
ho c</w>
histori ans</w>
he ated</w>
hard line</w>
ha med</w>
h en
gri m</w>
gol den</w>
fron ts</w>
for th</w>
fe et</w>
fat al</w>
faste st</w>
fac tions</w>
expl ore</w>
exemp lified</w>
ex pose</w>
ex ported</w>
evol ve</w>
ent ail</w>
enroll ment</w>
enorm ously</w>
en du
endu red</w>
emul ate</w>
em or
el len</w>
e ast</w>
dom ain</w>
dispu ted</w>
disco veries</w>
dis advantaged</w>
direc tor</w>
dig it</w>
di aspor
denucleari zation</w>
defin es</w>
dedic ated</w>
d am</w>
cru cially</w>
critici ze</w>
credit -
coun tered</w>
correc tion</w>
contain s</w>
cont empt</w>
consid ers</w>
compe l</w>
co o
care ers</w>
c ements</w>
bru tality</w>
bri lli
be sides</w>
bac hev</w>
b less
b illi
author itarianism</w>
ati zed</w>
at a</w>
assess ments</w>
any time</w>
am e
alter ing</w>
alig n</w>
alcoho l</w>
ad ult</w>
ad here</w>
achiev able</w>
abund ant</w>
Y ellen</w>
Uru gu
Sum mers</w>
Sil k</w>
S tra
S lo
S chool</w>
S A</w>
Re port</w>
R ab
P r
O ttom
O PEC</w>
M at
Kru gman</w>
John son</w>
I nitiative</w>
H igh</w>
Gor bachev</w>
Gol d
Dar fur</w>
Carib bean</w>
Canadi an</w>
Bel ar
Ba sel</w>
B us
Ab u</w>
3 8</w>
3 3</w>
3 1</w>
2. 7</w>
y wood</w>
wit z</w>
wa ste
vers aries</w>
up dated</w>
underp in</w>
un resolved</w>
un popular</w>
un intended</w>
un comfortable</w>
un al</w>
um a</w>
tra de
tr a</w>
ti mely</w>
thri ving</w>
three- quarters</w>
telecommunic ations</w>
technolo gy-
tari anism</w>
t ori
t es
t abo
t ab
swit ch</w>
sustain ably</w>
supervis ory</w>
substan tive</w>
su spec
stra ins</w>
stor ms</w>
st ors</w>
sp in</w>
sor ts</w>
socie tal</w>
social- welfare</w>
soci alism</w>
six -
simil arities</w>
sign aling</w>
si ck</w>
shrin k</w>
share holder</w>
sett ings</w>
self- fulfilling</w>
rival ry</w>
revi ved</w>
revers ing</w>
resc u
reform ers</w>
read ers</w>
re views</w>
re formed</w>
radic als</w>
ra d
public s</w>
provo ked</w>
propos ing</w>
proper ties</w>
promp ted</w>
proce d
pro min
predic tion</w>
pre tend</w>
power ment</w>
po sts</w>
pled ges</w>
pessim ists</w>
percei ve</w>
p in</w>
p age</w>
orig ins</w>
oper ates</w>
op t</w>
olig arch
ol ds</w>
obsole te</w>
newcom ers</w>
neu tra
negl ect</w>
nam es</w>
n ly</w>
n it
n ant</w>
multip lier</w>
mon y</w>
mobili zing</w>
mis management</w>
mi sp
lo wered</w>
lo ose</w>
liter ally</w>
liber ation</w>
l ucky</w>
jurisdic tion</w>
jo in
jeopardi ze</w>
it ement</w>
inv ent</w>
inc ar
in habit
in form
imag ination</w>
ignor ance</w>
id en
iden tical</w>
hy bri
hur d
horiz on</w>
ho stage</w>
head quarters</w>
haz ard</w>
gen i
ful ness</w>
fu ri
fo oli
ferti lity</w>
favor ite</w>
fa shi
f li
exhau sted</w>
entreprene uri
enti ous</w>
end a</w>
e di
duc ation</w>
du ci
du al</w>
dram a</w>
dr ought</w>
doc tor</w>
do cu
docu ment</w>
distor ted</w>
develop ers</w>
defa ults</w>
de vote</w>
cr ack
countr y
cor relation</w>
condem n</w>
compas sion</w>
communic ate</w>
coll ected</w>
co des</w>
co al-
cele brate</w>
calcul ated</w>
business -
broad -based</w>
break up</w>
blu e
blam ing</w>
bit ter</w>
at -
assassin ation</w>
as ant</w>
ar d
ar bon
appe ti
any way</w>
anti-Semi tism</w>
ange red</w>
amend ment</w>
alig n
al- Qaeda</w>
al e-
aff ili
advan ced-
ach ing</w>
a u</w>
Xia oping</w>
V ic
T anz
Sing h</w>
S pec
Ric hard</w>
P en</w>
O x
O ne</w>
Ne ws</w>
Moldo va</w>
Lea ve</w>
Kash mir</w>
I m
G B</w>
E ducation</w>
Co sta</w>
CE Os</w>
C ap
Bus iness</w>
Brit ons</w>
Brex iteers</w>
B or
Ag enda</w>
A ff
7 00</w>
3 2</w>
200 0s</w>
2 ,
1. 8</w>
1 -
yn ard</w>
working- class</w>
working- age</w>
war ding</w>
vi sions</w>
ve ter
ve st</w>
v akia</w>
underp ins</w>
un realistic</w>
un limited</w>
un fortunate</w>
un avoidable</w>
um i</w>
ul ation</w>
turbul ence</w>
tor n</w>
tis sue</w>
through s</w>
thor ough
thorough ly</w>
te en</w>
tal ked</w>
t- based</w>
swe eping</w>
subsidi zed</w>
sub ordin
su pre
sty les</w>
stu b
strate gically</w>
st alled</w>
squ a
soci o
sett ling</w>
sent ence</w>
sen s
schol ars</w>
s pot
s ounds</w>
revol t</w>
revi ving</w>
rev elations</w>
res olu
reform ist</w>
ref uses</w>
re signed</w>
re sig
re bound</w>
re alism</w>
rati fied</w>
proxim ity</w>
prolif er
prof li
pro cu
privile ges</w>
prev entable</w>
precau tionary</w>
prec arious</w>
pre occupied</w>
power -
pol ling</w>
plagu ed</w>
persi sts</w>
out breaks</w>
osten sibly</w>
organ ic</w>
ordin arily</w>
oligarch s</w>
obse ssion</w>
ne o
narr atives</w>
nam ely</w>
n on</w>
my th</w>
my self</w>
mul ticul
movi e</w>
mitig ating</w>
minu te</w>
minist ries</w>
mi er</w>
mess ages</w>
me ddling</w>
maxim izing</w>
manipul ating</w>
loo m</w>
loc al-
list ening</w>
lin ing</w>
lif el
lef t-wing</w>
lea p</w>
le ash</w>
labor- force</w>
l l
iz umi</w>
investig ations</w>
inter view</w>
insurg ents</w>
inspir ation</w>
insol vency</w>
insist ing</w>
inhabit ants</w>
incur red</w>
incre mental</w>
in ner</w>
in ex
in difference</w>
impris onment</w>
impe di
ic ked</w>
ic ago</w>
home owners</w>
hand ling</w>
ha il</w>
geograph ical</w>
ge dly</w>
fra me</w>
for ging</w>
fo ot</w>
flou rish</w>
floo ds</w>
financial- market</w>
extr act</w>
export -led</w>
expl oring</w>
exist ed</w>
exagger ated</w>
ex porter</w>
entrepreneuri al</w>
engine er</w>
emis sion</w>
embo died</w>
em powerment</w>
em powering</w>
em an
ear ly-
e ating</w>
drin king</w>
dra in</w>
dr one</w>
dol lar
divor ce</w>
disco ver</w>
dis mal</w>
dis count</w>
direc tions</w>
dict ate</w>
di sh
di e
desig n
decreas ed</w>
decent ralized</w>
deb acle</w>
de pressing</w>
conf used</w>
con sumer
compla ints</w>
comp ound</w>
comp ly</w>
co ff
cent ric</w>
cease fire</w>
categ ories</w>
break throughs</w>
bre ast</w>
bless ing</w>
bi ased</w>
b lan
b ar</w>
az e
auth or</w>
ate ful</w>
as -
artific ially</w>
aris ing</w>
ari ans</w>
ar agu
anx ious</w>
an onym
an ce
alle gedly</w>
algorith ms</w>
akh stan</w>
adap ted</w>
acci dents</w>
aca dem
ab str
Venezuel an</w>
Ukraini ans</w>
U ber</w>
Swe dish</w>
Soci alist</w>
Re search</w>
R em
Pre mier</w>
P A
Olymp ics</w>
Nic aragu
N o</w>
Mo hamed</w>
McC ain</w>
Mad rid</w>
Ma ynard</w>
M B</w>
L at
Ko izumi</w>
Kaz akhstan</w>
Gre eks</w>
Fre e
E l</w>
E cu
E M
Cypri ot</w>
Ch icago</w>
CI A</w>
B S</w>
Ab dul
AM R</w>
A ir
9 5</w>
5 9</w>
3 -
3 ,000</w>
1. 7</w>
1. 4</w>
1 4
.. ..</w>
- of-
y ans</w>
win ter</w>
wi el
wh i
well- functioning</w>
we b
vir al</w>
viol ating</w>
varie ties</w>
vali d</w>
use less</w>
ur ged</w>
uph olding</w>
under score</w>
umb ai</w>
ul a</w>
uc a
tur ally</w>
trac king</w>
tot ally</w>
tic es</w>
tho lic
therap y</w>
text books</w>
text book</w>
ten able</w>
t we
t one</w>
system atically</w>
swi ft</w>
suspec ted</w>
supp lied</w>
sup por
suppor tive</w>
sub stitu
su ms</w>
sti g
st up
specul ators</w>
speci alized</w>
sp ear
sou l</w>
some where</w>
slu mp</w>
sil ver</w>
si z
sha dow
sh y</w>
sh run
sentim ents</w>
sensi tivity</w>
second- largest</w>
se y</w>
scre ening</w>
s lack</w>
s cour
s bank</w>
ru th
ri shed</w>
revi se</w>
res a</w>
rein vigor
recipi ent</w>
reas sure</w>
real- world</w>
re productive</w>
re per
re me
re loc
re e</w>
re al
ques tioned</w>
quali fy</w>
puni tive</w>
pri ce-
poin ting</w>
pers ons</w>
pe st</w>
pe red</w>
pat ents</w>
par ano
p ical</w>
over hang</w>
ous se
optim ists</w>
opini ons</w>
off -
obli ged</w>
o p</w>
o ch
moun t</w>
mone y-
moderni ze</w>
mistak en</w>
min e</w>
mil d</w>
mea suring</w>
me d
manipul ated</w>
man dates</w>
m ire</w>
m igh
long standing</w>
loc ally</w>
lo sis</w>
lo fty</w>
leng th</w>
lea sure</w>
know- how</w>
itu al</w>
it coin</w>
iny amin</w>
inv aded</w>
interf ere</w>
institu tion
ini st</w>
in visible</w>
in directly</w>
in direct</w>
in consistent</w>
imagin able</w>
im position</w>
ide ally</w>
ic ious</w>
ho li
her itage</w>
hegem onic</w>
hear ts</w>
hear t
har dest</w>
har b
h us
h all
ground work</w>
gra b</w>
gas ol
flo ating</w>
fle eing</w>
fla g</w>
fl ag
f it
expl oration</w>
exp on
execu tion</w>
exclu de</w>
evid ently</w>
every body</w>
er n
enthusias tic</w>
enjo ys</w>
enjo ying</w>
ende av
embar go</w>
e ffic
dur ation</w>
dra stic</w>
do g
divi ding</w>
dis advantage</w>
diaspor a</w>
deter rent</w>
detec t</w>
desig ns</w>
def ensive</w>
def ended</w>
decision- makers</w>
dec arbon
de puty</w>
d ry</w>
d ot
d ity</w>
cyn ical</w>
cu losis</w>
cro ss</w>
cosmopoli tan</w>
cont ex
cont entious</w>
consum ed</w>
concep ts</w>
concentr ate</w>
conceiv able</w>
complement ary</w>
comp rises</w>
comp ounded</w>
com promising</w>
collap ses</w>
col or</w>
clo sure</w>
ci gare
chec ked</w>
ch enko</w>
center- right</w>
cent rist</w>
capit alize</w>
ca sh-
but tre
bu s</w>
bro ther</w>
bi al</w>
ber culosis</w>
bench mark</w>
batt les</w>
bankrup t</w>
b yp
b er-
aze era</w>
au gment</w>
atten d
ast on
as y</w>
as sur
arri val</w>
appro ve</w>
apparat us</w>
apar the
and er</w>
ambig uous</w>
ac are</w>
Zimbab we</w>
Ze al
Z i
Urugu ay</w>
Ti an
Sun ni
Sen ator</w>
Sand ers</w>
SD G</w>
S ur
Represent atives</w>
R ousse
Ottom an</w>
Obam acare</w>
Mo ham
Mar x</w>
M umbai</w>
Li u</w>
K GB</w>
J azeera</w>
IF A</w>
I A
H os
H en
Fried man</w>
F IFA</w>
E I
D od
D B</w>
Cu ban</w>
Ci vi
Ch ech
Ca uca
Ca tholic
C A</w>
B itcoin</w>
B inyamin</w>
Ang lo
Amaz on</w>
Aff airs</w>
198 6</w>
197 3</w>
197 1</w>
- denominated</w>
&apos; ve</w>
y ellow</w>
y c
x es</w>
writ er</w>
wor st-
wo es</w>
witne ssed</w>
wit ness</w>
wi sely</w>
who le
weigh ed</w>
war time</w>
volun te
virtu ous</w>
vic tories</w>
v ar
upheav al</w>
underestim ate</w>
under valued</w>
under cut</w>
und eni
un happy</w>
un changed</w>
ul tural</w>
ucr ative</w>
u ity</w>
u g
tu s</w>
troub les</w>
tri vi
tra ded</w>
tr action</w>
to o-
ti fication</w>
ti al</w>
though tful</w>
thin kers</w>
the irs</w>
the ft</w>
ten -
technolo gically</w>
techn ically</w>
tal ented</w>
ta o</w>
t ted</w>
sympa thy</w>
symp tom</w>
sym bols</w>
str ation</w>
st ery</w>
squ an
squan dered</w>
spor ting</w>
spe ech
sla u
sion ers</w>
si zed</w>
shou l
sha me</w>
sh che
shche v</w>
sh ale-
sel dom</w>
secre tary</w>
seas on</w>
scra m
scand als</w>
safe guar
s n
ru shchev</w>
ri vers</w>
remin ded</w>
regi stered</w>
recipi ents</w>
re structure</w>
re patri
re jects</w>
re course</w>
re actors</w>
quanti ties</w>
purcha sed</w>
pul ling</w>
public ation</w>
psy chi
provin cial</w>
procu rement</w>
process ing</w>
proce ed
proceed ings</w>
pro- European</w>
pro active</w>
predic ting</w>
predic tability</w>
preci ous</w>
prece ded</w>
post- World</w>
portra yed</w>
portfoli os</w>
plan es</w>
phot o
persist ence</w>
persecu tion</w>
per cent</w>
peac efully</w>
pas sive</w>
pa thy</w>
p ile</w>
out weigh</w>
out standing</w>
ot echnology</w>
organ isms</w>
open -
one- fifth</w>
ol d-
oh ing
oce ans</w>
obs cure</w>
objec tions</w>
no stal
narrow ly</w>
na ï
n ish</w>
multin ation
multination als</w>
multi polar</w>
mi su
mer its</w>
mat ched</w>
loc ations</w>
li sts</w>
langu ages</w>
lag ging</w>
l ucrative</w>
k ingly</w>
integr al</w>
insol vent</w>
ing es</w>
in er
impas se</w>
imp ending</w>
igno res</w>
ic a</w>
humili ation</w>
hon est
ho sted</w>
hel l</w>
he m</w>
har sh
gui ding</w>
gre ed</w>
gr at
govern ors</w>
g lu
for th
fooli sh</w>
fl at</w>
fier ce</w>
ferti liz
fear ful</w>
fast- growing</w>
f ly</w>
f its</w>
f ever</w>
f ans</w>
expla ining</w>
expan ds</w>
exer t</w>
excess es</w>
exam ined</w>
ever s</w>
err a</w>
ero ding</w>
enter tainment</w>
end angered</w>
emb ol
em it
el abor
e ted</w>
du mping</w>
dra ws</w>
do ses</w>
divi sive</w>
dispu te-
discoura ging</w>
diagno sed</w>
dest iny</w>
descri bes</w>
dep ended</w>
deep -
crypto currencies</w>
cour ses</w>
contain ing</w>
constitu encies</w>
connec ting</w>
compla ined</w>
comp elled</w>
choo ses</w>
chau v
channe led</w>
champi oned</w>
c a</w>
bur den
broad band</w>
bom b
bol stering</w>
bo oms</w>
blue print</w>
bloo d
ben e
beli evers</w>
bel t</w>
behavi oral</w>
back drop</w>
b led</w>
autocr ats</w>
au to</w>
at omic</w>
as sured</w>
appeti te</w>
aparthe id</w>
anti-Semi tic</w>
an men</w>
am i</w>
al legi
advan cement</w>
administr ations</w>
ad ds</w>
acquisi tion</w>
acknowled ging</w>
a warded</w>
Zeal and</w>
W ar
Tian anmen</w>
Ti bet
T u
T F
Sh i</w>
S an
S P
Ro yal</w>
Ric o</w>
Re g
R ohing
Pro te
P act</w>
Or thodo
Nep al</w>
Mik hail</w>
Man de
M ur
M anu
M E
L ula</w>
Kh rushchev</w>
Hen ry</w>
Gold man</w>
Gaz pro
Gaul le</w>
G M</w>
Fu ture</w>
Fran k</w>
Fo od</w>
Cor por
Con sensus</w>
Christ mas</w>
Char les</w>
Cauca sus</w>
Catholic s</w>
Bhu tto</w>
B unde
B o</w>
Americ as</w>
AR C</w>
6 3</w>
4 7</w>
4 4</w>
4 2</w>
20 ,000</w>
197 2</w>
19 29</w>
1 30</w>
- -</w>
á nam
ánam o</w>
worth while</w>
world- class</w>
world view</w>
wi shes</w>
weap on
wat er
war n</w>
uniqu ely</w>
un equi
un -
ul sion</w>
ty ran
tro pical</w>
transl ated</w>
tor al</w>
tiz ed</w>
ti vi
ti fied</w>
ten tion</w>
ten se</w>
ta p</w>
t ating</w>
t am
sw aps</w>
surr ounded</w>
sur ging</w>
su itable</w>
stri fe</w>
strength ens</w>
spo ts</w>
speech es</w>
sion ally</w>
sing er</w>
si us</w>
si e
shoc ked</w>
sh ir
s emi
ris king</w>
ri ots</w>
restric tive</w>
restor ation</w>
reper cus
repercus sions</w>
re balance</w>
rail way</w>
ra il</w>
ra i
r ors</w>
ques tion
quali ties</w>
puni shed</w>
pul led</w>
prohibi tion</w>
pro pri
privile ge</w>
prescrip tion</w>
premi ums</w>
preg nan
post- Cold</w>
pon ent</w>
plun ged</w>
pl ann
pipel ines</w>
pi ec
pessi mism</w>
person ally</w>
peri o
pe t</w>
pe aked</w>
pay roll</w>
p ir
over throw</w>
over look</w>
out size</w>
out lays</w>
organiz ing</w>
occa sions</w>
occa sionally</w>
ob tained</w>
notori ously</w>
notic ed</w>
nomine e</w>
night m
nightm are</w>
naï ve</w>
nation al-
moder ation</w>
mobili zation</w>
mo tive</w>
mitig ation</w>
mega -
me ters</w>
mat u
man ages</w>
lor ds</w>
lo aded</w>
live stock</w>
liter ature</w>
lic ate</w>
lau de</w>
lag s</w>
ke ep
k ick
k able</w>
jihadi sts</w>
j an</w>
intensi fied</w>
innov ators</w>
individu ally</w>
ind ul
inci dents</w>
inc lin
in vention</w>
in sured</w>
in su
in sec
in compatible</w>
impe ded</w>
illi c
id a</w>
ho ly</w>
he l</w>
hau l</w>
hard liners</w>
har ass
h ind
guarante eing</w>
gra vity</w>
ge ly</w>
g y
g lac
full- time</w>
foun der</w>
for ged</w>
for d</w>
ferti le</w>
fe ld</w>
f ts</w>
f ant
experim entation</w>
evalu ation</w>
ev acu
est er</w>
ess ence</w>
ent- elect</w>
en cro
emb r
el sius</w>
econ d</w>
e tr
dr a</w>
double- digit</w>
diver t</w>
dispar ate</w>
disil lu
discoura ged</w>
disappoin ted</w>
dis gu
direc tors</w>
di ous</w>
di ar
deri ved</w>
depreci ate</w>
depos itors</w>
deplo ying</w>
def enders</w>
dec ides</w>
d- Frank</w>
d lock</w>
cred its</w>
crack down</w>
counter ing</w>
correc tly</w>
contradic tions</w>
consi sts</w>
conflic t-
condi tionality</w>
cle an-
ck -
circ les</w>
c em
burd ened</w>
bro a
broa den</w>
brilli ant</w>
boy cot
bl at
bet ting</w>
ber t</w>
beau ti
be ating</w>
bar ring</w>
balance- of-
b leak</w>
avo idance</w>
aver sion</w>
author ized</w>
at en</w>
asylu m-
anti- establishment</w>
ant ánamo</w>
an ese</w>
allevi ate</w>
affir m
ad versaries</w>
acqu iring</w>
ac z
ab a</w>
Z hou</w>
Y a
The resa</w>
Te a</w>
Tanz ania</w>
Sunni -
Sou thern</w>
Shi ite</w>
Shar if</w>
SM Es</w>
S or
S he
S econd</w>
S ach
Rohing ya</w>
Re view</w>
R am
R MB</w>
Pro tec
Nicaragu a</w>
N on-
Manu el</w>
Mac ed
M is
M ali
K or
K ho
K acz
J ames</w>
J acqu
H om
H im
H an
Gü len
Gu antánamo</w>
Gazpro m</w>
G NP</w>
Fu k
Frank lin</w>
F ront</w>
Ecu ador</w>
Dod d-Frank</w>
Colom bian</w>
Chin ese-
C laude</w>
C elsius</w>
B ay</w>
B an</w>
A rea</w>
A A
8 -
6 7</w>
6 2</w>
4 3</w>
3 0
2 ,000</w>
198 2</w>
196 8</w>
yiel ding</w>
y ou
x on</w>
well- known</w>
wat ched</w>
volun tarily</w>
vers a</w>
ve iled</w>
v ors</w>
v ention
v an</w>
us tices</w>
up side</w>
un skilled</w>
un leash</w>
un fol
um s
tw enty</w>
tri pled</w>
transi t</w>
tra its</w>
tra des</w>
tici des</w>
ti tion</w>
ti pping</w>
throw ing</w>
thre w</w>
th ful</w>
ten ment</w>
tail ored</w>
t led</w>
swe red</w>
supre m
super vi
sub stitution</w>
sub mitted</w>
struc tured</w>
stric tly</w>
st on</w>
spon tane
spir itual</w>
speci alists</w>
smo oth
smar t
sky roc
six th</w>
side lines</w>
shor ter</w>
sh opping</w>
sh ments</w>
semi -
self- defeating</w>
sac red</w>
ru b
ro gue</w>
risk- taking</w>
rev it
respon ds</w>
requ est
repres sive</w>
remedi es</w>
refu ge</w>
re- election</w>
re sign</w>
re mind</w>
re distribu
rav aged</w>
r ounds</w>
r ough</w>
r is</w>
r ated</w>
quie tly</w>
qu i
puzz le</w>
prosp er</w>
prosecu tor</w>
pro ves</w>
pro p</w>
pres cri
predic tably</w>
pre sses</w>
postpon ed</w>
post- communist</w>
politici zed</w>
plur alism</w>
per or</w>
per il</w>
pec uli
peace keeping</w>
patri otic</w>
particip ated</w>
p raise</w>
p ause</w>
out sourcing</w>
op pression</w>
one- quarter</w>
on ce-
ob struc
neg li
mp s</w>
mom ents</w>
mo on</w>
metri cs</w>
mess y</w>
mat urity</w>
mali g
mach in
loc king</w>
liter acy</w>
lin e
like -minded</w>
li sm</w>
law makers</w>
lavi sh</w>
l ingu
kill ings</w>
kill ers</w>
kill er</w>
ke st</w>
k ills</w>
k id
k ening</w>
invo ked</w>
investig ate</w>
inter vention
instinc ts</w>
inst on</w>
in trac
in different</w>
illic it</w>
hu b</w>
ho sting</w>
hero ic</w>
head winds</w>
harass ment</w>
hal ted</w>
ha vens</w>
ha m</w>
ha bit</w>
guil t</w>
geo graphic</w>
g a</w>
full- blown</w>
fron t-
formul ate</w>
fle e</w>
fis c
fisc al-
fe at</w>
fe at
far ther</w>
fai rer</w>
extr action</w>
export -
excep tionally</w>
exacerb ating</w>
ex pressions</w>
equ als</w>
enti als</w>
end er-
en forcing</w>
employe e</w>
emp tive</w>
effic acy</w>
don ations</w>
docum ents</w>
docum ented</w>
do -
distri c
disman tling</w>
discipl ines</w>
diar rhe
diagno stic</w>
devast ation</w>
design ated</w>
dep ic
demonstr ators</w>
deleg ation</w>
def enses</w>
deb ating</w>
deb ated</w>
de vice</w>
d end</w>
cr unch</w>
contribu tes</w>
consul tation</w>
constitu ents</w>
consist ency</w>
consequ ently</w>
confron ts</w>
conflic ting</w>
conduc ting</w>
con vention</w>
com posed</w>
com bu
col um
coff ers</w>
class room</w>
cl ou
child care</w>
cate gor
car ri
bu sy</w>
broad ca
bro ker</w>
brid ges</w>
bran ch</w>
bra ve</w>
behavi ors</w>
ba il</w>
b its</w>
aver aged</w>
attribu te</w>
atten ded</w>
ath le
at ly</w>
asylum- seekers</w>
assi st</w>
asser tion</w>
arsen als</w>
ar rog
an swered</w>
am m
al ay
aim ing</w>
agre eing</w>
addic tion</w>
ad mission</w>
ad minist
accur ately</w>
accord ance</w>
absolu tely</w>
ab e</w>
a king</w>
Zi on
Yu sh
Wil son</w>
W inston</w>
Tran s-
Si erra</w>
Sal v
Sad at</w>
Sach s</w>
S R</w>
P la
Os ama</w>
Orthodo x</w>
O A</w>
Naz is</w>
Mon ti</w>
Mande la</w>
Ma o
M ass
Le one</w>
Ken yan</w>
K is
Jin tao</w>
Jean- Claude</w>
Jacqu es</w>
J ose
J CP
JCP OA</w>
I R
Him alay
Gu ine
G I</w>
Free dom</w>
Franco- German</w>
For ces</w>
F s</w>
F ra
E F</w>
D es
Ch er
C F
Bunde sbank</w>
Bulg aria</w>
Bud get</w>
Bal tic</w>
B udd
A s</w>
9 -
8 .
7 .5</w>
6 00</w>
4 8</w>
4 -
19 40</w>
1 60</w>
1 20</w>
0. 7</w>
yiel ded</w>
worsen ed</w>
worl ds</w>
work place</w>
withdraw n</w>
wh ani</w>
vi ron
ves sels</w>
ver ge</w>
vent ures</w>
us er</w>
underp inning</w>
unanim ously</w>
ums feld</w>
ultra- low</w>
tri ck</w>
traum a</w>
tion ers</w>
ti red</w>
ti que</w>
thin kable</w>
the me</w>
te l</w>
te es</w>
tax ed</w>
t ally</w>
system ically</w>
syn thetic</w>
syn chron
sympa thetic</w>
susp ension</w>
survi vors</w>
superi ority</w>
sup ran
sub tle</w>
su ries</w>
su preme</w>
stup id</w>
stun ning</w>
stri ve</w>
str o</w>
star tu
stagn ated</w>
sta yed</w>
st all</w>
smooth ly</w>
sk in</w>
signat ories</w>
shrun k</w>
short- run</w>
short- lived</w>
sh at
secul ar
scour ge</w>
sc ant</w>
s n</w>
s a</w>
ron es</w>
rival ries</w>
resig nation</w>
resemb les</w>
res or
repu tations</w>
reme dy</w>
regul ating</w>
recru it
recomm end</w>
re tains</w>
re payment</w>
re leg
ration ality</w>
ra ft</w>
qu asi
quasi -
protec ts</w>
pre valence</w>
portra y</w>
pla in
persu asive</w>
perpetr ators</w>
per verse</w>
pen etr
pe ers</w>
paraly zed</w>
paralle ls</w>
pan ace
panace a</w>
p id</w>
p ho
p ages</w>
own er</w>
oper ators</w>
oper ated</w>
on ics</w>
ol a</w>
occup ations</w>
o v</w>
not ing</w>
non- governmental</w>
nai ve</w>
mur dered</w>
multicul tur
modi fied</w>
mitig ated</w>
mit tedly</w>
mis ses</w>
mili tia</w>
mili tant</w>
memb ering</w>
mat ches</w>
marke t
manipul ate</w>
maj orities</w>
machin ery</w>
ma ke
low -</w>
lor ida</w>
ling ering</w>
less -
legisl ature</w>
l ling</w>
keep ers</w>
ke ys</w>
jun ta</w>
join tly</w>
iz ar
inten d</w>
inst ance</w>
innov ate</w>
ing en
iner tia</w>
incre di
inaug uration</w>
in form</w>
in coming</w>
im porting</w>
illi ter
id le</w>
hurd les</w>
human e</w>
hier archy</w>
helicop ter</w>
haw ks</w>
har ming</w>
hand led</w>
h itting</w>
guil ty</w>
guer ri
gri dlock</w>
graph y</w>
gradu ate</w>
gra ss
go od
fre ed</w>
fra structure</w>
for um</w>
fol ly</w>
fled ged</w>
financial- sector</w>
fi ve-
fe aring</w>
exc iting</w>
every day</w>
es se</w>
es -
ep tive</w>
ensu ing</w>
enshr ined</w>
employ er</w>
em ig
eli gible</w>
el ler</w>
e t
drug- resistant</w>
disp er
dis sent</w>
dis regard</w>
dis orders</w>
dis appearance</w>
deri ve</w>
dela ys</w>
de fi
dat a-
cyber space</w>
cul ar</w>
cr on
construc ted</w>
constra in</w>
conspir acy</w>
consequ ential</w>
concei ved</w>
compens ated</w>
commod ity-
collabor ate</w>
cohe rence</w>
clim b</w>
circum vent</w>
ci ous</w>
cheap ly</w>
character istic</w>
celebr ation</w>
capital- intensive</w>
business men</w>
bot tom
boo sts</w>
bomb ings</w>
bo y</w>
bo at</w>
billi on
be lli
be ef</w>
be dro
be ar
ban ner</w>
balance-of- payments</w>
bacter ia</w>
back ward</w>
b reach</w>
b izar
ax is</w>
awa it</w>
au d
analo gy</w>
an- style</w>
amoun ting</w>
aliz es</w>
ak i</w>
ak ers</w>
ain e</w>
ag on</w>
ag er</w>
advoc acy</w>
advis er</w>
ad mittedly</w>
acqui es
ach es</w>
accumul ating</w>
accommod ation</w>
ac ity</w>
absor bed</w>
V -
T am
Spec ial</w>
S C
Ro whani</w>
Ric a</w>
Re gi
R umsfeld</w>
Pu bli
Progra m</w>
P rin
P a
P LO</w>
Nor theast</w>
N TC</w>
N C
Mus lim
Mali ki</w>
M Ps</w>
Liber ia</w>
Ku wait</w>
K in
J an
In frastructure</w>
Hos ni</w>
Hi ro
G- 7</w>
Fran ci
For ce</w>
F lorida</w>
En viron
E st
E S</w>
D is
D a
Comm unity</w>
C ultural</w>
Bo E</w>
Belar us</w>
BO J</w>
B lack</w>
Anglo -
Abdul lah</w>
Ab k
9 00</w>
6 8</w>
6 4</w>
5 7</w>
5 3</w>
4 6</w>
4 ,000</w>
3 0,000</w>
2. 4</w>
2. 3</w>
196 2</w>
194 7</w>
0. 1</w>
- to-
&apos; m</w>
ye ster
yester day</w>
ye ar
y- to-
y our
who w</w>
we b</w>
war ri
vi ability</w>
ver dict</w>
ve to
under scored</w>
un thinkable</w>
un tenable</w>
un desirable</w>
um ental</w>
ug ly</w>
tu re-
tt ers</w>
trav eled</w>
transf erring</w>
transf erred</w>
trade off</w>
top- down</w>
toler ant</w>
ti s</w>
teach er</w>
t une</w>
susp icious</w>
sugg estion</w>
success ors</w>
succ umb
suc cum
succum b</w>
su ic
stri p</w>
stret ch</w>
stra ight</w>
stil l-
ste in</w>
stan do
stan bu
stanbu l</w>
st ops</w>
squa rely</w>
spillo vers</w>
sp ra
sp r
socio economic</w>
sle ep</w>
sh ru
set backs</w>
serv ants</w>
sent ences</w>
secu tive</w>
scri p
rout es</w>
rol ling</w>
road map</w>
rid den</w>
ri ver</w>
ri sts</w>
resist ing</w>
rescu ed</w>
ren dra</w>
remin ds</w>
relent less</w>
rel la</w>
rel ates</w>
rein forces</w>
ref erring</w>
recover ing</w>
re warding</w>
re w
re vision</w>
re tained</w>
re membering</w>
ran ked</w>
r ö
r .</w>
public- debt</w>
provoc ations</w>
pro ph
priori tize</w>
presti ge</w>
preg nant</w>
power less</w>
pollu ting</w>
poli ty</w>
plann ers</w>
pas ses</w>
par ticles</w>
p ar</w>
over capacity</w>
outw ard</w>
orthodo x</w>
ong o</w>
on set</w>
olo gists</w>
ol ed</w>
obse ssed</w>
o tism</w>
nuclear- weapons</w>
nation- states</w>
mur der
mu tu
mo lec
mis match</w>
minist erial</w>
mil k</w>
metaph or</w>
mer it
mer chan
mer can
mathemati cs</w>
man kind</w>
li on</w>
li ked</w>
lever aged</w>
less er</w>
lean ing</w>
le sc
law yer</w>
l as
kno whow</w>
ji had</w>
j a
issu ance</w>
intrac table</w>
intoler ance</w>
inspir ing</w>
ingredi ents</w>
inclu siveness</w>
in tra-
in competent</w>
in ating</w>
imper atives</w>
identi fication</w>
hu gely</w>
horri fic</w>
home grown</w>
ho le</w>
highligh ting</w>
he aring</w>
ha el</w>
gran ting</w>
gl ance</w>
geo politics</w>
gene tically</w>
gasol ine</w>
gas -
g ru
fundament alists</w>
fundament alist</w>
fron t
frigh tening</w>
frequ ency</w>
fran kly</w>
frag ility</w>
forth coming</w>
forecast ers</w>
force fully</w>
for ward-looking</w>
fo od-
fin ite</w>
faste st-
fab ric</w>
f iled</w>
extre mes</w>
extra ordinarily</w>
expec ting</w>
expe di
ex ile</w>
es si
enz i</w>
enri ched</w>
endeav or</w>
end ure</w>
en counter</w>
emer gen
embar ked</w>
el son</w>
e- commerce</w>
e ous</w>
du bbed</w>
distric ts</w>
distre ssed</w>
disappoin tment</w>
dis en
dict ates</w>
di gi
di et</w>
di an</w>
descri ption</w>
depri ved</w>
demago gues</w>
dec ou
deal t</w>
de lu
de licate</w>
de l</w>
d- up</w>
cy ber-
cur bing</w>
cross roads</w>
cron ies</w>
cred entials</w>
cra fting</w>
cooper atives</w>
continu ation</w>
cont am
con secutive</w>
commit tees</w>
commer ci
comment ary</w>
comm only</w>
comm en
comb at
co ver
cle ver</w>
cle aring</w>
classi cal</w>
cl oud</w>
chur ches</w>
char t</w>
cataly ze</w>
cataly st</w>
capit als</w>
c ite</w>
by n</w>
br is</w>
bo ats</w>
bloc ks</w>
bizar re</w>
bene ath</w>
beauti ful</w>
b ent</w>
aw k
automob ile</w>
audi ences</w>
attr acti
attracti veness</w>
ast -
asser ted</w>
assemb led</w>
asse ssed</w>
asp ire</w>
as sist
as sed</w>
arm ies</w>
apo logi
ap ing</w>
announ ce</w>
an tim
an archy</w>
all- time</w>
alien ated</w>
al- property</w>
al i</w>
al arm</w>
al ai</w>
ad mir
acceler ation</w>
ac tiv
ac ked</w>
abi de</w>
Yush chenko</w>
Yem en
X in
Trans- Pacific</w>
St at
SW Fs</w>
S ol
S am
Rousse ff</w>
Rab in</w>
R enzi</w>
Pow ell</w>
O ld</w>
Na rendra</w>
Mor gan</w>
Mar ket</w>
Mac ri</w>
M ag
L ama</w>
Kis singer</w>
K ir
J P
IA EA</w>
I stanbul</w>
Hu go</w>
Ha ye
Guine a</w>
G i
Franci sc
F is
En d</w>
Direc tor</w>
D alai</w>
Cor byn</w>
Civi l</w>
Ca stro</w>
C ongo</w>
Bor is</w>
B ol
Armen ia</w>
Abk haz
AM LO</w>
A zer
6 6</w>
5 6</w>
5 5</w>
4 .5</w>
3. 2</w>
19 20</w>
19 0
1. 1</w>
- related</w>
y ang</w>
xenopho bic</w>
wr ought</w>
worst- case</w>
work able</w>
wor ris
who ever</w>
weak ens</w>
wat ch
waste ful</w>
vo id</w>
vigor ous</w>
vig il
vi v</w>
vers y</w>
vent e
ven ge
v or</w>
ush ima</w>
un ted</w>
un fet
unfet tered</w>
un balanced</w>
un aware</w>
trib unal</w>
transform ational</w>
tot alitarian</w>
to s</w>
to c
ten th</w>
te pid</w>
tabo o</w>
sur render</w>
sur ate</w>
supran ational</w>
sun der
subsidi zing</w>
ste pping</w>
start- ups</w>
star vation</w>
stagn ating</w>
st aged</w>
ss ly</w>
spot light</w>
spar k</w>
sp aces</w>
smar ter</w>
sli ding</w>
sion ate</w>
simultane ous</w>
sim pl
simpl er</w>
shel ter</w>
sex u
separ ated</w>
sen su
self- serving</w>
self- determination</w>
sel ective</w>
sec tion</w>
se vente
se gment</w>
se ated</w>
s cr
scr at
s add
s ad</w>
s .</w>
rö der</w>
rul er</w>
repu di
renew able-
relent lessly</w>
rel atives</w>
regi stration</w>
regi on
refra in</w>
recru iting</w>
recru it</w>
record- high</w>
reck oning</w>
read iness</w>
re sume</w>
re ne
re fin
re consider</w>
rati fication</w>
rail ways</w>
radic alization</w>
publi shing</w>
propor tions</w>
proph ec
prohi bit</w>
prof it-
prob able</w>
prevail s</w>
prepar ation</w>
pregnan cy</w>
prefer able</w>
preced ence</w>
pre valent</w>
pre text</w>
pre domin
po le
ple asant</w>
philos op
philosop her</w>
perpe tual</w>
pen insula</w>
patri otism</w>
pa ve</w>
p ou
p apers</w>
overwhel med</w>
over haul</w>
or g
or able</w>
op ens</w>
one- party</w>
om y</w>
om en</w>
ol k
nou rished</w>
nostal gi
nostalgi a</w>
no by
nation alization</w>
murder ous</w>
monopoli es</w>
mon archy</w>
moment ous</w>
modi fication</w>
mir ror</w>
mi sunder
mer t</w>
measu rable</w>
mat ching</w>
manife station</w>
man tra</w>
mag ic</w>
mag az
loy al</w>
loosen ing</w>
lob by
ligh tenment</w>
lic ally</w>
li p</w>
law -
land -
l oud</w>
l d-
l ack
k ri
k ak
jum ped</w>
j ail</w>
isol ate</w>
ir ri
intellectu al-property</w>
int act</w>
inste in</w>
inst ant</w>
infer ior</w>
ineffici ency</w>
independ ently</w>
incorpor ated</w>
in competence</w>
in ary</w>
impe des</w>
im perfect</w>
ic ity</w>
ic ism</w>
ic h
i est</w>
i e</w>
i -
hypo cris
hypocris y</w>
hybri d</w>
hurrican es</w>
human ities</w>
hol d
histori an</w>
high ways</w>
health care</w>
he d
harmon ization</w>
h ec
gri ds</w>
green er</w>
gen ome</w>
gam ble</w>
ga thered</w>
fru its</w>
fortun es</w>
fore seen</w>
fl u</w>
fil ms</w>
fic tion</w>
fet ched</w>
f ile</w>
f asc
exclu ding</w>
exc itement</w>
ex as</w>
evol ent</w>
evalu ating</w>
escap ing</w>
err atic</w>
eradic ate</w>
er son</w>
endor sement</w>
ef ly</w>
e lic
e es</w>
e ars</w>
dyn asty</w>
dra gged</w>
domin ation</w>
divi dend</w>
disrup ted</w>
discrimin atory</w>
diarrhe a</w>
descri bing</w>
dead line</w>
de tail</w>
de arth</w>
dat ab
da iry</w>
d row
custom er</w>
curricul um</w>
curi ous</w>
cur ve</w>
cu sto
cro ssing</w>
cri tique</w>
cr y</w>
country side</w>
cor d</w>
cooper ating</w>
conver sely</w>
conver ge</w>
contro versy</w>
contrac ting</w>
continu ity</w>
constitu ency</w>
con fusion</w>
con firms</w>
comple ment</w>
compar ing</w>
comp rising</w>
commen surate</w>
comb ining</w>
colon i
col li
coinci dence</w>
coal- fired</w>
co ffe
cla use</w>
charis ma</w>
cha pter</w>
cha e
ch ess</w>
ce ased</w>
capit alists</w>
c able</w>
bon uses</w>
bon d-
blun t</w>
block chain</w>
beau ty</w>
be long</w>
bank er</w>
bail ed</w>
ba shing</w>
aw i</w>
aw a</w>
attribu table</w>
atro cities</w>
asset- price</w>
ass y</w>
aren a</w>
ann u
analy ze</w>
an ic</w>
am end</w>
am ed</w>
allegi ance</w>
alien ation</w>
air ports</w>
air port</w>
agre es</w>
ag as
adju sting</w>
acc ru
absor bing</w>
a ya</w>
a g</w>
Z ika</w>
Wester ners</w>
Vi en
T y
T exas</w>
T er
St an
Ser bian</w>
Se as</w>
Scandinavi an</w>
Res olution</w>
Os se
Ol mert</w>
O range</w>
N u
Muslim -
Mo z
Mo vement</w>
Mic hael</w>
Medic are</w>
Mar x
Mar shall</w>
Man ch
M N
Lat via</w>
L DP</w>
K at
Jose ph</w>
Jong- il</w>
J our
Holl ywood</w>
Ha vel</w>
H ur
H el
Govern or</w>
G 7</w>
Fuk ushima</w>
Francisc o</w>
F ARC</w>
En lightenment</w>
E R</w>
Dan ish</w>
D ru
D om
D .</w>
Cro ati
Conserv atives</w>
Cher noby
Budd h
B eng
B T</w>
Austri an</w>
Argent ine</w>
Arab- Israeli</w>
Af D</w>
7 6</w>
7 2</w>
6 .5</w>
6 -
3 9</w>
200 ,000</w>
197 4</w>
195 0s</w>
1 0-
ze al
x ies</w>
writ ers</w>
wou ld-
would- be</w>
wor thin
worthin ess</w>
wild life</w>
wid ened</w>
whole sale</w>
wealth ier</w>
war heads</w>
w rec
w n</w>
virtu es</w>
vir uses</w>
vigor ously</w>
veri fication</w>
vari ed</w>
vari ations</w>
ut ter</w>
un regulated</w>
un prepared</w>
un imaginable</w>
un controlled</w>
ul ted</w>
ul es</w>
tyran ny</w>
twenti eth
turbul ent</w>
tu berculosis</w>
tro poli
tro op</w>
trivi al</w>
tre ats</w>
trav el
traum atic</w>
transform ative</w>
tou ted</w>
top ics</w>
ti tle</w>
ti n</w>
ti ers</w>
th and</w>
ta ste</w>
t ent
sur passed</w>
suprem acy</w>
supp lier</w>
sup pression</w>
sub sist
subsist ence</w>
su spects</w>
stub bor
stubbor nly</w>
stric ter</w>
stret ched</w>
stre sses</w>
ste re
stere ot
ste er</w>
stal em
stalem ate</w>
stabili zed</w>
st aff
ss ment</w>
spec ter</w>
spar ked</w>
sp her
sp aw
smugg ling</w>
skyroc ke
sk ill
sin k</w>
sie ge</w>
sid er</w>
shor ing</w>
shoc king</w>
sho es</w>
sha ky</w>
sh ut
sh ima</w>
sh i</w>
serv ation</w>
separ ating</w>
separ ately</w>
sen ators</w>
sel lers</w>
sec rec
secrec y</w>
sear ching</w>
scar cely</w>
safeguar ding</w>
s our</w>
s inc
roc kets</w>
ro iled</w>
ri min
reti re</w>
retali ation</w>
resur rec
restaur ants</w>
resolu te</w>
resha pe</w>
resemb le</w>
reli ant</w>
rel inqu
rel ating</w>
recruit ment</w>
recru its</w>
rec yc
reaffir m</w>
re warded</w>
re thinking</w>
re publics</w>
re paid</w>
re financing</w>
re es</w>
rap pro
rappro ch
rapproch ement</w>
rac ist</w>
ra inf
rainf all</w>
r allied</w>
quot a</w>
pursu es</w>
publi ci
provo king</w>
propos es</w>
promot es</w>
pro xies</w>
pro gres
prim acy</w>
prepar ations</w>
prejudic e</w>
predomin antly</w>
pre servation</w>
pre clu
pragm atism</w>
post- Soviet</w>
posse sses</w>
por no
popul ous</w>
plumme ting</w>
ple ased</w>
plan ting</w>
plan e</w>
pi vot
pi e</w>
physici ans</w>
persu ading</w>
perpetu ate</w>
per mits</w>
pen alties</w>
pe g</w>
pe er-
pat ron
pan- European</w>
pa rent</w>
p lo
over ha
ove re
out -
our th</w>
org ans</w>
or ph
open- ended</w>
op poses</w>
offic er</w>
of i</w>
od d</w>
ocr atic</w>
o gra
o do
neighbor hoods</w>
near- zero</w>
nation ality</w>
multicultur alism</w>
mu ster</w>
mis ery</w>
minim izing</w>
mini -
min es</w>
min al</w>
micro -
met als</w>
mercan ti
mer gers</w>
mee ts</w>
meaning less</w>
me tic</w>
me g
man -
mag ni
low- wage</w>
log ically</w>
lo ved</w>
lic k</w>
lic ense</w>
liber alizing</w>
li est</w>
lef tist</w>
lea f</w>
lab el</w>
l ur
jum p</w>
journ alist</w>
jihadi st</w>
ji ang</w>
jeopardi zing</w>
it ary</w>
is en
interven ed</w>
interrup ted</w>
inter generational</w>
injec tions</w>
inform ation-
infl ated</w>
inf lam
inf ants</w>
incorpor ate</w>
in door</w>
imperi alism</w>
im bu
ill er</w>
id ding</w>
i to</w>
i stry</w>
i ers</w>
hu bris</w>
hot el</w>
hom eland</w>
high- risk</w>
hesit ate</w>
har ne
ha ir
ha iled</w>
ha ble</w>
gr ace</w>
gh o
geni us</w>
gener osity</w>
ge o-
ge l</w>
fundament alism</w>
friend ship</w>
fric tion</w>
forec lo
for mali
for gi
fo witz</w>
fastest- growing</w>
fasci st</w>
fasci sm</w>
far- right</w>
f an</w>
ext inc
establi shes</w>
escal ate</w>
eradic ating</w>
er as</w>
ention ally</w>
engine ered</w>
ene y</w>
end ow
en tic
en sured</w>
en sible</w>
emb assy</w>
eman ating</w>
elev ated</w>
electr onics</w>
elabor ate</w>
ed ong</w>
ed it
eas ed</w>
e pest</w>
e gg
e gal</w>
dys function</w>
du s</w>
dri ft</w>
divi des</w>
diver gent</w>
distor ting</w>
discer n</w>
dis sid
dis information</w>
dis engagement</w>
dis closure</w>
diplom at</w>
differenti al</w>
devast ated</w>
determin es</w>
deterior ate</w>
depar tments</w>
demograph ics</w>
dec eler
dec ay</w>
de ser
de s
de eds</w>
d rones</w>
curricul a</w>
cou ldn</w>
corporate- tax</w>
coo king</w>
contradic tion</w>
cont ing
con sensu
compreh end</w>
compla in</w>
commun al</w>
comm emor
com pares</w>
coll ar</w>
co oling</w>
co ol</w>
clo ck</w>
clean- energy</w>
cla shes</w>
chemic als</w>
cha otic</w>
cha ir</w>
catch -up</w>
c it
c ence</w>
bur ned</w>
broad ening</w>
bo ast</w>
bi ome
battle field</w>
basi cally</w>
bal lo
b our
b one</w>
autocr acy</w>
ati zing</w>
ati sts</w>
at tainment</w>
assur ances</w>
arti sts</w>
ar ose</w>
ar i</w>
ar d-
appropri ately</w>
ap plau
antibio tic</w>
anti- immigrant</w>
anonym ous</w>
an ian</w>
am a
all ying</w>
align ment</w>
aggrav ated</w>
adv ent</w>
administ ered</w>
adap ting</w>
abu sed</w>
abrup t</w>
ab ound</w>
a ven
a is
a ides</w>
Z edong</w>
Wol fowitz</w>
W ay</w>
W al
W ah
Vien na</w>
Tibet an</w>
Te h
So li
Sch röder</w>
SD R
S tu
Ri o</w>
Rem ain</w>
R evolutionary</w>
Publi c</w>
Protec tion</w>
Pra desh</w>
Po st</w>
Per sian</w>
P y
Mc Kin
M i
Liber ation</w>
Li thu
Len in</w>
L A</w>
Keyne sians</w>
H F
Gü len</w>
Gu at
G ra
Frank fur
F ourth</w>
Eura sia</w>
Est onia</w>
Democr acy</w>
De al</w>
DP J</w>
D am
Croati a</w>
Commun ism</w>
Chernoby l</w>
Ch il
Ch eney</w>
CC S</w>
C R
Bo ston</w>
Ban non</w>
Alban ia</w>
Ag ainst</w>
Afri can-
A th
8 ,000</w>
5 4</w>
2. 6</w>
ń ski</w>
z om
z en</w>
y ński</w>
y u
writ e-
worris ome</w>
with drew</w>
wa ke
vis iting</w>
vi o</w>
vi c</w>
venge ance</w>
vari ant</w>
us age</w>
uniqu é</w>
uni form</w>
under go</w>
un usually</w>
un t</w>
un rav
un even</w>
u tive</w>
twentieth -
twentieth- century</w>
tro ika</w>
trea sury</w>
transi tional</w>
tot aling</w>
tiv ity-
ti fy</w>
the or
th west</w>
temp ting</w>
tele phone</w>
te ar</w>
sur gical</w>
sub mit</w>
su ffice</w>
stro ke</w>
str ing</w>
sto len</w>
sto king</w>
stif ling</w>
ster ling</w>
stando ff</w>
st es</w>
spo kes
sp ill</w>
sp ared</w>
sp are</w>
sovereig ns</w>
small -scale</w>
sla very</w>
sla shed</w>
ske wed</w>
si le</w>
si an-
show down</w>
shi pping</w>
shi eld</w>
sha ken</w>
sh al</w>
sexu ality</w>
sever ity</w>
sett lers</w>
se gre
sc or
sav vy</w>
sal ary</w>
s way</w>
s light</w>
s at</w>
s ap
s ample</w>
s ab
rin ge</w>
rep lied</w>
renewable- energy</w>
ren tal</w>
religi ons</w>
reli eve</w>
regre t</w>
referen da</w>
red und
recover ies</w>
reas se
re taining</w>
re st
re dress</w>
rati fy</w>
ran kings</w>
puni shing</w>
pu t
psychi at
provoc ative</w>
protec tive</w>
promin ence</w>
proced ure</w>
pro- growth</w>
pro pe
prope l</w>
premi a</w>
pre condition</w>
power house</w>
posse ssion</w>
policy -
pla in</w>
per mitting</w>
pen sioners</w>
pe d
p raised</w>
p able</w>
ow es</w>
over valued</w>
ou ster</w>
orig inated</w>
ori um</w>
olo gi
ol ly</w>
off setting</w>
off ense</w>
o u</w>
nutri tional</w>
not -
normali ze</w>
non- tradable</w>
non sense</w>
negli gible</w>
nav y</w>
nation alistic</w>
n ascent</w>
mur ders</w>
mp ed</w>
moun tain</w>
mot or</w>
mosqu it
mor at
morat orium</w>
moderni zing</w>
min um</w>
mi x
mer cy</w>
ment ed</w>
me try</w>
market place</w>
margin alization</w>
mar ch</w>
m ile</w>
long- range</w>
lobby ists</w>
life styles</w>
lic en
legitim ized</w>
lec ture</w>
le um</w>
land mark</w>
la x</w>
la st-
l ingly</w>
kov sky</w>
ko v</w>
knowled ge-
journ als</w>
job -
j ar
is i</w>
ir onic</w>
inv itation</w>
intru sive</w>
intoler able</w>
internation alization</w>
intermedi aries</w>
instruc tive</w>
inj ustices</w>
inflic t</w>
inf ant</w>
inclin ation</w>
in appropriate</w>
impul se</w>
il le</w>
id al</w>
hypo the
hur ts</w>
humili ating</w>
hope ful</w>
ho sts</w>
hegem on</w>
he li
haz ards</w>
harmon y</w>
hard ware</w>
har med</w>
hall mark</w>
h s</w>
gre gious</w>
grass roots</w>
gl ory</w>
gi ft</w>
gal van
g lar
full- fledged</w>
fu ge
fran ch
fra med</w>
formul ated</w>
foot print</w>
fish eries</w>
fis cally</w>
fin es</w>
fe eding</w>
fav oring</w>
farm land</w>
farm er</w>
fant asy</w>
f es
experim ental</w>
exce eding</w>
evi den
ev ity</w>
ev es</w>
eth os</w>
escap ed</w>
es p
erup t</w>
en vy</w>
en e</w>
en demic</w>
en countered</w>
emplo ying</w>
empi res</w>
embol d
eigh teenth</w>
egg s</w>
econom y-
echo slo
ec utive</w>
e- collar</w>
e z</w>
e ting</w>
e ter
e gregious</w>
du p
dor kovsky</w>
do gs</w>
diversi fied</w>
dissid ents</w>
dis orderly</w>
direc ting</w>
di um</w>
develop s</w>
deple ted</w>
den ounced</w>
demonstr ation</w>
deli vers</w>
dela ying</w>
defi ance</w>
decade s-
decade -
de x</w>
de tain
de sert</w>
d ust</w>
d ental</w>
cyn icism</w>
cy -
crum bling</w>
cru el</w>
crow ds</w>
coun ting</w>
convers ations</w>
conver tibility</w>
conver ted</w>
conver t</w>
conver sion</w>
conveni ence</w>
conven ed</w>
contex ts</w>
contempl ate</w>
cont end</w>
consoli dating</w>
condi tioning</w>
concep tion</w>
con sp
con grat
con ferences</w>
complic ations</w>
comple tion</w>
comparis ons</w>
communic able</w>
commun ists</w>
collabor ative</w>
coffe e</w>
coerci on</w>
co dependency</w>
clean ing</w>
cle ar-
ci ans</w>
chur ch</w>
cho red</w>
child birth</w>
chem istry</w>
chauv inism</w>
ch e</w>
cancel ed</w>
c iting</w>
bul let</w>
buff er</w>
bran ches</w>
bo sses</w>
bo on</w>
bi polar</w>
bi ases</w>
ba i</w>
b ind</w>
b idding</w>
att ached</w>
at tained</w>
associ ations</w>
as pi
articul ated</w>
any more</w>
antagon ism</w>
ance stors</w>
an chored</w>
am eli
alu minum</w>
ai res</w>
advanced- country</w>
admir ation</w>
ad mi
ad am
acknowled ges</w>
acc using</w>
abund antly</w>
abstr act</w>
ab ao</w>
Y es</w>
W illi
W i
Trea suries</w>
Teh ran</w>
St al
Sor os</w>
Soli darity</w>
Ser vice</w>
Sen egal</w>
Sci ence</w>
Salv ador</w>
Represent ative</w>
Re fuge
R E
Ox ford</w>
N av
N C</w>
Mu eller</w>
McKin sey</w>
M un
M ili
M ec
M BS</w>
Lib eral</w>
Kho dorkovsky</w>
Kacz yński</w>
K ofi</w>
Ji abao</w>
I t</w>
I II</w>
I C</w>
Himalay an</w>
Guat em
Govern ment</w>
Govern ing</w>
G ore</w>
G CC</w>
Frankfur t</w>
Fi ve-
FS B</w>
F BI</w>
Ex ecutive</w>
Euro- Atlantic</w>
EM U</w>
E d
Du bai</w>
De b
D mit
Cz echoslo
Commun ists</w>
Catal onia</w>
C ur
C O</w>
C M
Bar ro
B ah
An tar
Ad ministr
Ad am</w>
A li
3 D</w>
193 3</w>
1 40</w>
0. 6</w>
- wide</w>
zom bi
z h
z ai</w>
your self</w>
y st
wo efully</w>
wi sh
we ar</w>
w aging</w>
vo c</w>
vil i</w>
vi vi
vari able</w>
ut op
us ory</w>
ur ging</w>
up set</w>
under ing</w>
und ru
un checked</w>
umb rella</w>
u she
ushe red</w>
tu ous</w>
tu de</w>
tt es</w>
transc end</w>
tra ins</w>
tr uc
tor tured</w>
tic -
ter rain</w>
te eth</w>
tax ing</w>
tap ped</w>
tap e</w>
tan k</w>
tal e</w>
tac tic</w>
t ently</w>
susp end</w>
surve yed</w>
super powers</w>
sup plying</w>
sub- Saharan</w>
stra pped</w>
ste am</w>
stat ure</w>
st ating</w>
spontane ous</w>
spons ors</w>
spe aker</w>
sp ell</w>
some time</w>
small holder</w>
sli m</w>
sk ir
sion ist</w>
sin king</w>
simp listic</w>
si vity</w>
si ves</w>
short sighted</w>
servic ing</w>
separ atist</w>
sent enced</w>
seem ing</w>
se izing</w>
se iz
scru tin
scre ens</w>
scrat ch</w>
sc aling</w>
sadd led</w>
s ons</w>
s ms</w>
s em
s burg</w>
s am
ro yal</w>
risk ier</w>
rich et</w>
ri dic
reti rees</w>
resur gence</w>
resp ecting</w>
reserv ations</w>
ren t-
remin is
reminis cent</w>
rem embe
remembe red</w>
releg ated</w>
regul ator</w>
real m</w>
re tren
re iter
raz y</w>
radi ation</w>
rac onian</w>
publi sh</w>
prosecu ted</w>
promp tly</w>
promp ting</w>
produc tivity-
process ed</w>
pro- democracy</w>
pro gre
pri t</w>
preh ensive</w>
prece ding</w>
pre- industrial</w>
pre matu
prematu rely</w>
practic ing</w>
practi tioners</w>
post uring</w>
popul ated</w>
plu tocr
pivot al</w>
pil es</w>
pi ent</w>
ph ant</w>
perio dic</w>
per -
pe tition</w>
patron age</w>
pass eng
pas sion</w>
p leasure</w>
p ap
over heating</w>
oun cing</w>
ou ter</w>
ou sted</w>
ose vic</w>
opport un
op ponent</w>
one self</w>
of ten-
ocr acy</w>
occup ying</w>
occup y</w>
obser ver</w>
ob jected</w>
now -
ni shed</w>
ne ur
nativi st</w>
mus cle</w>
mor ale</w>
misu se</w>
mir ac
mili tari
mil est
mig rate</w>
metri cal</w>
meth ane</w>
merchan di
merchandi se</w>
mer ly</w>
measu rement</w>
me tal</w>
me se</w>
me as
meas les</w>
may hem</w>
mas sively</w>
mar king</w>
man t</w>
malig n</w>
macro -
m ac
loo sen</w>
long evity</w>
log istics</w>
lobb ies</w>
lo cu
lingu istic</w>
lif eration</w>
li br
lev y</w>
leg ality</w>
le tters</w>
le ge</w>
lac ed</w>
labor atory</w>
labor at
la sts</w>
la im</w>
l ance</w>
ke red</w>
k er
j unc
j ailed</w>
it ate</w>
isolation ism</w>
ir i</w>
inv iting</w>
inv ading</w>
intere st
int entionally</w>
insul t</w>
inst all
influ ences</w>
inf am
inci pient</w>
incar cer
inc en
in ject</w>
in ate</w>
im partial</w>
ill usory</w>
ill es</w>
il ton</w>
il legitimate</w>
ignor ant</w>
ig ital</w>
ideolo gies</w>
ide n</w>
ic king</w>
i sh
hypo thesis</w>
hus band</w>
hot els</w>
home ini</w>
hom as</w>
holi day</w>
ho listic</w>
histor ies</w>
hi ding</w>
heavi er</w>
head line</w>
ha voc</w>
ha sn</w>
gu ese</w>
gre eted</w>
gra vit
gra sp
good will</w>
gi bility</w>
gare t</w>
g ender-
g au
full- scale</w>
fro zen</w>
forgi veness</w>
for merly</w>
for ci
fle et</w>
fl ying</w>
fertiliz er</w>
favor ably</w>
f ren
f law</w>
f itting</w>
exp elled</w>
exist ent</w>
exam ination</w>
ev ening</w>
euro- zone</w>
eu ph
er o</w>
equ ation</w>
ep ic
environment alists</w>
ent agon</w>
enfor ce
enforce able</w>
end ants</w>
ence- building</w>
emplo ys</w>
em pathy</w>
eli gibility</w>
eg alitarian</w>
dra stically</w>
dra gging</w>
down grade</w>
dispos able</w>
discrimin ate</w>
discre tionary</w>
dis d
dig it
die sel</w>
di ets</w>
deman d-
decreas ing</w>
dec eption</w>
deal ings</w>
de tention</w>
de epest</w>
cur tail</w>
cultiv ate</w>
coun sel
correc ted</w>
cor rid
cor responding</w>
coordin ating</w>
conven tions</w>
conve y</w>
contrac tors</w>
construc ting</w>
constitu tions</w>
consp ic
confid ence-building</w>
conf ig
condem nation</w>
con undru
complic ating</w>
compla int</w>
compe ten
comb ines</w>
coc aine</w>
co w</w>
clu bs</w>
clean er</w>
classi fied</w>
class rooms</w>
clari fy</w>
cigare ttes</w>
ci sm</w>
ci o</w>
chi ps</w>
che ating</w>
charis matic</w>
cha irs</w>
cere mony</w>
ce l</w>
ce ase</w>
car to
capit alized</w>
calam ity</w>
c ers</w>
c ate</w>
burea uc
bu ried</w>
broad cast</w>
bri bes</w>
brea th
bra in
bot t
bor ing</w>
blo ated</w>
bl ur
bio fuels</w>
bi -
belli ge
be ts</w>
be low-
be aten</w>
bat tery</w>
ban ds</w>
b right</w>
b al</w>
b ai
automob iles</w>
attribu tes</w>
at test</w>
astr on
aston ishing</w>
asser tiveness</w>
ash vili</w>
asc end
arm s-
ari th
ar ts</w>
anti- Western</w>
and ering</w>
an ced</w>
ak ashvili</w>
ai ded</w>
aggrav ate</w>
after -
ado lesc
adhe rence</w>
adequ acy</w>
ad mitting</w>
ad h
accompan ying</w>
abrup tly</w>
ab duc
ab ated</w>
a wat
a w</w>
a uc
Z ar
Yemen i</w>
U ri
Th ree</w>
TF P</w>
T ro
T richet</w>
T ig
T homas</w>
Sino- American</w>
Sil vio</w>
Sa akashvili</w>
S ik
Pro liferation</w>
Prin ce</w>
Pr inci
Portu guese</w>
P entagon</w>
Nor dic</w>
N ie
Mur do
Mil osevic</w>
Mec ca</w>
Mar kets</w>
Mar ine</w>
Mar garet</w>
Maced onia</w>
Lithu ania</w>
Lib yans</w>
L ou
Kor an</w>
K homeini</w>
In dex</w>
I n</w>
I N
Hom o</w>
Haye k</w>
Gu ang
Georgi an</w>
Five- Year</w>
F ide
Econom ics</w>
EU- 15</w>
E mer
D igital</w>
D ata</w>
D A</w>
Czechoslo vakia</w>
Col lege</w>
Bur mese</w>
Barro so</w>
Balk an</w>
Bah rain</w>
B un
Administr ation</w>
Abkhaz ia</w>
A ri
9 2</w>
7 7</w>
6 1</w>
5 .5</w>
4. 7</w>
20 -
198 4</w>
1 3
- sharing</w>
- country</w>
, 500</w>
work ings</w>
wor n</w>
won dering</w>
win ding</w>
wil dly</w>
wide -
wi st</w>
wi den</w>
wh olly</w>
wel coming</w>
weigh ing</w>
wea kest</w>
wake -up</w>
wa i
w ound</w>
w aged</w>
volum es</w>
vo ic
vit ality</w>
vis itors</w>
vis as</w>
vi sionary</w>
vi rul
v or
v ain</w>
uti lity</w>
ush er</w>
use fulness</w>
ur a</w>
uni tion</w>
undeni able</w>
un wanted</w>
un veiled</w>
un know
un just</w>
ul arly</w>
tum n</w>
tru st
tri ple</w>
tri c</w>
toc ols</w>
to ken</w>
tigh tened</w>
ti ve-
ti sts</w>
ti k</w>
thwar t</w>
though ts</w>
therap ies</w>
tax i</w>
tar ies</w>
t wist</w>
t ops</w>
t ness</w>
t estim
testim ony</w>
t all</w>
syn dro
swi f
swif tly</w>
suspici ons</w>
sur ged</w>
supp le
sup poses</w>
sugg es
succumb ed</w>
succe eding</w>
sty mi
stu ff</w>
stif le</w>
stic ks</w>
start- up</w>
st ati
spillo ver</w>
spher ic</w>
spectac le</w>
sp ect</w>
sol vency</w>
slau ghter</w>
skep tic</w>
siz eable</w>
si pr
sipr as</w>
short falls</w>
sho p</w>
sho ot</w>
sha ke</w>
sh u
sh ops</w>
sh enko</w>
set back</w>
sen ds</w>
sel ine</w>
sel fish</w>
secu ri
se ed</w>
scri pt</w>
scram ble</w>
sc aled</w>
sanc tu
sacrific es</w>
s thand</w>
s sions</w>
rol led</w>
roc ket</w>
ro ck</w>
ro bu
ri gged</w>
ri fu
ri ft</w>
ri fe</w>
rhetor ical</w>
reven ge</w>
retro spect</w>
retren ch
retrench ment</w>
retail ers</w>
restra ined</w>
restaur ant</w>
respec table</w>
requ ests</w>
repe ating</w>
reloc ate</w>
reli ev
referen ces</w>
recur ring</w>
reconc iled</w>
reali g
re- elected</w>
re viewed</w>
re public</w>
re invent</w>
rali zation</w>
radic alism</w>
ra pe</w>
r allying</w>
question able</w>
pu mp</w>
provoc ation</w>
prote ins</w>
prosecu tors</w>
prophec y</w>
profli gate</w>
pro- cyclical</w>
prin ted</w>
prejudic es</w>
predic ts</w>
preced ents</w>
pre supposes</w>
pre datory</w>
practic ed</w>
porno graphy</w>
pollu ted</w>
poli tik</w>
poli cem
po t</w>
ple te</w>
plan ted</w>
pl ague</w>
phenomen a</w>
pha sed</w>
persist ently</w>
per mis
pe tty</w>
par ks</w>
par ame
pan els</w>
pa y-
pa ved</w>
p ne
pne um
ox y
ow ning</w>
overwhel m</w>
over taken</w>
ou trage
op holes</w>
ol era</w>
occup ational</w>
observ ation</w>
no vation</w>
nee d
nation wide</w>
nation als</w>
narrow ed</w>
n ud
n ate</w>
munici p
mosqu ito</w>
mor ning</w>
mix ture</w>
misp laced</w>
min eral</w>
mili tary-
ment ary</w>
ment ality</w>
mel ting</w>
medi ocr
mechan ical</w>
me tropoli
mar ched</w>
man dated</w>
lou dly</w>
loo p</w>
long- overdue</w>
local- government</w>
lo opholes</w>
lifel ong</w>
life- saving</w>
lib aba</w>
li fication</w>
leg acies</w>
lef t-
le ans</w>
laborat ories</w>
la yer</w>
la undering</w>
la ke</w>
l un
l on
kil ogra
kick -
kick- start</w>
ki ds</w>
kak u</w>
k un
k le</w>
k ened</w>
k an
jour nal</w>
j ury</w>
it a</w>
isolation ist</w>
irri gation</w>
ir re
inv ite</w>
intervention ist</w>
interest ingly</w>
inter dependent</w>
insu rers</w>
instinc t</w>
inqu iry</w>
inju ries</w>
inju red</w>
inher it
inf late</w>
ineffici encies</w>
indic es</w>
indic ations</w>
indic ating</w>
income- tax</w>
inc ur</w>
in stantly</w>
in ep
in adver
import ers</w>
implic itly</w>
imp acts</w>
im moral</w>
ili tating</w>
il y-
icro bial</w>
i z</w>
humili ated</w>
hor se</w>
hope less</w>
high s</w>
heart land</w>
he ter
he aling</w>
happ ily</w>
han gs</w>
ham pered</w>
great ness</w>
gr ounded</w>
go ssi
gli mp
gl ori
gl om
gir l</w>
ger y</w>
gene ous</w>
ge tic</w>
g ous</w>
g ling</w>
g in</w>
frustr ations</w>
formul ating</w>
foreign- currency</w>
fore see</w>
fir sthand</w>
financi ers</w>
fif ths</w>
feder alism</w>
fam ily-
fall acy</w>
f illing</w>
extra pol
exam ining</w>
ex u
ex trac
ex o
ex changing</w>
er- in-
epic enter</w>
entit lement</w>
enri ching</w>
eng ul
en ess</w>
en acting</w>
embrac es</w>
embo dy</w>
em it</w>
economic- policy</w>
ec raft</w>
ec ki</w>
duci ve</w>
du p</w>
dro ps</w>
dri lling</w>
diver sion</w>
dist ort</w>
diss emin
disp at
disd ain</w>
discre pan
dis solution</w>
dis m</w>
dis comfort</w>
dis affected</w>
dis ability</w>
devi sed</w>
determin ant</w>
deterior ated</w>
deter red</w>
desi res</w>
desc ent</w>
der ailed</w>
der ail</w>
depreci ated</w>
defini tive</w>
decarbon ization</w>
dec im
de spo
de lusion</w>
de fuse</w>
d war
d raconian</w>
d ent
cur s
culmin ated</w>
cul turally</w>
cul prit</w>
cu t
cru el
criter ion</w>
crip pling</w>
coun cil</w>
conundru m</w>
contrac ted</w>
constra ining</w>
consoli dated</w>
congrat ul
conclu ding</w>
conce de</w>
con tested</w>
con qu
con g
con ducive</w>
compu ting</w>
comple ting</w>
comp ounds</w>
commun ity-
common place</w>
combat ants</w>
co lo
character ize</w>
cha m
ch olera</w>
ch i</w>
cent rifu
cat ching</w>
cap -and-
cap-and- trade</w>
campaig ned</w>
ca us
c razy</w>
c ents</w>
c as
bur n</w>
bul ly</w>
bra ins</w>
bord er
bo ss</w>
black ma
bench marks</w>
belong s</w>
beg g
back grounds</w>
b und</w>
b ric
b out</w>
b o</w>
b ering</w>
attend ance</w>
ati ze</w>
athle tes</w>
asym metric</w>
ass an</w>
as sure</w>
as ement</w>
articul ate</w>
archit ect</w>
arch ies</w>
arbitr ation</w>
ar ticles</w>
ap p</w>
ap a
any body</w>
analy ses</w>
analo gous</w>
an om
amm unition</w>
ameli or
ambi que</w>
am mar</w>
am enable</w>
alloc ations</w>
al tered</w>
al as</w>
affor ded</w>
afflic ted</w>
adverti sers</w>
adju dic
adh ering</w>
ad versary</w>
accur acy</w>
ac company</w>
a verse</w>
Z ha
Z h
Ya su
Xin jiang</w>
W omen</w>
W in
W ik
Venezuel ans</w>
V I</w>
Uri be</w>
Ta x</w>
T sipras</w>
T el</w>
T ar
Sy stem</w>
Su u</w>
St and
St .</w>
SC E</w>
S trip</w>
S T
Ra j
R oc
Pro ject</w>
Poli tics</w>
Pe res</w>
P op
O P</w>
Non- Proliferation</w>
Ne w
Naz ism</w>
N ext</w>
N ature</w>
N ation
N am
Muslim- majority</w>
Mu ammar</w>
Moz ambique</w>
Moham med</w>
Mexic ans</w>
Mass ach
Manch ester</w>
ME NA</w>
M ul
M en
M el
M IT</w>
M F
M -
Le on
L or
L ev
L ag
Ky i</w>
K oh
K ah
Jour nal</w>
J ud
I cel
Hiro shima</w>
Har ry</w>
Ham ilton</w>
HI V-
H ou
H indu
H assan</w>
G il
G h
G am
Fo x</w>
Fide l</w>
F ili
F .</w>
F -
E vo</w>
Deb t</w>
D ream</w>
D ie
D ani
Corpor ation</w>
C ent
C N
BR CA
Azer bai
Ad vis
A viv</w>
A tom
A libaba</w>
A O</w>
9 9</w>
8 1</w>
7 1</w>
4. 8</w>
4 9</w>
3. 6</w>
2. 2</w>
195 3</w>
195 1</w>
193 1</w>
12 th</w>
,0 00-
&apos; a</w>
wish ful</w>
wis er</w>
will ingly</w>
wide- ranging</w>
whe at</w>
wh it
weigh ted</w>
we dge</w>
warri ors</w>
war mer</w>
war d
ward ship</w>
wan ing</w>
vis a</w>
vill agers</w>
view ers</w>
ver ted</w>
vege tables</w>
var ying</w>
v on</w>
v ag
utili ties</w>
use t
uset ts</w>
up ris
upris ings</w>
unrav eling</w>
univers ally</w>
und ay</w>
un warranted</w>
un related</w>
un necessarily</w>
un iting</w>
un expec
unexpec tedly</w>
un democratic</w>
un ci
um en</w>
ul ing</w>
u ously</w>
tru ths</w>
trick y</w>
tre ach
travel ers</w>
tran ts</w>
top pled</w>
tion alism</w>
tigh tly</w>
ti f
thir ty</w>
therap eu
the astern</w>
tex ts</w>
ten ets</w>
tap ping</w>
take over</w>
tain ted</w>
tac it</w>
ta g</w>
t our</w>
t ent</w>
swe ep</w>
surpris es</w>
sur ance</w>
super fic
sup pressing</w>
sum mits</w>
suic idal</w>
subsidi ze</w>
subordin ate</w>
sub prime</w>
sub mission</w>
sub jec
sub du
strong men</w>
stri kingly</w>
stri des</w>
stret ching</w>
stra ined</w>
sto ke</w>
sti pul
sti ble</w>
ste wardship</w>
startu ps</w>
sta ve</w>
st ness</w>
st atic</w>
squee zing</w>
squee ze</w>
speci alization</w>
sp illed</w>
sof t-
so ber</w>
sn ap</w>
sm alle
smalle st</w>
slog ans</w>
sion er</w>
sinc ere</w>
shut down</w>
short -</w>
sho gg
shogg i</w>
shat tered</w>
sha king</w>
sevente en
sequ ence</w>
sen ator</w>
self- reinforcing</w>
school children</w>
sch e</w>
s tion</w>
s ements</w>
s ali
s ag
rup ture</w>
row s</w>
ro ck-
ri ger
retro viral</w>
resum ed</w>
resha ping</w>
ren dering</w>
reli ably</w>
reli ability</w>
rel s</w>
regi ster</w>
regain ing</w>
ref riger
ref er</w>
redistribu tive</w>
recapit alization</w>
re sumption</w>
re plete</w>
re new</w>
re bu
ration ally</w>
ran dom
ra m
ra ging</w>
r ina</w>
qu it</w>
qu ell</w>
qu ag
prud ence</w>
prop elled</w>
pron oun
promp t</w>
pro tocols</w>
primar ies</w>
presum ed</w>
premi er</w>
pre y</w>
pre emin
posse ssing</w>
posi tively</w>
pol y
po ster</w>
plas tic</w>
pla y
pil ot</w>
pil gri
physi cally</w>
pes ticides</w>
pen alize</w>
pass age</w>
parano id</w>
paraly zing</w>
pan demics</w>
pan demic</w>
p ending</w>
p aci
ow ns</w>
out lined</w>
out going</w>
ous ed</w>
our ing</w>
ore rs</w>
op pressive</w>
op ium</w>
on able</w>
oil- producing</w>
ob sc
ob jects</w>
nur ses</w>
nu anced</w>
nor theast</w>
non- nuclear</w>
neutra li
ne st</w>
natural- resource</w>
n ine-
municip alities</w>
mudd le</w>
moun ted</w>
monit ored</w>
mon wealth</w>
mo de</w>
missi le-
migr ated</w>
medi ev
me work</w>
man tle</w>
magaz ine</w>
mac ro</w>
ma ps</w>
ma fi
low- skill</w>
log is
lo ses</w>
lo ser</w>
lo gists</w>
lo ad</w>
lif ies</w>
leg s</w>
le vi
law- enforcement</w>
lam ent</w>
lag ged</w>
lab orers</w>
l ens</w>
kun i</w>
k ud</w>
k ia</w>
k ering</w>
job lessness</w>
jo ke</w>
jiha di</w>
ir o</w>
invo ke</w>
invent ory</w>
intimid ation</w>
inter locu
instruc tions</w>
institu ted</w>
inst all</w>
inherit ance</w>
ing er</w>
incur sions</w>
incredi bly</w>
inc ol
inc ited</w>
in valuable</w>
in stances</w>
in hab
implo sion</w>
imm unity</w>
illustr ate</w>
igh ting</w>
ide alism</w>
i res</w>
human- induced</w>
honest y</w>
hol low</w>
high- speed</w>
high- profile</w>
heli um</w>
he t</w>
he a
ham mad</w>
ha bi</w>
h r
h an</w>
gro ssly</w>
gran di
gra ss</w>
glob al-
gest ures</w>
gener ic</w>
fuel -
frustr ating</w>
fron tiers</w>
free ing</w>
fre sh
frac turing</w>
fra ught</w>
fore sight</w>
for- profit</w>
fo reg
fo oth
fl ames</w>
figh ter</w>
fig ured</w>
fier cely</w>
ff ed</w>
feren tial</w>
feat ured</w>
fam ine</w>
fail ings</w>
facilit ates</w>
f lights</w>
f ers</w>
f ade</w>
export- oriented</w>
ex propri
ex posing</w>
ex act</w>
ev ille</w>
enrol led</w>
enhan ces</w>
ener gies</w>
endor se</w>
end game</w>
en trants</w>
en ary</w>
emergen cies</w>
electri fication</w>
educ ating</w>
ed itors</w>
economy- wide</w>
ear l</w>
e ty</w>
e tary</w>
e ste
dup lic
dro pping</w>
dor mant</w>
dollar -denominated</w>
distor tion</w>
distingu ished</w>
dist an</w>
dish on
disen chan
dis satisfaction</w>
dis credit</w>
digi tization</w>
differenti ated</w>
differenti als</w>
detec ted</w>
dest ag</w>
desp eration</w>
deep- seated</w>
dec ei
deb ilitating</w>
de tained</w>
de partment</w>
dam s</w>
da shed</w>
d ding</w>
d are</w>
curtail ing</w>
cur se</w>
culmin ating</w>
cu tt
crip pled</w>
cri tically</w>
credit worthiness</w>
cre ators</w>
cra fted</w>
cr yst
coura ge
correc ting</w>
cor ro
cop ing</w>
continu ally</w>
cont acts</w>
consul tations</w>
conserv atism</w>
consci ously</w>
conf using</w>
conclu des</w>
conce ded</w>
conc ession</w>
con science</w>
commis sioned</w>
comm uniqué</w>
combu stion</w>
coloni alism</w>
coinci ded</w>
co al
clean sing</w>
circul ation</w>
cir cu
chi p</w>
charac ters</w>
char ity</w>
ch est</w>
ch arities</w>
celebr ated</w>
ce- based</w>
ce de</w>
cap turing</w>
cap tain</w>
campaig ners</w>
c ows</w>
c asc
bureauc rac
burden some</w>
buil dup</w>
bro kers</w>
bre ath</w>
bran ds</w>
boo k
bol stered</w>
bol der</w>
bo de</w>
ber y</w>
ba seline</w>
b read
b other</w>
b ite</w>
b ars</w>
b ans</w>
awk ward</w>
aw ash</w>
au tumn</w>
ati can</w>
at able</w>
ast ero
asser ting</w>
arre n</w>
arith metic</w>
arch ing</w>
ar rows</w>
ar a</w>
appreci ating</w>
appear ances</w>
anxie ties</w>
antim icrobial</w>
analo gies</w>
amp lify</w>
am ped</w>
am ne
alloc ating</w>
ali tarianism</w>
al tru
agas aki</w>
after- tax</w>
advi sing</w>
ad mired</w>
acquisi tions</w>
acc use</w>
acc ess
academ ia</w>
aby ss</w>
abund ance</w>
absor ption</w>
aboli shed</w>
a es
Yasu kuni</w>
Y oun
Y ou
Wik i
Wh at</w>
WW I</w>
W el
W arren</w>
Vietn am
V s</w>
V atican</w>
US- Japan</w>
Tuni sian</w>
Trump -
Taiw anese</w>
Sunni- Shia</w>
Stand ard</w>
Slo ven
Sen kaku</w>
Sam u
SP D</w>
S unday</w>
S ix
S ho
S el
Rus sian-
Presid ent-elect</w>
Pra gue</w>
Poli t
P helps</w>
P earl</w>
P T
Or leans</w>
OM C</w>
No t</w>
No kia</w>
Nic hol
Na pole
N ai
N agasaki</w>
Mun ich</w>
Mu hammad</w>
Min ist
Medic aid</w>
Me dical</w>
Massach usetts</w>
Mar k</w>
Ma y
M id
M as
M 5
Li kud</w>
L incol
Kur distan</w>
Koh l</w>
Kha shoggi</w>
Kat rina</w>
Kar zai</w>
Kar l</w>
K abu
Ji ang</w>
Israel -
Israel- Palestine</w>
Islam ism</w>
Icel and</w>
IC T
H igh
Gu ard</w>
Ger hard</w>
Fra mework</w>
Fili pin
F OMC</w>
E FS
Do ing</w>
Dar win</w>
D Cs</w>
Com monwealth</w>
Ch ile
C N</w>
Bun destag</w>
Bri dge</w>
Bos ni
BR I</w>
B iden</w>
B M</w>
Azerbai jan</w>
Ath ens</w>
Ag ricul
A la
A ir</w>
8 00,000</w>
4 0,000</w>
3. 3</w>
3 0-
2. 1</w>
2 º</w>
198 8</w>
195 6</w>
é s</w>
ä u
zombi e</w>
z be
yp es</w>
y-to- day</w>
y pe</w>
y ad
x emb
won der
win -
wiel ding</w>
wi shed</w>
war ns</w>
war k</w>
wal king</w>
wa y
w rea
w ounds</w>
voc ally</w>
virul ent</w>
vi an</w>
ver sions</w>
ver bal</w>
ven tions</w>
van ished</w>
vali dity</w>
v indicated</w>
ur ity-
unilater alism</w>
uni polar</w>
uni fying</w>
unequi vocally</w>
under took</w>
und ers</w>
un t
un reliable</w>
un ra
unra vel</w>
un pleasant</w>
un lock</w>
un healthy</w>
un conditional</w>
ul ty</w>
u bi
ubi qu
twe et</w>
tre as
transform ations</w>
trade- offs</w>
tr insi
tr e</w>
tou rists</w>
tor -
til ted</w>
tic a</w>
ti um</w>
ti les</w>
th an-
terr and</w>
tel lingly</w>
teen agers</w>
taxpay er</w>
tain able</w>
t wee
t at</w>
t ans</w>
syndro me</w>
synchron ized</w>
syn the
sy l
sw ings</w>
sur rog
supervis ors</w>
sugges tions</w>
subdu ed</w>
stri ving</w>
strate gists</w>
strang ers</w>
stock piles</w>
stimul ated</w>
stem med</w>
ste ep
ste ad
stan ts</w>
st umb
st ap
spra w
spec tive</w>
spear headed</w>
spaw ned</w>
social- security</w>
social- media</w>
soci o-
smo ke</w>
sist er</w>
si ding</w>
shoul der</w>
short- sighted</w>
shor tly</w>
sho ok</w>
she ds</w>
shadow s</w>
sh rank</w>
sh allow</w>
self- inflicted</w>
secular ism</w>
sec urity-
schol arly</w>
sanc tioned</w>
sal v
s low-
s ar
s ad
rum ors</w>
ru ins</w>
ris ed</w>
revi sions</w>
reti red</w>
restruc tured</w>
restra ints</w>
resid ence</w>
reserv o
resent ments</w>
repu tational</w>
rent- seeking</w>
rela xed</w>
region ally</w>
ref ers</w>
recru ited</w>
rec al
reas sert</w>
re set</w>
re ply</w>
re n</w>
re mark</w>
re ining</w>
re hab
re dness</w>
ran dom</w>
rad ar</w>
ra in
quag mire</w>
qu an
qu ad
publici zed</w>
public ations</w>
prosecu tion</w>
pronoun cements</w>
prohib its</w>
program ming</w>
pro claiming</w>
pris ons</w>
pris oner</w>
prescrip tions</w>
pres sured</w>
pre ss
pre mis
pre ferential</w>
pre curs
pover ty-
pou red</w>
post- Brexit</w>
post ure</w>
pol l
pneum onia</w>
plu g</w>
pled ging</w>
ple ase</w>
piec es</w>
phot os</w>
ph ate</w>
petro leum</w>
persist ed</w>
per mission</w>
peculi ar</w>
peace keepers</w>
passeng ers</w>
pas sionate</w>
parame ters</w>
par as
par amount</w>
pan icked</w>
p y
p ie
ox id
over seen</w>
over seeing</w>
over arching</w>
ot ry</w>
ori bund</w>
ori a</w>
or gan</w>
or a</w>
opho bia</w>
op ting</w>
op ic</w>
op i
one- time</w>
on- dollar</w>
omin ous</w>
oc curren
observ ations</w>
o ath</w>
nutri ents</w>
nur turing</w>
notori ous</w>
non- profit</w>
non- existent</w>
neg atively</w>
ne red</w>
ne es</w>
national- security</w>
narrow ing</w>
n ya</w>
n ice</w>
my stery</w>
mur de
moun table</w>
mone tization</w>
mode ling</w>
missile- defense</w>
migh ty</w>
mid term</w>
ment ally</w>
mediev al</w>
medic ation</w>
massac res</w>
manife st</w>
macro prudential</w>
ma sters</w>
ma lity</w>
m our
m oribund</w>
m ates</w>
lu ster</w>
loy ment</w>
logis tical</w>
lo ss-
ll as</w>
line ar</w>
ligh ting</w>
liber ated</w>
li ties</w>
li able</w>
leg es</w>
le i
le aked</w>
le agu
leagu ered</w>
lan e</w>
l yn
l unch</w>
l led</w>
l ant</w>
l ame</w>
kri ll</w>
k nees</w>
k ick</w>
justi fies</w>
jeop ar
jeopar dy</w>
j o</w>
it z
it ative</w>
issu ers</w>
intui tive</w>
inter nationalism</w>
int an
insur rec
insul ated</w>
institu te</w>
inst alled</w>
ingredi ent</w>
ing- edge</w>
infam ous</w>
inf r
inf ighting</w>
inc ite</w>
inadver tently</w>
in trinsi
in secure</w>
in ous</w>
in conceivable</w>
impedi ments</w>
impedi ment</w>
impe tus</w>
impa ired</w>
imp lau
im pot
im porter</w>
im on</w>
illiter acy</w>
il able</w>
il a</w>
id ity</w>
hypo critical</w>
hydro carb
hydrocarb ons</w>
hy ster
hosti lities</w>
hor rors</w>
hor ror</w>
hope lessly</w>
hi red</w>
harne ssing</w>
han ging</w>
hal ved</w>
hal ting</w>
hac king</w>
habit at</w>
ha st
guerri llas</w>
grou ping</w>
gro tes
gra in</w>
gho st</w>
gh ters</w>
gest ure</w>
gen ces</w>
gau ge</w>
front line</w>
fresh water</w>
frac king</w>
foun ders</w>
forci bly</w>
for ums</w>
for t</w>
fo ol</w>
fix es</w>
fi st</w>
far- fetched</w>
fa thers</w>
fa ire</w>
f ringe</w>
f ence</w>
exu ber
extern alities</w>
explo ded</w>
exp ire</w>
exerci sed</w>
exemp t</w>
exce ed
exceed ingly</w>
ex iting</w>
ev enly</w>
ethn icity</w>
este em</w>
ero des</w>
erec ting</w>
er als</w>
er able</w>
equi p</w>
epi demics</w>
ep it
entr ance</w>
entit lements</w>
endor sing</w>
end owed</w>
em peror</w>
el- Qaddafi</w>
ed y</w>
economic- growth</w>
e u</w>
e po
e ast
du le</w>
dra fted</w>
down turns</w>
doub tful</w>
domin ating</w>
domin ates</w>
distinc tive</w>
diss em
disrup ting</w>
disillu sioned</w>
discipl inary</w>
dis sident</w>
dis missing</w>
direc tives</w>
dimen sional</w>
dict ated</w>
dic tum</w>
di stan
di li
di fied</w>
di am
devi sing</w>
detec tion</w>
detain ees</w>
dest ined</w>
deriv ative</w>
deple tion</w>
deleg ates</w>
degra ded</w>
defici ency</w>
defic it-
decade- long</w>
debt- service</w>
de value</w>
de dly</w>
de ar</w>
da y-to-day</w>
d y
d wind
cutt ing-edge</w>
custom ary</w>
cultiv ating</w>
courage ous</w>
countr y-
counter- productive</w>
cou ples</w>
cot ton</w>
cor ds</w>
cont ingent</w>
constitu ted</w>
connec tedness</w>
cong estion</w>
condem ning</w>
concep tual</w>
con sor
complac ent</w>
comp rised</w>
comman ds</w>
comman der</w>
colle ague</w>
col leges</w>
cohe sive</w>
coerci ve</w>
co m</w>
cle av
cle ar
cha sing</w>
cer vic
cep tion</w>
cel ona</w>
catastroph es</w>
car tel</w>
car ro
cam p
cali br
calcul ate</w>
ca sting</w>
ca ste</w>
c umb
c ling</w>
bureaucrac ies</w>
bur ge
bul wark</w>
buil ders</w>
bu o
bu lli
brigh test</w>
brigh ter</w>
brea the</w>
bre eding</w>
bran ding</w>
bra ke</w>
bom bed</w>
bo thered</w>
blu e</w>
blu e-collar</w>
blood shed</w>
bloc s</w>
blat ant</w>
bl unders</w>
bit ter
bir th
biome dical</w>
bin ge</w>
billion aires</w>
bi om
bet ter-
beha ved</w>
bedro ck</w>
be leaguered</w>
barri er</w>
bar bar
bankrupt cies</w>
b ic
b ble</w>
b are</w>
b ad
au ri
ato es</w>
at tainable</w>
at ers</w>
ast ounding</w>
ass er</w>
as tic</w>
as su
as sing</w>
as simil
arrog ant</w>
arm ing</w>
arbit rage</w>
approach ed</w>
appoin tments</w>
appoin ting</w>
app li
apa thy</w>
announ cing</w>
annex ed</w>
ang ering</w>
analy tics</w>
an ks</w>
an is</w>
an abe</w>
am ing</w>
al um
al lu
al ert</w>
al er
al ar
air lines</w>
ain t</w>
ag all</w>
after wards</w>
affirm ative</w>
aff ection</w>
ad ul
achi av
accommod ating</w>
acceler ates</w>
ac king</w>
ac ing</w>
aboli tion</w>
Zha o</w>
Z uma</w>
Wat anabe</w>
War saw</w>
W ith</w>
Vietnam ese</w>
V e
V ar
U zbe
U A
Syri za</w>
Strate gic</w>
Ste agall</w>
Sovie t-
Sloven ia</w>
Sec tion</w>
Sch äu
Scandinavi a</w>
S hell</w>
S en</w>
Ro go
Re form</w>
R is
Qu e
P in
P es
P aul
P ash
Osse tia</w>
O il</w>
O SCE</w>
O DA</w>
Nig er</w>
NA M</w>
N ik
Murdo ch</w>
Mit terrand</w>
Mili tary</w>
Mi ke</w>
Man aging</w>
M5 S</w>
M ob
M auri
M achiav
Lu xemb
Lincol n</w>
L ef
L and</w>
Kir ch
J os
ICT Y</w>
I ron</w>
G las
G P
G H
Environ mental</w>
EU- wide</w>
EI TC</w>
E uro</w>
E isen
E instein</w>
E EA</w>
E A
Dmit ri</w>
De ut
De puty</w>
D elt
Confuci an</w>
Com prehensive</w>
Chech nya</w>
Ch o
Cent ury</w>
CD U</w>
C .</w>
Buddh ist</w>
Bar celona</w>
B ra
B ot
B e</w>
B ay
B ash
Atom ic</w>
Anglo- Sa
An war</w>
Alex ander</w>
Ah med
Ac cords</w>
A l-
A NC</w>
A -
8 8</w>
8 3</w>
7 4</w>
7 ,000</w>
6. 7</w>
6 ,000</w>
4 1</w>
3. 7</w>
3 50</w>
200 8-
198 7</w>
197 8</w>
194 8</w>
0. 4</w>
0. 3</w>
- on</w>
- off</w>
&apos; A
zz ling</w>
zh ne
zero- carbon</w>
year ning</w>
y- neighbor</w>
xenopho bia</w>
x it</w>
x ation</w>
wonder ful</w>
won dered</w>
wi eld</w>
wh opping</w>
web site</w>
weapon ry</w>
wealth iest</w>
we aring</w>
wan ting</w>
wan e</w>
w ounded</w>
w ings</w>
w ine</w>
w ess</w>
volunte ers</w>
vo y</w>
vit ally</w>
vigil ant</w>
veter an</w>
veri fiable</w>
van ia</w>
upheav als</w>
under investment</w>
under cutting</w>
unde re
un willingness</w>
un told</w>
un successful</w>
un paid</w>
un easy</w>
un challenged</w>
um bia</w>
u b
twee ted</w>
twe ets</w>
tw in</w>
tur ings</w>
tur b
trust worthy</w>
trum pe
tru ce</w>
troub le
tribu tion</w>
trav eling</w>
transparen tly</w>
trac ed</w>
tou ched</w>
time- consuming</w>
time table</w>
ti ly</w>
tho od</w>
third- largest</w>
there after</w>
theor ists</w>
th- South</w>
th y-neighbor</w>
tex tiles</w>
ter n</w>
temp tations</w>
tan ism</w>
tan de
tande m</w>
ta res</w>
t t</w>
t ingly</w>
symboli sm</w>
syl vania</w>
swa ths</w>
sur gery</w>
substitu tes</w>
stron gh
stream line</w>
stock pile</w>
stic king</w>
sti r</w>
ster ili
states men</w>
star kly</w>
stand point</w>
stand ardi
stabili z
sta ys</w>
spectac ularly</w>
speci fied</w>
sophistic ation</w>
soci alization</w>
so ar</w>
smart phone</w>
sli pped</w>
sla shing</w>
ske t
sk y-
sion s-
shale- gas</w>
sh ine</w>
sever ance</w>
seri ousness</w>
self- defense</w>
self- confidence</w>
sel ler</w>
sel ecting</w>
seiz ure</w>
secre tive</w>
se u
se ssion</w>
se duc
scre en</w>
sc rap
sav age</w>
satelli tes</w>
sal t</w>
sab ot
s- Steagall</w>
s tics</w>
s ounding</w>
s its</w>
s che
sche dule</w>
s and</w>
ruth less</w>
robo t</w>
ro v</w>
rican e</w>
ri shing</w>
rever ber
retali ate</w>
restruc turings</w>
restra in</w>
resor ting</w>
request ed</w>
ren ounce</w>
ren d
remar ks</w>
rele asing</w>
rel ate</w>
reinvigor ate</w>
rehab ili
regain ed</w>
recover s</w>
reconc iling</w>
recei p
receip ts</w>
reali stically</w>
re training</w>
re gressive</w>
ration ing</w>
rai b</w>
ra mi
rami fications</w>
quar terly</w>
qu id</w>
qu eville</w>
pu shes</w>
pu p
pu mping</w>
propor tional</w>
produc tively</w>
pro wess</w>
pro ver
pro sy</w>
pro spective</w>
pro be</w>
primar y-
prescri bed</w>
pre sumption</w>
pr ou
prou dly</w>
post- 1945</w>
posse ssed</w>
politici zation</w>
polar ity</w>
po inte
pl umb
pione ering</w>
pi on
pion age</w>
pha ses</w>
perpetu ating</w>
per ing</w>
per il
pe di
pe d-
pat ern
pas sions</w>
pa tho
pa stor
pa redness</w>
p seu
p ig
overe x
over take</w>
over see</w>
over blown</w>
outrage ous</w>
out pac
ot ed</w>
orchestr ated</w>
on ization</w>
ob taining</w>
non- tariff</w>
non- performing</w>
non- financial</w>
neur ons</w>
ner -
negoti ator</w>
nee ding</w>
ne ys</w>
ne t-
my th
modi fy</w>
mo shenko</w>
mis calculation</w>
mili tar
milest one</w>
midd le
mid- term</w>
micro economic</w>
metropoli tan</w>
mer c
ment ing</w>
men sely</w>
mediocr e</w>
medi ator</w>
mas s-
manag er</w>
man- made</w>
m ou
m im
loo ser</w>
lo s</w>
lo oms</w>
lo a
libr ary</w>
li min
lev eling</w>
leng thy</w>
len ec
legitim ize</w>
leg alization</w>
lea ks</w>
lap ping</w>
land slide</w>
la yers</w>
la y
la is
lais se
l ls</w>
l ateral</w>
l ad
l ace</w>
kid n
k os</w>
k n
k ash
jeopardi zed</w>
j it
it em</w>
ish ingly</w>
investig ative</w>
inve sts</w>
inter- Korean</w>
inter views</w>
inter tw
inter ior</w>
insur mountable</w>
insul ate</w>
insul ar</w>
instruc ted</w>
instr umental</w>
institution alized</w>
inspec tions</w>
inj ury</w>
initi ating</w>
ini que</w>
inher it</w>
ingen uity</w>
influ encing</w>
inf ancy</w>
incumb ents</w>
in significant</w>
in put</w>
in nings</w>
in k
in ity</w>
in expensive</w>
in equities</w>
impot ence</w>
implau sible</w>
im possibility</w>
im mensely</w>
illu sions</w>
ill erson</w>
il ma</w>
il legally</w>
ideolo gically</w>
identi fies</w>
ici ans</w>
ic on
ic e
i shes</w>
i ency</w>
i ds</w>
hypothe tical</w>
hur ting</w>
hu d</w>
how er</w>
hol den</w>
high- growth</w>
hero es</w>
hec tares</w>
hear ings</w>
he ights</w>
harb or</w>
har ve
han ding</w>
half- million</w>
hac kers</w>
h its</w>
growth- enhancing</w>
grou p
grand children</w>
gr ateful</w>
glac iers</w>
geograph ically</w>
geo strategic</w>
gene tics</w>
gar ment</w>
gan g</w>
gam e-
g ig
g ates</w>
g acy</w>
fra ming</w>
fr ater
fr acti
fracti ous</w>
fo sters</w>
fo stered</w>
flu id</w>
floo ded</w>
fl ation</w>
fin gers</w>
fin ger</w>
fer vor</w>
fe eds</w>
fe e
fashi oned</w>
fa k
f om
f o</w>
f end</w>
f ati
fati gue</w>
f altering</w>
extra vag
ext ingu
explo red</w>
ex presses</w>
ex or
ex ha
evol ves</w>
eviden ce-based</w>
es pionage</w>
es che
es a
eng en</w>
ener getic</w>
endow ments</w>
encoura gement</w>
en voy</w>
en compas
en cla
emo tionally</w>
emis sions-
embo dies</w>
em e
el d
eag erly</w>
e h</w>
duc k</w>
drow ning</w>
dri ed</w>
diver ted</w>
diver gences</w>
div ine</w>
distr act</w>
dispute- settlement</w>
dispute- resolution</w>
disman tle</w>
discre tion</w>
dis entang
dis close</w>
dis ab
dilem mas</w>
dil u
di su
devi l</w>
deter ring</w>
demo li
deliber ations</w>
defa ulted</w>
dec or
dec eptive</w>
dec e
de tri
de t
de served</w>
de press</w>
de port
de l
dau ghters</w>
datab ase</w>
dar i</w>
dam p
da wn</w>
d- the-
d al</w>
cu shi
cru shed</w>
critici zing</w>
critici sms</w>
cri tic</w>
counter weight</w>
counter act</w>
cosmopoli tanism</w>
cop y
conver ting</w>
conven e</w>
contradic ts</w>
contradic t</w>
continu ously</w>
consumer -
consci ousness</w>
conclu sive</w>
conceiv ably</w>
complic ate</w>
communic ating</w>
collec ting</w>
co vers</w>
clo thing</w>
clo sures</w>
cli ent</w>
cler ical</w>
cla uses</w>
char ter</w>
channe ling</w>
chan ger</w>
chan cellor</w>
cha ired</w>
ch illing</w>
cervic al</w>
cat ches</w>
cash- strapped</w>
car ing</w>
capit alization</w>
ca usal</w>
c ils</w>
bul lying</w>
bul lets</w>
bu ys</w>
bu c
broad ened</w>
bott lenec
bot tle</w>
bo l</w>
bo asts</w>
block ade</w>
bitter ness</w>
big otry</w>
bi tion</w>
bi otechnology</w>
betra yed</w>
belong ing</w>
beh in
begg ar-
beggar- thy-neighbor</w>
be red</w>
be holden</w>
batt ling</w>
bas tion</w>
ban ning</w>
back stop</w>
ba g</w>
b ury</w>
b read</w>
b or</w>
b iting</w>
b bing</w>
b ag
awa iting</w>
autocr acies</w>
au sp
atten ding</w>
att achment</w>
ato p</w>
ati ve-
astero id</w>
ast ly</w>
asser tions</w>
aspir ation</w>
aris en</w>
ar ist
ar de</w>
app alling</w>
ap or
anticip ation</w>
anti- democratic</w>
anti- European</w>
anti- American</w>
anti- Americ
anti-Americ anism</w>
annu alized</w>
ani mo
analy zed</w>
amend ments</w>
alum ni</w>
alternati vely</w>
all- out</w>
all y-
ali tion</w>
alarm ingly</w>
al- weapons</w>
al y</w>
age- old</w>
ag ile</w>
adhe rents</w>
addic tive</w>
ad ers</w>
acro ss-
accep ts</w>
aboli sh</w>
ab normal</w>
a ire</w>
a b</w>
Zion ism</w>
Yu kos</w>
Y ale</w>
Wor k</w>
We ap
W ill</w>
V ol
V ir
V AT</w>
Uni versal</w>
UN IC
UNIC EF</w>
Ty moshenko</w>
Tam il</w>
T w
T illerson</w>
St ar
Sil va</w>
Si ber
Sha h</w>
Ser bs</w>
Ser b</w>
Schäu ble</w>
Sch engen</w>
Sau d</w>
San tos</w>
SDR s</w>
S to
Ro dri
R ight</w>
Prote stant</w>
Pan el</w>
Pakist anis</w>
P ot
P atri
P R</w>
P LA</w>
O n</w>
O kin
Nichol as</w>
Nav y</w>
N i
N B
Mone y</w>
Mob il</w>
Mic hel</w>
Mao ist</w>
M az
M an</w>
M agh
M P</w>
M GI</w>
Luxemb our
Lag arde</w>
Kh an</w>
Kabu l</w>
Jos é</w>
Indone sian</w>
In stitu
IC C</w>
I l
I V</w>
Hur ricane</w>
H ig
H .
Gre xit</w>
Glas s-Steagall</w>
Gh raib</w>
G S
G OP</w>
G A
Fi f
F er
F ar
F ac
Europe -wide</w>
Eura sian</w>
Elec toral</w>
Eisen hower</w>
E mir
E hud</w>
Dom inique</w>
Di alogue</w>
Democr at</w>
D s</w>
D ilma</w>
D V
D S
Cri minal</w>
Confuci us</w>
Com mis
Com mer
Col umbia</w>
Co alition</w>
Cha pter</w>
Car ter</w>
CB O</w>
C lean</w>
C apit
Bre zhne
Bash ir</w>
B on
B P</w>
Ang ola</w>
Alger ian</w>
Ala wit
Ahmed inejad</w>
Afgh ans</w>
Af ter</w>
A ung</w>
A tt
A ca
9 1</w>
8 4</w>
8 2</w>
7 9</w>
7 8</w>
7 3</w>
5 8</w>
5 2</w>
3. 4</w>
2. 9</w>
2 P</w>
2 3
2 100</w>
198 5</w>
194 9</w>
1. 9</w>
1 st</w>
1 10</w>
-of- GDP</w>
&apos; ll</w>
zeal ots</w>
z o
yu an</w>
yi v</w>
y ard</w>
y ama</w>
writ es</w>
worsen s</w>
won ders</w>
win- win</w>
wh ales</w>
well- established</w>
weigh s</w>
wee k
web sites</w>
war rant</w>
w rest
w ra
voc ational</w>
vivi d</w>
view point</w>
vic tori
victori ous</w>
ve t</w>
vari ables</w>
valu ing</w>
vacc inated</w>
v ou
v end
v el
v as
vas cular</w>
v aries</w>
up turn</w>
up grade</w>
up end</w>
unfol ding</w>
undere mp
und ue</w>
und oc
undoc um
undocum ented</w>
unci ation</w>
unanim ity</w>
un settling</w>
un safe</w>
un productive</w>
un foreseen</w>
un fold</w>
un elected</w>
un covered</w>
un char
unchar ted</w>
un ambiguous</w>
un accountable</w>
um- wage</w>
ubiqu itous</w>
u pro
tw ins</w>
tu n</w>
trum p</w>
tric ks</w>
tri tion</w>
treat able</w>
trav ails</w>
trans mitted</w>
traffic kers</w>
trac tors</w>
trac ked</w>
tra w
tra ps</w>
tot alitarianism</w>
top ple</w>
too- big
too-big -to-
to olk
tim el
tif ada</w>
tic ket</w>
tic k</w>
ti ously</w>
ti ary</w>
ti an
thwar ted</w>
therapeu tic</w>
the- board</w>
the ater</w>
th es</w>
tex tile</w>
terri fying</w>
ter tiary</w>
ten ding</w>
te x</w>
te o</w>
te ga</w>
tax able</w>
tar nished</w>
tan t
tant amount</w>
ta stes</w>
t é</w>
t ar</w>
sy ner
sw ag
survi ving</w>
surrog acy</w>
sur pass</w>
supp lements</w>
supp lement</w>
supervis or</w>
sup pressed</w>
sup porter</w>
sun light</w>
sun k</w>
sub par</w>
strong man</w>
stric ken</w>
stri dent</w>
str ac
stor ing</w>
sto ked</w>
sti r
ste ering</w>
star ved</w>
stand still</w>
stake holder</w>
staff ed</w>
st um
st ain</w>
squee zed</w>
spir aling</w>
spe ople</w>
sour ced</w>
social- democratic</w>
so bering</w>
sle eping</w>
sky- high</w>
sion ism</w>
sigh ts</w>
shoul ders</w>
sho ot
shar k</w>
sh rew
sh ots</w>
sh ly</w>
sh ell</w>
sex ually</w>
seven th</w>
sel ec
se um</w>
se a-
sci ence-
schol ar</w>
scapego ats</w>
scapego at</w>
sc are</w>
satis fying</w>
sat lantic</w>
sap i
sapi ens</w>
s now</w>
s ance</w>
ru shed</w>
ru le-
ru in</w>
rol l
rock- bottom</w>
ro u</w>
ro of
ro bi</w>
risk- management</w>
righ t-
revolution aries</w>
rever t</w>
rev anch
resum ing</w>
respec tful</w>
remot ely</w>
remar ked</w>
reliev ed</w>
refl ation</w>
redund ant</w>
recomm ending</w>
rec laim</w>
rec ali
reas surance</w>
reas oned</w>
real- time</w>
reaffir med</w>
rea u</w>
re y</w>
re valuation</w>
re tribution</w>
re side</w>
re publi
republi can</w>
re places</w>
re location</w>
re distribute</w>
re d-
re built</w>
re acting</w>
ra ged</w>
ra -
quali fications</w>
quad ru
public- policy</w>
pu mped</w>
provi der</w>
protection ists</w>
prosecu tions</w>
prolifer ating</w>
prohib iting</w>
profli gacy</w>
profes sions</w>
prof iles</w>
proce eding</w>
pro tocol</w>
pro pped</w>
priv atized</w>
princi p
preci p
pre- emptive</w>
pre pares</w>
pre paredness</w>
pre emptive</w>
pr ong
prong ed</w>
post- election</w>
portra ys</w>
pon der</w>
poli cing</w>
po sting</w>
ple as</w>
pl ate
pit falls</w>
pho to</w>
philosoph ical</w>
philosoph ers</w>
pha sing</w>
perfor ms</w>
percent age-
percentage- point</w>
ped- country</w>
peac em
pe as
parano ia</w>
pan ics</w>
pal ace</w>
p ouring</w>
p ity</w>
p ale</w>
p acts</w>
ow ard</w>
overestim ate</w>
over turned</w>
over t</w>
outra ged</w>
ord ering</w>
oper a</w>
ong yang</w>
on ous</w>
oll s</w>
ol dest</w>
off spring</w>
off ending</w>
of t-
occurren ce</w>
oc queville</w>
objec tion</w>
o strac
o ked</w>
o ke</w>
nur tured</w>
nuc le
now den</w>
nom inated</w>
no tions</w>
no ff</w>
ni e</w>
nex us</w>
new er</w>
new born</w>
neutra lity</w>
neo liberalism</w>
neg lec
neglec ting</w>
near- term</w>
ne at</w>
ne are
nar ci
narci ssi
nan otechnology</w>
n ul
n in
n b</w>
n ad
multi tude</w>
mudd ling</w>
movi es</w>
motiv ations</w>
mosqu es</w>
mortg age-
money- market</w>
molec ular</w>
mob il
mobil e-
mo dic
modic um</w>
misunder standing</w>
mistak enly</w>
minim um-wage</w>
minim ized</w>
migh tily</w>
mid- century</w>
mi sh
mercanti list</w>
mer ging</w>
medi um
mathemati cal</w>
mari ju
mariju ana</w>
mar ty
mar ry</w>
manag erial</w>
maj or
m ity</w>
m illen
lu de</w>
long time</w>
lon gest</w>
loc als</w>
loc alized</w>
lob bi
lobbi ed</w>
lo om
ll ery</w>
liveli hood</w>
lin er</w>
lifel ine</w>
li bel</w>
lev eled</w>
lei sure</w>
legisl atures</w>
le xi
le vers</w>
law suits</w>
law lessness</w>
law ful</w>
lat ent</w>
lar g
larg esse</w>
lad der</w>
la yed</w>
la hs</w>
l ul
k u
k le
k ingdom</w>
ju st-
jiha dis</w>
jar at</w>
j ac
it or</w>
isol ating</w>
is tically</w>
is es</w>
ir rationality</w>
ir ment</w>
investig ated</w>
invent ories</w>
intimid ate</w>
interpre tations</w>
inter- governmental</w>
inter war</w>
inter viewed</w>
inter mit
inter governmental</w>
inter bank</w>
int entioned</w>
inspec tion</w>
inhab ited</w>
inf low</w>
indic ted</w>
incor rec
inci dence</w>
incen di
incendi ary</w>
in sure</w>
in capacity</w>
in accurate</w>
impe achment</w>
impa irment</w>
imbu ed</w>
im pressed</w>
ili tari
i Ph
hy e</w>
hy dra
hy dr
hurrican e</w>
human kind</w>
hu i</w>
hu bs</w>
horiz ons</w>
hel m</w>
head way</w>
he rein</w>
he red
haz ard
hazard ous</w>
hat ma</w>
harmon ized</w>
har t</w>
ham pering</w>
hal f
half way</w>
h it
h il
h emi
gu ess
gri ps</w>
great -
grandi ose</w>
grand father</w>
gni fied</w>
glu t</w>
glom er
gh ted</w>
g on
g loom</w>
g lam
g ently</w>
furi ous</w>
fulf ills</w>
fu tile</w>
fru it
fran c</w>
for given</w>
for b
follow -up</w>
fo es</w>
fli r
fl ung</w>
fin ish</w>
figh ts</w>
fic kle</w>
fem inism</w>
fe e</w>
fanati cs</w>
fab ric
f us
expon entially</w>
expon ential</w>
exp ulsion</w>
exp enses</w>
exp atri
exo dus</w>
ex changed</w>
eter nal</w>
es is</w>
erup tion</w>
er some</w>
envis aged</w>
envis age</w>
ener gi
end anger</w>
en roll</w>
en rich</w>
en mity</w>
embar k</w>
em anci
em ails</w>
eli tist</w>
electri cal</w>
ele phant</w>
east ward</w>
e de</w>
e back</w>
du ous</w>
drough t-
down fall</w>
doub ted</w>
dom ini
doctr ines</w>
do or
disu nity</w>
distri ct</w>
disper sed</w>
disp layed</w>
dis pose</w>
dis connect</w>
dis closed</w>
dis bur
dis advantages</w>
dir t</w>
dimini shes</w>
diff ers</w>
di vestment</w>
di ties</w>
di gnified</w>
develo ped-country</w>
destro ys</w>
dent ally</w>
den ouncing</w>
den ounce</w>
den ies</w>
democr atizing</w>
dem y</w>
defici ent</w>
def erred</w>
decades- old</w>
dec ency</w>
dead lock</w>
de posed</w>
de leverage</w>
dd led</w>
dam pen</w>
d acy</w>
cyc lically</w>
cy cl
cut backs</w>
custo dy</w>
cumb ersome</w>
cu le</w>
crow ding</w>
cre ature</w>
cr us
cr ates</w>
cr ack</w>
counter- terrorism</w>
counter v
counter cyclical</w>
coun ters</w>
coun sel</w>
cor related</w>
cor al</w>
cop y</w>
convic ted</w>
control l
contribu tors</w>
contrac tual</w>
contrac tionary</w>
contempl ating</w>
contempl ated</w>
consum es</w>
consist ed</w>
confron tational</w>
concer t</w>
concentr ations</w>
concentr ating</w>
concei ve</w>
con sump
con gress</w>
con firm
comple xi
compar atively</w>
comp ul
comp ounding</w>
commer cially</w>
comfort ably</w>
com eback</w>
colli sion</w>
col ors</w>
co s</w>
co s
co ins</w>
co dified</w>
clu sters</w>
clou ds</w>
clim bed</w>
clear- cut</w>
circul ating</w>
chemic al-weapons</w>
che er
character izes</w>
char m</w>
ch im
ch ant</w>
carri er</w>
car ic
car dio
cap tive</w>
cap s</w>
candi dacy</w>
cali phate</w>
calcul us</w>
ca regi
c ult</w>
c ites</w>
c enti
c attle</w>
c at</w>
buttre ss</w>
burge oning</w>
bur o</w>
buil t-
buil d-up</w>
bu mp
bu ffe
bu ck</w>
bru tally</w>
bro thers</w>
brid led</w>
bri efly</w>
bri bery</w>
bre wing</w>
bre ed</w>
br ush</w>
bottom -up</w>
borrow s</w>
borrow er</w>
bord ering</w>
boom ers</w>
bon us</w>
bol dness</w>
blu ster</w>
blow ing</w>
ble eding</w>
blan ket</w>
biom ass</w>
bi op
bi o-
betra yal</w>
behin d-the-
beh em
be set</w>
bat tered</w>
bar red</w>
bail ing</w>
back sliding</w>
b nb</w>
b le-
b ick
b ay</w>
awat ra</w>
avoi ds</w>
aver ages</w>
attrac ts</w>
att or
at tests</w>
asym metry</w>
asser ts</w>
aspi res</w>
asp iring</w>
as signed</w>
arti llery</w>
archit ects</w>
arbit er</w>
ar row</w>
applic able</w>
appli ances</w>
apo logy</w>
ap se</w>
ap pointe
ap h
anti- globalization</w>
anim ated</w>
and er
analy zing</w>
an a
allow ances</w>
alig ning</w>
al- Maliki</w>
al- Ah
al-Ah mar</w>
al lah</w>
al armed</w>
ais sance</w>
air line</w>
ag eous</w>
affor d
affili ated</w>
advis ory</w>
advi se</w>
advent u
advant ageous</w>
adop ts</w>
adap tive</w>
across- the-board</w>
accor ds</w>
aby sm
aboli shing</w>
ab h
Zh u</w>
Zar dari</w>
Z one</w>
Ye ars</w>
Y itz
Wil ders</w>
Western- style</w>
W ater</w>
W a
US SR</w>
U K
Tran satlantic</w>
Th ings</w>
T ocqueville</w>
T ob
Sta ff</w>
Spr atly</w>
So chi</w>
Shin awatra</w>
Ser vices</w>
SE C</w>
S tern</w>
S pe
S nowden</w>
Rogo ff</w>
Republi can-
Reg ulation</w>
R ice</w>
R BI</w>
Py ongyang</w>
Princi ples</w>
Pre ss</w>
Pow er
Poli tical</w>
Pe ter
Pash tun</w>
P om
P len
P lan
P M
P 5</w>
Okin awa</w>
OM T</w>
O pen</w>
O p
Nai robi</w>
N elson</w>
Mit t</w>
Mat teo</w>
Mar t</w>
Ma j
Ma hatma</w>
M iller</w>
M echan
Luxembour g</w>
Lu kash
Leon id</w>
Lef t</w>
La os</w>
L astly</w>
K yiv</w>
K am
J im
J ar
In te
In do-
In dependence</w>
IP L</w>
I r
I f</w>
I V
Hindu s</w>
H or
Gülen ists</w>
Guatem ala</w>
Gu jarat</w>
Gol an</w>
Gam al</w>
G E</w>
G B
G 8</w>
Fed eration</w>
F ar</w>
Ex change</w>
EFS F</w>
Delt a</w>
Dani el</w>
Dam asc
DP -
D uma</w>
D on
D R
D D
Com p
Co ast</w>
Chris tian
Cap ital</w>
CP I</w>
C ase</w>
C an</w>
C T
Bu reau</w>
Brezhne v</w>
Bol ton</w>
Bhu tan</w>
Bay rou</w>
B in</w>
B av
B ac
An dr
Americ an-
Al lies</w>
Al an</w>
Air bnb</w>
Aca demy</w>
A ll</w>
A id</w>
A P</w>
A C</w>
9 8</w>
5. 6</w>
5 00,000</w>
3. 8</w>
200 7-
20 40</w>
195 8</w>
195 7</w>
194 0s</w>
19 th</w>
1 25</w>
ü r
ñ a</w>
á s</w>
z hen
zhen it
zhenit sy
zhenitsy n</w>
z -
you thful</w>
x on
xon Mobil</w>
wrong ly</w>
wind fall</w>
wi ves</w>
wi re
wh ich
which ever</w>
well- meaning</w>
well- designed</w>
well- defined</w>
we ren</w>
wat ches</w>
war rants</w>
war lords</w>
war dness</w>
wal ked</w>
wa shing</w>
voc abu
vocabu l
vocabul ary</w>
vig or</w>
veter ans</w>
veri fy</w>
veh em
van guard</w>
v agu
v a
ur s</w>
upgra ded</w>
up unc
upunc ture</w>
up date</w>
unlea shing</w>
uni or</w>
ung -
unequi vocal</w>
und o</w>
un- hye</w>
un used</w>
un settled</w>
un reasonable</w>
un noticed</w>
un founded</w>
un conscious</w>
un can
un bridled</w>
un affordable</w>
un abated</w>
ud es</w>
ud a</w>
u rities</w>
two- year</w>
turn around</w>
tun ne
tu mul
tumul tuous</w>
trigg ers</w>
tric ate</w>
trib es</w>
tri be</w>
tri ang
treas on</w>
tre ss</w>
tre m
tre e</w>
transl ates</w>
trans mitting</w>
trans -
trac ks</w>
tr ans</w>
too-big-to- fail</w>
ton ic</w>
toler able</w>
to- peer</w>
to oth</w>
tivi ties</w>
tin ent</w>
tig li
th- largest</w>
teen th-century</w>
tec tonic</w>
te a</w>
ta h</w>
t te</w>
t s
t les</w>
t els</w>
sympa th
sw ung</w>
sw ana</w>
sur passing</w>
sup ra-
sun g</w>
sum mar
suff rage</w>
sub ur
sub scri
su l</w>
stymi ed</w>
struc turally</w>
struc tur
struc tion</w>
stre ams</w>
stig ma</w>
stig m
sti fled</w>
sti cians</w>
stereot ypes</w>
ste al</w>
stati sticians</w>
states man</w>
stat ecraft</w>
star ving</w>
stagn ate</w>
sta unch</w>
sta un
ss al</w>
specul ate</w>
sp ite</w>
sp he
sor ry</w>
some day</w>
some body</w>
soldi er</w>
soft- power</w>
so lic
small -
sli p
skyrocke ted</w>
six- party</w>
sion ment</w>
single- minded</w>
sin ks</w>
sin ki</w>
sil encing</w>
sig nature</w>
si zes</w>
si p
si es</w>
si de-
si ck
sho ots</w>
shi p
sha pes</w>
sha d
sh un
sh ining</w>
sh ack
servic e-
separ atists</w>
sen ses</w>
segre gation</w>
securi tization</w>
secre taries</w>
sec tarianism</w>
se less</w>
se am
scra p</w>
schol ar
scar red</w>
sc oring</w>
sc al
sag a</w>
s wee
s ni
s lowest</w>
s ch</w>
s al</w>
ru noff</w>
root ing</w>
robu stness</w>
ro sy</w>
risk- free</w>
ri g
revolution ized</w>
[...]
